{
  "src_word2id": {
    "<pad>": 0,
    "<s>": 1,
    "</s>": 2,
    "<unk>": 3,
    "\u306e": 4,
    "\u3001": 5,
    "\u3002": 6,
    "\u2581": 7,
    ")": 8,
    "(": 9,
    "\u5e74": 10,
    "\u306b": 11,
    "\u304c": 12,
    "\u3092": 13,
    "\u306f": 14,
    "\u3068": 15,
    "\u30fb": 16,
    "\u65e5": 17,
    "\u6708": 18,
    "\u300d": 19,
    "\u300c": 20,
    "\u3067": 21,
    "1": 22,
    "\u3057": 23,
    "2": 24,
    "3": 25,
    "-": 26,
    "8": 27,
    "\u304b\u3089": 28,
    "7": 29,
    "\uff5e": 30,
    "4": 31,
    "\u3067\u3042\u308b": 32,
    "\u3044": 33,
    "\u3057\u305f": 34,
    "\u308b": 35,
    "\u3059\u308b": 36,
    "\u3082": 37,
    "\u660e\u6cbb": 38,
    "6": 39,
    "5": 40,
    "\u305f": 41,
    "9": 42,
    "\u5c71": 43,
    "\u4eac\u90fd": 44,
    "\u304f": 45,
    "\u3084": 46,
    ":": 47,
    "\u300f": 48,
    "\u306a": 49,
    "\u308a": 50,
    "\u5bbf": 51,
    "10": 52,
    "\u5927": 53,
    "\u5bb6": 54,
    "\u4e2d": 55,
    "\u306a\u3069": 56,
    "\u5e02": 57,
    "\u304b": 58,
    "\u3068\u3057\u3066": 59,
    "\u3063\u305f": 60,
    "\u672c": 61,
    "\u306b\u306f": 62,
    "\u2581\u300e": 63,
    "\u300e": 64,
    "\u4e00": 65,
    "\u3066": 66,
    "\u5b50": 67,
    "\u304d": 68,
    "\u3067\u306f": 69,
    "12": 70,
    "\u795e": 71,
    "\u3089": 72,
    "\u6240": 73,
    "\u9593": 74,
    "\u65e7": 75,
    "\u4eba": 76,
    "\u3055\u308c\u305f": 77,
    "\u8005": 78,
    "C": 79,
    "\u305f\u3081": 80,
    "\u3053\u3068": 81,
    "\u3057\u3066": 82,
    "\u56fd": 83,
    "\u5730": 84,
    "\u4e8b": 85,
    ")\u3001": 86,
    "\u308c": 87,
    "\u2581\u307e\u305f": 88,
    "\u3046": 89,
    "\u5f8c": 90,
    "\u3068\u3044\u3046": 91,
    "\u99c5": 92,
    "\u7dda": 93,
    "\u65b0": 94,
    "\u4e0a": 95,
    "\u304c\u3042\u308b": 96,
    "\u3088\u308a": 97,
    "\u6771": 98,
    "\u5f62": 99,
    "11": 100,
    "\u65e5\u672c": 101,
    "0": 102,
    "\u884c": 103,
    "\u540d": 104,
    "\u660e": 105,
    "\u53f7": 106,
    "\u5217\u8eca": 107,
    "\u898b": 108,
    "\u5929\u7687": 109,
    "\u300f(": 110,
    "\u533a": 111,
    "\u5973": 112,
    "JR": 113,
    "IC": 114,
    "\u3055\u308c": 115,
    "\u3059": 116,
    "\u4e3b": 117,
    "\u6642": 118,
    "\u4e0b": 119,
    "\u6d3e": 120,
    "\u4e09": 121,
    ".": 122,
    "\u3081": 123,
    "\u3064": 124,
    "\u662d\u548c": 125,
    "\u3058": 126,
    "\u7530": 127,
    "\u3061": 128,
    "\u8aac": 129,
    "\u897f": 130,
    "\u5185": 131,
    "\u9577": 132,
    "\u2581\u5927\u540d": 133,
    "\u3066\u3044\u308b": 134,
    "\u5206": 135,
    "\u8eca": 136,
    "\u5948\u826f": 137,
    "\u753a": 138,
    "\u904b\u8ee2": 139,
    "\u3048": 140,
    "\u9053": 141,
    "\u90e8": 142,
    "\u7acb": 143,
    "\u6559": 144,
    "\u51fa": 145,
    "\u4e8c": 146,
    "\u66f8": 147,
    "\u5927\u540d": 148,
    "\u307e\u3067": 149,
    "\u3055\u308c\u308b": 150,
    "\u58f0\u660e": 151,
    "\u5b66": 152,
    "\u751f": 153,
    "\u9244\u9053": 154,
    "\u5bfa": 155,
    "\u4efb": 156,
    "\u2581\u56fd\u9244": 157,
    "\u3053": 158,
    "20": 159,
    "\u3055\u308c\u3066\u3044\u308b": 160,
    "\u7537": 161,
    "\u7687": 162,
    "18": 163,
    "\u5929": 164,
    "\u88fd": 165,
    "\u5316": 166,
    "\u4e21": 167,
    "\u6709": 168,
    "NHK": 169,
    "km": 170,
    "\u958b\u696d": 171,
    "\u3063\u3066": 172,
    "\u307e": 173,
    "\u5c06\u8ecd": 174,
    "30": 175,
    "\u3001\u300c": 176,
    "\u5ddd": 177,
    "\u6d41": 178,
    "\u3067\u3042\u308a": 179,
    "\u53f7\u6a5f": 180,
    "\u3082\u3042\u308b": 181,
    "13": 182,
    "\u305d\u306e": 183,
    "\u258119": 184,
    "\u3051": 185,
    "\u2581\u300c": 186,
    "19": 187,
    "\u3093": 188,
    "\u79f0": 189,
    "\u3060": 190,
    "\u6b63": 191,
    "\u85e9": 192,
    "\u305a": 193,
    "\u89aa": 194,
    "\u6587": 195,
    "\u5b97": 196,
    "\u65b9": 197,
    "\u571f": 198,
    "\u6f14": 199,
    "\u5fb3\u5ddd": 200,
    "\u3068\u306a\u308b": 201,
    "\u25814": 202,
    "15": 203,
    "\u7b2c": 204,
    "\u5f0f": 205,
    "\u5143": 206,
    "\u9662": 207,
    "\u9ad8": 208,
    "\u516c": 209,
    "\u5074": 210,
    "\u547d": 211,
    "\u6bd4\u53e1\u5c71": 212,
    "\u3082\u306e": 213,
    "\u307f": 214,
    "(186": 215,
    "\u306a\u3044": 216,
    "\u3078": 217,
    "\u3057\u3066\u3044\u308b": 218,
    "\u6176\u559c": 219,
    "\u4ee3": 220,
    "\u8a71": 221,
    "\u53e4": 222,
    "\u5168": 223,
    "\u5165": 224,
    "\u8a18": 225,
    "\u30fc": 226,
    "\u767a": 227,
    "\u5efa": 228,
    "JCT": 229,
    "\u5948\u826f\u7dda": 230,
    "\u5927\u5c71\u5d0e": 231,
    "\u4fe1": 232,
    "\u66a6": 233,
    "\u5e73\u6210": 234,
    "\u8ee2\u5165": 235,
    "\u5f62\u84b8\u6c17\u6a5f\u95a2\u8eca": 236,
    "\u306a\u304b\u3063\u305f": 237,
    "\u300d(": 238,
    "\u2581198": 239,
    "\u306b\u3088\u308a": 240,
    "\u6c0f\u306e": 241,
    "\u3055": 242,
    "\u524d": 243,
    "\u5bae": 244,
    "22": 245,
    "\u539f": 246,
    "\u985e": 247,
    "\u958b": 248,
    "\u4f5c": 249,
    "\u4f1a": 250,
    "\u304a": 251,
    "\u5317": 252,
    "\u6bd4": 253,
    "\u30b9": 254,
    "\u2581\u3057\u304b\u3057": 255,
    "\u4fdd\u5b58": 256,
    "\u5929\u667a": 257,
    "\u5927\u5b66": 258,
    "\u308b\u3053\u3068": 259,
    "\u4eac\u90fd\u5e9c": 260,
    "\u2581\u3053\u306e": 261,
    "\u3089\u308c": 262,
    "\u3068\u3082": 263,
    "\u306a\u308b": 264,
    "62": 265,
    "\u540c": 266,
    "\u901a": 267,
    "\u671d": 268,
    "\u3068\u306a\u3063\u305f": 269,
    "\u5b9a": 270,
    "\u6642\u4ee3": 271,
    "\u5225": 272,
    "\u7528": 273,
    "\u5e73": 274,
    "\u6cd5": 275,
    "\u6700": 276,
    "\u5fa1": 277,
    "\u4e21\u7de8\u6210": 278,
    "\u6a5f\u95a2\u533a": 279,
    "\u5927\u6cb3\u30c9\u30e9\u30de": 280,
    "\u7236": 281,
    "\u305d\u308c": 282,
    "\u5927\u6b63": 283,
    "\u3044\u305f": 284,
    "\u308f": 285,
    "\u3078\u306e": 286,
    "\u5b87\u6cbb": 287,
    "\u793e": 288,
    "\u6539": 289,
    "\u8fd1": 290,
    "\u696d": 291,
    "\u5b9f": 292,
    "\u306b\u3088\u308b": 293,
    "\u4f4d": 294,
    "\u5fc3": 295,
    "\u6027": 296,
    "\u6771\u6d77\u9053": 297,
    "\u76f4": 298,
    "\u9580": 299,
    "\u5e74\u8eca\u7c4d\u62b9\u6d88": 300,
    "\u9759\u5ca1\u770c": 301,
    "\u738b": 302,
    "\u5ec3\u6b62": 303,
    "\u57ce": 304,
    "\u2581200": 305,
    "\u3066\u3044\u305f": 306,
    "198": 307,
    "\u4f1d": 308,
    "\u3089\u308c\u305f": 309,
    "\u8a2d\u7f6e": 310,
    "\u6c5f\u6238": 311,
    "21": 312,
    "\u5e55\u5e9c": 313,
    "\u683c": 314,
    "\u5927\u962a": 315,
    "\u306b\u3082": 316,
    "\u7cfb": 317,
    "\u52d5": 318,
    "\u76ee": 319,
    "\u53c2": 320,
    "\u30af": 321,
    "\u4f0f\u898b": 322,
    "\u91cd": 323,
    "\u69d8": 324,
    "S": 325,
    "\u306b\u3088\u3063\u3066": 326,
    "\u516b": 327,
    "M": 328,
    "\u96c6": 329,
    "\u4e94": 330,
    "D": 331,
    "\u624b": 332,
    "\u6795\u8349\u5b50": 333,
    "24": 334,
    "\u9053\u5143": 335,
    "29": 336,
    "\u2581\u660e\u6cbb": 337,
    "200": 338,
    "\u3068\u306f": 339,
    ")-": 340,
    "\u3088\u3046": 341,
    "\u306a\u308a": 342,
    "17": 343,
    "\u6c0f": 344,
    "\u25813": 345,
    "\u3067\u3042\u3063\u305f": 346,
    "\u3042": 347,
    "\u5834\u5408": 348,
    "\u3053\u306e": 349,
    "\u5929\u7167\u5927\u795e": 350,
    "\u2581199": 351,
    "\u306b\u304a\u3044\u3066": 352,
    "\u3001\u300e": 353,
    "\u591a": 354,
    "53": 355,
    "\u7121": 356,
    "\u6210": 357,
    "\u671f": 358,
    "\u7269": 359,
    "I": 360,
    "\u8def\u7dda": 361,
    "\u95a2": 362,
    "\u8ee2": 363,
    "\u8a00": 364,
    "\u77e5": 365,
    "\u7406": 366,
    "\u548c": 367,
    "\u7d4c": 368,
    "\u91d1": 369,
    "\u4fee": 370,
    "\u30eb": 371,
    "\u2192": 372,
    "\u5009": 373,
    "\u5dfb": 374,
    "\u6ce8": 375,
    "\u671d\u5ef7": 376,
    "\u706b": 377,
    "\u3076": 378,
    "\u95a2\u4fc2": 379,
    "\u52d5\u614b": 380,
    "1979": 381,
    "\u306a\u304f": 382,
    "\u25812": 383,
    "\u7684": 384,
    "14": 385,
    "\u6301": 386,
    "\u6176\u559c\u306e": 387,
    "\u56fd\u9244": 388,
    "\u300d\u300c": 389,
    "\u56fd\u9053": 390,
    "\u6d25": 391,
    "23": 392,
    "\u5236": 393,
    "\u5f53": 394,
    "\u9928": 395,
    "\u672c\u9858\u5bfa": 396,
    "\u6765": 397,
    "\u5cf6": 398,
    "\u6728": 399,
    "\u4e16": 400,
    "\u5149": 401,
    "\u5b88": 402,
    "\u601d": 403,
    "\u90e1": 404,
    "\u5c0f": 405,
    "\u8af8": 406,
    "\u6b4c": 407,
    "\u2581\u753b\u50cf": 408,
    "/": 409,
    "\u6885\u5c0f\u8def": 410,
    "\u7956": 411,
    "\u3070": 412,
    "\u7fa9": 413,
    "B": 414,
    "\u611b": 415,
    "\u3072": 416,
    "\u30a2\u30de\u30c6\u30eb": 417,
    "\u897f\u65e5\u672c": 418,
    "\u5fb3\u5ddd\u6176\u559c": 419,
    "\u3060\u3063\u305f": 420,
    "\u7d50\u5a5a": 421,
    "\u3092\u53d7\u3051": 422,
    "\u307f\u3084\u3053\u8def\u5feb\u901f": 423,
    "\u77f3": 424,
    "\u3068\u79f0": 425,
    "\u5929\u7167": 426,
    "\u3055\u305b": 427,
    "\u2581\u540c": 428,
    "\u3068\u3059\u308b": 429,
    "28": 430,
    "\u610f": 431,
    "\u3057\u3066\u3044\u305f": 432,
    "\u5fb3\u5ddd\u5bb6": 433,
    "\u305b": 434,
    "\u4ee5": 435,
    "\u6b66": 436,
    "\u8c37": 437,
    "\u4fdd": 438,
    "\u6a5f": 439,
    "\u73fe": 440,
    "\u7cfb\u96fb\u8eca": 441,
    "\u5728": 442,
    "\u6ecb\u8cc0\u770c": 443,
    "\u76f8": 444,
    "\u57fa": 445,
    "\u5408": 446,
    "a": 447,
    "\u9053\u8def": 448,
    "\u52c5": 449,
    "\u6b21": 450,
    "\u82b1": 451,
    "\u592b": 452,
    "\u597d": 453,
    "\u8a33": 454,
    "\u6795": 455,
    "\u3075": 456,
    "\u4ee5\u964d": 457,
    "\u65e5\u672c\u66f8\u7d00": 458,
    "\u6b63\u6cd5\u773c\u8535\u968f\u805e\u8a18": 459,
    "\u7de8": 460,
    "\u5148": 461,
    "\u3051\u3044\u304d": 462,
    "\u5de6": 463,
    "\u8b77": 464,
    "\u307b\u304b": 465,
    "\u3073": 466,
    "\u5929\u7167\u5927\u5fa1\u795e": 467,
    "\u2581\u306a\u304a": 468,
    "\u3046\u3061": 469,
    "16": 470,
    "\u308c\u305f": 471,
    "\u6c5f\u6238\u6642\u4ee3": 472,
    "\u306b\u304a\u3044\u3066\u306f": 473,
    "\u25815": 474,
    "\u3068\u3059\u308b\u8aac": 475,
    "\u306a\u3063\u3066\u3044\u308b": 476,
    "47": 477,
    "\u3068\u3057\u3066\u306e": 478,
    "\u73fe\u5728": 479,
    "\u6307": 480,
    "\u3082\u3042\u308a": 481,
    "\u3068\u3057\u305f": 482,
    "50": 483,
    "\u4eac\u6ecb\u30d0\u30a4\u30d1\u30b9": 484,
    "\u306b\u3064\u3044\u3066": 485,
    "\u6728\u6d25": 486,
    "\u3042\u308b": 487,
    "\u90fd": 488,
    "\u3069": 489,
    "\u6839": 490,
    "\u4f53": 491,
    "\u5f1f": 492,
    "\u81ea": 493,
    "\u6a4b": 494,
    "\u672b": 495,
    "\u56db": 496,
    "\u9020": 497,
    "\u84b8\u6c17\u6a5f\u95a2\u8eca": 498,
    "\u5982": 499,
    "\u653f": 500,
    "\u554f": 501,
    "\u5171": 502,
    "\u30f3": 503,
    "\u4ea4": 504,
    "\u5de5": 505,
    "\u89b3": 506,
    "\u4e07": 507,
    "\u5357": 508,
    "\u70b9": 509,
    "\u653e\u9001": 510,
    "\u52dd": 511,
    "\u9332": 512,
    "\u65cf": 513,
    "o": 514,
    "\u9818": 515,
    "\u4e95": 516,
    "\u97f3": 517,
    "\u5f35": 518,
    "\u4f50": 519,
    "\u5927\u653f\u5949\u9084": 520,
    "m": 521,
    "\u938c\u5009\u6642\u4ee3": 522,
    "\u796d": 523,
    "\u5f93": 524,
    "A": 525,
    "\u83ef": 526,
    "\u6570": 527,
    "\u5175": 528,
    "\u30c9\u30e9\u30de": 529,
    "\u4e4b": 530,
    "\u5e2b": 531,
    "\u53ce": 532,
    "\u5411": 533,
    "\u6e05\u5c11\u7d0d\u8a00": 534,
    "\u4eca": 535,
    "\u6751": 536,
    "\u702c\u7530\u6771": 537,
    "\u6176\u5fdc": 538,
    "\u6b7b\u53bb": 539,
    "\u5ef6": 540,
    "\u56db\u660e\u5cb3": 541,
    "196": 542,
    "\u3055\u3089\u306b": 543,
    "\u897f\u65e5\u672c\u65c5\u5ba2\u9244\u9053": 544,
    "\u5b58\u5728": 545,
    "\u6728\u6d25\u99c5": 546,
    "\u8535\u672c": 547,
    "\u4e00\u6a4b": 548,
    "\u5bb6\u81e3": 549,
    "\u3093\u3060": 550,
    "\u795e\u793e": 551,
    "\u3066\u3044\u306a\u3044": 552,
    "\u3081\u305f": 553,
    "\u304c\u591a\u3044": 554,
    "\u4eac\u90fd\u99c5": 555,
    "51": 556,
    "40": 557,
    "\u5f8c\u306b": 558,
    ",": 559,
    "\u3063": 560,
    "\u540d\u795e\u9ad8\u901f\u9053\u8def": 561,
    "\u5ea6": 562,
    "\u4f7f\u7528": 563,
    "\u7bc9": 564,
    "\u306b\u79fb": 565,
    "\u3088\u3046\u306b": 566,
    "\u5742": 567,
    "\u9803": 568,
    "\u30c6\u30ec\u30d3": 569,
    "\u5b89": 570,
    "\u4e0d": 571,
    "\u8868\u8a18": 572,
    "\u53e3": 573,
    "\u3092\u53d7\u3051\u3066": 574,
    "\u652f": 575,
    "\u6bcd": 576,
    "\u8077": 577,
    "\u82f1": 578,
    "\u5b57": 579,
    "\u8f9e": 580,
    "\u8ad6": 581,
    "\u3080": 582,
    "\u7ae0\u6bb5": 583,
    "i": 584,
    "\u653f\u6cbb": 585,
    "\u6589\u662d": 586,
    "\u9589": 587,
    "\u5404": 588,
    "N": 589,
    "\u9023": 590,
    "\u529b": 591,
    "\u5b9d": 592,
    "T": 593,
    "\u938c": 594,
    "\u85a9\u6469\u85e9": 595,
    "\u54c1": 596,
    "\u98a8": 597,
    "\u5712": 598,
    "\u5a18": 599,
    "\u6298": 600,
    "\u5f18": 601,
    "\u9000": 602,
    "\u5409": 603,
    "\u80b2": 604,
    "\u3054": 605,
    "\u826f": 606,
    "\u6d77": 607,
    "\u898b\u3089\u308c\u308b": 608,
    "\u5199\u771f": 609,
    "\u8272": 610,
    "\u5468": 611,
    "\u9632": 612,
    "\u3050": 613,
    "\u795e\u5948\u5ddd\u770c": 614,
    "\u304e": 615,
    "\u7570": 616,
    "\u4e45\u5fa1\u5c71\u6dc0": 617,
    "\u958b\u59cb": 618,
    "\u516c\u7235": 619,
    "\u306e\u4e00\u3064": 620,
    "\u8eca\u7c4d": 621,
    "\u990a\u5b50": 622,
    "\u81ea\u5206": 623,
    "\u958b\u901a": 624,
    "\u3055\u3093": 625,
    "\u88fd\u4f5c": 626,
    "\u4eba\u7269": 627,
    "\u5927\u962a\u5e02": 628,
    "\u7684\u306a": 629,
    "\u5927\u8c37": 630,
    "\u795e\u5bae": 631,
    "\u795e\u8a71": 632,
    "\u3089\u305a": 633,
    "\u5927\u539f": 634,
    "\u307e\u3067\u306e": 635,
    "\u4e00\u90e8": 636,
    "\u5927\u6d25\u5e02": 637,
    "\u2581\u3053\u308c\u306f": 638,
    "\u751f\u307e\u308c": 639,
    "1.": 640,
    "3.": 641,
    "\u6821": 642,
    "\u304c\u3042\u3063\u305f\u304c": 643,
    "\u3044\u308b": 644,
    ")3": 645,
    "\u3044\u3066": 646,
    "\u6176\u559c\u3092": 647,
    "\u3068\u3055\u308c\u308b": 648,
    "\u3048\u308b": 649,
    "\u2581193": 650,
    "\u533a\u9593": 651,
    "\u9593\u306f": 652,
    "\u73fe\u5728\u306e": 653,
    "38": 654,
    "7.": 655,
    "0.": 656,
    "\u308f\u308c\u308b": 657,
    ")9": 658,
    "5.": 659,
    "\u304c\u3042\u3063\u305f": 660,
    "\u3068\u3057\u3066\u306f": 661,
    "\u305f\u3082\u306e": 662,
    "2.": 663,
    "25": 664,
    "\u7b49": 665,
    "\u6b73": 666,
    "\u81e3": 667,
    "\u3088": 668,
    "\u5ca1": 669,
    "\u8eab": 670,
    "\u8535": 671,
    "\u4ecf": 672,
    "\u5fb3": 673,
    "\u5373\u4f4d": 674,
    "\u91ce": 675,
    "\u5bfe": 676,
    "\u5229": 677,
    "\u57ce\u967d": 678,
    "\u5e55": 679,
    "\u8868": 680,
    "\u5834": 681,
    "\u521d": 682,
    "\u7dcf": 683,
    "\u5fa9": 684,
    "\u8a9e": 685,
    "\u60f3": 686,
    "\u8b70": 687,
    "\u767d": 688,
    "\u614b": 689,
    "\u8349": 690,
    "\u7d42": 691,
    "\u6a29": 692,
    "\u6238": 693,
    "\u30a4": 694,
    "\u6587\u5eab": 695,
    "\u5927\u548c\u8def\u7dda": 696,
    "\u592a": 697,
    "\u30a2": 698,
    "\u8208": 699,
    "\u89e3": 700,
    "\u9054": 701,
    "\u5c45": 702,
    "\u4e45": 703,
    "\u6ca2": 704,
    "\u6226": 705,
    "\u7d50": 706,
    "\u5b6b": 707,
    "\u5ff5": 708,
    "\u65ad": 709,
    "\u5c0a": 710,
    "P": 711,
    "\u8a08\u753b": 712,
    "\u306d": 713,
    "\u5186": 714,
    "\u4ec1": 715,
    "\u7136": 716,
    "\u30b7": 717,
    "\u6b63\u6cd5\u773c\u8535": 718,
    "E": 719,
    "\u8eca\u7c4d\u3042\u308a": 720,
    "\u7f8e": 721,
    "\u6843\u5c71\u9593": 722,
    "\u30b9\u30b5\u30ce\u30aa": 723,
    "\u5f66": 724,
    "\u50e7": 725,
    "\u9855": 726,
    "\u30ce": 727,
    "\u656c": 728,
    "\u96d1": 729,
    "\u7565": 730,
    "\u5dee": 731,
    "\u9996": 732,
    "\u5f7c": 733,
    "\u7d04": 734,
    "\u6d44\u571f\u771f\u5b97": 735,
    "\u6e05\u6c34": 736,
    "\u306e\u5bbf\u5834": 737,
    "\u8d77\u70b9": 738,
    "\u904b\u7528": 739,
    "\u4ee5\u5916": 740,
    "\u306e\u6b7b\u5f8c": 741,
    "\u3068\u8a00\u308f\u308c": 742,
    "\u7cfb\u7d71": 743,
    "\u677e\u5e73": 744,
    "\u610f\u5473": 745,
    "\u5929\u6b66\u5929\u7687": 746,
    "\u4ee5\u6765": 747,
    "\u5185\u5927\u81e3": 748,
    "\u4ea4\u901a": 749,
    "\u4ecf\u6559": 750,
    "\u897f\u5712\u5bfa\u5bb6": 751,
    "\u9662\u6d41": 752,
    "\u307e\u3060": 753,
    "\u5225\u540d": 754,
    "\u5168\u56fd": 755,
    "\u3053\u3046": 756,
    "\u7537\u795e": 757,
    "\u5973\u795e": 758,
    "\u5e74\u5ddd\u5d0e": 759,
    "\u3068\u3068\u3082\u306b": 760,
    "\u304b\u3063\u305f": 761,
    "\u3093\u3067": 762,
    "\u308b\u305f\u3081": 763,
    "\u3082\u3042\u3063\u305f": 764,
    "(185": 765,
    "\u306b\u3042": 766,
    "\u5834\u5408\u306f": 767,
    "\u7687\u5927\u795e\u5bae": 768,
    "197": 769,
    "\u3057\u304d": 770,
    "\u3068\u547c\u3070\u308c\u308b": 771,
    "(18": 772,
    "\u305f\u3044": 773,
    "\u3001200": 774,
    "\u5f53\u6642\u306e": 775,
    "45": 776,
    "\u3051\u308b": 777,
    "\u3053\u3068\u304b\u3089": 778,
    "27": 779,
    "\u3067\u3082": 780,
    "6.": 781,
    "\u3082\u3068": 782,
    "\u4ee5\u5f8c\u306f": 783,
    "\u306e\u610f": 784,
    "4.": 785,
    "\u7684\u306b": 786,
    "\u2581\u4eac\u90fd": 787,
    "\u3059\u308b\u3053\u3068": 788,
    "26": 789,
    "\u533a\u9593\u5feb\u901f": 790,
    "\u5f53\u6642": 791,
    "\u4ee3\u5c06\u8ecd": 792,
    "\u306e\u307f": 793,
    "\u307e\u305f": 794,
    "70": 795,
    "\u53d7": 796,
    "\u8a2d": 797,
    "\u8aad": 798,
    "\u6761": 799,
    "\u6771\u4eac": 800,
    "\u591a\u3044": 801,
    "\u685c\u4e95\u7dda": 802,
    "\u53d6": 803,
    "\u5ba4": 804,
    "\u306b\u5bfe\u3057": 805,
    "\u5c5e": 806,
    "\u3005": 807,
    "\u5feb\u901f": 808,
    "\u7d71": 809,
    "\u4eac": 810,
    "\u8853": 811,
    "\u7a2e": 812,
    "\u5e83": 813,
    "\u96e2": 814,
    "\u53f0": 815,
    "\u5217": 816,
    "\u771f": 817,
    "\u8ecd": 818,
    "\u8ff0": 819,
    "\u4e88": 820,
    "\u8003": 821,
    "\u4ed8": 822,
    "\u6c34\u6238": 823,
    "\u65bd\u8a2d": 824,
    "\u8449": 825,
    "\u793a": 826,
    "\u5f97": 827,
    "\u623f": 828,
    "\u754c": 829,
    "\u5c4b": 830,
    "\u30b3": 831,
    "\u5fdc": 832,
    "\u58eb": 833,
    "\u5916": 834,
    "\u56de": 835,
    "\u30b8": 836,
    "\u4e00\u822c": 837,
    "\u535a": 838,
    "\u7b46": 839,
    "\u6bbf": 840,
    "\u9001": 841,
    "\u6ce2": 842,
    "\u968e": 843,
    "\u30c8": 844,
    "\u4e71": 845,
    "\u547c": 846,
    "\u5883": 847,
    "\u559c": 848,
    "\u8b5c\u4ee3\u5927\u540d": 849,
    "\u679d": 850,
    "\u5178": 851,
    "\u6e90": 852,
    "\u982d": 853,
    "\u52e2": 854,
    "\u5c06\u8ecd\u7d99\u55e3": 855,
    "t": 856,
    "\u6388": 857,
    "\u30ab": 858,
    "\u517c": 859,
    "\u7687\u7956\u795e": 860,
    "\u5931": 861,
    "\u5f71": 862,
    "\u6bba": 863,
    "\u304a\u3088\u3073": 864,
    "\u3060\u3044\u307f\u3087\u3046": 865,
    "\u6975": 866,
    "\u99ac": 867,
    "\u5247": 868,
    "\u52dd\u6d77\u821f": 869,
    "\u58f2": 870,
    "\u30ec": 871,
    "\u7d19": 872,
    "\u53cd": 873,
    "\u5bdb": 874,
    "\u6211": 875,
    "\u6c7a": 876,
    "\u6557": 877,
    "\u6625": 878,
    "\u7bc0": 879,
    "\u843d": 880,
    "\u90b8": 881,
    "\u9ad8\u91ce\u5c71": 882,
    "\u30c0\u30a4\u30e4": 883,
    "\u5927\u65e5\u5b41\u8cb4": 884,
    "\u5c06\u8ecd\u5f8c\u898b\u8077": 885,
    "\u30d5": 886,
    "\u6d88": 887,
    "\u79d1": 888,
    "\u53d9": 889,
    "\u56e3": 890,
    "\u5e30": 891,
    "\u64ae\u5f71": 892,
    "\u975e": 893,
    "JNR": 894,
    "\u9759\u5ca1\u770c\u9759\u5ca1\u5e02": 895,
    "\u4eac\u90fd\u7b2c\u4e8c\u5916\u74b0\u72b6\u9053\u8def": 896,
    "\u5c0e": 897,
    "\u5c40": 898,
    "\u62ec": 899,
    "\u8f38\u9001": 900,
    "\u9053\u5143\u7985\u5e2b": 901,
    "\u4e09\u5dfb\u672c": 902,
    "\u5144": 903,
    "\u67f1": 904,
    "\u8f0c": 905,
    "\u5927\u6bd4\u53e1": 906,
    "\u5c4b\u6577": 907,
    "\u82b8": 908,
    "\u56e0": 909,
    "\u7686": 910,
    "\u8fd1\u9244\u4eac\u90fd\u7dda": 911,
    "\u6574\u5099": 912,
    "\u30df": 913,
    "\u306b\u3042\u305f\u308b": 914,
    "\u5ef6\u66a6\u5bfa": 915,
    "\u540d\u53e4\u5c4b": 916,
    "\u3092\u6301\u3064": 917,
    "\u6e80": 918,
    "\u96c5": 919,
    "\u30a4\u30f3\u30bf\u30fc\u30c1\u30a7\u30f3\u30b8": 920,
    "\u7701": 921,
    "\u7559": 922,
    "\u3042\u308b\u3044\u306f": 923,
    "\u554f\u984c": 924,
    "\u73fe\u5b58": 925,
    "\u97f3\u697d": 926,
    "\u583a\u672c": 927,
    "\u3056\u3093": 928,
    "\u7a2e\u5225": 929,
    "\u5927\u5965": 930,
    "\u7d42\u70b9": 931,
    "\u6851\u540d": 932,
    "\u4e16\u754c": 933,
    "\u897f\u5712\u5bfa\u516c": 934,
    "\u5185\u5bb9": 935,
    "\u5f15\u304d": 936,
    "\u4e00\u6a4b\u5fb3\u5ddd\u5bb6": 937,
    "\u96fb\u5316": 938,
    "\u958b\u8a2d": 939,
    "\u5929\u53f0\u58f0\u660e": 940,
    "\u51fa\u7248": 941,
    "\u592a\u967d\u795e": 942,
    "\u2581\u6176\u559c\u306f": 943,
    "\u6c5f\u6238\u5e55\u5e9c": 944,
    "\u88fd\u9020": 945,
    "\u667a\u5c71": 946,
    "\u901a\u89aa": 947,
    "\u8c4a\u5c71": 948,
    "\u53d6\u308a": 949,
    "\u5f1f\u5b50": 950,
    "\u300f(200": 951,
    "\u300f(198": 952,
    "(189": 953,
    "\u2581\u53f8\u99ac\u907c\u592a\u90ce": 954,
    "\u5f62\u5f0f": 955,
    "\u5168\u7dda": 956,
    "\u90e8\u5206": 957,
    "\u5f53\u521d\u306f": 958,
    "\u2581187": 959,
    "\u591a\u304f": 960,
    "\u4f1d\u672c": 961,
    "\u4ee5\u524d": 962,
    "\u7687\u5b50": 963,
    "\u795e\u9053": 964,
    "\u524d\u7530": 965,
    "\u6642\u9593": 966,
    "(190": 967,
    "\u3066\u304a\u308a": 968,
    "\u2581190": 969,
    "35": 970,
    "\u306b\u306a\u308b": 971,
    "\u306f\u56fd\u9053": 972,
    "\u306a\u304b": 973,
    "67": 974,
    "\u3068\u3057\u3066\u3044\u308b": 975,
    "\u3068\u3055\u308c\u3066\u3044\u308b": 976,
    "\u5f8c\u3082": 977,
    "\u3044\u3046": 978,
    "\u524d\u306b": 979,
    "(191": 980,
    "\u2581195": 981,
    "\u2581194": 982,
    "\u306b\u3057\u3066": 983,
    "\u2581\u5929\u7167\u5927\u795e": 984,
    "\u4f1d\u3048": 985,
    "\u3088\u3046\u306b\u306a": 986,
    "\u3092\u6307\u3059": 987,
    ",19": 988,
    "\u305b\u305f": 989,
    "2006": 990,
    "\u308c\u3066": 991,
    "\u305d\u3046": 992,
    "\u3066\u3093": 993,
    "\u3055\u308c\u3066": 994,
    "\u305d": 995,
    "\u85e4\u539f": 996,
    "\u4e07\u77f3": 997,
    "\u3048\u3066": 998,
    "\u306b\u3042\u308b": 999,
    "\u6539\u9769": 1000,
    "\u3068\u306a\u3063": 1001,
    "\u6575": 1002,
    "\u2581\u3053\u308c": 1003,
    "\u6642\u4ee3\u306b\u306f": 1004,
    "\u79fb": 1005,
    "\u6c5f\u6238\u57ce": 1006,
    "\u6b8b": 1007,
    "\u548c\u6b4c\u5c71": 1008,
    "\u306b\u306a\u3063\u3066": 1009,
    "\u308d": 1010,
    "\u7d9a": 1011,
    "\u897f\u5712\u5bfa": 1012,
    "\u8c4a": 1013,
    "\u990a": 1014,
    "\u5207": 1015,
    "\u4ed6": 1016,
    "\u770c": 1017,
    "\u51e6": 1018,
    "\u9762": 1019,
    "\u96fb": 1020,
    "\u56f3": 1021,
    "\u7248": 1022,
    "\u308f\u308c": 1023,
    "\u7ba1": 1024,
    "\u677e": 1025,
    "\u5e38": 1026,
    "\u2252": 1027,
    "\u5358": 1028,
    "\u5929\u53f0": 1029,
    "\u5eb7": 1030,
    "\u90ce": 1031,
    "\u30f6": 1032,
    "\u69cb": 1033,
    "\u78ba": 1034,
    "\u7d00": 1035,
    "\u5177": 1036,
    "\u5c55\u793a": 1037,
    "\u9686": 1038,
    "\u96a0": 1039,
    "\u5b98": 1040,
    "\u5341": 1041,
    "\u6c5f": 1042,
    "\u75c5": 1043,
    "\u5ec3": 1044,
    "\u6e05": 1045,
    "\u5ba2": 1046,
    "\u798f": 1047,
    "\u5916\u69d8\u5927\u540d": 1048,
    "\u72ec": 1049,
    "\u8b72": 1050,
    "\u6176\u559c\u672c\u4eba": 1051,
    "\u767e\u6e08": 1052,
    "\u5802": 1053,
    "\u5f31": 1054,
    "\u6212": 1055,
    "\u753b": 1056,
    "\u4ea1": 1057,
    "\u7e01": 1058,
    "\u542b": 1059,
    "\u53f3": 1060,
    "\u6ec5": 1061,
    "\u8239": 1062,
    "\u9ce5": 1063,
    "\u4e45\u5fa1\u5c71": 1064,
    "\u6bce": 1065,
    "\u306b\u304a\u3051\u308b": 1066,
    "\u30d0\u30a4\u30d1\u30b9": 1067,
    "\u5584": 1068,
    "\u5e2f": 1069,
    "\u7d30": 1070,
    "\u8996": 1071,
    "\u5bc6": 1072,
    "\u7389\u6c34": 1073,
    "\u4eab": 1074,
    "\u56f2": 1075,
    "\u63f4": 1076,
    "\u6e0b": 1077,
    "\u8907\u7dda\u533a\u9593": 1078,
    "\u970a": 1079,
    "\u52a9": 1080,
    "\u5927\u5742\u57ce": 1081,
    "\u6559\u990a\u90e8": 1082,
    "\u6804": 1083,
    "\u8358": 1084,
    "\u8b00": 1085,
    "\u203b": 1086,
    "\u4e2d\u5ddd\u5927\u9032\u6d41": 1087,
    "\u5fc5": 1088,
    "\u5b5d": 1089,
    "V": 1090,
    "\u2581\u5ba4\u753a\u6642\u4ee3": 1091,
    "\u3059\u308c\u3070": 1092,
    "\u4e45\u4e16\u90e1\u4e45\u5fa1\u5c71\u753a": 1093,
    "\u4fa1": 1094,
    "\u5cf0": 1095,
    "\u5e7d": 1096,
    "\u8a5e": 1097,
    "\u96c4": 1098,
    "h": 1099,
    "\u4f59": 1100,
    "\u7d44": 1101,
    "\u72b6": 1102,
    "\u306b\u5909\u66f4": 1103,
    "\u30c6\u30ec\u30d3\u30b8\u30e7\u30f3": 1104,
    "\u4f34": 1105,
    "\u505c\u8eca\u3059\u308b": 1106,
    "\u5100": 1107,
    "\u5206\u9593\u9694": 1108,
    "\u611f": 1109,
    "\u7b2c\u4e09\u9ad8\u7b49\u4e2d\u5b66\u6821": 1110,
    "\u8b1b": 1111,
    "\u9234\u9e7f": 1112,
    "\u304c\u5ef6\u4f38\u958b\u696d": 1113,
    "\u6771\u798f\u5bfa\u99c5": 1114,
    "\u82e5": 1115,
    "\u4eac\u8857\u9053": 1116,
    "\u6700\u9ad8\u901f\u5ea6": 1117,
    "\u6797": 1118,
    "\u79cb": 1119,
    "\u7d2b": 1120,
    "\u80fd\u56e0\u672c": 1121,
    "\u9593\u4eba\u7687\u5973": 1122,
    "\u9801": 1123,
    "\u98db": 1124,
    "\u4e09\u91cd\u770c": 1125,
    "\u25ce": 1126,
    "\u30a4\u30b6\u30ca\u30ae": 1127,
    "\u6669": 1128,
    "\u6d44": 1129,
    "\u30cd": 1130,
    "\u6c7d": 1131,
    "\u6e96": 1132,
    "\u7fd2": 1133,
    "\u306b\u7531\u6765": 1134,
    "\u4eac\u90fd\u5e02\u5de6\u4eac\u533a": 1135,
    "\u57f7": 1136,
    "\u7fcc": 1137,
    "\u9808\u8cc0": 1138,
    "\u4f55": 1139,
    "\u6e90\u6c0f\u7269\u8a9e": 1140,
    "\u5fd7": 1141,
    "\u757f": 1142,
    "\u30bf": 1143,
    "\u5ea7": 1144,
    "\u6843\u5c71\u99c5": 1145,
    "\u658e": 1146,
    "\u69d8\u3005\u306a": 1147,
    "\u8ac7": 1148,
    "\u8cb4": 1149,
    "\u3092\u306f\u3058\u3081": 1150,
    "\u95a2\u897f\u672c\u7dda": 1151,
    "\u6d17": 1152,
    "\u771f\u8a00\u5b97": 1153,
    "\u7aef": 1154,
    "\u9f8d\u99ac": 1155,
    "\u82e6": 1156,
    "\u5200": 1157,
    "\u66f4": 1158,
    "\u795e\u9053\u4e8b\u52d9\u5c40": 1159,
    "\u30eb\u30fc\u30c8": 1160,
    "\u53e4\u4e8b\u8a18": 1161,
    "\u5b5d\u5fb3\u5929\u7687": 1162,
    "\u4e94\u5341\u4e09\u6b21": 1163,
    "\u653f\u5e9c": 1164,
    "\u2581\u6587\u4e45": 1165,
    "\u6d5c\u677e": 1166,
    "\u2581\u4ee5\u4e0b": 1167,
    "\u63a5\u7d9a": 1168,
    "\u304b\u3064\u3066\u306f": 1169,
    "\u6b7b\u7523": 1170,
    "\u3092\u7d4c\u3066": 1171,
    "\u5927\u962a\u5e9c": 1172,
    "\u89e3\u9664": 1173,
    "\u8d8a\u524d": 1174,
    "\u611b\u77e5\u770c\u8c4a": 1175,
    "\u99c5\u820e": 1176,
    "\u304c\u3042\u308a": 1177,
    "\u677e\u6bbf": 1178,
    "\u306b\u5165\u308a": 1179,
    "\u5fa9\u6d3b": 1180,
    "\u60aa": 1181,
    "\u756a\u53f7": 1182,
    "\u8ad6\u4e89": 1183,
    "\u306e\u8eca\u4e21": 1184,
    "\u6700\u53e4\u306e": 1185,
    "\u76f8\u7d9a": 1186,
    "\u4e2d\u5927\u5144\u7687\u5b50": 1187,
    "\u4e16\u7d00": 1188,
    "\u2581189": 1189,
    "\u653f\u6a29": 1190,
    "\u5e55\u5e9c\u8ecd": 1191,
    "\u751f\u6d3b": 1192,
    "\u521d\u671f": 1193,
    "\u6210\u4ecf": 1194,
    "\u5929\u53f0\u5b97": 1195,
    "\u305d\u306e\u4ed6": 1196,
    "\u6c34\u6238\u85e9": 1197,
    "\u6b63\u5ba4": 1198,
    "\u5927\u8001": 1199,
    "\u8001\u4e2d": 1200,
    "\u5f8c\u7d99": 1201,
    "\u5fa9\u5143": 1202,
    "\u990a\u5973": 1203,
    "\u3048\u3089\u308c\u308b": 1204,
    "\u51fa\u8eab": 1205,
    "\u5feb\u901f\u5217\u8eca": 1206,
    "\u4f1a\u6d25": 1207,
    "\u4eba\u3005": 1208,
    "\u6c60\u7530": 1209,
    "\u65e5\u672c\u30c6\u30ec\u30d3": 1210,
    "\u2581\u305d\u306e\u5f8c": 1211,
    "\u8fd1\u4ee3": 1212,
    "\u5207\u308a": 1213,
    "\u6210\u7acb": 1214,
    "\u5927\u81e3": 1215,
    "160": 1216,
    "\u3089\u308c\u3066\u3044\u308b": 1217,
    "\u6771\u672c\u9858\u5bfa": 1218,
    ",199": 1219,
    "\u73fe\u5728\u3067\u306f": 1220,
    "\u5ca1\u5c71": 1221,
    "\u308d\u3057": 1222,
    "\u540c\u4e0a": 1223,
    "\u85e9\u4e3b": 1224,
    "\u307e\u3064": 1225,
    "\u6b66\u5bb6": 1226,
    "\u73fe\u5728\u3082": 1227,
    "\u9577\u5973": 1228,
    "\u5b87\u6cbb\u5e02": 1229,
    "\u985e\u672c": 1230,
    "\u4e2d\u5bae": 1231,
    "\u7279\u306b": 1232,
    "\u671d\u6575\u3068": 1233,
    "\u307e\u305f\u306f": 1234,
    "\u2581\u5b89\u653f": 1235,
    "\u3066\u3057\u307e": 1236,
    "\u5b87\u6cbb\u9593": 1237,
    "\u76f4\u901a\u3059\u308b": 1238,
    "\u3067\u904b\u8ee2\u3055\u308c\u308b": 1239,
    "\u3082\u306e\u3067\u3042\u308b": 1240,
    "\u5feb\u901f\u505c\u8eca\u99c5": 1241,
    "\u3092\u4f7f\u7528": 1242,
    "\u6728\u6d25\u9593": 1243,
    "\u306b\u3064\u3044\u3066\u306f": 1244,
    "\u5e74\u5ea6": 1245,
    "(121": 1246,
    "9.": 1247,
    "56": 1248,
    "\u6176\u559c\u304c": 1249,
    "1946": 1250,
    "\u3053\u305d": 1251,
    "\u3093\u3058": 1252,
    "\u3068\u3044\u3046\u8aac": 1253,
    "\u2581\u4ee5\u5f8c": 1254,
    "\u9593\u3067": 1255,
    "\u6b74": 1256,
    "\u3052": 1257,
    "\u904b\u8ee2\u3055\u308c\u308b": 1258,
    "\u3068\u547c\u3070\u308c": 1259,
    "\u304b\u306a": 1260,
    "\u5b9a\u5b50": 1261,
    "190": 1262,
    "\u3067\u904b\u8ee2\u3055\u308c": 1263,
    "\u5b66\u6821": 1264,
    "\u7dad\u65b0\u5f8c": 1265,
    "\u5b89\u653f": 1266,
    "\u3063\u3066\u304a\u308a": 1267,
    "\u3092\u4e0e\u3048": 1268,
    "\u7279": 1269,
    "\u5ddd\u5d0e": 1270,
    "\u7d4c\u7531": 1271,
    "\u969b": 1272,
    "\u3087\u3046": 1273,
    "\u3063\u3066\u3044\u308b": 1274,
    "\u667a": 1275,
    "\u6c60": 1276,
    "\u5f37": 1277,
    "\u65b9\u9762": 1278,
    "\u9244": 1279,
    "\u9032": 1280,
    "\u6d3b": 1281,
    "\u592a\u967d": 1282,
    "\u7d99": 1283,
    "\u805e": 1284,
    "\u8d70": 1285,
    "\u6025": 1286,
    "\u8981": 1287,
    "\u53f2": 1288,
    "\u5473": 1289,
    "\u666e\u901a": 1290,
    "\u6b7b": 1291,
    "\u6771\u6d77\u9053\u672c\u7dda": 1292,
    "\u5d0e": 1293,
    "\u8db3": 1294,
    "\u5bb9": 1295,
    "\u8af8\u4faf": 1296,
    "\u7c4d": 1297,
    "\u30c3": 1298,
    "\u30ed": 1299,
    "\u967d": 1300,
    "\u30ea": 1301,
    "\u5f79": 1302,
    "\u6c34": 1303,
    "\u6c38": 1304,
    "\u5d29": 1305,
    "\u5b63": 1306,
    "\u55b6": 1307,
    "\u8cea": 1308,
    "\u679c": 1309,
    "\u52a0": 1310,
    "\u5373": 1311,
    "\u5b8c": 1312,
    "\u2581188": 1313,
    "\u5275": 1314,
    "\u30d0\u30b9": 1315,
    "n": 1316,
    "\u6c11": 1317,
    "\u5bdd": 1318,
    "\u8d77": 1319,
    "\u5e78": 1320,
    "\u4e89": 1321,
    "\u9759": 1322,
    "\u53bb": 1323,
    "\u6bb5": 1324,
    "\u4e57": 1325,
    "\u697d": 1326,
    "\u5bcc": 1327,
    "\u8cc0": 1328,
    "\u627f": 1329,
    "\u91c8": 1330,
    "\u611b\u77e5\u770c": 1331,
    "\u904e": 1332,
    "\u6b62": 1333,
    "\u5c06": 1334,
    "\u4ee3\u8868\u7684\u306a": 1335,
    "\u7523": 1336,
    "\u4e0e": 1337,
    "\u6307\u5b9a": 1338,
    "\u5cf6\u6d25\u6589\u5f6c": 1339,
    "\u9055": 1340,
    "\u59bb": 1341,
    "\u6df1": 1342,
    "\u983c": 1343,
    "\u748b": 1344,
    "\u899a": 1345,
    "\u6c17": 1346,
    "\u3092\u7d99\u3044\u3060": 1347,
    "\u4f4e": 1348,
    "\u7c21": 1349,
    "J": 1350,
    "O": 1351,
    "\u5ba3": 1352,
    "\u7687\u6975\u5929\u7687": 1353,
    "\u7ae5": 1354,
    "\u88dc": 1355,
    "\u5426": 1356,
    "\u6709\u540d\u306a": 1357,
    "\u81ea\u7136\u795e": 1358,
    "\u9577\u5dde\u85e9": 1359,
    "\u30d5\u30e9\u30f3\u30b9": 1360,
    "\u5831": 1361,
    "\u5f85": 1362,
    "\u65e7\u4e8c\u6761\u99c5\u820e": 1363,
    "\u6750": 1364,
    "\u6df7": 1365,
    "\u8212\u660e\u5929\u7687": 1366,
    "\u30e9": 1367,
    "\u50cf": 1368,
    "\u30a4\u30b6\u30ca\u30df": 1369,
    "\u5211": 1370,
    "\u5927\u6d77\u4eba\u7687\u5b50": 1371,
    "\u63db": 1372,
    "\u8b58": 1373,
    "\u30c9": 1374,
    "\u8de1": 1375,
    "\u306b\u3088\u308c\u3070": 1376,
    "\u3092\u5bc4\u305b": 1377,
    "\u30d1": 1378,
    "\u4e00\u81f4\u3057\u3066\u3044\u308b": 1379,
    "\u4ecb": 1380,
    "\u53cc": 1381,
    "\u5949": 1382,
    "\u5d6f\u5ce8\u91ce\u7dda": 1383,
    "\u963f\u90e8\u6b63\u5f18": 1384,
    "\u9732": 1385,
    "\u5fb3\u5ddd\u662d\u6b66": 1386,
    "\u6885\u5c0f\u8def\u84b8\u6c17\u6a5f\u95a2\u8eca\u9928": 1387,
    "\u8aa4": 1388,
    "\u30b5": 1389,
    "\u30da": 1390,
    "\u53e4\u7fa9\u771f\u8a00\u5b97": 1391,
    "\u6d45": 1392,
    "\u91cf": 1393,
    "\u93e1": 1394,
    "\u9cf4": 1395,
    "\u901f": 1396,
    "\u66f2": 1397,
    "\u795e\u683c\u5316": 1398,
    "\u7f6a": 1399,
    "\u96f2": 1400,
    "\u9ad8\u5929\u539f": 1401,
    "K": 1402,
    "\u30a6": 1403,
    "\u30c8\u30f3\u30cd\u30eb": 1404,
    "\u30e9\u30a4\u30f3\u30ab\u30e9\u30fc": 1405,
    "\u6a21": 1406,
    "\u80cc": 1407,
    "\u8fb0": 1408,
    "\u8ffd\u653e\u3055\u308c": 1409,
    "\u9675": 1410,
    "\u9d28": 1411,
    "\u9805": 1412,
    "\u4e2d\u592e\u533a": 1413,
    "\u4eac\u90fd\u5e02\u55b6\u5730\u4e0b\u9244": 1414,
    "\u516d\u5730\u8535\u99c5": 1415,
    "\u6442": 1416,
    "H": 1417,
    "W": 1418,
    "\u30b1\u30fc\u30d6\u30eb": 1419,
    "\u4e03\u90ce\u9ebf": 1420,
    "\u4e09\u6761\u5927\u6a4b": 1421,
    "\u4e09\u91cd\u770c\u4e80\u5c71\u5e02": 1422,
    "\u4e80": 1423,
    "\u4f0a\u52e2\u795e\u5bae": 1424,
    "\u4ff3": 1425,
    "\u5c01": 1426,
    "\u6163": 1427,
    "\u63cf": 1428,
    "\u666f": 1429,
    "\u672a": 1430,
    "\u7af9": 1431,
    "\u7be4": 1432,
    "\u7cbe": 1433,
    "\u9df9": 1434,
    "\u9e7f": 1435,
    "\u30d2\u30eb\u30e1": 1436,
    "\u4e0a\u72db\u99c5": 1437,
    "\u5357\u5c71\u9032\u6d41": 1438,
    "\u53c2\u52e4\u4ea4\u4ee3\u306e": 1439,
    "\u57fa\u672c\u7684\u306b": 1440,
    "\u5c71\u57ce\u9752\u8c37": 1441,
    "\u5ca9\u6ce2\u6587\u5eab": 1442,
    "\u6625\u79cb\u793e": 1443,
    "\u6771\u4eac\u90fd\u4e2d\u592e\u533a": 1444,
    "\u8a73": 1445,
    "\u6589": 1446,
    "\u6885": 1447,
    "\u8a8d": 1448,
    "Y": 1449,
    "d": 1450,
    "\u3057\u3066\u77e5\u3089\u308c\u308b": 1451,
    "\u305d\u306e\u307e\u307e": 1452,
    "\u306b\u6210\u529f": 1453,
    "\u3082\u5c11\u306a\u304f\u306a": 1454,
    "\u3092\u53c2\u7167": 1455,
    "\u3092\u6319\u3052\u3066": 1456,
    "\u30cb\u30cb\u30ae": 1457,
    "\u30d2": 1458,
    "\u51fa\u96f2\u6d3e": 1459,
    "\u5370": 1460,
    "\u53ef\u80fd": 1461,
    "\u55b6\u696d\u30ad\u30ed": 1462,
    "\u5897": 1463,
    "\u6589\u660e\u5929\u7687": 1464,
    "\u6607": 1465,
    "\u6613": 1466,
    "\u66dc": 1467,
    "\u6765\u8fce\u9662": 1468,
    "\u6e21": 1469,
    "\u7121\u8840\u958b\u57ce": 1470,
    "\u71b1": 1471,
    "\u795e\u5948\u5ddd\u770c\u6a2a\u6d5c\u5e02": 1472,
    "\u7a0b": 1473,
    "\u7a4d": 1474,
    "\u7d66": 1475,
    "\u7d75": 1476,
    "\u7e82\u5f62\u614b\u3092\u3068": 1477,
    "\u8907\u7dda\u5316": 1478,
    "\u3092\u4e2d\u5fc3\u306b": 1479,
    "\u4e59": 1480,
    "\u5927\u5b66\u9032\u5b66\u3078\u306e\u4e88\u5099\u6559\u80b2": 1481,
    "\u65ed": 1482,
    "\u6b20": 1483,
    "\u4e95\u4f0a\u76f4\u5f3c": 1484,
    "\u52e2\u529b\u3092": 1485,
    "\u5b87\u6cbb\u5ddd\u4eee\u4fe1\u53f7\u5834": 1486,
    "\u7740": 1487,
    "\u904b\u8f38\u533a": 1488,
    "\u2581\u305f\u3060\u3057": 1489,
    "\u6226\u56fd\u5927\u540d": 1490,
    "\u9f62": 1491,
    "\u25a0": 1492,
    "\u30e0": 1493,
    "\u53cb": 1494,
    "\u5668": 1495,
    "\u5b5d\u660e\u5929\u7687": 1496,
    "\u74b0": 1497,
    "\u821e": 1498,
    "\u885b": 1499,
    "\u8cc7": 1500,
    "\u9006": 1501,
    "\u5750": 1502,
    "\u59be": 1503,
    "\u5f81\u5937\u5927\u5c06\u8ecd": 1504,
    "\u5fae": 1505,
    "\u4e03": 1506,
    "\u305e": 1507,
    "\u305d\u308c\u305e\u308c": 1508,
    "\u306e\u307b\u3046\u304c": 1509,
    "\u30a2\u30de\u30c6\u30e9\u30b9": 1510,
    "\u30a2\u30e1\u30ce\u30aa\u30b7\u30db\u30df\u30df": 1511,
    "\u78ba\u8a8d\u3067\u304d": 1512,
    "\u7b2c\u4e09\u9ad8\u7b49\u5b66\u6821": 1513,
    "\u8584": 1514,
    "\u8846": 1515,
    "\u968a": 1516,
    ")\u300f(199": 1517,
    "\u3067\u5b87\u6cbb\u99c5\u3067\u666e\u901a": 1518,
    "\u6625\u306f\u66d9": 1519,
    "\u9ec4\u6a97\u99c5": 1520,
    "\u518d": 1521,
    "\u6cbf": 1522,
    "\u4ee4": 1523,
    "!": 1524,
    "\u3068\u4e3b\u5f35": 1525,
    "\u3092\u7d50\u3076": 1526,
    "\u5f80": 1527,
    "\u7981\u88cf\u5fa1\u5b88\u885b\u7dcf\u7763": 1528,
    "\u9084": 1529,
    "\u9650": 1530,
    "\u2581\u5bdb\u5143": 1531,
    "\u59b9": 1532,
    "\u59eb": 1533,
    "\u5e1d": 1534,
    "\u6620\u753b": 1535,
    "\u65b0\u7530\u99c5": 1536,
    "\u306e\u4f11\u61a9\u65bd\u8a2d": 1537,
    "\u52a0\u8cc0": 1538,
    "\u5358\u7dda\u533a\u9593": 1539,
    "\u5927\u899a\u5bfa\u7d71": 1540,
    "\u306e\u7269\u5b9f\u304b\u3089": 1541,
    "\u5927\u5c71\u548b\u795e": 1542,
    "\u8efd": 1543,
    "\u3092\u63a8\u3059": 1544,
    "\u8863": 1545,
    "\u306c": 1546,
    "\u308b\u3053\u3068\u306b\u306a\u3063\u305f": 1547,
    "\u624b\u88cf\u5263\u8853": 1548,
    "\u7279\u6025": 1549,
    "\u7d1a": 1550,
    "\u691c\u8a0e": 1551,
    "\u306b\u304b\u3051\u3066": 1552,
    "\u2581\u5efa\u4fdd": 1553,
    "\u534a": 1554,
    "\u5ec3\u7d76\u3057": 1555,
    "\u53f2\u6599": 1556,
    "\u78e8": 1557,
    "\u6cbc\u6d25": 1558,
    "\u5cf6\u6d25\u4e45\u5149": 1559,
    "\u5927\u962a\u74b0\u72b6\u7dda": 1560,
    "\u7d99\u627f": 1561,
    "\u306b\u5bfe\u3057\u3066": 1562,
    "\u7406\u7531": 1563,
    "\u6df1\u591c": 1564,
    "\u30e5\u30fc": 1565,
    "\u8a2d\u5099": 1566,
    "\u3092\u540d\u4e57": 1567,
    "\u4f0a\u9054": 1568,
    "\u5927\u304d\u3044": 1569,
    "\u5c02\u9580": 1570,
    "\u4f75\u305b": 1571,
    "\u30bb\u30f3": 1572,
    "\u5012\u5e55": 1573,
    "\u4ee5\u4e0b\u306e": 1574,
    "\u6a5f\u80fd": 1575,
    "\u3092\u884c\u3046": 1576,
    "\u3068\u8003\u3048\u3089\u308c": 1577,
    "\u4eee\u540d": 1578,
    "\u5ca1\u5d0e": 1579,
    "\u7532\u8cc0\u90e1": 1580,
    "\u306b\u8fd1\u3044": 1581,
    "\u2581\u305d\u306e\u305f\u3081": 1582,
    "\u89e3\u91c8": 1583,
    "\u304c\u305f\u3051": 1584,
    "\u535a\u58eb": 1585,
    "\u96a0\u5c45": 1586,
    "\u9078\u5b9a": 1587,
    "\u4eac\u90fd\u5e02\u4f0f\u898b\u533a": 1588,
    "\u3042\u305f\u308a": 1589,
    "\u3068\u5171\u306b": 1590,
    "\u5b8c\u6210": 1591,
    "\u5fb3\u5ddd\u5c06\u8ecd\u5bb6": 1592,
    "\u4fdd\u7ba1": 1593,
    "\u78ba\u4fdd": 1594,
    "\u9014\u4e2d": 1595,
    "\u7279\u5225": 1596,
    "\u55b6\u696d": 1597,
    "\u5fb3\u5ddd\u6176\u4e45": 1598,
    "\u7ba1\u7406": 1599,
    "\u5b9f\u969b": 1600,
    "\u30ea\u30fc": 1601,
    "\u7d71\u5236": 1602,
    "\u307f\u3087\u3046": 1603,
    "\u5e83\u5cf6": 1604,
    "\u8f9e\u8077": 1605,
    "\u4e00\u822c\u56fd\u9053": 1606,
    "\u897f\u5712\u5bfa\u5b9f": 1607,
    "\u8868\u73fe": 1608,
    "\u5948\u826f\u9244\u9053\u306b\u3088": 1609,
    "\u3059\u308b\u305f\u3081\u306b": 1610,
    "\u85e4\u68ee\u99c5": 1611,
    "\u30c6\u30ec\u30d3\u653e\u9001": 1612,
    "\u8349\u6d25": 1613,
    "\u533b\u5b66\u90e8": 1614,
    "\u6ecb\u8cc0\u770c\u5927\u6d25\u5e02": 1615,
    "\u8a2d\u5b9a": 1616,
    "\u5236\u5ea6": 1617,
    "\u5317\u6761": 1618,
    "\u89b3\u5149": 1619,
    "\u4ee5\u5357": 1620,
    "\u7a2e\u985e": 1621,
    "\u666e\u901a\u5217\u8eca": 1622,
    "\u6025\u884c": 1623,
    "\u8a18\u8ff0": 1624,
    "\u4ecf\u6cd5": 1625,
    "\u7528\u8a9e": 1626,
    "\u5229\u7528": 1627,
    "\u5074\u5ba4": 1628,
    "\u8aad\u307f": 1629,
    "\u771f\u5b97": 1630,
    "\u672b\u671f": 1631,
    "\u652f\u793e": 1632,
    "\u4f1a\u8b70": 1633,
    "\u7687\u5ba4": 1634,
    "\u5b66\u8853": 1635,
    "\u5b87\u6cbb\u99c5\u9593": 1636,
    "(124": 1637,
    "\u9b5a\u5c71": 1638,
    "\u672b\u6cd5": 1639,
    "\u5929\u6b66": 1640,
    "\u7cfb\u96fb\u8eca\u306b\u3088\u308b": 1641,
    "\u306b\u81f3\u3063": 1642,
    "\u3066\u3057\u307e\u3046": 1643,
    "\u4f1d\u6765": 1644,
    "\u7d9a\u3051\u305f": 1645,
    "\u5bfe\u7acb": 1646,
    "\u6d25\u5ddd": 1647,
    "\u7528\u3044\u3089\u308c": 1648,
    "\u5206\u6821": 1649,
    "\u77f3\u9ad8": 1650,
    "\u5b66\u554f": 1651,
    "\u5f37\u304f": 1652,
    "\u4e0a\u91ce": 1653,
    "\u4e0a\u3052": 1654,
    "\u5929\u4fdd": 1655,
    "\u79f0\u5236": 1656,
    "\u57ce\u967d\u99c5": 1657,
    "\u6240\u5c5e": 1658,
    "\u56db\u660e": 1659,
    "\u6545\u306b": 1660,
    "\u7d9a\u304f": 1661,
    "\u3069\u3046": 1662,
    "\u6301\u3061": 1663,
    "\u77f3\u7530": 1664,
    "\u9928\u5185": 1665,
    "\u53e4\u4ee3": 1666,
    "500": 1667,
    "\u3057\u3087\u3046": 1668,
    "\u6642\u671f": 1669,
    "\u3057\u3081\u3044": 1670,
    "\u3055\u307e": 1671,
    "\u8def\u7dda\u540d": 1672,
    "\u5b87\u6cbb\u99c5": 1673,
    "\u3067\u304d\u308b": 1674,
    "\u5b87\u6cbb\u897f": 1675,
    "\u89aa\u85e9": 1676,
    "\u3060\u3051": 1677,
    "\u5742\u672c": 1678,
    "\u306a\u3044\u3082\u306e": 1679,
    "\u901a\u8aac": 1680,
    "\u4eac\u90fd\u5e9c\u5185": 1681,
    "\u6539\u540d": 1682,
    "\u306e\u58f0\u660e\u306f": 1683,
    "\u4e2d\u6839": 1684,
    "300": 1685,
    "\u5ddd\u5e02": 1686,
    "\u5fb3\u5ddd\u6176\u559c\u5bb6": 1687,
    "\u2581\u5948\u826f\u7dda\u306e": 1688,
    "\u533a\u9593\u3067\u3042\u308b": 1689,
    "\u540c\u4e00": 1690,
    "\u5bb6\u683c": 1691,
    "\u3089\u306a\u3044": 1692,
    "\u6307\u6458\u3055\u308c\u3066\u3044\u308b": 1693,
    "\u8eca\u7dda": 1694,
    "\u6b73\u3067": 1695,
    "\u7b2c\u4e00": 1696,
    "\u639b\u5ddd": 1697,
    "\u8a71\u672c": 1698,
    "\u305b\u3044": 1699,
    "\u304b\u307f": 1700,
    "\u7537\u5b50": 1701,
    "\u5ddd\u5bbf": 1702,
    "\u56fd\u4e3b": 1703,
    "\u53e4\u304f": 1704,
    "\u7121\u3044": 1705,
    "\u79fb\u7bc9": 1706,
    "\u3068\u3059\u308b\u8aac\u3082\u3042": 1707,
    "\u307e\u308a": 1708,
    "\u884c\u304d": 1709,
    "\u3063\u3066\u4eac\u90fd": 1710,
    "34.": 1711,
    "\u4eba\u9593": 1712,
    "\u53d7\u3051": 1713,
    "\u672c\u7dda": 1714,
    "\u306e\u3061\u306e": 1715,
    "\u6771\u5c71": 1716,
    "\u7530\u6c0f": 1717,
    "21.": 1718,
    "\u3081\u3044": 1719,
    "\u904b\u8ee2\u3055\u308c\u3066\u3044\u305f": 1720,
    "(122": 1721,
    "\u533b\u5b66": 1722,
    "\u3057\u3088\u3046\u3068": 1723,
    "\u5bb6\u6176": 1724,
    "\u307f\u3053\u3068": 1725,
    "\u3055\u308c\u308b\u3088\u3046\u306b\u306a": 1726,
    "\u8aac\u3082\u3042\u308b": 1727,
    "\u308f\u305b": 1728,
    "\u3092\u884c\u306a\u3063\u305f": 1729,
    "1996": 1730,
    "\u884c\u308f\u308c": 1731,
    "\u3082\u542b\u3081": 1732,
    "\u52e4": 1733,
    "\u304b\u3089\u306e\u901a": 1734,
    "\u3068\u540c\u3058": 1735,
    "\u4eac\u90fd\u5e9c\u4eac\u90fd\u5e02\u4e0b\u4eac\u533a": 1736,
    "\u306e\u30c0\u30a4\u30e4\u6539\u6b63": 1737,
    "\u904b\u884c": 1738,
    "\u66f8\u304b\u308c": 1739,
    "\u307e\u308c\u308b": 1740,
    "\u306e\u307f\u3053": 1741,
    "\u505c\u8eca\u99c5": 1742,
    "\u4f7f": 1743,
    "\u5c06\u8ecd\u5bb6": 1744,
    "\u4eac\u90fd\u5e9c\u4eac\u90fd\u5e02": 1745,
    "\u5f53\u521d": 1746,
    "\u2581\u6c5f\u6238\u6642\u4ee3\u306b": 1747,
    "\u9818\u4e3b\u3068": 1748,
    "\u8001": 1749,
    "\u9b5a": 1750,
    "\u7dda\u7d4c\u7531\u3067": 1751,
    "\u904b": 1752,
    "\u5f15": 1753,
    "\u3087": 1754,
    "\u6cbb": 1755,
    "\u8a3c": 1756,
    "\u85e4\u68ee": 1757,
    "\u85e4": 1758,
    "\u6851": 1759,
    "\u8ffd": 1760,
    "\u6cb3": 1761,
    "\u5b58": 1762,
    "\u5ae1": 1763,
    "\u5fb3\u5ddd\u6176": 1764,
    "\u7940": 1765,
    "\u4f0a": 1766,
    "\u773c": 1767,
    "\u63a5": 1768,
    "\u3056": 1769,
    "\u5bb6\u8302\u306e": 1770,
    "\u6176\u4e45": 1771,
    "\u65e9": 1772,
    "\u9078": 1773,
    "\u6599": 1774,
    "\u7f8e\u8cc0\u5b50\u3068": 1775,
    "\u59cb": 1776,
    "\u7de9": 1777,
    "\u7d9a\u3051": 1778,
    "\u9ad8\u901f\u9053\u8def": 1779,
    "\u5c3e": 1780,
    "\u7532\u8cc0": 1781,
    "\u80fd": 1782,
    "\u7b56": 1783,
    "\u4f4f": 1784,
    "\u5927\u5fa1\u795e": 1785,
    "\u3092\u9664\u304d": 1786,
    "\u6297": 1787,
    "\u30bb": 1788,
    "\u9664": 1789,
    "\u5ca9": 1790,
    "l": 1791,
    "\u8a3b": 1792,
    "\u306b\u4f4d\u7f6e\u3059\u308b": 1793,
    "\u7d76": 1794,
    "\u82f1\u9081\u3055": 1795,
    "\u5099": 1796,
    "\u9003": 1797,
    "\u5c55": 1798,
    "\u5012": 1799,
    "\u30c4\u30af\u30e8\u30df": 1800,
    "\u3068\u70ba\u3057": 1801,
    "\u8302": 1802,
    "\u30d6": 1803,
    "\u795e\u5948\u5ddd": 1804,
    "\u3089\u306e\u8a95\u751f": 1805,
    "\u7537\u306e\u5fb3\u5ddd\u983c": 1806,
    "\u7985": 1807,
    "\u500b": 1808,
    "\u5cb3": 1809,
    "\u7cf8": 1810,
    "\u9ed2": 1811,
    "\u30e9\u30c3\u30b7\u30e5": 1812,
    "\u96e3": 1813,
    "\u62db": 1814,
    "\u6d5c": 1815,
    "\u5bdb\u6c38\u5bfa": 1816,
    "\u591c": 1817,
    "\u984d": 1818,
    "\u691c": 1819,
    "\u606d": 1820,
    "\u9806": 1821,
    "\u5bc4": 1822,
    "\u76e3": 1823,
    "\u301c": 1824,
    "\u3068\u3057\u3066\u5229\u7528\u3055\u308c\u305f": 1825,
    "\u306f\u5929\u667a\u5929\u7687\u306e": 1826,
    "\u30a4\u30e1\u30fc\u30b8": 1827,
    "\u5217\u8eca\u304c\u904b\u8ee2\u3055\u308c\u305f\u3053\u3068\u304c\u3042\u308b": 1828,
    "\u53b3": 1829,
    "\u5927\u5c01\u3092\u5f97": 1830,
    "\u5929\u7406\u6559": 1831,
    "\u5e8f": 1832,
    "\u76ee\u3092\u65e5\u6708": 1833,
    "\u7f85": 1834,
    "\u8840": 1835,
    "\u9001\u308a\u8fbc": 1836,
    "\u68ee": 1837,
    "\u968f": 1838,
    "\u9aa8": 1839,
    "\u8a0e": 1840,
    "\u3044\u3056\u306a": 1841,
    "\u30a2\u30fc\u30d0\u30f3\u30cd\u30c3\u30c8\u30ef\u30fc\u30af\u306e": 1842,
    "\u30ac": 1843,
    "\u30d7": 1844,
    "\u4f0f\u898b\u306e\u6226\u3044\u3067": 1845,
    "\u592a\u653f\u5927\u81e3": 1846,
    "\u5b9a\u8aac\u3067\u306f": 1847,
    "\u5c71\u9670\u672c\u7dda": 1848,
    "\u6075": 1849,
    "\u6276": 1850,
    "\u6311": 1851,
    "\u6a2a": 1852,
    "\u77ed": 1853,
    "\u7b20": 1854,
    "\u7b4b": 1855,
    "\u958b\u9928\u5f53\u521d\u306f": 1856,
    "\u2581\u9ce5\u7fbd\u4f0f\u898b\u306e\u6226\u3044": 1857,
    "\u3055\u308c\u3066\u304d\u305f": 1858,
    "\u3060\u3051\u3067\u306a\u304f": 1859,
    "\u3092\u901a\u3058\u3066": 1860,
    "\u4ead": 1861,
    "\u518a": 1862,
    "\u65e5\u5409\u5927\u793e": 1863,
    "\u6b74\u53f2\u66f8": 1864,
    "\u7c73": 1865,
    "\u7d20": 1866,
    "\u5bb6\u5eb7\u306e\u518d\u6765": 1867,
    "\u6155": 1868,
    "\u6b66\u8535\u56fd": 1869,
    "\u7a7a": 1870,
    "c": 1871,
    "u": 1872,
    "\u304c\u76f8\u6b21": 1873,
    "\u3068\u8a55\u4fa1\u3055\u308c": 1874,
    "\u306b\u5f53\u3066\u305f": 1875,
    "\u306e\u8de1\u5730\u306f": 1876,
    "\u3092\u6cbb\u3081\u308b": 1877,
    "\u3092\u76ee\u6307\u3059": 1878,
    "\u30ab\u30e1\u30e9": 1879,
    "\u30c7": 1880,
    "\u4e16\u7d00\u521d\u982d": 1881,
    "\u515a": 1882,
    "\u516c\u6b66\u5408\u4f53": 1883,
    "\u533f": 1884,
    "\u53ca": 1885,
    "\u591a\u304f\u306e\u6d41\u6d3e\u304c": 1886,
    "\u5929\u7167\u5927\u795e\u3092\u7940": 1887,
    "\u5f8c\u918d\u9190\u5929\u7687": 1888,
    "\u5fa1\u53f0\u6240": 1889,
    "\u5fc5\u8981\u304c\u3042\u3063\u305f": 1890,
    "\u666e\u8ce2\u83e9\u85a9\u306e": 1891,
    "\u666e\u901a\u5217\u8eca\u306e\u307f\u306e\u904b\u8ee2": 1892,
    "\u6709\u529b\u5019\u88dc": 1893,
    "\u672c\u9023\u7d50": 1894,
    "\u673d\u6728\u6751": 1895,
    "\u6771\u6d77\u65c5\u5ba2\u9244\u9053": 1896,
    "\u6bcd\u65b9\u306e\u53d4\u7236": 1897,
    "\u6ca1": 1898,
    "\u6f54": 1899,
    "\u7523\u5de3\u65e5\u795e": 1900,
    "\u767b\u5834\u3055\u305b": 1901,
    "\u7a81": 1902,
    "\u7b26": 1903,
    "\u7d30\u5ddd\u5fe0": 1904,
    "\u7e26": 1905,
    "\u8907\u96d1\u306a": 1906,
    "\u8fbb": 1907,
    "\u56e3\u4f53\u5c02\u7528\u5217\u8eca": 1908,
    "\u306b\u6ede\u5728\u3057": 1909,
    "\u3092\u3086\u304f": 1910,
    "\u30a2\u30f3\u30c6\u30ca": 1911,
    "\u30af\u30fc\u30c7\u30bf\u30fc": 1912,
    "\u30e1\u30fc\u30c8\u30eb": 1913,
    "\u30e2": 1914,
    "\u30ef\u30a4\u30c9": 1915,
    "\u4e00\u4e07\u77f3\u4ee5\u4e0a": 1916,
    "\u540c\u69d8\u306b": 1917,
    "\u55e3": 1918,
    "\u5b9a\u7740\u3057\u305f": 1919,
    "\u6700\u9ad8\u4f4d": 1920,
    "\u671f\u3054\u308d": 1921,
    "\u7adc\u99ac\u304c\u3086\u304f": 1922,
    "\u7fa4": 1923,
    "\u8acb": 1924,
    "\u3068\u6848\u5185\u3055\u308c": 1925,
    "\u52c5\u8a31\u3092\u5f97": 1926,
    "\u5bc2": 1927,
    "\u5df4": 1928,
    "\u6307\u5c0e\u8005": 1929,
    "\u7981\u9580\u306e\u5909\u3067\u306f": 1930,
    "\u8ecd\u4e8b\u529b": 1931,
    "\u9818\u56fd\u652f\u914d\u3092": 1932,
    "\u5dde": 1933,
    "\u6e08": 1934,
    "=": 1935,
    "\u2581\u6226\u56fd\u6642\u4ee3\u306b\u306f": 1936,
    "\u2581\u8eca\u4e21\u306f\u5168\u5217\u8eca": 1937,
    "\u304c\u4fdd\u5b58\u6a5f\u95a2\u533a": 1938,
    "\u3068\u307f\u306a\u3059": 1939,
    "\u3068\u3082\u8a00\u3046": 1940,
    "\u306b\u81f3\u308b": 1941,
    "\u306e\u4e0d\u53ef\u80fd\u6027": 1942,
    "\u306e\u4e2d\u3067\u6700": 1943,
    "\u3092\u4e2d\u5fc3\u3068": 1944,
    "\u3092\u59cb\u3081\u3068\u3059\u308b": 1945,
    "\u3092\u5c01\u9396": 1946,
    "\u30af\u30fc\u30c7\u30bf\u30fc\u3092\u8d77\u3053\u3057": 1947,
    "\u30b9\u30b5\u30ce\u30aa\u306f\u9ad8\u5929\u539f": 1948,
    "\u30c1\u30a7\u30fc\u30f3": 1949,
    "\u4f0f\u898b\u5bae\u535a\u606d\u738b\u5983": 1950,
    "\u523a": 1951,
    "\u5341\u5206\u306b": 1952,
    "\u5343": 1953,
    "\u5348": 1954,
    "\u537f": 1955,
    "\u540d\u6240\u65e7\u8de1": 1956,
    "\u55b6\u696d\u8ddd\u96e2\u306e\u5358\u4f4d\u3092\u30de\u30a4\u30eb": 1957,
    "\u5929\u7406\u99c5\u307e\u3067": 1958,
    "\u59c9": 1959,
    "\u5b89\u7f6e\u3059\u308b": 1960,
    "\u5bfe\u6297\u95a2\u4fc2\u306b\u3042": 1961,
    "\u5de6\u4eac\u533a": 1962,
    "\u5f3c": 1963,
    "\u5fc5\u8981\u6027": 1964,
    "\u6025\u901f\u306b": 1965,
    "\u6301\u660e\u9662\u7d71": 1966,
    "\u6614": 1967,
    "\u6674": 1968,
    "\u6709\u529b\u306a": 1969,
    "\u6ecb\u8cc0\u770c\u8349\u6d25\u5e02": 1970,
    "\u738b\u653f\u5fa9\u53e4": 1971,
    "\u7591": 1972,
    "\u790e": 1973,
    "\u7d00\u5dde\u85e9": 1974,
    "\u7dd1": 1975,
    "\u8003\u3048\u3066\u3044\u305f": 1976,
    "\u81ea\u6cbb\u4f53": 1977,
    "\u8328\u6728\u7ba1\u7406\u4e8b\u52d9\u6240": 1978,
    "\u8494\u7d75\u306e\u7bb1\u306b": 1979,
    "\u88ab": 1980,
    "\u89a7": 1981,
    "\u8af8\u5916\u56fd\u306e": 1982,
    "\u8c5a\u8089\u304c": 1983,
    "\u95a2\u30f6\u539f\u306e\u6226\u3044": 1984,
    "\u9999": 1985,
    "\u2581\u6c5f\u6238\u6642\u4ee3\u306e\u5927\u540d": 1986,
    "\u4e94\u5341\u4e03\u6b21\u3068": 1987,
    "\u5165\u9e7f\u3092\u6bba\u5bb3": 1988,
    "\u51a0": 1989,
    "\u3088\u3057\u306e\u3076": 1990,
    "\u304b\u3065\u3089\u304d": 1991,
    "\u306f\u845b\u57ce": 1992,
    "e": 1993,
    "\u2581\u5929\u7167\u5927\u795e\u3092\u7940\u308b\u795e\u793e": 1994,
    "\u2581\u878d\u901a\u5ff5\u4ecf": 1995,
    "\u3055\u308c\u3066\u3044\u305f\u3082\u306e": 1996,
    "\u3068\u3059\u308b\u89e3\u91c8\u3068": 1997,
    "\u3068\u547c\u3070\u308c\u3066\u3044\u305f\u3068": 1998,
    "\u3068\u547c\u3070\u308c\u308b\u4e8b\u304c\u591a\u3044": 1999,
    "\u306a\u3051\u308c\u3070\u306a\u3089\u306a": 2000,
    "\u306b\u95a2\u3057\u3066\u306f": 2001,
    "\u306e\u4eac\u6ecb\u30d0\u30a4\u30d1\u30b9\u306b\u3064\u3044\u3066\u8ff0\u3079": 2002,
    "\u306e\u7b2c\u4e8c\u6b21\u9577\u5dde\u5f81\u4f10": 2003,
    "\u3092\u6291\u3048\u3066": 2004,
    "\u30c1": 2005,
    "\u30d5\u30b8\u30c6\u30ec\u30d3": 2006,
    "\u30de\u30a4\u30eb": 2007,
    "\u4e38": 2008,
    "\u4e59\u5df3\u306e\u5909": 2009,
    "\u4ed8\u3051\u3089\u308c\u3066\u3044\u308b": 2010,
    "\u5199\u3057\u305f\u3068\u306e\u5f8c\u8a18\u304c\u3042\u308b": 2011,
    "\u5354": 2012,
    "\u5373\u4f4d\u3057\u306a\u304b\u3063\u305f": 2013,
    "\u56fa": 2014,
    "\u56fd\u571f\u4ea4\u901a": 2015,
    "\u56fd\u9244\u5206\u5272\u6c11\u55b6\u5316\u306b": 2016,
    "\u57f7\u7b46\u3055\u308c\u305f\u3068": 2017,
    "\u5927\u4f5b\u5bfa\u3092": 2018,
    "\u5bb3": 2019,
    "\u5c06\u8ecd\u306b\u5c31\u4efb": 2020,
    "\u5f8c\u5149\u53b3\u9662\u672c": 2021,
    "\u63b2": 2022,
    "\u63b2\u8f09\u3055\u308c": 2023,
    "\u6587\u5b57\u3067": 2024,
    "\u6709\u6599\u9053\u8def": 2025,
    "\u671d\u5ef7\u306b\u904b\u52d5\u3057\u3066": 2026,
    "\u671d\u8b70\u53c2\u9810": 2027,
    "\u6b69": 2028,
    "\u6e09": 2029,
    "\u6e0b\u6ca2\u6804\u4e00": 2030,
    "\u6e2c": 2031,
    "\u6e96\u9244\u9053\u8a18\u5ff5\u7269\u306b\u6307\u5b9a\u3055\u308c": 2032,
    "\u771f\u8a00\u58f0\u660e": 2033,
    "\u79c0\u5fe0\u306e": 2034,
    "\u7a7a\u6d77\u304c": 2035,
    "\u7ca5": 2036,
    "\u7dda\u8def\u540d\u79f0": 2037,
    "\u82b3": 2038,
    "\u85e9\u306b\u5c01\u3058\u305f": 2039,
    "\u8a18\u8f09\u3055\u308c\u3066\u3044\u308b": 2040,
    "\u8c61": 2041,
    "\u8cc7\u6599\u5c55\u793a\u9928": 2042,
    "\u8fd1\u9244\u5948\u826f\u7dda": 2043,
    "\u9053\u9686\u4e00\u65cf": 2044,
    "\u907f": 2045,
    "\u9244\u9053\u5b66\u5712\u306b": 2046,
    "\u9577\u5dde\u5f81\u4f10": 2047,
    "\u95a2\u30f6\u539f": 2048,
    "\u98ef": 2049,
    "\u8af1": 2050,
    "\u2581\u56fd\u571f\u4ea4\u901a\u7701\u4eac\u90fd\u56fd\u9053\u4e8b\u52d9\u6240\u4eac\u90fd\u7b2c": 2051,
    "\u304b\u3064\u3089\u304e": 2052,
    "\u306e\u5b66\u554f\u5206\u91ce": 2053,
    "\u3092\u518d\u8208\u3059\u308b": 2054,
    "\u4e00\u6761\u5fe0\u9999": 2055,
    "\u4e03\u6761\u99c5": 2056,
    "\u4e2d\u8208\u306e\u7956\u3068": 2057,
    "\u4ee4\u5236\u56fd": 2058,
    "\u52d9": 2059,
    "\u53f3\u8fd1\u885b\u5927\u5c06": 2060,
    "\u5927\u53cb\u7687\u5b50\u306b": 2061,
    "\u5b97\u5bb6\u3068\u306f\u5225\u306b": 2062,
    "\u63a1": 2063,
    "\u6570\u306f\u54c1\u5ddd\u5bbf": 2064,
    "\u65e5\u672c\u8ca8\u7269\u9244\u9053": 2065,
    "\u6b63\u5f53\u6027\u3092\u4e3b\u5f35": 2066,
    "\u6c60\u7530\u4e80\u9451": 2067,
    "\u6e2f": 2068,
    "\u7dcf\u5408\u4eba\u9593\u5b66\u90e8": 2069,
    "\u918d\u9190\u306e\u53e4\u6d41\u3092": 2070,
    "\u9805\u76ee\u3092\u53c2\u7167": 2071,
    "\u5de5\u5b66\u90e8\u306e": 2072,
    "\u55b6\u696d\u6240\u6bd4\u53e1\u5c71": 2073,
    "\u702c": 2074,
    "his": 2075,
    "shi": 2076,
    "\u2581\u4eac\u798f\u96fb\u6c17\u9244\u9053\u53e1\u5c71\u30ed\u30fc\u30d7\u30a6\u30a7\u30a4": 2077,
    "\u2581\u8d05\u6ca2\u306a": 2078,
    "\u3057\u3087\u3046\u307c\u3046\u3052\u3093\u305e\u3046": 2079,
    "\u3057\u4f8d\u3089": 2080,
    "\u305b\u3056\u308b\u3092": 2081,
    "\u3066\u95a2\u6771\u7533\u6b21": 2082,
    "\u3068\u3082\u8a00\u308f\u308c": 2083,
    "\u306a\u304b\u306e\u304a\u304a\u3048\u306e": 2084,
    "\u306b\u4ed5\u3048\u308b\u5deb\u5973": 2085,
    "\u306b\u6240\u5728\u3059\u308b": 2086,
    "\u306b\u904e\u304e": 2087,
    "\u306e\u4e00\u822c\u9053\u8def\u90e8": 2088,
    "\u306e\u547c\u3073\u65b9\u304c": 2089,
    "\u306e\u6b74\u53f2\u306e": 2090,
    "\u306e\u73fe\u308c\u3067\u3042\u308b": 2091,
    "\u306f\u3059\u3079\u3066": 2092,
    "\u306f\u7687\u592a\u5b50": 2093,
    "\u3079\u304d\u306a\u308a": 2094,
    "\u3088\u304f\u3082\u65ad\u3058\u7d66\u3078\u308b\u3082\u306e\u304b\u306a": 2095,
    "\u308a\u3064\u3064\u3042\u308b": 2096,
    "\u308f\u3051\u306e\u307f\u3053\u3068": 2097,
    "\u3092\u610f\u5473\u3059\u308b\u8a9e": 2098,
    "\u3092\u964d\u81e8\u3055\u305b": 2099,
    "\u30a2\u30ca\u30ed\u30b0": 2100,
    "\u30ab\u30e1\u30e9\u30de\u30f3": 2101,
    "\u30ad\u30ed\u30e1\u30fc\u30c8\u30eb": 2102,
    "\u30b2\u30fc\u30e0": 2103,
    "\u30b5\u30fc\u30d3\u30b9\u30a8\u30ea\u30a2": 2104,
    "\u30b9\u30ad\u30fc\u5834": 2105,
    "\u30bf\u30ab\u30df\u30e0\u30b9\u30d3": 2106,
    "\u30c4": 2107,
    "\u30c7\u30b8\u30bf\u30eb": 2108,
    "\u30e2\u30c7\u30eb": 2109,
    "\u4eac\u90fd\u304b\u3089\u6728\u6d25\u3078": 2110,
    "\u4eac\u90fd\u7e26\u8cab\u81ea\u52d5\u8eca\u9053": 2111,
    "\u4eca\u51fa\u5ddd": 2112,
    "\u4f3a\u5019\u5e2d": 2113,
    "\u5099\u5fd8\u9332": 2114,
    "\u516b\u6761\u4fe1\u53f7\u6240": 2115,
    "\u516c\u5b97\u306f": 2116,
    "\u52f2\u4e00\u7b49": 2117,
    "\u5317\u3073\u308f\u3053": 2118,
    "\u53ea": 2119,
    "\u54f2": 2120,
    "\u5510": 2121,
    "\u5800\u5ddd\u901a\u5177\u306e": 2122,
    "\u5927\u4e45\u4fdd": 2123,
    "\u5927\u7dac\u7ae0\u3092": 2124,
    "\u5927\u962a\u7dcf\u5408": 2125,
    "\u5b9a\u5b50\u7687\u540e": 2126,
    "\u5ba3\u4ec1\u89aa\u738b\u5983": 2127,
    "\u5c64": 2128,
    "\u5c71\u9802\u904a\u5712\u5730": 2129,
    "\u5d4c": 2130,
    "\u5e03": 2131,
    "\u5e7c\u5c11\u306e": 2132,
    "\u5eb5\u539f\u90e1": 2133,
    "\u5f27": 2134,
    "\u5f92": 2135,
    "\u611b\u77e5\u770c\u540d\u53e4\u5c4b\u5e02": 2136,
    "\u6247": 2137,
    "\u6253": 2138,
    "\u6295": 2139,
    "\u62d2": 2140,
    "\u6307\u4ee4\u6240": 2141,
    "\u6614\u5922\u4f1a\u7b46\u8a18": 2142,
    "\u66f9\u6d1e\u5b97\u306e": 2143,
    "\u670b": 2144,
    "\u672c\u7dda\u4e0a\u3067\u306e": 2145,
    "\u677f": 2146,
    "\u67c4": 2147,
    "\u685c\u4e95\u7dda\u3078\u306e\u76f4\u901a\u5217\u8eca": 2148,
    "\u68b5": 2149,
    "\u68ee\u306e\u3086\u3046\u3048\u3093\u3061": 2150,
    "\u6900": 2151,
    "\u6d3e\u306e\u672c\u5c71": 2152,
    "\u6d5c\u540d\u90e1": 2153,
    "\u6d6e\u4e16\u7d75": 2154,
    "\u6e0b\u6ede\u3059\u308b\u3053\u3068\u304c": 2155,
    "\u6e56": 2156,
    "\u6f5c": 2157,
    "\u74b0\u5883\u5b66\u7814\u7a76\u79d1": 2158,
    "\u7570\u6bcd\u5144": 2159,
    "\u7687\u4f4d\u3092\u7d99": 2160,
    "\u771f\u5b97\u672c\u5edf": 2161,
    "\u77e2": 2162,
    "\u78ba\u8a3c\u306f": 2163,
    "\u7a3f": 2164,
    "\u7d0b": 2165,
    "\u7de0": 2166,
    "\u7e1e": 2167,
    "\u7f8e\u8cc0\u3068\u306e\u9593\u306b": 2168,
    "\u8015": 2169,
    "\u8033": 2170,
    "\u81ea\u52d5\u5217\u8eca\u505c\u6b62\u88c5\u7f6e": 2171,
    "\u81ea\u52d5\u8eca\u5c02\u7528\u9053\u8def": 2172,
    "\u8208\u8056\u5bfa": 2173,
    "\u83e9": 2174,
    "\u83f1": 2175,
    "\u8a2d\u3051\u3089\u308c\u3066\u3044\u308b": 2176,
    "\u8a72": 2177,
    "\u8ae1": 2178,
    "\u8d74": 2179,
    "\u8da3\u5473\u306b\u6ca1\u982d": 2180,
    "\u8dcb\u6587\u306b\u3088\u308c\u3070": 2181,
    "\u8f1d": 2182,
    "\u8f9e\u5b98\u7d0d\u5730": 2183,
    "\u9244\u9053\u8a18\u5ff5\u7269": 2184,
    "\u95a3": 2185,
    "\u96a0\u5c45\u8b39\u614e\u87c4\u5c45": 2186,
    "\u97f6": 2187,
    "\u5150": 2188,
    "\u8a13": 2189,
    "\u5de8": 2190,
    "\u690b": 2191,
    "\u8089": 2192,
    "\u30c6": 2193,
    "\u4e91": 2194,
    "\u5800": 2195,
    "\u5893": 2196,
    "\u621a": 2197,
    "\u672d": 2198,
    "\u6b04": 2199,
    "\u7c8b": 2200,
    "\u7d39": 2201,
    "\u7df4": 2202,
    "\u80e4": 2203,
    "\u8cdc": 2204,
    "\u93ae": 2205,
    "\u3083": 2206,
    "\u502b": 2207,
    "\u5224": 2208,
    "\u5bff": 2209,
    "\u5f25": 2210,
    "\u8a02": 2211,
    "\u8a70": 2212,
    "\u8cb7": 2213,
    "\u7d22": 2214,
    "\u79c0": 2215,
    "\u30bd": 2216,
    "\u629c": 2217,
    "\u643a": 2218,
    "\u7b97": 2219,
    "\u8a93": 2220,
    "\u53f8": 2221,
    "\u5410": 2222,
    "\u58c1": 2223,
    "\u6069": 2224,
    "\u66b4": 2225,
    "\u6848": 2226,
    "\u6fc0": 2227,
    "\u732e": 2228,
    "\u7a62": 2229,
    "\u8336": 2230,
    "\u30d4": 2231,
    "\u4f3c": 2232,
    "\u5546": 2233,
    "\u4ed5": 2234,
    "\u508d": 2235,
    "\u6f0f": 2236,
    "\u5bee": 2237,
    "\u578b": 2238,
    "\u54e1": 2239,
    "\u9152": 2240,
    "\u30dc": 2241,
    "\u594f": 2242,
    "\u7720": 2243,
    "\u713c": 2244,
    "\u59fb": 2245,
    "\u963f": 2246,
    "\u9ebb": 2247,
    "\u91cc": 2248,
    "\u64ad": 2249,
    "\u767e": 2250,
    "\u6176": 2251,
    "\u533b": 2252,
    "\u639b": 2253,
    "\u76db": 2254,
    "\u6545": 2255,
    "\u81f3": 2256,
    "\u5e9c": 2257,
    "\u962a": 2258,
    "\u9014": 2259,
    "\u5965": 2260,
    "\u583a": 2261,
    "\u6577": 2262,
    "\u5eab": 2263,
    "\u822c": 2264,
    "\u7531": 2265,
    "\u820e": 2266,
    "\u4eee": 2267,
    "\u756a": 2268,
    "\u5272": 2269,
    "\u88c1": 2270,
    "\u58f0": 2271,
    "\u4f75": 2272,
    "\u70ba": 2273,
    "\u7ae0": 2274,
    "\u679a": 2275,
    "\u30e5": 2276,
    "\u666e": 2277,
    "\u7235": 2278,
    "\u9769": 2279,
    "\u30d0": 2280,
    "\u5c02": 2281,
    "\u8d8a": 2282,
    "L": 2283,
    "\u99c6": 2284,
    "R": 2285,
    "\u7d0d": 2286,
    "\u6817": 2287,
    "\u5ef7": 2288,
    "\u685c": 2289,
    "g": 2290,
    "\u6cbc": 2291,
    "\u53ef": 2292,
    "\u4faf": 2293,
    "\u59ea": 2294,
    "\u984c": 2295,
    "k": 2296,
    "\u653e": 2297,
    "\u4ef6": 2298,
    "\u81f4": 2299,
    "\u5999": 2300,
    "\u59d3": 2301,
    "\u65ec": 2302,
    "\u67b6": 2303,
    "\u6803": 2304,
    "\u7384": 2305,
    "\u8108": 2306,
    "\u63a8": 2307,
    "\u9f8d": 2308,
    "\u30aa": 2309,
    "\u30ba": 2310,
    "\u570f": 2311,
    "\u7533": 2312,
    "\u822a": 2313,
    "\u6dc0": 2314,
    "\u907a": 2315,
    "\u9808": 2316,
    "\u5feb": 2317,
    "\u6574": 2318,
    "\u8ca1": 2319,
    "\u4e08": 2320,
    "\u4e73": 2321,
    "\u4ed9": 2322,
    "\u4fd7": 2323,
    "\u52c3": 2324,
    "\u544a": 2325,
    "\u5609": 2326,
    "\u5a01": 2327,
    "\u5b64": 2328,
    "\u62dd": 2329,
    "\u6355": 2330,
    "\u63c6": 2331,
    "\u63e1": 2332,
    "\u6749": 2333,
    "\u698a": 2334,
    "\u6bdb": 2335,
    "\u6cf0": 2336,
    "\u6f22": 2337,
    "\u718a": 2338,
    "\u725b": 2339,
    "\u786c": 2340,
    "\u79e9": 2341,
    "\u8179": 2342,
    "\u846c": 2343,
    "\u866b": 2344,
    "\u8b1d": 2345,
    "\u8ca0": 2346,
    "\u902e": 2347,
    "\u91e3": 2348,
    "\u5968": 2349,
    "\u8b21": 2350,
    "\u84ee": 2351,
    "\u67fb": 2352,
    "\u7532": 2353,
    "\u4f9b": 2354,
    "\u30d9": 2355,
    "\u30db": 2356,
    "\u30e4": 2357,
    "\u52a3": 2358,
    "\u52c9": 2359,
    "\u54ab": 2360,
    "\u5506": 2361,
    "\u5a9a": 2362,
    "\u5c04": 2363,
    "\u611a": 2364,
    "\u6271": 2365,
    "\u635c": 2366,
    "\u63a7": 2367,
    "\u689d": 2368,
    "\u6a39": 2369,
    "\u6b86": 2370,
    "\u6b8a": 2371,
    "\u6c57": 2372,
    "\u74ca": 2373,
    "\u76c6": 2374,
    "\u76fe": 2375,
    "\u77db": 2376,
    "\u7db1": 2377,
    "\u7dbe": 2378,
    "\u7f72": 2379,
    "\u7fc1": 2380,
    "\u8004": 2381,
    "\u81b3": 2382,
    "\u8a98": 2383,
    "\u8ae7": 2384,
    "\u8aeb": 2385,
    "\u8afe": 2386,
    "\u8ce2": 2387,
    "\u8e0a": 2388,
    "\u9041": 2389,
    "\u91dd": 2390,
    "\u9451": 2391,
    "\u6620": 2392,
    "\u99ff": 2393,
    "\u8c5a": 2394,
    "U": 2395,
    "\u4e5d": 2396,
    "\u4e92": 2397,
    "\u516d": 2398,
    "\u52b1": 2399,
    "\u53c8": 2400,
    "\u53e2": 2401,
    "\u5686": 2402,
    "\u5700": 2403,
    "\u59a8": 2404,
    "\u59d4": 2405,
    "\u5b5f": 2406,
    "\u5c3d": 2407,
    "\u5d8b": 2408,
    "\u5dba": 2409,
    "\u5e81": 2410,
    "\u5e9a": 2411,
    "\u5fb7": 2412,
    "\u6148": 2413,
    "\u61c7": 2414,
    "\u620a": 2415,
    "\u62e0": 2416,
    "\u6551": 2417,
    "\u6b27": 2418,
    "\u6b6f": 2419,
    "\u6c99": 2420,
    "\u6ce3": 2421,
    "\u6e5b": 2422,
    "\u6f5f": 2423,
    "\u708e": 2424,
    "\u731b": 2425,
    "\u731f": 2426,
    "\u7881": 2427,
    "\u793c": 2428,
    "\u7d61": 2429,
    "\u7db2": 2430,
    "\u7e41": 2431,
    "\u821f": 2432,
    "\u83ca": 2433,
    "\u85a8": 2434,
    "\u86c7": 2435,
    "\u8a63": 2436,
    "\u8b0e": 2437,
    "\u8cab": 2438,
    "\u8d85": 2439,
    "\u8e0f": 2440,
    "\u8e5f": 2441,
    "\u30cf": 2442,
    "\u4e18": 2443,
    "\u52df": 2444,
    "\u5f8b": 2445,
    "\u628a": 2446,
    "\u64a4": 2447,
    "\u65cb": 2448,
    "\u699b": 2449,
    "\u745c": 2450,
    "\u8072": 2451,
    "\u80ba": 2452,
    "\u9045": 2453,
    "\u90ca": 2454,
    "\u305c": 2455,
    "\u845b": 2456,
    "\u8c6a": 2457,
    "\u5fe0": 2458,
    "\u6319": 2459,
    "\u8907": 2460,
    "\u9858": 2461,
    "?": 2462,
    "G": 2463,
    "X": 2464,
    "b": 2465,
    "f": 2466,
    "v": 2467,
    "x": 2468,
    "y": 2469,
    "\u201c": 2470,
    "\u201d": 2471,
    "\u21d2": 2472,
    "\u3008": 2473,
    "\u3009": 2474,
    "\u30ad": 2475,
    "\u30b0": 2476,
    "\u30be": 2477,
    "\u30d3": 2478,
    "\u4e01": 2479,
    "\u4e1e": 2480,
    "\u4e86": 2481,
    "\u4f3a": 2482,
    "\u4f9d": 2483,
    "\u502d": 2484,
    "\u5098": 2485,
    "\u50cd": 2486,
    "\u5176": 2487,
    "\u520a": 2488,
    "\u5263": 2489,
    "\u526f": 2490,
    "\u52e7": 2491,
    "\u5352": 2492,
    "\u5374": 2493,
    "\u539a": 2494,
    "\u53e5": 2495,
    "\u552f": 2496,
    "\u5553": 2497,
    "\u5727": 2498,
    "\u58b3": 2499,
    "\u5951": 2500,
    "\u5954": 2501,
    "\u59ff": 2502,
    "\u5b78": 2503,
    "\u5b8b": 2504,
    "\u5bb8": 2505,
    "\u5bf6": 2506,
    "\u5c65": 2507,
    "\u5c90": 2508,
    "\u5d50": 2509,
    "\u5de1": 2510,
    "\u5de3": 2511,
    "\u5de7": 2512,
    "\u5e7c": 2513,
    "\u5e84": 2514,
    "\u5e97": 2515,
    "\u5ead": 2516,
    "\u5f34": 2517,
    "\u5f3e": 2518,
    "\u5f70": 2519,
    "\u5f81": 2520,
    "\u6028": 2521,
    "\u6050": 2522,
    "\u6052": 2523,
    "\u6094": 2524,
    "\u609f": 2525,
    "\u623b": 2526,
    "\u6255": 2527,
    "\u6279": 2528,
    "\u6284": 2529,
    "\u62b5": 2530,
    "\u62d7": 2531,
    "\u632b": 2532,
    "\u632f": 2533,
    "\u6392": 2534,
    "\u6469": 2535,
    "\u6483": 2536,
    "\u6495": 2537,
    "\u65a5": 2538,
    "\u65ac": 2539,
    "\u65e2": 2540,
    "\u662f": 2541,
    "\u66a2": 2542,
    "\u66ff": 2543,
    "\u6734": 2544,
    "\u67a2": 2545,
    "\u6842": 2546,
    "\u6850": 2547,
    "\u6893": 2548,
    "\u6a19": 2549,
    "\u6b3d": 2550,
    "\u6bc5": 2551,
    "\u6c72": 2552,
    "\u6c93": 2553,
    "\u6c96": 2554,
    "\u6cc1": 2555,
    "\u6d0b": 2556,
    "\u6d12": 2557,
    "\u6d74": 2558,
    "\u6f06": 2559,
    "\u70fd": 2560,
    "\u7232": 2561,
    "\u7247": 2562,
    "\u72d7": 2563,
    "\u72d9": 2564,
    "\u72e9": 2565,
    "\u7389": 2566,
    "\u74a7": 2567,
    "\u755d": 2568,
    "\u76e4": 2569,
    "\u78d0": 2570,
    "\u7981": 2571,
    "\u798d": 2572,
    "\u79a6": 2573,
    "\u79d8": 2574,
    "\u7a4f": 2575,
    "\u7a63": 2576,
    "\u7ac4": 2577,
    "\u7b51": 2578,
    "\u7b54": 2579,
    "\u7bc4": 2580,
    "\u7c3f": 2581,
    "\u7c97": 2582,
    "\u7d1b": 2583,
    "\u7dbf": 2584,
    "\u7def": 2585,
    "\u7e3e": 2586,
    "\u7e4d": 2587,
    "\u7f60": 2588,
    "\u7ff0": 2589,
    "\u8056": 2590,
    "\u8074": 2591,
    "\u80a5": 2592,
    "\u80a9": 2593,
    "\u80c6": 2594,
    "\u8131": 2595,
    "\u8170": 2596,
    "\u837b": 2597,
    "\u8457": 2598,
    "\u8475": 2599,
    "\u8499": 2600,
    "\u85ac": 2601,
    "\u8654": 2602,
    "\u8655": 2603,
    "\u885d": 2604,
    "\u88c2": 2605,
    "\u88cf": 2606,
    "\u88d4": 2607,
    "\u88d5": 2608,
    "\u8904": 2609,
    "\u898f": 2610,
    "\u89d2": 2611,
    "\u8a54": 2612,
    "\u8a85": 2613,
    "\u8aa0": 2614,
    "\u8ab0": 2615,
    "\u8abf": 2616,
    "\u8adc": 2617,
    "\u8b01": 2618,
    "\u8b80": 2619,
    "\u8ce3": 2620,
    "\u8cfc": 2621,
    "\u8d64": 2622,
    "\u8ecc": 2623,
    "\u8f14": 2624,
    "\u8f2f": 2625,
    "\u901e": 2626,
    "\u904d": 2627,
    "\u9060": 2628,
    "\u9061": 2629,
    "\u9069": 2630,
    "\u90a6": 2631,
    "\u90a8": 2632,
    "\u90aa": 2633,
    "\u90c1": 2634,
    "\u9115": 2635,
    "\u9280": 2636,
    "\u92ad": 2637,
    "\u9810": 2638,
    "\u5d07": 2639,
    "\u63da": 2640,
    "\u760d": 2641,
    "\u3086": 2642,
    "\u511f": 2643,
    "\u572d": 2644,
    "\u5be7": 2645,
    "\u6643": 2646,
    "\u66fd": 2647,
    "\u6cb9": 2648,
    "\u79ae": 2649,
    "\u82eb": 2650,
    "\u83c5": 2651,
    "\u8ae6": 2652,
    "\u92fc": 2653,
    "\u95c7": 2654,
    "\u68da": 2655,
    "\u504f": 2656,
    "\u512a": 2657,
    "\u5141": 2658,
    "\u5351": 2659,
    "\u5504": 2660,
    "\u58ec": 2661,
    "\u5c3b": 2662,
    "\u6383": 2663,
    "\u64ec": 2664,
    "\u65bc": 2665,
    "\u6627": 2666,
    "\u66d6": 2667,
    "\u70cf": 2668,
    "\u7422": 2669,
    "\u7460": 2670,
    "\u7483": 2671,
    "\u76df": 2672,
    "\u7d14": 2673,
    "\u8129": 2674,
    "\u8feb": 2675,
    "\u93d1": 2676,
    "\u5fb4": 2677,
    "\u4ef2": 2678,
    "\u5076": 2679,
    "\u51b7": 2680,
    "\u5208": 2681,
    "\u524a": 2682,
    "\u55ab": 2683,
    "\u5947": 2684,
    "\u5e33": 2685,
    "\u5fb9": 2686,
    "\u60a0": 2687,
    "\u63d0": 2688,
    "\u653b": 2689,
    "\u6563": 2690,
    "\u6816": 2691,
    "\u6a58": 2692,
    "\u6a59": 2693,
    "\u6d6a": 2694,
    "\u6d6e": 2695,
    "\u6e1b": 2696,
    "\u71be": 2697,
    "\u73cd": 2698,
    "\u7761": 2699,
    "\u7834": 2700,
    "\u7965": 2701,
    "\u7aba": 2702,
    "\u7e55": 2703,
    "\u7fd4": 2704,
    "\u864e": 2705,
    "\u878d": 2706,
    "\u887e": 2707,
    "\u8986": 2708,
    "\u8cdb": 2709,
    "\u8d08": 2710,
    "\u8fce": 2711,
    "\u9038": 2712,
    "\u9077": 2713,
    "\u90f7": 2714,
    "\u92ed": 2715,
    "\u95b2": 2716,
    "\u8a08": 2717,
    "\u2015": 2718,
    "\u4fb6": 2719,
    "\u4fca": 2720,
    "\u5a5a": 2721,
    "\u30a8": 2722,
    "\u5023": 2723,
    "\u50b7": 2724,
    "\u53f1": 2725,
    "\u58ca": 2726,
    "\u5bb0": 2727,
    "\u5bf5": 2728,
    "\u5c1a": 2729,
    "\u5cb8": 2730,
    "\u5df1": 2731,
    "\u5e1b": 2732,
    "\u5e63": 2733,
    "\u5e95": 2734,
    "\u606f": 2735,
    "\u67f3": 2736,
    "\u6c42": 2737,
    "\u7948": 2738,
    "\u7b48": 2739,
    "\u7d41": 2740,
    "\u805a": 2741,
    "\u8461": 2742,
    "\u8861": 2743,
    "\u8ab2": 2744,
    "\u8cac": 2745,
    "\u8e8d": 2746,
    "\u906d": 2747,
    "\u907d": 2748,
    "\u3071": 2749,
    "\u541f": 2750,
    "\u5b41": 2751,
    "\u5be9": 2752,
    "\u674e": 2753,
    "\u8a69": 2754,
    "\u6012": 2755,
    "\u6367": 2756,
    "\u6ce5": 2757,
    "\u7f75": 2758,
    "\u9154": 2759,
    "\u30cb": 2760,
    "\u5ac1": 2761,
    "\u5e2d": 2762,
    "\u602a": 2763,
    "\u622f": 2764,
    "\u77ef": 2765,
    "\u8105": 2766,
    "\u6c10": 2767,
    "\u4f2f": 2768,
    "\u7c92": 2769,
    "\u8679": 2770,
    "\u9087": 2771,
    "\u99d2": 2772,
    "\u98e9": 2773,
    "\u9867": 2774,
    "\u9670": 2775,
    "\u9591": 2776,
    "\u934b": 2777,
    "\u90ed": 2778,
    "\u9081": 2779,
    "\u9063": 2780,
    "\u904a": 2781,
    "\u8fe6": 2782,
    "\u8fc2": 2783,
    "\u8f44": 2784,
    "\u8dcb": 2785,
    "\u8d66": 2786,
    "\u8d05": 2787,
    "\u8cb8": 2788,
    "\u8a8c": 2789,
    "\u888b": 2790,
    "\u87c4": 2791,
    "\u8702": 2792,
    "\u84b2": 2793,
    "\u8494": 2794,
    "\u8466": 2795,
    "\u8328": 2796,
    "\u82a5": 2797,
    "\u811a": 2798,
    "\u80af": 2799,
    "\u7e70": 2800,
    "\u7dac": 2801,
    "\u7b87": 2802,
    "\u7adc": 2803,
    "\u7a42": 2804,
    "\u7a1c": 2805,
    "\u78ef": 2806,
    "\u7387": 2807,
    "\u7344": 2808,
    "\u727d": 2809,
    "\u707d": 2810,
    "\u6daf": 2811,
    "\u6d1b": 2812,
    "\u6cc9": 2813,
    "\u6a3d": 2814,
    "\u673d": 2815,
    "\u671b": 2816,
    "\u66fe": 2817,
    "\u66f9": 2818,
    "\u6666": 2819,
    "\u663c": 2820,
    "\u64c1": 2821,
    "\u63f6": 2822,
    "\u63c4": 2823,
    "\u6368": 2824,
    "\u62fe": 2825,
    "\u6291": 2826,
    "\u6216": 2827,
    "\u61d0": 2828,
    "\u616e": 2829,
    "\u60f0": 2830,
    "\u604b": 2831,
    "\u5fcd": 2832,
    "\u5f69": 2833,
    "\u5eb5": 2834,
    "\u5e72": 2835,
    "\u5df3": 2836,
    "\u5a7f": 2837,
    "\u596a": 2838,
    "\u5958": 2839,
    "\u5915": 2840,
    "\u56f0": 2841,
    "\u541b": 2842,
    "\u53db": 2843,
    "\u5360": 2844,
    "\u52f2": 2845,
    "\u5243": 2846,
    "\u523b": 2847,
    "\u514d": 2848,
    "\u5132": 2849,
    "\u5039": 2850,
    "\u4fbf": 2851,
    "\u4f8b": 2852,
    "\u4f5b": 2853,
    "\u30e8": 2854,
    "\u30bc": 2855,
    "\u30b2": 2856,
    "\u30a3": 2857,
    "j": 2858,
    "\u9ebf": 2859,
    "\u8fba": 2860,
    "\u8b66": 2861,
    "\u8607": 2862,
    "\u8212": 2863,
    "\u72db": 2864,
    "\u6f84": 2865,
    "\u6982": 2866,
    "\u6697": 2867,
    "\u65e8": 2868,
    "\u62c5": 2869,
    "\u6280": 2870,
    "\u5f6c": 2871,
    "\u5edf": 2872,
    "\u5e79": 2873,
    "\u5e0c": 2874,
    "\u5deb": 2875,
    "\u5bdf": 2876,
    "\u5922": 2877,
    "\u585e": 2878,
    "\u5531": 2879,
    "\u548b": 2880,
    "\u540e": 2881,
    "\u53d4": 2882,
    "\u5305": 2883,
    "\u5192": 2884,
    "\u4f8d": 2885,
    "\u4e39": 2886,
    "\u30b1": 2887,
    "\u97ff": 2888,
    "\u9694": 2889,
    "\u9234": 2890,
    "\u8f03": 2891,
    "\u8da3": 2892,
    "\u8c9e": 2893,
    "\u8a2a": 2894,
    "\u8870": 2895,
    "\u7fbd": 2896,
    "\u7436": 2897,
    "\u7435": 2898,
    "\u6d1e": 2899,
    "\u6518": 2900,
    "\u63ee": 2901,
    "\u61a9": 2902,
    "\u60c5": 2903,
    "\u5dbd": 2904,
    "\u5d6f": 2905,
    "\u5ce8": 2906,
    "\u585a": 2907,
    "\u57df": 2908,
    "\u4f38": 2909,
    "\u4f10": 2910,
    "\u4ef0": 2911,
    "\u30ef": 2912,
    "\u30a1": 2913,
    "s": 2914,
    "_": 2915,
    "\u9752": 2916,
    "\u9396": 2917,
    "\u8fd4": 2918,
    "\u8ddd": 2919,
    "\u8ca8": 2920,
    "\u8a95": 2921,
    "\u7bb1": 2922,
    "\u66d9": 2923,
    "\u6458": 2924,
    "\u5fd8": 2925,
    "\u5439": 2926,
    "\u529f": 2927,
    "\u5287": 2928,
    "\u5019": 2929,
    "\u9e1e": 2930,
    "\u907c": 2931,
    "\u88c5": 2932,
    "\u7e82": 2933,
    "\u7a76": 2934,
    "\u7814": 2935,
    "\u7763": 2936,
    "\u6ede": 2937,
    "\u6a97": 2938,
    "\u64ae": 2939,
    "\u5983": 2940,
    "\u4e26": 2941,
    "\u30e7": 2942,
    "\u9190": 2943,
    "\u918d": 2944,
    "\u8fbc": 2945,
    "\u8f09": 2946,
    "\u5e61": 2947,
    "\u5937": 2948,
    "\u30e3": 2949,
    "\u30b6": 2950,
    "\u30ae": 2951,
    "\u3085": 2952,
    "\u9ec4": 2953,
    "\u914d": 2954,
    "\u8f38": 2955,
    "\u8a55": 2956,
    "\u8377": 2957,
    "\u7a32": 2958,
    "\u5c31": 2959,
    "\u8b5c": 2960,
    "\u81e8": 2961,
    "\u592e": 2962,
    "\u30c0": 2963,
    "\u3065": 2964,
    "\u8857": 2965,
    "\u65bd": 2966,
    "\u9802": 2967,
    "\u7dad": 2968,
    "\u30a7": 2969,
    "\u307c": 2970,
    "\u964d": 2971,
    "\u8b39": 2972,
    "\u85a9": 2973,
    "\u614e": 2974,
    "\u5909": 2975,
    "\u30ca": 2976,
    "\u6843": 2977,
    "\u5199": 2978,
    "\u4f11": 2979,
    "\u8a31": 2980,
    "\u767b": 2981,
    "\u65c5": 2982,
    "\u62b9": 2983,
    "\u5c11": 2984,
    "\u4fc2": 2985,
    "\u505c": 2986,
    "\u3079": 2987,
    "\u30e1": 2988,
    "\u307b": 2989,
    "\u4f0f": 2990,
    "\u6ecb": 2991,
    "\u84b8": 2992,
    "\u7f6e": 2993,
    "\u53e1": 2994,
    "\u662d": 2995,
    "\u5b87": 2996,
    "\u30de": 2997,
    "\u7167": 2998,
    "\u5948": 2999,
    "\u8def": 3000
  },
  "tgt_word2id": {
    "<pad>": 0,
    "<s>": 1,
    "</s>": 2,
    "<unk>": 3,
    "\u2581": 4,
    "\u2581the": 5,
    ",": 6,
    ".": 7,
    "\u2581of": 8,
    "s": 9,
    "\u2581(": 10,
    "and": 11,
    "ed": 12,
    "-": 13,
    "\u2581to": 14,
    "\u2581a": 15,
    "\u2581in": 16,
    ")": 17,
    "\u2581was": 18,
    "e": 19,
    "ing": 20,
    "\u2581is": 21,
    "\u2581Station": 22,
    "n": 23,
    "\u2581The": 24,
    "'": 25,
    "\"": 26,
    "\u2581\"": 27,
    "\u2581as": 28,
    "\u2581f": 29,
    "\u2581that": 30,
    ":": 31,
    "y": 32,
    "d": 33,
    "\u2581by": 34,
    "\u2581he": 35,
    "rom": 36,
    "\u2581be": 37,
    "\u2581on": 38,
    "\u2581Kyoto": 39,
    "en": 40,
    "\u2581his": 41,
    "\u2581no": 42,
    "ly": 43,
    "t": 44,
    "a": 45,
    "al": 46,
    "ji": 47,
    "i": 48,
    "o": 49,
    "\u2581with": 50,
    "\u2581at": 51,
    "\u2581for": 52,
    "\u2581City": 53,
    "\u2581A": 54,
    "\u2581N": 55,
    "\u2581Line": 56,
    "\u2581S": 57,
    ").": 58,
    "\u2581Prefecture": 59,
    "\u2581Yoshinobu": 60,
    "in": 61,
    "wee": 62,
    "\u2581Emperor": 63,
    "),": 64,
    "\u2581bet": 65,
    "were": 66,
    "\u2581-": 67,
    "\u2581Nara": 68,
    "\u2581it": 69,
    "\u2581M": 70,
    ";": 71,
    "\u2581In": 72,
    "ion": 73,
    "but": 74,
    "\u2581Daimyo": 75,
    "\u2581which": 76,
    "th": 77,
    "\u2581who": 78,
    "\u2581are": 79,
    "\u2581an": 80,
    "r": 81,
    "\u2581O": 82,
    "u": 83,
    "juku": 84,
    "\u2581'": 85,
    "\u2581or": 86,
    "\u2581It": 87,
    "the": 88,
    "\u2581He": 89,
    "\u2581Family": 90,
    "\u2581after": 91,
    "\u2581line": 92,
    "l": 93,
    "ring": 94,
    "\u2581B": 95,
    "had": 96,
    "shu": 97,
    "erial": 98,
    "ational": 99,
    "\u2581T": 100,
    "\u2581name": 101,
    "Amaterasu": 102,
    "\u2581Japan": 103,
    "\u2581TOKUGAWA": 104,
    "to": 105,
    "\u2581C": 106,
    "\u2581call": 107,
    "\u2581this": 108,
    "\u2581Japanese": 109,
    "\u2581Uji": 110,
    "\u2581Shogun": 111,
    "\u2581hav": 112,
    "\u2581Omikami": 113,
    "\u2581E": 114,
    "\u2581Temple": 115,
    "lso": 116,
    "no": 117,
    "\u2581Imp": 118,
    "\u2581Edo": 119,
    "\u2581c": 120,
    "ko": 121,
    "\u2581train": 122,
    "\u2581used": 123,
    "ku": 124,
    "ki": 125,
    "ro": 126,
    "jo": 127,
    "\u2581period": 128,
    "/": 129,
    "\u2581there": 130,
    "K": 131,
    "red": 132,
    "ent": 133,
    "er": 134,
    "han": 135,
    "\u2581s": 136,
    "\u2581one": 137,
    "g": 138,
    "ge": 139,
    "\u2581Railway": 140,
    "c": 141,
    "ever": 142,
    "\u2581re": 143,
    "se": 144,
    "\u2581Class": 145,
    "\u2581du": 146,
    "ation": 147,
    "\u2581not": 148,
    "came": 149,
    "\u2581wh": 150,
    "\u2581P": 151,
    "\u2581School": 152,
    "\u2581some": 153,
    "\u2581service": 154,
    "\u2581I": 155,
    "ten": 156,
    "\u2581god": 157,
    "ir": 158,
    "\u2581her": 159,
    "\u2581rapid": 160,
    "\u2581Shomyo": 161,
    "\u2581On": 162,
    "\u2581Railways": 163,
    "ra": 164,
    "\u2581Ward": 165,
    "ment": 166,
    "\u2581b": 167,
    "\u2581JR": 168,
    "\u2581Shizuoka": 169,
    "\u2581family": 170,
    "\u2581Osaka": 171,
    "\u2581order": 172,
    "\u2581its": 173,
    "\u2581time": 174,
    "has": 175,
    "\u2581w": 176,
    "\u2581book": 177,
    "\u2581opened": 178,
    "ei": 179,
    "\u2581t": 180,
    "\u2581stations": 181,
    "\u2581Ko": 182,
    "\u2581H": 183,
    "M": 184,
    "\u2581There": 185,
    "\u2581son": 186,
    "The": 187,
    "h": 188,
    "\u2581D": 189,
    "\u2581Shogunate": 190,
    "m": 191,
    "O": 192,
    "C": 193,
    "\u2581Drama": 194,
    "\u2581through": 195,
    "\u2581R": 196,
    "\u2581Thi": 197,
    "\u2581Sa": 198,
    "cho": 199,
    "\u2581un": 200,
    "H": 201,
    "\u2581December": 202,
    "\u2581Series": 203,
    "\u2581Kizu": 204,
    "arch": 205,
    "ance": 206,
    "tion": 207,
    "or": 208,
    "\u2581so": 209,
    "shin": 210,
    "\u2581To": 211,
    "\u2581L": 212,
    "I": 213,
    "es": 214,
    "st": 215,
    "\u2581region": 216,
    "\u2581daughter": 217,
    "\u2581Tokugawa": 218,
    "\u2581Hiei": 219,
    "ter": 220,
    "ri": 221,
    "yama": 222,
    "\u2581p": 223,
    "te": 224,
    "\u258118": 225,
    "do": 226,
    "\u2581Locomotive": 227,
    "\u2581because": 228,
    "\u2581first": 229,
    "f": 230,
    "\u2581clan": 231,
    "shi": 232,
    "\u2581section": 233,
    "ta": 234,
    "ight": 235,
    "\u2581other": 236,
    "\u2581Train": 237,
    "\u2581km": 238,
    "mpress": 239,
    "JR": 240,
    "\u2581Clan": 241,
    "ut": 242,
    "into": 243,
    "ga": 244,
    "\u2581trains": 245,
    "\u25813": 246,
    "\u258119": 247,
    "\u2581run": 248,
    "\u2581How": 249,
    "\u2581Highway": 250,
    "gun": 251,
    "\u2581Steam": 252,
    "fact": 253,
    "\u2581chapters": 254,
    "ary": 255,
    "ther": 256,
    "\u2581sam": 257,
    "le": 258,
    "k": 259,
    "ichi": 260,
    "such": 261,
    "pri": 262,
    "ur": 263,
    "an": 264,
    "A": 265,
    "\u2581Tenchi": 266,
    "\u2581main": 267,
    "\u2581two": 268,
    "Tenji": 269,
    "\u2581you": 270,
    "round": 271,
    "\u2581Hon": 272,
    "ll": 273,
    "\u2581go": 274,
    "gan": 275,
    "ok": 276,
    "\u2581work": 277,
    "\u25811": 278,
    "ai": 279,
    "gawa": 280,
    "\u2581school": 281,
    "\u2581Manu": 282,
    "\u2581rank": 283,
    "Tokaido": 284,
    "on": 285,
    "\u2581JNR": 286,
    "sho": 287,
    "\u2581sect": 288,
    "\u2581Fushimi": 289,
    "san": 290,
    "ar": 291,
    "um": 292,
    "ic": 293,
    "\u2581writ": 294,
    "\u2581loc": 295,
    "\u2581Company": 296,
    "\u2581Umekoji": 297,
    "\u2581Road": 298,
    "\u2581cars": 299,
    "\u2581locomotives": 300,
    "\u2581July": 301,
    "\u2581established": 302,
    "made": 303,
    "\u2581up": 304,
    "\u2581form": 305,
    "ma": 306,
    "fore": 307,
    "\u2581man": 308,
    "7": 309,
    "\u2581out": 310,
    "mi": 311,
    "\u2581station": 312,
    "N": 313,
    "3": 314,
    "p": 315,
    "\u2581him": 316,
    "\u2581temple": 317,
    "\u2581Court": 318,
    "\u2581Registra": 319,
    "\u2581Transfer": 320,
    "\u2581marri": 321,
    "\u2581West": 322,
    "\u2581Meiji": 323,
    "\u2581part": 324,
    "\u2581Ma": 325,
    "\u2581Shin": 326,
    "\u2581G": 327,
    "\u2581F": 328,
    "ers": 329,
    "\u2581ex": 330,
    "at": 331,
    "ke": 332,
    "\u2581Oyamazaki": 333,
    "\u2581branch": 334,
    "\u2581perform": 335,
    "\u2581After": 336,
    "\u2581Bypass": 337,
    "\u2581collect": 338,
    "\u2581politic": 339,
    "\u2581consider": 340,
    "\u2581place": 341,
    "\u2581found": 342,
    "\u2581where": 343,
    "\u2581de": 344,
    "\u2581bas": 345,
    "5": 346,
    "\u2581Kei": 347,
    "2": 348,
    "as": 349,
    "oshi": 350,
    "wa": 351,
    "ka": 352,
    "\u2581Sho": 353,
    "\u2581Kin": 354,
    "she": 355,
    "team": 356,
    "\u2581chang": 357,
    "ould": 358,
    "\u2581Interchange": 359,
    "\u2581Service": 360,
    "Shobogenzo": 361,
    "\u2581people": 362,
    "\u2581power": 363,
    "\u2581University": 364,
    "\u2581those": 365,
    "\u2581said": 366,
    "\u2581delet": 367,
    "\u2581Miko": 368,
    "\u2581four": 369,
    "\u2581Main": 370,
    "\u2581position": 371,
    "\u2581Kan": 372,
    "\u2581bo": 373,
    "\u2581like": 374,
    "ce": 375,
    "led": 376,
    "\u2581former": 377,
    "\u258115": 378,
    "\u2581manuscript": 379,
    "ong": 380,
    "ari": 381,
    "\u2581old": 382,
    "\u2581Shig": 383,
    "oku": 384,
    "us": 385,
    "\u2581age": 386,
    "\u2581use": 387,
    "\u2581world": 388,
    "\u2581Temmu": 389,
    "\u2581Book": 390,
    "\u2581Kamakura": 391,
    "\u2581death": 392,
    "\u2581Kumiyama": 393,
    "\u2581under": 394,
    "urban": 395,
    "\u2581operation": 396,
    "\u2581sun": 397,
    "\u2581Domain": 398,
    "ld": 399,
    "ber": 400,
    "\u2581Ta": 401,
    "kan": 402,
    "\u2581ha": 403,
    "\u2581Du": 404,
    ".\"": 405,
    "\u2581Otsu": 406,
    "\u2581September": 407,
    "\u2581more": 408,
    "\u2581Mi": 409,
    "\u2581bor": 410,
    "out": 411,
    "own": 412,
    "B": 413,
    "ded": 414,
    "ies": 415,
    "b": 416,
    "8": 417,
    "et": 418,
    "\u2581includ": 419,
    "\u2581Shrine": 420,
    "ne": 421,
    "\u2581follow": 422,
    "yo": 423,
    "\u2581day": 424,
    "rd": 425,
    "\u258130": 426,
    "re": 427,
    "apid": 428,
    "\u2581Momoyama": 429,
    "\u2581system": 430,
    "\u2581temporar": 431,
    "\u2581various": 432,
    "\u2581died": 433,
    "\u2581Sub": 434,
    "\u2581even": 435,
    "\u2581since": 436,
    "\u2581can": 437,
    "\u2581Hitotsubashi": 438,
    "\u2581thre": 439,
    "til": 440,
    "\u2581mov": 441,
    "ive": 442,
    "ived": 443,
    "\u2581K": 444,
    "E": 445,
    "\u2581brother": 446,
    "it": 447,
    "\u2581August": 448,
    "w": 449,
    "ock": 450,
    "\u25812": 451,
    "ome": 452,
    "Emperor": 453,
    "\u2581U": 454,
    "age": 455,
    "\u258112": 456,
    "izu": 457,
    "\u2581Y": 458,
    "bo": 459,
    "\u2581dis": 460,
    "\u2581discipl": 461,
    "ern": 462,
    "ard": 463,
    "]": 464,
    "\u25811987": 465,
    "\u2581abolished": 466,
    "\u2581limit": 467,
    "\u2581schedule": 468,
    "\u2581Nariaki": 469,
    "\u2581adopt": 470,
    "\u2581preservation": 471,
    "\u2581confinement": 472,
    "\u2581Joyo": 473,
    "\u2581Tendai": 474,
    "\u2581Tokyo": 475,
    "\u2581becom": 476,
    "\u2581signal": 477,
    "\u2581class": 478,
    "illow": 479,
    "\u2581mother": 480,
    "\u2581known": 481,
    "\u2581end": 482,
    "\u2581January": 483,
    "\u2581began": 484,
    "est": 485,
    "\u2581did": 486,
    "\u2581heir": 487,
    "\u2581land": 488,
    "\u2581theory": 489,
    "\u2581all": 490,
    "\u2581over": 491,
    "\u2581refer": 492,
    "\u258110,": 493,
    "ted": 494,
    "\u2581came": 495,
    "track": 496,
    "\u2581Go": 497,
    "former": 498,
    "\u2581Yoshi": 499,
    "td": 500,
    "\u2581d": 501,
    "\u2581ga": 502,
    "able": 503,
    "\u2581gods": 504,
    "\u25811,": 505,
    "cept": 506,
    "ical": 507,
    "9": 508,
    "\u2581Engine": 509,
    "\u2581connect": 510,
    "\u2581vi": 511,
    "gi": 512,
    "62": 513,
    "ama": 514,
    "ecause": 515,
    "Nihon": 516,
    "\u25811979": 517,
    "\u2581Depot": 518,
    "\u2581government": 519,
    "\u2581mountain": 520,
    "\u2581life": 521,
    "\u2581introduced": 522,
    "\u2581kami": 523,
    "\u2581Expressway": 524,
    "\u2581Office": 525,
    "\u2581Television": 526,
    "will": 527,
    "\u2581giv": 528,
    "\u2581army": 529,
    "\u2581rece": 530,
    "\u2581person": 531,
    "\u2581official": 532,
    "\u2581era": 533,
    "\u2581Mei": 534,
    "less": 535,
    "\u2581head": 536,
    "\u2581father": 537,
    "\u2581abo": 538,
    "hron": 539,
    "\u2581accord": 540,
    "\u2581road": 541,
    "inryu": 542,
    "\u2581Oct": 543,
    "\u2581am": 544,
    "\u2581Ki": 545,
    "ence": 546,
    "if": 547,
    "\u2581own": 548,
    "ew": 549,
    "\u2581Sei": 550,
    "ure": 551,
    "long": 552,
    "\u258110": 553,
    "\u258111": 554,
    "ccord": 555,
    "\u2581lines": 556,
    "za": 557,
    "\u2581Co": 558,
    "tai": 559,
    "\u2581Ima": 560,
    "ju": 561,
    "\u2581direct": 562,
    "1": 563,
    "\u2581Buddhist": 564,
    "\u2581Castle": 565,
    "\u2581College": 566,
    "\u2581November": 567,
    "\u2581domain": 568,
    "\u2581stops": 569,
    "\u2581accept": 570,
    "\u2581while": 571,
    "\u2581visit": 572,
    "\u2581koku": 573,
    "\u2581building": 574,
    "\u2581Sakura": 575,
    "\u2581Mito": 576,
    "\u2581Shinto": 577,
    "\u2581Kanagawa": 578,
    "\u2581how": 579,
    "\u2581High": 580,
    "\u2581Yamato": 581,
    "achi": 582,
    "\u2581Michi": 583,
    "ity": 584,
    "\u2581Kyo": 585,
    "\u2581Ha": 586,
    "\u2581means": 587,
    "na": 588,
    "zo": 589,
    "\u2581original": 590,
    "tic": 591,
    "\u2581IC": 592,
    "\u2581designate": 593,
    "iga": 594,
    "\u2581built": 595,
    "\u2581Higashi": 596,
    "ated": 597,
    "\u2581Dogen": 598,
    "S": 599,
    "\u2581though": 600,
    "\u2581At": 601,
    "\u2581sp": 602,
    "be": 603,
    "ura": 604,
    "\u25814": 605,
    "ant": 606,
    "\u2581ever": 607,
    "\u2581rule": 608,
    "53": 609,
    "though": 610,
    "ni": 611,
    "\u2581often": 612,
    ");": 613,
    "tary": 614,
    "\u2581group": 615,
    "der": 616,
    "ified": 617,
    "ve": 618,
    "\u2581fact": 619,
    "nger": 620,
    "\u2581Wh": 621,
    "\u2581bi": 622,
    "\u2581express": 623,
    "\u2581San": 624,
    "\u2581Ji": 625,
    "mori": 626,
    "\u2581say": 627,
    "\u2581Ya": 628,
    "6": 629,
    "\u2581consist": 630,
    "attle": 631,
    "\u2581high": 632,
    "ox": 633,
    "\u2581Buddhism": 634,
    "\u2581Transport": 635,
    "higashi": 636,
    "\u2014": 637,
    "\u2581Iemochi": 638,
    "\u2581Zuimonki": 639,
    "\u2581different": 640,
    "\u2581Rolling": 641,
    "icles": 642,
    "\u2581Restoration": 643,
    "\u2581control": 644,
    "still": 645,
    "\u2581Shingon": 646,
    "\u2581general": 647,
    "\u2581highway": 648,
    "\u2581221": 649,
    "\u258122": 650,
    "Keiki": 651,
    "tetsu": 652,
    "way": 653,
    "\u258123": 654,
    "\u2581Kans": 655,
    "\u2581Kai": 656,
    "\u2581left": 657,
    "\u2581half": 658,
    "\u2581Junction": 659,
    "\u2581great": 660,
    "\u2581early": 661,
    "\u2581driver": 662,
    "\u2581Choshu": 663,
    "\u2581them": 664,
    "\u2581now": 665,
    "\u25812003": 666,
    "aisei": 667,
    "\u2581imp": 668,
    "ions": 669,
    "chi": 670,
    "\u2581ab": 671,
    "\u25816": 672,
    "\u2581mi": 673,
    "\u2581Tai": 674,
    "\u2581Miyakoji": 675,
    "\u2581days": 676,
    "\u258153": 677,
    "\u2581As": 678,
    "ho": 679,
    "aki": 680,
    "\u2581l": 681,
    "me": 682,
    "for": 683,
    "Shogun": 684,
    "un": 685,
    "))": 686,
    "bu": 687,
    "\u2581compris": 688,
    "ryu": 689,
    "\u2581mak": 690,
    "dai": 691,
    "Ko": 692,
    "\u2581Commu": 693,
    "kawa": 694,
    "51": 695,
    "\u2581respect": 696,
    "\u2581facilit": 697,
    "\u2581rail": 698,
    "\u2581#1": 699,
    "\u2581character": 700,
    "registered": 701,
    "\u2252": 702,
    "\u2581MATSUDAIRA": 703,
    "\u2581SAIONJI": 704,
    "\u2581castle": 705,
    "\u2581minutes": 706,
    "\u2581title": 707,
    "\u2581Prince": 708,
    "\u2581beginning": 709,
    "\u2581support": 710,
    "\u2581Hokan": 711,
    "\u258129,": 712,
    "\u2581maj": 713,
    "\u2581eye": 714,
    "\u2581well": 715,
    "\u2581number": 716,
    "\u2581education": 717,
    "\u2581Seta": 718,
    "fuku": 719,
    "\u2581seem": 720,
    "ddle": 721,
    "yodo": 722,
    "\u2581enter": 723,
    "\u2581east": 724,
    "\u2581An": 725,
    "\u2581second": 726,
    "\u2581Shoki": 727,
    "\u2581pass": 728,
    "\u2581restored": 729,
    "\u2581peak": 730,
    "\u2581Shimeigatake": 731,
    "\u2581Kawasaki": 732,
    "\u2581Satsuma": 733,
    "\u2581shrine": 734,
    "\u2581area": 735,
    "il": 736,
    "\u2581another": 737,
    "\u258124": 738,
    "current": 739,
    "\u2581Dai": 740,
    "\u2581sent": 741,
    "\u2581vassal": 742,
    "\u2581ver": 743,
    "\u2581present": 744,
    "da": 745,
    "lu": 746,
    "\u2581therefore": 747,
    "ound": 748,
    "000": 749,
    "ch": 750,
    "\u2581side": 751,
    "\u2581Ryo": 752,
    "\u2581take": 753,
    "\u2581Shi": 754,
    "tsu": 755,
    "of": 756,
    "grat": 757,
    "\u2581long": 758,
    "\u2581mo": 759,
    "\u25818": 760,
    "\u2581Fu": 761,
    "ate": 762,
    "T": 763,
    "is": 764,
    "\u2581con": 765,
    "\u2581Kok": 766,
    "op": 767,
    "Miyakoji": 768,
    "Dogen": 769,
    "sai": 770,
    "ver": 771,
    "\u2581author": 772,
    "\u2581Keij": 773,
    "\u25817": 774,
    "\u2581Ju": 775,
    "ally": 776,
    "\u2581year": 777,
    "\u2581names": 778,
    "\u2581W": 779,
    "50": 780,
    "\u2581Al": 781,
    "\u2581referr": 782,
    "\u258120": 783,
    "ink": 784,
    "\u2581War": 785,
    "\u2581193": 786,
    "econd": 787,
    "ized": 788,
    "\u258116": 789,
    "ffic": 790,
    "ught": 791,
    "\u2581Buddha": 792,
    "special": 793,
    "\u2581#2": 794,
    "\u2581Himemiko": 795,
    "\u2581Nippo": 796,
    "\u2581SHIMAZU": 797,
    "\u2581Working": 798,
    "\u2581famous": 799,
    "\u2581point": 800,
    "morning": 801,
    "\u2581entire": 802,
    "\u2581guardian": 803,
    "\u2581Bunko": 804,
    "\u2581caus": 805,
    "\u2581Ieyasu": 806,
    "\u2581music": 807,
    "\u2581contain": 808,
    "\u2581Shonagon": 809,
    "\u2581fall": 810,
    "taka": 811,
    "\u2581reform": 812,
    "\u2581Bridge": 813,
    "\u2581enemy": 814,
    "kyo": 815,
    "bara": 816,
    "\u2581located": 817,
    "\u2581preserved": 818,
    "baku": 819,
    "\u2581exist": 820,
    "\u2581tra": 821,
    "\u2581national": 822,
    "\u2581direction": 823,
    "\u2581dist": 824,
    "\u2581*": 825,
    "\u2581female": 826,
    "\u2581FUJIWARA": 827,
    "\u2581wife": 828,
    "\u2581Jingu": 829,
    "\u2581Hit": 830,
    "ess": 831,
    "\u2581cop": 832,
    "\u2581type": 833,
    "one": 834,
    "oe": 835,
    "\u2581Kami": 836,
    "\u258117": 837,
    "elt": 838,
    "\u2581years": 839,
    "\u2581writing": 840,
    "D": 841,
    "ast": 842,
    "mon": 843,
    "\u2581Sh": 844,
    "\u2581idea": 845,
    "\u2581Hi": 846,
    "\u2581Mu": 847,
    "\u2581ran": 848,
    "oya": 849,
    "\u25815,": 850,
    "\u2581Masahi": 851,
    "rai": 852,
    "\u2581se": 853,
    "\u258113": 854,
    "\u2581Taka": 855,
    "\u2581Naka": 856,
    "od": 857,
    "\u2581Jun": 858,
    "\u2581Land": 859,
    "sure": 860,
    "ept": 861,
    "nt": 862,
    "served": 863,
    "gen": 864,
    "G": 865,
    "man": 866,
    ",'": 867,
    "\u2581g": 868,
    "\u2581track": 869,
    "00": 870,
    "\u2581see": 871,
    "\u2581dr": 872,
    "v": 873,
    "ide": 874,
    "\u2581ro": 875,
    "Fuji": 876,
    "TV": 877,
    "Naka": 878,
    "bon": 879,
    "Higashi": 880,
    "Ten": 881,
    "August": 882,
    "September": 883,
    "more": 884,
    "em": 885,
    "Kyoto": 886,
    "over": 887,
    "\u2581m": 888,
    "hashi": 889,
    "\u2581do": 890,
    "tomo": 891,
    "\u2581No": 892,
    "ha": 893,
    "hito": 894,
    "\u2581record": 895,
    "nce": 896,
    "\u25819": 897,
    "\u2581open": 898,
    "ors": 899,
    "clud": 900,
    "\u2581Nag": 901,
    "\u2581pr": 902,
    "\u2581enthrone": 903,
    "\u2581plan": 904,
    "ting": 905,
    "each": 906,
    "\u2581worship": 907,
    "\u2581succe": 908,
    "\u2581prince": 909,
    "zan": 910,
    "GAWA": 911,
    "Record": 912,
    "X": 913,
    "\u2581Electri": 914,
    "\u2581Palace": 915,
    "\u2581SHIBA": 916,
    "\u2581Volume": 917,
    "\u2581children": 918,
    "\u2581suggest": 919,
    "\u2581territory": 920,
    "\u2581travel": 921,
    "simila": 922,
    "\u2581Susanoo": 923,
    "\u2581country": 924,
    "\u2581garage": 925,
    "\u2581result": 926,
    "\u2581remain": 927,
    "\u2581Shimogyo": 928,
    "\u2581birth": 929,
    "\u2581love": 930,
    "\u2581Ministry": 931,
    "\u2581religio": 932,
    "\u2581Shinden": 933,
    "\u2581extend": 934,
    "\u2581male": 935,
    "\u2581lists": 936,
    "\u2581revision": 937,
    "\u2581museum": 938,
    "\u2581ancestor": 939,
    "nryaku": 940,
    "\u2581himself": 941,
    "\u2581represent": 942,
    "\u2581toward": 943,
    "\u2581Shinran": 944,
    "\u25811872": 945,
    "circula": 946,
    "\u2581return": 947,
    "mitsu": 948,
    "\u2581six": 949,
    "\u2581south": 950,
    "\u2581moder": 951,
    "\u2581join": 952,
    "\u2581Commentary": 953,
    "\u25811880": 954,
    "\u2581Art": 955,
    "\u2581ceremony": 956,
    "\u2581Rai": 957,
    "ship": 958,
    "\u2581teaching": 959,
    "\u2581Zenji": 960,
    "\u2581offer": 961,
    "amam": 962,
    "ry": 963,
    "\u2581seven": 964,
    "doro": 965,
    "\u2581sister": 966,
    "\u2581Koshaku": 967,
    "\u2581back": 968,
    "\u2581Shugo": 969,
    "\u2581railway": 970,
    "\u2581common": 971,
    "\u2581holidays": 972,
    "\u2581members": 973,
    "\u2581hand": 974,
    "\u2581belong": 975,
    "\u2581operating": 976,
    "by": 977,
    "\u2581issue": 978,
    "story": 979,
    "\u2581Bus": 980,
    "orta": 981,
    "\u2581February": 982,
    "\u2581new": 983,
    "\u2581Waka": 984,
    "\u2581miko": 985,
    "\u2581Ryoma": 986,
    "emi": 987,
    "\u2581sc": 988,
    "he": 989,
    "\u2581189": 990,
    "history": 991,
    "\u2581make": 992,
    "\u2581Year": 993,
    "\u2581areas": 994,
    "\u2581read": 995,
    "\u2581For": 996,
    "\u2581yard": 997,
    "rush": 998,
    "\u2581Tsu": 999,
    "uita": 1000,
    "\u2581En": 1001,
    "\u2581inf": 1002,
    "matsu": 1003,
    "wo": 1004,
    "\u2581comp": 1005,
    "\u2581best": 1006,
    "\u2581Se": 1007,
    "20": 1008,
    "\u2581Yamashi": 1009,
    "\u2581fe": 1010,
    "\u2581Am": 1011,
    "im": 1012,
    "ble": 1013,
    "\u2581Hik": 1014,
    "\u2581way": 1015,
    "ashi": 1016,
    "mili": 1017,
    "\u2581ju": 1018,
    "butsu": 1019,
    "thing": 1020,
    "once": 1021,
    "ish": 1022,
    "aku": 1023,
    "\u2581cit": 1024,
    "oto": 1025,
    "myo": 1026,
    "yu": 1027,
    "\u2581mil": 1028,
    "\u2581services": 1029,
    "ba": 1030,
    "ad": 1031,
    "Daish": 1032,
    "\u2581187": 1033,
    "\u2581Na": 1034,
    "ory": 1035,
    "\u2581Koya": 1036,
    "ex": 1037,
    "10": 1038,
    "mikoto": 1039,
    "read": 1040,
    "Fushimi": 1041,
    "P": 1042,
    "und": 1043,
    "St": 1044,
    "ijo": 1045,
    "R": 1046,
    "ian": 1047,
    "yard": 1048,
    "\u2581Fud": 1049,
    "name": 1050,
    "\u2581Han": 1051,
    "55": 1052,
    "ful": 1053,
    "\u2581pro": 1054,
    "val": 1055,
    "aini": 1056,
    "gu": 1057,
    "\u2192": 1058,
    "\u2581Jo": 1059,
    "\u2581photograph": 1060,
    "olog": 1061,
    "\u2581Zen": 1062,
    "eparat": 1063,
    "\u2581post": 1064,
    "ng": 1065,
    "word": 1066,
    "ensho": 1067,
    "hara": 1068,
    "\u2581transport": 1069,
    "nosuke": 1070,
    "\u2015": 1071,
    "\u25812001": 1072,
    "\u25812006": 1073,
    "\u2581Branch": 1074,
    "\u2581Collection": 1075,
    "\u2581Daihiei": 1076,
    "\u2581Protector": 1077,
    "\u2581Special": 1078,
    "\u2581Takamanohara": 1079,
    "\u2581business": 1080,
    "\u2581century": 1081,
    "\u2581episode": 1082,
    "\u2581genealogy": 1083,
    "Kuwana": 1084,
    "\u2581Kohata": 1085,
    "OKA": 1086,
    "\u2581Chizan": 1087,
    "\u2581First": 1088,
    "\u2581paper": 1089,
    "\u2581reason": 1090,
    "\u2581retreat": 1091,
    "\u2581master": 1092,
    "\u2581Daigo": 1093,
    "\u2581lost": 1094,
    "\u2581wrote": 1095,
    "\u2581Later": 1096,
    "xim": 1097,
    "Aodani": 1098,
    "\u2581center": 1099,
    "\u2581retire": 1100,
    "\u2581Area": 1101,
    "Kameyama": 1102,
    "\u2581alia": 1103,
    "UR": 1104,
    "\u2581construction": 1105,
    "\u2581Sankanbon": 1106,
    "\u2581Buzan": 1107,
    "\u2581Sakaibon": 1108,
    "\u2581distinguish": 1109,
    "\u2581IKEDA": 1110,
    "eral": 1111,
    "\u2581resign": 1112,
    "\u2581stay": 1113,
    "\u2581Asahi": 1114,
    "AMOTO": 1115,
    "useum": 1116,
    "\u2581478": 1117,
    "\u2581poet": 1118,
    "\u2581thus": 1119,
    "\u2581speed": 1120,
    "hood": 1121,
    "\u2581Teishi": 1122,
    "\u2581right": 1123,
    "\u2581Mikako": 1124,
    "\u2581strong": 1125,
    "\u2581should": 1126,
    "lower": 1127,
    "\u25811897": 1128,
    "\u2581prev": 1129,
    "\u2581display": 1130,
    "\u2581bypass": 1131,
    "ngine": 1132,
    "\u2581Nakagawa": 1133,
    "\u2581invit": 1134,
    "\u2581Tan": 1135,
    "\u25811994": 1136,
    "\u2581play": 1137,
    "\u2581assume": 1138,
    "\u2581things": 1139,
    "\u2581nature": 1140,
    "\u258127": 1141,
    "\u2581Translation": 1142,
    "\u2581Fre": 1143,
    "\u2581passes": 1144,
    "\u2581Ohara": 1145,
    "\u2581cover": 1146,
    "\u2581color": 1147,
    "\u2581pillow": 1148,
    "\u2581want": 1149,
    "\u2581late": 1150,
    "56": 1151,
    "kuni": 1152,
    "\u2581Hachi": 1153,
    "\u2581facilities": 1154,
    "version": 1155,
    "\u2581conditions": 1156,
    "\u2581Tada": 1157,
    "\u2581Iwa": 1158,
    "lot": 1159,
    "\u2581Rail": 1160,
    "\u2581location": 1161,
    "\u2581noble": 1162,
    "\u2581Fur": 1163,
    "\u2581Oka": 1164,
    "\u2581II": 1165,
    "\u2581again": 1166,
    "\u2581bro": 1167,
    "86": 1168,
    "\u2581Minister": 1169,
    "\u2581Chief": 1170,
    "\u2581style": 1171,
    "\u2581Michichika": 1172,
    "last": 1173,
    "\u2581interest": 1174,
    "\u2581State": 1175,
    "side": 1176,
    "\u2581Koso": 1177,
    "\u2581Ota": 1178,
    "\u2581plann": 1179,
    "annot": 1180,
    "Toyo": 1181,
    "\u2581court": 1182,
    "\u2581awar": 1183,
    "\u2581Sakyo": 1184,
    "wis": 1185,
    "\u2581Ro": 1186,
    "\u2581terms": 1187,
    "\u2581show": 1188,
    "\u2581meaning": 1189,
    "3.": 1190,
    "W": 1191,
    "\u2581saying": 1192,
    "\u2581Par": 1193,
    "\u2581JCT": 1194,
    "\u2581difficult": 1195,
    "istorical": 1196,
    "\u2581double": 1197,
    "wide": 1198,
    "\u2581minister": 1199,
    "\u2581pres": 1200,
    "\u2581evening": 1201,
    "per": 1202,
    "nin": 1203,
    "\u2581His": 1204,
    "\u2581kil": 1205,
    "\u2581ric": 1206,
    "\u2581view": 1207,
    "\u2581near": 1208,
    "\u25815": 1209,
    "\u2581rest": 1210,
    "su": 1211,
    "old": 1212,
    "40": 1213,
    "\u2581k": 1214,
    "\u2581Yoshihisa": 1215,
    "\u2581get": 1216,
    "stand": 1217,
    "moto": 1218,
    "\u2581disciple": 1219,
    "sama": 1220,
    "\u2581Di": 1221,
    "\u2581indicat": 1222,
    "\u2581mikoto": 1223,
    "ty": 1224,
    "hiko": 1225,
    "\u2581inte": 1226,
    "\u2581TV": 1227,
    "\u2581we": 1228,
    "\u2581Un": 1229,
    "\u2581rou": 1230,
    "\u2581St": 1231,
    "\u2581Og": 1232,
    "\u2581Min": 1233,
    "kaku": 1234,
    "\u2581include": 1235,
    "shima": 1236,
    "\u2581Mor": 1237,
    "iku": 1238,
    "\u2581real": 1239,
    "nci": 1240,
    "ukai": 1241,
    "4": 1242,
    "thology": 1243,
    "ran": 1244,
    "\u2581Ten": 1245,
    "ext": 1246,
    "saka": 1247,
    "0,": 1248,
    "0": 1249,
    "\u2581uncle": 1250,
    "\u2581pre": 1251,
    "\u2581Nobu": 1252,
    "\u2581Ken": 1253,
    "titu": 1254,
    "uki": 1255,
    "\u2581us": 1256,
    "muni": 1257,
    "ya": 1258,
    "dom": 1259,
    "machi": 1260,
    "tal": 1261,
    "bat": 1262,
    "order": 1263,
    "\u2581ten": 1264,
    "ud": 1265,
    "am": 1266,
    "\u2581Cho": 1267,
    "J": 1268,
    "\u2581Shim": 1269,
    "om": 1270,
    "eng": 1271,
    "day": 1272,
    "yoshu": 1273,
    "bi": 1274,
    "pe": 1275,
    "\u2581i": 1276,
    "pi": 1277,
    "Amateru": 1278,
    "57": 1279,
    "later": 1280,
    "Yoshihisa": 1281,
    "\u2581Re": 1282,
    "compris": 1283,
    "built": 1284,
    "part": 1285,
    "brother": 1286,
    "Sei": 1287,
    "Japanese": 1288,
    "TOKUGAWA": 1289,
    "Yoshinobu": 1290,
    "time": 1291,
    "Shin": 1292,
    "like": 1293,
    "):": 1294,
    "mei": 1295,
    "13": 1296,
    "eizo": 1297,
    "\u2581doc": 1298,
    "uman": 1299,
    "oma": 1300,
    "Sa": 1301,
    "\u2581Be": 1302,
    "\u258121": 1303,
    "\u2581lord": 1304,
    "etc": 1305,
    "\u2581origin": 1306,
    "jingu": 1307,
    "\u2581Is": 1308,
    "\u2581sign": 1309,
    "4,": 1310,
    "shiro": 1311,
    "gaku": 1312,
    "zu": 1313,
    "0.": 1314,
    "\u2581relat": 1315,
    "\u2581mean": 1316,
    "sha": 1317,
    "\u2581im": 1318,
    "\u2581Kish": 1319,
    "chu": 1320,
    "nother": 1321,
    "okuji": 1322,
    "self": 1323,
    "61": 1324,
    "script": 1325,
    "aff": 1326,
    "\u2581Translat": 1327,
    "even": 1328,
    "ransfer": 1329,
    "\u2581Lib": 1330,
    "\u2581continu": 1331,
    "Suzuka": 1332,
    "hirumenomuchi": 1333,
    "ubsequently": 1334,
    "university": 1335,
    "\u25811914": 1336,
    "\u25812005": 1337,
    "\u2581Baekje": 1338,
    "\u2581Chinese": 1339,
    "\u2581Echizen": 1340,
    "\u2581Government": 1341,
    "\u2581Infrastructure": 1342,
    "\u2581Iruka": 1343,
    "\u2581Jimukyoku": 1344,
    "\u2581Kintsune": 1345,
    "\u2581Limited": 1346,
    "\u2581Naosuke": 1347,
    "\u2581Province": 1348,
    "\u2581Sekigahara": 1349,
    "\u2581associat": 1350,
    "\u2581depot": 1351,
    "\u2581difference": 1352,
    "\u2581employ": 1353,
    "\u2581example": 1354,
    "\u2581feeling": 1355,
    "\u2581instead": 1356,
    "\u2581intelligen": 1357,
    "\u2581omikami": 1358,
    "\u2581popular": 1359,
    "\u2581pronounc": 1360,
    "\u2581tradition": 1361,
    "ASHI": 1362,
    "emperor": 1363,
    "nja": 1364,
    "\u2581NISHI": 1365,
    "\u2581Naidaijin": 1366,
    "\u2581develop": 1367,
    "\u2581legitima": 1368,
    "Jidosha": 1369,
    "UTA": 1370,
    "cadem": 1371,
    "\u25811984": 1372,
    "\u2581Shichijo": 1373,
    "\u2581qui": 1374,
    "\u2581stopped": 1375,
    "\u2581house": 1376,
    "\u2581Nanzan": 1377,
    "\u2581description": 1378,
    "\u2581honor": 1379,
    "expect": 1380,
    "Eihei": 1381,
    "evaluat": 1382,
    "\u2581content": 1383,
    "\u2581decision": 1384,
    "\u2581household": 1385,
    "\u2581further": 1386,
    "\u2581tru": 1387,
    "\u2581Sciences": 1388,
    "\u2581arriv": 1389,
    "YAMA": 1390,
    "\u2581arts": 1391,
    "\u2581chosen": 1392,
    "\u2581kind": 1393,
    "\u2581Tomo": 1394,
    "SHIDA": 1395,
    "usubi": 1396,
    "\u2581ICHIJO": 1397,
    "\u2581information": 1398,
    "\u2581coup": 1399,
    "\u2581Kinmune": 1400,
    "\u2581Kinmochi": 1401,
    "\u2581lute": 1402,
    "\u2581begin": 1403,
    "\u2581generation": 1404,
    "Shinagawa": 1405,
    "\u25811991": 1406,
    "\u2581Hamamatsu": 1407,
    "\u25812004": 1408,
    "\u2581divided": 1409,
    "\u2581descend": 1410,
    "\u25811992": 1411,
    "\u2581maintain": 1412,
    "ventually": 1413,
    "ultur": 1414,
    "\u25811948": 1415,
    "\u25811867": 1416,
    "\u2581History": 1417,
    "\u25811946": 1418,
    "\u2581Kotoku": 1419,
    "\u2581send": 1420,
    "\u25811887": 1421,
    "\u258114": 1422,
    "\u25811878": 1423,
    "\u2581ob": 1424,
    "\u2581Yoko": 1425,
    "umera": 1426,
    "\u2581Shun": 1427,
    "\u2581recent": 1428,
    "\u2581learn": 1429,
    "\u2581elder": 1430,
    "tters": 1431,
    "sidence": 1432,
    "\u2581listed": 1433,
    "\u2581highest": 1434,
    "\u2581Tenri": 1435,
    "\u2581thir": 1436,
    "\u2581Toba": 1437,
    "\u258126": 1438,
    "\u2581Taika": 1439,
    "angu": 1440,
    "1968": 1441,
    "\u2581Object": 1442,
    "\u2581successor": 1443,
    "\u2581moon": 1444,
    "\u2581Broadcasting": 1445,
    "nami": 1446,
    "\u2581Note": 1447,
    "\u258128": 1448,
    "bashi": 1449,
    "\u2581Kuni": 1450,
    "\u258125": 1451,
    "\u2581Reg": 1452,
    "\u2581manage": 1453,
    "Nakatsu": 1454,
    "\u2581Tairo": 1455,
    "\u2581gold": 1456,
    "\u2581opposit": 1457,
    "gyo": 1458,
    "\u2581worshipped": 1459,
    "\u2581Take": 1460,
    "\u2581separat": 1461,
    "\u2581relation": 1462,
    "\u2581Kam": 1463,
    "\u2581classes": 1464,
    "\u2581status": 1465,
    "\u2581Miya": 1466,
    "\u2581SA": 1467,
    "\u2581Hiroshi": 1468,
    "\u2581starting": 1469,
    "\u2581Studies": 1470,
    "\u2581lived": 1471,
    "\u2581Noin": 1472,
    "\u2581Joi": 1473,
    "\u2581Hisa": 1474,
    "koma": 1475,
    "bid": 1476,
    "rima": 1477,
    "\u2581103": 1478,
    "udie": 1479,
    "\u2581photography": 1480,
    "\u2581fish": 1481,
    "\u2581site": 1482,
    "\u2581Ishi": 1483,
    "\u2581Hama": 1484,
    "fu": 1485,
    "llowed": 1486,
    "\u2581specified": 1487,
    "tories": 1488,
    "\u2581started": 1489,
    "ately": 1490,
    "\u2581enthroned": 1491,
    "\u2581ATS": 1492,
    "\u2581poem": 1493,
    "\u2581Izanagi": 1494,
    "\u2581praise": 1495,
    "\u2581office": 1496,
    "\u2581Kusatsu": 1497,
    "ommentary": 1498,
    "\u2581share": 1499,
    "\u2581Other": 1500,
    "\u2581provinces": 1501,
    "\u2581letters": 1502,
    "\u2581assign": 1503,
    "\u2581Nishi": 1504,
    "\u2581study": 1505,
    "ITA": 1506,
    "\u2581edit": 1507,
    "\u2581relative": 1508,
    "\u2581Kar": 1509,
    "unsho": 1510,
    "ince": 1511,
    "\u258166": 1512,
    "\u2581Kita": 1513,
    "emb": 1514,
    "rying": 1515,
    "ved": 1516,
    "\u2581Jin": 1517,
    "\u2581sh": 1518,
    "lation": 1519,
    "\u2581pat": 1520,
    "\u2581End": 1521,
    "\u2581Ashi": 1522,
    "\u2581All": 1523,
    "reserved": 1524,
    "ust": 1525,
    "\u2581Saga": 1526,
    "\u2581fac": 1527,
    "\u25811988": 1528,
    "\u2581chief": 1529,
    "\u2581KATSU": 1530,
    "\u2581single": 1531,
    "ness": 1532,
    "mono": 1533,
    "memo": 1534,
    "\u2581Sc": 1535,
    "imp": 1536,
    "grand": 1537,
    "ope": 1538,
    "scal": 1539,
    "\u2581sl": 1540,
    "\u2581Ii": 1541,
    "\u2581Also": 1542,
    "\u2581Koka": 1543,
    "\u2581records": 1544,
    "\u2581Den": 1545,
    "\u2581Ka": 1546,
    "\u2581turn": 1547,
    "\u2581hour": 1548,
    "\u2581Chuo": 1549,
    "much": 1550,
    "DE": 1551,
    "\u2581Akita": 1552,
    "ormerly": 1553,
    "\u2581inter": 1554,
    "\u258120.": 1555,
    "\u2581Amateru": 1556,
    "\u2581later": 1557,
    "\u2581mis": 1558,
    "04": 1559,
    "\u2581followed": 1560,
    "pped": 1561,
    "\u2581Heav": 1562,
    "Keihan": 1563,
    "\u2581exp": 1564,
    "\u2581nin": 1565,
    "\u2581stand": 1566,
    "\u2581describe": 1567,
    "70": 1568,
    "atur": 1569,
    "tting": 1570,
    "\u2581So": 1571,
    "\u2581Shrines": 1572,
    "ior": 1573,
    "\u2581188": 1574,
    "\u2581col": 1575,
    "\u2581manuscripts": 1576,
    "\u2581Ama": 1577,
    "ice": 1578,
    "\u2581Fuji": 1579,
    "atsu": 1580,
    "\u2581any": 1581,
    "\u2581Gener": 1582,
    "\u2581foreign": 1583,
    "\u2581unit": 1584,
    "\u25812.": 1585,
    "49": 1586,
    "89": 1587,
    "Aizu": 1588,
    "\u2581fin": 1589,
    "\u2581Ku": 1590,
    "ident": 1591,
    "samu": 1592,
    "war": 1593,
    "\u2581my": 1594,
    "\u2581clans": 1595,
    "\u2581sections": 1596,
    "clear": 1597,
    "\u2581Ho": 1598,
    "ck": 1599,
    "ame": 1600,
    "ct": 1601,
    "IN": 1602,
    "\u2581Kus": 1603,
    "\u2581argue": 1604,
    "\u2581com": 1605,
    "\u2581myth": 1606,
    "ushi": 1607,
    "umo": 1608,
    "ous": 1609,
    "estern": 1610,
    "\u2581Ch": 1611,
    "77": 1612,
    "\u2581comm": 1613,
    "mu": 1614,
    "\u25811.": 1615,
    "\u2581Ke": 1616,
    "\u2581noted": 1617,
    "\u2581str": 1618,
    "\u2581Mo": 1619,
    "de": 1620,
    "\u2581times": 1621,
    "ology": 1622,
    "kata": 1623,
    "awa": 1624,
    "cation": 1625,
    "otoku": 1626,
    "\u2581Hei": 1627,
    "hiro": 1628,
    "\u2581Yama": 1629,
    "uri": 1630,
    "\u2581set": 1631,
    "iver": 1632,
    "58": 1633,
    "\u2581Bu": 1634,
    "\u2581stre": 1635,
    "rest": 1636,
    "ative": 1637,
    "aven": 1638,
    "\u2581Su": 1639,
    "top": 1640,
    "\u2581190": 1641,
    "U": 1642,
    "number": 1643,
    "Shim": 1644,
    "Y": 1645,
    "V": 1646,
    "organiz": 1647,
    "daijin": 1648,
    "\u2581sur": 1649,
    "\u2581har": 1650,
    "\u2581design": 1651,
    "L": 1652,
    "turn": 1653,
    "Chuo": 1654,
    "hour": 1655,
    "view": 1656,
    "Year": 1657,
    "JNR": 1658,
    "first": 1659,
    "chapters": 1660,
    "18": 1661,
    "near": 1662,
    "Daimyo": 1663,
    "road": 1664,
    "Otsu": 1665,
    "Osaka": 1666,
    "who": 1667,
    "11": 1668,
    "Oct": 1669,
    "commen": 1670,
    "sue": 1671,
    "\u2581term": 1672,
    "this": 1673,
    "did": 1674,
    "meters": 1675,
    "\u2581Shins": 1676,
    "bet": 1677,
    "west": 1678,
    "KI": 1679,
    "hoko": 1680,
    "\u2581historic": 1681,
    "\u2581mar": 1682,
    "\u2581monk": 1683,
    "ick": 1684,
    "So": 1685,
    "\u2581Fo": 1686,
    "\u2581chapter": 1687,
    "\u2581reach": 1688,
    "\u2581execut": 1689,
    "days": 1690,
    "kaido": 1691,
    "\u2581Mon": 1692,
    "ities": 1693,
    "Mi": 1694,
    "\u2581instruct": 1695,
    "reat": 1696,
    "\u2581know": 1697,
    "\u2581Th": 1698,
    "\u2581star": 1699,
    "istic": 1700,
    "ction": 1701,
    "\u2581arm": 1702,
    "\u2581co": 1703,
    "\u2581activ": 1704,
    "\u2581close": 1705,
    "\u2581cour": 1706,
    "\u2581respective": 1707,
    "\u2581Saky": 1708,
    "ubjugat": 1709,
    "bject": 1710,
    "entral": 1711,
    "oncubine": 1712,
    "\u2581Chu": 1713,
    "complete": 1714,
    "loodl": 1715,
    "\u2581House": 1716,
    "goin": 1717,
    "servation": 1718,
    "bas": 1719,
    "MURA": 1720,
    "zen": 1721,
    "\u2581grave": 1722,
    "\u2581occu": 1723,
    "AGA": 1724,
    "Kuroshio": 1725,
    "Sekimukai": 1726,
    "avoid": 1727,
    "interchange": 1728,
    "lacquer": 1729,
    "xtravagant": 1730,
    "\u2581Amenooshihomimi": 1731,
    "\u2581Bosatsu": 1732,
    "\u2581Education": 1733,
    "\u2581English": 1734,
    "\u2581Fujiwara": 1735,
    "\u2581Industries": 1736,
    "\u2581Mountain": 1737,
    "\u2581NAKANE": 1738,
    "\u2581Period": 1739,
    "\u2581Publishing": 1740,
    "\u2581SHIBUSAWA": 1741,
    "\u2581Shichiromaro": 1742,
    "\u2581Shunjusha": 1743,
    "\u2581Works": 1744,
    "\u2581advisor": 1745,
    "\u2581attempt": 1746,
    "\u2581conduct": 1747,
    "\u2581confrontation": 1748,
    "\u2581dawn": 1749,
    "\u2581depict": 1750,
    "\u2581details": 1751,
    "\u2581discussion": 1752,
    "\u2581enlightenment": 1753,
    "\u2581extreme": 1754,
    "\u2581flourish": 1755,
    "\u2581grandchild": 1756,
    "\u2581messenger": 1757,
    "\u2581nickname": 1758,
    "\u2581nobility": 1759,
    "\u2581permission": 1760,
    "\u2581question": 1761,
    "\u2581reminiscence": 1762,
    "\u2581request": 1763,
    "\u2581respon": 1764,
    "\u2581secret": 1765,
    "\u2581stipend": 1766,
    "\u2581suppress": 1767,
    "\u2581typical": 1768,
    "\u6176": 1769,
    "\u795e": 1770,
    "\u2581Kogyoku": 1771,
    "Hienoyama": 1772,
    "\u2581672": 1773,
    "\u2581relocat": 1774,
    "\u2581split": 1775,
    "\u6795": 1776,
    "\u2581confirmed": 1777,
    "Kakegawa": 1778,
    "Okazaki": 1779,
    "gishiki": 1780,
    "\u2581large": 1781,
    "alternat": 1782,
    "amateru": 1783,
    "avor": 1784,
    "\u2581contribut": 1785,
    "\u2581model": 1786,
    "Numazu": 1787,
    "appoint": 1788,
    "\u2581account": 1789,
    "\u2581break": 1790,
    "\u2581Drive": 1791,
    "\u2581small": 1792,
    "\u2581Okimi": 1793,
    "\u2581cases": 1794,
    "\u2581Hakase": 1795,
    "blade": 1796,
    "Shimada": 1797,
    "\u2581China": 1798,
    "\u2581park": 1799,
    "\u2581Iz": 1800,
    "\u258134.": 1801,
    "\u2581achieve": 1802,
    "Shinpan": 1803,
    "\u2581famili": 1804,
    "ITO": 1805,
    "\u2581Saicho": 1806,
    "usukin": 1807,
    "\u2581regula": 1808,
    "warrior": 1809,
    "\u2581Iesada": 1810,
    "\u2581commented": 1811,
    "\u2581promoted": 1812,
    "\u2581Center": 1813,
    "\u2581lane": 1814,
    "Honbyo": 1815,
    "\u2581spine": 1816,
    "merge": 1817,
    "istrict": 1818,
    "\u2581Gyozan": 1819,
    "hind": 1820,
    "Izanami": 1821,
    "\u25812008": 1822,
    "\u2581state": 1823,
    "NAKA": 1824,
    "olv": 1825,
    "\u2581priest": 1826,
    "\u2581shogunate": 1827,
    "\u2581scene": 1828,
    "\u2581practice": 1829,
    "\u2581humani": 1830,
    "\u2581home": 1831,
    "\u2581regard": 1832,
    "\u2581merged": 1833,
    "\u25811866": 1834,
    "\u25811921": 1835,
    "\u2581settle": 1836,
    "\u2581rather": 1837,
    "hime": 1838,
    "\u25811996": 1839,
    "uzun": 1840,
    "\u2581Daikaku": 1841,
    "\u2581Yomi": 1842,
    "\u2581north": 1843,
    "future": 1844,
    "\u2581Edition": 1845,
    "tial": 1846,
    "\u25811902": 1847,
    "\u2581Thereafter": 1848,
    "\u2581Iey": 1849,
    "\u2581hold": 1850,
    "\u25811907": 1851,
    "Makura": 1852,
    "roduced": 1853,
    "\u2581block": 1854,
    "ensus": 1855,
    "\u2581Saimei": 1856,
    "\u2581Taishogun": 1857,
    "\u2581Even": 1858,
    "guard": 1859,
    "Ameno": 1860,
    "\u2581link": 1861,
    "\u25811875": 1862,
    "suka": 1863,
    "\u2581Yori": 1864,
    "\u25811913": 1865,
    "\u2581carrie": 1866,
    "\u25811901": 1867,
    "\u25811873": 1868,
    "possible": 1869,
    "\u2581Mitsu": 1870,
    "\u2581entr": 1871,
    "\u2581Kaga": 1872,
    "\u2581congestion": 1873,
    "\u25811910": 1874,
    "\u2581field": 1875,
    "taimei": 1876,
    "\u2581concubine": 1877,
    "\u25811869": 1878,
    "\u2581plot": 1879,
    "\u2581Central": 1880,
    "ONO": 1881,
    "usual": 1882,
    "\u25811895": 1883,
    "\u2581fire": 1884,
    "\u2581simpl": 1885,
    "urren": 1886,
    "lect": 1887,
    "\u2581110": 1888,
    "\u2581painting": 1889,
    "\u2581port": 1890,
    "essay": 1891,
    "\u2581date": 1892,
    "akusho": 1893,
    "aya": 1894,
    "akko": 1895,
    "\u2581122": 1896,
    "\u2581techn": 1897,
    "\u2581subjugat": 1898,
    "nishi": 1899,
    "\u2581cha": 1900,
    "\u2581Genji": 1901,
    "\u2581particularly": 1902,
    "\u2581creat": 1903,
    "1983": 1904,
    "Hea": 1905,
    "postscript": 1906,
    "\u2581commu": 1907,
    "\u2581Law": 1908,
    "\u2581defeat": 1909,
    "\u258147": 1910,
    "kyoku": 1911,
    "\u2581Seki": 1912,
    "\u2581declined": 1913,
    "\u2581Shiki": 1914,
    "\u2581battle": 1915,
    "Tanba": 1916,
    "\u2581IS": 1917,
    "\u2581assassinated": 1918,
    "\u2581respectively": 1919,
    "\u2581electrified": 1920,
    "\u2581Taisho": 1921,
    "\u2581operat": 1922,
    "\u2581Jito": 1923,
    "acult": 1924,
    "\u2581gate": 1925,
    "\u2581scholars": 1926,
    "cross": 1927,
    "ACHI": 1928,
    "ccess": 1929,
    "\u2581lead": 1930,
    "asically": 1931,
    "icipate": 1932,
    "\u2581changes": 1933,
    "\u2581Treasure": 1934,
    "\u2581Reng": 1935,
    "miya": 1936,
    "\u2581Sect": 1937,
    "kiyo": 1938,
    "\u2581Cable": 1939,
    "\u2581TA": 1940,
    "ited": 1941,
    "\u2581Amatsu": 1942,
    "\u2581Pur": 1943,
    "fficial": 1944,
    "lay": 1945,
    "\u2581pers": 1946,
    "\u2581addition": 1947,
    "muse": 1948,
    "urth": 1949,
    "urik": 1950,
    "\u2581closed": 1951,
    "\u2581tri": 1952,
    "1-1": 1953,
    "\u2581prim": 1954,
    "eave": 1955,
    "UN": 1956,
    "ouris": 1957,
    "\u2581Mori": 1958,
    "dori": 1959,
    "1998": 1960,
    "\u25811982": 1961,
    "\u2581agree": 1962,
    "\u2581ABE": 1963,
    "\u2581parent": 1964,
    "\u2581Life": 1965,
    "\u2581don": 1966,
    "\u2581Eizan": 1967,
    "\u2581notation": 1968,
    "\u2581appro": 1969,
    "\u2581100": 1970,
    "\u2581volumes": 1971,
    "ists": 1972,
    "\u2581enshrine": 1973,
    "\u2581Kit": 1974,
    "\u2581192": 1975,
    "\u2581Hak": 1976,
    "\u2581mid": 1977,
    "king": 1978,
    "bun": 1979,
    "\u2581executed": 1980,
    "\u2581TSU": 1981,
    "\u2581Toku": 1982,
    "runn": 1983,
    "termin": 1984,
    "\u2581Taish": 1985,
    "\u2581reading": 1986,
    "bow": 1987,
    "\u2581event": 1988,
    "\u2581met": 1989,
    "\u2581expression": 1990,
    "zane": 1991,
    "\u2581fil": 1992,
    "\u2581historical": 1993,
    "EN": 1994,
    "\u2581fre": 1995,
    "Shik": 1996,
    "\u2581Lo": 1997,
    "\u2581Scho": 1998,
    "\u2581boy": 1999,
    "45": 2000,
    "\u2581signs": 2001,
    "\u2581lords": 2002,
    "\u2581186": 2003,
    "\u2581privatiz": 2004,
    "\u258144": 2005,
    "\u2581completed": 2006,
    "\u2581come": 2007,
    "Yu": 2008,
    "\u2581Saka": 2009,
    "cla": 2010,
    "\u258121.": 2011,
    "rial": 2012,
    "\u2581Jome": 2013,
    "\u2581wom": 2014,
    "\u2581sit": 2015,
    "\u2581Medic": 2016,
    "range": 2017,
    "\u2581Engineer": 2018,
    "\u258131": 2019,
    "some": 2020,
    "55.": 2021,
    "yag": 2022,
    "nsei": 2023,
    "Sanjo": 2024,
    "\u2581meters": 2025,
    "\u2581Ei": 2026,
    "\u2581organiz": 2027,
    "\u2581war": 2028,
    "cy": 2029,
    "ating": 2030,
    "omei": 2031,
    "ier": 2032,
    "\u25815.": 2033,
    "ied": 2034,
    "\u2581Refer": 2035,
    "fied": 2036,
    "numbers": 2037,
    "\u2581Yuk": 2038,
    "\u2581kee": 2039,
    "\u2581bu": 2040,
    "\u2581groups": 2041,
    "\u258157": 2042,
    "mm": 2043,
    "\u2581Nor": 2044,
    "\u2581Yoshitom": 2045,
    "\u2581Kazu": 2046,
    "OG": 2047,
    "\u2581Nin": 2048,
    "refore": 2049,
    "up": 2050,
    "\u2581daijin": 2051,
    "\u2581By": 2052,
    "\u2581inv": 2053,
    "bor": 2054,
    "\u2581Man": 2055,
    "ron": 2056,
    "hige": 2057,
    "ves": 2058,
    "hap": 2059,
    "\u2581Wa": 2060,
    "\u2581aut": 2061,
    "\u2581Yoshis": 2062,
    "\u2581training": 2063,
    "\u258135": 2064,
    "older": 2065,
    "\u2581My": 2066,
    "63": 2067,
    "9,": 2068,
    "dia": 2069,
    "\u2581Kig": 2070,
    "81": 2071,
    "ree": 2072,
    "ua": 2073,
    "\u2581Soto": 2074,
    "akata": 2075,
    "ave": 2076,
    "roku": 2077,
    "Gok": 2078,
    "\u2581Koda": 2079,
    "uiju": 2080,
    "her": 2081,
    "let": 2082,
    "42": 2083,
    "\u2581121": 2084,
    "act": 2085,
    "gain": 2086,
    "\u2581Masa": 2087,
    "rar": 2088,
    "oted": 2089,
    "76": 2090,
    "ade": 2091,
    "9)": 2092,
    "ot": 2093,
    "asu": 2094,
    "\u2581aim": 2095,
    "\u2581off": 2096,
    "31": 2097,
    "\u2581MI": 2098,
    "\u2581revi": 2099,
    "\u2581Tos": 2100,
    "\u2581196": 2101,
    "\u2581Fi": 2102,
    "\u25814,": 2103,
    "ori": 2104,
    "\u2581199": 2105,
    "\u2581identi": 2106,
    "ip": 2107,
    "ization": 2108,
    "\u2581Yo": 2109,
    "\u2581secure": 2110,
    "\u2581compl": 2111,
    "\u2581Age": 2112,
    "vi": 2113,
    "Sh": 2114,
    "present": 2115,
    "\u2581Gen": 2116,
    "polit": 2117,
    "erous": 2118,
    "minister": 2119,
    "reaty": 2120,
    "\u2581describ": 2121,
    "\u2581Katsu": 2122,
    "publi": 2123,
    "ital": 2124,
    "take": 2125,
    "\u2581Kink": 2126,
    "ria": 2127,
    "mos": 2128,
    "90": 2129,
    "\u2581ye": 2130,
    "\u2581Rui": 2131,
    "\u2581Takam": 2132,
    "rui": 2133,
    "IC": 2134,
    "his": 2135,
    "\u2581serve": 2136,
    "works": 2137,
    "sushi": 2138,
    "\u2581Inte": 2139,
    "nsha": 2140,
    "hi": 2141,
    "air": 2142,
    "uchi": 2143,
    "eru": 2144,
    "dono": 2145,
    "19": 2146,
    "ture": 2147,
    "iyama": 2148,
    "\u2581gran": 2149,
    "oute": 2150,
    "acc": 2151,
    "Saka": 2152,
    "Kag": 2153,
    "\u2581privat": 2154,
    "KATSU": 2155,
    "chief": 2156,
    "1988": 2157,
    "\u2581Maeda": 2158,
    "position": 2159,
    "Atsu": 2160,
    "difficult": 2161,
    "JCT": 2162,
    "single": 2163,
    "MOTO": 2164,
    "Koka": 2165,
    "February": 2166,
    "Waka": 2167,
    "44": 2168,
    "Ryoma": 2169,
    "For": 2170,
    "type": 2171,
    "vassal": 2172,
    "double": 2173,
    "2003": 2174,
    "Jun": 2175,
    "com": 2176,
    "January": 2177,
    "F": 2178,
    "form": 2179,
    "after": 2180,
    "where": 2181,
    "Tokugawa": 2182,
    "daughter": 2183,
    "Class": 2184,
    "Hiei": 2185,
    "Man": 2186,
    "Shomyo": 2187,
    "Japan": 2188,
    "which": 2189,
    "completed": 2190,
    "(": 2191,
    "with": 2192,
    "Shogunate": 2193,
    "\u2581appea": 2194,
    "book": 2195,
    "\u2581Aki": 2196,
    "\u2581Tra": 2197,
    "Kyo": 2198,
    "\u2581medi": 2199,
    "miko": 2200,
    "\u2581Ky": 2201,
    "Go": 2202,
    "\u2581Kor": 2203,
    "Hon": 2204,
    "Og": 2205,
    "Ta": 2206,
    "count": 2207,
    "TOMI": 2208,
    "\u2581inspection": 2209,
    "\u2581level": 2210,
    "\u2581pronunciation": 2211,
    "\u2581weekday": 2212,
    "\u2581provi": 2213,
    "\u2581volume": 2214,
    "\u2581letter": 2215,
    "\u2581province": 2216,
    "\u2581opera": 2217,
    "\u2581holiday": 2218,
    "\u2581member": 2219,
    "\u2581driv": 2220,
    "\u2581locomotive": 2221,
    "ealth": 2222,
    "\u2581start": 2223,
    "\u2581specifi": 2224,
    "\u2581curr": 2225,
    "\u2581establish": 2226,
    "ddition": 2227,
    "\u2581soci": 2228,
    "nivers": 2229,
    "\u2581restor": 2230,
    "ious": 2231,
    "Li": 2232,
    "zed": 2233,
    "ult": 2234,
    "\u2581Prefectur": 2235,
    "ories": 2236,
    "\u2581lea": 2237,
    "UCHI": 2238,
    "\u2581dec": 2239,
    "\u2581lat": 2240,
    "\u2581decline": 2241,
    "acilities": 2242,
    "rce": 2243,
    "\u2581ceremon": 2244,
    "\u2581car": 2245,
    "hough": 2246,
    "new": 2247,
    "echnic": 2248,
    "\u2581particular": 2249,
    "\u2581teach": 2250,
    "log": 2251,
    "airin": 2252,
    "ix": 2253,
    "shina": 2254,
    "\u2581(19": 2255,
    "\u2581congest": 2256,
    "shihi": 2257,
    "\u2581educat": 2258,
    "\u2581Hide": 2259,
    "\u2581oppos": 2260,
    "rban": 2261,
    "Amateras": 2262,
    "\u2581success": 2263,
    "raft": 2264,
    "umber": 2265,
    "akura": 2266,
    "roperty": 2267,
    "assenger": 2268,
    "UJI": 2269,
    "\u2581divi": 2270,
    "tinguish": 2271,
    "nitially": 2272,
    "\u2581Express": 2273,
    "\u2581eas": 2274,
    "duce": 2275,
    "iwake": 2276,
    "\u2581trans": 2277,
    "\u2581reli": 2278,
    "\u2581ISHI": 2279,
    "\u2581resi": 2280,
    "nagon": 2281,
    "\u2581equi": 2282,
    "MAEDA": 2283,
    "\u2581individual": 2284,
    "\u2581nakatsukuni": 2285,
    "YASU": 2286,
    "\u2581capabilit": 2287,
    "\u2581confid": 2288,
    "\u2581doubt": 2289,
    "!": 2290,
    "?": 2291,
    "Hodogaya": 2292,
    "JIMA": 2293,
    "Midaidokoro": 2294,
    "Tsukuyomi": 2295,
    "UMA": 2296,
    "Yokkaichi": 2297,
    "ZAWA": 2298,
    "iterature": 2299,
    "literally": 2300,
    "mattress": 2301,
    "quar": 2302,
    "terpretations": 2303,
    "throwing": 2304,
    "witch": 2305,
    "\u2581#45": 2306,
    "\u25811915)": 2307,
    "\u2581Amenohoakari": 2308,
    "\u2581Campus": 2309,
    "\u2581Geograph": 2310,
    "\u2581Godaigo": 2311,
    "\u2581HATANO": 2312,
    "\u2581HOJO": 2313,
    "\u2581HORIKAWA": 2314,
    "\u2581HOSOKAWA": 2315,
    "\u2581Hidetada": 2316,
    "\u2581Hiroyasu": 2317,
    "\u2581KAGAMISHIMA": 2318,
    "\u2581Kuwashi": 2319,
    "\u2581Lectures": 2320,
    "\u2581Moshitsugi": 2321,
    "\u2581Motofusa": 2322,
    "\u2581People": 2323,
    "\u2581Photograph": 2324,
    "\u2581Poems": 2325,
    "\u2581Publi": 2326,
    "\u2581SHINMURA": 2327,
    "\u2581System": 2328,
    "\u2581Taoism": 2329,
    "\u2581YAMAZAKI": 2330,
    "\u2581Zuiso": 2331,
    "\u2581advantage": 2332,
    "\u2581announce": 2333,
    "\u2581calendar": 2334,
    "\u2581childhood": 2335,
    "\u2581circumstance": 2336,
    "\u2581conflict": 2337,
    "\u2581consequently": 2338,
    "\u2581countries": 2339,
    "\u2581destination": 2340,
    "\u2581destroy": 2341,
    "\u2581disadvantage": 2342,
    "\u2581dynasty": 2343,
    "\u2581effort": 2344,
    "\u2581equipment": 2345,
    "\u2581financial": 2346,
    "\u2581hobbies": 2347,
    "\u2581increased": 2348,
    "\u2581necessary": 2349,
    "\u2581newspaper": 2350,
    "\u2581parallel": 2351,
    "\u2581possession": 2352,
    "\u2581principle": 2353,
    "\u2581problem": 2354,
    "\u2581relax": 2355,
    "\u2581revolution": 2356,
    "\u2581scheme": 2357,
    "\u2581structure": 2358,
    "\u2581subordinates": 2359,
    "\u2581territories": 2360,
    "\u2581vehicles": 2361,
    "\u2581violent": 2362,
    "\u2581wooden": 2363,
    "\u30a2": 2364,
    "\u5929\u7167\u5927\u5fa1\u795e": 2365,
    "\u5b50": 2366,
    "\u6795\u8349\u5b50": 2367,
    "Steamliner": 2368,
    "\u2581Ninigi": 2369,
    "\u2581emphasize": 2370,
    "\u2581length": 2371,
    "\u2581picture": 2372,
    "\u2581remove": 2373,
    "9633": 2374,
    "Gizan": 2375,
    "Hirume": 2376,
    "ccasion": 2377,
    "\u25812002": 2378,
    "\u2581Associat": 2379,
    "\u2581Daijusho": 2380,
    "\u2581Design": 2381,
    "\u2581Myozen": 2382,
    "\u2581TAKA": 2383,
    "\u2581elevat": 2384,
    "\u2581junction": 2385,
    "\u2581lifted": 2386,
    "\u2581magazines": 2387,
    "\u2581okami": 2388,
    "\u2581polic": 2389,
    "\u2581quali": 2390,
    "\u2581require": 2391,
    "\u2581rough": 2392,
    "\u2581soldier": 2393,
    "Hiratsuka": 2394,
    "propriety": 2395,
    "\u2581#160": 2396,
    "\u25811233": 2397,
    "\u25811972": 2398,
    "\u2581Biwako": 2399,
    "\u2581apparent": 2400,
    "\u2581matter": 2401,
    "\u2581northeast": 2402,
    "\u2581watch": 2403,
    "raduate": 2404,
    "\u2581Army": 2405,
    "\u2581Business": 2406,
    "\u2581belie": 2407,
    "\u2581jottings": 2408,
    "\u2581pardon": 2409,
    "\u2581Sanekane": 2410,
    "\u2581MATSUD": 2411,
    "\u2581highlight": 2412,
    "\u2581purp": 2413,
    "\u2581NAKAMURA": 2414,
    "ivil": 2415,
    "\u2581girl": 2416,
    "\u2581pork": 2417,
    "\u2581roots": 2418,
    "\u2581concern": 2419,
    "\u2581spots": 2420,
    "\u25811954": 2421,
    "\u2581IMA": 2422,
    "\u2581Otaru": 2423,
    "\u258154.": 2424,
    "\u2581pull": 2425,
    "Yoshinaga": 2426,
    "\u2581OKUBO": 2427,
    "\u2581expert": 2428,
    "\u2581Garden": 2429,
    "\u2581sentiment": 2430,
    "\u2581defin": 2431,
    "\u2581material": 2432,
    "\u2581subject": 2433,
    "yashiki": 2434,
    "\u2581Jaku": 2435,
    "\u2581ancest": 2436,
    "\u2581article": 2437,
    "\u2581weakened": 2438,
    "Flam": 2439,
    "\u2581Owari": 2440,
    "\u2581bakufu": 2441,
    "\u2581culture": 2442,
    "1-4": 2443,
    "1859": 2444,
    "season": 2445,
    "phon": 2446,
    "\u2581novel": 2447,
    "icul": 2448,
    "\u2581TAMAKI": 2449,
    "Odawara": 2450,
    "Fukuroi": 2451,
    "\u2581Iemitsu": 2452,
    "\u2581diary": 2453,
    "\u2581hill": 2454,
    "\u2581Medicine": 2455,
    "rawn": 2456,
    "\u2581(12": 2457,
    "\u2581cap": 2458,
    "isplay": 2459,
    "\u2581omitted": 2460,
    "\u2581beautiful": 2461,
    "\u2581deep": 2462,
    "ATE": 2463,
    "Fujisawa": 2464,
    "\u2581complicated": 2465,
    "\u2581taste": 2466,
    "Totsuka": 2467,
    "cycl": 2468,
    "certain": 2469,
    "\u2581falsifi": 2470,
    "\u2581Hokur": 2471,
    "\u2581refuse": 2472,
    "\u2581iwato": 2473,
    "\u2581illness": 2474,
    "\u2581function": 2475,
    "\u2581foot": 2476,
    "\u2581Rebellion": 2477,
    "\u2581Kanaz": 2478,
    "\u2581shogun": 2479,
    "\u2581several": 2480,
    "bellion": 2481,
    "Goryo": 2482,
    "upervis": 2483,
    "\u2581data": 2484,
    "fusa": 2485,
    "\u2581measure": 2486,
    "\u2581KOGA": 2487,
    "\u2581intention": 2488,
    "fense": 2489,
    "Chiryu": 2490,
    "\u2581elde": 2491,
    "\u2581dictionary": 2492,
    "\u25811864": 2493,
    "\u2581HIRA": 2494,
    "\u2581biography": 2495,
    "\u2581slope": 2496,
    "oward": 2497,
    "patche": 2498,
    "With": 2499,
    "\u2581plate": 2500,
    "\u25811884": 2501,
    "OCHI": 2502,
    "\u2581(1.1": 2503,
    "\u2581Residence": 2504,
    "\u2581Ropeway": 2505,
    "rotect": 2506,
    "kyu": 2507,
    "syllab": 2508,
    "\u2581initially": 2509,
    "minal": 2510,
    "\u2581wield": 2511,
    "\u2581cancel": 2512,
    "ousehold": 2513,
    "\u2581initia": 2514,
    "\u2581month": 2515,
    "\u2581tunnel": 2516,
    "\u2581Tsuneko": 2517,
    "\u2581lives": 2518,
    "\u2581645": 2519,
    "08": 2520,
    "\u25811874": 2521,
    "TANI": 2522,
    "\u2581Shotoku": 2523,
    "iraka": 2524,
    "\u2581tell": 2525,
    "\u2581Corporation": 2526,
    "\u2581vo": 2527,
    "\u2581chant": 2528,
    "\u2581replace": 2529,
    "harm": 2530,
    "\u2581must": 2531,
    "Port": 2532,
    "\u2581short": 2533,
    "\u2581mater": 2534,
    "\u25811997": 2535,
    "\u25811928": 2536,
    "\u25811868": 2537,
    "012": 2538,
    "daimyo": 2539,
    "\u2581Hikone": 2540,
    "\u2581Ryonin": 2541,
    "\u2581negotiation": 2542,
    "obunkan": 2543,
    "pened": 2544,
    "\u2581passenger": 2545,
    "\u25811922": 2546,
    "\u2581Vi": 2547,
    "\u2581property": 2548,
    "\u25811976": 2549,
    "847": 2550,
    "\u2581Shinbun": 2551,
    "\u25811888": 2552,
    "\u2581Royal": 2553,
    "\u25811905": 2554,
    "Moriguchi": 2555,
    "\u2581nationalized": 2556,
    "\u2581explain": 2557,
    "Katsuragi": 2558,
    "Kobu": 2559,
    "llow": 2560,
    "\u2581381": 2561,
    "soft": 2562,
    "\u25811885": 2563,
    "\u2581Survey": 2564,
    "cious": 2565,
    "\u2581restoration": 2566,
    "Hirakata": 2567,
    "guchi": 2568,
    "\u2581Network": 2569,
    "\u2581Nochi": 2570,
    "vant": 2571,
    "\u2581Tetsu": 2572,
    "\u2581Alliance": 2573,
    "\u2581Yataka": 2574,
    "\u2581surround": 2575,
    "\u2581Bunky": 2576,
    "makura": 2577,
    "gallery": 2578,
    "\u25811958": 2579,
    "\u2581depart": 2580,
    "\u2581incorporat": 2581,
    "\u2581Pos": 2582,
    "\u2581craft": 2583,
    "\u258146.": 2584,
    "\u2581understand": 2585,
    "\u25811970": 2586,
    "\u25811908": 2587,
    "\u2581Kasa": 2588,
    "\u2581continuously": 2589,
    "istry": 2590,
    "scend": 2591,
    "\u2581Sakurada": 2592,
    "\u2581attendant": 2593,
    "\u2581room": 2594,
    "Moso": 2595,
    "\u2581independent": 2596,
    "\u2581anti": 2597,
    "Fujieda": 2598,
    "lways": 2599,
    "dani": 2600,
    "Shimei": 2601,
    "\u2581Yana": 2602,
    "\u2581bloodl": 2603,
    "\u2581Bogy": 2604,
    "\u258141": 2605,
    "earing": 2606,
    "\u2581106": 2607,
    "\u25811893": 2608,
    "\u25811961": 2609,
    "cience": 2610,
    "emp": 2611,
    "626": 2612,
    "\u2581Gaku": 2613,
    "\u2581Kozu": 2614,
    "37.": 2615,
    "\u2581above": 2616,
    "\u2581Kata": 2617,
    "sleep": 2618,
    "\u2581prospe": 2619,
    "\u2581Jodo": 2620,
    "\u2581princess": 2621,
    "ridge": 2622,
    "\u2581Ikoma": 2623,
    "\u2581gre": 2624,
    "ibrary": 2625,
    "\u2581Kawa": 2626,
    "\u2581Gate": 2627,
    "\u25811886": 2628,
    "\u2581feature": 2629,
    "gon": 2630,
    "\u25811950": 2631,
    "\u2581Comme": 2632,
    "\u2581Hira": 2633,
    "DO": 2634,
    "tory": 2635,
    "horyo": 2636,
    "attai": 2637,
    "\u2581marke": 2638,
    "\u2581Ritt": 2639,
    "\u2581char": 2640,
    "\u2581Mika": 2641,
    "\u25811960": 2642,
    "\u2581meeting": 2643,
    "shimo": 2644,
    "\u2581broadcasting": 2645,
    "\u2581photographer": 2646,
    "\u2581del": 2647,
    "\u2581cities": 2648,
    "usha": 2649,
    "En": 2650,
    "\u2581attain": 2651,
    "\u2581Operation": 2652,
    "ordin": 2653,
    "\u2581owners": 2654,
    "\u2581Doh": 2655,
    "ukiyo": 2656,
    "chika": 2657,
    "\u2581pun": 2658,
    "Keik": 2659,
    "hese": 2660,
    "\u2581heart": 2661,
    "\u2581trac": 2662,
    "aint": 2663,
    "\u2581ill": 2664,
    "\u2581Koun": 2665,
    "\u2581afterword": 2666,
    "\u2581rais": 2667,
    "\u2581Shira": 2668,
    "\u2581edition": 2669,
    "\u2581prove": 2670,
    "\u2581Kyokun": 2671,
    "ugu": 2672,
    "lant": 2673,
    "1926": 2674,
    "\u25811962": 2675,
    "\u2581analog": 2676,
    "uhito": 2677,
    "\u2581itself": 2678,
    "razo": 2679,
    "\u2581Sakai": 2680,
    "\u2581Today": 2681,
    "\u2581East": 2682,
    "council": 2683,
    "\u2581wind": 2684,
    "\u2581Soga": 2685,
    "wake": 2686,
    "\u2581Hidey": 2687,
    "\u2581deci": 2688,
    "\u2581Daijo": 2689,
    "\u25811862": 2690,
    "\u2581consistent": 2691,
    "\u2581Tott": 2692,
    "kaga": 2693,
    "firm": 2694,
    "46": 2695,
    "oyal": 2696,
    "\u258132": 2697,
    "\u2581wit": 2698,
    "\u2581Takato": 2699,
    "ively": 2700,
    "\u2581Zo": 2701,
    "\u2581Rest": 2702,
    "rine": 2703,
    "azak": 2704,
    "OHARA": 2705,
    "160": 2706,
    "\u25811939": 2707,
    "\u2581Lord": 2708,
    "\u2581mention": 2709,
    "\u2581categorize": 2710,
    "80": 2711,
    "umul": 2712,
    "\u2581instructor": 2713,
    "\u2581incr": 2714,
    "Takatsu": 2715,
    "azuk": 2716,
    "udge": 2717,
    "\u2581freel": 2718,
    "\u2581Gyo": 2719,
    "\u2581(199": 2720,
    "\u25811930": 2721,
    "call": 2722,
    "\u2581hun": 2723,
    "\u2581distin": 2724,
    "600": 2725,
    "lock": 2726,
    "\u2581rep": 2727,
    "iso": 2728,
    "stance": 2729,
    "48.": 2730,
    "ociety": 2731,
    "\u2581Universi": 2732,
    "Gomyo": 2733,
    "icated": 2734,
    "ogata": 2735,
    "17": 2736,
    "\u2581writer": 2737,
    "rned": 2738,
    "Mishima": 2739,
    "\u2581Kun": 2740,
    "rrect": 2741,
    "\u2581Pri": 2742,
    "\u2581hard": 2743,
    "umu": 2744,
    "\u2581Kinhi": 2745,
    "shim": 2746,
    "hist": 2747,
    "\u2581bri": 2748,
    "\u2581prin": 2749,
    "dings": 2750,
    "\u2581Memor": 2751,
    "\u2581Tate": 2752,
    "1898": 2753,
    "\u2581cri": 2754,
    "endai": 2755,
    "\u2581reg": 2756,
    "okawa": 2757,
    "rown": 2758,
    "nii": 2759,
    "yaku": 2760,
    "\u2581Bon": 2761,
    "\u2581done": 2762,
    "52": 2763,
    "unk": 2764,
    "mony": 2765,
    "dera": 2766,
    "\u2581TO": 2767,
    "rror": 2768,
    "\u2581notes": 2769,
    "oru": 2770,
    "\u2581inspections": 2771,
    "\u2581levels": 2772,
    "\u2581pronunciations": 2773,
    "\u2581weekdays": 2774,
    "1977": 2775,
    "Koy": 2776,
    "Hojo": 2777,
    "dministrati": 2778,
    "Shu": 2779,
    "ATOMI": 2780,
    "\u2581encou": 2781,
    "\u2581dev": 2782,
    "\u2581Oyama": 2783,
    "\u2581mea": 2784,
    "Chi": 2785,
    "\u2581furi": 2786,
    "ogon": 2787,
    "\u2581Sun": 2788,
    "hang": 2789,
    "\u2581fun": 2790,
    "\u2581Unite": 2791,
    "\u2581Ejo": 2792,
    "\u2581reached": 2793,
    "kasan": 2794,
    "\u2581Iku": 2795,
    "nch": 2796,
    "ommunicat": 2797,
    "outh": 2798,
    "koto": 2799,
    "pala": 2800,
    "sugi": 2801,
    "\u2581soshi": 2802,
    "kui": 2803,
    "95": 2804,
    "\u2581alb": 2805,
    "\u2581Naga": 2806,
    "Shingi": 2807,
    "kana": 2808,
    "\u2581monks": 2809,
    ")\u2192": 2810,
    "\u2581fame": 2811,
    "\u2581appear": 2812,
    "\u2581God": 2813,
    "bone": 2814,
    "ike": 2815,
    "media": 2816,
    "\u2581Fuku": 2817,
    "\u2581Whi": 2818,
    "\u2581Sato": 2819,
    "ichii": 2820,
    "\u2581myths": 2821,
    "\u2581provis": 2822,
    "sevent": 2823,
    "\u2581hear": 2824,
    "TOKI": 2825,
    "aedabon": 2826,
    "\u2581Oto": 2827,
    "goro": 2828,
    "Tatsu": 2829,
    "\u2581far": 2830,
    "llion": 2831,
    "\u2581Ar": 2832,
    "\u2581AK": 2833,
    "ky": 2834,
    "AKI": 2835,
    "\u2581interv": 2836,
    "\u2581full": 2837,
    "\u2581Mai": 2838,
    "oshin": 2839,
    "\u2581Part": 2840,
    "Tensho": 2841,
    "\u2581connection": 2842,
    "ety": 2843,
    "Suru": 2844,
    "YO": 2845,
    "arn": 2846,
    "tain": 2847,
    "spirit": 2848,
    "low": 2849,
    "\u2581administ": 2850,
    "\u2581Cu": 2851,
    "\u2581marr": 2852,
    "rack": 2853,
    "\u2581Kyoku": 2854,
    "inherited": 2855,
    "\u2581MO": 2856,
    "Mono": 2857,
    "VI": 2858,
    "\u2581Kado": 2859,
    "\u2581cl": 2860,
    "rid": 2861,
    "eries": 2862,
    "Kiku": 2863,
    "0)": 2864,
    "\u2581acqui": 2865,
    "\u2581194": 2866,
    "gamo": 2867,
    "\u2581Kokush": 2868,
    "\u2581harb": 2869,
    "umi": 2870,
    "Jo": 2871,
    "Shig": 2872,
    "Movie": 2873,
    "chinyo": 2874,
    "Kogo": 2875,
    "Hana": 2876,
    "uku": 2877,
    "\u2581Kuma": 2878,
    "\u2581force": 2879,
    "nar": 2880,
    "\u2581Ue": 2881,
    "verse": 2882,
    "\u2581esta": 2883,
    "cal": 2884,
    "\u2581Sanki": 2885,
    "uden": 2886,
    "KURA": 2887,
    "blished": 2888,
    "ack": 2889,
    "\u2581treat": 2890,
    "vic": 2891,
    "\u2581Shose": 2892,
    "\u2581rele": 2893,
    "\u2581fo": 2894,
    "\u2581fool": 2895,
    "\u2581Hig": 2896,
    "rted": 2897,
    "mmer": 2898,
    "iwa": 2899,
    "\u2581secur": 2900,
    "\u2581depr": 2901,
    "rocess": 2902,
    "\u2581Yasu": 2903,
    "mar": 2904,
    "ilit": 2905,
    "\u2581comprise": 2906,
    "\u2581Her": 2907,
    "\u2581Sane": 2908,
    "uma": 2909,
    "\u2581Sui": 2910,
    "ashin": 2911,
    "\u2581rul": 2912,
    "\u2581mit": 2913,
    "revis": 2914,
    "Mune": 2915,
    "West": 2916,
    "\u2581conve": 2917,
    "ndon": 2918,
    "99": 2919,
    "ays": 2920,
    "\u2581argu": 2921,
    "iya": 2922,
    "\u2581Kinmo": 2923,
    "authorize": 2924,
    "hik": 2925,
    "iming": 2926,
    "\u2581Toda": 2927,
    "cien": 2928,
    "ference": 2929,
    "tive": 2930,
    "ven": 2931,
    "Dai": 2932,
    "mb": 2933,
    "etsu": 2934,
    "aisha": 2935,
    "\u2581proce": 2936,
    "\u2581Son": 2937,
    "foreigner": 2938,
    "\u2581serv": 2939,
    "\u2581spr": 2940,
    "\u2581stud": 2941,
    "Fush": 2942,
    "abur": 2943,
    "ashing": 2944,
    "lease": 2945,
    "\u2581authoriz": 2946,
    "hokk": 2947,
    "Biograph": 2948,
    "dicate": 2949,
    "ankin": 2950,
    "ake": 2951,
    "strip": 2952,
    "\u2581Kaz": 2953,
    "place": 2954,
    "\u2581tak": 2955,
    "sects": 2956,
    "050": 2957,
    "\u2581Ichin": 2958,
    "kasa": 2959,
    "oseki": 2960,
    "\u2581swe": 2961,
    "500": 2962,
    "\u2581Mar": 2963,
    "ools": 2964,
    "thre": 2965,
    "\u2581Mov": 2966,
    "\u2581Fuk": 2967,
    "\u2581inherit": 2968,
    "quisit": 2969,
    "chik": 2970,
    "fac": 2971,
    "akuma": 2972,
    "\u2581Neg": 2973,
    "kkai": 2974,
    "\u2581Histori": 2975,
    "unet": 2976,
    "24": 2977,
    "\u2581app": 2978,
    "\u2581belo": 2979,
    "suga": 2980,
    "vision": 2981,
    "lace": 2982,
    "cop": 2983,
    "urrently": 2984,
    "early": 2985,
    "nshrined": 2986,
    "sign": 2987,
    "*": 2988,
    "\u8349": 2989,
    "\u5fa1": 2990,
    "\u5927": 2991,
    "\u7167": 2992,
    "\u5929": 2993,
    "[": 2994,
    "#": 2995,
    "q": 2996,
    "Z": 2997,
    "x": 2998,
    "z": 2999,
    "j": 3000
  }
}