{
  "src_word2id": {
    "<pad>": 0,
    "<s>": 1,
    "</s>": 2,
    "<unk>": 3,
    "\u2581": 4,
    "\u306e": 5,
    "?": 6,
    "\u3002": 7,
    "\u306f": 8,
    "\u304c": 9,
    "\u3092": 10,
    "\u306b": 11,
    "!": 12,
    "\u3068": 13,
    "\u3067": 14,
    "\u3001": 15,
    "\u3060": 16,
    "...": 17,
    "\u3088": 18,
    "\u304b": 19,
    "\u3082": 20,
    "\u306a": 21,
    "\u304b\u3089": 22,
    "\u3067\u3059": 23,
    "\u30fb": 24,
    "\u306d": 25,
    "\u3063\u3066": 26,
    "\u3057": 27,
    "\u2581\u3053\u306e": 28,
    "\u300d": 29,
    "\u308f": 30,
    "\u308b": 31,
    "\u3093\u3060": 32,
    "\u3084": 33,
    "\u3057\u305f": 34,
    "\u305f": 35,
    "\u3059\u308b": 36,
    "...\u3002": 37,
    "\u3057\u3066": 38,
    "\u2581\u300c": 39,
    "\u3055": 40,
    "\"": 41,
    "\u2581\u305d\u306e": 42,
    "\u2581\u79c1\u306f": 43,
    "\u3066": 44,
    "\u3044": 45,
    "\u2581\u3067\u3082": 46,
    "\u3089": 47,
    "\u4eba": 48,
    "\u306b\u306f": 49,
    "\u306a\u3089": 50,
    "\u306a\u3044": 51,
    "1": 52,
    "\u2581\"": 53,
    "\u2581\u3082\u3046": 54,
    "\u307e\u3059": 55,
    "\u3055\u3093": 56,
    "\u2581\u305d\u3057\u3066": 57,
    "\u3060\u3063\u305f": 58,
    "\u2581\u3053\u308c\u306f": 59,
    "\u2581\u305d\u308c\u306f": 60,
    "\u2581\u304a": 61,
    "\u30fc": 62,
    "\u27a1": 63,
    "\u2581-": 64,
    "\u2581\u4f55": 65,
    "~": 66,
    "\u308a": 67,
    "\u306e\u304b": 68,
    "\u305e": 69,
    "\u2581\u3042\u3042": 70,
    "2": 71,
    "\u2581\u3042\u306e": 72,
    "\u3067\u3082": 73,
    "\u3058\u3083\u306a\u3044": 74,
    "\u307e\u3057\u305f": 75,
    "\u30b9": 76,
    ".": 77,
    "\u2581\u305d\u3046": 78,
    "\u304f": 79,
    "\u307e\u3067": 80,
    "\u2581\u5f7c\u306f": 81,
    "\u30fb\u30fb\u30fb": 82,
    "\u2581\u79c1\u306e": 83,
    "\u2581\u79c1": 84,
    "\u308d": 85,
    "\u7684": 86,
    "\u3093": 87,
    "\u2581\u306f\u3044": 88,
    "\u3051\u3069": 89,
    "\u3044\u308b": 90,
    "\u306e\u306f": 91,
    "\u3057\u307e\u3059": 92,
    "\u3068\u3044\u3046": 93,
    "\u3063\u305f": 94,
    "\u3044\u305f": 95,
    "\u3067\u306f": 96,
    "\u3053\u3068": 97,
    "\u2581\u3044\u3084": 98,
    "\u3060\u3088": 99,
    "\u2581\u300a": 100,
    "\u2581\u79c1\u304c": 101,
    "\u3060\u308d": 102,
    "\u2581\u4eca": 103,
    "\u306a\u3093\u3066": 104,
    "\u304a": 105,
    "\u2015": 106,
    "\u3053\u306e": 107,
    "\u30c8": 108,
    "\u2581\u3053\u308c": 109,
    "\u5e74": 110,
    "\u3067\u3057\u3087\u3046": 111,
    "\u3057\u307e\u3057\u305f": 112,
    "\u6642": 113,
    "\u3059": 114,
    "\u2581\u4f55\u304b": 115,
    "\u2581\u4ffa\u306f": 116,
    "\u2581\u3060\u304b\u3089": 117,
    "\u30c3": 118,
    "\u306e\u3067\u3059": 119,
    "\u3060\u3051": 120,
    "\u2581\u307e\u3060": 121,
    "\u4e8b": 122,
    ")": 123,
    "\u3078": 124,
    "\u2581\u3061\u3087\u3063\u3068": 125,
    "\u3067\u3057\u305f": 126,
    "\u25811": 127,
    "\u304c\u3042\u308b": 128,
    "\u30af": 129,
    "\u3057\u3066\u308b": 130,
    "\u3044\u307e\u3059": 131,
    "3": 132,
    "\u300c": 133,
    "\u25812": 134,
    "\u2581\u3057\u304b\u3057": 135,
    "\u3064": 136,
    "\u306a\u304b\u3063\u305f": 137,
    "\u2581\u3042\u306a\u305f\u306f": 138,
    "\u2581\u306a\u305c": 139,
    "\u304d": 140,
    "\u65e5": 141,
    "\u300b": 142,
    "\u3063": 143,
    "\u3067\u304d\u308b": 144,
    "\u3068\u3057\u3066": 145,
    "\u3055\u308c\u305f": 146,
    "\u3093\u3067\u3059": 147,
    "\u2581\u305d\u308c\u3067": 148,
    "\u3088\u308a": 149,
    "\u3060\u308d\u3046": 150,
    "\u2581\u307e\u305f": 151,
    "\u305d\u3046": 152,
    "\u2581\u304a\u524d": 153,
    "\u3067\u3057\u3087": 154,
    "\u2581\u3042\u3063": 155,
    "\u2581\u305d\u308c\u304c": 156,
    "\u30c9": 157,
    "\u306a\u3093\u3060": 158,
    "\u2581\u3044\u3044": 159,
    "\u3057\u3066\u3044\u308b": 160,
    "\u3060\u3068": 161,
    "\u3044\u3044": 162,
    "\u4e00": 163,
    "\u2581\u541b\u306f": 164,
    "\u3053\u3068\u3092": 165,
    "\u3042\u308b": 166,
    "\u3068\u304b": 167,
    "\u3067\u3059\u304b": 168,
    "\u2581\u3042": 169,
    "\u3058\u3083": 170,
    "\u305d\u306e": 171,
    "\u307f": 172,
    "\u541b": 173,
    "\u2581\u3046\u3093": 174,
    "\u306b\u3082": 175,
    "\u2581\u304a\u3044": 176,
    "\u5b50": 177,
    "\u5206": 178,
    "\u3068\u306f": 179,
    "\u306b\u3064\u3044\u3066": 180,
    "\u2581\u305d\u3093\u306a": 181,
    "\u2581\u3058\u3083\u3042": 182,
    "\u30e9": 183,
    "\u3081": 184,
    "\u2581\u5f7c\u5973\u306f": 185,
    "\u306b\u306a\u308b": 186,
    "\u2581\u3042\u306a\u305f\u306e": 187,
    "\u7269": 188,
    "\u3082\u306e": 189,
    "\u4f55": 190,
    "\u8005": 191,
    "\u3044\u3066": 192,
    "n": 193,
    "\u2581\u3060\u304c": 194,
    "\u30ea\u30fc": 195,
    "\u3070": 196,
    "\u30ca": 197,
    "\u2581\u305d\u308c": 198,
    "\u304b\u306a": 199,
    "\u2581\u3042\u306a\u305f": 200,
    "\u3061\u3083\u3093": 201,
    "\u30ba": 202,
    "\u3093\u3060\u3088": 203,
    "\u3088\u3046\u306b": 204,
    "\u3046": 205,
    "\u2581\u3048\u3048": 206,
    ":": 207,
    "\u2581\u307f\u3093\u306a": 208,
    "\u3088\u3046": 209,
    "\u3060\u3063\u3066": 210,
    "\u2581\u3069\u3046\u3057\u3066": 211,
    "\u30a2": 212,
    "]": 213,
    "\u4e2d": 214,
    "\u2581\u672c\u5f53\u306b": 215,
    "\u30eb": 216,
    "\u3060\u306a": 217,
    "\u2581\u3082\u3057": 218,
    "\u30ea": 219,
    "\u7684\u306a": 220,
    "\u2581[": 221,
    "\u30bf": 222,
    "\u2581(": 223,
    "\u4eca": 224,
    "\u2581\u3053\u308c\u304c": 225,
    "\u2581\u4ffa": 226,
    "\u624b": 227,
    "\u3093\u3067\u3059\u304b": 228,
    "\u3060\u304b\u3089": 229,
    "\u2581\u3042\u308a\u304c\u3068\u3046": 230,
    "\u30b3": 231,
    "\u2581\u3042\u306a\u305f\u304c": 232,
    "\u6642\u9593": 233,
    "\u304f\u3060\u3055\u3044": 234,
    "\u2581\u541b\u306e": 235,
    "5": 236,
    "\u5927": 237,
    "\u898b": 238,
    "\u2581\u50d5\u306f": 239,
    "\u4eba\u306e": 240,
    "\u3068\u601d\u3046": 241,
    "\u3053\u3068\u306f": 242,
    "\u306a\u306e": 243,
    "\u3057\u3066\u3044\u307e\u3059": 244,
    "\u524d\u306b": 245,
    "\u3053": 246,
    "\u3044\u306a\u3044": 247,
    "\u25813": 248,
    "\u2581\u3069\u3046": 249,
    "\u2581\u304a\u524d\u306f": 250,
    "4": 251,
    "\u2581\u5f7c\u306e": 252,
    "\u2581\u4ffa\u306e": 253,
    "\u30de": 254,
    "\u672c": 255,
    "\u8a71": 256,
    "\u306d\u3048": 257,
    "\u307e": 258,
    "\u529b": 259,
    "\u2581\u3053\u3093\u306a": 260,
    "\u2581\u3048\u3063": 261,
    "\u305c": 262,
    "\u30ed": 263,
    "\u30e0": 264,
    "\u51fa": 265,
    "\u3057\u308d": 266,
    "\u4e0a": 267,
    "\u56de": 268,
    "\u306e\u305f\u3081\u306b": 269,
    "\u306e\u3088": 270,
    "\u4eba\u306f": 271,
    "\u3067\u3059\u306d": 272,
    "\u826f\u3044": 273,
    "\u3084\u308b": 274,
    "\u3088\u306d": 275,
    "\u2581\u3082\u3063\u3068": 276,
    "\u3048": 277,
    "\u308c\u3070": 278,
    "\u30ad": 279,
    "\u2581\u5f7c\u3089\u306f": 280,
    "\u5f8c": 281,
    "\u5bb6": 282,
    "\u3055\u308c\u308b": 283,
    "\u3042": 284,
    "\u6708": 285,
    "\u2581\u4ffa\u304c": 286,
    "\u79c1\u306e": 287,
    "\u30ab": 288,
    "\u8003\u3048": 289,
    "\u2581\u3042\u308c": 290,
    "\u524d": 291,
    "\u30f3": 292,
    "\u6240": 293,
    "\u4f55\u304b": 294,
    "\u6027": 295,
    "\u79c1": 296,
    "\u2581\u305f\u3060": 297,
    "\u79c1\u306f": 298,
    "\u304c\u3042\u308a\u307e\u3059": 299,
    "\u4e0d": 300,
    "\u3068\u304d": 301,
    "\u304f\u308c": 302,
    "\u3057\u306a\u3044": 303,
    "\u2581\u3055\u3042": 304,
    "\u30d6": 305,
    "\u4eba\u304c": 306,
    "\u2581\u307e\u3042": 307,
    "\u3067\u304d\u306a\u3044": 308,
    "\u307e\u305b\u3093": 309,
    "\u2581\u81ea\u5206\u306e": 310,
    "\u2581\u3064\u307e\u308a": 311,
    "\u30c0": 312,
    "\u2581\u3053\u3053\u3067": 313,
    "\u30c7\u30a3": 314,
    "\u65b9": 315,
    "\u3067\u306f\u306a\u3044": 316,
    "\u2581\u3069\u3093\u306a": 317,
    "\u3057\u304b": 318,
    "\u30de\u30f3": 319,
    "\u3082\u3046": 320,
    "\u308c": 321,
    "\u306e\u3053\u3068": 322,
    "\u30b8": 323,
    "\u2581\u226a": 324,
    "\u2581\u4f55\u3067": 325,
    "6": 326,
    "\u306a\u3069": 327,
    "\u30aa": 328,
    "\u9053": 329,
    "\u6c17": 330,
    "\u306b\u306a\u3063\u305f": 331,
    "\u3044\u307e\u3057\u305f": 332,
    "\u2581\u5f7c\u304c": 333,
    "\u3066\u308b": 334,
    "\u2581\u3088\u304f": 335,
    "\u3078\u306e": 336,
    "\u30fb\u30fb": 337,
    "\u2581\u541b\u304c": 338,
    "\u2581\u305d\u308c\u3092": 339,
    "\u307b\u3069": 340,
    "\u30d0": 341,
    "\u4f1a": 342,
    "\u30a4": 343,
    "\u306a\u3093\u304b": 344,
    "\u2581\u266a": 345,
    "\u2581\u6211\u3005\u306f": 346,
    "\u30b5": 347,
    "\u3067\u3059\u3088": 348,
    "\u2581\u79c1\u305f\u3061\u306f": 349,
    "\u305f\u3044": 350,
    "\u30c1": 351,
    "\u305f\u3089": 352,
    "\u3089\u308c\u308b": 353,
    "\u2581\u3044\u3064\u3082": 354,
    "\u306b\u306a\u3063\u3066": 355,
    "\u4e0b": 356,
    "\u305f\u3081\u306b": 357,
    "\u306e\u3088\u3046\u306b": 358,
    "\u2581\u3042\u308b": 359,
    "\u2581\u3088\u3057": 360,
    "\u305a": 361,
    "\u3053\u3068\u304c": 362,
    "\u3069\u3046": 363,
    "\u2581\u3068\u3066\u3082": 364,
    "\u69d8": 365,
    "\u3080": 366,
    "\u308f\u306d": 367,
    "\u30b7": 368,
    "\u7528": 369,
    "\u304b\u3082\u3057\u308c\u306a\u3044": 370,
    "\u30b0": 371,
    "\u4e8b\u3092": 372,
    "\u70b9": 373,
    "\u2581\u3053\u3053": 374,
    "\u4f53": 375,
    "\u30df": 376,
    "\u2581\u3053\u3053\u306b": 377,
    "\u4e07": 378,
    "10": 379,
    "\u305b": 380,
    "\u6c34": 381,
    "\u2581\u306a\u3093\u3067": 382,
    "\u3051": 383,
    "\u76ee": 384,
    "\u540d": 385,
    "\u7537": 386,
    "\u2581\u5927": 387,
    "\u30a8": 388,
    "\u3093\u3067": 389,
    "\u2581\u304a\u524d\u306e": 390,
    "\u3066\u3044\u308b": 391,
    "\u6765": 392,
    "\u2581\u305d\u308c\u306b": 393,
    "\u2581\u4f55\u3092": 394,
    "\u2581\u5927\u4e08\u592b": 395,
    "\u79c1\u304c": 396,
    "\u5148\u751f": 397,
    "\u3067\u3042\u308b": 398,
    "\u3089\u308c\u305f": 399,
    "\u30d5": 400,
    "\u5148": 401,
    "\u91d1": 402,
    "\u2581\u4f55\u3082": 403,
    "\u2581\u3082\u3061\u308d\u3093": 404,
    ",": 405,
    "\u3088\u3046\u306a": 406,
    "\u30ce": 407,
    "\u751f": 408,
    "\u5fc3": 409,
    "\u4e86": 410,
    "\u2581\u79c1\u3082": 411,
    "\u2581\u3048": 412,
    "\u3061": 413,
    "\u30a6": 414,
    "\u2581\u541b": 415,
    "\u3057\u305f\u3044": 416,
    "\u2581\u4ed6\u306e": 417,
    "\u306a\u3055\u3044": 418,
    "-": 419,
    "\u2581\u30a2": 420,
    "\u3060\u3051\u3060": 421,
    "\u3088\u304f": 422,
    "\u3055\u308c": 423,
    "\u30cb": 424,
    "\u30ec": 425,
    "\u5973": 426,
    "\u3067\u3059\u304c": 427,
    "~!": 428,
    "\u3054": 429,
    "8": 430,
    "\u304d\u305f": 431,
    "\u2581\u65e9\u304f": 432,
    "\u2581\u307b\u3089": 433,
    "\u304c\u3042\u3063\u305f": 434,
    "\u5730": 435,
    "\u30c4": 436,
    "\u3055\u305b\u308b": 437,
    "(": 438,
    "\u2581\u4e00\u7dd2\u306b": 439,
    "\u5834\u6240": 440,
    "\u308f\u3088": 441,
    "\u3057\u3066\u305f": 442,
    "\u30cd": 443,
    "\u5c71": 444,
    "\u304b\u3082": 445,
    "\u9577": 446,
    "\u305d\u308c": 447,
    "\u2581\u4eca\u65e5\u306f": 448,
    "\u2581\u4eca\u65e5": 449,
    "\u95a2\u4fc2": 450,
    "\u554f\u984c": 451,
    "\u2581\u5c11\u3057": 452,
    "\u307e\u3060": 453,
    "\u2581\u5f7c": 454,
    "\u3064\u306e": 455,
    "\u30b4": 456,
    "\u3068\u3053\u308d": 457,
    "\u884c": 458,
    "\u306b\u3088\u3063\u3066": 459,
    "\u305d\u3046\u3060": 460,
    "\u30ac": 461,
    "\u2581\u3042\u3093\u305f": 462,
    "\u2581\u305d\u3046\u3060": 463,
    "\u2581\u3053\u308c\u3067": 464,
    "\u8a00\u3046": 465,
    "\u308b\u3093\u3060": 466,
    "\u2581\u5f7c\u5973": 467,
    "\u3053\u308c": 468,
    "\u4ed5\u4e8b": 469,
    "\u56fd": 470,
    "7": 471,
    "\u2581\u8ab0\u304b": 472,
    "\u2581\u4eca\u306f": 473,
    "\u6570": 474,
    "\u30c6\u30a3": 475,
    "\u7740": 476,
    "\u2581\u65b0\u3057\u3044": 477,
    "\u3053\u3053\u306b": 478,
    "\u306a\u304f": 479,
    "\u307e\u3057\u3087\u3046": 480,
    "\u2581\u305d\u3053\u3067": 481,
    "\u2581\u3054": 482,
    "\u3057\u3066\u3044\u305f": 483,
    "\u2581\u4e00": 484,
    "\u30d0\u30fc": 485,
    "\u2581\u540c\u3058": 486,
    "\u5ea6": 487,
    "\u53d6\u308a": 488,
    "\u4e8b\u306f": 489,
    "\u3084\u3063\u305f": 490,
    "\u884c\u304f": 491,
    "\u306b\u3042\u308b": 492,
    "\u30e9\u30fc": 493,
    "\u2581\u305a\u3063\u3068": 494,
    "\u6b73": 495,
    "\u30cb\u30fc": 496,
    "\u901a\u308a": 497,
    "\u53e3": 498,
    "\u306f\u306a\u3044": 499,
    "\u2581\u306a\u306b": 500,
    "\u77e5\u3063\u3066\u308b": 501,
    "\u3057\u305f\u3089": 502,
    "\u662f": 503,
    "\u7684\u306b": 504,
    "\u304b\u3089\u3067\u3059": 505,
    "\u6642\u306b": 506,
    "\u611f\u3058": 507,
    "\u5185": 508,
    "\u2581\u8ab0\u3082": 509,
    "\u90e8": 510,
    "\u307e\u305f": 511,
    "\u25815": 512,
    "\u30d7": 513,
    "\u3060\u305e": 514,
    "\u30d3": 515,
    "\u2581\u304a\u524d\u304c": 516,
    "\u8a00\u3063\u305f": 517,
    "\u8a00\u3063\u3066": 518,
    "\u2581\u4f55\u304c": 519,
    "\u3084\u3063\u3066": 520,
    "\u898b\u3066": 521,
    "\u304b\u3044": 522,
    "\u306a\u3093\u3067\u3059": 523,
    "\u3057\u3088\u3046": 524,
    "\u307f\u305f\u3044": 525,
    "\u5316": 526,
    "\u2581\u3053\u3053\u306f": 527,
    "\u2581\u3067\u306f": 528,
    "\u3053\u3068\u3067\u3059": 529,
    "\u795e": 530,
    "\u2581\u3042\u3041": 531,
    "\u4e0b\u3055\u3044": 532,
    "\u2581\u50d5": 533,
    "\u2581\u9055\u3046": 534,
    "\u2581\u50d5\u306e": 535,
    "\u2581\u7686": 536,
    "\u3059\u308b\u3068": 537,
    "\u7530": 538,
    "\u5973\u6027": 539,
    "\u30c9\u30eb": 540,
    "\u2581\u306d\u3048": 541,
    "s": 542,
    "\u4e16\u754c": 543,
    "\u7121\u3044": 544,
    "\u4eba\u9593": 545,
    "\u30b9\u30c8": 546,
    "\u5916": 547,
    "\u2581\u3044\u3044\u3048": 548,
    "\u3053\u3068\u306b": 549,
    "\u611b": 550,
    "\u2581\u8ab0\u304c": 551,
    "\u6226": 552,
    "\u30b7\u30fc": 553,
    "\u258110": 554,
    "\u6cd5": 555,
    "\u30c6": 556,
    "\u6a5f": 557,
    "\u97f3": 558,
    "\u306a\u306e\u304b": 559,
    "m": 560,
    "\u6b7b\u306c": 561,
    "\u3063\u3066\u308b": 562,
    "\u305d\u308c\u3092": 563,
    "\u3055\u305b\u3066": 564,
    "\u60aa\u3044": 565,
    "\u3092\u898b\u3066": 566,
    "e": 567,
    "\u6280\u8853": 568,
    "\u2581\u305d\u308c\u304b\u3089": 569,
    "\u2581\u3069\u3046\u3084\u3063\u3066": 570,
    "\u77e5\u3089\u306a\u3044": 571,
    "\u5cf6": 572,
    "\u3093\u3060\u3051\u3069": 573,
    "\u9ad8": 574,
    "\u30ea\u30f3": 575,
    "\u2581\u5f7c\u5973\u306e": 576,
    "\u6765\u305f": 577,
    "\u9054": 578,
    "\u50b7": 579,
    "\u2581\u30de\u30de": 580,
    "\u306b\u884c\u304f": 581,
    "\u5bb6\u65cf": 582,
    "\u661f": 583,
    "\u9762": 584,
    "\u306e\u3088\u3046\u306a": 585,
    "\u30b1": 586,
    "\u3068\u601d\u3044\u307e\u3059": 587,
    "\u3042\u306a\u305f": 588,
    "\u767a": 589,
    "\u3057\u3066\u304f\u308c": 590,
    "\u2581\u79c1\u306b": 591,
    "\u5165": 592,
    "\u304f\u3089\u3044": 593,
    "\u4f55\u3092": 594,
    "\u5834": 595,
    "\u3089\u3057\u3044": 596,
    "\u8a08\u753b": 597,
    "\u51fa\u6765\u308b": 598,
    "\u6709": 599,
    "\u2581\u4f55\u3060": 600,
    "\u2581\u3059\u3050\u306b": 601,
    "\u6b32\u3057\u3044": 602,
    "\u9854": 603,
    "\u30c7": 604,
    "\u3082\u306e\u3067\u3059": 605,
    "\u2581\u30d1\u30d1": 606,
    "\u306a\u304c\u3089": 607,
    "\u5b66": 608,
    "\u3060\u3051\u3069": 609,
    "\u3068\u8a00\u3063\u305f": 610,
    "\u30b7\u30b9\u30c6\u30e0": 611,
    "\u2581\u304d\u3063\u3068": 612,
    "\u3067\u3057\u3087\u3046\u304b": 613,
    "\u3005": 614,
    "\u3042\u306e": 615,
    "\u306a\u306e\u3067\u3059": 616,
    "\u3042\u308a\u307e\u3059": 617,
    "\u3059\u308c\u3070": 618,
    "\u3093\u3060\u308d": 619,
    "\u2581\u5168\u90e8": 620,
    "\u305f\u3081": 621,
    "t": 622,
    "\u5b50\u4f9b": 623,
    "\u7dda": 624,
    "\u2581\u4ed5\u4e8b": 625,
    "\u2581\u6211": 626,
    "\u3060\u308f": 627,
    "\u3042\u3063\u305f": 628,
    "\u4ffa": 629,
    "\u304f\u308b": 630,
    "\u2581\u3055\u3066": 631,
    "\u3088\u308a\u3082": 632,
    "\u5974": 633,
    "\u6765\u308b": 634,
    "\u3066\u3044\u307e\u3059": 635,
    "\u81ea\u5206\u306e": 636,
    "\u96fb\u8a71": 637,
    "\u5149": 638,
    "\u2581\u5206\u304b\u3063\u305f": 639,
    "\u306e\u4e2d\u3067": 640,
    "\u5e74\u9593": 641,
    "\u3067\u306f\u306a\u304f": 642,
    "\u306a\u3044\u3068": 643,
    "\u2581\u3053\u308c\u3092": 644,
    "\u3053\u3046": 645,
    "\u3067\u306f\u3042\u308a\u307e\u305b\u3093": 646,
    "\u30bf\u30fc": 647,
    "\u304c\u3044\u308b": 648,
    "\u884c\u52d5": 649,
    "\u30e9\u30f3": 650,
    "\u5927\u304d\u306a": 651,
    "\u5ddd": 652,
    "\u901a": 653,
    "9": 654,
    "\u2581\u50d5\u304c": 655,
    "\u3068\u540c\u3058": 656,
    "\u5206\u304b\u308b": 657,
    "\u4ee3": 658,
    "\u306f\u305a": 659,
    "\u304b\u3063\u305f": 660,
    "\u306a\u304d\u3083": 661,
    "\u306a\u304f\u3066": 662,
    "\u2581\u304a\u9858\u3044": 663,
    "\u9593": 664,
    "\u3044\u304f": 665,
    "\u306a\u3041": 666,
    "\u30e1": 667,
    "\u7406\u7531": 668,
    "\u3058": 669,
    "\u304c\u306a\u3044": 670,
    "\u2581\u3061\u3083\u3093\u3068": 671,
    "\u8db3": 672,
    "\u65b0\u3057\u3044": 673,
    "\u308b\u306e": 674,
    "\u3060\u306d": 675,
    "\u2581\u5f7c\u5973\u304c": 676,
    "\u30d3\u30fc": 677,
    "\u3082\u3063\u3068": 678,
    "\u306b\u3044\u308b": 679,
    "\u672c\u5f53\u306b": 680,
    "\u6d77": 681,
    "\u5c0f": 682,
    "\u2581\u308f\u304b\u3063\u305f": 683,
    "\u6728": 684,
    "\u5168\u3066": 685,
    "\u3093\u3058\u3083\u306a\u3044": 686,
    "\u5168\u90e8": 687,
    "\u308f\u3051": 688,
    "\u9055\u3046": 689,
    "\u4e2d\u306b": 690,
    "\u756a": 691,
    "\u2581\u3059\u3054\u3044": 692,
    "\u2581\u5f85\u3063\u3066": 693,
    "\u5f62": 694,
    "\u30ed\u30fc": 695,
    "20": 696,
    "\u306b\u3068\u3063\u3066": 697,
    "\u72b6\u6cc1": 698,
    "\u300f": 699,
    "\u5728": 700,
    "\u2581\u3054\u3081\u3093": 701,
    "\u7a7a": 702,
    "\u4f55\u3082": 703,
    "\u306d\u3047": 704,
    "\u25814": 705,
    "\u30b6": 706,
    "\u3055\u308c\u3066": 707,
    "\u30e2": 708,
    "\u591c": 709,
    "\u884c\u3063\u3066": 710,
    "\u3042\u306a\u305f\u306e": 711,
    "\u304b\u3057\u3089": 712,
    "a": 713,
    "\u3092\u898b": 714,
    "\u3058\u3083\u306a\u3044\u304b": 715,
    "\u2581\u305d\u3046\u304b": 716,
    "\u5e97": 717,
    "\u2581\u5b9f\u306f": 718,
    "\u540c\u3058": 719,
    "\u30dc": 720,
    "\u3068\u4e00\u7dd2\u306b": 721,
    "\u805e\u3044\u3066": 722,
    "\u7d44\u7e54": 723,
    "\u6765\u3066": 724,
    "\u5c11\u3057": 725,
    "\u6d41": 726,
    "\u306f\u305a\u3060": 727,
    "\u3070\u304b\u308a": 728,
    "\u30c3\u30c8": 729,
    "\u2581\u3084\u3063\u3071\u308a": 730,
    "\u2581\u3042\u308c\u306f": 731,
    "\u898b\u305f": 732,
    "\u982d": 733,
    "\u3063\u3068": 734,
    "\u30c3\u30af": 735,
    "\u201d": 736,
    "\u2581\u307e\u3055\u304b": 737,
    "\u6751": 738,
    "\u306a\u3044\u308f": 739,
    "\u3064\u304f": 740,
    "\u8a71\u3059": 741,
    "\u308d\u3046": 742,
    "\u541b\u306e": 743,
    "\u4eba\u306b": 744,
    "\u30bd\u30f3": 745,
    "\u5c4b": 746,
    "\u307b\u3057\u3044": 747,
    "\u51fa\u3059": 748,
    "\u3068\u3082": 749,
    "\u72b6\u614b": 750,
    "\u66f8": 751,
    "\u2581\u3059\u307f\u307e\u305b\u3093": 752,
    "\u2581\u30de": 753,
    "\u3068\u3044\u3046\u3053\u3068\u3067\u3059": 754,
    "\u307f\u305f\u3044\u306a": 755,
    "\u2581\u898b\u3066": 756,
    "\u3084\u3064": 757,
    "\u2581\u3069\u3046\u3057\u305f": 758,
    "\u30ab\u30fc": 759,
    "\u30c8\u30f3": 760,
    "\u305d\u3046\u3067\u3059": 761,
    "\u4e3b": 762,
    "\u79c1\u306b": 763,
    "\u5922": 764,
    "\u8239": 765,
    "\u3061\u3087\u3063\u3068": 766,
    "\u54c1": 767,
    "\u4eba\u3092": 768,
    "\u2581\u78ba\u304b\u306b": 769,
    "\u91ce": 770,
    "\u306b\u3057\u3066": 771,
    "\u30e4": 772,
    "\u8eab": 773,
    "\u8981": 774,
    "\u306a\u3051\u308c\u3070": 775,
    "\u8eca": 776,
    "\u7814\u7a76": 777,
    "\u2581\u79c1\u3092": 778,
    "\u2581<": 779,
    "\u30b9\u30bf\u30fc": 780,
    "\u305a\u3063\u3068": 781,
    "c": 782,
    "\u5fc5\u8981": 783,
    "\u2581\u3042\u3068": 784,
    "\u58f0": 785,
    "\u2581\u3069\u3046\u305e": 786,
    "\u5f7c\u306e": 787,
    "\u308f\u304b\u308b": 788,
    "\u5b58\u5728": 789,
    "\u3042\u308a": 790,
    "\u2581\u91d1": 791,
    "\u3092\u4f7f\u3063\u3066": 792,
    "\u3068\u601d\u3063\u305f": 793,
    "\u6b7b": 794,
    ">": 795,
    "\u2581\u3053\u308c\u304b\u3089": 796,
    "\u2581\u898b": 797,
    "\u91cf": 798,
    "\u306a\u308b": 799,
    "\u592b": 800,
    "\u2581\u304a\u7236\u3055\u3093": 801,
    "\u5fc3\u914d": 802,
    "\u535a\u58eb": 803,
    "\u5143": 804,
    "\u6211": 805,
    "\u8272": 806,
    "\u8abf\u67fb": 807,
    "\u5f7c\u306f": 808,
    "\u2581\u3044\u3048": 809,
    "\u4e00\u7dd2\u306b": 810,
    "\u3069": 811,
    "\u5909\u5316": 812,
    "\u3060\u3051\u3067": 813,
    "\u308b\u3068": 814,
    "\u3082\u306a\u3044": 815,
    "\u2581\u5168\u3066": 816,
    "\u3053\u305d": 817,
    "\u307f\u3093\u306a": 818,
    "\u751f\u6d3b": 819,
    "\u4ed6\u306e": 820,
    "r": 821,
    "\u3044\u307e\u305b\u3093": 822,
    "\u2581\u5bb6\u65cf": 823,
    "\u601d\u3044": 824,
    "\u3068\u3053": 825,
    "\u2581\u3053\u3061\u3089": 826,
    "\u2581\u2212": 827,
    "\u2581\u6211\u3005\u306e": 828,
    "\u7b54\u3048": 829,
    "\u3050": 830,
    "\u2581\u6c34": 831,
    "\u5f79": 832,
    "\u597d": 833,
    "\u884c\u3063\u305f": 834,
    "\u597d\u304d": 835,
    "\u4ffa\u306e": 836,
    "\u82b1": 837,
    "\u4ee5\u4e0a": 838,
    "\u2581\u826f\u3044": 839,
    "\u2581\u305d\u3046\u3044\u3046": 840,
    "\u2581\u5f7c\u3092": 841,
    "\u4e8b\u304c": 842,
    "\u2581\u624b": 843,
    "\u2581\u3053\u3063\u3061": 844,
    "\u2581\u3054\u3081\u3093\u306a\u3055\u3044": 845,
    "\u2581\u8ab0": 846,
    "\u30d1": 847,
    "\u2581\u79c1\u305f\u3061": 848,
    "\u98df": 849,
    "\u30e9\u30a4": 850,
    "\u2581\u3008": 851,
    "\u308c\u308b": 852,
    "\u610f\u5473": 853,
    "\u306b\u306a\u308a\u307e\u3059": 854,
    "\u307f\u305f\u3044\u306b": 855,
    "\u7686": 856,
    "\u30ef": 857,
    "\u306e\u4e2d\u306b": 858,
    "\u304b\u3082\u3057\u308c\u307e\u305b\u3093": 859,
    "\u30a4\u30f3": 860,
    "\u30bd": 861,
    "\u2581\u305d": 862,
    "\u65b9\u304c": 863,
    "\u304a\u524d": 864,
    "\u4e00\u4eba": 865,
    "\u304e": 866,
    "\u30d9": 867,
    "\u540d\u524d": 868,
    "\u304d\u307e\u3057\u305f": 869,
    "\u7121": 870,
    "\u2581\u4eca\u306e": 871,
    "\u3053\u3053\u3067": 872,
    "\u2581\u3042\u3044\u3064": 873,
    "\u8ecd": 874,
    "\u3009": 875,
    "\u5f97": 876,
    "\u2581\u307e\u305a": 877,
    "\u3076": 878,
    "\u3063\u3066\u3044\u308b": 879,
    "\u77f3": 880,
    "\u30bb": 881,
    "\u2581\u305d\u3093\u306a\u3053\u3068": 882,
    "\u53cb\u9054": 883,
    "\u305d\u308c\u306f": 884,
    "\u305f\u3093\u3060": 885,
    "\u3067\u304d\u305f": 886,
    "\u4e8b\u4ef6": 887,
    "\u4eba\u3067": 888,
    "\u305f\u304f\u306a\u3044": 889,
    "\u2581\u304a\u6bcd\u3055\u3093": 890,
    "\u3053\u3053": 891,
    "\u3055\u308c\u3066\u3044\u308b": 892,
    "\u65e9\u304f": 893,
    "\u9803": 894,
    "\u2581\u3069\u3046\u3082": 895,
    "\u3067\u304d\u307e\u3059": 896,
    "\u85ac": 897,
    "\u3057\u307e\u3057\u3087\u3046": 898,
    "\u5ba4": 899,
    "\u258120": 900,
    "\u2581\u3059\u3044\u307e\u305b\u3093": 901,
    "\u8ab0\u304b": 902,
    "\u306c": 903,
    "\u306e\u3053\u3068\u3092": 904,
    "\u5f7c\u5973": 905,
    "\u2581\u305f\u3076\u3093": 906,
    "\u53f0": 907,
    "\u2581\u3068\u306b\u304b\u304f": 908,
    "\u30ed\u30f3": 909,
    "\u7d50\u679c": 910,
    "\u3092\u6301\u3063\u3066": 911,
    "\u539f": 912,
    "\u30cf": 913,
    "\u54e1": 914,
    "\u4ed5\u4e8b\u3092": 915,
    "\u2581\u30b8\u30e7\u30f3": 916,
    "\u60c5\u5831": 917,
    "\u3093\u3058\u3083": 918,
    "d": 919,
    "\u3068\u3066\u3082": 920,
    "i": 921,
    "\u51fa\u6765\u306a\u3044": 922,
    "\u3092\u6bba\u3057\u305f": 923,
    "\u3093\u3060\u308d\u3046": 924,
    "\u2581\u3046": 925,
    "\u7f6a": 926,
    "\u306a\u3093\u3060\u3088": 927,
    "\u5e74\u524d": 928,
    "\u30c1\u30fc\u30e0": 929,
    "\u3067\u3042\u308a": 930,
    "\u6b62\u3081": 931,
    "\u5929": 932,
    "\u6b7b\u3093\u3060": 933,
    "\u30de\u30fc": 934,
    "\u30ca\u30fc": 935,
    "\u98a8": 936,
    "\u7d4c\u9a13": 937,
    "\u79c1\u3092": 938,
    "\u5831\u544a": 939,
    "\u5c45": 940,
    "\u30ab\u30fc\u30c9": 941,
    "\u2581\u30d0\u30ab": 942,
    "\u7d20\u6674\u3089\u3057\u3044": 943,
    "\u30ec\u30f3": 944,
    "\u306e\u8a71": 945,
    "\u3089\u306a\u3044": 946,
    "\u653e": 947,
    "\u30e4\u30c4": 948,
    "\u3050\u3089\u3044": 949,
    "\u8a71\u3057\u305f": 950,
    "\u2581\u3042\u3089": 951,
    "\u8aac\u660e": 952,
    "\u3053\u308c\u306f": 953,
    "\u8003\u3048\u3066": 954,
    "\u3089\u308c\u306a\u3044": 955,
    "\u76f8\u624b": 956,
    "\u305d": 957,
    "\u9aa8": 958,
    "\u2581\u6700\u8fd1": 959,
    "\u2581\u3058\u3083": 960,
    "\u2581\u96fb\u8a71": 961,
    "\u52a9\u3051": 962,
    "\u5473": 963,
    "\u611f": 964,
    "\u4e8c": 965,
    "\u2581\u4e16\u754c": 966,
    "\u2581\u5148\u751f": 967,
    "\u2581\u660e\u65e5": 968,
    "\u884c\u304d": 969,
    "\u8cea\u554f": 970,
    "\u3069\u3093\u306a": 971,
    "o": 972,
    "\u541b\u306f": 973,
    "\u3044\u3063\u305f": 974,
    "\u7b11": 975,
    "\u521d\u3081\u3066": 976,
    "\u77e5\u3063\u3066\u3044\u308b": 977,
    "\u5165\u308c": 978,
    "\u306a\u3063\u3066": 979,
    "\u2581\u6b21\u306e": 980,
    "\u7f8e": 981,
    "\u2581\u79c1\u305f\u3061\u306e": 982,
    "\u4eba\u751f": 983,
    "\u3088\u304b\u3063\u305f": 984,
    "\u3064\u3082\u308a": 985,
    "\u51fa\u3057\u305f": 986,
    "\u2581\u3042\u306a\u305f\u306b": 987,
    "\u2581\u3059\u3050": 988,
    "\u2581\u3044\u3044\u304b": 989,
    "\u8840": 990,
    "\u3082\u306e\u3092": 991,
    "\u5e74\u306b": 992,
    "\u2581\u7686\u3055\u3093": 993,
    "\u592a": 994,
    "\u2581\u3088\u304b\u3063\u305f": 995,
    "l": 996,
    "\u5b66\u6821": 997,
    "\u3057\u305f\u306e": 998,
    "\u304f\u3093": 999,
    "\u805e\u3044\u305f": 1000,
    "\u5f7c": 1001,
    "\u4f5c": 1002,
    "\u3068\u8a00\u3046": 1003,
    "\u2581\u4f8b\u3048\u3070": 1004,
    "\u53cb\u4eba": 1005,
    "\u3073": 1006,
    "\u3059\u3079\u3066": 1007,
    "\u6bcd": 1008,
    "y": 1009,
    "\u53bb": 1010,
    "\u306b\u3088\u308b": 1011,
    "\u2581\u4e0d": 1012,
    "\u3041": 1013,
    "\u7236": 1014,
    "\u2581\u3059\u3079\u3066": 1015,
    "\u30dd": 1016,
    "\u3055\u3093\u306f": 1017,
    "\u89e3": 1018,
    "\u3092\u898b\u305f": 1019,
    "\u2581\u305d\u3053\u306b": 1020,
    "\u2581\u3044\u3064": 1021,
    "\u2581\u30a8": 1022,
    "\u8a00\u3044": 1023,
    "\u653b\u6483": 1024,
    "\u306b\u5bfe\u3057\u3066": 1025,
    "\u8003\u3048\u308b": 1026,
    "\u8a00\u8449": 1027,
    "\u3055\u305b\u305f": 1028,
    "\u304f\u308c\u308b": 1029,
    "\u60aa": 1030,
    "\u25816": 1031,
    "\u65b9\u6cd5": 1032,
    "\u3057\u304b\u306a\u3044": 1033,
    "\u5f37\u3044": 1034,
    "\u3055\u305b": 1035,
    "\u3093\u3067\u3059\u3088": 1036,
    "\u5f15\u304d": 1037,
    "\u8ab0": 1038,
    "\u30d9\u30eb": 1039,
    "p": 1040,
    "\u6575": 1041,
    "\u308b\u306e\u306f": 1042,
    "\u6620\u753b": 1043,
    "h": 1044,
    "\u3053\u3093\u306a": 1045,
    "\u8a9e": 1046,
    "\u2581\u81ea\u5206\u3067": 1047,
    "\u5834\u5408": 1048,
    "\u3057\u3044": 1049,
    "\u3067\u3059\u3088\u306d": 1050,
    "\u3057\u3066\u304f\u3060\u3055\u3044": 1051,
    "\u72ac": 1052,
    "\u2581\u8ab0\u304b\u304c": 1053,
    "\u3064\u3051": 1054,
    "\u304f\u308c\u305f": 1055,
    "\u540c": 1056,
    "\u805e\u304f": 1057,
    "\u8005\u306f": 1058,
    "\u5199\u771f": 1059,
    "\u3088\u3046\u3060": 1060,
    "A": 1061,
    "\u2581\u81ea\u5206": 1062,
    "\u7a2e": 1063,
    "\u306e\u4e8b": 1064,
    "\u80fd\u529b": 1065,
    "\u304c\u3042\u3063\u3066": 1066,
    "~\u3002": 1067,
    "\u6b4c": 1068,
    "\u5206\u304b\u3063\u305f": 1069,
    "S": 1070,
    "\u2581\u4eca\u307e\u3067": 1071,
    "\u5c31": 1072,
    "f": 1073,
    "\u2581\u300e": 1074,
    "\u6301\u3063\u3066": 1075,
    "\u30ac\u30fc": 1076,
    "30": 1077,
    "\u3053\u3068\u3082": 1078,
    "\u8a18\u9332": 1079,
    "\u2581\u5c0f": 1080,
    "\u76ee\u7684": 1081,
    "\u2581\u3060\u3063\u3066": 1082,
    "\u30ea\u30b9\u30c8": 1083,
    "b": 1084,
    "\u5927\u4e08\u592b": 1085,
    "u": 1086,
    "\u51fa\u3057\u3066": 1087,
    "\u6b8b": 1088,
    "\u5f3e": 1089,
    "\u30b2\u30fc\u30e0": 1090,
    "\u306b\u306a\u308a": 1091,
    "\u306a\u3057": 1092,
    "\u3055\u3048": 1093,
    "\u66f2": 1094,
    "\u30ad\u30fc": 1095,
    "\u2581\u3069\u3053": 1096,
    "\u3093\u3067\u3057\u3087": 1097,
    "\u306e\u70ba\u306b": 1098,
    "\u305d\u3093\u306a": 1099,
    "\u306e\u3042\u308b": 1100,
    "\u3079": 1101,
    "\u306f\u4f55": 1102,
    "\u548c": 1103,
    "\u3082\u3093": 1104,
    "\u2581\u3042\u3093\u306a": 1105,
    "\u2581\u30aa": 1106,
    "\u3055\u308c\u307e\u3057\u305f": 1107,
    "\u547d": 1108,
    "\u2581\u305f\u3060\u306e": 1109,
    "\u2581\u4ffa\u3082": 1110,
    "\u2581\u7d20\u6674\u3089\u3057\u3044": 1111,
    "\u2581\u8b66\u5bdf": 1112,
    "\u30ae": 1113,
    "\u2581\u30db\u30f3\u30c8": 1114,
    "\u7b49": 1115,
    "\u52d5": 1116,
    "\u74b0\u5883": 1117,
    "\u6d3b\u52d5": 1118,
    "\u3053\u3068\u3060": 1119,
    "\u4ef2\u9593": 1120,
    "\u6b21": 1121,
    "\u306e\u306d": 1122,
    "\u306a\u308a": 1123,
    "\u2581\u5225\u306e": 1124,
    "\u308b\u3053\u3068": 1125,
    "\u2581\u77e5\u3063\u3066\u308b": 1126,
    "\u2581\u5fc3": 1127,
    "\u958b\u767a": 1128,
    "\u4eba\u7269": 1129,
    "\u3057\u3066\u306a\u3044": 1130,
    "\u3055\u3093\u304c": 1131,
    "\u670d": 1132,
    "\u53cd\u5fdc": 1133,
    "\u4e00\u3064": 1134,
    "\u308b\u304b": 1135,
    "\u59bb": 1136,
    "\u30a2\u30f3": 1137,
    "\u3057\u307e\u3063\u305f": 1138,
    "\u3063\u3066\u3053\u3068": 1139,
    "\u3092\u898b\u3064\u3051\u305f": 1140,
    "\u2581\u53cb\u9054": 1141,
    "\u5f0f": 1142,
    "\u2581\u30b9": 1143,
    "\u2581\u3055\u3089\u306b": 1144,
    "\u2581\u5f85\u3066": 1145,
    "\u304b\u3069\u3046\u304b": 1146,
    "\u30e2\u30f3": 1147,
    "\u30b7\u30e5": 1148,
    "\u7acb": 1149,
    "\u5668": 1150,
    "\u305f\u3061": 1151,
    "\u3057\u305f\u3093\u3060": 1152,
    "\u635c\u67fb\u5b98": 1153,
    "\u3058\u3083\u3093": 1154,
    "\u3068\u3057\u3066\u3082": 1155,
    "\u534a": 1156,
    "\u4f1a\u793e": 1157,
    "\u30d0\u30ab": 1158,
    "\u2581\u304a\u524d\u3089": 1159,
    "\u793e\u4f1a": 1160,
    "\u3052": 1161,
    "\u3042\u3093\u305f": 1162,
    "\u30a2\u30eb": 1163,
    "\u3060\u3068\u601d\u3046": 1164,
    "\u306a\u305c": 1165,
    "\u591a\u304f\u306e": 1166,
    "\u898b\u3048\u308b": 1167,
    "\u5f7c\u3092": 1168,
    "g": 1169,
    "\u2581\u60aa\u3044": 1170,
    "C": 1171,
    "\u304b\u3089\u306d": 1172,
    "\u2581\u606f\u5b50": 1173,
    "\u2581\u3053\u3046": 1174,
    "\u2581\u65b0": 1175,
    "...\u300b": 1176,
    "\u3089\u308c": 1177,
    "\u541b\u304c": 1178,
    "\u2581\u541b\u306b": 1179,
    "\u3057\u3066\u304d\u305f": 1180,
    "\u2581\u79c1\u306b\u306f": 1181,
    "\u4ed8\u3051": 1182,
    "\u3092\u6301\u3064": 1183,
    "\u30a8\u30eb": 1184,
    "\u578b": 1185,
    "\u304c\u5fc5\u8981\u3060": 1186,
    "\u5211\u4e8b": 1187,
    "\u3082\u3089\u3046": 1188,
    "\u2581\u6211\u3005\u304c": 1189,
    "\u2581\u30a4": 1190,
    "\u4f60": 1191,
    "\u601d\u3046": 1192,
    "\u5c0f\u3055\u306a": 1193,
    "\u90e8\u5206": 1194,
    "\u65b0": 1195,
    "\u30e2\u30f3\u30b9\u30bf\u30fc": 1196,
    "\u2581\u79c1\u9054\u306f": 1197,
    "\u88c5\u7f6e": 1198,
    "\u30b8\u30e5": 1199,
    "\u3042\u306a\u305f\u306f": 1200,
    "\u6226\u4e89": 1201,
    "\u4eca\u65e5": 1202,
    "\u3066\u304f\u308c": 1203,
    "\u3092\u3059\u308b": 1204,
    "\u7406\u89e3": 1205,
    "\u91ce\u90ce": 1206,
    "?\u300d": 1207,
    "\u3068\u601d\u3063\u3066": 1208,
    "\u53d6\u5f15": 1209,
    "\u7d30\u80de": 1210,
    "\u50d5": 1211,
    "\u3093\u3060\u304b\u3089": 1212,
    "\u2581\u5f7c\u306b": 1213,
    "\u3044\u3064\u3082": 1214,
    "\u2581\u3084\u3081\u308d": 1215,
    "\u60c5\u5831\u3092": 1216,
    "\u30a2\u30fc": 1217,
    "\u738b": 1218,
    "\u4e09": 1219,
    "\u3082\u3044\u3044": 1220,
    "\u3066\u3044\u305f": 1221,
    "\u2581\u4ffa\u306b": 1222,
    "\u30c0\u30fc": 1223,
    "\u70ba": 1224,
    "\u3060\u3057": 1225,
    "\u30ac\u30f3": 1226,
    "\u52d5\u304d": 1227,
    "\u3089\u308c\u3066": 1228,
    "\u2581\u4e00\u4f53": 1229,
    "\u3055\u3093\u306e": 1230,
    "\u2581\u79c1\u305f\u3061\u304c": 1231,
    "\u5206\u304b\u3089\u306a\u3044": 1232,
    "\u6c17\u5206": 1233,
    "k": 1234,
    "\u3082\u306e\u3060": 1235,
    "\u3059\u3079\u304d": 1236,
    "\u3059\u308b\u306e\u306f": 1237,
    "\u30d2": 1238,
    "\u751f\u304d": 1239,
    "\u2581\u305d\u306e\u5f8c": 1240,
    "\u30c7\u30b6\u30a4\u30f3": 1241,
    "\u4f4d": 1242,
    "\u2581\u304b\u306a\u308a": 1243,
    "\u2581\u6211\u3005": 1244,
    "\u91cc": 1245,
    "\u3042\u308a\u307e\u305b\u3093": 1246,
    "\u3084\u3063\u3066\u308b": 1247,
    "\u306b\u884c\u3063\u3066": 1248,
    "\u3055\u308c\u3066\u308b": 1249,
    "\u767a\u898b": 1250,
    "\u2581\u5f7c\u3089\u306e": 1251,
    "\u2581\u7d76\u5bfe": 1252,
    "\u2581\u306a\u3093\u3060": 1253,
    "\u91cd": 1254,
    "\u660e": 1255,
    "\u606f\u5b50": 1256,
    "\u2581\u3069\u3046\u3057\u305f\u306e": 1257,
    "\u3057\u306a\u3044\u3068": 1258,
    "\u8857": 1259,
    "\u8b66\u5bdf": 1260,
    "\u306a\u306e\u3088": 1261,
    "\u8089": 1262,
    "\u30ab\u30f3": 1263,
    "\u4e88\u5b9a": 1264,
    "\u3060\u3063\u305f\u3089": 1265,
    "\u7ba1\u7406": 1266,
    "\u4f8b": 1267,
    "\u554a": 1268,
    "\u306b\u5bfe\u3059\u308b": 1269,
    "\u76ee\u306b": 1270,
    "\u4ef6": 1271,
    "\u9055\u3044": 1272,
    "\u65c5": 1273,
    "\u3082\u3042\u308b": 1274,
    "\u8fd1": 1275,
    "\u8a71\u3092": 1276,
    "\u624b\u3092": 1277,
    "\u6599\u7406": 1278,
    "\u2581\u4e09": 1279,
    "\u4e16": 1280,
    "\u2581\u305d\u308a\u3083": 1281,
    "\u2581\u307e\u308b\u3067": 1282,
    "\u968a": 1283,
    "\u75c5": 1284,
    "\u2581\u30b5": 1285,
    "\u30bf\u30a4": 1286,
    "\u307c": 1287,
    "\u306f\u3069\u3046": 1288,
    "\u30ea\u30a2": 1289,
    "\u3061\u3083\u3063\u305f": 1290,
    "\u2581\u7279\u306b": 1291,
    "\u2581\u591a\u304f\u306e": 1292,
    "\u3053\u308c\u3092": 1293,
    "\u30b8\u30e7\u30f3": 1294,
    "\u30c0\u30e1": 1295,
    "\u3057\u3066\u304f\u308c\u308b": 1296,
    "\u6c17\u6301\u3061": 1297,
    "\u76f4": 1298,
    "\u306a\u3044\u3088": 1299,
    "\u2581\u4e00\u756a": 1300,
    "\u8fbc\u3093\u3067": 1301,
    "\u5909": 1302,
    "\u2581\u4ed6\u306b": 1303,
    "\u3064\u304d": 1304,
    "\u5b9f\u9a13": 1305,
    "\u2581\u5bb6": 1306,
    "\u306e\u4e2d": 1307,
    "\u5b89\u5168": 1308,
    "\u7269\u8a9e": 1309,
    "\u5bfe": 1310,
    "\u4fdd\u8b77": 1311,
    "\u635c\u67fb": 1312,
    "\u2581\u306a\u305c\u306a\u3089": 1313,
    "\u5168\u54e1": 1314,
    "\u706b": 1315,
    "\u8cea": 1316,
    "\u8a33": 1317,
    "\u304b\u3089\u306a": 1318,
    "\u7acb\u3066": 1319,
    "\u30ea\u30f3\u30b0": 1320,
    "\u5c40": 1321,
    "\u793e": 1322,
    "\u2500": 1323,
    "\u79fb\u52d5": 1324,
    "\u3064\u304b": 1325,
    "\u5e74\u306e": 1326,
    "\u75c5\u6c17": 1327,
    "D": 1328,
    "\u2581\u305d\u308c\u3068\u3082": 1329,
    "\u898b\u3064\u3051\u305f": 1330,
    "\u6226\u3044": 1331,
    "\u306e\u305f\u3081": 1332,
    "\u2581\u7b2c": 1333,
    "\u2581\u5143\u6c17": 1334,
    "\u4f01\u696d": 1335,
    "\u3058\u3083\u306a\u304f\u3066": 1336,
    "\u4e5f": 1337,
    "\u308f\u304b\u3063\u305f": 1338,
    "\u3072": 1339,
    "\u5175": 1340,
    "\u30c6\u30b9\u30c8": 1341,
    "\u3053\u3068\u3067": 1342,
    "\u5e2d": 1343,
    "\u30b0\u30eb\u30fc\u30d7": 1344,
    "\u2581\u5b50\u4f9b": 1345,
    "\u5207\u308a": 1346,
    "\u307e\u3059\u304b": 1347,
    "\u8fbc\u3080": 1348,
    "\u8ee2": 1349,
    "\u304d\u3066": 1350,
    "\u5e73": 1351,
    "\u6210": 1352,
    "\u2581\u30a2\u30e1\u30ea\u30ab": 1353,
    "\u2581\u304a\u304a": 1354,
    "\u3057\u306a\u304b\u3063\u305f": 1355,
    "\u90fd": 1356,
    "\u51fa\u3057": 1357,
    "\u9b5a": 1358,
    "\u679a": 1359,
    "\u7d42\u308f\u308a": 1360,
    "\u2581\u305d\u3093\u306a\u306b": 1361,
    "T": 1362,
    "\u2015\u2015": 1363,
    "\u3042\u306a\u305f\u304c": 1364,
    "\u3042\u308a\u304c\u3068\u3046": 1365,
    "\u30b8\u30fc": 1366,
    "\u80fd": 1367,
    "\u79d2": 1368,
    "\u2581\u795e": 1369,
    "\u671d": 1370,
    "\u5ba2": 1371,
    "\u308b\u306e\u304b": 1372,
    "\u756a\u53f7": 1373,
    "\u57ce": 1374,
    "\u606f": 1375,
    "50": 1376,
    "\u2581\u7121\u7406": 1377,
    "\u9023\u308c\u3066": 1378,
    "\u2581\u5225\u306b": 1379,
    "\u8868": 1380,
    "\u2581\u3082\u3046\u4e00\u5ea6": 1381,
    "\u5b98": 1382,
    "\u2581\u3084\u3081\u3066": 1383,
    "\u4ffa\u306f": 1384,
    "\u7d75": 1385,
    "\u2581\u5927\u304d\u306a": 1386,
    "\u2581\u81ea\u5206\u304c": 1387,
    "\u305a\u306b": 1388,
    "\u60a3\u8005": 1389,
    "\u5225\u306e": 1390,
    "\u76f8": 1391,
    "\u3086": 1392,
    "\u6a5f\u80fd": 1393,
    "\u70ba\u306b": 1394,
    "\u2581\u3055\u3063\u304d": 1395,
    "\u30c8\u30e9": 1396,
    "\u3059\u308b\u3093\u3060": 1397,
    "\u4e00\u756a": 1398,
    "\u6cbb\u7642": 1399,
    "\u2581\u8eca": 1400,
    "\u2581\u3042\u308a\u304c\u3068\u3046\u3054\u3056\u3044\u307e\u3059": 1401,
    "\u2581\u805e\u3044\u3066": 1402,
    "\u2581\u7d50\u5a5a": 1403,
    "\u611f\u60c5": 1404,
    "\u2581\u6628\u65e5": 1405,
    "\u4e8b\u3060": 1406,
    "\u6301\u3061": 1407,
    "\u89e3\u6c7a": 1408,
    "\u308b\u308f": 1409,
    "\u898b\u3048\u306a\u3044": 1410,
    "\u306a\u306e\u306b": 1411,
    "\u3059\u304e\u308b": 1412,
    "\u771f": 1413,
    "\u2581\u5f7c\u3089\u304c": 1414,
    "\u5dde": 1415,
    "\u5931": 1416,
    "\u306a\u3044\u3067": 1417,
    "\u52d5\u7269": 1418,
    "\u2581\u3046\u3061\u306e": 1419,
    "\u30c7\u30fc\u30bf": 1420,
    "\u9031\u9593": 1421,
    "\u30df\u30fc": 1422,
    "\u2581\u5206\u304b\u3063\u3066\u308b": 1423,
    "\u2581\u30b8\u30e3\u30c3\u30af": 1424,
    "B": 1425,
    "\u8fbc\u307f": 1426,
    "15": 1427,
    "\u2581\u3042\u30c3": 1428,
    "\u6642\u9593\u3092": 1429,
    "\u4eba\u305f\u3061": 1430,
    "\u2581\u521d\u3081\u3066": 1431,
    "\u304b\u3089\u3060": 1432,
    "\u4e8c\u4eba": 1433,
    "\u5f37\u304f": 1434,
    "\u3044\u308b\u306e": 1435,
    "\u5b87\u5b99": 1436,
    "\u591a\u304f": 1437,
    "\u4f5c\u3063\u305f": 1438,
    "\u30c9\u30e9\u30b4\u30f3": 1439,
    "\u2581\u30df": 1440,
    "\u2581\u5618": 1441,
    "\u81ea\u7531": 1442,
    "\u2581\u5f7c\u3089": 1443,
    "\u7406": 1444,
    "\u3059\u308b\u3053\u3068": 1445,
    "\u5207\u308c": 1446,
    "\u2581\u30ab": 1447,
    "\u89aa": 1448,
    "\u306b\u304a\u3044\u3066": 1449,
    "\u2581\u3069\u3053\u306b": 1450,
    "\u7bb1": 1451,
    "\u2581\u5f7c\u5973\u3092": 1452,
    "\u5408": 1453,
    "\u8a00": 1454,
    "\u3068\u3044\u3046\u306e\u306f": 1455,
    "\u672a\u6765": 1456,
    "\u2581\u304a\u307e\u3048": 1457,
    "\u30b5\u30fc": 1458,
    "\u6307": 1459,
    "\u2581\u5b9f\u969b": 1460,
    "\u6b63": 1461,
    "\u2581\u3053\u308c\u3089\u306e": 1462,
    "\u53f7": 1463,
    "\u3061\u3083": 1464,
    "\u304c\u3042\u308a": 1465,
    "\u3068\u306a\u308b": 1466,
    "\u2581\u30db\u30f3\u30c8\u306b": 1467,
    "\u30d1\u30fc": 1468,
    "\u30e1\u30fc\u30eb": 1469,
    "\u2581\u5168\u7136": 1470,
    "\u2581\u671d": 1471,
    "\u8853": 1472,
    "\u2581\u3053\u3044\u3064": 1473,
    "\u2581\u3084\u3063\u305f": 1474,
    "\u30cb\u30e5\u30fc\u30b9": 1475,
    "\u898b\u308b": 1476,
    "\u30d7\u30ed\u30b0\u30e9\u30e0": 1477,
    "\u2581\u4eba\u9593": 1478,
    "\u3092\u4f5c\u308b": 1479,
    "\u5b9a": 1480,
    "\u2581\u30a2\u30f3\u30bf": 1481,
    "\u8a71\u3057": 1482,
    "\u5f31": 1483,
    "\u529b\u3092": 1484,
    "11": 1485,
    "\u9283": 1486,
    "\u8cac\u4efb": 1487,
    "\u305d\u3046\u306a": 1488,
    "\u71b1": 1489,
    "\u59cb\u3081\u305f": 1490,
    "\u6b63\u3057\u3044": 1491,
    "\u500d": 1492,
    "\u2581\u9ad8": 1493,
    "\u304b\u3051": 1494,
    "M": 1495,
    "\u2581\u307e\u3063\u305f\u304f": 1496,
    "\u4f5c\u54c1": 1497,
    "\u30bf\u30f3": 1498,
    "\u2581\u73fe\u5728": 1499,
    "\u89b3": 1500,
    "\u2581\u5fc3\u914d": 1501,
    "\u9b42": 1502,
    "\u90e8\u5c4b": 1503,
    "\u3055\u308c\u3066\u3044\u307e\u3059": 1504,
    "\u4ffa\u304c": 1505,
    "\u30b3\u30f3": 1506,
    "E": 1507,
    "\u7d9a\u3051\u3066": 1508,
    "\u2581\u77e5\u3089\u306a\u3044": 1509,
    "\u3057\u3066\u3082": 1510,
    "\u3084\u308c": 1511,
    "\u2581\u975e\u5e38\u306b": 1512,
    "\u2581\u79c1\u9054": 1513,
    "\u751f\u7269": 1514,
    "\u3068\u3044\u3046\u3053\u3068": 1515,
    "\u3057\u307e\u305b\u3093": 1516,
    "\u805e\u304d": 1517,
    "'": 1518,
    "\u7d04\u675f": 1519,
    "\u610f": 1520,
    "\u304a\u9858\u3044": 1521,
    "\u6c17\u304c": 1522,
    "\u5411": 1523,
    "\u306f\u3042\u308b": 1524,
    "\u304b\u3051\u3066": 1525,
    "\u3067\u3059\u304b\u3089": 1526,
    "\u7834\u58ca": 1527,
    "\u3060\u3051\u3067\u3059": 1528,
    "\u30d3\u30f3": 1529,
    "\u2581\u3082\u3046\u5c11\u3057": 1530,
    "\u85e4": 1531,
    "\u7d4c\u6e08": 1532,
    "\u308b\u305e": 1533,
    "\u6c0f": 1534,
    "\u6e96\u5099": 1535,
    "\u2581\u3069\u3046\u3059\u308b": 1536,
    "\u99ac": 1537,
    "\u6642\u306f": 1538,
    "\u306e\u65b9": 1539,
    "\u2581\u4eca\u591c": 1540,
    "\u7406\u7531\u306f": 1541,
    "\u2581\u30ea": 1542,
    "\u2581\u3059\u3054\u304f": 1543,
    "\u3063\u305f\u3089": 1544,
    "\u2581\u7236\u3055\u3093": 1545,
    "\u25817": 1546,
    "\u304b\u306d": 1547,
    "\u6765\u3044": 1548,
    "\u7523": 1549,
    "\u5104": 1550,
    "\u2581\u305d\u308c\u3068": 1551,
    "\u2581\u3048\u30c3": 1552,
    "\u5225": 1553,
    "\u2581\u30ec": 1554,
    "\u653f\u5e9c": 1555,
    "\u30c3\u30c9": 1556,
    "\u2581\u30aa\u30ec\u306f": 1557,
    "\u306b\u3059\u308b": 1558,
    "\u306a\u3044\u304b": 1559,
    "\u4f7f\u7528": 1560,
    "\u30ec\u30d9\u30eb": 1561,
    "\u30d6\u30e9": 1562,
    "\u5f85\u3063\u3066": 1563,
    "\u4efb\u52d9": 1564,
    "\u3092\u898b\u308b": 1565,
    "\u9032": 1566,
    "\u305f\u3061\u306f": 1567,
    "\u826f\u304b\u3063\u305f": 1568,
    "\u2581\u5974\u306f": 1569,
    "\u6bba\u4eba": 1570,
    "\u30d7\u30ed\u30b8\u30a7\u30af\u30c8": 1571,
    "\u2581\u611b": 1572,
    "\u3059\u3050": 1573,
    "\u4f1a\u3063\u305f": 1574,
    "\u2581\u5973": 1575,
    "\u5a18": 1576,
    "\u5229\u7528": 1577,
    "tel": 1578,
    "\u2581\u3042\u3093\u305f\u306f": 1579,
    "\u3082\u3089\u3063\u305f": 1580,
    "\u2581\u308f\u304b\u3063\u3066\u308b": 1581,
    "\u305f\u306e": 1582,
    "\u2581\u672c": 1583,
    "\u2581\u30c7": 1584,
    "\u3055\u307e": 1585,
    "\u306e\u9593": 1586,
    "\u2581\u30cf": 1587,
    "\u51fa\u3066": 1588,
    "\u2581\u6b21\u306f": 1589,
    "\u96c6": 1590,
    "\u2581\u307e\u3041": 1591,
    "\u306b\u306a\u308a\u307e\u3057\u305f": 1592,
    "\u2581\u304a\u91d1": 1593,
    "\u304c\u5fc5\u8981": 1594,
    "\u306a\u3042": 1595,
    "\u2581\u3055\u3041": 1596,
    "\u2581\u3053\u3053\u304b\u3089": 1597,
    "\u76ee\u3092": 1598,
    "\u2581\u5927\u4e08\u592b\u3060": 1599,
    "\u7d44": 1600,
    "\u3057\u3066\u3044\u307e\u3057\u305f": 1601,
    "\u3042\u308c": 1602,
    "\u6210\u9577": 1603,
    "\u98db\u3073": 1604,
    "\u90fd\u5e02": 1605,
    "\u2581\u6d77": 1606,
    "\u30ad\u30b9": 1607,
    "\u306b\u884c\u3063\u305f": 1608,
    "\u9ad8\u3044": 1609,
    "\u3088\u3046\u3067\u3059": 1610,
    "\u6bba": 1611,
    "\u78ba\u8a8d": 1612,
    "\u541b\u306b": 1613,
    "\u59cb\u3081": 1614,
    "\u753a": 1615,
    "\u305d\u308c\u304c": 1616,
    "\u2581\u5fc5\u305a": 1617,
    "\u5f8c\u306b": 1618,
    "\u53d6": 1619,
    "\u25819": 1620,
    "\u306b\u95a2\u3059\u308b": 1621,
    "\u5e78\u305b": 1622,
    "\u5343": 1623,
    "\u7a74": 1624,
    "\u7acb\u3061": 1625,
    "\u2581\u4eca\u5ea6\u306f": 1626,
    "\u9580": 1627,
    "\u2581\u3042\u306e\u5b50": 1628,
    "\u307e\u307e": 1629,
    "\u3044\u3084": 1630,
    "\u25818": 1631,
    "\u2581\u266b": 1632,
    "\u2581\u6700\u5f8c\u306b": 1633,
    "\u4e2d\u306e": 1634,
    "\u8ffd\u3044": 1635,
    "\u3044\u3046": 1636,
    "\u2581\u524d": 1637,
    "\u5c11\u5973": 1638,
    "\u3059\u308b\u305f\u3081\u306b": 1639,
    "\u3084\u308d\u3046": 1640,
    "\u3058\u3083\u306a\u304b\u3063\u305f": 1641,
    "\u7537\u6027": 1642,
    "\u5efa\u7269": 1643,
    "\u91cd\u8981": 1644,
    "\u8ab0\u3082": 1645,
    "\u2581\u3069\u3046\u3044\u3046": 1646,
    "\u2581\u30e9": 1647,
    "\u306f\u7121\u3044": 1648,
    "\u3088\u3044": 1649,
    "12": 1650,
    "\u5e30\u308b": 1651,
    "\u8a3c\u62e0": 1652,
    "\u7cfb": 1653,
    "\u30d3\u30eb": 1654,
    "\u623b\u308b": 1655,
    "\u6587": 1656,
    "\u7279": 1657,
    "\u3044\u304b": 1658,
    "\u3082\u306e\u306f": 1659,
    "\u7d9a\u3051\u308b": 1660,
    "\u306a\u3044\u306e": 1661,
    "\u4f5c\u6226": 1662,
    "\u5229": 1663,
    "\u5fd8\u308c": 1664,
    "\u8a31\u53ef": 1665,
    "\u2581\u6614": 1666,
    "\u2581\u5b66\u6821": 1667,
    "\u77e5": 1668,
    "\u3042\u3052": 1669,
    "\u5acc\u3044": 1670,
    "\u2581\u5916": 1671,
    "\u5165\u308a": 1672,
    "\u3064\u3044\u3066": 1673,
    "\u305f\u3060": 1674,
    "\u52b9\u679c": 1675,
    "\u306f\u3042\u308a\u307e\u305b\u3093": 1676,
    "\u2581\u4e2d": 1677,
    "\u5bb6\u306b": 1678,
    "\u4f7f\u3046": 1679,
    "\u3063\u3066\u3044\u3046": 1680,
    "\u5371\u967a": 1681,
    "\u691c\u67fb": 1682,
    "\u9152": 1683,
    "\u4e0a\u306e": 1684,
    "\u904b\u547d": 1685,
    "\u306b\u3088\u308a": 1686,
    "\u2581\u305d\u308c\u3060\u3051": 1687,
    "\u3044\u3063\u3066": 1688,
    "\u2581\u884c\u3051": 1689,
    "\u4f55\u3060": 1690,
    "\u2581\u5168\u3066\u306e": 1691,
    "\u767d": 1692,
    "\u7121\u7406": 1693,
    "\u2581\u3042\u306a\u305f\u3092": 1694,
    "\u2581\u3053\u306e\u3088\u3046\u306a": 1695,
    "\u3044\u306a\u304b\u3063\u305f": 1696,
    "\u5c3e": 1697,
    "\u2581\u5927\u4e08\u592b\u304b": 1698,
    "\u591a": 1699,
    "\u6ce2": 1700,
    "\u4e38": 1701,
    "\u304b\u304b\u308b": 1702,
    "\u304d\u307e\u3059": 1703,
    "\u2581\u591a\u5206": 1704,
    "\u30b3\u30fc\u30c9": 1705,
    "\u9593\u306b": 1706,
    "\u4eba\u3005": 1707,
    "\u51fa\u308b": 1708,
    "\u2581\u3084\u3042": 1709,
    "\u904e": 1710,
    "\u6642\u4ee3": 1711,
    "L": 1712,
    "\u8a00\u3048": 1713,
    "\u2581\u591c": 1714,
    "\u3066\u305f": 1715,
    "\u2581\u5168\u54e1": 1716,
    "\u30a2\u30a4\u30c7\u30a2": 1717,
    "\u516c": 1718,
    "\u884c\u3053\u3046": 1719,
    "\u2581\u3053\u3093\u306b\u3061\u306f": 1720,
    "\u5b66\u751f": 1721,
    "\u7387": 1722,
    "\u77ac\u9593": 1723,
    "\u4fe1": 1724,
    "\u30ea\u30c3\u30af": 1725,
    "\u2581\u4f55\u306e": 1726,
    "\u30ef\u30f3": 1727,
    "\u6559": 1728,
    "\u6700\u5f8c\u306e": 1729,
    "\u30b6\u30fc": 1730,
    "\u306a\u3093": 1731,
    "\u6cbb": 1732,
    "\u524d\u306e": 1733,
    "\u30c6\u30ec\u30d3": 1734,
    "\u518d": 1735,
    "\u91d1\u3092": 1736,
    "100": 1737,
    "\u5f01\u8b77\u58eb": 1738,
    "\u304a\u91d1": 1739,
    "\u30bc": 1740,
    "\u30b3\u30fc": 1741,
    "\u3053\u3053\u306b\u3044\u308b": 1742,
    "\u3059\u3050\u306b": 1743,
    "\u306e\u4ed5\u4e8b": 1744,
    "\u3069\u3046\u3057\u3066": 1745,
    "N": 1746,
    "\u91cd\u8981\u306a": 1747,
    "\u5973\u306e\u5b50": 1748,
    "\u2581\u305d\u308c\u3067\u3082": 1749,
    "\u30ad\u30f3\u30b0": 1750,
    "\u5224\u65ad": 1751,
    "\u30de\u30de": 1752,
    "\u2581\u30d0": 1753,
    "\u843d": 1754,
    "\u652f\u63f4": 1755,
    "\u306e\u65b9\u304c": 1756,
    "\u306e\u3067\u3057\u3087\u3046\u304b": 1757,
    "\u30da": 1758,
    "\u826f\u304f": 1759,
    "\u597d\u304d\u306a": 1760,
    "\u2581\u5143": 1761,
    "\u9650\u308a": 1762,
    "\u3092\u53d6\u308a": 1763,
    "\u307f\u3066": 1764,
    "\u3069\u3053": 1765,
    "\u2581\u305d\u3046\u306d": 1766,
    "\u306a\u304f\u306a\u308b": 1767,
    "\u2581\u3072\u3069\u3044": 1768,
    "\u5144\u5f1f": 1769,
    "\u8ad6": 1770,
    "\u2581\u304a\u9858\u3044\u3057\u307e\u3059": 1771,
    "\u5b50\u3055\u3093": 1772,
    "\u9078\u629e": 1773,
    "\u866b": 1774,
    "\u6559\u6388": 1775,
    "\u6839": 1776,
    "\u3092\u6bba\u3059": 1777,
    "\u8c37": 1778,
    "\u5f7c\u304c": 1779,
    "\u308c\u305f": 1780,
    "\u30b7\u30e3": 1781,
    "\u7236\u89aa": 1782,
    "\u308a\u307e\u3059": 1783,
    "\u4eba\u9054": 1784,
    "\u30cd\u30c3\u30c8": 1785,
    "\u72af\u4eba": 1786,
    "\u2581\u30a2\u30fc": 1787,
    "\u30b8\u30f3": 1788,
    "\u30c3\u30b7\u30e5": 1789,
    "\u4e8b\u6545": 1790,
    "\u8005\u304c": 1791,
    "\u30d5\u30a7": 1792,
    "\u2581\u3042\u305f\u3057": 1793,
    "\u3063\u3061\u3083": 1794,
    "\u547d\u4ee4": 1795,
    "\u8033": 1796,
    "\u3081\u3066": 1797,
    "\u904a\u3073": 1798,
    "\u2581\u5168\u304f": 1799,
    "\u2581\u6575": 1800,
    "\u306b\u6765\u305f": 1801,
    "\u8005\u306e": 1802,
    "\u2581\u6700\u5f8c\u306e": 1803,
    "\u6a4b": 1804,
    "\u30ac\u30b9": 1805,
    "\u6e21": 1806,
    "\u8fbc\u3093\u3060": 1807,
    "\u5206\u304b\u3063\u3066\u308b": 1808,
    "\u2581\u30aa\u30ec": 1809,
    "\u7247": 1810,
    "\u2581\u4e00\u4eba": 1811,
    "\u3092\u3057\u3066": 1812,
    "\u7269\u3092": 1813,
    "\u304c\u3042\u308c\u3070": 1814,
    "\u7d19": 1815,
    "\u6614": 1816,
    "\u58c1": 1817,
    "\u81ea\u5206": 1818,
    "\u7a0b": 1819,
    "\u6bcd\u89aa": 1820,
    "O": 1821,
    "\u9003\u3052": 1822,
    "\u3057\u305f\u308a": 1823,
    "\u30db": 1824,
    "\u2581\u308f\u304b\u3089\u306a\u3044": 1825,
    "\u307e\u3059\u3088": 1826,
    "\u4fa1\u5024": 1827,
    "\u3093\u3060\u305e": 1828,
    "\u30e2\u30c7\u30eb": 1829,
    "\u304a\u524d\u306e": 1830,
    "\u3093\u306e": 1831,
    "\u2581\u7537": 1832,
    "\u3092\u3057\u305f": 1833,
    "\u2581\u4ffa\u3092": 1834,
    "\u3042\u3068": 1835,
    "\u3047": 1836,
    "\u8b66\u5b98": 1837,
    "\u2581\u5931\u793c": 1838,
    "\u30f4\u30a3": 1839,
    "\u58eb": 1840,
    "\u4f7f\u3063\u3066": 1841,
    "\u308c\u306a\u3044": 1842,
    "\u2581\u3069\u3046\u304b": 1843,
    "\u6bbf": 1844,
    "\u306f\u307e\u3060": 1845,
    "13": 1846,
    "\u306f\u3069\u3053": 1847,
    "\u2581\u30ed": 1848,
    "\u306a\u3093\u3067\u3059\u304b": 1849,
    "\u30a8\u30cd\u30eb\u30ae\u30fc": 1850,
    "\u5e0c\u671b": 1851,
    "\u59b9": 1852,
    "\u304f\u3066": 1853,
    "\u30d3\u30c7\u30aa": 1854,
    "\u30c1\u30e3\u30f3\u30b9": 1855,
    "\u2581\u6700\u3082": 1856,
    "\u30c0\u30f3": 1857,
    "\u3059\u308b\u306e": 1858,
    "\u2581\u30d0\u30fc": 1859,
    "x": 1860,
    "\u2581\u305d\u3046\u3060\u306a": 1861,
    "\u4f7f\u3044": 1862,
    "\u307e\u305b\u3093\u3067\u3057\u305f": 1863,
    "\u308b\u3079\u304d": 1864,
    "\u53d6\u3063\u3066": 1865,
    "\u2581\u541b\u3092": 1866,
    "\u6210\u529f": 1867,
    "\u30eb\u30fc\u30eb": 1868,
    "\u5408\u3044": 1869,
    "\u500b": 1870,
    "\u6bba\u3057\u305f": 1871,
    "\u2581\u308f\u305f\u3057": 1872,
    "\u671f\u5f85": 1873,
    "\u65b9\u304c\u3044\u3044": 1874,
    "\u2581\u884c\u304f\u305e": 1875,
    "\u2581\u672c\u5f53": 1876,
    "\u2581\u3042\u3093\u305f\u306e": 1877,
    "\u2581\u6700\u521d\u306e": 1878,
    "\u30d4\u30fc": 1879,
    "\u51fa\u305b": 1880,
    "\u3061\u3083\u3046": 1881,
    "\u2581\u5922": 1882,
    "\u3053\u3044": 1883,
    "\u3056": 1884,
    "\u3066\u3082": 1885,
    "\u50d5\u306e": 1886,
    "\u2581\u7d76\u5bfe\u306b": 1887,
    "\u5f1f": 1888,
    "\u30b5\u30f3": 1889,
    "\u2581\u7d50\u5c40": 1890,
    "\u9023\u7d61": 1891,
    "\u56e3": 1892,
    "\u8a13\u7df4": 1893,
    "\u6b7b\u306b": 1894,
    "\u30d1\u30d1": 1895,
    "\u2581\u304a\u305d\u3089\u304f": 1896,
    "\u7cbe\u795e": 1897,
    "\u5168\u3066\u306e": 1898,
    "\u2581\u771f": 1899,
    "\u5730\u7403": 1900,
    "\u3082\u3089\u3063\u3066": 1901,
    "\u5b9f": 1902,
    "\u5bb6\u306e": 1903,
    "\u2581\u3072": 1904,
    "\u89d2": 1905,
    "\u60f3": 1906,
    "\u9ce5": 1907,
    "\u4e2d\u3067": 1908,
    "\u306f\u3044": 1909,
    "\u5168": 1910,
    "\u305f\u308a": 1911,
    "\u2581\u30fc": 1912,
    "\u3084\u3089": 1913,
    "\u79d1\u5b66": 1914,
    "\u2581\u3061\u3087\u3063\u3068\u5f85\u3063\u3066": 1915,
    "\u2581\u304a\u306f\u3088\u3046": 1916,
    "\u4e8b\u306b": 1917,
    "\u2581\u306a\u3093": 1918,
    "\u904e\u304e": 1919,
    "\u3078\u3068": 1920,
    "\u5074": 1921,
    "\u307f\u308d": 1922,
    "\u3042\u3063\u3066": 1923,
    "\u2581\u624b\u3092": 1924,
    "\u2581\u201c": 1925,
    "\u7528\u610f": 1926,
    "\u3068\u304d\u306b": 1927,
    "\u307e\u3057\u3066": 1928,
    "\u72af": 1929,
    "\u304c\u3042\u308b\u306e": 1930,
    "\u610f\u8b58": 1931,
    "\u51fa\u6765": 1932,
    "\u3063\u3066\u8a00\u3063\u305f": 1933,
    "\u4f55\u304c": 1934,
    "\u5f37": 1935,
    "\u3088\u306a": 1936,
    "\u8ffd\u8de1": 1937,
    "\u2581\u76ee": 1938,
    "\u2581\u6bce\u65e5": 1939,
    "\u5f7c\u5973\u306f": 1940,
    "\u2581\u4f55\u3060\u3088": 1941,
    "\u3082\u3042\u308a\u307e\u3059": 1942,
    "\u6700\u3082": 1943,
    "\u904b\u52d5": 1944,
    "\u8d77": 1945,
    "\u96e3\u3057\u3044": 1946,
    "\u306a\u306e\u3067": 1947,
    "\u3053\u3068\u304c\u3042\u308b": 1948,
    "\u6559\u3048": 1949,
    "\u2581\u5730\u7403": 1950,
    "\u2581\u3042\u307e\u308a": 1951,
    "\u884c\u70ba": 1952,
    "\u2581\u3057\u304b\u3082": 1953,
    "\u2581\u4f55\u6545": 1954,
    "\u2581\u306a\u3042": 1955,
    "\u2581\u52a9\u3051\u3066": 1956,
    "\u632f\u308a": 1957,
    "\u3058\u3083\u306a\u3044\u3067\u3059\u304b": 1958,
    "\u8a00\u3063\u3066\u308b": 1959,
    "\u7537\u304c": 1960,
    "\u5186": 1961,
    "\u30a2\u30ca": 1962,
    "\u308b\u306a": 1963,
    "\u2581\u5f7c\u5973\u306b": 1964,
    "\u2581\u3084\u3063\u3068": 1965,
    "\u4eba\u3060": 1966,
    "\u75c5\u9662": 1967,
    "\u5f71": 1968,
    "\u306a\u3044\u3093\u3060": 1969,
    "\u30ab\u30eb": 1970,
    "\u3079\u304d": 1971,
    "0": 1972,
    "\u307f\u305f\u3044\u3060": 1973,
    "\u8133": 1974,
    "\u5bdd": 1975,
    "\u73fe\u5b9f": 1976,
    "\u2581\u6c17": 1977,
    "\u79c1\u305f\u3061\u306f": 1978,
    "\u65ad": 1979,
    "\u671f": 1980,
    "\u306f\u3069\u3053\u3060": 1981,
    "\u7d50\u5a5a": 1982,
    "\u50d5\u306f": 1983,
    "v": 1984,
    "\u30b2": 1985,
    "\u8cc7\u91d1": 1986,
    "\u30aa\u30ec": 1987,
    "\u258130": 1988,
    "\u2581\u30c0\u30e1": 1989,
    "\u5897": 1990,
    "\u2581\u884c\u3053\u3046": 1991,
    "\u2581\u4e86\u89e3": 1992,
    "\u4e07\u30c9\u30eb": 1993,
    "\u2581\u3042\u305d\u3053": 1994,
    "\u305f\u304f": 1995,
    "\u72af\u7f6a": 1996,
    "\u5263": 1997,
    "\u306a\u304f\u3066\u3082": 1998,
    "\u3059\u308b\u306a": 1999,
    "\u3063\u3066\u3044\u307e\u3059": 2000,
    "\u2581\u3053": 2001,
    "\u2581\u8133": 2002,
    "\u65bd\u8a2d": 2003,
    "\u907a\u4f1d\u5b50": 2004,
    "\u30d1\u30f3": 2005,
    "\u968e": 2006,
    "\u5e73\u548c": 2007,
    "\u4f5c\u696d": 2008,
    "\u3075": 2009,
    "\u305d\u3057\u3066": 2010,
    "\u3060\u3063\u305f\u3093\u3060": 2011,
    "\u56f3": 2012,
    "\u30d1\u30ef\u30fc": 2013,
    "\u30eb\u30fc": 2014,
    "\u9032\u5316": 2015,
    "\u2581\u3069": 2016,
    "\u843d\u3061": 2017,
    "\u30a8\u30f3": 2018,
    "\u5e74\u524d\u306b": 2019,
    "\u306e\u305b\u3044\u3067": 2020,
    "\u30dc\u30fc\u30eb": 2021,
    "\u754c": 2022,
    "\u3057\u306a\u3044\u3067": 2023,
    "\u6700": 2024,
    "\u2581\u306a\u308b\u307b\u3069": 2025,
    "\u2581\u3044\u307e": 2026,
    "\u304c\u3042\u308a\u307e\u3057\u305f": 2027,
    "\u30d7\u30ed": 2028,
    "\u65e9\u3044": 2029,
    "\u306f\u3082\u3046": 2030,
    "\u4fe1\u7528": 2031,
    "\u69d8\u306b": 2032,
    "\u8a71\u3057\u3066": 2033,
    "\u7834": 2034,
    "\u2581\u30af\u30ea\u30b9": 2035,
    "\u2581\u3053\u3046\u3044\u3046": 2036,
    "H": 2037,
    "\u3060\u3051\u3067\u306a\u304f": 2038,
    "\u308f\u304b\u3089\u306a\u3044": 2039,
    "\u5f7c\u5973\u306e": 2040,
    "\u3044\u305f\u3089": 2041,
    "\u5fc5\u8981\u304c\u3042\u308b": 2042,
    "\u305b\u308b": 2043,
    "\u62c5\u5f53": 2044,
    "\u304c\u3044\u3044": 2045,
    "\u2581\u5168": 2046,
    "\u30ad\u30f3": 2047,
    "\u7d04": 2048,
    "\u6211\u3005\u306e": 2049,
    "\u2581\u3069\u306e": 2050,
    "\u2581\u304a\u524d\u306b": 2051,
    "\u2581\u306a\u3093\u304b": 2052,
    "\u4f1a\u8b70": 2053,
    "\u304f\u308c\u3066": 2054,
    "\u66f8\u304d": 2055,
    "\u2581\u4eca\u3059\u3050": 2056,
    "\u2581\u51fa": 2057,
    "\u2581\u30af\u30bd": 2058,
    "\u3067\u304d\u307e\u305b\u3093": 2059,
    "\u4e57\u308a": 2060,
    "\u2581\u3046\u307e\u304f": 2061,
    "\u6669": 2062,
    "\u3092\u898b\u3064\u3051\u308b": 2063,
    "\u3042\u3052\u308b": 2064,
    "\u306f\u3057\u306a\u3044": 2065,
    "\u5230": 2066,
    "\u305f\u304b\u3063\u305f": 2067,
    "\u2581\u3042\u30fc": 2068,
    "\u306e\u4e00\u90e8": 2069,
    "\u5168\u4f53": 2070,
    "\u30d5\u30a1\u30f3": 2071,
    "\u5143\u6c17": 2072,
    "\u7d9a\u3051": 2073,
    "\u5730\u57df": 2074,
    "\u2581\u5c71": 2075,
    "\u5148\u306b": 2076,
    "\u2581\u30b3": 2077,
    "\u884c\u304b\u306a\u3044": 2078,
    "\u30ec\u30a4": 2079,
    "\u2581\u6b7b\u3093\u3060": 2080,
    "\u62bc\u3057": 2081,
    "\u53ef\u80fd": 2082,
    "\u6a5f\u4f1a": 2083,
    "\u306b\u3088\u308b\u3068": 2084,
    "\u3093\u3067\u3059\u3051\u3069": 2085,
    "\u306e\u4e8b\u3092": 2086,
    "\u3088\u3046\u3068": 2087,
    "\u7f8e\u3057\u3044": 2088,
    "\u601d\u3044\u51fa": 2089,
    "\u6253": 2090,
    "\u6765\u306a\u3044": 2091,
    "\u884c\u3051": 2092,
    "\u2581\u884c\u3063\u3066": 2093,
    "\u2581\u305d\u308c\u3058\u3083": 2094,
    "\u30af\u30e9\u30d6": 2095,
    "\u671b\u307f": 2096,
    "\u2581\u4ffa\u305f\u3061": 2097,
    "\u898b\u3048": 2098,
    "\u4eba\u3068": 2099,
    "\u98df\u3079\u3066": 2100,
    "\u30e9\u30f3\u30c9": 2101,
    "\u30ea\u30fc\u30c0\u30fc": 2102,
    "\u30b9\u30d1\u30a4": 2103,
    "\u5341\u5206": 2104,
    "\u3044\u308b\u306e\u304b": 2105,
    "\u2581\u305d\u3053": 2106,
    "\u5fd8\u308c\u3066": 2107,
    "\u6c17\u306b": 2108,
    "\u914d": 2109,
    "\u3059\u308b\u304b": 2110,
    "\u5927\u304d\u304f": 2111,
    "\u8a3c\u660e": 2112,
    "\u30d0\u30f3": 2113,
    "\u2581\u7121": 2114,
    "\u8155": 2115,
    "\u2581\u5c0f\u3055\u306a": 2116,
    "\u3057\u305f\u306e\u306f": 2117,
    "\u3069\u3046\u3084\u3063\u3066": 2118,
    "\u306a\u3089\u3070": 2119,
    "\u3093\u3060\u306a": 2120,
    "\u3084\u308a": 2121,
    "\u3055\u308c\u307e\u3059": 2122,
    "\u8fd4": 2123,
    "\u2581\u52a9\u3051": 2124,
    "\u2581\u6bcd\u3055\u3093": 2125,
    "\u75c7": 2126,
    "\u7d50": 2127,
    "\u2581\u898b\u305f": 2128,
    "\u2581\u4f55\u3067\u3082": 2129,
    "\u3053\u3063\u3061": 2130,
    "\u904e\u53bb": 2131,
    "\u305f\u3061\u304c": 2132,
    "\u3059\u3054\u3044": 2133,
    "\u96e2": 2134,
    "\u2581\u3042\u306e\u4eba": 2135,
    "\u5e2b": 2136,
    "\u751f\u304d\u308b": 2137,
    "\u7591\u554f": 2138,
    "\u2581\u89aa": 2139,
    "\u2581\u59bb": 2140,
    "\u30c7\u30a3\u30fc": 2141,
    "\u79c1\u305f\u3061": 2142,
    "\u2581\u7236\u89aa": 2143,
    "\u9996": 2144,
    "P": 2145,
    "\u8a00\u3044\u307e\u3057\u305f": 2146,
    "\u5927\u304d\u3044": 2147,
    "\u2581\u5b9f\u969b\u306b": 2148,
    "\u3057\u3066\u3044\u306a\u3044": 2149,
    "\u3053\u3068\u306b\u306a\u308b": 2150,
    "\u81ea\u8eab": 2151,
    "\u81ea\u7136": 2152,
    "\u3067\u304d": 2153,
    "\u5618": 2154,
    "60": 2155,
    "\u6ca2\u5c71": 2156,
    "\u2581\u4e0a": 2157,
    "\u6559\u80b2": 2158,
    "\u6bdb": 2159,
    "\u308b\u3088": 2160,
    "\u30af\u30e9\u30b9": 2161,
    "\u2581\u601d\u3044": 2162,
    "\u5427": 2163,
    "\u30d0\u30a4": 2164,
    "\u81ea\u5206\u3067": 2165,
    "\u76f8\u8ac7": 2166,
    "\u6bba\u5bb3": 2167,
    "\u306e\u304b\u306a": 2168,
    "\u5c11\u5e74": 2169,
    "\u72b6": 2170,
    "\u5974\u3089": 2171,
    "\u8077": 2172,
    "\u2581\u8840": 2173,
    "I": 2174,
    "\u3057\u3088\u3046\u3068": 2175,
    "\u7530\u3055\u3093": 2176,
    "\u30ed\u30c3\u30af": 2177,
    "\u2581\u4ef2\u9593": 2178,
    "\u8abf\u3079": 2179,
    "\u30ad\u30ed": 2180,
    "\u9000": 2181,
    "\u3093\u3067\u3059\u306d": 2182,
    "\u5e30\u308a": 2183,
    "w": 2184,
    "\u306e\u3067\u3059\u304c": 2185,
    "\u6df1\u3044": 2186,
    "\u2581\u3057\u3063\u304b\u308a": 2187,
    "\u2581\u30a2\u30f3": 2188,
    "\u5931\u6557": 2189,
    "\u5371\u967a\u306a": 2190,
    "\u904b\u8ee2": 2191,
    "\u958b": 2192,
    "\u5165\u3063\u305f": 2193,
    "\u30c1\u30e3": 2194,
    "\u2581\u305d\u308c\u3082": 2195,
    "19": 2196,
    "\u30c1\u30e3\u30fc": 2197,
    "\u308c\u3070\u3044\u3044": 2198,
    "\u2581\u307e": 2199,
    "\u2581\u5f8c": 2200,
    "\u58f2": 2201,
    "\u6c7a\u3081": 2202,
    "\u51e6\u7406": 2203,
    "\u2581\u30a2\u30eb": 2204,
    "\u30b8\u30e3": 2205,
    "\u2581\u2015": 2206,
    "R": 2207,
    "\u2581\u9854": 2208,
    "\u6bd2": 2209,
    "\u969c\u5bb3": 2210,
    "\u5408\u3046": 2211,
    "\u2581\u5c11\u306a\u304f\u3068\u3082": 2212,
    "\u30ab\u30e1\u30e9": 2213,
    "\u5e02": 2214,
    "\u8003\u3048\u305f": 2215,
    "\u6050\u308c": 2216,
    "\u6559\u5e2b": 2217,
    "\u90e8\u4e0b": 2218,
    "\u5834\u6240\u306b": 2219,
    "\u624b\u6bb5": 2220,
    "\u805e\u3051": 2221,
    "\u30de\u30a4\u30eb": 2222,
    "\u3046\u3061\u306b": 2223,
    "\u5951\u7d04": 2224,
    "\u2581\u7d04\u675f": 2225,
    "\u2581\u3075": 2226,
    "\u96a3": 2227,
    "\u4ea4": 2228,
    "\u8981\u6c42": 2229,
    "\u98df\u3079": 2230,
    "25": 2231,
    "\u8a18\u61b6": 2232,
    "\u5ea7\u3063\u3066": 2233,
    "\u643a\u5e2f": 2234,
    "\u306e\u554f\u984c": 2235,
    "\u2581\u305d\u306e\u6642": 2236,
    "\u2581\u8a00\u3063\u3066": 2237,
    "\u5927\u7d71\u9818": 2238,
    "\u2581\u6bcd\u89aa": 2239,
    "\u4efb": 2240,
    "\u2581\u3059\u3079\u3066\u306e": 2241,
    "\u9aea": 2242,
    "\u5e30\u3063\u3066": 2243,
    "\u5e02\u5834": 2244,
    "\u6301\u3063\u3066\u308b": 2245,
    "\u306b\u3044\u305f": 2246,
    "\u306f\u305a\u3067\u3059": 2247,
    "\u2581\u3042\u306a\u305f\u3082": 2248,
    "\u4efb\u305b": 2249,
    "\u304a\u7236\u3055\u3093": 2250,
    "\u6211\u3005\u306f": 2251,
    "\u96e3": 2252,
    "\u3092\u898b\u3064\u3051": 2253,
    "\u9023\u308c": 2254,
    "\u7686\u3055\u3093": 2255,
    "\u2581\u7f8e": 2256,
    "\u75db": 2257,
    "\u624d": 2258,
    "\u30c7\u30f3": 2259,
    "\u6b69\u3044\u3066": 2260,
    "\u5642": 2261,
    "\u2581\u3044\u308d\u3044\u308d": 2262,
    "\u3072\u3068\u3064": 2263,
    "\u90aa\u9b54": 2264,
    "\u2581\u30b8\u30e7\u30fc": 2265,
    "\u306a\u3063\u305f": 2266,
    "\u30f6\u6708": 2267,
    "\u53cd\u5bfe": 2268,
    "\u2581\u3044\u3064\u304b": 2269,
    "\u52aa\u529b": 2270,
    "\u305d\u3053\u306b": 2271,
    "\u30d4": 2272,
    "\u30c9\u30f3": 2273,
    "\u30c6\u30f3": 2274,
    "\u2581\u3069\u3063\u3061": 2275,
    "\u975e\u5e38\u306b": 2276,
    "\u6559\u3048\u3066": 2277,
    "\u2581\u30d2": 2278,
    "\u5207": 2279,
    "\u305d\u3053": 2280,
    "\u2581\u3060\u3063\u305f\u3089": 2281,
    "\u6bba\u3059": 2282,
    "\u30af\u30e9": 2283,
    "\u6c7a\u3081\u305f": 2284,
    "\u5ea7": 2285,
    "\u2581\u3082\u3057\u304b\u3057\u3066": 2286,
    "\u9577\u304f": 2287,
    "\u7df4\u7fd2": 2288,
    "\u53cd": 2289,
    "\u79d1\u5b66\u8005": 2290,
    "\u81ea": 2291,
    "\u77e5\u8b58": 2292,
    "\u3081\u308b": 2293,
    "\u96fb": 2294,
    "\u6c11": 2295,
    "\u30ac\u30ad": 2296,
    "\u6a29": 2297,
    "\u5354\u529b": 2298,
    "\u6016\u3044": 2299,
    "\u306a\u304f\u306a\u3063\u305f": 2300,
    "\u3048\u308b": 2301,
    "\u3068\u601d\u3063\u3066\u308b": 2302,
    "\u7b2c": 2303,
    "\u4f5c\u308a": 2304,
    "\u306a\u3051\u308c\u3070\u306a\u3089\u306a\u3044": 2305,
    "\u6700\u521d\u306e": 2306,
    "\u6307\u793a": 2307,
    "\u30c1\u30a7\u30c3\u30af": 2308,
    "\u304c\u6b32\u3057\u3044": 2309,
    "\u3042\u306a\u305f\u306b": 2310,
    "\u30aa\u30f3": 2311,
    "\u2581--": 2312,
    "\u53d7\u3051": 2313,
    "\u2581\u5197\u8ac7": 2314,
    "\u6c7a\u5b9a": 2315,
    "\u697d": 2316,
    "\u624b\u306b": 2317,
    "\u30af\u30b9": 2318,
    "\u541b\u3092": 2319,
    "\u76e3\u8996": 2320,
    "\u5f85\u3061": 2321,
    "\u59ff": 2322,
    "\u2581\u50d5\u3082": 2323,
    "\u4f55\u3067\u3082": 2324,
    "\u2581\u30c0\u30e1\u3060": 2325,
    "\u795e\u7d4c": 2326,
    "\u6a29\u5229": 2327,
    "\u304c\u7121\u3044": 2328,
    "\u7fbd": 2329,
    "\u2581\u4eca\u65e5\u306e": 2330,
    "\u5f7c\u306b": 2331,
    "\u30c6\u30ed": 2332,
    "\u533b\u8005": 2333,
    "\u3089\u3093": 2334,
    "\u3064\u3082\u308a\u3060": 2335,
    "\u6642\u9593\u306f": 2336,
    "\u3057\u3066\u308b\u306e": 2337,
    "\u30b7\u30e7\u30fc": 2338,
    "\u307b": 2339,
    "\u3066\u304f\u3060\u3055\u3044": 2340,
    "\u3092\u5b88\u308b": 2341,
    "\u59c9": 2342,
    "\u2581\u3053\u308c\u4ee5\u4e0a": 2343,
    "\u2581200": 2344,
    "\u2581\u305d\u3093\u306a\u4e8b": 2345,
    "\u30ea\u30b9": 2346,
    "\u258119": 2347,
    "\u30ed\u30dc\u30c3\u30c8": 2348,
    "\u4fdd": 2349,
    "\u3055\u3093\u306b": 2350,
    "\u2581\u982d": 2351,
    "\u2581\u4ee5\u524d": 2352,
    "500": 2353,
    "\u901a\u4fe1": 2354,
    "\u7acb\u3063\u3066": 2355,
    "\u6240\u306b": 2356,
    "\u3068\u3057\u305f\u3089": 2357,
    "\u2581\u3060\u3051\u3069": 2358,
    "\u65c5\u884c": 2359,
    "\u2581\u4e8c": 2360,
    "\u2581\u307b": 2361,
    "\u98f2\u3093\u3067": 2362,
    "\u89e6\u308c": 2363,
    "\u2581\u79c1\u3068": 2364,
    "\u5175\u58eb": 2365,
    "\u3092\u4f7f\u3046": 2366,
    "\u5206\u306e": 2367,
    "\u7aef": 2368,
    "\u306e\u3053\u3068\u306f": 2369,
    "\u3044\u308c\u3070": 2370,
    "\u90e8\u5c4b\u306b": 2371,
    "\u6ca2": 2372,
    "\u2581\u8003\u3048": 2373,
    "\u53cb": 2374,
    "\u2581\u304a\u524d\u3082": 2375,
    "\u5f71\u97ff": 2376,
    "\u308a\u307e\u3057\u305f": 2377,
    "\u4ed6": 2378,
    "\u2581\u672c\u5f53\u306e": 2379,
    "\u5dee": 2380,
    "\u307b\u3068\u3093\u3069": 2381,
    "\u3057\u3066\u307e\u3059": 2382,
    "\u6642\u306b\u306f": 2383,
    "\u5f7c\u5973\u3092": 2384,
    "\u30d6\u30eb": 2385,
    "\u629c\u3051": 2386,
    "\u2581\u597d\u304d": 2387,
    "\u4eba\u3082": 2388,
    "\u63a5": 2389,
    "\u5909\u308f\u3063\u305f": 2390,
    "\u65e5\u306b": 2391,
    "\u2581\u30dc\u30af": 2392,
    "\u571f\u5730": 2393,
    "\u77e5\u3089\u305b": 2394,
    "\u30a2\u30e1\u30ea\u30ab": 2395,
    "\u4f11\u307f": 2396,
    "\u5727": 2397,
    "\u2581\u4e00\u3064": 2398,
    "\u30d5\u30a1\u30a4\u30eb": 2399,
    "\u2581\u3053\u3053\u306e": 2400,
    "\u3057\u307e\u3046": 2401,
    "\u751f\u5f92": 2402,
    "\u2581\u4e0b": 2403,
    "\u7d20": 2404,
    "\u53ef\u80fd\u6027": 2405,
    "\u8a71\u306f": 2406,
    "\u773c": 2407,
    "\u306b\u304a\u3051\u308b": 2408,
    "\u3092\u77e5\u3063\u3066\u308b": 2409,
    "\u3069\u3046\u305e": 2410,
    "\u3069\u3082": 2411,
    "\u2581\u65e5\u672c": 2412,
    "\u2581\u3088\u308d\u3057\u304f": 2413,
    "\u30dd\u30a4\u30f3\u30c8": 2414,
    "\u306e\u304a": 2415,
    "\u3067\u3082\u306a\u3044": 2416,
    "\u73fe": 2417,
    "\u6761\u4ef6": 2418,
    "\u3060\u305c": 2419,
    "\u3059\u308b\u308f": 2420,
    "\u2581\u307b\u3068\u3093\u3069": 2421,
    "\u8a18\u4e8b": 2422,
    "\u30d5\u30a1": 2423,
    "\u539f\u56e0": 2424,
    "\u2581\u30ad\u30df": 2425,
    "\u30a2\u30c3\u30d7": 2426,
    "\u308f\u3051\u3058\u3083\u306a\u3044": 2427,
    "\u4e8b\u5b9f": 2428,
    "\u671b": 2429,
    "\u97f3\u697d": 2430,
    "\u30af\u30bd": 2431,
    "\u3082\u3057": 2432,
    "\u307e\u308a": 2433,
    "\u3082\u306e\u304c": 2434,
    "\u3044\u308b\u3093\u3060": 2435,
    "\u5411\u3051": 2436,
    "\u60aa\u304b\u3063\u305f": 2437,
    "\u672c\u5f53": 2438,
    "\u308f\u304b\u3063\u3066": 2439,
    "\u4e94": 2440,
    "\u305f\u304f\u3055\u3093": 2441,
    "\u66f8\u3044\u3066": 2442,
    "\u60d1\u661f": 2443,
    "\u8ddd\u96e2": 2444,
    "\u2581\u6642\u9593": 2445,
    "\u73fe\u5728": 2446,
    "\u304c\u60aa\u3044": 2447,
    "\u3068\u5171\u306b": 2448,
    "\u533b\u7642": 2449,
    "\u2581\u305d\u308d\u305d\u308d": 2450,
    "\u540c\u69d8": 2451,
    "\u8131": 2452,
    "\u5f7c\u3089\u306f": 2453,
    "\u601d": 2454,
    "\u30bb\u30f3\u30bf\u30fc": 2455,
    "\u30ed\u30b9": 2456,
    "\u2581\u8a71": 2457,
    "\u2581\u305f\u3063\u305f": 2458,
    "\u57cb\u3081": 2459,
    "\u2581\u5206\u304b\u3089\u306a\u3044": 2460,
    "\u308f\u308c": 2461,
    "\u306e\u4e16\u754c": 2462,
    "\u3079\u304d\u3060": 2463,
    "\u2581\u554f\u984c": 2464,
    "\u2581\u53f3": 2465,
    "\u5f53": 2466,
    "\u2581\u540d\u524d\u306f": 2467,
    "\u2581\u305d\u3046\u3088": 2468,
    "\u3057\u3066\u304f\u308c\u305f": 2469,
    "\u5357": 2470,
    "\u30d5\u30a3": 2471,
    "\u306a\u3053\u3068": 2472,
    "\u6a5f\u95a2": 2473,
    "\u4f1a\u3063\u3066": 2474,
    "\u4ed8\u304d": 2475,
    "\u2581\u3042\u3093\u305f\u304c": 2476,
    "\u2581\u305d\u3063\u3061": 2477,
    "\u751f\u307e\u308c\u305f": 2478,
    "\u2581\u5927\u7d71\u9818": 2479,
    "\u30bf\u30a4\u30d7": 2480,
    "\u2581\u5f8c\u3067": 2481,
    "\u6587\u5316": 2482,
    "\u30da\u30f3": 2483,
    "\u2581FBI": 2484,
    "\u5206\u6790": 2485,
    "\u3042\u306a\u305f\u3092": 2486,
    "\u9023\u4e2d": 2487,
    "\u30a6\u30a3": 2488,
    "\u30cc": 2489,
    "\u2581\u3069\u3053\u3067": 2490,
    "\u2581\u5de6": 2491,
    "\u8449": 2492,
    "\u3058\u3083\u306a\u3044\u308f": 2493,
    "\u7570": 2494,
    "\u2581\u6b7b\u306c": 2495,
    "\u3089\u308c\u307e\u3059": 2496,
    "\u2581\u53d6\u308a": 2497,
    "\u306a\u3088": 2498,
    "\u6bba\u3057": 2499,
    "\u3064\u3051\u3066": 2500,
    "\u9060\u304f": 2501,
    "\u63a2\u3057": 2502,
    "\u9053\u3092": 2503,
    "tv": 2504,
    "\u88fd": 2505,
    "\u958b\u59cb": 2506,
    "\u3066\u304d\u305f": 2507,
    "\u4e0a\u306b": 2508,
    "\u3082\u540c\u3058": 2509,
    "\u3092\u6301\u3063\u3066\u3044\u308b": 2510,
    "\u2581\u72ac": 2511,
    "\u6bba\u3055\u308c\u305f": 2512,
    "\u2581\u767d": 2513,
    "\u6df1": 2514,
    "\u79d8\u5bc6": 2515,
    "\u2581\u30aa\u30fc": 2516,
    "\u604b": 2517,
    "\u30bb\u30eb": 2518,
    "\u30db\u30fc": 2519,
    "\u2581\u306d\u3047": 2520,
    "\u984d": 2521,
    "\u306e\u5f8c": 2522,
    "\u2581\u30cf\u30a4": 2523,
    "\u6253\u3061": 2524,
    "\u4e0d\u5b89": 2525,
    "\u2581A": 2526,
    "\u904b": 2527,
    "\u2581\u6570": 2528,
    "\u4ee5\u4e0a\u306e": 2529,
    "\u4e8b\u3082": 2530,
    "\u77e5\u3063\u305f": 2531,
    "\u5bae": 2532,
    "\u5148\u8f29": 2533,
    "\u9ed2": 2534,
    "\u3053\u3068\u304c\u3067\u304d\u308b": 2535,
    "\u98df\u3079\u308b": 2536,
    "\u696d": 2537,
    "\u2581\u4eba\u9593\u306e": 2538,
    "\u2581\u4eca\u671d": 2539,
    "\u306a\u3093\u3067": 2540,
    "\u301c": 2541,
    "\u79d1": 2542,
    "\u4fe1\u983c": 2543,
    "\u3093\u306a": 2544,
    "\u30ec\u30b9": 2545,
    "\u2581\u6e96\u5099": 2546,
    "\u2581\u3082\u3046\u3044\u3044": 2547,
    "\u7389": 2548,
    "\u2581\u6628\u591c": 2549,
    "\u8def": 2550,
    "\u8a3c\u8a00": 2551,
    "\u8cb7\u3063\u3066": 2552,
    "\u30b5\u30a4\u30f3": 2553,
    "\u7dcf": 2554,
    "\u8a66": 2555,
    "\u6ce8\u76ee": 2556,
    "\u53c2\u52a0": 2557,
    "\u30b5\u30fc\u30d3\u30b9": 2558,
    "\u2581\u30b5\u30e9": 2559,
    "\u304a\u308a": 2560,
    "\u306e\u540d\u524d\u306f": 2561,
    "\u5165\u3063\u3066": 2562,
    "\u611f\u3058\u308b": 2563,
    "\u98f2\u307f": 2564,
    "\u2581100": 2565,
    "\u2581\u8d64": 2566,
    "\u30c6\u30af\u30ce\u30ed\u30b8\u30fc": 2567,
    "\u30cf\u30f3": 2568,
    "\u30c3\u30af\u30b9": 2569,
    "\u9280\u884c": 2570,
    "\u30cb\u30a2": 2571,
    "\u611f\u67d3": 2572,
    "\u2581\u305d\u308c\u3067\u306f": 2573,
    "K": 2574,
    "\u98f2\u3080": 2575,
    "\u59cb\u3081\u308b": 2576,
    "\u3092\u6301\u3061": 2577,
    "\u2581\u30a6": 2578,
    "\u2581\u3061\u3087\u3046\u3069": 2579,
    "\u2581\u304a\u3063": 2580,
    "\u69cb\u9020": 2581,
    "\u56de\u5fa9": 2582,
    "40": 2583,
    "\u2581\u541b\u305f\u3061": 2584,
    "\u8a00\u308f\u308c\u305f": 2585,
    "\u226b": 2586,
    "\u8b70\u8ad6": 2587,
    "\u2581\u30dc\u30b9": 2588,
    "\u30a2\u30ea": 2589,
    "\u59cb\u3081\u3066": 2590,
    "\u2581\u3057\u3070\u3089\u304f": 2591,
    "\u2581\u3042\u3063\u305f": 2592,
    "\u8a00\u3063\u3066\u305f": 2593,
    "\u4ee3\u308f\u308a\u306b": 2594,
    "\u4f5c\u3063\u3066": 2595,
    "\u6700\u9ad8": 2596,
    "\u5de5\u5834": 2597,
    "\u88ab": 2598,
    "G": 2599,
    "\u306b\u6765\u3066": 2600,
    "\u5929\u4f7f": 2601,
    "\u2581\u4f55\u3068\u304b": 2602,
    "\u30ab\u30b9": 2603,
    "\u53c2": 2604,
    "\u4e95": 2605,
    "\u2581\u5927\u5909": 2606,
    "\u8d77\u3053": 2607,
    "\u2581\u9003\u3052": 2608,
    "\u5144": 2609,
    "\u30c3\u30d7": 2610,
    "\u304a\u304f": 2611,
    "\u3044\u3044\u304b": 2612,
    "\u7a7a\u9593": 2613,
    "\u533b\u5e2b": 2614,
    "\u5206\u304b\u308a\u307e\u3059": 2615,
    "\u7b4b": 2616,
    "\u96fb\u8a71\u3092": 2617,
    "\u9001": 2618,
    "\u2581\u307e\u305a\u306f": 2619,
    "\u3068\u601d\u3063\u3066\u305f": 2620,
    "\u51fa\u6765\u305f": 2621,
    "\u611f\u899a": 2622,
    "\u2581\u30b7": 2623,
    "\u5317": 2624,
    "\u30d1\u30fc\u30c6\u30a3\u30fc": 2625,
    "\u66f8\u3044\u305f": 2626,
    "\u2581\u3086\u3063\u304f\u308a": 2627,
    "\u2581\u5b87\u5b99": 2628,
    "\u6bba\u3055\u308c\u308b": 2629,
    "\u77e5\u308a\u5408\u3044": 2630,
    "\u80cc": 2631,
    "\u3063\u3061\u3083\u3063\u305f": 2632,
    "\u9762\u767d\u3044": 2633,
    "\u2581\u308f\u304b\u308b": 2634,
    "\u751f\u307e\u308c": 2635,
    "\u2581\u9577": 2636,
    "\u30cf\u30a4": 2637,
    "\u2581\u53cb\u4eba": 2638,
    "\u9632": 2639,
    "\u9003\u3052\u305f": 2640,
    "\u2581\u9283": 2641,
    "\u3044\u308b\u304b": 2642,
    "\u4e00\u65e5": 2643,
    "\u52c9\u5f37": 2644,
    "\u2581\u3042\u3089\u3086\u308b": 2645,
    "\u50cd\u304d": 2646,
    "\u305f\u3081\u306e": 2647,
    "\u30df\u30b9": 2648,
    "\u2581\u5f53\u7136": 2649,
    "\u6a5f\u68b0": 2650,
    "z": 2651,
    "\u2581\u3053\u306e\u307e\u307e": 2652,
    "\u68ee": 2653,
    "\u3063\u3066\u3044\u305f": 2654,
    "\u6368\u3066": 2655,
    "\u2581\u3046\u3061": 2656,
    "\u2581\u3084\u3063\u3066": 2657,
    "\u2581\u75c5\u9662": 2658,
    "\u805e\u304d\u305f\u3044": 2659,
    "\u2581\u306f\u3041": 2660,
    "\u3064\u3044\u305f": 2661,
    "\u77e5\u308b": 2662,
    "\u307b\u3046\u304c": 2663,
    "\u30bc\u30ed": 2664,
    "\u2581\u3042\u3044\u3064\u306f": 2665,
    "\u9854\u3092": 2666,
    "\u2581\u3053\u3061\u3089\u306f": 2667,
    "\u307e\u3044": 2668,
    "\u9001\u308a": 2669,
    "\u590f": 2670,
    "\u3057\u306a\u3055\u3044": 2671,
    "\u968a\u9577": 2672,
    "\u52d5\u304f": 2673,
    "\u5065\u5eb7": 2674,
    "\u3067\u306d": 2675,
    "\u304b\u3088": 2676,
    "\u7d66": 2677,
    "\u6587\u5b57": 2678,
    "\u2581\u6bcd": 2679,
    "\u5341": 2680,
    "\u9577\u3044": 2681,
    "\u30ca\u30a4\u30d5": 2682,
    "\u3059\u304e": 2683,
    "\u3060\u3068\u601d\u3044\u307e\u3059": 2684,
    "\u7363": 2685,
    "\u8a8d\u8b58": 2686,
    "\u793e\u9577": 2687,
    "\u306b\u623b\u308b": 2688,
    "\u2581\u4e8c\u4eba": 2689,
    "\u793a": 2690,
    "\u2581\u884c\u304f": 2691,
    "\u5acc": 2692,
    "\u9006": 2693,
    "\u2581\u6301\u3063\u3066": 2694,
    "\u888b": 2695,
    "\u6848": 2696,
    "\u2581\u3069\u3046\u3044\u3046\u3053\u3068": 2697,
    "\u8bf4": 2698,
    "\u8b66\u544a": 2699,
    "\u30b8\u30e3\u30fc": 2700,
    "\u2581\u3053\u308c\u307e\u3067": 2701,
    "\u2581\u3082\u3046\u3059\u3050": 2702,
    "\u2581\u4e00\u5ea6": 2703,
    "\u7406\u8ad6": 2704,
    "\u2581\u30de\u30fc": 2705,
    "\u2581\u3067\u3059\u304b\u3089": 2706,
    "\u30e1\u30f3": 2707,
    "\u771f\u5b9f": 2708,
    "\u3092\u4f5c\u3063\u3066": 2709,
    "\u30a6\u30a4\u30eb\u30b9": 2710,
    "\u2581\u6b21\u306b": 2711,
    "\u2581\u653f\u5e9c": 2712,
    "\u4ffa\u306b": 2713,
    "\u2581\u4ffa\u305f\u3061\u306f": 2714,
    "\u8eca\u3092": 2715,
    "\u3067\u304d\u3066": 2716,
    "\u5e30": 2717,
    "\u30e9\u30a4\u30c8": 2718,
    "\u30e1\u30fc\u30c8\u30eb": 2719,
    "\u6ce8\u610f": 2720,
    "\u4ee5\u6765": 2721,
    "\u304c\u597d\u304d": 2722,
    "\u5f93": 2723,
    "\u2581\u307e\u3055\u306b": 2724,
    "\u308f\u3051\u3067\u3059": 2725,
    "\u2581\u8857": 2726,
    "\u30d5\u30a3\u30fc\u30eb\u30c9": 2727,
    "\u306a\u3044\u306e\u304b": 2728,
    "\u591a\u3044": 2729,
    "\u5927\u91cf": 2730,
    "\u2581\u843d\u3061\u7740\u3051": 2731,
    "200": 2732,
    "\u7121\u304b\u3063\u305f": 2733,
    "\u5024": 2734,
    "\u547c\u3073": 2735,
    "\u3061\u3083\u3093\u3068": 2736,
    "\u2581\u3044\u3063\u305f\u3044": 2737,
    "\u8ab0\u304c": 2738,
    "\u4e16\u754c\u3092": 2739,
    "\u2581\u3046\u308f": 2740,
    "\u308f\u306a\u3044": 2741,
    "\u95a2\u9023": 2742,
    "\u5f85\u3066": 2743,
    "\u72c2": 2744,
    "\u6d88\u3048": 2745,
    "\u306e\u540d\u524d": 2746,
    "\u8de1": 2747,
    "\u3042\u307e\u308a": 2748,
    "\u2581\u3046\u3063": 2749,
    "\u596a": 2750,
    "\u767a\u8868": 2751,
    "\u5b88": 2752,
    "\u306e\u305f\u3081\u306e": 2753,
    "\u3093\u306e\u304b": 2754,
    "\u6295\u8cc7": 2755,
    "\u4f4f": 2756,
    "\u610f\u898b": 2757,
    "\u5bb3": 2758,
    "\u9650": 2759,
    "\u6df1\u304f": 2760,
    "\u306e\u3067\u3057\u3087\u3046": 2761,
    "\u52a0": 2762,
    "\u2581\u308f\u3057": 2763,
    "\u5dee\u3057": 2764,
    "\u7acb\u5834": 2765,
    "\u7537\u306f": 2766,
    "\u58f2\u308a": 2767,
    "\u2581\u3059\u307e\u306a\u3044": 2768,
    "\u306e\u306a\u3044": 2769,
    "\u2581\u3053\u3053\u304c": 2770,
    "\u660e\u65e5": 2771,
    "\u732b": 2772,
    "\u3060\u3063\u305f\u306e": 2773,
    "\u304b\u308c": 2774,
    "\u6771": 2775,
    "\u306e\u5199\u771f": 2776,
    "\u306e\u3082\u306e": 2777,
    "14": 2778,
    "\u30cd\u30c3\u30c8\u30ef\u30fc\u30af": 2779,
    "\u63a2": 2780,
    "\u3053\u3068\u304c\u3067\u304d\u307e\u3059": 2781,
    "\u4eba\u3005\u304c": 2782,
    "\u2581\u9ed9\u3063\u3066": 2783,
    "\u2581\u3044\u3044\u304b\u3089": 2784,
    "\u2581\u533b\u8005": 2785,
    "\u30ea\u30b9\u30af": 2786,
    "\u547d\u3092": 2787,
    "\u30db\u30c6\u30eb": 2788,
    "\u899a\u3048": 2789,
    "\u2581\u5149": 2790,
    "\u3057\u304f": 2791,
    "\u3063\u304b": 2792,
    "\u2581\u3042\u308b\u3044\u306f": 2793,
    "\u2581\u30a2\u30a4\u30c4": 2794,
    "\u2581\u51fa\u3066": 2795,
    "\u2581\u5199\u771f": 2796,
    "\u5f85\u3063\u3066\u308b": 2797,
    "\u63d0\u6848": 2798,
    "\u2581\u8a00\u3044": 2799,
    "\u2581\u3068\u3053\u308d\u3067": 2800,
    "\u258115": 2801,
    "\u304f\u305b\u306b": 2802,
    "\u6226\u3046": 2803,
    "\u3092\u6301\u3063\u3066\u308b": 2804,
    "\u2581\u30b0": 2805,
    "\u8868\u73fe": 2806,
    "\u983c\u3080": 2807,
    "\u3053\u308c\u304c": 2808,
    "\u304c\u6765\u308b": 2809,
    "\u9060": 2810,
    "\u5185\u5bb9": 2811,
    "\u2581\u7a81\u7136": 2812,
    "\u6012\u308a": 2813,
    "\u9054\u306f": 2814,
    "\u2581\u30b5\u30e0": 2815,
    "\u2581\u8db3": 2816,
    "\u30b8\u30a7": 2817,
    "\u304c\u5fc5\u8981\u3067\u3059": 2818,
    "\u306e\u529b": 2819,
    "\u725b": 2820,
    "\u3061\u3087\u3046\u3060\u3044": 2821,
    "\u2581\u983c\u3080": 2822,
    "\u2581\u3044\u3044\u3088": 2823,
    "\u3082\u306a\u304f": 2824,
    "\u2581\u3053\u3093\u306a\u3053\u3068": 2825,
    "\u2581\u6728": 2826,
    "\u2581\u3054\u3081\u3093\u306d": 2827,
    "\u30e1\u30c3\u30bb\u30fc\u30b8": 2828,
    "\u2581\u7a7a": 2829,
    "\u3053\u3068\u306f\u306a\u3044": 2830,
    "\u4fbf": 2831,
    "\u4eba\u751f\u3092": 2832,
    "\u5272": 2833,
    "\u3057\u3066\u308b\u3093\u3060": 2834,
    "\u9858\u3044": 2835,
    "\u65b9\u6cd5\u3092": 2836,
    "\u2581\u30d4\u30fc\u30bf\u30fc": 2837,
    "\u5375": 2838,
    "\u751f\u304d\u3066": 2839,
    "\u65b9\u5411": 2840,
    "\u6700\u8fd1": 2841,
    "\u2581\u541b\u3068": 2842,
    "\u30d0\u30b9": 2843,
    "\u7d42\u308f\u308b": 2844,
    "\u3057\u305f\u3053\u3068": 2845,
    "\u5c45\u308b": 2846,
    "\u6a39": 2847,
    "\u306e\u606f\u5b50": 2848,
    "\u308a\u3083": 2849,
    "\u6e80": 2850,
    "\u6642\u671f": 2851,
    "\u306b\u5165\u3063\u3066": 2852,
    "\u306b\u3064\u3044\u3066\u306f": 2853,
    "\u306e\u305b\u3044": 2854,
    "\u30fc\u3063": 2855,
    "\u81ea\u4fe1": 2856,
    "\u805e\u3053\u3048\u308b": 2857,
    "\u9020": 2858,
    "\u2581\u30c9": 2859,
    "\u6383\u9664": 2860,
    "\u66ae\u3089\u3057": 2861,
    "\u7f70": 2862,
    "\u88ab\u5bb3\u8005": 2863,
    "\u2581fbi": 2864,
    "\u2581\u4eba\u751f": 2865,
    "\u624d\u80fd": 2866,
    "\u2581\u304f\u305d": 2867,
    "\u73ed": 2868,
    "\u2581\u305d\u3046\u3044\u3046\u3053\u3068": 2869,
    "\u2581\u305d\u308c\u3063\u3066": 2870,
    "\u30de\u30a4": 2871,
    "\u306a\u3044\u3088\u3046\u306b": 2872,
    "\u2581\u6025\u3044\u3067": 2873,
    "\u9999": 2874,
    "\u2581\u8d85": 2875,
    "\u306e\u624b": 2876,
    "\u3063\u3066\u305f": 2877,
    "\u7d39\u4ecb": 2878,
    "\u2581\u6700\u9ad8": 2879,
    "\u2581\u30d8": 2880,
    "\u2581\u3082\u3057\u3082\u3057": 2881,
    "\u3068\u304a\u308a": 2882,
    "\u7a81\u304d": 2883,
    "\u304a\u6bcd\u3055\u3093": 2884,
    "\u64ae\u5f71": 2885,
    "\u2581\u3053\u3044\u3064\u306f": 2886,
    "\u6563": 2887,
    "\u4f1a\u3046": 2888,
    "\u8996": 2889,
    "\u5bc6": 2890,
    "\u2581\u30cf\u30fc": 2891,
    "\u8056": 2892,
    "\u899a\u3048\u3066": 2893,
    "\u79c1\u305f\u3061\u306e": 2894,
    "\u65e9": 2895,
    "\u3068\u3044\u3063\u305f": 2896,
    "\u30de\u30b7\u30f3": 2897,
    "\u30b1\u30a4": 2898,
    "\u8abf": 2899,
    "\u30d1\u30bf\u30fc\u30f3": 2900,
    "\u3057\u3083": 2901,
    "\u2581\u6bba\u4eba": 2902,
    "\u985e": 2903,
    "\u3042\u308a\u307e\u3057\u305f": 2904,
    "\u2581\u30b8\u30a7\u30fc\u30f3": 2905,
    "\u2581\u30b8\u30e3": 2906,
    "\u5927\u4eba": 2907,
    "\u6765\u307e\u3057\u305f": 2908,
    "\u305f\u306e\u304b": 2909,
    "\u8a00\u308f\u306a\u3044": 2910,
    "\u5927\u4e8b": 2911,
    "\u2581\u3042\u306a\u305f\u3068": 2912,
    "\u2581\u306f\u3042": 2913,
    "\u2581\u5965\u3055\u3093": 2914,
    "\u2581\u30db": 2915,
    "U": 2916,
    "\u8a08\u7b97": 2917,
    "\u5236\u5fa1": 2918,
    "\u8d85": 2919,
    "\u30d1\u30fc\u30c8\u30ca\u30fc": 2920,
    "\u6620\u50cf": 2921,
    "\u5012": 2922,
    "\u3057\u305f\u306e\u3067\u3059": 2923,
    "\u30d0\u30e9": 2924,
    "\u6b21\u306e": 2925,
    "\u2581\u3044\u304f\u3089": 2926,
    "\u2581\u8a00\u3063\u305f": 2927,
    "\u30c6\u30a3\u30fc": 2928,
    "\u2581\u3088\u308a": 2929,
    "\u2581\u9023\u7d61": 2930,
    "\u5730\u56f3": 2931,
    "\u56fa": 2932,
    "\u4e0d\u53ef\u80fd": 2933,
    "\u7559": 2934,
    "\u30fc\u30eb": 2935,
    "\u5927\u5b66": 2936,
    "\u7fa9": 2937,
    "\u672a": 2938,
    "\u60c5": 2939,
    "\u307e\u3067\u306f": 2940,
    "\u5927\u597d\u304d": 2941,
    "\u306e\u5bb6": 2942,
    "\u2581\u5206\u304b\u308b": 2943,
    "\u3058\u3083\u306d\u3048": 2944,
    "\u306e\u524d\u3067": 2945,
    "\u8abf\u3079\u3066": 2946,
    "\u307f\u305f": 2947,
    "\u5b09\u3057\u3044": 2948,
    "\u4ef2": 2949,
    "\u96c6\u56e3": 2950,
    "\u2581\u81ea\u7136": 2951,
    "\u9b54\u6cd5": 2952,
    "\u3093\u3067\u3057\u3087\u3046": 2953,
    "\u30bb\u30c3\u30c8": 2954,
    "\u2581\u305d\u308c\u306a\u3089": 2955,
    "\u8003\u3048\u3066\u308b": 2956,
    "\u30b7\u30f3": 2957,
    "\u6975": 2958,
    "\u753b\u50cf": 2959,
    "\u60aa\u304f": 2960,
    "\u2581\u4eca\u304b\u3089": 2961,
    "\u308f\u304b\u308a\u307e\u3059": 2962,
    "\u4e71": 2963,
    "\u6e90": 2964,
    "\u4f53\u9a13": 2965,
    "\u3044\u3063\u3071\u3044": 2966,
    "\u3051\u3069\u306d": 2967,
    "\u50cf": 2968,
    "\u30ce\u30fc": 2969,
    "\u904a": 2970,
    "\u6b7b\u4ea1": 2971,
    "\u3082\u3089\u3048\u308b": 2972,
    "\u6025": 2973,
    "\u2581\u53e3": 2974,
    "\u8a66\u9a13": 2975,
    "\u78ba\u4fe1": 2976,
    "\u2581\u9ed2": 2977,
    "\u6570\u5b57": 2978,
    "\u6050\u6016": 2979,
    "\u708e": 2980,
    "\u77e5\u3063\u3066": 2981,
    "\u77e5\u3063\u3066\u305f": 2982,
    "\u4f1d\u3048": 2983,
    "\u5b89\u5fc3": 2984,
    "\u2581\u540d\u524d": 2985,
    "\u7121\u3057": 2986,
    "\u30e2\u30fc": 2987,
    "\u5c06\u8ecd": 2988,
    "\u6a2a": 2989,
    "\u305b\u3044": 2990,
    "\u8349": 2991,
    "\u7570\u5e38": 2992,
    "\u533b": 2993,
    "\u2581\u305d\u3044\u3064": 2994,
    "\u4e0a\u3067": 2995,
    "\u2581\u666e\u901a": 2996,
    "\u3055\u3093\u3068": 2997,
    "\u4f5c\u308b": 2998,
    "\u6d3e": 2999,
    "\u98db\u884c\u6a5f": 3000,
    "\u751f\u304d\u3066\u3044\u308b": 3001,
    "\u30d6\u30ea": 3002,
    "\u306e\u4e0a\u306b": 3003,
    "\u306e\u304b\u3057\u3089": 3004,
    "\u2581\u4ed6": 3005,
    "\u2581\u5b8c\u5168\u306b": 3006,
    "\u697d\u3057\u3044": 3007,
    "\u7d42\u308f\u3063\u305f": 3008,
    "\u308b\u3088\u3046\u306b": 3009,
    "\u2581\u843d\u3061\u7740\u3044\u3066": 3010,
    "\u3063\u3066\u4f55": 3011,
    "\u3046\u307e\u304f": 3012,
    "\u7121\u8996": 3013,
    "\u8a55\u4fa1": 3014,
    "\u4ea4\u63db": 3015,
    "\u6700\u5927\u306e": 3016,
    "\u3068\u3046": 3017,
    "\u9b54\u5973": 3018,
    "\u5049\u5927\u306a": 3019,
    "\u624b\u7d19": 3020,
    "\u30d8": 3021,
    "\u56fd\u306e": 3022,
    "\u6ca1": 3023,
    "\u63d0\u4f9b": 3024,
    "\u2581\u7d50\u69cb": 3025,
    "\u2581\u3059\u3067\u306b": 3026,
    "\u30ec\u30fc": 3027,
    "\u6b6f": 3028,
    "\u4e88\u6e2c": 3029,
    "\u30b9\u30fc\u30c4": 3030,
    "\u8fd1\u3044": 3031,
    "\u5927\u4e08\u592b\u3060": 3032,
    "\u2581\u3044\u3084\u3044\u3084": 3033,
    "\u5200": 3034,
    "\u3068\u8a00\u3063\u3066": 3035,
    "\u308c\u3066": 3036,
    "\u8a00\u8a9e": 3037,
    "\u3042\u3042": 3038,
    "\u5b9f\u969b\u306b": 3039,
    "\u2581\u3048\u3047": 3040,
    "\u2581\u5973\u6027": 3041,
    "\u306e\u9593\u306b": 3042,
    "ar": 3043,
    "\u76ee\u6a19": 3044,
    "\u7537\u3060": 3045,
    "\u3082\u306e\u3067": 3046,
    "\u540c\u50da": 3047,
    "\u304a\u524d\u306f": 3048,
    "\u4eba\u985e": 3049,
    "\u3093\u3067\u3059\u304c": 3050,
    "\u2581\u6700\u521d\u306b": 3051,
    "\u30fc\u30f3": 3052,
    "\u8a66\u5408": 3053,
    "\u2581\u8ab0\u3060": 3054,
    "\u53d7": 3055,
    "\u2581\u30b2\u30fc\u30e0": 3056,
    "\u6298": 3057,
    "\u2581\u6b7b": 3058,
    "\u304c\u3042\u308b\u3093\u3060": 3059,
    "\u2581\u79c1\u9054\u306e": 3060,
    "\u2581\u60aa": 3061,
    "j": 3062,
    "\u2581\u5148": 3063,
    "\u306a\u304b\u3063\u305f\u3089": 3064,
    "\u6d88": 3065,
    "\u2581\u3044\u3044\u308f": 3066,
    "\u30d0\u30ec": 3067,
    "\u6b69": 3068,
    "\u266a": 3069,
    "\u571f": 3070,
    "\u2581\u793e\u4f1a": 3071,
    "\u4ffa\u305f\u3061": 3072,
    "\u2581\u805e\u3044\u305f": 3073,
    "\u30a8\u30f3\u30b8\u30f3": 3074,
    "\u898b\u305b": 3075,
    "\u2581\u8239": 3076,
    "\u8a00\u3048\u308b": 3077,
    "\u2581\u305d\u306e\u307e\u307e": 3078,
    "\u8cb4\u65b9": 3079,
    "\u30c9\u30a2": 3080,
    "\u30b5\u30a4\u30c8": 3081,
    "\u5de6": 3082,
    "\u5352\u696d": 3083,
    "\u76d7": 3084,
    "\u4f4d\u7f6e": 3085,
    "\u2581\u30df\u30b9\u30bf\u30fc": 3086,
    "\u6700\u5f8c": 3087,
    "\u2581\u5974\u3089": 3088,
    "\u4e8b\u52d9\u6240": 3089,
    "\u7269\u8cea": 3090,
    "\u3060\u308d\u3046\u306a": 3091,
    "\u258112": 3092,
    "\u305f\u304b": 3093,
    "\u3059\u3089": 3094,
    "\u7121\u7dda": 3095,
    "\u7a7a\u6c17": 3096,
    "\u2581\u4e2d\u56fd": 3097,
    "\u2581I": 3098,
    "\u8cbb": 3099,
    "\u3044\u308b\u306e\u306f": 3100,
    "\u2581\u3069\u3046\u3060": 3101,
    "\u2581\u305d\u3093\u306a\u306e": 3102,
    "\u304a\u91d1\u3092": 3103,
    "\u30c0\u30e1\u3060": 3104,
    "\u5371\u6a5f": 3105,
    "\u2581\u3053\u3053\u306b\u3044\u308b": 3106,
    "\u9053\u5177": 3107,
    "\u5e74\u4ee3": 3108,
    "\u2014": 3109,
    "\u5d0e": 3110,
    "\u30a4\u30e1\u30fc\u30b8": 3111,
    "\u6307\u7d0b": 3112,
    "\u306f\u3044\u306a\u3044": 3113,
    "\u4f4f\u6240": 3114,
    "\u30e8": 3115,
    "\u65b9\u6cd5\u306f": 3116,
    "\u30d7\u30ec\u30bc\u30f3\u30c8": 3117,
    "\u30ad\u30e3": 3118,
    "\u52c7\u6c17": 3119,
    "\u2581\u306f\u3063\u304d\u308a": 3120,
    "\u639b\u3051": 3121,
    "\u2581S": 3122,
    "F": 3123,
    "\u5217": 3124,
    "\u2581\u8ab0\u306b\u3082": 3125,
    "\u3068\u3053\u308d\u3067": 3126,
    "\u3067\u304d\u306a\u304b\u3063\u305f": 3127,
    "80": 3128,
    "18": 3129,
    "\u6e80\u8db3": 3130,
    "\u5ff5": 3131,
    "\u2581\u3042\u3044\u3064\u3089": 3132,
    "\u5f15": 3133,
    "\u8d8a": 3134,
    "\u5409": 3135,
    "\u5fd9\u3057\u3044": 3136,
    "\u30b7\u30a2": 3137,
    "\u4f7f\u3048\u308b": 3138,
    "\u2581\u72af\u4eba\u306f": 3139,
    "\u7c73": 3140,
    "\u308b\u305f\u3081\u306b": 3141,
    "\u2581\u4ffa\u9054\u306f": 3142,
    "\u2581\u904e\u53bb": 3143,
    "\u501f\u308a": 3144,
    "\u7537\u306e\u5b50": 3145,
    "\u53e4": 3146,
    "\u7c21\u5358": 3147,
    "\u5bb6\u3067": 3148,
    "\u2581\u3048\u3063\u3068": 3149,
    "\u2581\u8cb4\u69d8": 3150,
    "\u30a2\u30d1\u30fc\u30c8": 3151,
    "\u2581\u305d\u3046\u3060\u3088": 3152,
    "\u5bb6\u5ead": 3153,
    "\u5473\u65b9": 3154,
    "\u5834\u6240\u3092": 3155,
    "\u77e5\u308a": 3156,
    "\u3057\u305f\u306e\u304b": 3157,
    "\u53e4\u3044": 3158,
    "\u30b4\u30fc": 3159,
    "\u8b70\u54e1": 3160,
    "\u2581\u3053\u306e\u5b50": 3161,
    "\u901f": 3162,
    "\u5ca9": 3163,
    "\u306a\u304b\u3063\u305f\u306e": 3164,
    "\u4e00\u7dd2": 3165,
    "\u60f3\u50cf": 3166,
    "\u305d\u3093\u306a\u306b": 3167,
    "\u4eba\u3068\u3082": 3168,
    "\u51fa\u6765\u4e8b": 3169,
    "\u4eba\u9593\u304c": 3170,
    "\u3057\u307e\u3063\u3066": 3171,
    "\u30c7\u30fc\u30c8": 3172,
    "\u2581\u30a6\u30bd": 3173,
    "\u2581\u3042\u3063\u3061": 3174,
    "\u3051\u308c\u3070": 3175,
    "\u2581\u30d7\u30ed": 3176,
    "\u306e\u8a71\u3092": 3177,
    "\u8ca0\u3051": 3178,
    "\u9cf4": 3179,
    "\u8aad\u307f": 3180,
    "\u51fa\u305f": 3181,
    "\u540d\u306f": 3182,
    "\u983c": 3183,
    "\u2581\u30d8\u30a4": 3184,
    "\u6295\u3052": 3185,
    "\u30c0\u30f3\u30b9": 3186,
    "\u3044\u308b\u306e\u3067\u3059": 3187,
    "\u884c\u65b9\u4e0d\u660e": 3188,
    "\u884c\u304d\u307e\u3059": 3189,
    "\u6b66\u5668": 3190,
    "\u30d5\u30e9": 3191,
    "\u6bce\u65e5": 3192,
    "\u505c": 3193,
    "\u4ea1\u304f\u306a\u3063\u305f": 3194,
    "\u6625": 3195,
    "\u2581\u2014": 3196,
    "\u4f1a\u793e\u306e": 3197,
    "\u2581\u4ffa\u9054": 3198,
    "\u6b73\u306e": 3199,
    "\u2581\u60c5\u5831": 3200,
    "\u2581\u30c6\u30ec\u30d3": 3201,
    "\u2581\u6c7a\u3057\u3066": 3202,
    "\u57fa\u5730": 3203,
    "\u2581\u30aa\u30ec\u306e": 3204,
    "\u671b\u3080": 3205,
    "\u5fcd": 3206,
    "\u672b": 3207,
    "\u2581\u266c": 3208,
    "\u2581\u4e8b\u4ef6": 3209,
    "\u304f\u308c\u306a\u3044\u304b": 3210,
    "\u3092\u5931\u3063\u305f": 3211,
    "\u2581\u304a\u3046": 3212,
    "\u88cf": 3213,
    "\u770b": 3214,
    "\u751f\u547d": 3215,
    "\u306a\u3044\u304b\u3089": 3216,
    "\u5c4a\u3051": 3217,
    "\u2581\u304a\u304b\u3057\u3044": 3218,
    "\u306f\u3053\u306e": 3219,
    "\u5c64": 3220,
    "\u516c\u5712": 3221,
    "\u6df7\u4e71": 3222,
    "\u30b9\u30bf": 3223,
    "\u6e21\u3059": 3224,
    "\u6b8b\u3063\u3066": 3225,
    "\u306a\u308a\u307e\u3059": 3226,
    "\u3054\u3068": 3227,
    "\u75db\u307f": 3228,
    "\u6271\u3044": 3229,
    "\u4fe1\u53f7": 3230,
    "\u5408\u3063\u3066": 3231,
    "\u306a\u3089\u306a\u3044": 3232,
    "\u5fc3\u3092": 3233,
    "\u30d3\u30b8\u30cd\u30b9": 3234,
    "\u5417": 3235,
    "\u53f3": 3236,
    "\u304a\u304b\u3057\u3044": 3237,
    "\u5206\u304b\u3063\u3066": 3238,
    "\u51ac": 3239,
    "\u30dc\u30b9": 3240,
    "\u30dd\u30fc": 3241,
    "\u7740\u3044\u305f": 3242,
    "\u9280": 3243,
    "\u8d64": 3244,
    "\u30cb\u30e5\u30fc": 3245,
    "\u304b\u306a\u308a": 3246,
    "\u306b\u623b\u3063\u3066": 3247,
    "\u2581\u72af\u4eba": 3248,
    "\u2581\u9811\u5f35\u3063\u3066": 3249,
    "\u604b\u4eba": 3250,
    "\u635c\u7d22": 3251,
    "\u4f4e": 3252,
    "\u7206\u767a": 3253,
    "\u8840\u6db2": 3254,
    "\u30bb\u30c3\u30af\u30b9": 3255,
    "\u30b1\u30fc\u30ad": 3256,
    "\u2581\u30cb\u30e5\u30fc\u30e8\u30fc\u30af": 3257,
    "\u690d\u7269": 3258,
    "\u30d5\u30a1\u30a4": 3259,
    "\u2581\u9762\u767d\u3044": 3260,
    "\u3060\u308d\u3046\u304c": 3261,
    "\u2581\u7236": 3262,
    "\u3044\u308b\u3068": 3263,
    "\u2581\u79d8\u5bc6": 3264,
    "\u306e\u90e8\u5c4b": 3265,
    "\u672c\u5f53\u306e": 3266,
    "/": 3267,
    "\u713c\u304d": 3268,
    "\u306b\u3042\u3063\u305f": 3269,
    "\u9023": 3270,
    "\u8ff7": 3271,
    "\u3059\u3079\u3066\u306e": 3272,
    "\u3063\u3066\u3044\u3046\u304b": 3273,
    "\u4e16\u7d00": 3274,
    "\u2581\u56fd": 3275,
    "\u307f\u308b": 3276,
    "\u3051\u308b": 3277,
    "\u4e0d\u660e": 3278,
    "\u3092\u4e0e\u3048\u308b": 3279,
    "\u3057\u3066\u3084\u308b": 3280,
    "\u8266": 3281,
    "\u3053\u3061\u3089": 3282,
    "\u30ef\u30a4\u30f3": 3283,
    "\u897f": 3284,
    "\u5c45\u5834\u6240": 3285,
    "\u30ab\u30fc\u30c9\u3092": 3286,
    "\u5177\u5408": 3287,
    "\u5927\u5909": 3288,
    "\u80a9": 3289,
    "\u601d\u3063\u3066": 3290,
    "\u8a00\u8449\u3092": 3291,
    "\u3092\u53d6\u3063\u3066": 3292,
    "\u3066\u3057\u307e\u3046": 3293,
    "\u90a3": 3294,
    "\u3069\u3046\u3059\u308b": 3295,
    "\u88c5": 3296,
    "\u306e\u6570": 3297,
    "\u611b\u3059\u308b": 3298,
    "\u6642\u306e": 3299,
    "\u8fba": 3300,
    "\u4e88\u60f3": 3301,
    "\u52d9": 3302,
    "\u2581\u82b1": 3303,
    "\u8a00\u3048\u3070": 3304,
    "\u5b89": 3305,
    "\u305d\u308c\u3067": 3306,
    "\u3089\u305a": 3307,
    "\u53d6\u308b": 3308,
    "\u8a3c": 3309,
    "\u898b\u3064\u304b\u3063\u305f": 3310,
    "\u2581\u304a\u524d\u305f\u3061": 3311,
    "\u304a\u9858\u3044\u3057\u307e\u3059": 3312,
    "\u3060\u3088\u306d": 3313,
    "\u2581\u793e\u9577": 3314,
    "\u306e\u6642": 3315,
    "\u2581\u304b\u308f\u3044\u3044": 3316,
    "\u30c8\u30c3\u30d7": 3317,
    "\u533a": 3318,
    "\u9019": 3319,
    "\u547c\u5438": 3320,
    "\u3046\u3093": 3321,
    "\u4eba\u53e3": 3322,
    "\u306b\u5165\u3063\u305f": 3323,
    "\u2581\u6b21": 3324,
    "\u8179": 3325,
    "\u30bd\u30fc": 3326,
    "\u2581\u30bf": 3327,
    "\u8001": 3328,
    "\u30b9\u30bf\u30f3": 3329,
    "J": 3330,
    "\u2581\u4e21\u89aa": 3331,
    "\u970a": 3332,
    "\u2581\u30d1": 3333,
    "X": 3334,
    "\u52dd\u5229": 3335,
    "\u8fd4\u3059": 3336,
    "\u7c21\u5358\u306b": 3337,
    "\u2581\u3044\u3064\u3067\u3082": 3338,
    "\u982d\u306b": 3339,
    "\u2581\u3084\u3081": 3340,
    "\u30dc\u30fc\u30c8": 3341,
    "\u793c": 3342,
    "\u505c\u6b62": 3343,
    "\u2581\u5bb6\u306b": 3344,
    "\u7fd2": 3345,
    "\u2581\u3055\u3059\u304c": 3346,
    "\u9b54": 3347,
    "\u7b11\u3044": 3348,
    "\u5236": 3349,
    "\u2581\u304a\u4e92\u3044": 3350,
    "\u304a\u3046": 3351,
    "\u2581\u3053\u3053\u307e\u3067": 3352,
    "\u30bf\u30fc\u30f3": 3353,
    "\u9593\u9055\u3044": 3354,
    "\u3072\u3069\u3044": 3355,
    "\u624b\u8853": 3356,
    "\u8131\u51fa": 3357,
    "\u540c\u610f": 3358,
    "\u2581\u6025\u306b": 3359,
    "\u4e2d\u3060": 3360,
    "\u4ea4\u6e09": 3361,
    "\u8aa4\u89e3": 3362,
    "\u2581M": 3363,
    "\u3057\u305f\u304f\u306a\u3044": 3364,
    "\u2581\u305d\u306e\u901a\u308a": 3365,
    "\u2581\u5317": 3366,
    "\u306b\u306a\u308c\u308b": 3367,
    "\u898b\u3048\u305f": 3368,
    "\u30f3\u30c8": 3369,
    "\u9244": 3370,
    "\u2581\u6559\u3048\u3066": 3371,
    "\u5206\u3051": 3372,
    "\u4f1a\u8a71": 3373,
    "\u2581\u3042\u308a\u304c\u3068\u3046\u3054\u3056\u3044\u307e\u3057\u305f": 3374,
    "\u9078\u624b": 3375,
    "\u8a2d\u8a08": 3376,
    "\u8ab0\u304b\u304c": 3377,
    "\u5909\u308f\u3063\u3066": 3378,
    "\u2581\u78ba\u304b": 3379,
    "\u2581\u3042\u306a\u305f\u9054": 3380,
    "\u2581\u305d\u3057\u305f\u3089": 3381,
    "--": 3382,
    "\u7d76\u5bfe": 3383,
    "\u69d8\u5b50": 3384,
    "\u56db": 3385,
    "90": 3386,
    "\u307e\u305b\u3093\u304b": 3387,
    "\u306b\u898b\u3048\u308b": 3388,
    "\u305f\u308f": 3389,
    "\u3084\u3081\u3066": 3390,
    "\u5206\u304b\u308a\u307e\u305b\u3093": 3391,
    "\u5b8c\u6210": 3392,
    "\u7528\u306e": 3393,
    "\u50cd\u3044\u3066": 3394,
    "\u306d\u3048\u3088": 3395,
    "\u30ef\u30fc": 3396,
    "\u30da\u30fc\u30b8": 3397,
    "\u30d6\u30fc": 3398,
    "\u5229\u76ca": 3399,
    "re": 3400,
    "\u4e0a\u3052": 3401,
    "\u3063\u3066\u4e8b": 3402,
    "\u3061\u3083\u3063\u3066": 3403,
    "\u3092\u53d7\u3051": 3404,
    "\u2581\u30ec\u30c3\u30c9": 3405,
    "\u2581\u8b66\u5b98": 3406,
    "\u30cb\u30f3\u30b0": 3407,
    "\u2581\u3053\u3093\u306a\u306b": 3408,
    "\u5f85\u3064": 3409,
    "\u3044\u305f\u3093\u3060": 3410,
    "\u3042\u305f\u308a": 3411,
    "\u2581\u5909\u306a": 3412,
    "\u601d\u3063\u305f": 3413,
    "\u307e\u3067\u306b": 3414,
    "\u00b7": 3415,
    "\u2581\u5206\u304b\u3063\u3066": 3416,
    "\u30c3\u30ab\u30fc": 3417,
    "\u3082\u3089\u3048": 3418,
    "\u30de\u30a4\u30af": 3419,
    "\u902e\u6355": 3420,
    "\u2581\u30cf\u30a1": 3421,
    "\u9078\u629e\u80a2": 3422,
    "\u4ed5": 3423,
    "\u2581\u75db\u3044": 3424,
    "\u2581\u73fe\u5b9f": 3425,
    "\u5e02\u6c11": 3426,
    "\u30e9\u30a4\u30f3": 3427,
    "\u969b": 3428,
    "\u90e8\u968a": 3429,
    "\u3092\u5f15\u304d": 3430,
    "\u306e\u9854": 3431,
    "\u81ea\u5df1": 3432,
    "\u3059\u308b\u4e8b": 3433,
    "\u4fdd\u967a": 3434,
    "\u4ffa\u3092": 3435,
    "\u2581\u30ab\u30fc": 3436,
    "\u4eba\u9593\u306e": 3437,
    "\u767e": 3438,
    "\u4f53\u306e": 3439,
    "\u7a0b\u5ea6": 3440,
    "\u2581\u8003\u3048\u3066": 3441,
    "\u306f\u3068\u3066\u3082": 3442,
    "\u2212": 3443,
    "\u306b\u306a\u308a\u305f\u3044": 3444,
    "\u306b\u95a2\u3057\u3066": 3445,
    "\u2581\u3069\u3061\u3089": 3446,
    "\u30d4\u30f3": 3447,
    "\u2581\u30d9": 3448,
    "\u5462": 3449,
    "\u8fd1\u304f\u306b": 3450,
    "\u5927\u5207": 3451,
    "\u30c8\u30fc": 3452,
    "\u30e2\u30ce": 3453,
    "\u89aa\u53cb": 3454,
    "\u526f": 3455,
    "\u5bbf": 3456,
    "\u2581\u7406\u89e3": 3457,
    "\u9032\u3081": 3458,
    "\u96e8": 3459,
    "\u306a\u3044\u305e": 3460,
    "\u3069\u3053\u306b": 3461,
    "\u2581\u30e4": 3462,
    "\u89e3\u653e": 3463,
    "\u306a\u3093\u3060\u304b\u3089": 3464,
    "\u683c": 3465,
    "\u306f\u79c1": 3466,
    "\u2581\u30c1\u30e3": 3467,
    "\u6ec5": 3468,
    "\u51fa\u8eab": 3469,
    "\u2581\u9759\u304b\u306b": 3470,
    "\u30d5\u30a1\u30fc": 3471,
    "\u306b\u306a\u308b\u3068": 3472,
    "\u2581\u3069\u3046\u305b": 3473,
    "\u2581\u5f7c\u3068": 3474,
    "\u95a2\u5fc3": 3475,
    "\u540d\u524d\u3092": 3476,
    "\u304b\u3051\u305f": 3477,
    "\u3067\u3044\u3044": 3478,
    "\u306b\u5165\u308b": 3479,
    "\u5bfe\u5fdc": 3480,
    "\u652f\u914d": 3481,
    "\u2581\u30e2": 3482,
    "\u2581\u30ed\u30fc": 3483,
    "\u2581\u6016\u3044": 3484,
    "\u5834\u6240\u3067": 3485,
    "\u96e2\u308c\u3066": 3486,
    "\u623b\u3063\u305f": 3487,
    "\u7570\u306a\u308b": 3488,
    "\u5b8c\u5168\u306b": 3489,
    "\u2581\u898b\u3064\u3051\u305f": 3490,
    "\u8ca0": 3491,
    "\u2581\u5a18": 3492,
    "\u2581\u59b9": 3493,
    "\u5b9f\u73fe": 3494,
    "\u306b\u5411\u304b\u3063\u3066": 3495,
    "\u898f\u6a21": 3496,
    "\u2581\u5f01\u8b77\u58eb": 3497,
    "\u30aa\u30d5\u30a3\u30b9": 3498,
    "\u2581\u8d64\u3061\u3083\u3093": 3499,
    "\u2581\u8ab0\u306b": 3500,
    "\u308b\u304b\u3089": 3501,
    "\u2581\u541b\u3082": 3502,
    "\u82e6\u52b4": 3503,
    "\u5165\u308b": 3504,
    "\u8907\u96d1": 3505,
    "\u2581\u6226\u4e89": 3506,
    "\u8d64\u3061\u3083\u3093": 3507,
    "\u3092\u901a\u3057\u3066": 3508,
    "\u2581\u30c0": 3509,
    "\u2581\u3053\u308c\u3082": 3510,
    "\u5834\u6240\u306f": 3511,
    "\u9662": 3512,
    "\u3044\u3044\u306e\u304b": 3513,
    "\u306b\u6765\u308b": 3514,
    "\u53ef": 3515,
    "\u3063\u3051": 3516,
    "\u5f37\u76d7": 3517,
    "\u2581\u4fe1\u3058\u3089\u308c\u306a\u3044": 3518,
    "\u4f53\u3092": 3519,
    "\u2581\u30ad\u30e3": 3520,
    "\u30ec\u30b9\u30c8\u30e9\u30f3": 3521,
    "\u2581\u6211\u304c": 3522,
    "\u5927\u5207\u306a": 3523,
    "\u2581\u5148\u8f29": 3524,
    "\u3060\u3051\u304c": 3525,
    "\u5171": 3526,
    "\u95a2": 3527,
    "\u30b3\u30fc\u30eb": 3528,
    "\u4e00\u4eba\u3067": 3529,
    "\u4e4b": 3530,
    "\u2581\u554f\u984c\u306f": 3531,
    "\u623b": 3532,
    "\u552f\u4e00\u306e": 3533,
    "\u8a00\u3063\u3066\u304f\u308c": 3534,
    "\u65cf": 3535,
    "\u3092\u63a2\u3059": 3536,
    "\u3063\u305f\u308a": 3537,
    "\u3055\u305b\u306a\u3044": 3538,
    "\u304a\u3044": 3539,
    "\u30e9\u30dc": 3540,
    "\u3072\u3068\u308a": 3541,
    "\u6700\u9ad8\u306e": 3542,
    "\u5e83": 3543,
    "\u2581\u30ca\u30eb\u30c8": 3544,
    "\u6821": 3545,
    "\u8ab2": 3546,
    "\u4e00\u822c": 3547,
    "\u8cde": 3548,
    "\u6e29": 3549,
    "\u4e16\u4ee3": 3550,
    "\u8fd9": 3551,
    "\u2581\u304a\u524d\u3092": 3552,
    "\u6642\u9593\u304c": 3553,
    "\u4e00\u676f": 3554,
    "\u2581\u597d\u304d\u306a": 3555,
    "\u2581\u3055\u3063\u3055\u3068": 3556,
    "\u2581\u5206\u304b\u308a\u307e\u3057\u305f": 3557,
    "\u65e5\u9593": 3558,
    "\u30b3\u30f3\u30c8\u30ed\u30fc\u30eb": 3559,
    "\u30c3\u30ad\u30fc": 3560,
    "\u5f97\u610f": 3561,
    "\u30b7\u30e3\u30fc": 3562,
    "\u3063\u3061\u3083\u3046": 3563,
    "\u4e07\u4eba": 3564,
    "\u5207\u308b": 3565,
    "\u307e\u305a": 3566,
    "\u5ead": 3567,
    "\u898b\u3066\u308b": 3568,
    "\u3042\u308a\u307e\u305b\u3093\u3067\u3057\u305f": 3569,
    "\u3067\u3082\u3042\u308b": 3570,
    "\u5916\u3067": 3571,
    "\u2581\u30de\u30a4\u30af": 3572,
    "\u5275": 3573,
    "\u540c\u58eb": 3574,
    "\u30aa\u30fc": 3575,
    "\u4e8b\u614b": 3576,
    "\u2581\u4e16\u754c\u306e": 3577,
    "\u2581\u30b3\u30fc\u30d2\u30fc": 3578,
    "\u7981\u6b62": 3579,
    "\u8fd4\u3057\u3066": 3580,
    "\u6642\u8a08": 3581,
    "\u8907\u96d1\u306a": 3582,
    "\u2581\u3069\u3053\u304b": 3583,
    "\u3057\u305f\u6642": 3584,
    "\u2581\u5973\u306e\u5b50": 3585,
    "\u2581\u30b8\u30a7": 3586,
    "\u306b\u306a\u3089\u306a\u3044": 3587,
    "\u2581\u6620\u753b": 3588,
    "\u4e0b\u306b": 3589,
    "\u6301\u3064": 3590,
    "\u3084\u308a\u65b9": 3591,
    "\u4e3b\u5f35": 3592,
    "\u3093\u3058\u3083\u306a\u3044\u304b": 3593,
    "\u5264": 3594,
    "\u3059\u308b\u306e\u3067\u3059": 3595,
    "\u98df\u6599": 3596,
    "\u4e16\u754c\u3067": 3597,
    "\u2581\u30b5\u30f3": 3598,
    "\u2581\u305d\u3053\u307e\u3067": 3599,
    "\u7ba1": 3600,
    "\u7b97": 3601,
    "\u677e": 3602,
    "\u2581\u30b8\u30e7": 3603,
    "\u2581\u90e8\u5c4b": 3604,
    "\u2581\u5e38\u306b": 3605,
    "\u4e21\u89aa": 3606,
    "\u306a\u3044\u3057": 3607,
    "\u30cf\u30fc": 3608,
    "\u30c9\u30fc": 3609,
    "\u8ce2\u3044": 3610,
    "\u9650\u754c": 3611,
    "\u6211\u3005": 3612,
    "\u5370": 3613,
    "\u304c\u6765\u305f": 3614,
    "\u907f\u3051": 3615,
    "\u3060\u304b\u3089\u306a": 3616,
    "\u2581\u5f7c\u3089\u306b": 3617,
    "\u4e00\u5ea6": 3618,
    "\u2581\u5f1f": 3619,
    "\u4e57": 3620,
    "\u79c1\u305f\u3061\u304c": 3621,
    "\u30f4\u30a1": 3622,
    "\u50d5\u304c": 3623,
    "DNA": 3624,
    "\u2581\u643a\u5e2f": 3625,
    "\u5b9f\u884c": 3626,
    "\u3058\u3083\u306a\u304f": 3627,
    "\u30d7\u30e9": 3628,
    "\u5c02\u9580": 3629,
    "\u30df\u30f3": 3630,
    "\u623b\u3063\u3066": 3631,
    "\u65b9\u306f": 3632,
    "\u4e8b\u60c5": 3633,
    "\u30b1\u30f3": 3634,
    "\u6d88\u3048\u305f": 3635,
    "\u3042\u3052\u3066": 3636,
    "\u4e8b\u3067\u3059": 3637,
    "\u2581\u305d\u3053\u304b\u3089": 3638,
    "\u8ab2\u984c": 3639,
    "\u2581\u3061\u3087": 3640,
    "\u9177\u3044": 3641,
    "\u30d5\u30a9\u30fc": 3642,
    "\u306e\u3067\u3059\u304b": 3643,
    "\u66f8\u985e": 3644,
    "\u7f6e\u3044\u3066": 3645,
    "\u306e\u3053\u3068\u3067\u3059": 3646,
    "\u30b8\u30e3\u30c3\u30af": 3647,
    "\u2581\u5411\u3053\u3046": 3648,
    "\u3084\u3081": 3649,
    "\u2581\u611b\u3057\u3066\u308b": 3650,
    "\u2581\u5acc": 3651,
    "\u683c\u597d": 3652,
    "\u30d0\u30c3\u30af": 3653,
    "\u2581\u30de\u30b8": 3654,
    "\u3068\u304d\u306f": 3655,
    "\u7a0e": 3656,
    "\u8005\u306b": 3657,
    "\u4f1d\u3048\u3066": 3658,
    "\u53ce": 3659,
    "\u306a\u304f\u306a\u3063\u3066": 3660,
    "\u5b57": 3661,
    "\u72a0\u7272\u8005": 3662,
    "\u2581\u6765\u305f": 3663,
    "\u30ed\u30a4": 3664,
    "\u5927\u4e8b\u306a": 3665,
    "\u3058\u3083\u306d\u3048\u304b": 3666,
    "\u3051\u308c\u3069": 3667,
    "\u7d42": 3668,
    "\u2581\u5144": 3669,
    "\u767a\u751f": 3670,
    "\u4f1d\u3048\u308b": 3671,
    "\u3092\u63a2\u3057": 3672,
    "\u7121\u304f": 3673,
    "\u8fd1\u304f": 3674,
    "\u5965\u3055\u3093": 3675,
    "\u2581\u30e1": 3676,
    "\u2581\u305f\u304f\u3055\u3093": 3677,
    "\u30d0\u30c3\u30b0": 3678,
    "\u30b9\u30ad\u30fc": 3679,
    "\u3044\u3044\u308f": 3680,
    "\u6838": 3681,
    "\u5974\u96b7": 3682,
    "\u5185\u90e8": 3683,
    "\u3093\u3067\u3059\u3088\u306d": 3684,
    "\u666e\u901a": 3685,
    "\u307e\u305b": 3686,
    "\u2581\u8aac\u660e": 3687,
    "\u81ed\u3044": 3688,
    "\u3069\u304a\u308a": 3689,
    "\u30a6\u30a3\u30f3": 3690,
    "\u4ed5\u4e8b\u306f": 3691,
    "\u3048\u3066": 3692,
    "\u5b88\u308b": 3693,
    "\u308b\u306e\u3088": 3694,
    "\u3084\u3059\u3044": 3695,
    "\u8b77": 3696,
    "\u6280": 3697,
    "\u305f\u306e\u306f": 3698,
    "\u306b\u3057\u305f": 3699,
    "\u50cd\u304f": 3700,
    "\u4ed8\u3044\u3066": 3701,
    "\u3066\u3044\u307e\u3057\u305f": 3702,
    "\u258118": 3703,
    "\u2581\u8272\u3005": 3704,
    "\u2581\u306a\u304b\u306a\u304b": 3705,
    "\u3059\u308b\u3053\u3068\u3067": 3706,
    "\u3063\u3064": 3707,
    "\u5909\u308f\u308b": 3708,
    "\u2581\u706b": 3709,
    "\u2581\u30ec\u30a4": 3710,
    "\u77e2": 3711,
    "\u30c7\u30e5\u30a8\u30eb": 3712,
    "\u81ea\u7531\u306b": 3713,
    "\u5b97\u6559": 3714,
    "\u3092\u53d7\u3051\u305f": 3715,
    "\u30b2\u30a4": 3716,
    "\u8eca\u306b": 3717,
    "\u8a00\u3046\u306a": 3718,
    "\u306e\u70ba": 3719,
    "\u30c1\u30c3\u30d7": 3720,
    "\u2581\u547d": 3721,
    "\u964d": 3722,
    "\u2581\u4eca\u56de\u306f": 3723,
    "\u6483": 3724,
    "\u8c5a": 3725,
    "\u30b0\u30eb": 3726,
    "\u3044\u3044\u3088": 3727,
    "\u3058\u3083\u306a\u3044\u306e": 3728,
    "\u8eab\u4f53": 3729,
    "\u2581\u609f\u7a7a": 3730,
    "\u602a\u6211": 3731,
    "\u512a\u3057\u3044": 3732,
    "\u5fc5\u8981\u304c\u3042\u308a\u307e\u3059": 3733,
    "\u2581\u3044\u3044\u305e": 3734,
    "\u624b\u4f1d\u3063\u3066": 3735,
    "\u30dc\u30fc": 3736,
    "\u5f7c\u5973\u304c": 3737,
    "\u306e\u7537": 3738,
    "\u82e5\u3044": 3739,
    "\u2581\u30af\u30ed": 3740,
    "\u5c45\u305f": 3741,
    "\u300e": 3742,
    "\u2581\u30bd": 3743,
    "\u30d6\u30eb\u30fc": 3744,
    "\u30c1\u30a7": 3745,
    "\u4ecb": 3746,
    "\u3060\u308d\u3046\u304b": 3747,
    "\u99ac\u9e7f": 3748,
    "\u2581\u4f55\u3066": 3749,
    "\u5916\u306b": 3750,
    "\u77e5\u3089\u306a\u304b\u3063\u305f": 3751,
    "\u304d\u3063\u3068": 3752,
    "\u5fd8\u308c\u305f": 3753,
    "\u304b\u304b\u3063\u3066": 3754,
    "\u5c06\u6765": 3755,
    "\u7701": 3756,
    "\u30e9\u30b9": 3757,
    "\u2581\u5f15\u304d": 3758,
    "\u8aad\u3093\u3067": 3759,
    "\u898b\u3048\u3066": 3760,
    "\u6211\u3005\u304c": 3761,
    "\u3084\u308a\u305f\u3044": 3762,
    "\u3044\u3064": 3763,
    "\u4ed6\u306b": 3764,
    "\u3060\u3063\u305f\u304b\u3089": 3765,
    "\u308f\u3051\u306a\u3044": 3766,
    "\u7121\u4e8b": 3767,
    "\u5f7c\u5973\u306b": 3768,
    "\u2581\u5165\u3063\u3066": 3769,
    "\u30b3\u30f3\u30d4\u30e5\u30fc\u30bf": 3770,
    "\u8105": 3771,
    "\u6700\u7d42": 3772,
    "\u601d\u3044\u307e\u3059": 3773,
    "\u306e\u4e0a": 3774,
    "\u4e8b\u4ef6\u306e": 3775,
    "\u76ae": 3776,
    "\u9045\u3044": 3777,
    "\u6226\u95d8": 3778,
    "\u2581\u98df\u3079": 3779,
    "\u5de8\u5927\u306a": 3780,
    "\u8a98\u62d0": 3781,
    "\u30c8\u30ea": 3782,
    "\u306b\u3068\u3063\u3066\u306f": 3783,
    "\u5b58\u5728\u3059\u308b": 3784,
    "\u5168\u3066\u3092": 3785,
    "\u811a": 3786,
    "\u76ee\u304c": 3787,
    "\u6b7b\u4f53": 3788,
    "\u98ef": 3789,
    "\u5947\u8de1": 3790,
    "\u5fa1": 3791,
    "\u3092\u5f97\u308b": 3792,
    "\u5206\u3067": 3793,
    "\u547c\u3093\u3067": 3794,
    "\u306b\u306a\u3063\u305f\u3089": 3795,
    "\u8074": 3796,
    "\u5f53\u3066": 3797,
    "\u2581\u672c\u5f53\u306f": 3798,
    "\u3092\u53d6\u308b": 3799,
    "\u30ef\u30a4": 3800,
    "\u5f8c\u308d\u306b": 3801,
    "\u5411\u3053\u3046": 3802,
    "\u7136": 3803,
    "\u59ff\u3092": 3804,
    "\u3066\u304f\u308c\u308b": 3805,
    "\u7720": 3806,
    "\u3059\u308b\u306e\u304b": 3807,
    "\u3054\u304f": 3808,
    "\u5316\u5b66": 3809,
    "\u2581\u3046\u30fc\u3093": 3810,
    "\u2581\u30c9\u30a2": 3811,
    "\u2581\u306a\u3093\u3068": 3812,
    "\u30e1\u30c7\u30a3\u30a2": 3813,
    "\u7d0d\u5f97": 3814,
    "\u5e2f": 3815,
    "\u4e03": 3816,
    "\u767a\u660e": 3817,
    "\u3057\u304b\u3063\u305f": 3818,
    "\u30a2\u30a4": 3819,
    "\u702c": 3820,
    "\u975e": 3821,
    "\u5f7c\u3089\u306e": 3822,
    "\u6d41\u308c": 3823,
    "\u5b66\u6821\u306b": 3824,
    "\u3065\u3051": 3825,
    "\u2581\u601d\u3063\u305f": 3826,
    "\u554f\u984c\u306f": 3827,
    "\u30af\u30ed": 3828,
    "\u2581\u52dd\u624b\u306b": 3829,
    "\u6551": 3830,
    "\u3082\u7121\u3044": 3831,
    "\u77e5\u308a\u305f\u3044": 3832,
    "\u8ffd": 3833,
    "\u5bfe\u8c61": 3834,
    "\u3092\u63a2\u3057\u3066": 3835,
    "\u88c1\u5224": 3836,
    "\u82b8\u8853": 3837,
    "\u304f\u306a\u308b": 3838,
    "\u5e74\u524d\u306e": 3839,
    "\u75c5\u9662\u306b": 3840,
    "\u3065": 3841,
    "\u306f\u3069\u3046\u3060": 3842,
    "\u30d1\u30a4": 3843,
    "\u2581\u660e\u3089\u304b\u306b": 3844,
    "\u2581\u30bb": 3845,
    "er": 3846,
    "\u52dd\u3064": 3847,
    "\u81ea\u5206\u304c": 3848,
    "\u30c7\u30b9": 3849,
    "\u7f72": 3850,
    "\u2581\u30cf\u30cf\u30cf": 3851,
    "\u885b\u661f": 3852,
    "\u7c21\u5358\u306a": 3853,
    "\u88fd\u54c1": 3854,
    "\u82e5\u8005": 3855,
    "\u2581\u5371\u967a": 3856,
    "\u8cb7\u3063\u305f": 3857,
    "\u2581\u3053\u3046\u3057\u3066": 3858,
    "\u30af\u30ea": 3859,
    "\u4e00\u90e8": 3860,
    "\u3059\u308b\u3088": 3861,
    "\u3042\u3093\u306a": 3862,
    "\u751f\u7523": 3863,
    "\u2581\u3084\u306f\u308a": 3864,
    "\u30b9\u30fc": 3865,
    "\u5712": 3866,
    "\u9ad8\u304f": 3867,
    "\u6c37": 3868,
    "\u2581\u8a3c\u62e0": 3869,
    "\u3049": 3870,
    "\u2581\u304b\u3064\u3066": 3871,
    "\u9054\u304c": 3872,
    "\u30a2\u30e1\u30ea\u30ab\u4eba": 3873,
    "\u2581\u6c17\u304c": 3874,
    "\u4ec0\u4e48": 3875,
    "\u52dd\u3061": 3876,
    "\u30a1": 3877,
    "dna": 3878,
    "\u5dfb\u304d": 3879,
    "\u5171\u306b": 3880,
    "\u3044\u3067": 3881,
    "\u3067\u3057\u3087\u3046\u306d": 3882,
    "\u8ced\u3051": 3883,
    "\u601d\u3048": 3884,
    "\u5de5": 3885,
    "\u2581\u9283\u3092": 3886,
    "\u307b\u3046\u304c\u3044\u3044": 3887,
    "?\u300b": 3888,
    "\u30c1\u30e5\u30fc": 3889,
    "\u529b\u304c": 3890,
    "\u6311\u6226": 3891,
    "\u2581\u30eb\u30fc": 3892,
    "\u2581\u305f\u3068\u3048": 3893,
    "\u2581\u69d8\u3005\u306a": 3894,
    "\u7d76": 3895,
    "\u2581\u4f60": 3896,
    "\u6b8b\u308b": 3897,
    "\u306e\u524d\u306b": 3898,
    "\u30d1\u30b9": 3899,
    "\u306a\u3093\u3060\u3051\u3069": 3900,
    "\u304a\u524d\u304c": 3901,
    "\u3042\u3044\u3064": 3902,
    "\u2581\u897f": 3903,
    "\u8208\u5473": 3904,
    "\u306b\u3057\u308d": 3905,
    "\u52dd\u8ca0": 3906,
    "\u5948": 3907,
    "\u7802": 3908,
    "\u8a71\u305b": 3909,
    "\u3068\u306f\u9055\u3046": 3910,
    "\u2581\u305d\u3063\u304b": 3911,
    "\u2581\u65e9": 3912,
    "\u2581\u79c1\u9054\u304c": 3913,
    "\u8cb7\u3044": 3914,
    "\u99c5": 3915,
    "\u6f14\u594f": 3916,
    "\u5e78\u904b": 3917,
    "\u306a\u304d\u3083\u3044\u3051\u306a\u3044": 3918,
    "\u5c0f\u3055\u3044": 3919,
    "\u3089\u308c\u307e\u3057\u305f": 3920,
    "\u305f\u304f\u3066": 3921,
    "\u2581\u305d\u3046\u3067\u3059": 3922,
    "\u4e73": 3923,
    "\u30b0\u30e9": 3924,
    "\u5bb6\u3092": 3925,
    "\u59eb": 3926,
    "\u3092\u3057\u3066\u3044\u308b": 3927,
    "\u7a81": 3928,
    "\u7e01": 3929,
    "\u5fc5\u8981\u306f\u306a\u3044": 3930,
    "\u4e16\u754c\u306e": 3931,
    "\u308f\u305a\u304b": 3932,
    "\u96c6\u4e2d": 3933,
    "\u8feb": 3934,
    "\u5742": 3935,
    "\u308f\u304b\u308a\u307e\u305b\u3093": 3936,
    "\u4ee5\u524d": 3937,
    "\u9084": 3938,
    "\u6c17\u3065\u3044\u305f": 3939,
    "\u6d6e": 3940,
    "\u5909\u66f4": 3941,
    "\u7d20\u6575": 3942,
    "\u65b9\u3092": 3943,
    "\u5b50\u3069\u3082": 3944,
    "\u2581\u30d9\u30f3": 3945,
    "\u5973\u738b": 3946,
    "\u304c\u898b\u3048\u308b": 3947,
    "\u81f3": 3948,
    "\u5927\u52e2": 3949,
    "\u6238": 3950,
    "\u500b\u4eba": 3951,
    "\u8105\u5a01": 3952,
    "\u7d50\u5a5a\u5f0f": 3953,
    "\u2581\u6025": 3954,
    "\u8efd": 3955,
    "\u3055\u306a\u3044": 3956,
    "\u2581\u30d3\u30eb": 3957,
    "\u30ad\u30e3\u30f3\u30d7": 3958,
    "\u3069\u3046\u3057\u305f": 3959,
    "\u91d1\u6301\u3061": 3960,
    "\u2581D": 3961,
    "\u89e6": 3962,
    "\u4fc2": 3963,
    "\u5973\u6027\u304c": 3964,
    "\u601d\u3063\u3066\u305f": 3965,
    "\u4e00\u4f53": 3966,
    "\u306e\u547d": 3967,
    "\u2581\u3084\u3041": 3968,
    "\u30d9\u30f3": 3969,
    "\u30d5\u30ea\u30fc": 3970,
    "\u8d77\u3053\u3063\u305f": 3971,
    "\u3060\u3051\u306e": 3972,
    "\u5f31\u3044": 3973,
    "\u304c\u6b7b\u3093\u3060": 3974,
    "\u3044\u305f\u3044": 3975,
    "\u30b9\u30c6": 3976,
    "\u6b20": 3977,
    "\u7a4d": 3978,
    "\u2581\u305d\u308c\u3088\u308a": 3979,
    "\u90e8\u306e": 3980,
    "\u30dc\u30f3": 3981,
    "\u2581\u4ffa\u306b\u306f": 3982,
    "\u5c11": 3983,
    "\u306e\u591c": 3984,
    "\u9375": 3985,
    "\u5e38": 3986,
    "\u304f\u306a\u3044": 3987,
    "\u4e57\u3063\u3066": 3988,
    "\u306e\u4ef6": 3989,
    "\u4e3b\u7fa9": 3990,
    "\u2581\u304d\u307f": 3991,
    "\u3078\u3093": 3992,
    "\u307f\u306a": 3993,
    "\u8d77\u304d\u305f": 3994,
    "\u5fa9\u8b90": 3995,
    "\u52dd": 3996,
    "\u2581\u3069\u3046\u3057\u3088\u3046": 3997,
    "\u5168\u304f": 3998,
    "\u4f55\u3092\u3057\u305f": 3999,
    "\u8003\u3048\u65b9": 4000,
    "\u77e5\u3063\u3066\u3044\u307e\u3059": 4001,
    "\u990a": 4002,
    "\u5b8c\u4e86": 4003,
    "\u533b\u5b66": 4004,
    "\u8005\u3060": 4005,
    "\u2581\u6025\u3052": 4006,
    "\u8a8d\u3081": 4007,
    "\u2581\u30c6\u30e1\u30a8": 4008,
    "\u2581\u30ce\u30fc": 4009,
    "\u3053\u308d": 4010,
    "\u5bb9": 4011,
    "\u95d8": 4012,
    "\u305f\u307e": 4013,
    "\u4f50": 4014,
    "\u5fd7": 4015,
    "\u3092\u4f5c\u3063\u305f": 4016,
    "\u30c1\u30e7": 4017,
    "\u5b9f\u969b": 4018,
    "\u516c\u958b": 4019,
    "\u2581\u5b50\u4f9b\u305f\u3061": 4020,
    "\u7d04\u675f\u3057\u305f": 4021,
    "\u554f": 4022,
    "\u9031": 4023,
    "\u2581\u5343": 4024,
    "\u30c6\u30fc\u30d7": 4025,
    "\u305b\u3066": 4026,
    "\u3048\u3048": 4027,
    "\u9769\u547d": 4028,
    "\u2581\u4e00\u4eba\u3067": 4029,
    "\u2581\u3084\u3063\u3071": 4030,
    "\u3070\u3063\u304b\u308a": 4031,
    "\u5b50\u4f9b\u305f\u3061": 4032,
    "\u7d9a\u304d": 4033,
    "\u983c\u3093\u3060": 4034,
    "\u53ef\u80fd\u306a": 4035,
    "\u8fbc\u3081": 4036,
    "\u2581\u5bdd": 4037,
    "\u98df\u4e8b": 4038,
    "\u30c7\u30fc\u30bf\u3092": 4039,
    "\u307e\u308b": 4040,
    "\u8b66\u90e8": 4041,
    "\u96a0\u3057": 4042,
    "\u30e6\u30fc": 4043,
    "\u5f53\u305f\u308a": 4044,
    "\u756a\u7d44": 4045,
    "\u4e0a\u624b": 4046,
    "\u30bb\u30f3": 4047,
    "\u3093\u3060\u3063\u3066": 4048,
    "\u3092\u6301\u3063\u305f": 4049,
    "\u305f\u3093\u3067\u3059": 4050,
    "\u6b69\u304d": 4051,
    "\u6b7b\u3093\u3067": 4052,
    "\u30c8\u30ed": 4053,
    "\u4e0a\u304c\u3063\u3066": 4054,
    "\u8d77\u3053\u308b": 4055,
    "\u2581\u4ed6\u306b\u3082": 4056,
    "\u7b11\u9854": 4057,
    "\u5e30\u308c": 4058,
    "\u5230\u7740": 4059,
    "\u6700\u5f8c\u306b": 4060,
    "\u2581\u5148\u306b": 4061,
    "\u3093\u3060\u3088\u306d": 4062,
    "\u75db\u3044": 4063,
    "\u3092\u898b\u308d": 4064,
    "\u3092\u4e0e\u3048": 4065,
    "\u65b9\u6cd5\u3067": 4066,
    "\u2581\u5fc5\u8981": 4067,
    "\u52a9": 4068,
    "\u30a4\u30eb": 4069,
    "\u66ff\u3048": 4070,
    "\u2581\u68ee": 4071,
    "\u8a00\u3046\u3068": 4072,
    "\u72af\u7f6a\u8005": 4073,
    "\u2581\u6771": 4074,
    "\u2581\u666e\u901a\u306e": 4075,
    "\u7206\u5f3e": 4076,
    "\u306a\u3057\u3067": 4077,
    "\u534a\u5206": 4078,
    "\u2581\u4eba\u985e": 4079,
    "\u2581\u6642\u3005": 4080,
    "\u2581\u3042\u306a\u305f\u306b\u306f": 4081,
    "\u4ffa\u9054": 4082,
    "\u5fc5\u305a": 4083,
    "\u2581\u4e8b\u6545": 4084,
    "\u5965": 4085,
    "\u306e\u307e\u307e": 4086,
    "\u305d\u3046\u601d\u3046": 4087,
    "\u624b\u304c": 4088,
    "\u5fc5\u8981\u306a\u3044": 4089,
    "\u2581\u307b\u3093\u3068": 4090,
    "\u53d6\u3063\u305f": 4091,
    "\u2581\u50d5\u306b": 4092,
    "\u30b4\u30df": 4093,
    "\u5c11\u306a\u3044": 4094,
    "\u306f\u4f55\u3060": 4095,
    "\u3082\u3061\u308d\u3093": 4096,
    "\u52d5\u304b": 4097,
    "\u98db\u884c": 4098,
    "\u30ca\u30f3": 4099,
    "\u30bb\u30f3\u30c8": 4100,
    "\u63a5\u89e6": 4101,
    "\u2581\u601d\u3063\u3066": 4102,
    "\u9032\u3093\u3067": 4103,
    "\u3044\u3051": 4104,
    "\u30c7\u30fc": 4105,
    "\u30d0\u30eb": 4106,
    "\u30e6": 4107,
    "\u3070\u3044\u3044": 4108,
    "\u2581\u30a2\u30a4": 4109,
    "\u306e\u304a\u304b\u3052\u3067": 4110,
    "\u3063\u3066\u306e\u306f": 4111,
    "\u2581\u79d1\u5b66": 4112,
    "\u2581\u30de\u30a4\u30b1\u30eb": 4113,
    "\u6b8b\u5ff5": 4114,
    "\u304b\u308c\u305f": 4115,
    "\u2581\u3042\u3068\u306f": 4116,
    "\u2581\u8b66\u5bdf\u306b": 4117,
    "\u2581\u3064\u3044\u306b": 4118,
    "\u306e\u7814\u7a76": 4119,
    "\u3081\u305f": 4120,
    "\u904e\u304e\u308b": 4121,
    "\u796d": 4122,
    "\u30c8\u30eb": 4123,
    "\u306e\u4ef2\u9593": 4124,
    "\u7b11\u3063\u3066": 4125,
    "\u4e0d\u601d\u8b70": 4126,
    "\u30e8\u30fc\u30ed\u30c3\u30d1": 4127,
    "\u9818\u57df": 4128,
    "\u77e5\u3063\u3066\u3044\u305f": 4129,
    "\u3092\u5909\u3048\u308b": 4130,
    "\u8a18": 4131,
    "\u691c": 4132,
    "\u623b\u3063\u3066\u304f\u308b": 4133,
    "\u3088\u3046\u306b\u306a\u3063\u305f": 4134,
    "\u697d\u3057\u307f": 4135,
    "\u4f9d\u983c": 4136,
    "\u30a6\u30f3": 4137,
    "\u3060\u3089\u3051": 4138,
    "\u5929\u624d": 4139,
    "\u2581\u6700\u9ad8\u306e": 4140,
    "\u304b\u304b\u3063\u305f": 4141,
    "16": 4142,
    "\u51fa\u767a": 4143,
    "17": 4144,
    "\u306f\u4f55\u3082": 4145,
    "\u6700\u521d\u306b": 4146,
    "\u3055\u305b\u3066\u304f\u308c": 4147,
    "\u2581\u3069\u3053\u306b\u3044\u308b": 4148,
    "\u2581\u4e8c\u5ea6\u3068": 4149,
    "\u304a\u308b": 4150,
    "\u2581\u3053\u3053\u306b\u306f": 4151,
    "\u9055\u3044\u307e\u3059": 4152,
    "\u2581\u75c5\u6c17": 4153,
    "\u304c\u8981\u308b": 4154,
    "\u56fd\u6c11": 4155,
    "\u898b\u3064\u304b\u308b": 4156,
    "\u30c3\u30c4": 4157,
    "\u305d\u3046\u3044\u3046": 4158,
    "\u5bdd\u308b": 4159,
    "\u64cd\u4f5c": 4160,
    "\u5f8c\u3067": 4161,
    "\u30b0\u30ea\u30fc\u30f3": 4162,
    "\u3088\u3046\u3060\u306a": 4163,
    "\u4e2d\u592e": 4164,
    "\u6559\u3048\u3066\u304f\u308c": 4165,
    "\u524d\u304b\u3089": 4166,
    "\u30c3\u30c1": 4167,
    "\u89b3\u5bdf": 4168,
    "\u2581\u89aa\u7236": 4169,
    "\u96ea": 4170,
    "\u5175\u5668": 4171,
    "\u3092\u5909\u3048": 4172,
    "\u2581\u3044\u3044\u3084": 4173,
    "\u5225\u308c": 4174,
    "at": 4175,
    "\u4e0a\u3052\u3066": 4176,
    "\u3092\u77e5\u3063\u3066\u3044\u308b": 4177,
    "\u2581\u3042\u306a\u305f\u65b9": 4178,
    "\u2581\u4eca\u5ea6": 4179,
    "\u904a\u3093\u3067": 4180,
    "70": 4181,
    "\u8d77\u304d": 4182,
    "\u5974\u3060": 4183,
    "\u59cb\u3081\u307e\u3057\u305f": 4184,
    "\u258150": 4185,
    "\u3044\u305f\u306e": 4186,
    "\u30c6\u30fc\u30d6\u30eb": 4187,
    "\u7279\u5225": 4188,
    "\u602a\u7269": 4189,
    "\u304a\u898b\u305b": 4190,
    "\u30b7\u30e3\u30c4": 4191,
    "\u3060\u3051\u3088": 4192,
    "\u51fa\u4f1a\u3063\u305f": 4193,
    "\u8535": 4194,
    "\u6483\u3061": 4195,
    "\u4f7f\u3048": 4196,
    "\u2581\u7236\u306f": 4197,
    "\u306b\u306a\u3063\u3066\u308b": 4198,
    "\u2581\u5b9f": 4199,
    "\u2581\u30ab\u30e1\u30e9": 4200,
    "\u5f7c\u3089": 4201,
    "\u7cbe": 4202,
    "\u2581\u6bba\u3059": 4203,
    "\u2581\u30d5\u30e9\u30f3\u30af": 4204,
    "\u3054\u98ef": 4205,
    "\u96f2": 4206,
    "\u30de\u30fc\u30af": 4207,
    "\u8981\u7d20": 4208,
    "\u3057\u3087\u3046": 4209,
    "\u306e\u53cb\u4eba": 4210,
    "\u2581\u304a\u3044\u304a\u3044": 4211,
    "\u6255\u3046": 4212,
    "\u3092\u4f5c\u308a": 4213,
    "\u2581\u307c\u304f": 4214,
    "\u5150": 4215,
    "\u4e5d": 4216,
    "\u308f\u3088\u306d": 4217,
    "\u6b21\u7b2c": 4218,
    "\u3076\u3063": 4219,
    "\u2581\u5b89\u5168": 4220,
    "\u30c7\u30eb": 4221,
    "\u30a8\u30a4": 4222,
    "\u2581\u672c\u7269\u306e": 4223,
    "\u30a4\u30fc": 4224,
    "\u2581\u81ea\u5206\u3092": 4225,
    "\u6012\u3063\u3066": 4226,
    "\u5426\u5b9a": 4227,
    "\u6301\u3063\u3066\u3044\u308b": 4228,
    "\u4e0a\u304c\u308a": 4229,
    "\u624b\u306b\u5165\u308c\u305f": 4230,
    "\u3058\u3083\u3042\u308a\u307e\u305b\u3093": 4231,
    "\u8cb4": 4232,
    "\u2581B": 4233,
    "\u62b5\u6297": 4234,
    "\u4eba\u6c17": 4235,
    "\u98df\u3079\u305f": 4236,
    "\u305f\u3060\u306e": 4237,
    "\u6599": 4238,
    "\u5199\u771f\u3092": 4239,
    "\u2581C": 4240,
    "\u306e\u3053\u3068\u3060": 4241,
    "\u306e\u3088\u3046\u3060": 4242,
    "\u2581\u8a00\u3046": 4243,
    "\u9774": 4244,
    "\u304c\u3067\u304d\u308b": 4245,
    "\u7acb\u3064": 4246,
    "\u2581\u826f\u304b\u3063\u305f": 4247,
    "\u2581\u30ac": 4248,
    "\u3051\u3066": 4249,
    "\u4e16\u8a71": 4250,
    "\u2581\u4eca\u591c\u306f": 4251,
    "\u2581\u6b63": 4252,
    "\u4f1a\u3048\u308b": 4253,
    "\u5909\u308f\u308a": 4254,
    "\u8005\u3092": 4255,
    "\u30d9\u30a4": 4256,
    "\u30ca\u30a4\u30c8": 4257,
    "\u3057\u306a\u3051\u308c\u3070": 4258,
    "\u30ed\u30a6": 4259,
    "\u4ee5\u5916": 4260,
    "\u4e16\u754c\u306b": 4261,
    "\u2581\u30a6\u30a9\u30eb\u30bf\u30fc": 4262,
    "\u5e30\u3063\u305f": 4263,
    "\u2581\u30af": 4264,
    "\u907f\u96e3": 4265,
    "\u7d42\u4e86": 4266,
    "\u30c7\u30a4": 4267,
    "\u5c45\u306a\u3044": 4268,
    "\u523b": 4269,
    "\u73fe\u308c": 4270,
    "\u2581\u601d\u3046": 4271,
    "\u9001\u3063\u3066": 4272,
    "\u6e1b": 4273,
    "\u2581\u305b\u3063\u304b\u304f": 4274,
    "\u3088\u3046\u306b\u306a\u308a\u307e\u3057\u305f": 4275,
    "\u672c\u90e8": 4276,
    "\u2581\u304f\u3063": 4277,
    "\u308d\u3088": 4278,
    "\u629c\u304d": 4279,
    "\u30cd\u30ba\u30df": 4280,
    "\u898f\u5247": 4281,
    "\u9078\u6319": 4282,
    "\u306b\u4e57\u3063\u3066": 4283,
    "\u2581\u5f8c\u308d": 4284,
    "\u5fc3\u81d3": 4285,
    "\u3092\u6b62\u3081": 4286,
    "\u2581\u81ea\u6bba": 4287,
    "\u2581\u4e3b": 4288,
    "\u2581\u304a\u3044\u3057\u3044": 4289,
    "\u5bdd\u3066": 4290,
    "\u2581\u5974": 4291,
    "\u5206\u5b50": 4292,
    "\u5f53\u305f\u308a\u524d": 4293,
    "\u3092\u4f7f\u3044": 4294,
    "\u8ecd\u968a": 4295,
    "\u2581\u9ed9\u308c": 4296,
    "\u30db\u30fc\u30eb": 4297,
    "\u967d": 4298,
    "\u9078": 4299,
    "\u5e8a": 4300,
    "\u6bb5\u968e": 4301,
    "\u2581\u4eca\u5f8c": 4302,
    "\u554f\u984c\u3092": 4303,
    "\u6c34\u3092": 4304,
    "\u5fc3\u306e": 4305,
    "\u96a0": 4306,
    "\u2581\u5e78\u305b": 4307,
    "\u305d\u3046\u3068": 4308,
    "\u9055\u3063\u305f": 4309,
    "\u79c1\u3082": 4310,
    "\u2581\u541b\u306b\u306f": 4311,
    "\u306e\u3046\u3061": 4312,
    "\u306e\u4e00\u3064": 4313,
    "\u82f1\u96c4": 4314,
    "\u3057\u305f\u304b": 4315,
    "\u60aa\u304f\u306a\u3044": 4316,
    "\u2581\u635c\u67fb": 4317,
    "\u8d70": 4318,
    "\u2581\u306f\u3063": 4319,
    "\u76e3\u7763": 4320,
    "\u53b3\u3057\u3044": 4321,
    "\u8a00\u308f\u306a\u3044\u3067": 4322,
    "\u3057\u3066\u3044\u308b\u306e\u3067\u3059": 4323,
    "\u4f7f\u3063\u305f": 4324,
    "\u6b62\u3081\u308b": 4325,
    "\u2581\u3044\u3044\u306d": 4326,
    "\u6e08\u307f": 4327,
    "\u8abf\u5b50": 4328,
    "\u6b8b\u308a": 4329,
    "\u2581\u4ffa\u3068": 4330,
    "\u3044\u3066\u3082": 4331,
    "\u3044\u3089\u306a\u3044": 4332,
    "\u305b\u3088": 4333,
    "\u72fc": 4334,
    "\u30e9\u30a4\u30a2\u30f3": 4335,
    "\u52a0\u3048": 4336,
    "\u305f\u3061\u306e": 4337,
    "\u5bb9\u7591\u8005": 4338,
    "\u8336": 4339,
    "\u80cc\u4e2d": 4340,
    "\u306e\u4e8b\u306f": 4341,
    "\u8a70\u3081": 4342,
    "\u2581\u66f4\u306b": 4343,
    "\u53e3\u3092": 4344,
    "\u2581\u805e\u3044\u3066\u304f\u308c": 4345,
    "\u2581\u30b3\u30a4\u30c4": 4346,
    "\u30af\u30bf\u30fc": 4347,
    "\u60aa\u9b54": 4348,
    "\u614b\u5ea6": 4349,
    "\u30d2\u30c8": 4350,
    "\u3057\u307e\u3044\u307e\u3059": 4351,
    "\u3068\u3067\u3082": 4352,
    "\u751f\u304d\u3066\u308b": 4353,
    "\u3044\u304b\u306a\u3044": 4354,
    "\u306e\u4e2d\u306e": 4355,
    "\u2581\u3084\u3063\u3066\u307f": 4356,
    "\u671b\u3093\u3067": 4357,
    "\u93e1": 4358,
    "\u5bcc": 4359,
    "\u624b\u304c\u304b\u308a": 4360,
    "\u6d88\u3048\u3066": 4361,
    "\u2581\u305d\u3046\u3058\u3083\u306a\u3044": 4362,
    "\u2581\u65b0\u305f\u306a": 4363,
    "\u304c\u3042\u308b\u3068": 4364,
    "\u5b50\u4f9b\u3092": 4365,
    "\u5c04": 4366,
    "\u2581\u5929": 4367,
    "\u2581\u305d\u3053\u306e": 4368,
    "\u7d30": 4369,
    "\u5171\u540c": 4370,
    "\u2581\u3069\u308c\u3060\u3051": 4371,
    "\u5f35": 4372,
    "45": 4373,
    "\u2581\u4f55\u5ea6\u3082": 4374,
    "\u8aac\u5f97": 4375,
    "\u2581\u5974\u3089\u306f": 4376,
    "\u2581\u5211\u4e8b": 4377,
    "\u6319\u3052": 4378,
    "\u2581\u90aa\u9b54": 4379,
    "\u3067\u3042\u308c\u3070": 4380,
    "\u30eb\u30fc\u30c8": 4381,
    "\u4e3a": 4382,
    "\u8352": 4383,
    "V": 4384,
    "\u85ac\u3092": 4385,
    "\u306f\u79c1\u306e": 4386,
    "\u2581\u8cb4\u65b9": 4387,
    "\u5bfa": 4388,
    "\u2581\u5357": 4389,
    "\u8a08": 4390,
    "\u82e6": 4391,
    "\u2581\u7121\u4e8b": 4392,
    "\u2581\u98a8": 4393,
    "\u2581\u3053\u306e\u4eba": 4394,
    "\u6709\u540d\u306a": 4395,
    "\u764c": 4396,
    "\u2581\u653b\u6483": 4397,
    "\u6c7a\u65ad": 4398,
    "\u2581\u5927\u4e08\u592b\u3067\u3059": 4399,
    "\u2581\u672a\u6765": 4400,
    "\u3092\u4f7f\u3063\u305f": 4401,
    "\u76f4\u63a5": 4402,
    "\u76f8\u624b\u306b": 4403,
    "\u2581\u30e6": 4404,
    "\u2581\u7121\u99c4": 4405,
    "\u898b\u305f\u3044": 4406,
    "\u4fee\u7406": 4407,
    "\u2581\u82e5\u3044": 4408,
    "\u30ad\u30e5": 4409,
    "\u30d6\u30ed\u30c3\u30af": 4410,
    "\u51fa\u8840": 4411,
    "\u306e\u305b\u3044\u3060": 4412,
    "\u62db\u5f85": 4413,
    "\u559c\u3073": 4414,
    "\u306b\u9055\u3044\u306a\u3044": 4415,
    "\u2581\u3046\u308b\u3055\u3044": 4416,
    "\u3057\u3066\u3044\u3066": 4417,
    "\u8208\u5473\u6df1\u3044": 4418,
    "\u9023\u90a6": 4419,
    "\u56de\u308a": 4420,
    "\u30be": 4421,
    "\u2581\u3069\u3046\u3057\u3066\u3082": 4422,
    "\u6848\u5185": 4423,
    "\u9ed9\u3063\u3066": 4424,
    "\u2581\u305d\u3046\u3067\u3059\u304b": 4425,
    "\u306b\u306a\u308c": 4426,
    "\u9055\u53cd": 4427,
    "\u2581\u5927\u4e08\u592b\u3088": 4428,
    "\u6642\u9593\u3060": 4429,
    "\u2581\u826f\u304f": 4430,
    "\u30bf\u30a4\u30e0": 4431,
    "\u8da3\u5473": 4432,
    "\u6d3b": 4433,
    "\u3060\u3063\u305f\u308f": 4434,
    "\u5e74\u5f8c": 4435,
    "\u826f": 4436,
    "\u2581\u751f\u304d\u3066": 4437,
    "\u2581\u30de\u30b8\u3067": 4438,
    "\u4eba\u5f62": 4439,
    "\u3054\u3081\u3093": 4440,
    "\u601d\u8003": 4441,
    "\u6c5a": 4442,
    "\u60b2\u3057\u3044": 4443,
    "\u672c\u7269": 4444,
    "\u8d64\u3093\u574a": 4445,
    "\u30d2\u30fc\u30ed\u30fc": 4446,
    "\u9053\u8def": 4447,
    "\u307e\u308c": 4448,
    "\u5b89\u5b9a": 4449,
    "\u3066\u3057\u307e\u3063\u305f": 4450,
    "\u30e1\u30ad\u30b7\u30b3": 4451,
    "\u8a73\u7d30": 4452,
    "\u63a2\u5075": 4453,
    "\u4e8b\u696d": 4454,
    "\u4f53\u304c": 4455,
    "\u2581\u30aa\u30ec\u305f\u3061": 4456,
    "\u5185\u306b": 4457,
    "\u3092\u884c\u3046": 4458,
    "\u71c3\u6599": 4459,
    "\u2581\u30da": 4460,
    "\u306a\u3051\u308c\u3070\u306a\u308a\u307e\u305b\u3093": 4461,
    "\u30a6\u30a7\u30a4": 4462,
    "\u2581\u3069\u3053\u3060": 4463,
    "\u96c7": 4464,
    "\u2581\u518d": 4465,
    "\u4ee3\u8868": 4466,
    "\u308d\u3046\u3068": 4467,
    "\u308f\u304b\u3063\u3066\u308b": 4468,
    "\u6bb5": 4469,
    "\u7403": 4470,
    "\u30b8\u30e7": 4471,
    "\u6483\u3064": 4472,
    "\u30b9\u30c6\u30fc\u30b8": 4473,
    "\u5b50\u304c": 4474,
    "\u30c8\u30e9\u30c3\u30af": 4475,
    "\u81ea\u6bba": 4476,
    "\u306f\u305d\u306e": 4477,
    "\u2581\u3069\u3046\u3057\u305f\u3093\u3060": 4478,
    "\u307e\u3057": 4479,
    "\u8a71\u304c": 4480,
    "\u2581\u8179": 4481,
    "\u5d50": 4482,
    "\u3053\u3053\u3078": 4483,
    "\u306b\u4f1a\u3063\u305f": 4484,
    "\u968e\u6bb5": 4485,
    "\u9032\u6b69": 4486,
    "\u738b\u5b50": 4487,
    "\u30e1\u30c3\u30bb\u30fc\u30b8\u3092": 4488,
    "\u2581\u306a\u3093\u3068\u304b": 4489,
    "\u306e\u58f0": 4490,
    "\u697d\u3057\u3093\u3067": 4491,
    "\u2581\u3069\u3046\u3084\u3089": 4492,
    "\u5206\u91ce": 4493,
    "\u3068\u3044\u3046\u4e8b": 4494,
    "\u2581\u3042\u308a\u304c\u3068": 4495,
    "\u3044\u3089": 4496,
    "\u2581\u6625": 4497,
    "\u2581\u533b\u7642": 4498,
    "\u9664": 4499,
    "\u5411\u304d": 4500,
    "\u30a4\u30f3\u30c9": 4501,
    "\u5f88": 4502,
    "\u7279\u5225\u306a": 4503,
    "\u2581\u60aa\u9b54": 4504,
    "\u2581\u30df\u30b9": 4505,
    "\u2581\u81ea": 4506,
    "\u96e2\u308c": 4507,
    "\u4e0a\u53f8": 4508,
    "\u306f\u4eca": 4509,
    "\u4f59": 4510,
    "\u2581\u6700\u521d\u306f": 4511,
    "\u3053\u308c\u304b\u3089": 4512,
    "\u2581\u81ea\u7531": 4513,
    "\u6307\u8f2a": 4514,
    "\u4e8b\u304c\u3042\u308b": 4515,
    "\u30c0\u30a4": 4516,
    "\u8457": 4517,
    "\u2581\u592a\u967d": 4518,
    "\u76f8\u5f53": 4519,
    "\u7537\u306e": 4520,
    "\u512a": 4521,
    "\u2581\u30b8\u30e0": 4522,
    "\u6255\u3063\u3066": 4523,
    "\u2581\u738b": 4524,
    "\u306e\u307f": 4525,
    "\u76ee\u306e": 4526,
    "\u30a2\u30af\u30bb\u30b9": 4527,
    "\u5efa\u8a2d": 4528,
    "\u53bb\u3063\u305f": 4529,
    "\u4eca\u307e\u3067": 4530,
    "\u2581\u7c21\u5358\u306b": 4531,
    "\u3068\u547c\u3070\u308c\u308b": 4532,
    "\u753b": 4533,
    "\u30de\u30eb": 4534,
    "\u51fa\u3066\u304f\u308b": 4535,
    "\u2581\u6771\u4eac": 4536,
    "\u2581\u3084\u308a": 4537,
    "\u507d": 4538,
    "\u7d9a\u304f": 4539,
    "\u2581d": 4540,
    "\u2581\u30aa\u30ec\u304c": 4541,
    "\u5802": 4542,
    "\u6163\u308c": 4543,
    "\u3059\u3054\u304f": 4544,
    "\u30b5\u30eb": 4545,
    "\u6a19\u7684": 4546,
    "\u6570\u5b66": 4547,
    "\u306f\u8ab0": 4548,
    "\u8b0e": 4549,
    "\u3054\u5b58\u77e5": 4550,
    "\u8db3\u3092": 4551,
    "\u304c\u591a\u3044": 4552,
    "\u90e8\u9577": 4553,
    "\u65e5\u672c": 4554,
    "\u4e45": 4555,
    "\u6d99": 4556,
    "\u63f4\u52a9": 4557,
    "\u3068\u601d\u3044\u307e\u3057\u305f": 4558,
    "\u66b4\u529b": 4559,
    "\u2581\u30de\u30eb": 4560,
    "\u52e2": 4561,
    "\u5fd8\u308c\u308b": 4562,
    "\u69d8\u306a": 4563,
    "\u6700\u521d": 4564,
    "\u7a7a\u6e2f": 4565,
    "\u56f0\u96e3": 4566,
    "\u30b8\u30e3\u30f3": 4567,
    "\u3084\u304c\u3063\u305f": 4568,
    "\u6210\u679c": 4569,
    "\u2581\u30ec\u30d9\u30eb": 4570,
    "\u308b\u306e\u306b": 4571,
    "\u3055\u308c\u3066\u3044\u305f": 4572,
    "\u3064\u304b\u306a\u3044": 4573,
    "\u6b69\u304f": 4574,
    "\u30b9\u30bf\u30fc\u30af": 4575,
    "\u624b\u3067": 4576,
    "\u2581\u3042\u308a\u307e\u305b\u3093": 4577,
    "\u6765\u305f\u306e": 4578,
    "\u306a\u3082\u306e": 4579,
    "\u805e\u304d\u307e\u3057\u305f": 4580,
    "\u52d5\u6a5f": 4581,
    "\u901a\u308a\u306b": 4582,
    "\u6765\u3066\u308b": 4583,
    "\u4e0b\u304c\u3063\u3066": 4584,
    "\u8fd4\u4e8b": 4585,
    "\u64cd": 4586,
    "\u3057\u306a\u304c\u3089": 4587,
    "\u2581\u306a\u3063": 4588,
    "\u3068\u79c1\u306f": 4589,
    "\u2581\u53e4\u3044": 4590,
    "\u518d\u751f": 4591,
    "\u3064\u3051\u308b": 4592,
    "\u30da\u30c3\u30c8": 4593,
    "\u3058\u3083\u306a\u3044\u3088": 4594,
    "\u4f1d": 4595,
    "\u2581\u30c1\u30fc\u30e0": 4596,
    "\u2581\u307b\u3093\u3068\u306b": 4597,
    "\u2581\u3042\u306e\u7537": 4598,
    "\u7406\u60f3": 4599,
    "\u2581\u5ea7\u3063\u3066": 4600,
    "\u3044\u3066\u304f\u308c": 4601,
    "\u4eba\u3005\u306b": 4602,
    "\u2581\u5fc5\u8981\u306a": 4603,
    "\u30f4": 4604,
    "\u5206\u304b\u3089\u3093": 4605,
    "\u2581\u6b63\u76f4": 4606,
    "\u98df\u3044": 4607,
    "\u3092\u9023\u308c\u3066": 4608,
    "\u8f2a": 4609,
    "\u53d6\u308c": 4610,
    "\u7dad\u6301": 4611,
    "\u2581\u4eca\u5e74": 4612,
    "\u4e0d\u8db3": 4613,
    "\u7279\u5fb4": 4614,
    "\u2581\u304a\u306f\u3088\u3046\u3054\u3056\u3044\u307e\u3059": 4615,
    "\u30c8\u30e9\u30d6\u30eb": 4616,
    "\u3057\u3066\u304d\u307e\u3057\u305f": 4617,
    "\u4f55\u304b\u3092": 4618,
    "\u5439": 4619,
    "\u2581\u3053\u308a\u3083": 4620,
    "\u3058\u3083\u3042": 4621,
    "\u3063\u3053": 4622,
    "\u3084\u308b\u3088": 4623,
    "\u30d0\u30a4\u30c8": 4624,
    "it": 4625,
    "\u899a\u3048\u3066\u308b": 4626,
    "\u8ff7\u60d1": 4627,
    "\u3068\u4e00\u7dd2": 4628,
    "\u5339": 4629,
    "\u8a00\u308f\u308c\u3066": 4630,
    "\u7269\u306f": 4631,
    "\u6ce3\u304d": 4632,
    "\u4fe1\u3058": 4633,
    "\u30c7\u30b8\u30bf\u30eb": 4634,
    "\u2581\u500b\u4eba": 4635,
    "\u30b5\u30a4": 4636,
    "\u3057\u306a\u304d\u3083": 4637,
    "\u4eba\u3005\u3092": 4638,
    "\u3068\u3053\u308d\u306b": 4639,
    "\u30b9\u30d4\u30fc\u30c9": 4640,
    "\u2581\u305d\u3046\u3059\u308c\u3070": 4641,
    "or": 4642,
    "\u91dd": 4643,
    "\u98db\u3093\u3067": 4644,
    "\u8d70\u308a": 4645,
    "\u3068\u306a\u308a": 4646,
    "\u2581\u5f53\u6642": 4647,
    "\u6687": 4648,
    "\u306b\u306a\u308b\u306e": 4649,
    "\u884c\u304f\u3088": 4650,
    "\u884c\u304b\u306a\u3044\u3068": 4651,
    "\u713c": 4652,
    "\u9014\u4e2d": 4653,
    "\u81ea\u8eab\u306e": 4654,
    "\u884c\u304d\u305f\u3044": 4655,
    "\u884c\u52d5\u3092": 4656,
    "\u4e0a\u6607": 4657,
    "in": 4658,
    "\u898b\u4e8b": 4659,
    "\u30a6\u30c3\u30c9": 4660,
    "\u6797": 4661,
    "\u3092\u52a9\u3051\u308b": 4662,
    "\u653e\u9001": 4663,
    "\u3093\u3060\u306d": 4664,
    "\u2581\u672c\u6c17": 4665,
    "\u3059\u308b\u3064\u3082\u308a": 4666,
    "\u306a\u306e\u306f": 4667,
    "\u30d1\u30fc\u30c6\u30a3": 4668,
    "\u306e\u4eba\u751f": 4669,
    "\u30b1\u30fc\u30b9": 4670,
    "\u3057\u307e\u3044\u307e\u3057\u305f": 4671,
    "\u8003\u3048\u3066\u3044\u308b": 4672,
    "\u30c9\u30ec\u30b9": 4673,
    "\u7cf8": 4674,
    "\u2581\u610f\u5473": 4675,
    "\u3089\u308c\u3066\u3044\u308b": 4676,
    "\u3051\u3093": 4677,
    "\u7167": 4678,
    "\u3044\u304d\u307e\u3059": 4679,
    "\u6620": 4680,
    "\u6c17\u3092": 4681,
    "\u7a93": 4682,
    "\u2581\u97f3\u697d": 4683,
    "\u81ea\u5206\u3092": 4684,
    "00": 4685,
    "\u5546\u54c1": 4686,
    "\u2581\u7d04": 4687,
    "\u3082\u306e\u306b": 4688,
    "\u8a00\u3048\u306a\u3044": 4689,
    "\u5973\u5b50": 4690,
    "\u2581\u3064\u3044\u3066": 4691,
    "\u306e\u65e5": 4692,
    "\u9060\u3044": 4693,
    "\u3042\u3089\u3086\u308b": 4694,
    "\u9032\u3080": 4695,
    "\u9b3c": 4696,
    "\u6211\u6162": 4697,
    "\u6bce": 4698,
    "\u76db": 4699,
    "\u30c9\u30e9": 4700,
    "\u6df7": 4701,
    "\u304c\u9055\u3046": 4702,
    "\u77e5\u3089\u3093": 4703,
    "\u30db\u30fc\u30e0": 4704,
    "\u30ca\u30a4": 4705,
    "\u2581\u771f\u5b9f": 4706,
    "\u80f8": 4707,
    "\u2581\u3053\u3089": 4708,
    "\u8a66\u307f": 4709,
    "\u2581\u624b\u8853": 4710,
    "\u80ba": 4711,
    "\u5b66\u8005": 4712,
    "\u2581\u6b7b\u4f53": 4713,
    "\u5feb": 4714,
    "\u2581\u85ac": 4715,
    "1000": 4716,
    "\u3089\u3057\u304f": 4717,
    "\u76f8\u624b\u306f": 4718,
    "\u2581\u90a3": 4719,
    "\u3057\u305f\u304b\u3063\u305f": 4720,
    "\u304a\u8a71": 4721,
    "\u98a8\u5442": 4722,
    "\u9001\u308b": 4723,
    "\u6226\u58eb": 4724,
    "\u308b\u306e\u3067\u3059": 4725,
    "\u6b62": 4726,
    "\u3069\u306e\u3088\u3046\u306b": 4727,
    "\u305f\u3061\u306b": 4728,
    "\u5bfe\u51e6": 4729,
    "\u3059\u308b\u3053\u3068\u306f": 4730,
    "\u6bba\u305b": 4731,
    "\u6301": 4732,
    "\u3057\u305f\u308f": 4733,
    "\u2581\u6050\u3089\u304f": 4734,
    "\u7b2c\u4e00": 4735,
    "\u2581\u7533\u3057\u8a33\u3042\u308a\u307e\u305b\u3093": 4736,
    "\u30eb\u30c9": 4737,
    "\u673a": 4738,
    "\u73fe\u5834": 4739,
    "\u2581\u3072\u3068\u3064": 4740,
    "\u96a0\u3057\u3066": 4741,
    "\u80b2\u3066": 4742,
    "\u8b66\u5099": 4743,
    "\u3064\u307e": 4744,
    "\u75c7\u72b6": 4745,
    "\u52a9\u3051\u3066": 4746,
    "on": 4747,
    "\u30a6\u30a9\u30fc\u30ab\u30fc": 4748,
    "\u304a\u8a71\u3057": 4749,
    "\u8a95\u751f\u65e5": 4750,
    "\u2581\u3061\u3087\u3063": 4751,
    "\u2581\u4f55\u306a\u306e": 4752,
    "\u305d\u3093\u306a\u3053\u3068": 4753,
    "\u306e\u4e0b": 4754,
    "\u77ed": 4755,
    "\u8a00\u3046\u3053\u3068": 4756,
    "\u2581\u8ab0\u3082\u304c": 4757,
    "\u6c7a": 4758,
    "\u51c4\u3044": 4759,
    "\u5b9d": 4760,
    "\u5408\u308f\u305b": 4761,
    "\u4e2d\u56fd": 4762,
    "\u4f3c": 4763,
    "\u30b3\u30fc\u30d2\u30fc": 4764,
    "\u305b\u306a\u3044": 4765,
    "\u7247\u4ed8\u3051": 4766,
    "\u5730\u4e0a": 4767,
    "\u3092\u53d7\u3051\u3066": 4768,
    "\u5009": 4769,
    "24": 4770,
    "\u6b32\u3057\u304b\u3063\u305f": 4771,
    "\u4ee5\u4e0a\u306b": 4772,
    "\u6cb9": 4773,
    "\u5177": 4774,
    "\u8c46": 4775,
    "\u3089\u305b\u3066": 4776,
    "\u2581\u30d5": 4777,
    "\u62e1\u5927": 4778,
    "\u901f\u5ea6": 4779,
    "\u2581\u304a\u59c9\u3061\u3083\u3093": 4780,
    "\u7523\u696d": 4781,
    "\u2581\u4f55\u3060\u3063\u3066": 4782,
    "\u8a00\u308f\u306a\u304b\u3063\u305f": 4783,
    "\u2581\u4f1a\u793e": 4784,
    "\u52dd\u3063\u305f": 4785,
    "\u6b7b\u3093\u3067\u308b": 4786,
    "\u7814\u7a76\u6240": 4787,
    "\u4eba\u8cea": 4788,
    "\u305d\u3046\u3060\u306a": 4789,
    "\u8a71\u3057\u305f\u3044": 4790,
    "\u691c\u4e8b": 4791,
    "\u6ce5\u68d2": 4792,
    "\u73fe\u8c61": 4793,
    "\u76f4\u3059": 4794,
    "\u9752": 4795,
    "\u5c5e": 4796,
    "\u62cd\u624b": 4797,
    "\u3092\u898b\u3064\u3051\u3066": 4798,
    "\u3082\u3042\u308a\u307e\u305b\u3093": 4799,
    "\u2581\u9375": 4800,
    "\u6ce8\u6587": 4801,
    "\u2581\u88cf": 4802,
    "\u6539\u5584": 4803,
    "\u304f\u306a\u3063\u305f": 4804,
    "\u5b66\u7fd2": 4805,
    "\u884c\u3051\u308b": 4806,
    "\u2581\u30cf\u30f3": 4807,
    "\u5973\u6027\u306f": 4808,
    "\u6483\u3066": 4809,
    "\u72b6\u6cc1\u3092": 4810,
    "\u843d\u3061\u3066": 4811,
    "\u6e05": 4812,
    "\u884c\u304b": 4813,
    "\u2581\u6c17\u306b": 4814,
    "\u2581T": 4815,
    "\u2581\u899a\u3048\u3066\u308b": 4816,
    "\u8aac\u660e\u3059\u308b": 4817,
    "\u5411\u3044\u3066": 4818,
    "\u4f55\u3067": 4819,
    "\u50d5\u306b": 4820,
    "\u9752\u3044": 4821,
    "\u521d\u3081": 4822,
    "\u767b": 4823,
    "\u6c17\u306b\u306a\u308b": 4824,
    "\u9ad8\u6821": 4825,
    "\u30d0\u30f3\u30c9": 4826,
    "\u3060\u3088\u306a": 4827,
    "\u2581\u305d\u3046\u305d\u3046": 4828,
    "\u91d1\u5eab": 4829,
    "\u5bc4\u305b": 4830,
    "\u3068\u3044\u3046\u3053\u3068\u306f": 4831,
    "\u305f\u3093": 4832,
    "\u5468": 4833,
    "\u54b2": 4834,
    "\u4f55\u3092\u3057\u3066\u3044\u308b": 4835,
    "\u2581\u6b8b\u308a": 4836,
    "\u5009\u5eab": 4837,
    "\u2581\u3044\u305a\u308c": 4838,
    "ra": 4839,
    "\u305f\u3044\u306e": 4840,
    "\u4e8c\u3064": 4841,
    "\u2581\u30a4\u30f3\u30c9": 4842,
    "\u30bf\u30eb": 4843,
    "\u793e\u54e1": 4844,
    "\u3053\u308c\u3067": 4845,
    "\u5584": 4846,
    "\u30ec\u30c3\u30c8": 4847,
    "\u4e0d\u8981": 4848,
    "\u2581\u697d\u3057\u3044": 4849,
    "\u3089\u306a\u304b\u3063\u305f": 4850,
    "\u30a4\u30b9": 4851,
    "\u3069\u3046\u306a\u3063\u305f": 4852,
    "\u3057\u3066\u3044\u308b\u306e": 4853,
    "\u30e9\u30e0": 4854,
    "\u623b\u3063\u3066\u304d\u305f": 4855,
    "\u4e26": 4856,
    "\u4f53\u306b": 4857,
    "\u8a00\u308f": 4858,
    "\u677f": 4859,
    "\u4f86": 4860,
    "\u2581\u77e5\u3063\u3066": 4861,
    "\u640d": 4862,
    "\u306e\u307b\u3046": 4863,
    "\u964d\u308a": 4864,
    "\u3068\u8a00\u3044\u307e\u3057\u305f": 4865,
    "\u2581\u6c17\u3092\u3064\u3051\u3066": 4866,
    "\u3060\u3051\u3058\u3083\u306a\u3044": 4867,
    "\u30b7\u30a7": 4868,
    "\u843d\u3061\u305f": 4869,
    "\u9003\u3052\u308b": 4870,
    "\u7d42\u3048": 4871,
    "\u5893": 4872,
    "\u77e5\u308a\u307e\u305b\u3093": 4873,
    "\u96d1": 4874,
    "\u7f60": 4875,
    "\u5e74\u9f62": 4876,
    "\u96fb\u6c17": 4877,
    "\u5e74\u3082": 4878,
    "\u2581\u5b50\u3069\u3082": 4879,
    "\u652f": 4880,
    "\u2581\u9996": 4881,
    "\u3042\u308b\u306e": 4882,
    "\u30a2\u30ec": 4883,
    "\u30ab\u30a4": 4884,
    "\u30b3\u30d4\u30fc": 4885,
    "\u2581\u9752": 4886,
    "\u2581\u30d5\u30a3\u30f3\u30c1": 4887,
    "\u8cc7\u6599": 4888,
    "\u3059\u308b\u306e\u306b": 4889,
    "is": 4890,
    "\u2581\u30e8": 4891,
    "\u30c0\u30a6\u30f3": 4892,
    "\u3060\u3081": 4893,
    "\u2581\u5927\u4eba": 4894,
    "\u3042\u304d\u3089\u3081": 4895,
    "\u5197\u8ac7": 4896,
    "\u671f\u9593": 4897,
    "\u58f0\u3092": 4898,
    "\u3042\u308b\u304b": 4899,
    "\u3057\u3061\u3083\u3063\u305f": 4900,
    "\u306f\u3044\u3064\u3082": 4901,
    "\u5ba4\u306b": 4902,
    "\u30c6\u30ed\u30ea\u30b9\u30c8": 4903,
    "\u8e0f\u307f": 4904,
    "\u5207\u3063\u3066": 4905,
    "\u304a\u524d\u3092": 4906,
    "\u5974\u306f": 4907,
    "\u821e": 4908,
    "\u2581\u5e30\u3063\u3066": 4909,
    "\u30d1\u30bd\u30b3\u30f3": 4910,
    "\u6295\u7968": 4911,
    "\u30cb\u30b9": 4912,
    "\u2581\u5931\u793c\u3057\u307e\u3059": 4913,
    "\u6765\u3066\u304f\u308c": 4914,
    "\u4fe1\u3058\u3066\u308b": 4915,
    "\u899a\u3048\u3066\u306a\u3044": 4916,
    "\u3067\u3055\u3048": 4917,
    "\u96e2\u308c\u305f": 4918,
    "\u305f\u304b\u3089": 4919,
    "\u2581\u305d\u3046\u3060\u306d": 4920,
    "\u9ed2\u3044": 4921,
    "\u697d\u3057\u304b\u3063\u305f": 4922,
    "\u6700\u60aa\u306e": 4923,
    "\u8eca\u3067": 4924,
    "\u2581\u5927\u5b66": 4925,
    "\u72a0\u7272": 4926,
    "\u5165\u308c\u3066": 4927,
    "\u6b63\u78ba\u306b": 4928,
    "\u592a\u967d": 4929,
    "\u4fdd\u5b89\u5b98": 4930,
    "\u3084\u308c\u308b": 4931,
    "\u2581\u6709": 4932,
    "\u2581\u30aa\u30ea\u30d0\u30fc": 4933,
    "\u65e2\u306b": 4934,
    "\u5199": 4935,
    "\u2581\u3046\u308f\u3063": 4936,
    "\u4e00\u81f4": 4937,
    "\u56fd\u5bb6": 4938,
    "\u3078\u884c\u304f": 4939,
    "\u2581\u4fe1\u3058\u3066": 4940,
    "\u3092\u78ba\u8a8d": 4941,
    "\u7121\u7406\u3060": 4942,
    "\u2581\u4e16\u754c\u4e2d\u306e": 4943,
    "\u8cac\u3081": 4944,
    "\u2581\u3061\u3087\u3063\u3068\u5f85\u3066": 4945,
    "\u79fb": 4946,
    "\u3067\u304d\u308c\u3070": 4947,
    "\u521d": 4948,
    "\u5b64\u72ec": 4949,
    "\u9055\u6cd5": 4950,
    "\u308b\u4e8b": 4951,
    "\u304a\u307e\u3048": 4952,
    "\u2581\u3044\u304d\u306a\u308a": 4953,
    "\u2581\u30b3\u30f3": 4954,
    "\u5d29\u58ca": 4955,
    "\u6b21\u5143": 4956,
    "\u30a2\u30d5\u30ea\u30ab": 4957,
    "\u9023\u308c\u3066\u884c\u304f": 4958,
    "\u305f\u304f\u306a\u304b\u3063\u305f": 4959,
    "\u307e\u3063\u305f": 4960,
    "\u2581\u305d\u3046\u3044\u3048\u3070": 4961,
    "\u5206\u304b\u3093\u306a\u3044": 4962,
    "\u30d1\u30fc\u30bb\u30f3\u30c8": 4963,
    "\u304b\u3059": 4964,
    "\u653f\u6cbb": 4965,
    "\u2581\u30d5\u30c3": 4966,
    "\u95c7": 4967,
    "\u2581\u8ab0\u3067\u3082": 4968,
    "\u6bba\u3057\u3066": 4969,
    "\u4f55\u5e74\u3082": 4970,
    "\u2581\u30dc": 4971,
    "\u306e\u7236\u89aa": 4972,
    "\u8aac": 4973,
    "\u4e2d\u6b62": 4974,
    "\u3061\u3087": 4975,
    "\u3063\u3066\u3044\u3046\u306e": 4976,
    "\u30ed\u30fc\u30ba": 4977,
    "\u306b\u884c\u3053\u3046": 4978,
    "\u5e7d\u970a": 4979,
    "\u9280\u6cb3": 4980,
    "\u6226\u7565": 4981,
    "\u9858": 4982,
    "\u8a71\u984c": 4983,
    "\u660e\u3089\u304b": 4984,
    "id": 4985,
    "\u30b5\u30a4\u30ba": 4986,
    "\u7b56": 4987,
    "\u2581\u3082\u3046\u4e00\u3064": 4988,
    "\u307e\u3063\u3066": 4989,
    "\u4fe1\u3058\u308b": 4990,
    "\u6cd5\u5f8b": 4991,
    "\u5b66\u3093\u3060": 4992,
    "\u96a0\u308c": 4993,
    "\u55a7\u5629": 4994,
    "\u5f8c\u308d": 4995,
    "\u3066\u4e0b\u3055\u3044": 4996,
    "\u7d76\u5bfe\u306b": 4997,
    "\u9996\u3092": 4998,
    "\u511f": 4999,
    "\u30af\u30a4\u30fc\u30f3": 5000,
    "\u4f9b\u7d66": 5001,
    "\u306e\u4e0b\u306b": 5002,
    "\u2581\u308f\u304b\u308a\u307e\u3057\u305f": 5003,
    "\u3057\u3066\u6b32\u3057\u3044": 5004,
    "\u3093\u3058\u3083\u306d\u3048": 5005,
    "\u983c\u3093\u3067": 5006,
    "\u2581\u4e8b\u5b9f": 5007,
    "\u5b66\u3076": 5008,
    "\u2581\u9577\u3044": 5009,
    "\u62db": 5010,
    "\u307f\u308b\u3068": 5011,
    "\u30ca\u30f3\u30d0\u30fc": 5012,
    "\u2581\u4eca\u56de\u306e": 5013,
    "\u2581\u7c73\u56fd": 5014,
    "\u2581\u65ad": 5015,
    "\u304a\u53cb\u9054": 5016,
    "\u9a5a\u304d": 5017,
    "\u3067\u3042\u3063\u305f": 5018,
    "\u3043": 5019,
    "\u2581\u6a2a": 5020,
    "\u5c06": 5021,
    "\u3057\u3055": 5022,
    "\u5947\u5999\u306a": 5023,
    "\u4eba\u3005\u306f": 5024,
    "\u767a\u5c55": 5025,
    "\u30b9\u30af": 5026,
    "\u2581\u751f": 5027,
    "\u99c4\u76ee": 5028,
    "\u2581\u3053\u3053\u3092": 5029,
    "\u2581\u308f\u3056\u308f\u3056": 5030,
    "\u30de\u30b7": 5031,
    "\u9577\u3044\u9593": 5032,
    "\u7fa9\u52d9": 5033,
    "\u5168\u7136": 5034,
    "\u5275\u9020": 5035,
    "\u8a71\u3060": 5036,
    "\u2581\u3072\u3068": 5037,
    "\u4ed8\u3051\u3066": 5038,
    "\u2581\u71b1": 5039,
    "\u8a18\u8005": 5040,
    "\u30ec\u30c3\u30c9": 5041,
    "\u83dc": 5042,
    "\u3064\u3076": 5043,
    "\u30cf\u30fc\u30c8": 5044,
    "\u2581\u60f3\u50cf": 5045,
    "\u3059\u308b\u3088\u3046\u306b": 5046,
    "\u4f11": 5047,
    "\u6d17": 5048,
    "\u6249": 5049,
    "\u3063\u3059": 5050,
    "\u2581\u3088\u3046\u3053\u305d": 5051,
    "\u73fe\u308c\u308b": 5052,
    "\u3059\u308b\u305f\u3081": 5053,
    "\u2581\u30c7\u30fc\u30bf": 5054,
    "\u8a00\u3063\u3066\u3044\u308b": 5055,
    "~!!": 5056,
    "\u899a": 5057,
    "\u3054\u89a7": 5058,
    "\u4e00\u6b69": 5059,
    "\u7f6e\u304d": 5060,
    "\u3057\u3066\u4e0b\u3055\u3044": 5061,
    "\u5358\u7d14": 5062,
    "\u3067\u304d\u308b\u304b": 5063,
    "\u7d1a": 5064,
    "\u733f": 5065,
    "\u2581\u5909": 5066,
    "\u76d7\u3093\u3060": 5067,
    "\u6211\u3089": 5068,
    "\u304b\u3089\u3055": 5069,
    "\u30e1\u30eb": 5070,
    "\u4e3b\u4eba": 5071,
    "\u663c": 5072,
    "\u96fb\u5b50": 5073,
    "\u3068\u3053\u308d\u3067\u3059": 5074,
    "\u3055\u3042": 5075,
    "\u2581\u78ba\u8a8d": 5076,
    "\u611f\u8b1d\u3059\u308b": 5077,
    "\u2581\u5927\u4e8b\u306a": 5078,
    "\u30b5\u30e0": 5079,
    "\u3059\u308c\u3070\u3044\u3044": 5080,
    "\u3059\u308b\u306b\u306f": 5081,
    "\u8a3c\u4eba": 5082,
    "\u8208\u596e": 5083,
    "\u7a81\u7136": 5084,
    "\u2581\u795e\u69d8": 5085,
    "\u4ed5\u4e8b\u306b": 5086,
    "\u3092\u6c42\u3081\u3066": 5087,
    "\u2581\u4f8b\u306e": 5088,
    "\u8863": 5089,
    "\u5dfb": 5090,
    "\u4ee5\u4e0b": 5091,
    "\u8a71\u304c\u3042\u308b": 5092,
    "\u2581\u3068\u308a\u3042\u3048\u305a": 5093,
    "\u30b9\u30dd\u30fc\u30c4": 5094,
    "\u71c3\u3048": 5095,
    "\u30c9\u30ed": 5096,
    "\u3068\u3044\u3046\u3082\u306e": 5097,
    "\u50b7\u3064\u3051": 5098,
    "\u72d9\u3044": 5099,
    "\u5fae": 5100,
    "\u2581\u8a18\u61b6": 5101,
    "\u304c\u3042\u308a\u307e\u305b\u3093": 5102,
    "\u3092\u53d7\u3051\u308b": 5103,
    "\u3093\u3058\u3083\u306a\u3044\u306e": 5104,
    "\u2581\u80f8": 5105,
    "\u3082\u3093\u3060": 5106,
    "\u306e\u7d50\u679c": 5107,
    "\u306a\u304f\u3066\u3044\u3044": 5108,
    "\u2581\u30c0\u30f3": 5109,
    "\u3069\u3046\u304b\u306a": 5110,
    "\u30a4\u30e4": 5111,
    "\u2581\u30c8\u30e0": 5112,
    "\u81ea\u8ee2\u8eca": 5113,
    "\u2581\u541b\u9054": 5114,
    "\u554f\u984c\u304c": 5115,
    "\u8d70\u3063\u3066": 5116,
    "\u3067\u306f\u306a\u3044\u304b": 5117,
    "\u2581\u52d5\u7269": 5118,
    "\u601d\u3044\u51fa\u3057\u305f": 5119,
    "\u30e1\u30b9": 5120,
    "\u6c5a\u3044": 5121,
    "\u30b3\u30fc\u30c8": 5122,
    "\u306e\u5834\u5408": 5123,
    "\u3060\u304b\u3089\u3067\u3059": 5124,
    "\u304b\u6708": 5125,
    "\u8377\u7269": 5126,
    "\u9762\u5012": 5127,
    "\u5efa\u3066": 5128,
    "\u6559\u3048\u308b": 5129,
    "\u3084\u3059": 5130,
    "\u60aa\u3044\u3053\u3068": 5131,
    "\u30de\u30b9\u30af": 5132,
    "\u6328\u62f6": 5133,
    "\u304a\u5f85\u3061": 5134,
    "\u304b\u3093": 5135,
    "\u9593\u9055\u3063\u3066": 5136,
    "\u2581\u907a\u4f53": 5137,
    "\u696d\u8005": 5138,
    "\u5bd2\u3044": 5139,
    "\u907a\u4f53": 5140,
    "\u767b\u5834": 5141,
    "\u8a71\u3057\u3066\u304f\u308c": 5142,
    "\u305a\u3064": 5143,
    "\u2581\u5e73\u6c17": 5144,
    "\u7d9a\u3044\u3066": 5145,
    "\u305f\u306e\u306b": 5146,
    "\u3067\u3059\u3051\u3069": 5147,
    "\u898b\u3089\u308c\u308b": 5148,
    "\u2581\u5974\u306e": 5149,
    "\u2581\u8ab0\u304b\u306b": 5150,
    "\u6fc0": 5151,
    "\u901f\u304f": 5152,
    "\u7cde": 5153,
    "\u2581\u3042\u308c\u304c": 5154,
    "\u3068\u306a\u3063\u305f": 5155,
    "\u30b3\u30f3\u30d4\u30e5\u30fc\u30bf\u30fc": 5156,
    "\u3069\u3046\u306a\u3063\u3066\u308b": 5157,
    "\u307e\u3059\u306d": 5158,
    "\u30dd\u30f3": 5159,
    "\u7121\u5b9f": 5160,
    "\u9055\u3063\u3066": 5161,
    "\u2581b": 5162,
    "\u3042\u308c\u3070": 5163,
    "\u3066\u304f\u308c\u305f": 5164,
    "\u7159": 5165,
    "\u6b53\u8fce": 5166,
    "\u3067\u3042\u308b\u3053\u3068": 5167,
    "\u56f0\u308b": 5168,
    "\u7d4c\u55b6": 5169,
    "\u7a2e\u985e\u306e": 5170,
    "\u3060\u3051\u306f": 5171,
    "\u308b\u3088\u3046\u306a": 5172,
    "\u5fdc\u63f4": 5173,
    "\u8cdb\u6210": 5174,
    "\u30b5\u30f3\u30d7\u30eb": 5175,
    "\u516d": 5176,
    "\u2581\u305d\u308c\u307e\u3067": 5177,
    "\u2581\u73fe\u5834": 5178,
    "\u6bba\u3055\u308c": 5179,
    "\u30ae\u30e3": 5180,
    "\u7d42\u308f\u308a\u3060": 5181,
    "\u2581\u4fe1\u3058": 5182,
    "\u2581\u3053\u3063\u3061\u3060": 5183,
    "\ue4c6": 5184,
    "\u6559\u4f1a": 5185,
    "\u2581\u96fb\u6c17": 5186,
    "\u2581\u6b66\u5668": 5187,
    "\u8a69": 5188,
    "\u30a2\u30b9": 5189,
    "\u66b4": 5190,
    "\u305d\u3046\u3088": 5191,
    "\u6027\u3092": 5192,
    "\u308b\u3093\u3067\u3059": 5193,
    "\u30d3\u30a2": 5194,
    "\u6628\u65e5": 5195,
    "\u2581\u3053\u3053\u3067\u306f": 5196,
    "\u2581\u5b50\u4f9b\u9054": 5197,
    "\u5206\u304b\u3063\u3066\u3044\u308b": 5198,
    "\u2581\u3069\u3046\u3044\u3046\u3053\u3068\u3060": 5199,
    "\u30c8\u30a5": 5200,
    "\u3092\u77e5\u308b": 5201,
    "\u6d6e\u6c17": 5202,
    "\u2581\u3044\u3044\u306a": 5203,
    "\u2581\u30a4\u30f3\u30bf\u30fc\u30cd\u30c3\u30c8": 5204,
    "\u76ee\u306f": 5205,
    "\u306e\u6e96\u5099": 5206,
    "\u751f\u6d3b\u3092": 5207,
    "\u5730\u7344": 5208,
    "\u798f": 5209,
    "\u306f\u5168\u3066": 5210,
    "\u7bc4\u56f2": 5211,
    "\u30c8\u30ec": 5212,
    "\u6c7a\u307e\u308a": 5213,
    "\u77f3\u6cb9": 5214,
    "\u305b\u3093": 5215,
    "\u2581\u3084\u3060": 5216,
    "\u5371\u967a\u3060": 5217,
    "\u3069\u3053\u304b\u306b": 5218,
    "\u2581\u3046\u307e\u3044": 5219,
    "\u901a\u3063\u3066": 5220,
    "\u30c0\u30e0": 5221,
    "\u2581\u3042\u306e\u6642": 5222,
    "\u5207\u3063\u305f": 5223,
    "\u5211\u52d9\u6240": 5224,
    "\u53bb\u308b": 5225,
    "\u3046\u3061": 5226,
    "\u4eba\u5de5": 5227,
    "\u80b2": 5228,
    "\u90ce": 5229,
    "\u6c17\u3065\u3044\u3066": 5230,
    "\u623b\u308a": 5231,
    "\u6697": 5232,
    "\u5acc\u3060": 5233,
    "\u30b6\u30f3": 5234,
    "\u307f\u307e\u3059": 5235,
    "\u5148\u751f\u306f": 5236,
    "\u306e\u5a18": 5237,
    "\u2581\u4eba\u3005\u306f": 5238,
    "\u5b50\u4f9b\u9054": 5239,
    "\u7d50\u8ad6": 5240,
    "\u4e0a\u624b\u304f": 5241,
    "\u306e\u5927": 5242,
    "\u306a\u3055\u3044\u3088": 5243,
    "\u2581\u6765\u308b": 5244,
    "\u2581\u30a2\u30d5\u30ea\u30ab": 5245,
    "\u304b\u3051\u308b": 5246,
    "\u56e3\u4f53": 5247,
    "\u2581\u304a\u3081\u3067\u3068\u3046": 5248,
    "\u96d1\u8a8c": 5249,
    "\u540d\u8a89": 5250,
    "\u2581\u307f\u306a\u3055\u3093": 5251,
    "\u5e3d\u5b50": 5252,
    "\u6a29\u529b": 5253,
    "\u899a\u3048\u3066\u3044\u308b": 5254,
    "\u30d7\u30fc\u30eb": 5255,
    "\u306b\u53c2\u52a0": 5256,
    "\u2581\u6bba\u3057\u305f": 5257,
    "\u5217\u8eca": 5258,
    "\u6012": 5259,
    "\u2581\u4f55\u304c\u3042\u3063\u305f": 5260,
    "\u30e9\u30b8\u30aa": 5261,
    "\u8a00\u3063\u3066\u306a\u3044": 5262,
    "5%": 5263,
    "\u72af\u884c": 5264,
    "al": 5265,
    "\u793e\u4f1a\u7684": 5266,
    "\u5909\u3048\u308b": 5267,
    "\u2581\u30d6\u30e9\u30c3\u30af": 5268,
    "\u3089\u305b": 5269,
    "\u59cb\u307e\u308a": 5270,
    "\u2581\u8cea\u554f": 5271,
    "\u5e73\u5747": 5272,
    "\u8fc7": 5273,
    "\u8fd1\u3065\u3044\u3066": 5274,
    "\u8a73\u3057\u304f": 5275,
    "\u30b7\u30e7\u30c3\u30af": 5276,
    "\u4ee5\u5916\u306e": 5277,
    "\u7d99": 5278,
    "\u2581\u3060\u3081": 5279,
    "\u3092\u6bba\u3057\u3066": 5280,
    "\u7814\u7a76\u5ba4": 5281,
    "\u7269\u3060": 5282,
    "\u2581R": 5283,
    "\u2581\u305d\u3046\u306a\u306e": 5284,
    "\u5f15\u3063": 5285,
    "\u83cc": 5286,
    "\u2581\u91cd": 5287,
    "\u81ea\u5b85": 5288,
    "\u5341\u5206\u306a": 5289,
    "\u8a3a\u65ad": 5290,
    "\u6b32\u3057\u3044\u306e": 5291,
    "\u3092\u983c\u3080": 5292,
    "\u4e2d\u3067\u3059": 5293,
    "\u306a\u3044\u3051\u3069": 5294,
    "\u9003": 5295,
    "\u2581\u90e8\u9577": 5296,
    "\u3060\u3063\u305f\u306e\u304b": 5297,
    "\u2581\u571f": 5298,
    "\u3053\u3044\u3064": 5299,
    "\u3092\u6551\u3046": 5300,
    "\u3093\u3084": 5301,
    "\u73cd\u3057\u3044": 5302,
    "\u2581\u305d\u308c\u3058\u3083\u3042": 5303,
    "\u88fd\u9020": 5304,
    "\u8a00\u3044\u65b9": 5305,
    "\u2581\u305f\u304f\u3055\u3093\u306e": 5306,
    "\u611b\u3057\u3066\u308b": 5307,
    "\u304f\u308c\u306a\u3044": 5308,
    "\u30d8\u30eb": 5309,
    "\u2581\u5f7c\u5973\u3068": 5310,
    "\u3066\u306a\u3044": 5311,
    "\u6065": 5312,
    "\u652f\u6301": 5313,
    "\u91ce\u7403": 5314,
    "\u306a\u3044\u3067\u3057\u3087\u3046": 5315,
    "\u79cb": 5316,
    "\u6b32": 5317,
    "\u2581\u306f\u3044\u306f\u3044": 5318,
    "\u79c1\u9054": 5319,
    "\u2581\u30b7\u30e3": 5320,
    "\u2581\u7814\u7a76": 5321,
    "21": 5322,
    "\u30b2\u30fc\u30c8": 5323,
    "\u6559\u5ba4": 5324,
    "\u305d\u306e\u3082\u306e": 5325,
    "\u2581\u3053\u3063\u3061\u306f": 5326,
    "\u2581\u604b": 5327,
    "\u306e\u304b\u3044": 5328,
    "\u304a\u308a\u307e\u3059": 5329,
    "\u8f9b\u3044": 5330,
    "\u6750": 5331,
    "\u2581\u5c06\u6765": 5332,
    "\u30d5\u30a9\u30fc\u30c9": 5333,
    "\u2581\u7537\u6027": 5334,
    "\u2581\u6765\u3066": 5335,
    "\u2581\u53bb\u5e74": 5336,
    "\u5ca1": 5337,
    "\u65e5\u3005": 5338,
    "\u5bdf": 5339,
    "\u3063\u307d\u3044": 5340,
    "\u5546": 5341,
    "\u3053\u3068\u306b\u306a\u308a\u307e\u3059": 5342,
    "\u5efa\u7bc9": 5343,
    "\u5f53\u7136": 5344,
    "\u306e\u3088\u3046\u306a\u3082\u306e": 5345,
    "\u5148\u751f\u304c": 5346,
    "\u2581\u3069\u3053\u3078": 5347,
    "le": 5348,
    "\u30aa\u30fc\u30d7\u30f3": 5349,
    "\u3057\u3066\u305f\u306e": 5350,
    "\u3059\u304e\u3066": 5351,
    "\u306e\u8a00\u8449": 5352,
    "\u2581\u5211\u52d9\u6240": 5353,
    "\u805e\u3053\u3048\u305f": 5354,
    "\u30d5\u30eb": 5355,
    "\u5165\u9662": 5356,
    "\u2581\u304a\u8336": 5357,
    "\u4e0d\u662f": 5358,
    "\u306e\u6b7b": 5359,
    "\u53ef\u611b\u3044": 5360,
    "\u2581\u7b54\u3048": 5361,
    "\u306b\u3064\u3044\u3066\u306e": 5362,
    "\u6761": 5363,
    "\u7f6e": 5364,
    "\u306e\u60c5\u5831": 5365,
    "\u9f3b": 5366,
    "\u3058\u3083\u306a\u3044\u3093\u3060": 5367,
    "\u2581\u30b8\u30e7\u30fc\u30b8": 5368,
    "\u7d44\u307f": 5369,
    "\u306e\u540d": 5370,
    "\u3089\u308c\u306a\u304b\u3063\u305f": 5371,
    "\u4e0d\u5e78": 5372,
    "\u30a4\u30a8\u30b9": 5373,
    "\u2581\u30e1\u30fc\u30eb": 5374,
    "\u4ea1": 5375,
    "\u5931\u793c": 5376,
    "\u8cc7\u6e90": 5377,
    "\u30b9\u30c8\u30ec\u30b9": 5378,
    "\u7d42\u308f\u3063\u3066": 5379,
    "\u3069\u3051": 5380,
    "\u2581\u76f4\u63a5": 5381,
    "\u304a\u5e97": 5382,
    "\u96fb\u8a71\u3057\u3066": 5383,
    "\u30a2\u30a6\u30c8": 5384,
    "\u96fb\u8a71\u3059\u308b": 5385,
    "\u3044\u308d": 5386,
    "\u90fd\u5408": 5387,
    "\u6c17\u306e\u6bd2": 5388,
    "\u2581\u8cb4\u65b9\u306f": 5389,
    "\u4e0a\u3052\u308b": 5390,
    "\u4eca\u591c": 5391,
    "\u3084\u3063\u3066\u304f\u308c": 5392,
    "\u7acb\u6d3e\u306a": 5393,
    "\u56de\u3063\u3066": 5394,
    "\u6301\u3063\u3066\u304d\u305f": 5395,
    "\u8a31": 5396,
    "\u7e54": 5397,
    "\u3064\u306a\u304c\u308a": 5398,
    "\u9031\u672b": 5399,
    "\u5408\u308f\u305b\u3066": 5400,
    "\u3063\u3061": 5401,
    "\u5916\u306b\u51fa": 5402,
    "\u30ab\u30c3\u30c8": 5403,
    "\u9283\u3092": 5404,
    "\u2581\u304a\u308c": 5405,
    "\u3068\u547c\u3076": 5406,
    "\u5cb8": 5407,
    "\u7518\u3044": 5408,
    "\u2581OK": 5409,
    "\u6c5f": 5410,
    "\u7b2c\u4e8c": 5411,
    "\u5bfe\u7b56": 5412,
    "\u3063\u3066\u8a00\u3046": 5413,
    "\u3059\u3067\u306b": 5414,
    "\u2581\u672c\u6c17\u3067": 5415,
    "\u6551\u3044": 5416,
    "\u6240\u3067": 5417,
    "\u7269\u304c": 5418,
    "\u6b74\u53f2": 5419,
    "\u9928": 5420,
    "\u5065": 5421,
    "\u7684\u3067": 5422,
    "\u592b\u5a66": 5423,
    "\u7dca\u5f35": 5424,
    "\u2581\u5341\u5206": 5425,
    "\u6ce8": 5426,
    "\u805e\u3044\u3066\u304f\u308c": 5427,
    "\u2581\u5fc3\u81d3": 5428,
    "\u4e2d\u5fc3": 5429,
    "\u2581\u50d5\u3092": 5430,
    "\u547c\u3076": 5431,
    "\u76ee\u6483": 5432,
    "\u2581\u4f55\u51e6": 5433,
    "\u308b\u3082\u306e": 5434,
    "\u7279\u5b9a\u306e": 5435,
    "\u2581\u3053\u308c\u3063\u3066": 5436,
    "\u3058\u3083\u7121\u3044": 5437,
    "\u6483\u305f\u308c\u305f": 5438,
    "\u8fd4\u305b": 5439,
    "\u57fa\u672c": 5440,
    "\u30f3\u30ba": 5441,
    "\u793e\u306e": 5442,
    "\u304c\u3042\u308b\u304b\u3089": 5443,
    "\u2581\u753a": 5444,
    "\u69d8\u306e": 5445,
    "\u8abf\u3079\u305f": 5446,
    "\u2581\u3069\u306e\u3088\u3046\u306b": 5447,
    "\u306a\u3093\u3067\u3059\u3088": 5448,
    "\u982d\u3092": 5449,
    "\u9593\u9055\u3063\u3066\u308b": 5450,
    "\u3084\u3063\u3066\u3044\u308b": 5451,
    "\u7591": 5452,
    "\u7fa4": 5453,
    "\u306f\u3044\u3051\u306a\u3044": 5454,
    "\u5922\u3092": 5455,
    "\u3082\u306e\u3067\u3057\u305f": 5456,
    "\u63e1": 5457,
    "\u68d2": 5458,
    "\u885d\u7a81": 5459,
    "\u983c\u307f": 5460,
    "\u2581\u3078\u3048": 5461,
    "\u767a\u5c04": 5462,
    "\u5f37\u3055": 5463,
    "\u5e95": 5464,
    "\u66ae\u3089\u3057\u3066": 5465,
    "\u3053\u3068\u304c\u3042\u308a\u307e\u3059": 5466,
    "\u91cd\u3044": 5467,
    "\u2581\u3044\u308d\u3093\u306a": 5468,
    "\u30a4\u30ab": 5469,
    "\u2581'": 5470,
    "\u3060\u3063\u3051": 5471,
    "\u5909\u308f\u3089\u306a\u3044": 5472,
    "\u305d\u3070": 5473,
    "\u8a00\u3044\u305f\u3044": 5474,
    "\u2581\u5f7c\u3089\u3092": 5475,
    "\u3042\u308a\u307e\u3059\u304b": 5476,
    "\u8ca9\u58f2": 5477,
    "\u3092\u611f\u3058\u308b": 5478,
    "\u544a\u767d": 5479,
    "\u30c3\u30ab": 5480,
    "\u307e\u3059\u304c": 5481,
    "\u3060\u304b\u3089\u306d": 5482,
    "\u6027\u306e": 5483,
    "\u30d7\u30e9\u30f3": 5484,
    "\u5171\u6709": 5485,
    "\u624b\u52a9\u3051": 5486,
    "\u2581\u8155": 5487,
    "\u7121\u99c4": 5488,
    "=": 5489,
    "\u30c3\u30b0": 5490,
    "\u98db\u3076": 5491,
    "\u3072\u3069\u304f": 5492,
    "\u306e\u4e00\u4eba": 5493,
    "\u30a6\u30bd": 5494,
    "\u97f3\u3092": 5495,
    "\u3067\u304d\u307e\u3057\u305f": 5496,
    "\u6211\u4eec": 5497,
    "\u7e1b": 5498,
    "\u2581\u7686\u304c": 5499,
    "\u69d8\u3005\u306a": 5500,
    "\u30b3\u30df\u30e5\u30cb\u30c6\u30a3": 5501,
    "\u306e\u610f\u5473": 5502,
    "\u3064\u3051\u305f": 5503,
    "\u306b\u306a\u3063\u3066\u3044\u308b": 5504,
    "800": 5505,
    "\u306a\u3044\u308f\u3088": 5506,
    "\u2581\u3053\u3046\u3057\u305f": 5507,
    "\u30ac\u30e9\u30b9": 5508,
    "\u307e\u3057\u3087\u3046\u304b": 5509,
    "\u30c7\u30e5": 5510,
    "\u627f\u77e5": 5511,
    "\u2581\u3053\u3093\u306a\u306e": 5512,
    "\u30dd\u30b1\u30c3\u30c8": 5513,
    "\u5909\u306a": 5514,
    "\u3092\u898b\u308b\u3068": 5515,
    "\u30b1\u30fc": 5516,
    "\u2581\u3053\u306e\u7537": 5517,
    "\u3082\u3044\u308b": 5518,
    "\u2581\u96e3\u3057\u3044": 5519,
    "\u601d\u3044\u51fa\u3059": 5520,
    "\u3059\u3079\u3066\u3092": 5521,
    "\u5927\u4f1a": 5522,
    "\u2581\u305d\u3044\u3064\u306f": 5523,
    "\u306e\u53cb\u9054": 5524,
    "\u3059\u308b\u307e\u3067": 5525,
    "\u6b63\u3057\u304b\u3063\u305f": 5526,
    "\u4ee3\u308f\u308a": 5527,
    "\u3075\u3046": 5528,
    "\u2581\u30a4\u30e4": 5529,
    "\u2581\u50d5\u3089\u306f": 5530,
    "\u5c0f\u5c4b": 5531,
    "\u3044\u307e\u305b\u3093\u3067\u3057\u305f": 5532,
    "\u307e\u3068\u3081": 5533,
    "\u8eab\u3092": 5534,
    "\u306b\u4f1a\u3044\u306b": 5535,
    "\u305f\u306e\u3067\u3059": 5536,
    "\u2581\u305d\u306e\u3046\u3061": 5537,
    "\u63a5\u7d9a": 5538,
    "\u5358\u7d14\u306a": 5539,
    "\u2581\u5065\u5eb7": 5540,
    "\u2581\u65e2\u306b": 5541,
    "\u5f97\u308b": 5542,
    "\u4eac": 5543,
    "\u2581\u3069\u3063\u304b": 5544,
    "\u306e\u3067\u306f\u306a\u304f": 5545,
    "\u3092\u5931\u3046": 5546,
    "\u5f79\u306b\u7acb\u3064": 5547,
    "\u307e\u3057\u3087": 5548,
    "\u8a00\u308f\u308c": 5549,
    "\u73fe\u91d1": 5550,
    "\u3042\u3052\u305f": 5551,
    "\u30f4\u30a3\u30f3": 5552,
    "\u2581\u3059\u3063": 5553,
    "\u3089\u3059": 5554,
    "\u512a\u79c0\u306a": 5555,
    "\u305d\u308c\u306b": 5556,
    "\u83ef": 5557,
    "\u4fdd\u8a3c": 5558,
    "\u2581\u30ed\u30dc\u30c3\u30c8": 5559,
    "\u2581\u4e00\u4f53\u4f55": 5560,
    "\u5834\u5408\u306f": 5561,
    "\u30dd\u30f3\u30c9": 5562,
    "\u2581\u3060\u308c": 5563,
    "\u89aa\u7236": 5564,
    "\u3084\u3081\u308d": 5565,
    "\u8d77\u3053\u308a": 5566,
    "\u592b\u4eba": 5567,
    "\u2581\u898b\u305b\u3066": 5568,
    "\u7f8a": 5569,
    "\u4e88\u7d04": 5570,
    "\u30aa\u30f3\u30e9\u30a4\u30f3": 5571,
    "\u5897\u52a0": 5572,
    "\u65b0\u805e": 5573,
    "\u2581\u3046\u3046\u3093": 5574,
    "\u6065\u305a\u304b\u3057\u3044": 5575,
    "\u3060\u3063\u305f\u3093\u3067\u3059": 5576,
    "\u30de\u30c3\u30af\u30b9": 5577,
    "\u6069": 5578,
    "\u5c0a\u656c": 5579,
    "\u904e\u304e\u305f": 5580,
    "\u9045\u304f": 5581,
    "\u6821\u9577": 5582,
    "\u306b\u4f1a\u3046": 5583,
    "\u305d\u3046\u3060\u3063\u305f": 5584,
    "\u3092\u7f6e\u3044\u3066": 5585,
    "\u5468\u308a": 5586,
    "\u8cea\u554f\u3092": 5587,
    "\u96a0\u308c\u3066": 5588,
    "\u3068\u601d\u3046\u3051\u3069": 5589,
    "\u2581\u6b63\u7fa9": 5590,
    "\u6bba\u4eba\u4e8b\u4ef6": 5591,
    "\u3082\u3089\u3044": 5592,
    "\u9a5a\u304f": 5593,
    "\u2581\u5e0c\u671b": 5594,
    "\u4f3a": 5595,
    "\u501f\u91d1": 5596,
    "\u2581\u3053\u3063\u3061\u306b": 5597,
    "\u2581\u4e0a\u624b\u304f": 5598,
    "\u4ed8": 5599,
    "\u91e3\u308a": 5600,
    "\u5287": 5601,
    "\u2581\u3053\u3093\u306a\u4e8b": 5602,
    "\u2581\u8a71\u3057\u3066": 5603,
    "\u611f\u3058\u305f": 5604,
    "\u3069\u3046\u3082": 5605,
    "\u5fc5\u8981\u3060": 5606,
    "\u4ed5\u4e8b\u3060": 5607,
    "\u6c17\u3092\u4ed8\u3051": 5608,
    "\u7e2e": 5609,
    "\u308b\u3060\u3051": 5610,
    "\u2581\u5927\u4e08\u592b\u3067\u3059\u304b": 5611,
    "\u6613": 5612,
    "\u2581\u79c1\u306f\u3042\u306a\u305f": 5613,
    "\u3044\u305f\u3057\u307e\u3059": 5614,
    "\u30bf\u30fc\u30b2\u30c3\u30c8": 5615,
    "\u2581\u6301\u3061": 5616,
    "\u597d\u304d\u3060": 5617,
    "\u3061\u3083\u3093\u306f": 5618,
    "\u30b2\u30fc": 5619,
    "es": 5620,
    "\u2581\u6bd2": 5621,
    "\u2581\u3053\u308c\u3089": 5622,
    "\u3057\u305f\u3044\u306e": 5623,
    "\u6f14": 5624,
    "\u541b\u3068": 5625,
    "\u2581\u898b\u308d": 5626,
    "\u5f01": 5627,
    "\u5974\u304c": 5628,
    "\u5831\u544a\u66f8": 5629,
    "\u821e\u53f0": 5630,
    "\u30d5\u30a9": 5631,
    "\u306e\u65b9\u306f": 5632,
    "\u610f\u56f3": 5633,
    "\u2581\u308f\u305f\u3057\u306f": 5634,
    "\u2581\u3053\u306e\u91ce\u90ce": 5635,
    "\u8af8\u541b": 5636,
    "\u304c\u4e00\u756a": 5637,
    "\u6bd4\u8f03": 5638,
    "\u2581\u306a\u306e\u306b": 5639,
    "\u304a\u3051": 5640,
    "\u3082\u3089\u3044\u305f\u3044": 5641,
    "\u5854": 5642,
    "\u2581\u3042\u306a\u305f\u305f\u3061": 5643,
    "\u2581\u30c8\u30a4\u30ec": 5644,
    "\u5185\u3067": 5645,
    "\u5f35\u308a": 5646,
    "\u6b8b\u5ff5\u3060": 5647,
    "\u4fb5\u5165": 5648,
    "\u5b66\u6821\u3067": 5649,
    "\u306f\u9055\u3046": 5650,
    "\u3068\u3068\u3082\u306b": 5651,
    "\u2581\u307b\u3093\u306e": 5652,
    "\u6cb3": 5653,
    "\u30ea\u30aa": 5654,
    "\u6587\u53e5": 5655,
    "\u691c\u7d22": 5656,
    "\u901a\u5831": 5657,
    "\u81ea\u5206\u305f\u3061": 5658,
    "\u3061\u307e\u3063\u305f": 5659,
    "\u9662\u9577": 5660,
    "\u2581\u516c": 5661,
    "\u306e\u69d8\u5b50": 5662,
    "\u6708\u306b": 5663,
    "\u2581\u30a6\u30a3\u30eb": 5664,
    "\u2581\u5730\u7344": 5665,
    "\u3057\u305f\u4e8b": 5666,
    "\u2581\u3059\u307e\u3093": 5667,
    "\u9178\u7d20": 5668,
    "\u614e\u91cd": 5669,
    "\u30b7\u30e5\u30fc": 5670,
    "\u30c0\u30e1\u3088": 5671,
    "\u30db\u30c3": 5672,
    "\u6f70": 5673,
    "\u6240\u6709": 5674,
    "\u6e21\u3057\u305f": 5675,
    "\u6700\u7d42\u7684\u306b": 5676,
    "\u5a18\u304c": 5677,
    "\u6d88\u8cbb": 5678,
    "\u30ca\u30eb": 5679,
    "&": 5680,
    "\u9663": 5681,
    "\u52d8\u9055\u3044": 5682,
    "\u3084\u3089\u306a\u3044": 5683,
    "\u4f55\u3092\u3057\u3066\u308b": 5684,
    "\u2581\u7f8e\u3057\u3044": 5685,
    "\u2581\u3068\u3063\u3066\u3082": 5686,
    "\u2581\u88ab\u5bb3\u8005": 5687,
    "\u306b\u5165\u308c": 5688,
    "\u4e0d\u80fd": 5689,
    "\u8a87\u308a": 5690,
    "\u2581\u307f\u3093\u306a\u3067": 5691,
    "\u5fc5\u8981\u306a": 5692,
    "\u6307\u63ee": 5693,
    "\u2581\u30ed\u30f3\u30c9\u30f3": 5694,
    "\u4ed5\u7d44\u307f": 5695,
    "\u2581\u3069\u3046\u3067\u3082\u3044\u3044": 5696,
    "\u2581\u305d\u3082\u305d\u3082": 5697,
    "\u5fc3\u306b": 5698,
    "\u308b\u3093\u3067\u3059\u304b": 5699,
    "\u6c7a\u3081\u308b": 5700,
    "\u51fa\u4f1a\u3044": 5701,
    "\u9811\u5f35\u3063\u3066": 5702,
    "\u2581\u30d1\u30f3": 5703,
    "\u2581\u5f7c\u306b\u306f": 5704,
    "\u8a8d\u3081\u308b": 5705,
    "\u623b\u308c": 5706,
    "\u884c\u304d\u307e\u3057\u3087\u3046": 5707,
    "\u5834\u306b": 5708,
    "\u8986": 5709,
    "\u2581\u3048\u30fc": 5710,
    "\u30c8\u30ea\u30c3\u30af": 5711,
    "\u6642\u304b\u3089": 5712,
    "\u2581\u5e30\u308b": 5713,
    "\u67c4": 5714,
    "\u2581\u7acb\u3061": 5715,
    "\u3067\u3057\u305f\u304c": 5716,
    "\u95a2\u4fc2\u306a\u3044": 5717,
    "\u63a8\u6e2c": 5718,
    "\u77e5\u3089\u305a": 5719,
    "\u8ab0\u3060": 5720,
    "\u2581\u30d0\u30ab\u306a": 5721,
    "\u5185\u306e": 5722,
    "\u2581\u30d8\u30f3\u30ea\u30fc": 5723,
    "\u5f7c\u3089\u304c": 5724,
    "\u9069": 5725,
    "\u2581\u732b": 5726,
    "\u2581\u7b2c\u4e00": 5727,
    "\u30f4\u30a1\u30fc": 5728,
    "\u5730\u65b9": 5729,
    "\u30e8\u30f3": 5730,
    "\u308b\u305f\u3081": 5731,
    "\u62d2\u5426": 5732,
    "\u3044\u3044\u304b\u306a": 5733,
    "\u3053\u3068\u306f\u3067\u304d\u306a\u3044": 5734,
    "\u4eca\u306f": 5735,
    "\u304a\u3044\u3066": 5736,
    "\u552f\u4e00": 5737,
    "\u306e\u97f3": 5738,
    "\u3057\u305f\u3068\u304d": 5739,
    "\u6642\u9593\u304c\u306a\u3044": 5740,
    "\u304c\u5fc5\u8981\u306a\u306e": 5741,
    "\u30b3\u30b9\u30c8": 5742,
    "\u5302\u3044": 5743,
    "\u304b\u3082\u3057\u308c\u3093": 5744,
    "\u6c11\u4e3b\u4e3b\u7fa9": 5745,
    "\u8a73\u3057\u3044": 5746,
    "\u2581\u58c1": 5747,
    "\u5f37\u5236": 5748,
    "\u2581\u3048\u3048\u3068": 5749,
    "\u2581\u30de\u30fc\u30af": 5750,
    "\u3059\u308a": 5751,
    "\u751f\u304d\u7269": 5752,
    "\u601d\u3063\u3066\u308b": 5753,
    "\u308f\u304b\u3089\u3093": 5754,
    "\u8a71\u305d\u3046": 5755,
    "\u2581\u610f\u8b58": 5756,
    "\u6c88": 5757,
    "\u30ce\u30fc\u30c8": 5758,
    "\u30ef\u30af\u30c1\u30f3": 5759,
    "\u2581\u30d4": 5760,
    "\u307f\u307e\u3057\u3087\u3046": 5761,
    "\u69cb\u308f\u306a\u3044": 5762,
    "\u2581\u30c1\u30e3\u30fc\u30ea\u30fc": 5763,
    "\u9759": 5764,
    "\u3053\u306e\u3088\u3046\u306a": 5765,
    "\u6255\u3044": 5766,
    "\u8972": 5767,
    "\u3044\u3051\u306a\u3044": 5768,
    "\u652f\u3048": 5769,
    "\u307b\u3069\u306e": 5770,
    "\u30b7\u30eb": 5771,
    "\u98df\u3079\u7269": 5772,
    "\u5730\u533a": 5773,
    "\u7740\u9678": 5774,
    "\u751f\u307e\u308c\u3066": 5775,
    "\u306b\u306a\u3063\u3066\u3044\u307e\u3059": 5776,
    "\u2581\u4eca\u3067\u306f": 5777,
    "\u30c9\u30e9\u30a4\u30d6": 5778,
    "\u3064\u3082\u308a\u306f\u306a\u3044": 5779,
    "\u306e\u3053\u3068\u3067": 5780,
    "\u2581\u5371\u306a\u3044": 5781,
    "\u30fc\u30d7": 5782,
    "\u3044\u3051\u308b": 5783,
    "\u58ca": 5784,
    "\u5869": 5785,
    "\u3060\u306a\u3093\u3066": 5786,
    "\u611f\u8b1d\u3057\u307e\u3059": 5787,
    "\u304c\u3044\u305f": 5788,
    "\u3055\u3093\u3082": 5789,
    "\u89aa\u5207": 5790,
    "\u30d0\u30a4\u30aa": 5791,
    "\u30cf\u30eb": 5792,
    "\u30c1\u30fc\u30ba": 5793,
    "\u4eba\u9593\u306f": 5794,
    "\u675f": 5795,
    "\u5c02\u9580\u5bb6": 5796,
    "\u8584": 5797,
    "\u8a00\u3046\u306e": 5798,
    "\u78ba\u304b\u3081": 5799,
    "\u30c1\u30f3": 5800,
    "\u4eba\u3005\u306e": 5801,
    "\u5076\u7136": 5802,
    "\u884c\u304f\u306e": 5803,
    "\u30d9\u30c3\u30c9": 5804,
    "\u7dba\u9e97": 5805,
    "\u307f\u3088\u3046": 5806,
    "\u5074\u306b": 5807,
    "\u3068\u601d\u3063\u3066\u3044\u308b": 5808,
    "\u6ce3\u3044\u3066": 5809,
    "\u5b8c\u74a7": 5810,
    "\u6050": 5811,
    "\u559c": 5812,
    "an": 5813,
    "\u2581\u3053\u306e\u3088\u3046\u306b": 5814,
    "\u2581\u5931\u6557": 5815,
    "\u7740\u304f": 5816,
    "\u2581\u305d\u3046\u3060\u3063\u305f": 5817,
    "\u990c": 5818,
    "\u3068\u3057\u3066\u306f": 5819,
    "\u305f\u3063\u305f": 5820,
    "\u3055\u3089\u306b": 5821,
    "\u9ebb": 5822,
    "\u30aa\u30da": 5823,
    "\u597d\u307f": 5824,
    "\u51cd": 5825,
    "\u653f\u7b56": 5826,
    "\u3088\u3046\u3068\u3057\u305f": 5827,
    "\u3044\u3044\u3051\u3069": 5828,
    "\u5893\u5730": 5829,
    "\u2581\u3053\u306e\u4e16\u754c": 5830,
    "\u805e\u3044\u3066\u308b": 5831,
    "\u3060\u3063\u305f\u304b": 5832,
    "\u4f0a": 5833,
    "\u7591\u3044": 5834,
    "\u914d\u7f6e": 5835,
    "\u4f55\u3068\u304b": 5836,
    "\u5bc4": 5837,
    "\u2581\u3064\u3044": 5838,
    "\u53f8": 5839,
    "\u3057\u305f\u3093\u3067\u3059": 5840,
    "\u5b50\u306f": 5841,
    "\u3084\u3063\u3066\u305f": 5842,
    "\u30b9\u30bf\u30fc\u30c8": 5843,
    "\u4eba\u3067\u3059": 5844,
    "\u306a\u3044\u3067\u304f\u308c": 5845,
    "\u30ab\u30ea": 5846,
    "\u7af6\u4e89": 5847,
    "\u30b7\u30b9\u30c6\u30e0\u3092": 5848,
    "\u512a\u308c\u305f": 5849,
    "\u30c6\u30fc\u30de": 5850,
    "\u3057\u306a\u3051\u308c\u3070\u306a\u3089\u306a\u3044": 5851,
    "\u4fee": 5852,
    "\u676f": 5853,
    "\u8a08\u753b\u3092": 5854,
    "\u52b4\u50cd": 5855,
    "\u2581\u9152": 5856,
    "\u30d8\u30ea": 5857,
    "\u2581\u4f55\u304b\u3042\u3063\u305f": 5858,
    "\u5ac1": 5859,
    "\u30b9\u306f": 5860,
    "\u706f": 5861,
    "\u304b\u308f\u3044\u305d\u3046": 5862,
    "\u2581\u3080\u3057\u308d": 5863,
    "\u2581\u305d\u306e\u4eba": 5864,
    "\u554f\u984c\u306b": 5865,
    "\u2581\u751f\u5f92": 5866,
    "\u2581\u9a5a\u3044\u305f": 5867,
    "\u3069\u3046\u3060": 5868,
    "\u518d\u3073": 5869,
    "\u30cb\u30c3\u30af": 5870,
    "\u30d6\u30ec": 5871,
    "\u6368\u3066\u305f": 5872,
    "\u547c\u3093\u3060": 5873,
    "\u3045": 5874,
    "\u3044\u3044\u306e\u3088": 5875,
    "\u3067\u3042\u308b\u3068": 5876,
    "\u8170": 5877,
    "\u2581\u3082\u3057\u304b\u3057\u305f\u3089": 5878,
    "\u3092\u5f97\u305f": 5879,
    "\u6e08\u3080": 5880,
    "\u2581E": 5881,
    "\u2581\u304a\u5144\u3061\u3083\u3093": 5882,
    "\u5f85\u3063\u3066\u3044\u308b": 5883,
    "\u604b\u611b": 5884,
    "\u305d\u308c\u3089": 5885,
    "\u8133\u306e": 5886,
    "\u6050\u308d\u3057\u3044": 5887,
    "\u2581\u5b8c\u74a7": 5888,
    "\u30ea\u30fc\u30c9": 5889,
    "\u53ea": 5890,
    "\u98f2\u3093\u3060": 5891,
    "\u6545\u90f7": 5892,
    "\u306e\u4ed5\u696d": 5893,
    "\u304a\u3070\u3055\u3093": 5894,
    "\u306a\u304f\u3061\u3083": 5895,
    "\u7406\u7531\u3092": 5896,
    "\u30cb\u30e3": 5897,
    "\u7f6a\u3092": 5898,
    "\u3061\u3087\u3046\u3069": 5899,
    "\u3042\u3063": 5900,
    "\u884c\u304b\u306a\u304d\u3083": 5901,
    "\u6e56": 5902,
    "\u666e\u6bb5": 5903,
    "\u6982\u5ff5": 5904,
    "\u4e00\u77ac": 5905,
    "\u8cb8\u3057": 5906,
    "\u30b0\u30ec\u30fc": 5907,
    "\u5834\u3067": 5908,
    "\u53e3\u306b": 5909,
    "\u2581\u9280\u884c": 5910,
    "\u88c1": 5911,
    "\u2581\u91cd\u8981\u306a": 5912,
    "\u7d0d": 5913,
    "\u30c8\u30fc\u30af": 5914,
    "\u904e\u3054\u3059": 5915,
    "\u7206\u7834": 5916,
    "\u5927\u4f50": 5917,
    "\u30fc\u30ba": 5918,
    "\u6b63\u76f4": 5919,
    "\u4ed5\u65b9\u306a\u3044": 5920,
    "\u884c\u304f\u305e": 5921,
    "\u5f85": 5922,
    "\u30e1\u30f3\u30d0\u30fc": 5923,
    "\u2581\u904b": 5924,
    "\u2581\u5b6b": 5925,
    "\u2581\u6700\u4f4e": 5926,
    "\u30d5\u30ea": 5927,
    "\u767b\u9332": 5928,
    "\u9045\u523b": 5929,
    "\u2581\u305f\u3060\u3044\u307e": 5930,
    "\u3064\u3044\u3066\u308b": 5931,
    "\u2581\u50d5\u305f\u3061": 5932,
    "\u8a71\u3057\u3066\u308b": 5933,
    "\u5f62\u3067": 5934,
    "\u2581\u5915\u98df": 5935,
    "\u6b63\u7fa9": 5936,
    "\u6bba\u4eba\u72af": 5937,
    "\u4f0f\u305b": 5938,
    "\u2581\u305d\u308c\u4ee5\u4e0a": 5939,
    "\u5b89\u5168\u306a": 5940,
    "\u2581\u81ea\u5206\u81ea\u8eab": 5941,
    "\u2581\u99c4\u76ee": 5942,
    "\u2581\u3053\u308c\u3060\u3051": 5943,
    "\u2581\u521d": 5944,
    "\u2581\u590f": 5945,
    "\u2581\u30ed\u30b7\u30a2": 5946,
    "\u308a\u307e\u305b\u3093": 5947,
    "\u5348\u524d": 5948,
    "\u4f4f\u6c11": 5949,
    "\u2581\u7dca\u6025": 5950,
    "\u8cb8": 5951,
    "\u2581\u56db": 5952,
    "\u2581\u3053\u306e\u524d": 5953,
    "\u5b8c\u74a7\u306a": 5954,
    "\u4e57\u308a\u8d8a\u3048": 5955,
    "\u30d7\u30ed\u30bb\u30b9": 5956,
    "sa": 5957,
    "\u2581\u30ad\u30e0": 5958,
    "\u90e8\u54c1": 5959,
    "\u2581\u30a4\u30f3": 5960,
    "\u5b50\u3069\u3082\u305f\u3061": 5961,
    "\u2581\u518d\u3073": 5962,
    "\u2581\u30d0\u30f3": 5963,
    "\u3068\u540c\u3058\u3088\u3046\u306b": 5964,
    "\u304b\u3082\u306a": 5965,
    "\u6bd4": 5966,
    "\u30ab\u30ea\u30d5\u30a9\u30eb\u30cb\u30a2": 5967,
    "\u3079\u304d\u3060\u3063\u305f": 5968,
    "\u304c\u51fa\u308b": 5969,
    "\u2581\u6b63\u3057\u3044": 5970,
    "\u6697\u3044": 5971,
    "\u9e7f": 5972,
    "\u60c5\u5831\u306f": 5973,
    "\u808c": 5974,
    "\u6d88\u3048\u308b": 5975,
    "\u5408\u3063\u305f": 5976,
    "\u2581\u30c0\u30cb\u30fc": 5977,
    "\u601d\u308f\u306a\u3044": 5978,
    "\u898b\u3066\u3044\u308b": 5979,
    "\u7684\u306b\u306f": 5980,
    "\u2581\u98db\u884c\u6a5f": 5981,
    "\u30dc\u30bf\u30f3": 5982,
    "\u96c6\u3081": 5983,
    "\u7236\u4e0a": 5984,
    "\u3067\u306f\u306a\u304b\u3063\u305f": 5985,
    "\u91d1\u5c5e": 5986,
    "\u2581\u5f85\u3063\u3066\u304f\u308c": 5987,
    "\u2581\u305d\u306e\u305f\u3081\u306b": 5988,
    "\u898b\u305b\u3066": 5989,
    "\u306a\u308a\u307e\u3057\u305f": 5990,
    "\u79f0": 5991,
    "\u2581\u30af\u30ea\u30b9\u30de\u30b9": 5992,
    "\u308b\u307e\u3067": 5993,
    "\u5236\u5ea6": 5994,
    "\u697d\u3057\u304f": 5995,
    "\u56e0": 5996,
    "\u8a3a": 5997,
    "\u30b8\u30e7\u30fc": 5998,
    "\u3066\u3084\u308b": 5999,
    "\u9178": 6000,
    "\u8abf\u3079\u308b": 6001,
    "\u4e2d\u6bd2": 6002,
    "\u2581\u4e00\u65b9": 6003,
    "\u306b\u306a\u308c\u3070": 6004,
    "\u2581\u4e45\u3057\u3076\u308a": 6005,
    "\u7406\u7531\u304c": 6006,
    "\u8cb7\u3044\u7269": 6007,
    "\u2581\u9811\u5f35\u308c": 6008,
    "\u6226\u3063\u3066": 6009,
    "\u95a2\u4e0e": 6010,
    "\u30eb\u30fc\u30e0": 6011,
    "\u9670": 6012,
    "\u4ee3\u7406": 6013,
    "\u30ed\u30fc\u30c9": 6014,
    "\u899a\u609f": 6015,
    "\u7f6e\u304f": 6016,
    "\u5915\u98df": 6017,
    "\u305f\u3044\u3093\u3060": 6018,
    "\u96c6\u307e\u3063\u3066": 6019,
    "\u597d\u304d\u3060\u3063\u305f": 6020,
    "\u30e9\u30a4\u30d5": 6021,
    "\u2581\u30d3\u30c7\u30aa": 6022,
    "\u59cb\u672b": 6023,
    "\u8996\u899a": 6024,
    "\u2581\u305d\u3053\u306f": 6025,
    "\u653f\u6cbb\u5bb6": 6026,
    "\u3092\u3064\u3051": 6027,
    "\u6295": 6028,
    "\u982d\u306e": 6029,
    "\u2581\u4f55\u306e\u8a71": 6030,
    "\u30ae\u30fc": 6031,
    "\u30db\u30f3\u30c8": 6032,
    "\u623f": 6033,
    "\u306b\u51fa": 6034,
    "\u30de\u30cd": 6035,
    "\u660e\u3089\u304b\u306b": 6036,
    "\u7279\u306b": 6037,
    "\u4f1a\u3044": 6038,
    "\u9000\u5c48": 6039,
    "\u30a4\u30f3\u30bf\u30d3\u30e5\u30fc": 6040,
    "\u2581\u5e73": 6041,
    "\u30db\u30f3": 6042,
    "\u50cd\u3044\u3066\u308b": 6043,
    "\u4e0d\u6b63": 6044,
    "\u2581\u6614\u306e": 6045,
    "\u5411\u304b\u3044": 6046,
    "\u30b1\u30c4": 6047,
    "\u304a\u524d\u306b": 6048,
    "\u4f53\u306f": 6049,
    "\u308b\u3053\u3068\u306f": 6050,
    "\u88f8": 6051,
    "\u2581\u6b8b\u5ff5\u306a\u304c\u3089": 6052,
    "\u9a12\u304e": 6053,
    "\u8eab\u5143": 6054,
    "\u76ee\u6483\u8005": 6055,
    "\u5c0f\u3055\u304f": 6056,
    "\u3089\u308c\u3066\u308b": 6057,
    "\u305f\u306e\u3088": 6058,
    "\u6c17\u306b\u5165\u3063\u305f": 6059,
    "\u305d\u3053\u3067": 6060,
    "\u3088\u3046\u306b\u306a\u308b": 6061,
    "\u2581\u6bce\u5e74": 6062,
    "\u6559\u3048\u305f": 6063,
    "\u5b9a\u7fa9": 6064,
    "\u2581\u5974\u304c": 6065,
    "\u5c3d\u304f": 6066,
    "\u3061\u3083\u3093\u304c": 6067,
    "\u3060\u3063\u305f\u306e\u3067\u3059": 6068,
    "\u30a7": 6069,
    "\u4e8c\u3064\u306e": 6070,
    "\u3060\u3063\u305f\u306a": 6071,
    "\u7518": 6072,
    "\u4f55\u304c\u8d77\u304d\u305f": 6073,
    "\u3069\u3053\u306b\u3044\u308b": 6074,
    "\u79c1\u305f\u3061\u306b": 6075,
    "\u5de8\u4eba": 6076,
    "\u5f93\u696d\u54e1": 6077,
    "\u9593\u9055\u3063\u305f": 6078,
    "\u4f1a\u9577": 6079,
    "\u8272\u3005": 6080,
    "\u672d": 6081,
    "\u2581\u30c1\u30a7": 6082,
    "\u5104\u30c9\u30eb": 6083,
    "\u306f\u6b7b\u3093\u3060": 6084,
    "\u82f1\u56fd": 6085,
    "\u30ad\u30df": 6086,
    "\u88c2": 6087,
    "\u51b7": 6088,
    "\u3064\u3082\u308a\u3060\u3063\u305f": 6089,
    "\u7a2e\u306e": 6090,
    "\u306e\u307b\u3046\u304c": 6091,
    "\u2581\u305a\u3044\u3076\u3093": 6092,
    "\u5439\u304d": 6093,
    "\u2581\u30a2\u30a2": 6094,
    "\u505a": 6095,
    "\u8ca7\u56f0": 6096,
    "\u3059\u307f\u307e\u305b\u3093": 6097,
    "\u2581\u8ab0\u306e": 6098,
    "\u5831": 6099,
    "\u2581\u3069\u3053\u304b\u3089": 6100,
    "\u60c5\u5831\u304c": 6101,
    "\u2581\u9055\u3044\u307e\u3059": 6102,
    "\u3092\u8ffd\u3063\u3066": 6103,
    "\u8e0f": 6104,
    "\u6c17\u304c\u3059\u308b": 6105,
    "\u635c\u3057": 6106,
    "\u2581\u9003\u3052\u308b": 6107,
    "\u3063\u305f\u3093\u3060": 6108,
    "\u306a\u3044\u3060\u308d\u3046": 6109,
    "\u3068\u3057\u3066\u306e": 6110,
    "\u7956\u7236": 6111,
    "\u2581\u3042\u3093\u307e\u308a": 6112,
    "\u2581\u540c\u6642\u306b": 6113,
    "\u81ea\u4f53": 6114,
    "\u2581\u5404": 6115,
    "\u6c17\u306b\u3057\u306a\u3044": 6116,
    "\u4f1a\u5834": 6117,
    "\u2581\u30b5\u30a4": 6118,
    "\u306a\u3044\u3093\u3067\u3059": 6119,
    "\u2581\u98df\u4e8b": 6120,
    "\u7bc0": 6121,
    "\u307e\u3042": 6122,
    "\u8d08\u308a\u7269": 6123,
    "\u3042\u308b\u306e\u304b": 6124,
    "\u266b": 6125,
    "\u4f1a\u3044\u305f\u3044": 6126,
    "\u306e\u8eca": 6127,
    "\u8377": 6128,
    "\u3060\u3051\u3067\u3082": 6129,
    "\u8010\u3048": 6130,
    "\u5bc2\u3057\u3044": 6131,
    "\u7956\u6bcd": 6132,
    "\u6563\u6b69": 6133,
    "\u30b0\u30ec": 6134,
    "\u2581\u6c37": 6135,
    "\u2581\u305d\u306e\u3068\u304a\u308a": 6136,
    "\u6b7b\u8005": 6137,
    "\u4e00\u5ea6\u3082": 6138,
    "\u8fd8": 6139,
    "\u9001\u3063\u305f": 6140,
    "\u30ac\u30a4": 6141,
    "\u30c0\u30e1\u30fc\u30b8": 6142,
    "\u4fe1\u3058\u3089\u308c\u306a\u3044": 6143,
    "\u2581\u3054\u4e3b\u4eba": 6144,
    "\u30b9\u30bf\u30c3\u30d5": 6145,
    "\u30f4\u30a9": 6146,
    "\u2581\u3053\u306e\u5199\u771f": 6147,
    "\u2581\u30d0\u30b9": 6148,
    "\u306e\u4eba\u304c": 6149,
    "\u2581\u5468\u308a": 6150,
    "\u30b5\u30f3\u30bf": 6151,
    "\u643a\u5e2f\u96fb\u8a71": 6152,
    "\u306a\u3093\u3060\u3063\u3066": 6153,
    "\u4eba\u304c\u3044\u308b": 6154,
    "\u3060\u3068\u601d\u3063\u305f": 6155,
    "\u5e78\u798f": 6156,
    "\u624b\u4f1d\u3044": 6157,
    "\u7d66\u6599": 6158,
    "\u2581\u672a": 6159,
    "\u2581\u4f55\u3088": 6160,
    "\u3063\u3071": 6161,
    "\u304a\u3044\u3067": 6162,
    "\u30cb\u30e5\u30fc\u30e8\u30fc\u30af": 6163,
    "\u3068\u306a\u3063\u3066": 6164,
    "\u3044\u307e\u3059\u304b": 6165,
    "\u3054\u3056\u3044\u307e\u3059": 6166,
    "\u30d7\u30ea": 6167,
    "\u2581\u9006": 6168,
    "\u609f": 6169,
    "\u898b\u65b9": 6170,
    "\u2581\u4e00\u751f": 6171,
    "\u7802\u6f20": 6172,
    "\u3059\u3093\u3060": 6173,
    "\u3068\u3057\u305f": 6174,
    "\u3044\u3044\u3093\u3060": 6175,
    "\u306a\u3044\u3068\u3044\u3051\u306a\u3044": 6176,
    "\u85ac\u7269": 6177,
    "\u7236\u3055\u3093": 6178,
    "\u98f2\u3081": 6179,
    "\u805e\u304b\u305b\u3066": 6180,
    "\u2581\u30d5\u30a1": 6181,
    "\u672c\u4eba": 6182,
    "\u904b\u8ee2\u624b": 6183,
    "\u2581\u958b\u3051": 6184,
    "\u304d\u305f\u306e": 6185,
    "\u3069\u3046\u3044\u3046": 6186,
    "\u2581\u4f55\u3057\u3066\u308b": 6187,
    "\u2581\u96e8": 6188,
    "\u6b63\u3057\u304f": 6189,
    "\u9023\u7d61\u3092": 6190,
    "\u51b7\u305f\u3044": 6191,
    "\u72ec\u308a": 6192,
    "\u696d\u754c": 6193,
    "\u3068\u601d\u3063\u3066\u3044\u305f": 6194,
    "\u5fa9\u6d3b": 6195,
    "\u7bc9": 6196,
    "\u2581\u30b3\u30f3\u30d4\u30e5\u30fc\u30bf": 6197,
    "\u7c89": 6198,
    "\u30a6\u30b9": 6199,
    "\u53c8": 6200,
    "\u3068\u3044\u3063\u3066": 6201,
    "\u306b\u9023\u7d61": 6202,
    "\u6674": 6203,
    "\u6750\u6599": 6204,
    "\u2581\u4eca\u56de": 6205,
    "\u5973\u306f": 6206,
    "\u2581\u79c1\u306b\u3068\u3063\u3066": 6207,
    "\u8a00\u3063\u305f\u306e": 6208,
    "\u5b50\u3061\u3083\u3093": 6209,
    "\u2581\u901a\u5e38": 6210,
    "\u8cbb\u7528": 6211,
    "\u80b2\u3063\u305f": 6212,
    "\u7248": 6213,
    "\u2581\u4e21": 6214,
    "\u2581\u53ef\u611b\u3044": 6215,
    "\u2581\u3054\u89a7": 6216,
    "\u8aad\u3093\u3060": 6217,
    "\u77ed\u3044": 6218,
    "\u5f85\u6a5f": 6219,
    "\u2581\u5f37": 6220,
    "\u8cb8\u3057\u3066": 6221,
    "\u3069\u306e\u3088\u3046\u306a": 6222,
    "\u2581\u672c\u65e5": 6223,
    "\u306e\u52b9\u679c": 6224,
    "\u81ea\u3089": 6225,
    "\u7de0\u3081": 6226,
    "\u2581\u3044\u304f\u3064\u304b": 6227,
    "\u6f5c": 6228,
    "\u500b\u4eba\u7684\u306a": 6229,
    "\u306f\u3058\u3081": 6230,
    "\u2581\u975e": 6231,
    "\u65e6\u90a3": 6232,
    "\u6bd4\u3079": 6233,
    "\u2581\u30c7\u30fc\u30c8": 6234,
    "\u3042\u308a\u3048\u306a\u3044": 6235,
    "\u7832": 6236,
    "\u9014\u4e2d\u3067": 6237,
    "\u3060\u3063\u305f\u3088": 6238,
    "\u2581\u30d5\u30d5\u30d5": 6239,
    "\u7a2e\u985e": 6240,
    "\u2581\u305d\u3046\u3067\u3059\u306d": 6241,
    "\u2581\u3042\u308b\u65e5": 6242,
    "\u7d42\u308f\u3089\u305b": 6243,
    "\u3044\u304f\u3064\u304b": 6244,
    "\u2581\u82e5": 6245,
    "\u30ab\u30e9": 6246,
    "\u771f\u3063": 6247,
    "\u60a3\u8005\u306e": 6248,
    "\u30a6\u30a3\u30eb\u30b9": 6249,
    "\u56de\u53ce": 6250,
    "\u306a\u3069\u306e": 6251,
    "\u30fc\u30b7\u30e7\u30f3": 6252,
    "\u3066\u3044\u304f": 6253,
    "\u2581\u3060\u3081\u3060": 6254,
    "\u3092\u4fe1\u3058\u308b": 6255,
    "\u6b63\u89e3": 6256,
    "\u5e7b": 6257,
    "\u56da\u4eba": 6258,
    "\u306e\u3046": 6259,
    "\u2581\u6b6f": 6260,
    "FBI": 6261,
    "\u5c45\u3066": 6262,
    "\u2581P": 6263,
    "\u3063\u304d\u308a": 6264,
    "\u73fe\u4ee3": 6265,
    "km": 6266,
    "\u3063\u3066\u3070": 6267,
    "\u5b8c\u5168": 6268,
    "\u30c0\u30fc\u30af": 6269,
    "\u306f\u8ab0\u3060": 6270,
    "\u3059\u3093\u306a": 6271,
    "\u3064\u3044": 6272,
    "\u8a00\u3063\u3066\u308b\u306e": 6273,
    "\u2581\u9593\u9055\u3044\u306a\u3044": 6274,
    "\u884c\u304f\u308f": 6275,
    "\u8fb2": 6276,
    "\u2581\u30d1\u30d1\u306f": 6277,
    "\u5c0b\u554f": 6278,
    "\u306f\u305a\u3088": 6279,
    "\u6bcd\u3055\u3093": 6280,
    "\u4f5c\u5bb6": 6281,
    "\u3088\u308d\u3057\u304f": 6282,
    "\u8ae6\u3081": 6283,
    "\u6c7a\u3057\u3066": 6284,
    "\u8a71\u3055\u306a\u3044": 6285,
    "\u5e02\u9577": 6286,
    "\u308c\u3066\u308b": 6287,
    "\u8cac\u4efb\u3092": 6288,
    "\u2581\u30a8\u30cd\u30eb\u30ae\u30fc": 6289,
    "\u3082\u3089\u304a\u3046": 6290,
    "\u2581\u8d77\u304d\u3066": 6291,
    "\u2581\u5b50\u4f9b\u306e": 6292,
    "\u306e\u534a\u5206": 6293,
    "400": 6294,
    "\u30ea\u30fc\u30f3": 6295,
    "\u7532": 6296,
    "\u4f4e\u3044": 6297,
    "\u30a4\u30bf\u30ea\u30a2": 6298,
    "\u306b\u3042\u308a\u307e\u3059": 6299,
    "\u8981\u8acb": 6300,
    "\u3059\u308b\u3053\u3068\u304c": 6301,
    "\u6e21\u3057": 6302,
    "\u9577\u5b98": 6303,
    "\u4e57\u308c": 6304,
    "\u9003\u3052\u3066": 6305,
    "\u306e\u4e8b\u4ef6": 6306,
    "\u3092\u4fe1\u3058\u3066": 6307,
    "\u30c7\u30a3\u30f3\u30b0": 6308,
    "\u305f\u6642": 6309,
    "\u3063\u3059\u304b": 6310,
    "\u2581\u30aa\u30fc\u30b1\u30fc": 6311,
    "\u306a\u3044\u3060\u308d": 6312,
    "\u5973\u304c": 6313,
    "\u2581\u5076\u7136": 6314,
    "\u5c4b\u6839": 6315,
    "\u2581\u30b8\u30a7\u30a4": 6316,
    "\u8077\u5834": 6317,
    "\u3092\u3064\u3051\u3066": 6318,
    "300": 6319,
    "\u4ed8\u304d\u5408\u3063\u3066": 6320,
    "\u6b63\u5e38": 6321,
    "\u3093\u3067\u3057\u3087\u3046\u304b": 6322,
    "\u2581\u5f7c\u7b49": 6323,
    "\u6e21\u3057\u3066": 6324,
    "\u5b50\u3092": 6325,
    "\u3067\u304d\u308b\u3053\u3068": 6326,
    "\u62c5": 6327,
    "\u304c\u8d77\u304d\u305f": 6328,
    "\u88dc": 6329,
    "\u7981": 6330,
    "\u30db\u30ef\u30a4\u30c8": 6331,
    "\u7db2": 6332,
    "\u4f59\u88d5": 6333,
    "\u89e3\u6c7a\u7b56": 6334,
    "\u5f37\u529b\u306a": 6335,
    "\u2581\u77e5\u308b": 6336,
    "\u2581\u898b\u3064\u3051": 6337,
    "\u82e5": 6338,
    "\u8868\u9762": 6339,
    "\u2581\u7206\u5f3e": 6340,
    "\u2581\u3059\u308b\u3068": 6341,
    "\u30a3": 6342,
    "\u3092\u653b\u6483": 6343,
    "\u2581\u623b\u3063\u3066": 6344,
    "\u6b8b\u3063\u3066\u308b": 6345,
    "\u3089\u305b\u308b": 6346,
    "\u682a": 6347,
    "\u4f11\u61a9": 6348,
    "\u65d7": 6349,
    "\u2581\u5b9f\u306b": 6350,
    "\u2581\u5144\u8cb4": 6351,
    "\u52b9": 6352,
    "\u2581\u7279\u5225": 6353,
    "\u2581\u50d5\u306b\u306f": 6354,
    "\u30c1\u30e5": 6355,
    "\u6b7b\u306d": 6356,
    "\u30c7\u30a3\u30a2": 6357,
    "\u6c7a\u3081\u3066": 6358,
    "\u88ab\u5bb3": 6359,
    "\u3076\u308a": 6360,
    "\u884c\u3051\u306a\u3044": 6361,
    "\u2581\u6b74\u53f2": 6362,
    "\u2581\u3069\u3046\u306a\u308b": 6363,
    "\u3092\u8abf\u3079": 6364,
    "\u9f8d": 6365,
    "\u795d": 6366,
    "\u771f\u3093\u4e2d": 6367,
    "\u9078\u3093\u3060": 6368,
    "\u5b50\u4f9b\u304c": 6369,
    "\u3059\u308b\u3088\u3046": 6370,
    "\u4f55\u6642": 6371,
    "\u8005\u305f\u3061": 6372,
    "\u2581\u5b89": 6373,
    "\u30c1\u30e7\u30a6": 6374,
    "\u2581\u3069\u3046\u3044\u3046\u610f\u5473": 6375,
    "\u795e\u69d8": 6376,
    "\u304b\u3089\u6765\u305f": 6377,
    "\u3059\u308b\u306e\u304c": 6378,
    "\u5e38\u306b": 6379,
    "\u4ea4\u901a": 6380,
    "\u2581\u6307": 6381,
    "\u8a00\u3046\u4e8b": 6382,
    "\u2581\u307e\u305a\u3044": 6383,
    "\u629c": 6384,
    "\u30a4\u30d9\u30f3\u30c8": 6385,
    "\u3092\u898b\u305b\u3066": 6386,
    "\u8aa4": 6387,
    "\u30c0\u30eb": 6388,
    "\u3084\u308d": 6389,
    "\u97f3\u304c": 6390,
    "\u9806": 6391,
    "\u3054\u3068\u306b": 6392,
    "\u2581\u6642\u9593\u304c": 6393,
    "\u3092\u63a2\u3057\u3066\u308b": 6394,
    "\u306b\u3067\u3082": 6395,
    "\u3069\u3061\u3089": 6396,
    "\u305b\u305a": 6397,
    "\u884c\u3046": 6398,
    "\u65b0\u305f\u306a": 6399,
    "\u3057\u3066\u3057\u307e\u3063\u305f": 6400,
    "\u306b\u3057\u3088\u3046": 6401,
    "\u2581\u884c\u304d\u307e\u3057\u3087\u3046": 6402,
    "\u691c\u8a0e": 6403,
    "\u51fa\u53e3": 6404,
    "\u3059\u308b\u3082\u306e": 6405,
    "\u5f85\u3063\u305f": 6406,
    "\u4f55\u767e": 6407,
    "\u3053\u308c\u3089\u306e": 6408,
    "\u9a19": 6409,
    "\u3093\u306a\u3089": 6410,
    "\u8a71\u305b\u308b": 6411,
    "\u816b\u760d": 6412,
    "\u9806\u8abf": 6413,
    "\u610f\u5fd7": 6414,
    "\u2581\u30d5\u30f3": 6415,
    "\u60c5\u71b1": 6416,
    "\u73fe\u308c\u305f": 6417,
    "\u6b7b\u3092": 6418,
    "\u7d50\u69cb": 6419,
    "\u3092\u6b62\u3081\u308b": 6420,
    "\u8fba\u308a": 6421,
    "\u8f9e": 6422,
    "\u3092\u51fa\u3059": 6423,
    "\u6559\u3048\u3066\u304f\u308c\u305f": 6424,
    "\u306b\u884c\u304d": 6425,
    "\u8a17": 6426,
    "\u523a\u6fc0": 6427,
    "\u306b\u79fb": 6428,
    "\u5e83\u3044": 6429,
    "\u2581\u3059\u3070\u3089\u3057\u3044": 6430,
    "\u304a\u304d": 6431,
    "\u3092\u51fa\u3057\u3066": 6432,
    "\u2581\u5c11\u5e74": 6433,
    "\u307b\u3093": 6434,
    "23": 6435,
    "\u7d00": 6436,
    "\u6749": 6437,
    "\u77e5\u308c": 6438,
    "\u30de\u30fc\u30d5\u30a3\u30fc": 6439,
    "\u2581\u6700\u521d\u304b\u3089": 6440,
    "\u2581\u9ad8\u6821": 6441,
    "\u2581\u6628\u65e5\u306e": 6442,
    "\u306e\u672c": 6443,
    "\u4e00\u5207": 6444,
    "\u5e74\u751f": 6445,
    "\u304a\u3044\u305f": 6446,
    "\u4ed6\u4eba": 6447,
    "\u30ef\u30c8\u30bd\u30f3": 6448,
    "\u9ebb\u85ac": 6449,
    "\u304a\u4e92\u3044": 6450,
    "\u2581\u77e5\u3089\u306a\u304b\u3063\u305f": 6451,
    "\u3057\u308d\u3088": 6452,
    "\u3084\u3089\u308c\u305f": 6453,
    "\u2581\u30d3\u30fc\u30eb": 6454,
    "\u30b9\u30b3": 6455,
    "\u9023\u7d9a": 6456,
    "\u62f7\u554f": 6457,
    "\u6210\u7e3e": 6458,
    "\u624b\u4f1d\u3046": 6459,
    "\u308b\u306e\u304c": 6460,
    "\u96e2\u308c\u308b": 6461,
    "\u2581\u99ac\u9e7f": 6462,
    "\u2581\u306a\u3093\u3060\u3088": 6463,
    "\u30de\u30b9\u30bf\u30fc": 6464,
    "\u3044\u307e": 6465,
    "\u2581\u6cbb\u7642": 6466,
    "\u6700\u60aa": 6467,
    "\u6e08\u3093\u3060": 6468,
    "\u30d5\u30a3\u30f3": 6469,
    "\u2581\u5354\u529b": 6470,
    "\u5831\u916c": 6471,
    "\u30ae\u30e3\u30f3\u30b0": 6472,
    "\u628a\u63e1": 6473,
    "\u258140": 6474,
    "\u5b88\u3063\u3066": 6475,
    "\u2581\u547d\u4ee4": 6476,
    "\u304b\u4f55\u304b": 6477,
    "\u3069\u308c": 6478,
    "\u2581\u30de\u30de\u306f": 6479,
    "\u8ecd\u306e": 6480,
    "\u3054\u3081\u3093\u306a\u3055\u3044": 6481,
    "\u8eca\u304c": 6482,
    "\u628a": 6483,
    "\u5984\u60f3": 6484,
    "\u9589\u9396": 6485,
    "\u5099\u3048": 6486,
    "\u6642\u4ee3\u306b": 6487,
    "\u30c4\u30fc\u30eb": 6488,
    "\u2581\u7d42\u308f\u3063\u305f": 6489,
    "\u306e\u751f\u6d3b": 6490,
    "\u30e1\u30f3\u30c8": 6491,
    "\u2581\u304a\u524d\u9054": 6492,
    "\u3082\u3046\u4e00\u4eba": 6493,
    "\u5929\u56fd": 6494,
    "\u4e8b\u4ef6\u3092": 6495,
    "\u5e30\u308d\u3046": 6496,
    "\u8aa0": 6497,
    "\u30ea\u30f3\u30af": 6498,
    "\u795e\u306e": 6499,
    "\u5c55\u958b": 6500,
    "\u8ad6\u6587": 6501,
    "\u30c1\u30b1\u30c3\u30c8": 6502,
    "\u3069\u3046\u306a\u308b\u304b": 6503,
    "\u4e0e\u3048": 6504,
    "\u2581\u3069\u3046\u3059\u308c\u3070": 6505,
    "\u7af9": 6506,
    "\u2581\u307b\u307c": 6507,
    "\u5883": 6508,
    "\u756a\u76ee\u306e": 6509,
    "\u984c": 6510,
    "\u2581\u3069\u308c\u304f\u3089\u3044": 6511,
    "\u8a9e\u308a": 6512,
    "\u30bd\u30d5\u30c8": 6513,
    "\u2501": 6514,
    "\u2581\u307f\u3093\u306a\u304c": 6515,
    "\u4f59\u8a08": 6516,
    "\u5168\u54e1\u304c": 6517,
    "\u8eca\u306e": 6518,
    "\u50d5\u3092": 6519,
    "\u2581\u6559\u3048\u3066\u304f\u308c": 6520,
    "\u5211\u52d9\u6240\u306b": 6521,
    "\u51fa\u3066\u304d\u305f": 6522,
    "\u304a\u304b\u3057\u306a": 6523,
    "\u3089\u308c\u3066\u3044\u307e\u3059": 6524,
    "\u73fe\u5834\u306b": 6525,
    "\u958b\u3051\u3066": 6526,
    "st": 6527,
    "\u3063\u3066\u3053\u3068\u306f": 6528,
    "\u78ba\u5b9f\u306b": 6529,
    "\u8ff0\u3079": 6530,
    "\u8abf\u6574": 6531,
    "\u30cf\u30a6\u30b9": 6532,
    "\u30b0\u30e9\u30b9": 6533,
    "\u2581\u5bb9\u7591\u8005": 6534,
    "\u7d50\u3073": 6535,
    "\u5831\u9053": 6536,
    "\u30de\u30b9": 6537,
    "\u4f55\u4eba\u304b": 6538,
    "\u4e9c": 6539,
    "\u58f0\u304c": 6540,
    "\u2581\u82f1\u8a9e": 6541,
    "\u6c17\u3092\u3064\u3051": 6542,
    "\u76ae\u819a": 6543,
    "\u898b\u3066\u305f": 6544,
    "\u6db2": 6545,
    "\u3044\u3066\u308b": 6546,
    "\u5927\u5b66\u306e": 6547,
    "\u30b7\u30c6\u30a3": 6548,
    "\u2581\u88ab\u5bb3\u8005\u306e": 6549,
    "\u8b70\u4f1a": 6550,
    "\u2581\u697d\u3057\u307f": 6551,
    "\u516b": 6552,
    "\u306d\u3070": 6553,
    "\u5931\u6557\u3057\u305f": 6554,
    "\u3069\u306e": 6555,
    "\u4f55\u4eba": 6556,
    "\u2581\u8208\u5473": 6557,
    "\u6a5f\u5bc6": 6558,
    "\u6075": 6559,
    "\u60a3\u8005\u3055\u3093": 6560,
    "\u30d5\u30ed": 6561,
    "\u2581\u3053\u308c\u3089\u306f": 6562,
    "\u2581\u72af\u7f6a": 6563,
    "\u81ea\u52d5\u8eca": 6564,
    "\u59cb\u307e\u308b": 6565,
    "\u7e70\u308a\u8fd4\u3057": 6566,
    "\u98db\u3070": 6567,
    "\u30de\u30c3": 6568,
    "\u306e\u52d5\u304d": 6569,
    "\u2581\u591a": 6570,
    "\u60aa\u5922": 6571,
    "\u2581\u30d3\u30b8\u30cd\u30b9": 6572,
    "\u2581\u65b0\u805e": 6573,
    "22": 6574,
    "\u2581\u8b66\u5bdf\u306f": 6575,
    "\u57fa\u6e96": 6576,
    "\u8f38\u9001": 6577,
    "\u51fa\u6765\u3066": 6578,
    "\u307f\u305f\u3044\u306d": 6579,
    "\u771f\u5b9f\u3092": 6580,
    "\u672c\u306e": 6581,
    "\u5165\u624b": 6582,
    "\u304a\u4f1a\u3044": 6583,
    "\u3053\u3068\u3067\u3057\u3087\u3046": 6584,
    "\u2581\u96ea": 6585,
    "\u4fe1\u3058\u3066": 6586,
    "\u3057\u3066\u307b\u3057\u3044": 6587,
    "\u2581\u304a\u524d\u306b\u306f": 6588,
    "\u307f\u307e\u3057\u305f": 6589,
    "\u30f3\u30b0": 6590,
    "\u30a2\u30f3\u30c9": 6591,
    "\u3042\u307e\u308a\u306b\u3082": 6592,
    "\u773a\u3081": 6593,
    "\u30b9\u30b3\u30c3\u30c8": 6594,
    "\u3092\u3082\u3063\u3066": 6595,
    "\u6a5f\u5668": 6596,
    "\u4e0d\u6e80": 6597,
    "\u2581\u3069\u3093\u306a\u306b": 6598,
    "\u63cf\u3044\u3066": 6599,
    "\u602a\u3057\u3044": 6600,
    "\u6c5a\u308c": 6601,
    "\u2581\u76f4": 6602,
    "\u57fa\u672c\u7684\u306b": 6603,
    "\u2581\u30be\u30f3\u30d3": 6604,
    "\u5fd8\u308c\u3066\u305f": 6605,
    "\u306f\u672c\u5f53\u306b": 6606,
    "\u2581\u52a9\u3051\u3066\u304f\u308c": 6607,
    "\u4ed8\u3051\u308b": 6608,
    "\u2581\u751f\u304d\u3066\u308b": 6609,
    "\u6570\u65e5": 6610,
    "\u2581\u7a93": 6611,
    "\u539a": 6612,
    "\u8cb7\u3046": 6613,
    "\u30bf\u30a4\u30df\u30f3\u30b0": 6614,
    "\u30b9\u30ad\u30e3\u30f3": 6615,
    "\u304b\u306a\u3044": 6616,
    "35": 6617,
    "\u3092\u547c\u3073": 6618,
    "\u7537\u306b": 6619,
    "\u5a18\u3055\u3093": 6620,
    "\u884c\u3051\u3070": 6621,
    "\u2581\u81ea\u5df1": 6622,
    "\u30d1\u30af": 6623,
    "\u306e\u9803": 6624,
    "\u611f\u52d5": 6625,
    "\u30af\u30ec": 6626,
    "\u3069\u3053\u304b\u3067": 6627,
    "\u30c6\u30a3\u30b9": 6628,
    "\u3057\u3066\u3044\u304f": 6629,
    "\u3092\u9078\u3076": 6630,
    "\u30a4\u30f3\u30bf\u30fc\u30cd\u30c3\u30c8": 6631,
    "\u30de\u30b8\u30c3\u30af": 6632,
    "\u3060\u308d\u3046\u3068": 6633,
    "\u6483\u3063\u305f": 6634,
    "\u9045\u308c": 6635,
    "\u2581\u751f\u547d": 6636,
    "\u6c17\u4ed8\u3044\u305f": 6637,
    "\u624b\u914d": 6638,
    "\u2581\u3053\u306e\u4ef6": 6639,
    "\u77e5\u3063\u3066\u307e\u3059": 6640,
    "\u964d\u308a\u3066": 6641,
    "\u258111": 6642,
    "\u2581\u304a\u3063\u3068": 6643,
    "\u2581\u305d\u306e\u524d\u306b": 6644,
    "\u2581\u30cf\u30ed\u30eb\u30c9": 6645,
    "fbi": 6646,
    "\u30d0\u30c8\u30eb": 6647,
    "\u76ee\u899a\u3081": 6648,
    "\u30a6\u30a9\u30eb": 6649,
    "\u2581\u6bba\u3055\u308c\u305f": 6650,
    "ro": 6651,
    "\u2581\u5148\u307b\u3069": 6652,
    "\u30b9\u30a4\u30c3\u30c1": 6653,
    "\u4e21": 6654,
    "\u304a\u3063\u3057\u3083": 6655,
    "\u30af\u30c8": 6656,
    "\u610f\u601d": 6657,
    "\u2581\u50d5\u3089": 6658,
    "\u4e0e": 6659,
    "\u30a6\u30eb": 6660,
    "\u6b8b\u3057\u305f": 6661,
    "\u4ed8\u3051\u305f": 6662,
    "\u2581\u305d\u306e\u5b50": 6663,
    "\u2581\u4e21\u65b9": 6664,
    "\u623b\u3059": 6665,
    "\u2581\u3066\u3081\u3048": 6666,
    "\u8105\u8feb": 6667,
    "\u3063\u3066\u8a00\u3063\u3066\u305f": 6668,
    "\u3068\u3053\u308d\u3060": 6669,
    "\u5c0f\u8aac": 6670,
    "\u6765\u3066\u304f\u308c\u305f": 6671,
    "\u8840\u3092": 6672,
    "\u306b\u5165\u308a": 6673,
    "\u3089\u308c\u307e\u305b\u3093": 6674,
    "\u306d\u30fc": 6675,
    "\u2581\u598a\u5a20": 6676,
    "\u5b6b": 6677,
    "\u2581\u3042\u3093\u305f\u306b": 6678,
    "\u771f\u4f3c": 6679,
    "ip": 6680,
    "\u2581\u3042\u306e\u5973": 6681,
    "\u3063\u3066\u3070\u3088": 6682,
    "\u3055\u308c\u3066\u305f": 6683,
    "\u2581\u3084\u3081\u3066\u304f\u308c": 6684,
    "\u3084\u304c\u3063\u3066": 6685,
    "\u3092\u5207\u308a": 6686,
    "\u6211\u3005\u3092": 6687,
    "\u2581\u5e02\u6c11": 6688,
    "\u30c8\u30a4\u30ec": 6689,
    "\u56de\u76ee": 6690,
    "\u5947": 6691,
    "\u9665": 6692,
    "\u3055\u305b\u308d": 6693,
    "\u3059\u3063\u304b\u308a": 6694,
    "\u2581\u4e16\u754c\u4e2d": 6695,
    "\u2581\u305c\u3072": 6696,
    "\u305f\u3063\u3066": 6697,
    "\u3059\u304e\u305f": 6698,
    "\u3067\u3054\u3056\u3044\u307e\u3059": 6699,
    "\u2581\u795e\u306e": 6700,
    "\u30c6\u30ec": 6701,
    "\u2581\u3042\u305d\u3053\u306b": 6702,
    "\u258117": 6703,
    "\u4fe1\u3058\u306a\u3044": 6704,
    "\u8108": 6705,
    "\u640d\u50b7": 6706,
    "\u822a": 6707,
    "\u898b\u3064\u3051\u3066": 6708,
    "\u5bf9": 6709,
    "\u2581\u4eca\u3084": 6710,
    "\u8fd1\u6240": 6711,
    "\u822a\u7a7a": 6712,
    "\u6d77\u5cb8": 6713,
    "\u9589\u3081": 6714,
    "\u30ed\u30fc\u30de": 6715,
    "\u7d50\u5a5a\u3059\u308b": 6716,
    "\u767a\u52d5": 6717,
    "\u2581\u5f53": 6718,
    "\u2581\u4ffa\u305f\u3061\u306e": 6719,
    "\u672c\u3092": 6720,
    "\u2581L": 6721,
    "\u2581\u53d7\u3051\u5165\u308c": 6722,
    "\u5c0f\u50e7": 6723,
    "\u2581\u7d20\u6575\u306a": 6724,
[...]
