{
  "src_word2id": {
    "<pad>": 0,
    "<s>": 1,
    "</s>": 2,
    "<unk>": 3,
    "\u2581": 4,
    "\u306e": 5,
    "?": 6,
    "\u3002": 7,
    "\u306f": 8,
    "\u304c": 9,
    "\u3092": 10,
    "\u306b": 11,
    "!": 12,
    "\u3068": 13,
    "\u3067": 14,
    "\u3001": 15,
    "\u3060": 16,
    "...": 17,
    "\u3088": 18,
    "\u304b": 19,
    "\u3082": 20,
    "\u306a": 21,
    "\u304b\u3089": 22,
    "\u3067\u3059": 23,
    "\u30fb": 24,
    "\u306d": 25,
    "\u3063\u3066": 26,
    "\u3057": 27,
    "\u2581\u3053\u306e": 28,
    "\u300d": 29,
    "\u308f": 30,
    "\u308b": 31,
    "\u3093\u3060": 32,
    "\u3084": 33,
    "\u3057\u305f": 34,
    "\u305f": 35,
    "...\u3002": 36,
    "\u3059\u308b": 37,
    "\u3057\u3066": 38,
    "\u2581\u300c": 39,
    "\u3055": 40,
    "\"": 41,
    "\u2581\u305d\u306e": 42,
    "\u2581\u79c1\u306f": 43,
    "\u2581\u3067\u3082": 44,
    "\u3066": 45,
    "\u3044": 46,
    "\u3089": 47,
    "\u4eba": 48,
    "\u306b\u306f": 49,
    "\u306a\u3089": 50,
    "\u306a\u3044": 51,
    "1": 52,
    "\u2581\"": 53,
    "\u2581\u3082\u3046": 54,
    "\u307e\u3059": 55,
    "\u3055\u3093": 56,
    "\u2581\u305d\u3057\u3066": 57,
    "\u2581\u3053\u308c\u306f": 58,
    "\u3060\u3063\u305f": 59,
    "\u2581\u305d\u308c\u306f": 60,
    "\u27a1": 61,
    "\u2581-": 62,
    "\u2581\u304a": 63,
    "\u2581\u4f55": 64,
    "~": 65,
    "\u30fc": 66,
    "\u306e\u304b": 67,
    "\u305e": 68,
    "\u2581\u3042\u3042": 69,
    "\u308a": 70,
    "2": 71,
    "\u2581\u3042\u306e": 72,
    "\u3067\u3082": 73,
    "\u3058\u3083\u306a\u3044": 74,
    "\u307e\u3057\u305f": 75,
    ".": 76,
    "\u30b9": 77,
    "\u304f": 78,
    "\u2581\u5f7c\u306f": 79,
    "\u307e\u3067": 80,
    "\u2581\u305d\u3046": 81,
    "\u30fb\u30fb\u30fb": 82,
    "\u2581\u79c1\u306e": 83,
    "\u3093": 84,
    "\u2581\u306f\u3044": 85,
    "\u3051\u3069": 86,
    "\u3044\u308b": 87,
    "\u308d": 88,
    "\u306e\u306f": 89,
    "\u7684": 90,
    "\u2581\u79c1": 91,
    "\u3068\u3044\u3046": 92,
    "\u2581\u3044\u3084": 93,
    "\u3044\u305f": 94,
    "\u3053\u3068": 95,
    "\u3057\u307e\u3059": 96,
    "\u3063\u305f": 97,
    "\u3067\u306f": 98,
    "\u2581\u300a": 99,
    "\u3060\u3088": 100,
    "\u2581\u4eca": 101,
    "\u2581\u79c1\u304c": 102,
    "\u306a\u3093\u3066": 103,
    "\u3060\u308d": 104,
    "\u2015": 105,
    "\u3053\u306e": 106,
    "\u304a": 107,
    "\u2581\u3053\u308c": 108,
    "\u5e74": 109,
    "\u3057\u307e\u3057\u305f": 110,
    "\u30c8": 111,
    "\u2581\u4f55\u304b": 112,
    "\u3067\u3057\u3087\u3046": 113,
    "\u2581\u4ffa\u306f": 114,
    "\u6642": 115,
    "\u3059": 116,
    "\u2581\u3060\u304b\u3089": 117,
    "\u306e\u3067\u3059": 118,
    "\u2581\u307e\u3060": 119,
    "\u30c3": 120,
    "\u4e8b": 121,
    ")": 122,
    "\u3078": 123,
    "\u2581\u3061\u3087\u3063\u3068": 124,
    "\u304c\u3042\u308b": 125,
    "\u3057\u3066\u308b": 126,
    "\u25811": 127,
    "\u3060\u3051": 128,
    "\u3067\u3057\u305f": 129,
    "3": 130,
    "\u3044\u307e\u3059": 131,
    "\u25812": 132,
    "\u2581\u3057\u304b\u3057": 133,
    "\u30af": 134,
    "\u300c": 135,
    "\u3064": 136,
    "\u2581\u3042\u306a\u305f\u306f": 137,
    "\u306a\u304b\u3063\u305f": 138,
    "\u300b": 139,
    "\u65e5": 140,
    "\u3063": 141,
    "\u3068\u3057\u3066": 142,
    "\u3093\u3067\u3059": 143,
    "\u2581\u306a\u305c": 144,
    "\u3067\u304d\u308b": 145,
    "\u2581\u305d\u308c\u3067": 146,
    "\u3055\u308c\u305f": 147,
    "\u3060\u308d\u3046": 148,
    "\u2581\u307e\u305f": 149,
    "\u304d": 150,
    "\u2581\u304a\u524d": 151,
    "\u305d\u3046": 152,
    "\u2581\u3042\u3063": 153,
    "\u3088\u308a": 154,
    "\u3067\u3057\u3087": 155,
    "\u2581\u305d\u308c\u304c": 156,
    "\u2581\u3044\u3044": 157,
    "\u3042\u308b": 158,
    "\u3057\u3066\u3044\u308b": 159,
    "\u4e00": 160,
    "\u3060\u3068": 161,
    "\u2581\u541b\u306f": 162,
    "\u306a\u3093\u3060": 163,
    "\u30c9": 164,
    "\u3044\u3044": 165,
    "\u3068\u304b": 166,
    "\u3053\u3068\u3092": 167,
    "\u3067\u3059\u304b": 168,
    "\u3058\u3083": 169,
    "\u2581\u3042": 170,
    "\u541b": 171,
    "\u305d\u306e": 172,
    "\u306b\u3082": 173,
    "\u2581\u304a\u3044": 174,
    "\u2581\u3046\u3093": 175,
    "\u5206": 176,
    "\u2581\u305d\u3093\u306a": 177,
    "\u306b\u306a\u308b": 178,
    "\u3068\u306f": 179,
    "\u2581\u3042\u306a\u305f\u306e": 180,
    "\u2581\u5f7c\u5973\u306f": 181,
    "\u3082\u306e": 182,
    "\u3081": 183,
    "\u2581\u3058\u3083\u3042": 184,
    "\u4f55": 185,
    "n": 186,
    "\u2581\u3060\u304c": 187,
    "\u307f": 188,
    "\u3044\u3066": 189,
    "\u3070": 190,
    "\u306b\u3064\u3044\u3066": 191,
    "\u2581\u305d\u308c": 192,
    "\u7269": 193,
    "\u8005": 194,
    "\u2581\u3042\u306a\u305f": 195,
    "\u30e9": 196,
    "\u5b50": 197,
    "\u30ea\u30fc": 198,
    "\u3061\u3083\u3093": 199,
    "\u304b\u306a": 200,
    "\u3088\u3046\u306b": 201,
    "\u3093\u3060\u3088": 202,
    "\u30ca": 203,
    "\u2581\u3048\u3048": 204,
    ":": 205,
    "\u2581\u307f\u3093\u306a": 206,
    "\u3088\u3046": 207,
    "\u30ba": 208,
    "\u2581\u3069\u3046\u3057\u3066": 209,
    "\u4e2d": 210,
    "\u3060\u3063\u3066": 211,
    "\u3046": 212,
    "]": 213,
    "\u2581\u672c\u5f53\u306b": 214,
    "\u30a2": 215,
    "\u2581\u3082\u3057": 216,
    "\u3060\u306a": 217,
    "\u2581[": 218,
    "\u30ea": 219,
    "\u30eb": 220,
    "\u2581(": 221,
    "\u2581\u3042\u308a\u304c\u3068\u3046": 222,
    "\u304f\u3060\u3055\u3044": 223,
    "\u3060\u304b\u3089": 224,
    "\u2581\u4ffa": 225,
    "\u3093\u3067\u3059\u304b": 226,
    "\u6642\u9593": 227,
    "\u2581\u3042\u306a\u305f\u304c": 228,
    "\u2581\u3053\u308c\u304c": 229,
    "\u2581\u541b\u306e": 230,
    "\u624b": 231,
    "\u7684\u306a": 232,
    "\u30b3": 233,
    "5": 234,
    "\u4eca": 235,
    "\u2581\u50d5\u306f": 236,
    "\u5927": 237,
    "\u898b": 238,
    "\u306a\u306e": 239,
    "\u3053\u3068\u306f": 240,
    "\u30bf": 241,
    "\u3057\u3066\u3044\u307e\u3059": 242,
    "\u524d\u306b": 243,
    "\u4eba\u306e": 244,
    "\u2581\u3069\u3046": 245,
    "\u25813": 246,
    "\u2581\u304a\u524d\u306f": 247,
    "4": 248,
    "\u2581\u5f7c\u306e": 249,
    "\u3053": 250,
    "\u2581\u4ffa\u306e": 251,
    "\u3068\u601d\u3046": 252,
    "\u8a71": 253,
    "\u305c": 254,
    "\u2581\u3048\u3063": 255,
    "\u529b": 256,
    "\u672c": 257,
    "\u306e\u305f\u3081\u306b": 258,
    "\u307e": 259,
    "\u30de": 260,
    "\u306e\u3088": 261,
    "\u3067\u3059\u306d": 262,
    "\u4eba\u306f": 263,
    "\u4e0a": 264,
    "\u2581\u3082\u3063\u3068": 265,
    "\u2581\u3053\u3093\u306a": 266,
    "\u306d\u3048": 267,
    "\u5bb6": 268,
    "\u3088\u306d": 269,
    "\u2581\u5f7c\u3089\u306f": 270,
    "\u6708": 271,
    "\u2581\u4ffa\u304c": 272,
    "\u30ed": 273,
    "\u3057\u308d": 274,
    "\u30e0": 275,
    "\u308c\u3070": 276,
    "\u3042": 277,
    "\u2581\u3042\u308c": 278,
    "\u56de": 279,
    "\u5f8c": 280,
    "\u30ab": 281,
    "\u3084\u308b": 282,
    "\u3048": 283,
    "\u4f55\u304b": 284,
    "\u3044\u306a\u3044": 285,
    "\u3068\u304d": 286,
    "\u2581\u305f\u3060": 287,
    "\u79c1\u306f": 288,
    "\u304c\u3042\u308a\u307e\u3059": 289,
    "\u826f\u3044": 290,
    "\u6240": 291,
    "\u3055\u308c\u308b": 292,
    "\u79c1": 293,
    "\u3057\u306a\u3044": 294,
    "\u79c1\u306e": 295,
    "\u2581\u3055\u3042": 296,
    "\u30ad": 297,
    "\u304f\u308c": 298,
    "\u4eba\u304c": 299,
    "\u2581\u307e\u3042": 300,
    "\u6027": 301,
    "\u3067\u304d\u306a\u3044": 302,
    "\u2581\u3064\u307e\u308a": 303,
    "\u2581\u81ea\u5206\u306e": 304,
    "\u30f3": 305,
    "\u8003\u3048": 306,
    "\u3067\u306f\u306a\u3044": 307,
    "\u2581\u3053\u3053\u3067": 308,
    "\u3057\u304b": 309,
    "\u4e0d": 310,
    "\u2581\u3069\u3093\u306a": 311,
    "\u306e\u3053\u3068": 312,
    "\u2581\u226a": 313,
    "\u306a\u3069": 314,
    "\u51fa": 315,
    "\u30d6": 316,
    "\u30c7\u30a3": 317,
    "\u3082\u3046": 318,
    "\u3044\u307e\u3057\u305f": 319,
    "\u306b\u306a\u3063\u305f": 320,
    "\u30de\u30f3": 321,
    "\u307e\u305b\u3093": 322,
    "\u2581\u5f7c\u304c": 323,
    "\u2581\u4f55\u3067": 324,
    "\u2581\u3088\u304f": 325,
    "\u30c0": 326,
    "\u3078\u306e": 327,
    "6": 328,
    "\u2581\u541b\u304c": 329,
    "\u30fb\u30fb": 330,
    "\u524d": 331,
    "\u307b\u3069": 332,
    "\u2581\u305d\u308c\u3092": 333,
    "\u9053": 334,
    "\u4f1a": 335,
    "\u2581\u266a": 336,
    "\u306a\u3093\u304b": 337,
    "\u305f\u3044": 338,
    "\u2581\u6211\u3005\u306f": 339,
    "\u65b9": 340,
    "\u2581\u79c1\u305f\u3061\u306f": 341,
    "\u3066\u308b": 342,
    "\u30b8": 343,
    "\u3067\u3059\u3088": 344,
    "\u30d0": 345,
    "\u6c17": 346,
    "\u2581\u3044\u3064\u3082": 347,
    "\u305f\u3081\u306b": 348,
    "\u306e\u3088\u3046\u306b": 349,
    "\u4e0b": 350,
    "\u30aa": 351,
    "\u2581\u3042\u308b": 352,
    "\u308c": 353,
    "\u2581\u3088\u3057": 354,
    "\u30c1": 355,
    "\u305a": 356,
    "\u3069\u3046": 357,
    "\u3089\u308c\u308b": 358,
    "\u2581\u3053\u3053": 359,
    "\u308f\u306d": 360,
    "\u69d8": 361,
    "\u306b\u306a\u3063\u3066": 362,
    "\u304b\u3082\u3057\u308c\u306a\u3044": 363,
    "\u2581\u3068\u3066\u3082": 364,
    "\u305f\u3089": 365,
    "\u30b0": 366,
    "\u30a4": 367,
    "10": 368,
    "\u3053\u3068\u304c": 369,
    "\u30df": 370,
    "\u2581\u306a\u3093\u3067": 371,
    "\u4e07": 372,
    "\u4e8b\u3092": 373,
    "\u7528": 374,
    "\u7537": 375,
    "\u4f53": 376,
    "\u6c34": 377,
    "\u6765": 378,
    "\u2581\u304a\u524d\u306e": 379,
    "\u2581\u305d\u308c\u306b": 380,
    "\u30b7": 381,
    "\u2581\u5927\u4e08\u592b": 382,
    "\u2581\u3053\u3053\u306b": 383,
    "\u540d": 384,
    "\u3067\u3042\u308b": 385,
    "\u5148\u751f": 386,
    "\u2581\u4f55\u3092": 387,
    "\u3080": 388,
    "\u30a8": 389,
    "\u3051": 390,
    "\u305b": 391,
    "\u70b9": 392,
    "\u2581\u5927": 393,
    "\u30b5": 394,
    "\u2581\u3082\u3061\u308d\u3093": 395,
    "\u3088\u3046\u306a": 396,
    ",": 397,
    "\u76ee": 398,
    "\u91d1": 399,
    "\u2581\u4f55\u3082": 400,
    "\u30ce": 401,
    "\u2581\u3048": 402,
    "\u2581\u79c1\u3082": 403,
    "\u5fc3": 404,
    "\u3093\u3067": 405,
    "\u2581\u4ed6\u306e": 406,
    "-": 407,
    "\u3066\u3044\u308b": 408,
    "\u4e86": 409,
    "\u3061": 410,
    "\u3057\u305f\u3044": 411,
    "\u3088\u304f": 412,
    "\u2581\u30a2": 413,
    "\u3060\u3051\u3060": 414,
    "\u3055\u308c": 415,
    "\u30d5": 416,
    "\u751f": 417,
    "\u2581\u541b": 418,
    "\u306a\u3055\u3044": 419,
    "~!": 420,
    "\u3067\u3059\u304c": 421,
    "8": 422,
    "\u304d\u305f": 423,
    "\u2581\u65e9\u304f": 424,
    "\u30cb": 425,
    "\u2581\u307b\u3089": 426,
    "\u5973": 427,
    "\u2581\u4e00\u7dd2\u306b": 428,
    "\u5834\u6240": 429,
    "\u3089\u308c\u305f": 430,
    "\u30a6": 431,
    "\u3054": 432,
    "\u79c1\u304c": 433,
    "\u3055\u305b\u308b": 434,
    "\u308f\u3088": 435,
    "\u5c71": 436,
    "\u30ec": 437,
    "\u304b\u3082": 438,
    "\u9577": 439,
    "\u2581\u4eca\u65e5": 440,
    "\u305d\u308c": 441,
    "\u2581\u5f7c": 442,
    "\u2581\u4eca\u65e5\u306f": 443,
    "\u5730": 444,
    "\u3057\u3066\u305f": 445,
    "\u5148": 446,
    "\u2581\u5c11\u3057": 447,
    "\u30c4": 448,
    "\u307e\u3060": 449,
    "(": 450,
    "\u3068\u3053\u308d": 451,
    "\u3064\u306e": 452,
    "\u2581\u5f7c\u5973": 453,
    "\u2581\u305d\u3046\u3060": 454,
    "\u306b\u3088\u3063\u3066": 455,
    "\u2581\u3042\u3093\u305f": 456,
    "\u2581\u3053\u308c\u3067": 457,
    "\u8a00\u3046": 458,
    "\u554f\u984c": 459,
    "\u3053\u308c": 460,
    "\u30cd": 461,
    "\u4ed5\u4e8b": 462,
    "\u30ac": 463,
    "\u2581\u8ab0\u304b": 464,
    "\u2581\u4eca\u306f": 465,
    "\u884c": 466,
    "\u2581\u65b0\u3057\u3044": 467,
    "\u2581\u305d\u3053\u3067": 468,
    "\u2581\u3054": 469,
    "\u6b73": 470,
    "\u306a\u304f": 471,
    "\u2581\u4e00": 472,
    "\u3057\u3066\u3044\u305f": 473,
    "\u2581\u540c\u3058": 474,
    "\u3053\u3053\u306b": 475,
    "\u884c\u304f": 476,
    "\u5ea6": 477,
    "\u3084\u3063\u305f": 478,
    "\u304c\u3042\u3063\u305f": 479,
    "\u56fd": 480,
    "\u2581\u305a\u3063\u3068": 481,
    "\u30d0\u30fc": 482,
    "\u901a\u308a": 483,
    "\u306b\u3042\u308b": 484,
    "\u2581\u306a\u306b": 485,
    "7": 486,
    "\u30b4": 487,
    "\u308b\u3093\u3060": 488,
    "\u77e5\u3063\u3066\u308b": 489,
    "\u53d6\u308a": 490,
    "\u95a2\u4fc2": 491,
    "\u3057\u305f\u3089": 492,
    "\u53e3": 493,
    "\u6642\u306b": 494,
    "\u2581\u8ab0\u3082": 495,
    "\u25815": 496,
    "\u4e8b\u306f": 497,
    "\u307e\u305f": 498,
    "\u7740": 499,
    "\u305d\u3046\u3060": 500,
    "\u30cb\u30fc": 501,
    "\u3060\u305e": 502,
    "\u307e\u3057\u3087\u3046": 503,
    "\u8a00\u3063\u305f": 504,
    "\u306f\u306a\u3044": 505,
    "\u2581\u304a\u524d\u304c": 506,
    "\u30c6\u30a3": 507,
    "\u3057\u3088\u3046": 508,
    "\u5316": 509,
    "\u30e9\u30fc": 510,
    "\u2581\u3067\u306f": 511,
    "\u3053\u3068\u3067\u3059": 512,
    "\u2581\u3053\u3053\u306f": 513,
    "\u304b\u3044": 514,
    "\u3084\u3063\u3066": 515,
    "\u2581\u3042\u3041": 516,
    "\u30d7": 517,
    "\u898b\u3066": 518,
    "\u2581\u9055\u3046": 519,
    "\u2581\u306d\u3048": 520,
    "\u795e": 521,
    "\u2581\u50d5\u306e": 522,
    "\u30c9\u30eb": 523,
    "\u2581\u4f55\u304c": 524,
    "\u6570": 525,
    "\u307f\u305f\u3044": 526,
    "\u7121\u3044": 527,
    "\u4eba\u9593": 528,
    "\u2581\u50d5": 529,
    "\u306a\u3093\u3067\u3059": 530,
    "\u5916": 531,
    "\u2581\u3044\u3044\u3048": 532,
    "\u90e8": 533,
    "\u2581\u8ab0\u304c": 534,
    "\u7684\u306b": 535,
    "\u30b7\u30fc": 536,
    "\u258110": 537,
    "\u30b9\u30c8": 538,
    "\u611b": 539,
    "\u3053\u3068\u306b": 540,
    "\u306a\u306e\u304b": 541,
    "\u7530": 542,
    "\u6b7b\u306c": 543,
    "\u611f\u3058": 544,
    "\u8a00\u3063\u3066": 545,
    "\u6280\u8853": 546,
    "\u4e16\u754c": 547,
    "\u30d3": 548,
    "\u2581\u305d\u308c\u304b\u3089": 549,
    "\u2581\u3069\u3046\u3084\u3063\u3066": 550,
    "\u77e5\u3089\u306a\u3044": 551,
    "\u60aa\u3044": 552,
    "\u3093\u3060\u3051\u3069": 553,
    "\u304b\u3089\u3067\u3059": 554,
    "\u2581\u5f7c\u5973\u306e": 555,
    "\u9054": 556,
    "\u6226": 557,
    "\u3068\u601d\u3044\u307e\u3059": 558,
    "\u2581\u30de\u30de": 559,
    "\u30ea\u30f3": 560,
    "\u5cf6": 561,
    "e": 562,
    "\u9762": 563,
    "\u306e\u3088\u3046\u306a": 564,
    "\u9ad8": 565,
    "\u30c6": 566,
    "\u304f\u3089\u3044": 567,
    "\u3092\u898b\u3066": 568,
    "\u2581\u4f55\u3060": 569,
    "\u3089\u3057\u3044": 570,
    "\u51fa\u6765\u308b": 571,
    "\u4f55\u3092": 572,
    "\u3055\u305b\u3066": 573,
    "\u2581\u3059\u3050\u306b": 574,
    "\u6b32\u3057\u3044": 575,
    "\u2581\u79c1\u306b": 576,
    "\u5834": 577,
    "\u3082\u306e\u3067\u3059": 578,
    "\u2581\u30d1\u30d1": 579,
    "\u2581\u7686": 580,
    "\u5b66": 581,
    "\u9854": 582,
    "\u3060\u3051\u3069": 583,
    "\u3068\u8a00\u3063\u305f": 584,
    "\u2581\u304d\u3063\u3068": 585,
    "\u4e0b\u3055\u3044": 586,
    "\u3042\u308a\u307e\u3059": 587,
    "\u2581\u4ed5\u4e8b": 588,
    "\u3093\u3060\u308d": 589,
    "\u3067\u3057\u3087\u3046\u304b": 590,
    "\u661f": 591,
    "\u3042\u306e": 592,
    "\u3059\u308c\u3070": 593,
    "\u306a\u306e\u3067\u3059": 594,
    "\u2581\u5168\u90e8": 595,
    "\u6a5f": 596,
    "\u6765\u305f": 597,
    "\u305d\u308c\u3092": 598,
    "\u6cd5": 599,
    "\u3063\u3066\u308b": 600,
    "\u304f\u308b": 601,
    "\u3042\u3063\u305f": 602,
    "\u3060\u308f": 603,
    "\u2581\u6211": 604,
    "t": 605,
    "\u2581\u3055\u3066": 606,
    "\u5165": 607,
    "\u96fb\u8a71": 608,
    "\u97f3": 609,
    "\u3088\u308a\u3082": 610,
    "\u5bb6\u65cf": 611,
    "\u3059\u308b\u3068": 612,
    "\u2581\u5206\u304b\u3063\u305f": 613,
    "\u81ea\u5206\u306e": 614,
    "\u30bf\u30fc": 615,
    "\u30c7": 616,
    "\u306a\u304c\u3089": 617,
    "\u306e\u4e2d\u3067": 618,
    "\u7dda": 619,
    "\u3067\u306f\u3042\u308a\u307e\u305b\u3093": 620,
    "\u3057\u3066\u304f\u308c": 621,
    "\u662f": 622,
    "\u884c\u52d5": 623,
    "\u6765\u308b": 624,
    "\u50b7": 625,
    "\u2581\u3053\u308c\u3092": 626,
    "\u2581\u50d5\u304c": 627,
    "\u5206\u304b\u308b": 628,
    "\u6709": 629,
    "\u3068\u540c\u3058": 630,
    "\u304c\u3044\u308b": 631,
    "\u306a\u304d\u3083": 632,
    "\u304b\u3063\u305f": 633,
    "\u767a": 634,
    "\u30b1": 635,
    "\u304c\u306a\u3044": 636,
    "m": 637,
    "\u4ee3": 638,
    "\u3058": 639,
    "\u3005": 640,
    "\u2581\u3061\u3083\u3093\u3068": 641,
    "\u65b0\u3057\u3044": 642,
    "s": 643,
    "9": 644,
    "\u3067\u306f\u306a\u304f": 645,
    "\u30d3\u30fc": 646,
    "\u2581\u5f7c\u5973\u304c": 647,
    "\u6d77": 648,
    "\u3082\u3063\u3068": 649,
    "\u672c\u5f53\u306b": 650,
    "\u5185": 651,
    "\u6728": 652,
    "\u306b\u884c\u304f": 653,
    "\u2581\u308f\u304b\u3063\u305f": 654,
    "\u3093\u3058\u3083\u306a\u3044": 655,
    "\u306f\u305a": 656,
    "\u5168\u90e8": 657,
    "\u306b\u3044\u308b": 658,
    "\u2581\u5f85\u3063\u3066": 659,
    "\u9055\u3046": 660,
    "\u5927\u304d\u306a": 661,
    "\u3066\u3044\u307e\u3059": 662,
    "\u4e2d\u306b": 663,
    "\u2581\u3059\u3054\u3044": 664,
    "\u756a": 665,
    "\u5f62": 666,
    "\u3042\u306a\u305f": 667,
    "\u306a\u3044\u3068": 668,
    "\u3060\u306d": 669,
    "\u306b\u3068\u3063\u3066": 670,
    "\u305f\u3081": 671,
    "20": 672,
    "\u72b6\u6cc1": 673,
    "\u5973\u6027": 674,
    "\u300f": 675,
    "\u308b\u306e": 676,
    "\u2581\u3054\u3081\u3093": 677,
    "\u25814": 678,
    "\u7a7a": 679,
    "\u306d\u3047": 680,
    "\u304b\u3057\u3089": 681,
    "\u3053\u3046": 682,
    "\u3055\u308c\u3066": 683,
    "\u2581\u305d\u3046\u304b": 684,
    "\u5149": 685,
    "\u3058\u3083\u306a\u3044\u304b": 686,
    "\u4f55\u3082": 687,
    "\u30ed\u30fc": 688,
    "\u8db3": 689,
    "\u2581\u5b9f\u306f": 690,
    "\u3042\u306a\u305f\u306e": 691,
    "\u540c\u3058": 692,
    "\u7d44\u7e54": 693,
    "\u3068\u4e00\u7dd2\u306b": 694,
    "\u6765\u3066": 695,
    "\u901a": 696,
    "\u805e\u3044\u3066": 697,
    "\u2581\u3084\u3063\u3071\u308a": 698,
    "\u306f\u305a\u3060": 699,
    "\u9593": 700,
    "\u2581\u3042\u308c\u306f": 701,
    "\u3044\u304f": 702,
    "\u30e1": 703,
    "\u5e74\u9593": 704,
    "\u201d": 705,
    "\u3063\u3068": 706,
    "\u5728": 707,
    "\u2581\u307e\u3055\u304b": 708,
    "\u4ffa": 709,
    "\u2581\u304a\u9858\u3044": 710,
    "\u30e9\u30f3": 711,
    "\u884c\u3063\u3066": 712,
    "\u306a\u3041": 713,
    "\u307b\u3057\u3044": 714,
    "\u308d\u3046": 715,
    "\u306a\u3044\u308f": 716,
    "\u4eba\u306b": 717,
    "\u541b\u306e": 718,
    "\u5974": 719,
    "\u51fa\u3059": 720,
    "\u591c": 721,
    "\u2581\u3059\u307f\u307e\u305b\u3093": 722,
    "\u30b6": 723,
    "\u3068\u3044\u3046\u3053\u3068\u3067\u3059": 724,
    "\u6d41": 725,
    "\u5c0f": 726,
    "\u8a08\u753b": 727,
    "\u3084\u3064": 728,
    "\u307f\u305f\u3044\u306a": 729,
    "\u7406\u7531": 730,
    "\u8a71\u3059": 731,
    "\u30dc": 732,
    "\u2581\u3069\u3046\u3057\u305f": 733,
    "\u30c8\u30f3": 734,
    "\u30e2": 735,
    "\u5922": 736,
    "\u2581\u898b\u3066": 737,
    "\u3061\u3087\u3063\u3068": 738,
    "\u54c1": 739,
    "\u5c11\u3057": 740,
    "\u2581\u78ba\u304b\u306b": 741,
    "\u7814\u7a76": 742,
    "a": 743,
    "\u306a\u3051\u308c\u3070": 744,
    "\u8981": 745,
    "\u2581\u30de": 746,
    "\u5c4b": 747,
    "\u30c3\u30af": 748,
    "\u79c1\u306b": 749,
    "\u2581<": 750,
    "\u8eca": 751,
    "\u30bd\u30f3": 752,
    "\u3064\u304f": 753,
    "\u3068\u3082": 754,
    "\u305a\u3063\u3068": 755,
    "\u306b\u3057\u3066": 756,
    "\u2581\u91d1": 757,
    "\u306a\u304f\u3066": 758,
    "\u2581\u3069\u3046\u305e": 759,
    "\u2581\u79c1\u3092": 760,
    "\u30b9\u30bf\u30fc": 761,
    "\u4eba\u3092": 762,
    "\u3042\u308a": 763,
    "\u982d": 764,
    "\u5b50\u4f9b": 765,
    "\u6b7b": 766,
    "\u5b58\u5728": 767,
    "\u2581\u898b": 768,
    "\u8eab": 769,
    "\u308f\u304b\u308b": 770,
    "\u3092\u4f7f\u3063\u3066": 771,
    "\u3092\u898b": 772,
    "\u2581\u3053\u308c\u304b\u3089": 773,
    ">": 774,
    "\u4e3b": 775,
    "\u91cf": 776,
    "\u30e4": 777,
    "\u535a\u58eb": 778,
    "\u8272": 779,
    "\u6211": 780,
    "\u5fc3\u914d": 781,
    "\u3069": 782,
    "\u4e00\u7dd2\u306b": 783,
    "\u2581\u3044\u3048": 784,
    "\u306a\u308b": 785,
    "\u5f7c\u306f": 786,
    "\u5f7c\u306e": 787,
    "\u5168\u3066": 788,
    "\u5909\u5316": 789,
    "\u3053\u305d": 790,
    "\u751f\u6d3b": 791,
    "\u3060\u3051\u3067": 792,
    "\u307f\u3093\u306a": 793,
    "\u3044\u307e\u305b\u3093": 794,
    "\u58f0": 795,
    "\u30b7\u30b9\u30c6\u30e0": 796,
    "\u5fc5\u8981": 797,
    "\u2581\u624b": 798,
    "\u66f8": 799,
    "\u30ab\u30fc": 800,
    "\u5143": 801,
    "\u308f\u3051": 802,
    "\u3068\u3053": 803,
    "\u898b\u305f": 804,
    "\u2581\u2212": 805,
    "\u2581\u79c1\u305f\u3061": 806,
    "\u91ce": 807,
    "\u597d": 808,
    "\u2581\u6211\u3005\u306e": 809,
    "\u4ffa\u306e": 810,
    "\u2581\u8ab0": 811,
    "\u2581\u3042\u3068": 812,
    "\u2581\u3053\u3063\u3061": 813,
    "\u2581\u305d\u3046\u3044\u3046": 814,
    "\u592b": 815,
    "\u2581\u5bb6\u65cf": 816,
    "\u2581\u3054\u3081\u3093\u306a\u3055\u3044": 817,
    "\u82b1": 818,
    "\u3070\u304b\u308a": 819,
    "\u2581\u3008": 820,
    "\u308b\u3068": 821,
    "\u307f\u305f\u3044\u306b": 822,
    "\u610f\u5473": 823,
    "\u5ddd": 824,
    "\u2581\u305d": 825,
    "\u306b\u306a\u308a\u307e\u3059": 826,
    "\u3082\u306a\u3044": 827,
    "\u30d1": 828,
    "\u7686": 829,
    "\u304b\u3082\u3057\u308c\u307e\u305b\u3093": 830,
    "\u304a\u524d": 831,
    "\u306e\u4e2d\u306b": 832,
    "\u601d\u3044": 833,
    "\u3068\u601d\u3063\u305f": 834,
    "\u304d\u307e\u3057\u305f": 835,
    "\u2581\u5f7c\u3092": 836,
    "\u308c\u308b": 837,
    "\u5f79": 838,
    "\u2581\u3042\u3044\u3064": 839,
    "\u2581\u826f\u3044": 840,
    "\u3009": 841,
    "r": 842,
    "\u8ecd": 843,
    "\u2581\u307e\u305a": 844,
    "\u5f97": 845,
    "\u3076": 846,
    "\u30d9": 847,
    "\u72b6\u614b": 848,
    "\u77f3": 849,
    "\u30bb": 850,
    "\u53cb\u9054": 851,
    "\u3067\u304d\u305f": 852,
    "\u2581\u305d\u3093\u306a\u3053\u3068": 853,
    "\u305d\u308c\u306f": 854,
    "\u3053\u3053\u3067": 855,
    "\u2581\u304a\u6bcd\u3055\u3093": 856,
    "\u4eba\u3067": 857,
    "\u3055\u308c\u3066\u3044\u308b": 858,
    "\u65e9\u304f": 859,
    "\u2581\u4eca\u306e": 860,
    "\u4ed6\u306e": 861,
    "\u305d\u3046\u3067\u3059": 862,
    "\u2581\u5168\u3066": 863,
    "\u2581\u3069\u3046\u3082": 864,
    "\u4ee5\u4e0a": 865,
    "\u306e\u3053\u3068\u3092": 866,
    "\u98df": 867,
    "\u2581\u3059\u3044\u307e\u305b\u3093": 868,
    "\u8ab0\u304b": 869,
    "\u2581\u6c34": 870,
    "\u5ba4": 871,
    "\u2581\u305f\u3076\u3093": 872,
    "\u4e8b\u304c": 873,
    "c": 874,
    "\u4ed5\u4e8b\u3092": 875,
    "\u2581\u3068\u306b\u304b\u304f": 876,
    "\u2581\u3046": 877,
    "\u30a4\u30f3": 878,
    "\u7121": 879,
    "\u2581\u30b8\u30e7\u30f3": 880,
    "\u5e97": 881,
    "\u3093\u3058\u3083": 882,
    "\u3050": 883,
    "\u51fa\u6765\u306a\u3044": 884,
    "\u3092\u6bba\u3057\u305f": 885,
    "\u3092\u6301\u3063\u3066": 886,
    "\u30c3\u30c8": 887,
    "\u3093\u3060\u308d\u3046": 888,
    "\u4e00\u4eba": 889,
    "\u3063\u3066\u3044\u308b": 890,
    "\u305f\u3093\u3060": 891,
    "\u85ac": 892,
    "\u3067\u3042\u308a": 893,
    "\u597d\u304d": 894,
    "\u306c": 895,
    "\u7f6a": 896,
    "\u30e9\u30a4": 897,
    "\u30cf": 898,
    "\u60c5\u5831": 899,
    "\u5c45": 900,
    "\u884c\u3063\u305f": 901,
    "\u7d4c\u9a13": 902,
    "\u304e": 903,
    "\u3068\u3066\u3082": 904,
    "\u30ab\u30fc\u30c9": 905,
    "d": 906,
    "\u5831\u544a": 907,
    "i": 908,
    "\u5e74\u524d": 909,
    "\u65b9\u304c": 910,
    "\u7d20\u6674\u3089\u3057\u3044": 911,
    "\u5929": 912,
    "\u30ec\u30f3": 913,
    "\u306a\u3093\u3060\u3088": 914,
    "\u2581\u304a\u7236\u3055\u3093": 915,
    "\u306e\u8a71": 916,
    "\u2581\u96fb\u8a71": 917,
    "\u98a8": 918,
    "\u53f0": 919,
    "\u30e4\u30c4": 920,
    "\u3057\u307e\u3057\u3087\u3046": 921,
    "\u3050\u3089\u3044": 922,
    "\u8a71\u3057\u305f": 923,
    "\u258120": 924,
    "\u30bd": 925,
    "\u3053\u308c\u306f": 926,
    "\u305f\u304f\u306a\u3044": 927,
    "\u3067\u304d\u307e\u3059": 928,
    "\u3089\u308c\u306a\u3044": 929,
    "\u7d50\u679c": 930,
    "\u2581\u3058\u3083": 931,
    "\u2581\u6700\u8fd1": 932,
    "\u2581\u3053\u3061\u3089": 933,
    "\u611f": 934,
    "\u2581\u5148\u751f": 935,
    "\u2581\u660e\u65e5": 936,
    "o": 937,
    "\u8cea\u554f": 938,
    "\u3069\u3093\u306a": 939,
    "\u541b\u306f": 940,
    "\u79c1\u3092": 941,
    "\u77e5\u3063\u3066\u3044\u308b": 942,
    "\u5165\u308c": 943,
    "\u9803": 944,
    "\u521d\u3081\u3066": 945,
    "\u9aa8": 946,
    "\u4eba\u751f": 947,
    "\u52a9\u3051": 948,
    "\u2581\u6b21\u306e": 949,
    "\u2581\u3042\u3089": 950,
    "\u30de\u30fc": 951,
    "\u8239": 952,
    "\u4e8b\u4ef6": 953,
    "\u51fa\u3057\u305f": 954,
    "l": 955,
    "\u3088\u304b\u3063\u305f": 956,
    "\u2581\u3059\u3050": 957,
    "\u2581\u3044\u3044\u304b": 958,
    "\u805e\u3044\u305f": 959,
    "\u5f7c": 960,
    "\u2581\u3088\u304b\u3063\u305f": 961,
    "\u592a": 962,
    "\u5b66\u6821": 963,
    "\u2581\u3042\u306a\u305f\u306b": 964,
    "\u2581\u30d0\u30ab": 965,
    "\u3073": 966,
    "\u3059\u3079\u3066": 967,
    "\u304f\u3093": 968,
    "\u2581\u4e16\u754c": 969,
    "\u30ef": 970,
    "\u3068\u8a00\u3046": 971,
    "\u2581\u79c1\u305f\u3061\u306e": 972,
    "\u653e": 973,
    "\u2581\u4f8b\u3048\u3070": 974,
    "\u5e74\u306b": 975,
    "\u2581\u3059\u3079\u3066": 976,
    "\u76f8\u624b": 977,
    "\u3082\u306e\u3092": 978,
    "\u6751": 979,
    "\u306b\u3088\u308b": 980,
    "\u3057\u305f\u306e": 981,
    "\u4e8c": 982,
    "\u539f": 983,
    "\u3055\u3093\u306f": 984,
    "\u7236": 985,
    "\u8aac\u660e": 986,
    "\u3041": 987,
    "\u653b\u6483": 988,
    "\u2581\u3044\u3064": 989,
    "\u25816": 990,
    "\u8003\u3048\u308b": 991,
    "\u7b11": 992,
    "\u8a00\u3044": 993,
    "\u306b\u5bfe\u3057\u3066": 994,
    "\u3055\u305b\u305f": 995,
    "\u304f\u308c\u308b": 996,
    "\u306a\u3063\u3066": 997,
    "\u60aa": 998,
    "\u30ed\u30f3": 999,
    "\u5f37\u3044": 1000,
    "\u30ca\u30fc": 1001,
    "\u3093\u3067\u3059\u3088": 1002,
    "\u2581\u81ea\u5206": 1003,
    "\u8ab0": 1004,
    "\u8abf\u67fb": 1005,
    "\u3044\u3063\u305f": 1006,
    "\u2581\u305d\u3053\u306b": 1007,
    "\u3092\u898b\u305f": 1008,
    "\u65b9\u6cd5": 1009,
    "\u6575": 1010,
    "\u5834\u5408": 1011,
    "\u3055\u305b": 1012,
    "\u2581\u81ea\u5206\u3067": 1013,
    "\u8840": 1014,
    "\u5f15\u304d": 1015,
    "\u3067\u3059\u3088\u306d": 1016,
    "\u305d": 1017,
    "\u72ac": 1018,
    "\u7f8e": 1019,
    "\u2581\u8ab0\u304b\u304c": 1020,
    "\u3053\u3093\u306a": 1021,
    "\u304f\u308c\u305f": 1022,
    "\u2581\u30a8": 1023,
    "\u805e\u304f": 1024,
    "\u30d9\u30eb": 1025,
    "\u3088\u3046\u3060": 1026,
    "\u80fd\u529b": 1027,
    "\u30c1\u30fc\u30e0": 1028,
    "\u5473": 1029,
    "\u304c\u3042\u3063\u3066": 1030,
    "\u5c31": 1031,
    "S": 1032,
    "\u8a9e": 1033,
    "~\u3002": 1034,
    "\u3053\u3068\u3082": 1035,
    "\u5206\u304b\u3063\u305f": 1036,
    "\u2581\u4eca\u307e\u3067": 1037,
    "\u2581\u300e": 1038,
    "\u3057\u3066\u304f\u3060\u3055\u3044": 1039,
    "\u306e\u4e8b": 1040,
    "\u2581\u3060\u3063\u3066": 1041,
    "30": 1042,
    "\u6301\u3063\u3066": 1043,
    "\u8a18\u9332": 1044,
    "\u2581\u3069\u3053": 1045,
    "u": 1046,
    "\u30ea\u30b9\u30c8": 1047,
    "\u6b8b": 1048,
    "f": 1049,
    "\u5927\u4e08\u592b": 1050,
    "\u89e3": 1051,
    "\u30ad\u30fc": 1052,
    "\u308b\u306e\u306f": 1053,
    "\u3055\u3048": 1054,
    "\u30b2\u30fc\u30e0": 1055,
    "\u5f7c\u5973": 1056,
    "\u5f3e": 1057,
    "\u4f5c": 1058,
    "\u8005\u306f": 1059,
    "\u2581\u4e0d": 1060,
    "\u3093\u3067\u3057\u3087": 1061,
    "\u2581\u30db\u30f3\u30c8": 1062,
    "\u7a2e": 1063,
    "\u306e\u70ba\u306b": 1064,
    "\u306e\u3042\u308b": 1065,
    "\u3053\u3068\u3060": 1066,
    "b": 1067,
    "\u7b54\u3048": 1068,
    "\u8003\u3048\u3066": 1069,
    "\u306f\u4f55": 1070,
    "\u2581\u8b66\u5bdf": 1071,
    "\u30dd": 1072,
    "\u4ef2\u9593": 1073,
    "\u2581\u7d20\u6674\u3089\u3057\u3044": 1074,
    "\u305d\u3093\u306a": 1075,
    "\u3055\u308c\u307e\u3057\u305f": 1076,
    "\u2581\u4ffa\u3082": 1077,
    "p": 1078,
    "\u6b21": 1079,
    "\u7b49": 1080,
    "\u6d3b\u52d5": 1081,
    "\u74b0\u5883": 1082,
    "\u884c\u304d": 1083,
    "\u2581\u305f\u3060\u306e": 1084,
    "\u306e\u306d": 1085,
    "\u5199\u771f": 1086,
    "\u66f2": 1087,
    "\u3053\u3053": 1088,
    "\u3064\u3051": 1089,
    "\u2581\u5225\u306e": 1090,
    "\u3055\u3093\u304c": 1091,
    "h": 1092,
    "\u958b\u767a": 1093,
    "\u670d": 1094,
    "\u3057\u3066\u306a\u3044": 1095,
    "\u2581\u5c0f": 1096,
    "\u54e1": 1097,
    "\u6bcd": 1098,
    "\u306a\u308a": 1099,
    "\u53cd\u5fdc": 1100,
    "\u3057\u307e\u3063\u305f": 1101,
    "\u6b7b\u3093\u3060": 1102,
    "\u4eba\u7269": 1103,
    "\u59bb": 1104,
    "\u3063\u3066\u3053\u3068": 1105,
    "y": 1106,
    "\u3057\u3044": 1107,
    "\u2581\u53cb\u9054": 1108,
    "\u305f\u3061": 1109,
    "\u3089\u306a\u3044": 1110,
    "\u5f0f": 1111,
    "\u2581\u5f85\u3066": 1112,
    "\u30e2\u30f3": 1113,
    "\u304b\u3069\u3046\u304b": 1114,
    "\u2581\u3055\u3089\u306b": 1115,
    "\u53cb\u4eba": 1116,
    "\u7acb": 1117,
    "\u30ac\u30fc": 1118,
    "\u540d\u524d": 1119,
    "\u51fa\u3057\u3066": 1120,
    "\u635c\u67fb\u5b98": 1121,
    "\u3058\u3083\u3093": 1122,
    "\u30ae": 1123,
    "\u3068\u3057\u3066\u3082": 1124,
    "\u898b\u3048\u308b": 1125,
    "\u2581\u3053\u3046": 1126,
    "\u3060\u3068\u601d\u3046": 1127,
    "\u2581\u304a\u524d\u3089": 1128,
    "\u3057\u305f\u3093\u3060": 1129,
    "\u2581\u7686\u3055\u3093": 1130,
    "\u6b4c": 1131,
    "\u53bb": 1132,
    "\u793e\u4f1a": 1133,
    "\u3042\u3093\u305f": 1134,
    "\u308b\u304b": 1135,
    "A": 1136,
    "\u306a\u305c": 1137,
    "\u591a\u304f\u306e": 1138,
    "\u2581\u606f\u5b50": 1139,
    "\u304b\u3089\u306d": 1140,
    "\u3057\u304b\u306a\u3044": 1141,
    "...\u300b": 1142,
    "\u2581\u541b\u306b": 1143,
    "\u541b\u304c": 1144,
    "\u2581\u79c1\u306b\u306f": 1145,
    "\u3082\u3093": 1146,
    "\u30a2\u30eb": 1147,
    "\u3057\u3066\u304d\u305f": 1148,
    "\u2581\u5fc3": 1149,
    "\u548c": 1150,
    "\u3092\u6301\u3064": 1151,
    "\u5668": 1152,
    "\u3082\u3089\u3046": 1153,
    "\u4ed8\u3051": 1154,
    "\u3064\u3082\u308a": 1155,
    "\u304c\u5fc5\u8981\u3060": 1156,
    "\u5211\u4e8b": 1157,
    "\u88c5\u7f6e": 1158,
    "\u30b7\u30e5": 1159,
    "\u2581\u6211\u3005\u304c": 1160,
    "\u90e8\u5206": 1161,
    "\u5c0f\u3055\u306a": 1162,
    "\u3042\u306a\u305f\u306f": 1163,
    "\u2581\u79c1\u9054\u306f": 1164,
    "\u2581\u30b9": 1165,
    "\u2581\u3042\u3093\u306a": 1166,
    "\u50d5": 1167,
    "\u3093\u3060\u304b\u3089": 1168,
    "\u6226\u4e89": 1169,
    "\u4eca\u65e5": 1170,
    "\u3068\u601d\u3063\u3066": 1171,
    "\u7d30\u80de": 1172,
    "\u3044\u3064\u3082": 1173,
    "\u2581\u5f7c\u306b": 1174,
    "\u30a2\u30f3": 1175,
    "\u5f7c\u3092": 1176,
    "\u3079": 1177,
    "\u2581\u3084\u3081\u308d": 1178,
    "\u6620\u753b": 1179,
    "\u3089\u308c": 1180,
    "\u2581\u30aa": 1181,
    "\u3066\u3044\u305f": 1182,
    "\u70ba": 1183,
    "\u4e09": 1184,
    "\u2581\u60aa\u3044": 1185,
    "?\u300d": 1186,
    "\u7406\u89e3": 1187,
    "\u52d5\u304d": 1188,
    "\u3060\u3057": 1189,
    "\u30ac\u30f3": 1190,
    "\u2581\u304b\u306a\u308a": 1191,
    "\u52d5": 1192,
    "\u3055\u3093\u306e": 1193,
    "\u2581\u4ffa\u306b": 1194,
    "\u2581\u79c1\u305f\u3061\u304c": 1195,
    "\u308b\u3053\u3068": 1196,
    "\u2581\u4e00\u4f53": 1197,
    "\u2581\u6211\u3005": 1198,
    "\u3082\u306e\u3060": 1199,
    "\u5206\u304b\u3089\u306a\u3044": 1200,
    "\u3059\u3079\u304d": 1201,
    "k": 1202,
    "\u547d": 1203,
    "\u4f60": 1204,
    "\u30d2": 1205,
    "\u3042\u308a\u307e\u305b\u3093": 1206,
    "\u2581\u305d\u306e\u5f8c": 1207,
    "\u8a00\u8449": 1208,
    "\u30c7\u30b6\u30a4\u30f3": 1209,
    "\u2581\u306a\u3093\u3060": 1210,
    "\u30c0\u30fc": 1211,
    "\u4f4d": 1212,
    "\u3089\u308c\u3066": 1213,
    "\u91cc": 1214,
    "\u3084\u3063\u3066\u308b": 1215,
    "\u306b\u884c\u3063\u3066": 1216,
    "\u3055\u308c\u3066\u308b": 1217,
    "\u2581\u7d76\u5bfe": 1218,
    "\u767a\u898b": 1219,
    "\u30d0\u30ab": 1220,
    "g": 1221,
    "\u91cd": 1222,
    "\u2581\u3069\u3046\u3057\u305f\u306e": 1223,
    "\u606f\u5b50": 1224,
    "\u2581\u5f7c\u3089\u306e": 1225,
    "\u8b66\u5bdf": 1226,
    "\u3052": 1227,
    "\u306b\u306a\u308a": 1228,
    "\u3057\u306a\u3044\u3068": 1229,
    "\u8089": 1230,
    "\u60c5\u5831\u3092": 1231,
    "\u4e88\u5b9a": 1232,
    "\u7ba1\u7406": 1233,
    "\u3060\u3063\u305f\u3089": 1234,
    "\u3059\u308b\u306e\u306f": 1235,
    "\u4f8b": 1236,
    "\u4ef6": 1237,
    "\u306a\u306e\u3088": 1238,
    "\u554a": 1239,
    "\u30e2\u30f3\u30b9\u30bf\u30fc": 1240,
    "\u306b\u5bfe\u3059\u308b": 1241,
    "\u3092\u898b\u3064\u3051\u305f": 1242,
    "\u9055\u3044": 1243,
    "\u751f\u304d": 1244,
    "\u6b62\u3081": 1245,
    "\u4e16": 1246,
    "\u2581\u305d\u308a\u3083": 1247,
    "\u8a71\u3092": 1248,
    "\u2581\u307e\u308b\u3067": 1249,
    "\u968a": 1250,
    "\u30bf\u30a4": 1251,
    "\u3082\u3042\u308b": 1252,
    "\u75c5": 1253,
    "\u306f\u3069\u3046": 1254,
    "C": 1255,
    "\u3061\u3083\u3063\u305f": 1256,
    "\u2581\u5bb6": 1257,
    "\u578b": 1258,
    "\u30ea\u30a2": 1259,
    "\u3092\u3059\u308b": 1260,
    "\u2581\u7279\u306b": 1261,
    "\u3066\u304f\u308c": 1262,
    "\u30c0\u30e1": 1263,
    "\u2581\u4e09": 1264,
    "\u30b8\u30e7\u30f3": 1265,
    "\u738b": 1266,
    "\u91ce\u90ce": 1267,
    "\u6c17\u6301\u3061": 1268,
    "\u8857": 1269,
    "\u5b9f\u9a13": 1270,
    "\u2581\u4e00\u756a": 1271,
    "\u2581\u591a\u304f\u306e": 1272,
    "\u76f4": 1273,
    "\u3057\u3066\u304f\u308c\u308b": 1274,
    "\u306a\u3057": 1275,
    "\u306e\u4e2d": 1276,
    "\u3053\u308c\u3092": 1277,
    "\u5b89\u5168": 1278,
    "\u635c\u67fb": 1279,
    "\u306e\u305f\u3081": 1280,
    "\u706b": 1281,
    "\u2581\u306a\u305c\u306a\u3089": 1282,
    "\u307c": 1283,
    "\u5168\u54e1": 1284,
    "\u2581\u65b0": 1285,
    "\u8a33": 1286,
    "\u3053\u3068\u3067": 1287,
    "\u793e": 1288,
    "\u5c40": 1289,
    "\u79fb\u52d5": 1290,
    "\u2500": 1291,
    "\u304b\u3089\u306a": 1292,
    "\u75c5\u6c17": 1293,
    "\u2581\u77e5\u3063\u3066\u308b": 1294,
    "D": 1295,
    "\u2581\u305d\u308c\u3068\u3082": 1296,
    "\u30a2\u30fc": 1297,
    "\u2581\u7b2c": 1298,
    "\u306a\u3044\u3088": 1299,
    "\u2581\u5143\u6c17": 1300,
    "\u898b\u3064\u3051\u305f": 1301,
    "\u4e5f": 1302,
    "\u3058\u3083\u306a\u304f\u3066": 1303,
    "\u660e": 1304,
    "\u308f\u304b\u3063\u305f": 1305,
    "\u3072": 1306,
    "\u2581\u5b50\u4f9b": 1307,
    "\u30c6\u30b9\u30c8": 1308,
    "\u5175": 1309,
    "\u5207\u308a": 1310,
    "\u5909": 1311,
    "\u8fbc\u3080": 1312,
    "\u624b\u3092": 1313,
    "\u601d\u3046": 1314,
    "\u3057\u306a\u304b\u3063\u305f": 1315,
    "\u51fa\u3057": 1316,
    "\u5e73": 1317,
    "\u3042\u306a\u305f\u304c": 1318,
    "\u2581\u304a\u304a": 1319,
    "\u2581\u30a4": 1320,
    "\u2581\u305d\u3093\u306a\u306b": 1321,
    "\u9b5a": 1322,
    "\u679a": 1323,
    "\u2015\u2015": 1324,
    "\u2581\u795e": 1325,
    "\u4f1a\u793e": 1326,
    "\u30b8\u30e5": 1327,
    "\u80fd": 1328,
    "\u7d42\u308f\u308a": 1329,
    "\u8868": 1330,
    "\u65b0": 1331,
    "\u79d2": 1332,
    "\u2581\u5927\u304d\u306a": 1333,
    "\u671d": 1334,
    "\u756a\u53f7": 1335,
    "\u606f": 1336,
    "\u2581\u7121\u7406": 1337,
    "50": 1338,
    "\u2581\u5225\u306b": 1339,
    "\u5b98": 1340,
    "\u2581\u3082\u3046\u4e00\u5ea6": 1341,
    "\u2581\u3084\u3081\u3066": 1342,
    "\u4ffa\u306f": 1343,
    "\u3042\u308a\u304c\u3068\u3046": 1344,
    "\u2581\u81ea\u5206\u304c": 1345,
    "\u305a\u306b": 1346,
    "\u5225\u306e": 1347,
    "\u3086": 1348,
    "\u6a5f\u80fd": 1349,
    "\u30c8\u30e9": 1350,
    "\u70ba\u306b": 1351,
    "\u5e74\u306e": 1352,
    "\u4e00\u756a": 1353,
    "\u2581\u805e\u3044\u3066": 1354,
    "\u2581\u3042\u308a\u304c\u3068\u3046\u3054\u3056\u3044\u307e\u3059": 1355,
    "\u6301\u3061": 1356,
    "\u2581\u6628\u65e5": 1357,
    "\u3064\u304d": 1358,
    "\u2581\u7d50\u5a5a": 1359,
    "\u30b0\u30eb\u30fc\u30d7": 1360,
    "\u306a\u306e\u306b": 1361,
    "\u2581\u5206\u304b\u3063\u3066\u308b": 1362,
    "\u771f": 1363,
    "\u3059\u304e\u308b": 1364,
    "\u3082\u3044\u3044": 1365,
    "\u306a\u3044\u3067": 1366,
    "\u3059\u308b\u3093\u3060": 1367,
    "\u5dde": 1368,
    "\u2581\u5f7c\u3089\u304c": 1369,
    "\u2581\u3046\u3061\u306e": 1370,
    "\u30ea\u30f3\u30b0": 1371,
    "\u52d5\u7269": 1372,
    "\u9031\u9593": 1373,
    "\u30c7\u30fc\u30bf": 1374,
    "\u8fd1": 1375,
    "\u2581\u30b8\u30e3\u30c3\u30af": 1376,
    "\u4e8b\u3060": 1377,
    "\u2581\u3042\u30c3": 1378,
    "15": 1379,
    "\u308b\u306e\u304b": 1380,
    "\u2581\u521d\u3081\u3066": 1381,
    "\u4e8c\u4eba": 1382,
    "\u3044\u308b\u306e": 1383,
    "\u4eba\u305f\u3061": 1384,
    "\u304d\u3066": 1385,
    "\u2581\u8eca": 1386,
    "\u5f37\u304f": 1387,
    "\u8fbc\u3093\u3067": 1388,
    "\u6642\u9593\u3092": 1389,
    "\u76ee\u306b": 1390,
    "\u76f8": 1391,
    "\u4fdd\u8b77": 1392,
    "\u2581\u30ab": 1393,
    "\u2581\u30df": 1394,
    "\u5b87\u5b99": 1395,
    "\u4f5c\u3063\u305f": 1396,
    "\u8a00": 1397,
    "\u30c9\u30e9\u30b4\u30f3": 1398,
    "\u2581\u5618": 1399,
    "\u2581\u4ed6\u306b": 1400,
    "\u5207\u308c": 1401,
    "\u81ea\u7531": 1402,
    "T": 1403,
    "\u304b\u3089\u3060": 1404,
    "\u2581\u3069\u3053\u306b": 1405,
    "\u306b\u304a\u3044\u3066": 1406,
    "\u7bb1": 1407,
    "\u2581\u30b5": 1408,
    "\u3059\u308b\u3053\u3068": 1409,
    "\u540c": 1410,
    "\u672a\u6765": 1411,
    "\u2581\u5b9f\u969b": 1412,
    "\u3068\u3044\u3046\u306e\u306f": 1413,
    "\u2581\u304a\u307e\u3048": 1414,
    "B": 1415,
    "\u6307": 1416,
    "\u53f7": 1417,
    "\u2581\u5f7c\u3089": 1418,
    "\u2581\u4eba\u9593": 1419,
    "\u2581\u3053\u308c\u3089\u306e": 1420,
    "\u304c\u3042\u308a": 1421,
    "\u30d1\u30fc": 1422,
    "\u898b\u308b": 1423,
    "\u3068\u306a\u308b": 1424,
    "\u5ba2": 1425,
    "\u5bfe": 1426,
    "\u2581\u3053\u3044\u3064": 1427,
    "\u2581\u671d": 1428,
    "\u2581\u5168\u7136": 1429,
    "\u8853": 1430,
    "\u2581\u3084\u3063\u305f": 1431,
    "\u57ce": 1432,
    "\u529b\u3092": 1433,
    "\u30d7\u30ed\u30b0\u30e9\u30e0": 1434,
    "\u4e00\u3064": 1435,
    "\u8ee2": 1436,
    "\u2581\u30a2\u30e1\u30ea\u30ab": 1437,
    "\u3092\u4f5c\u308b": 1438,
    "\u5b9a": 1439,
    "\u2581\u30a2\u30f3\u30bf": 1440,
    "\u307e\u3059\u304b": 1441,
    "\u2581\u5f7c\u5973\u3092": 1442,
    "\u2581\u9ad8": 1443,
    "\u304b\u3051": 1444,
    "\u2581\u79c1\u9054": 1445,
    "\u2581\u30db\u30f3\u30c8\u306b": 1446,
    "\u71b1": 1447,
    "\u6b63\u3057\u3044": 1448,
    "\u2581\u307e\u3063\u305f\u304f": 1449,
    "\u90fd": 1450,
    "\u4f5c\u54c1": 1451,
    "\u2581\u73fe\u5728": 1452,
    "\u5931": 1453,
    "\u308b\u308f": 1454,
    "\u3055\u308c\u3066\u3044\u307e\u3059": 1455,
    "\u90e8\u5c4b": 1456,
    "\u30b8\u30fc": 1457,
    "\u30b3\u30f3": 1458,
    "\u2581\u5fc3\u914d": 1459,
    "E": 1460,
    "\u2581\u77e5\u3089\u306a\u3044": 1461,
    "M": 1462,
    "\u3084\u308c": 1463,
    "\u2581\u975e\u5e38\u306b": 1464,
    "\u3057\u307e\u305b\u3093": 1465,
    "\u751f\u7269": 1466,
    "\u805e\u304d": 1467,
    "\u3068\u3044\u3046\u3053\u3068": 1468,
    "'": 1469,
    "\u610f": 1470,
    "\u76ee\u7684": 1471,
    "\u304a\u9858\u3044": 1472,
    "\u5408": 1473,
    "\u5411": 1474,
    "\u305d\u3046\u306a": 1475,
    "\u30d3\u30f3": 1476,
    "\u2581\u3082\u3046\u5c11\u3057": 1477,
    "\u7d4c\u6e08": 1478,
    "\u3057\u3066\u3082": 1479,
    "\u2581\u30ec": 1480,
    "\u7406\u7531\u306f": 1481,
    "\u30e1\u30fc\u30eb": 1482,
    "\u99ac": 1483,
    "\u6e96\u5099": 1484,
    "\u6642\u306f": 1485,
    "\u308b\u305e": 1486,
    "\u2581\u4eca\u591c": 1487,
    "\u2581\u3059\u3054\u304f": 1488,
    "\u3060\u3051\u3067\u3059": 1489,
    "\u5104": 1490,
    "\u2581\u7236\u3055\u3093": 1491,
    "\u89aa": 1492,
    "\u6210": 1493,
    "\u30df\u30fc": 1494,
    "\u304b\u306d": 1495,
    "\u6765\u3044": 1496,
    "\u306e\u9593": 1497,
    "\u5225": 1498,
    "\u2581\u305d\u308c\u3068": 1499,
    "\u2581\u3048\u30c3": 1500,
    "\u6c17\u304c": 1501,
    "\u2581\u30aa\u30ec\u306f": 1502,
    "\u3063\u305f\u3089": 1503,
    "\u3092\u898b\u308b": 1504,
    "\u4ffa\u304c": 1505,
    "\u2581\u5973": 1506,
    "\u3067\u3059\u304b\u3089": 1507,
    "\u4f7f\u7528": 1508,
    "\u25817": 1509,
    "\u4f01\u696d": 1510,
    "\u9023\u308c\u3066": 1511,
    "\u2581\u30c7": 1512,
    "\u8fbc\u307f": 1513,
    "\u30ec\u30d9\u30eb": 1514,
    "\u4efb\u52d9": 1515,
    "\u2581\u524d": 1516,
    "\u306e\u65b9": 1517,
    "\u2581\u5974\u306f": 1518,
    "\u3059\u3050": 1519,
    "\u826f\u304b\u3063\u305f": 1520,
    "\u30d7\u30ed\u30b8\u30a7\u30af\u30c8": 1521,
    "\u6bba\u4eba": 1522,
    "\u4f1a\u3063\u305f": 1523,
    "\u2581\u3042\u3093\u305f\u306f": 1524,
    "\u89e3\u6c7a": 1525,
    "tel": 1526,
    "\u3082\u3089\u3063\u305f": 1527,
    "\u2581\u304a\u91d1": 1528,
    "\u3055\u307e": 1529,
    "\u306b\u3059\u308b": 1530,
    "\u2581\u5fc5\u305a": 1531,
    "\u2581\u308f\u304b\u3063\u3066\u308b": 1532,
    "\u2581\u307e\u3041": 1533,
    "\u2581\u6b21\u306f": 1534,
    "\u306b\u306a\u308a\u307e\u3057\u305f": 1535,
    "\u65c5": 1536,
    "\u591a\u304f": 1537,
    "\u2581\u3053\u3053\u304b\u3089": 1538,
    "\u2581\u3055\u3041": 1539,
    "\u2581\u5927\u4e08\u592b\u3060": 1540,
    "\u306a\u3042": 1541,
    "\u6c17\u5206": 1542,
    "\u305f\u306e": 1543,
    "\u2581\u672c": 1544,
    "\u2581\u6d77": 1545,
    "\u30ad\u30b9": 1546,
    "\u3042\u308c": 1547,
    "\u6210\u9577": 1548,
    "\u78ba\u8a8d": 1549,
    "\u9ad8\u3044": 1550,
    "\u305f\u3061\u306f": 1551,
    "\u3088\u3046\u3067\u3059": 1552,
    "\u90fd\u5e02": 1553,
    "\u304c\u5fc5\u8981": 1554,
    "\u7406": 1555,
    "\u3061\u3083": 1556,
    "\u3057\u3066\u3044\u307e\u3057\u305f": 1557,
    "\u7d04\u675f": 1558,
    "\u30cb\u30e5\u30fc\u30b9": 1559,
    "\u306b\u95a2\u3059\u308b": 1560,
    "\u7a74": 1561,
    "\u6b63": 1562,
    "\u5e78\u305b": 1563,
    "\u7d75": 1564,
    "\u59cb\u3081": 1565,
    "\u2581\u4eca\u5ea6\u306f": 1566,
    "\u305d\u308c\u304c": 1567,
    "\u541b\u306b": 1568,
    "\u2581\u3042\u306e\u5b50": 1569,
    "\u30b5\u30fc": 1570,
    "\u3044\u3084": 1571,
    "\u25818": 1572,
    "\u9580": 1573,
    "\u8a3c\u62e0": 1574,
    "\u2581\u266b": 1575,
    "\u2581\u6700\u5f8c\u306b": 1576,
    "\u6bba": 1577,
    "\u51fa\u3066": 1578,
    "\u307e\u307e": 1579,
    "\u3084\u308d\u3046": 1580,
    "\u3058\u3083\u306a\u304b\u3063\u305f": 1581,
    "\u5c11\u5973": 1582,
    "\u91cd\u8981": 1583,
    "\u3044\u304b": 1584,
    "\u3088\u3044": 1585,
    "\u7537\u6027": 1586,
    "12": 1587,
    "\u8ab0\u3082": 1588,
    "\u59cb\u3081\u305f": 1589,
    "\u623b\u308b": 1590,
    "\u5e30\u308b": 1591,
    "\u5f8c\u306b": 1592,
    "\u306a\u3044\u304b": 1593,
    "\u7cfb": 1594,
    "\u4e2d\u306e": 1595,
    "\u30d3\u30eb": 1596,
    "\u6587": 1597,
    "\u7d9a\u3051\u308b": 1598,
    "\u25819": 1599,
    "\u5165\u308a": 1600,
    "\u305f\u3060": 1601,
    "\u5343": 1602,
    "\u2581\u5b66\u6821": 1603,
    "\u4f5c\u6226": 1604,
    "11": 1605,
    "\u2581\u30cf": 1606,
    "\u8a31\u53ef": 1607,
    "\u77e5": 1608,
    "\u306f\u7121\u3044": 1609,
    "\u2581\u5916": 1610,
    "\u2581\u3055\u3063\u304d": 1611,
    "\u306f\u3042\u308b": 1612,
    "\u3064\u304b": 1613,
    "\u306b\u884c\u3063\u305f": 1614,
    "\u4f7f\u3046": 1615,
    "\u52b9\u679c": 1616,
    "\u89b3": 1617,
    "\u5371\u967a": 1618,
    "\u3063\u3066\u3044\u3046": 1619,
    "\u306f\u3042\u308a\u307e\u305b\u3093": 1620,
    "\u691c\u67fb": 1621,
    "\u9152": 1622,
    "\u5f85\u3063\u3066": 1623,
    "\u5bb6\u306b": 1624,
    "\u3044\u3063\u3066": 1625,
    "\u904b\u547d": 1626,
    "\u30d6\u30e9": 1627,
    "\u2581\u884c\u3051": 1628,
    "\u2581\u305d\u308c\u3060\u3051": 1629,
    "\u3059\u308b\u305f\u3081\u306b": 1630,
    "\u2581\u5168\u3066\u306e": 1631,
    "\u653f\u5e9c": 1632,
    "\u7121\u7406": 1633,
    "\u767d": 1634,
    "\u2581\u3053\u306e\u3088\u3046\u306a": 1635,
    "\u5a18": 1636,
    "\u3064\u3044\u3066": 1637,
    "\u591a": 1638,
    "\u6ce2": 1639,
    "\u4e38": 1640,
    "\u2581\u591a\u5206": 1641,
    "\u304b\u304b\u308b": 1642,
    "\u7d44": 1643,
    "\u2581\u5927\u4e08\u592b\u304b": 1644,
    "\u304d\u307e\u3059": 1645,
    "\u9283": 1646,
    "\u2581\u4e2d": 1647,
    "\u6cbb\u7642": 1648,
    "\u2581\u3084\u3042": 1649,
    "\u2581\u611b": 1650,
    "\u2581\u3042\u306a\u305f\u3092": 1651,
    "\u4e0a\u306e": 1652,
    "\u8cea": 1653,
    "\u2581\u5168\u54e1": 1654,
    "\u30a2\u30a4\u30c7\u30a2": 1655,
    "\u516c": 1656,
    "\u2581\u3053\u3093\u306b\u3061\u306f": 1657,
    "\u2581\u4f55\u306e": 1658,
    "\u884c\u3053\u3046": 1659,
    "\u7387": 1660,
    "\u30ef\u30f3": 1661,
    "\u30ea\u30c3\u30af": 1662,
    "\u3066\u305f": 1663,
    "\u77ac\u9593": 1664,
    "\u5e2d": 1665,
    "\u304a\u91d1": 1666,
    "\u2581\u30ea": 1667,
    "\u6cbb": 1668,
    "\u96c6": 1669,
    "L": 1670,
    "\u6700\u5f8c\u306e": 1671,
    "\u30c6\u30ec\u30d3": 1672,
    "100": 1673,
    "\u5f01\u8b77\u58eb": 1674,
    "\u306a\u3044\u306e": 1675,
    "\u7acb\u3061": 1676,
    "\u3059\u3050\u306b": 1677,
    "\u3053\u3053\u306b\u3044\u308b": 1678,
    "\u306a\u3093": 1679,
    "\u3069\u3046\u3057\u3066": 1680,
    "\u7269\u8a9e": 1681,
    "\u2581\u3069\u3046\u3044\u3046": 1682,
    "\u534a": 1683,
    "\u3082\u306e\u306f": 1684,
    "\u30ad\u30f3\u30b0": 1685,
    "\u5224\u65ad": 1686,
    "\u2581\u305d\u308c\u3067\u3082": 1687,
    "\u9032": 1688,
    "\u826f\u304f": 1689,
    "\u5973\u306e\u5b50": 1690,
    "\u30de\u30de": 1691,
    "\u652f\u63f4": 1692,
    "\u2581\u5143": 1693,
    "\u306e\u65b9\u304c": 1694,
    "\u306e\u3067\u3057\u3087\u3046\u304b": 1695,
    "\u307f\u3066": 1696,
    "\u30da": 1697,
    "\u3092\u53d6\u308a": 1698,
    "\u81ea\u5206": 1699,
    "\u9650\u308a": 1700,
    "\u2581\u305d\u3046\u306d": 1701,
    "\u2581\u3072\u3069\u3044": 1702,
    "\u306a\u304f\u306a\u308b": 1703,
    "\u2581\u304a\u9858\u3044\u3057\u307e\u3059": 1704,
    "\u5144\u5f1f": 1705,
    "\u9078\u629e": 1706,
    "\u6559\u6388": 1707,
    "\u2581\u30e9": 1708,
    "\u3092\u6bba\u3059": 1709,
    "\u8c37": 1710,
    "\u4eba\u9054": 1711,
    "\u30cd\u30c3\u30c8": 1712,
    "\u7236\u89aa": 1713,
    "\u2581\u30aa\u30ec": 1714,
    "\u30d5\u30a7": 1715,
    "\u2581\u3042\u305f\u3057": 1716,
    "\u72af\u4eba": 1717,
    "\u306b\u3088\u308a": 1718,
    "\u76ee\u3092": 1719,
    "\u2581\u5168\u304f": 1720,
    "\u2581\u6575": 1721,
    "\u547d\u4ee4": 1722,
    "\u898b\u3048\u306a\u3044": 1723,
    "\u98db\u3073": 1724,
    "\u2581\u6700\u5f8c\u306e": 1725,
    "\u6a4b": 1726,
    "\u8fbc\u3093\u3060": 1727,
    "\u4e8b\u6545": 1728,
    "\u5f7c\u304c": 1729,
    "\u2581\u7537": 1730,
    "\u5fd8\u308c": 1731,
    "\u308a\u307e\u3059": 1732,
    "\u7247": 1733,
    "\u58c1": 1734,
    "\u304c\u3042\u308c\u3070": 1735,
    "\u60a3\u8005": 1736,
    "\u500d": 1737,
    "\u7d19": 1738,
    "\u5f31": 1739,
    "\u2581\u6c17": 1740,
    "\u30b6\u30fc": 1741,
    "\u6bcd\u89aa": 1742,
    "\u30bf\u30f3": 1743,
    "\u7834\u58ca": 1744,
    "\u2581\u308f\u304b\u3089\u306a\u3044": 1745,
    "\u30b7\u30e3": 1746,
    "\u3057\u305f\u308a": 1747,
    "\u3093\u3060\u305e": 1748,
    "\u6e21": 1749,
    "\u30e2\u30c7\u30eb": 1750,
    "\u3047": 1751,
    "\u2581\u5931\u793c": 1752,
    "\u3042\u3068": 1753,
    "\u4f7f\u3063\u3066": 1754,
    "\u8b66\u5b98": 1755,
    "\u2581\u30d0": 1756,
    "\u30f4\u30a3": 1757,
    "\u611f\u60c5": 1758,
    "\u304a\u524d\u306e": 1759,
    "\u58eb": 1760,
    "N": 1761,
    "\u7269\u3092": 1762,
    "\u6bbf": 1763,
    "\u2581\u4ffa\u3092": 1764,
    "\u8ffd\u3044": 1765,
    "13": 1766,
    "\u307e\u3059\u3088": 1767,
    "\u30a8\u30cd\u30eb\u30ae\u30fc": 1768,
    "\u4f7f\u3044": 1769,
    "\u2581\u30fc": 1770,
    "\u904e": 1771,
    "\u524d\u306e": 1772,
    "\u306a\u3093\u3067\u3059\u304b": 1773,
    "\u5b50\u3055\u3093": 1774,
    "\u2581\u305d\u3046\u3060\u306a": 1775,
    "\u5e0c\u671b": 1776,
    "\u59b9": 1777,
    "\u2581\u6700\u3082": 1778,
    "\u30c1\u30e3\u30f3\u30b9": 1779,
    "\u30d3\u30c7\u30aa": 1780,
    "\u866b": 1781,
    "\u5229\u7528": 1782,
    "\u306f\u307e\u3060": 1783,
    "\u308c\u306a\u3044": 1784,
    "x": 1785,
    "\u53d6\u3063\u3066": 1786,
    "\u30a8\u30eb": 1787,
    "\u2581\u672c\u5f53": 1788,
    "\u3059\u308b\u306e": 1789,
    "\u3092\u3057\u3066": 1790,
    "\u30db": 1791,
    "\u30ab\u30f3": 1792,
    "\u500b": 1793,
    "\u308c\u305f": 1794,
    "\u6210\u529f": 1795,
    "\u30eb\u30fc\u30eb": 1796,
    "\u2581\u308f\u305f\u3057": 1797,
    "\u2581\u771f": 1798,
    "\u6bba\u3057\u305f": 1799,
    "\u671f\u5f85": 1800,
    "\u2581\u884c\u304f\u305e": 1801,
    "\u6642\u4ee3": 1802,
    "\u3061\u3083\u3046": 1803,
    "\u30ac\u30b9": 1804,
    "\u9023\u7d61": 1805,
    "\u3092\u3057\u305f": 1806,
    "\u2581\u6700\u521d\u306e": 1807,
    "\u65b9\u304c\u3044\u3044": 1808,
    "\u2581\u5922": 1809,
    "\u30b8\u30f3": 1810,
    "\u306f\u3069\u3053": 1811,
    "\u5408\u3044": 1812,
    "\u51fa\u305b": 1813,
    "\u3056": 1814,
    "\u2581\u541b\u3092": 1815,
    "\u2581\u7d76\u5bfe\u306b": 1816,
    "\u5acc\u3044": 1817,
    "\u5f1f": 1818,
    "\u2581\u7d50\u5c40": 1819,
    "\u56e3": 1820,
    "\u6599\u7406": 1821,
    "\u8a13\u7df4": 1822,
    "\u2581\u76ee": 1823,
    "\u3044\u306a\u304b\u3063\u305f": 1824,
    "\u6b7b\u306b": 1825,
    "\u50d5\u306e": 1826,
    "\u2581\u304a\u305d\u3089\u304f": 1827,
    "\u9593\u306b": 1828,
    "\u30d1\u30d1": 1829,
    "\u3044\u3046": 1830,
    "\u2581\u4e00\u4eba": 1831,
    "\u8005\u304c": 1832,
    "\u7cbe\u795e": 1833,
    "\u5168\u3066\u306e": 1834,
    "\u3082\u3089\u3063\u3066": 1835,
    "\u5b9f": 1836,
    "\u2581\u3072": 1837,
    "\u2581\u3042\u3093\u305f\u306e": 1838,
    "\u8005\u306e": 1839,
    "\u5730\u7403": 1840,
    "\u307e\u305b\u3093\u3067\u3057\u305f": 1841,
    "\u304f\u3066": 1842,
    "\u60f3": 1843,
    "\u7528\u610f": 1844,
    "\u4e2d\u3067": 1845,
    "\u518d": 1846,
    "\u9ce5": 1847,
    "\u5074": 1848,
    "\u2581\u306a\u3093": 1849,
    "\u2581\u30d0\u30fc": 1850,
    "\u5168": 1851,
    "\u2581\u3061\u3087\u3063\u3068\u5f85\u3063\u3066": 1852,
    "\u4f55\u3060": 1853,
    "\u3042\u3052": 1854,
    "\u2581\u304a\u306f\u3088\u3046": 1855,
    "\u3042\u3063\u3066": 1856,
    "\u3078\u3068": 1857,
    "\u79d1\u5b66": 1858,
    "\u904e\u304e": 1859,
    "\u304c\u3042\u308b\u306e": 1860,
    "\u2581\u201c": 1861,
    "\u3088\u306a": 1862,
    "\u72af": 1863,
    "\u3068\u304d\u306b": 1864,
    "\u3093\u306e": 1865,
    "\u5f7c\u5973\u306f": 1866,
    "\u3084\u3089": 1867,
    "\u610f\u8b58": 1868,
    "\u30b5\u30f3": 1869,
    "\u3063\u3066\u8a00\u3063\u305f": 1870,
    "\u5f37": 1871,
    "\u2581\u6bce\u65e5": 1872,
    "\u2581\u4f55\u3060\u3088": 1873,
    "\u91d1\u3092": 1874,
    "\u3082\u3042\u308a\u307e\u3059": 1875,
    "\u904b\u52d5": 1876,
    "\u8d77": 1877,
    "\u51fa\u6765": 1878,
    "\u2581\u3069\u3046\u304b": 1879,
    "\u6700\u3082": 1880,
    "\u2581\u5730\u7403": 1881,
    "\u96e3\u3057\u3044": 1882,
    "\u5b66\u751f": 1883,
    "\u2581\u306a\u3042": 1884,
    "\u2581\u4f55\u6545": 1885,
    "\u2581\u52a9\u3051\u3066": 1886,
    "\u2581\u3057\u304b\u3082": 1887,
    "\u884c\u70ba": 1888,
    "\u7537\u304c": 1889,
    "\u7d9a\u3051\u3066": 1890,
    "\u3079\u304d": 1891,
    "\u632f\u308a": 1892,
    "\u5bb6\u306e": 1893,
    "\u5186": 1894,
    "\u3058\u3083\u306a\u3044\u3067\u3059\u304b": 1895,
    "\u30c0\u30f3": 1896,
    "\u91cd\u8981\u306a": 1897,
    "\u2581\u3084\u3063\u3068": 1898,
    "\u6559": 1899,
    "\u75c5\u9662": 1900,
    "\u7d50\u5a5a": 1901,
    "\u671f": 1902,
    "\u5f71": 1903,
    "\u306a\u306e\u3067": 1904,
    "v": 1905,
    "\u2581\u5f7c\u5973\u306b": 1906,
    "0": 1907,
    "\u6559\u3048": 1908,
    "\u307f\u305f\u3044\u3060": 1909,
    "\u4eba\u3060": 1910,
    "\u307e\u3057\u3066": 1911,
    "\u3053\u3068\u304c\u3042\u308b": 1912,
    "\u5bdd": 1913,
    "\u2581\u591c": 1914,
    "\u308b\u306a": 1915,
    "\u306f\u3069\u3053\u3060": 1916,
    "\u30b2": 1917,
    "\u79c1\u305f\u3061\u306f": 1918,
    "\u65ad": 1919,
    "\u73fe\u5b9f": 1920,
    "\u30c3\u30c9": 1921,
    "\u2581\u3042\u305d\u3053": 1922,
    "\u50d5\u306f": 1923,
    "\u4e07\u30c9\u30eb": 1924,
    "\u2581\u30a2\u30fc": 1925,
    "\u304b\u3051\u3066": 1926,
    "\u8cc7\u91d1": 1927,
    "\u258130": 1928,
    "\u9b42": 1929,
    "\u2581\u30c0\u30e1": 1930,
    "\u53d6": 1931,
    "\u30aa\u30ec": 1932,
    "\u2581\u884c\u3053\u3046": 1933,
    "\u2581\u4e86\u89e3": 1934,
    "\u305f\u304f": 1935,
    "\u8a00\u3048": 1936,
    "\u72af\u7f6a": 1937,
    "\u5263": 1938,
    "\u2581\u3053": 1939,
    "\u306f\u3044": 1940,
    "\u4fa1\u5024": 1941,
    "\u306b\u6765\u305f": 1942,
    "\u65bd\u8a2d": 1943,
    "\u968e": 1944,
    "\u907a\u4f1d\u5b50": 1945,
    "\u30d1\u30f3": 1946,
    "\u8ad6": 1947,
    "\u306a\u304f\u3066\u3082": 1948,
    "\u3075": 1949,
    "\u4f5c\u696d": 1950,
    "\u306a\u3044\u3093\u3060": 1951,
    "\u30b3\u30fc": 1952,
    "\u305d\u3057\u3066": 1953,
    "\u3060\u3063\u305f\u3093\u3060": 1954,
    "\u89d2": 1955,
    "\u5c3e": 1956,
    "\u30d1\u30ef\u30fc": 1957,
    "\u9032\u5316": 1958,
    "\u5f7c\u5973\u306e": 1959,
    "\u30dc\u30fc\u30eb": 1960,
    "\u2581\u30ed": 1961,
    "\u2581\u3044\u307e": 1962,
    "\u2581\u306a\u308b\u307b\u3069": 1963,
    "\u304c\u3042\u308a\u307e\u3057\u305f": 1964,
    "\u3057\u306a\u3044\u3067": 1965,
    "\u2581\u305d\u3053": 1966,
    "\u7523": 1967,
    "\u3066\u3082": 1968,
    "\u65e9\u3044": 1969,
    "\u7834": 1970,
    "\u3059\u308b\u306a": 1971,
    "\u4fe1\u7528": 1972,
    "\u69d8\u306b": 1973,
    "\u2581\u3069": 1974,
    "\u2581\u624b\u3092": 1975,
    "\u2581\u30af\u30ea\u30b9": 1976,
    "\u2581\u3053\u3046\u3044\u3046": 1977,
    "H": 1978,
    "\u5fc5\u8981\u304c\u3042\u308b": 1979,
    "\u3060\u3051\u3067\u306a\u304f": 1980,
    "\u2581\u51fa": 1981,
    "\u2581\u6b7b\u3093\u3060": 1982,
    "\u304c\u3044\u3044": 1983,
    "\u2581\u5168": 1984,
    "\u4e8b\u306b": 1985,
    "\u308f\u304b\u3089\u306a\u3044": 1986,
    "\u6839": 1987,
    "\u5e74\u524d\u306b": 1988,
    "\u62c5\u5f53": 1989,
    "\u8133": 1990,
    "\u2581\u3069\u3046\u3059\u308b": 1991,
    "\u7d04": 1992,
    "\u2581\u306a\u3093\u304b": 1993,
    "\u7279": 1994,
    "\u2581\u4eca\u3059\u3050": 1995,
    "\u2581\u30af\u30bd": 1996,
    "\u4fe1": 1997,
    "\u306e\u4ed5\u4e8b": 1998,
    "\u4e57\u308a": 1999,
    "\u5148\u306b": 2000,
    "\u6211\u3005\u306e": 2001,
    "\u3067\u304d\u307e\u305b\u3093": 2002,
    "\u2581\u3046\u307e\u304f": 2003,
    "\u3042\u3052\u308b": 2004,
    "\u6669": 2005,
    "\u5730\u57df": 2006,
    "\u3092\u898b\u3064\u3051\u308b": 2007,
    "\u4f55\u304c": 2008,
    "\u7acb\u3066": 2009,
    "\u2581\u3069\u306e": 2010,
    "\u5230": 2011,
    "\u2581\u3042\u30fc": 2012,
    "\u30d5\u30a1\u30f3": 2013,
    "\u5143\u6c17": 2014,
    "\u2581\u304a\u524d\u306b": 2015,
    "\u2581\u5c71": 2016,
    "\u306e\u4e00\u90e8": 2017,
    "\u30ec\u30a4": 2018,
    "\u306e\u305b\u3044\u3067": 2019,
    "\u884c\u304b\u306a\u3044": 2020,
    "\u753a": 2021,
    "\u306e\u4e8b\u3092": 2022,
    "\u2581\u884c\u3063\u3066": 2023,
    "\u306f\u3057\u306a\u3044": 2024,
    "\u8a71\u3057\u3066": 2025,
    "\u53ef\u80fd": 2026,
    "\u3088\u3046\u3068": 2027,
    "\u6a5f\u4f1a": 2028,
    "\u306b\u3088\u308b\u3068": 2029,
    "\u2581\u4ffa\u305f\u3061": 2030,
    "\u601d\u3044\u51fa": 2031,
    "\u8a00\u3063\u3066\u308b": 2032,
    "\u3093\u3067\u3059\u3051\u3069": 2033,
    "\u62bc\u3057": 2034,
    "\u7f8e\u3057\u3044": 2035,
    "\u6765\u306a\u3044": 2036,
    "\u3044\u305f\u3089": 2037,
    "\u4f1a\u8b70": 2038,
    "\u6253": 2039,
    "\u884c\u3051": 2040,
    "\u2581\u305d\u308c\u3058\u3083": 2041,
    "\u3081\u3066": 2042,
    "\u30af\u30e9\u30d6": 2043,
    "\u8ffd\u8de1": 2044,
    "\u3044\u308b\u306e\u304b": 2045,
    "\u3093\u3060\u306a": 2046,
    "\u30e9\u30f3\u30c9": 2047,
    "\u30a8\u30f3": 2048,
    "\u56f3": 2049,
    "\u308b\u3079\u304d": 2050,
    "\u30ea\u30fc\u30c0\u30fc": 2051,
    "\u3053\u3044": 2052,
    "\u30eb\u30fc": 2053,
    "\u98df\u3079\u3066": 2054,
    "\u5341\u5206": 2055,
    "\u6c0f": 2056,
    "\u5927\u304d\u304f": 2057,
    "\u8155": 2058,
    "\u914d": 2059,
    "\u305b\u308b": 2060,
    "\u30c3\u30b7\u30e5": 2061,
    "\u2581\u4f55\u3067\u3082": 2062,
    "\u2581\u5c0f\u3055\u306a": 2063,
    "\u30d0\u30f3": 2064,
    "\u3069\u3046\u3084\u3063\u3066": 2065,
    "\u2581\u4e0a": 2066,
    "\u3055\u308c\u307e\u3059": 2067,
    "\u306a\u3089\u3070": 2068,
    "\u2581\u6bcd\u3055\u3093": 2069,
    "\u8fd4": 2070,
    "\u75c7": 2071,
    "\u79c1\u305f\u3061": 2072,
    "\u4eba\u3068": 2073,
    "\u3053\u3063\u3061": 2074,
    "\u7d9a\u3051": 2075,
    "\u751f\u304d\u308b": 2076,
    "\u904e\u53bb": 2077,
    "O": 2078,
    "\u2581\u3042\u306e\u4eba": 2079,
    "\u306f\u3082\u3046": 2080,
    "\u3059\u3054\u3044": 2081,
    "\u5206\u304b\u3063\u3066\u308b": 2082,
    "\u2581\u59bb": 2083,
    "\u3059\u308b\u304b": 2084,
    "\u5e2b": 2085,
    "\u3057\u3066\u3044\u306a\u3044": 2086,
    "\u7591\u554f": 2087,
    "\u8a3c\u660e": 2088,
    "\u307f\u308d": 2089,
    "\u2581\u7236\u89aa": 2090,
    "\u8a00\u3044\u307e\u3057\u305f": 2091,
    "\u2581\u5b9f\u969b\u306b": 2092,
    "\u3053\u3068\u306b\u306a\u308b": 2093,
    "\u5927\u304d\u3044": 2094,
    "\u6c17\u306b": 2095,
    "\u51fa\u308b": 2096,
    "\u2581\u8840": 2097,
    "\u30af\u30e9\u30b9": 2098,
    "\u5897": 2099,
    "\u6ca2\u5c71": 2100,
    "60": 2101,
    "\u2581\u30b3": 2102,
    "\u5618": 2103,
    "\u843d": 2104,
    "\u6559\u80b2": 2105,
    "\u3057\u305f\u306e\u306f": 2106,
    "\u5427": 2107,
    "\u306e\u304b\u306a": 2108,
    "\u2581\u307e": 2109,
    "I": 2110,
    "\u2581\u6614": 2111,
    "\u76f8\u8ac7": 2112,
    "\u597d\u304d\u306a": 2113,
    "\u81ea\u5206\u3067": 2114,
    "\u5974\u3089": 2115,
    "\u72b6": 2116,
    "\u3067\u304d": 2117,
    "\u5c11\u5e74": 2118,
    "\u8077": 2119,
    "\u2581\u30a2\u30f3": 2120,
    "\u306e\u3067\u3059\u304c": 2121,
    "\u30ed\u30c3\u30af": 2122,
    "\u2581\u4ef2\u9593": 2123,
    "\u30ad\u30ed": 2124,
    "\u30d7\u30ed": 2125,
    "\u5e30\u308a": 2126,
    "\u6700": 2127,
    "\u3057\u3088\u3046\u3068": 2128,
    "\u6df1\u3044": 2129,
    "\u2581\u3057\u3063\u304b\u308a": 2130,
    "\u305f\u3061\u304c": 2131,
    "\u2581\u3075": 2132,
    "\u2581\u8a00\u3063\u3066": 2133,
    "\u958b": 2134,
    "\u904b\u8ee2": 2135,
    "\u2581\u89aa": 2136,
    "\u3046\u3061\u306b": 2137,
    "\u305f\u308a": 2138,
    "\u2581\u305d\u308c\u3082": 2139,
    "19": 2140,
    "\u8003\u3048\u305f": 2141,
    "\u308c\u3070\u3044\u3044": 2142,
    "\u2581\u2015": 2143,
    "R": 2144,
    "\u6c7a\u3081": 2145,
    "\u51e6\u7406": 2146,
    "\u8abf\u3079": 2147,
    "\u30b8\u30e3": 2148,
    "\u969c\u5bb3": 2149,
    "\u2581\u5c11\u306a\u304f\u3068\u3082": 2150,
    "\u7a0b": 2151,
    "\u6050\u308c": 2152,
    "\u6559\u5e2b": 2153,
    "\u624b\u6bb5": 2154,
    "\u6bdb": 2155,
    "\u805e\u3051": 2156,
    "\u3063\u3061\u3083": 2157,
    "\u8cac\u4efb": 2158,
    "\u5951\u7d04": 2159,
    "\u4ea4": 2160,
    "\u2581\u305d\u306e\u6642": 2161,
    "\u30b3\u30fc\u30c9": 2162,
    "\u306a\u3063\u305f": 2163,
    "\u8a18\u61b6": 2164,
    "\u6226\u3044": 2165,
    "\u5834\u6240\u306b": 2166,
    "\u643a\u5e2f": 2167,
    "\u2581\u6bcd\u89aa": 2168,
    "\u2581\u601d\u3044": 2169,
    "\u5927\u7d71\u9818": 2170,
    "\u305d\u3053": 2171,
    "\u4efb": 2172,
    "\u6301\u3063\u3066\u308b": 2173,
    "\u2581\u52a9\u3051": 2174,
    "\u30bc": 2175,
    "\u9aea": 2176,
    "\u5e02\u5834": 2177,
    "\u5e30\u3063\u3066": 2178,
    "\u306f\u305a\u3067\u3059": 2179,
    "\u4efb\u305b": 2180,
    "\u2581\u3042\u306a\u305f\u3082": 2181,
    "\u96e3": 2182,
    "\u3084\u308a": 2183,
    "\u6211\u3005\u306f": 2184,
    "\u304a\u7236\u3055\u3093": 2185,
    "\u5229": 2186,
    "\u75db": 2187,
    "\u624d": 2188,
    "\u6b69\u3044\u3066": 2189,
    "\u2581\u3044\u308d\u3044\u308d": 2190,
    "\u5642": 2191,
    "\u3072\u3068\u3064": 2192,
    "\u2581\u30a2\u30eb": 2193,
    "\u30f6\u6708": 2194,
    "\u53cd\u5bfe": 2195,
    "\u2581\u30b8\u30e7\u30fc": 2196,
    "\u7530\u3055\u3093": 2197,
    "\u7686\u3055\u3093": 2198,
    "\u2581\u3069\u3063\u3061": 2199,
    "\u2581\u3044\u3064\u304b": 2200,
    "\u5408\u3046": 2201,
    "\u52aa\u529b": 2202,
    "\u66f8\u304d": 2203,
    "\u975e\u5e38\u306b": 2204,
    "\u30d4": 2205,
    "\u2581\u9854": 2206,
    "\u2581\u3060\u3063\u305f\u3089": 2207,
    "\u5931\u6557": 2208,
    "\u304f\u308c\u3066": 2209,
    "\u6bba\u3059": 2210,
    "\u308b\u3088": 2211,
    "\u30c9\u30f3": 2212,
    "\u79d1\u5b66\u8005": 2213,
    "\u30d0\u30a4": 2214,
    "\u6c7a\u3081\u305f": 2215,
    "\u53d6\u5f15": 2216,
    "\u2581\u3082\u3057\u304b\u3057\u3066": 2217,
    "\u9577\u304f": 2218,
    "\u7df4\u7fd2": 2219,
    "\u306e\u554f\u984c": 2220,
    "\u53cd": 2221,
    "\u2581\u8003\u3048": 2222,
    "\u77e5\u8b58": 2223,
    "\u6c11": 2224,
    "\u30ac\u30ad": 2225,
    "\u6a29": 2226,
    "\u30d4\u30fc": 2227,
    "\u305d\u3053\u306b": 2228,
    "\u4f5c\u308a": 2229,
    "\u6016\u3044": 2230,
    "\u30c1\u30a7\u30c3\u30af": 2231,
    "\u306b\u3044\u305f": 2232,
    "\u306a\u304f\u306a\u3063\u305f": 2233,
    "\u306a\u3051\u308c\u3070\u306a\u3089\u306a\u3044": 2234,
    "\u30c7\u30f3": 2235,
    "\u5ea7": 2236,
    "\u7b2c": 2237,
    "\u9003\u3052": 2238,
    "\u6307\u793a": 2239,
    "\u53d7\u3051": 2240,
    "\u2581\u8133": 2241,
    "\u4f55\u3067\u3082": 2242,
    "\u2581--": 2243,
    "\u4eba\u3005": 2244,
    "\u3068\u601d\u3063\u3066\u308b": 2245,
    "\u2581\u5197\u8ac7": 2246,
    "\u304c\u7121\u3044": 2247,
    "\u6700\u521d\u306e": 2248,
    "\u2581\u982d": 2249,
    "\u3089\u3093": 2250,
    "\u697d": 2251,
    "\u59ff": 2252,
    "\u304c\u6b32\u3057\u3044": 2253,
    "\u76e3\u8996": 2254,
    "\u2581\u50d5\u3082": 2255,
    "w": 2256,
    "\u30c6\u30ed": 2257,
    "\u3057\u3066\u308b\u306e": 2258,
    "\u7fbd": 2259,
    "\u2581\u30c0\u30e1\u3060": 2260,
    "\u533b\u8005": 2261,
    "\u6642\u9593\u306f": 2262,
    "\u3081\u308b": 2263,
    "\u2581\u4e8c": 2264,
    "\u30aa\u30f3": 2265,
    "\u3092\u5b88\u308b": 2266,
    "\u2581\u79c1\u3068": 2267,
    "\u2581\u3053\u308c\u4ee5\u4e0a": 2268,
    "\u30b7\u30e7\u30fc": 2269,
    "\u307b": 2270,
    "\u2581\u4eca\u65e5\u306e": 2271,
    "\u305f\u304b\u3063\u305f": 2272,
    "\u2581200": 2273,
    "\u258119": 2274,
    "\u3068\u3057\u305f\u3089": 2275,
    "\u2581\u3060\u3051\u3069": 2276,
    "\u30ed\u30dc\u30c3\u30c8": 2277,
    "\u2581\u4ee5\u524d": 2278,
    "\u754c": 2279,
    "\u7d50": 2280,
    "\u901a\u4fe1": 2281,
    "\u65c5\u884c": 2282,
    "\u5e02": 2283,
    "\u2581\u307b": 2284,
    "\u98f2\u3093\u3067": 2285,
    "\u9996": 2286,
    "\u3092\u4f7f\u3046": 2287,
    "\u5175\u58eb": 2288,
    "\u4ed6": 2289,
    "\u3055\u3093\u306b": 2290,
    "\u7aef": 2291,
    "\u541b\u3092": 2292,
    "\u96a3": 2293,
    "P": 2294,
    "\u5206\u306e": 2295,
    "\u3092\u898b\u3064\u3051": 2296,
    "\u3044\u308c\u3070": 2297,
    "\u8a71\u306f": 2298,
    "\u6ca2": 2299,
    "\u3042\u306a\u305f\u306b": 2300,
    "\u5f71\u97ff": 2301,
    "\u3053\u3068\u304c\u3067\u304d\u308b": 2302,
    "\u5f7c\u306b": 2303,
    "\u6642\u306b\u306f": 2304,
    "\u3057\u307e\u3046": 2305,
    "\u5dee": 2306,
    "\u2581\u304a\u524d\u3082": 2307,
    "\u5f7c\u5973\u3092": 2308,
    "\u53cb": 2309,
    "\u8a71\u3057": 2310,
    "\u6559\u3048\u3066": 2311,
    "\u629c\u3051": 2312,
    "\u3057\u3066\u307e\u3059": 2313,
    "\u5909\u308f\u3063\u305f": 2314,
    "\u63a5": 2315,
    "\u77e5\u3089\u305b": 2316,
    "\u30d6\u30eb": 2317,
    "\u2581\u30dc\u30af": 2318,
    "\u2581\u672c\u5f53\u306e": 2319,
    "\u53ef\u80fd\u6027": 2320,
    "\u306e\u3053\u3068\u306f": 2321,
    "\u90e8\u5c4b\u306b": 2322,
    "\u4eba\u3082": 2323,
    "\u2581\u307b\u3068\u3093\u3069": 2324,
    "\u571f\u5730": 2325,
    "\u671b\u307f": 2326,
    "\u96e2": 2327,
    "\u4f11\u307f": 2328,
    "\u5727": 2329,
    "\u30d5\u30a1\u30a4\u30eb": 2330,
    "\u751f\u5f92": 2331,
    "\u7d20": 2332,
    "\u3069\u3053": 2333,
    "\u624b\u306b": 2334,
    "\u2581\u7d04\u675f": 2335,
    "\u773c": 2336,
    "\u306b\u304a\u3051\u308b": 2337,
    "\u2581\u3053\u3053\u306e": 2338,
    "\u5354\u529b": 2339,
    "\u3066\u304f\u3060\u3055\u3044": 2340,
    "\u3069\u3046\u305e": 2341,
    "\u3069\u3082": 2342,
    "\u2581\u65e5\u672c": 2343,
    "\u73fe": 2344,
    "\u2581\u3088\u308d\u3057\u304f": 2345,
    "\u85e4": 2346,
    "\u30dd\u30a4\u30f3\u30c8": 2347,
    "\u6761\u4ef6": 2348,
    "\u81ea": 2349,
    "\u3092\u77e5\u3063\u3066\u308b": 2350,
    "\u2581\u30d2": 2351,
    "\u2581\u3059\u3079\u3066\u306e": 2352,
    "\u3059\u308b\u308f": 2353,
    "\u308a\u307e\u3057\u305f": 2354,
    "\u6240\u306b": 2355,
    "\u8a18\u4e8b": 2356,
    "\u2581\u30ad\u30df": 2357,
    "\u2581\u6642\u9593": 2358,
    "\u66f8\u3044\u3066": 2359,
    "\u539f\u56e0": 2360,
    "\u4e8b\u5b9f": 2361,
    "\u30a2\u30c3\u30d7": 2362,
    "\u3060\u305c": 2363,
    "\u672c\u5f53": 2364,
    "\u30c1\u30e3": 2365,
    "\u97f3\u697d": 2366,
    "\u671b": 2367,
    "\u65e5\u306b": 2368,
    "\u3082\u306e\u304c": 2369,
    "\u30af\u30bd": 2370,
    "\u305f\u304f\u3055\u3093": 2371,
    "\u3093\u3067\u3059\u306d": 2372,
    "\u2581\u305f\u3063\u305f": 2373,
    "\u60d1\u661f": 2374,
    "\u3063\u3066\u3044\u307e\u3059": 2375,
    "\u2581\u554f\u984c": 2376,
    "\u73fe\u5728": 2377,
    "\u3044\u308b\u3093\u3060": 2378,
    "\u30ed\u30b9": 2379,
    "\u540c\u69d8": 2380,
    "\u533b\u7642": 2381,
    "\u3068\u5171\u306b": 2382,
    "\u308f\u3051\u3058\u3083\u306a\u3044": 2383,
    "\u2581\u7f8e": 2384,
    "\u98df\u3079": 2385,
    "\u3079\u304d\u3060": 2386,
    "\u2581\u305d\u308d\u305d\u308d": 2387,
    "\u96fb": 2388,
    "\u30bb\u30f3\u30bf\u30fc": 2389,
    "\u2581\u5206\u304b\u3089\u306a\u3044": 2390,
    "\u5f7c\u3089\u306f": 2391,
    "\u308f\u308c": 2392,
    "\u307e\u308a": 2393,
    "\u2581\u540d\u524d\u306f": 2394,
    "\u30c7\u30a3\u30fc": 2395,
    "\u2581\u53f3": 2396,
    "\u7acb\u3063\u3066": 2397,
    "\u3082\u3057": 2398,
    "\u58f2": 2399,
    "\u5f53": 2400,
    "\u30de\u30a4\u30eb": 2401,
    "\u30d5\u30a3": 2402,
    "\u30ab\u30e1\u30e9": 2403,
    "\u3057\u3066\u304f\u308c\u305f": 2404,
    "\u8981\u6c42": 2405,
    "\u5357": 2406,
    "\u5371\u967a\u306a": 2407,
    "\u30ab\u30eb": 2408,
    "\u2581\u5f8c\u3067": 2409,
    "\u6a5f\u95a2": 2410,
    "\u4ed8\u304d": 2411,
    "\u2581\u5927\u7d71\u9818": 2412,
    "\u751f\u307e\u308c\u305f": 2413,
    "\u2581\u3042\u3093\u305f\u304c": 2414,
    "\u2581\u305d\u3063\u3061": 2415,
    "\u81ea\u7136": 2416,
    "\u30bf\u30a4\u30d7": 2417,
    "\u9023\u4e2d": 2418,
    "\u2581FBI": 2419,
    "\u5206\u6790": 2420,
    "\u90aa\u9b54": 2421,
    "\u6587\u5316": 2422,
    "\u2581\u3069\u3053\u3067": 2423,
    "\u2581\u6b7b\u306c": 2424,
    "\u2581\u5de6": 2425,
    "\u3058\u3083\u306a\u3044\u308f": 2426,
    "\u2581\u7121": 2427,
    "\u8449": 2428,
    "\u30a2\u30e1\u30ea\u30ab": 2429,
    "\u30db\u30fc": 2430,
    "\u3064\u3051\u3066": 2431,
    "\u63a2\u3057": 2432,
    "\u9060\u304f": 2433,
    "\u3089\u308c\u307e\u3059": 2434,
    "\u2581\u53d6\u308a": 2435,
    "tv": 2436,
    "\u306a\u3088": 2437,
    "\u958b\u59cb": 2438,
    "\u6bba\u3057": 2439,
    "\u30c6\u30f3": 2440,
    "\u2581\u72ac": 2441,
    "\u2581\u4e0b": 2442,
    "\u6253\u3061": 2443,
    "\u304c\u60aa\u3044": 2444,
    "\u6df1": 2445,
    "\u2581\u306d\u3047": 2446,
    "\u2581\u3042\u307e\u308a": 2447,
    "\u984d": 2448,
    "\u604b": 2449,
    "\u6bba\u3055\u308c\u305f": 2450,
    "\u3066\u304d\u305f": 2451,
    "\u3092\u6301\u3063\u3066\u3044\u308b": 2452,
    "\u4e94": 2453,
    "\u898b\u3048": 2454,
    "\u4e0d\u5b89": 2455,
    "\u2581\u30a6": 2456,
    "\u2581\u5f8c": 2457,
    "\u98df\u3079\u308b": 2458,
    "\u77e5\u3063\u305f": 2459,
    "\u5bae": 2460,
    "\u5148\u8f29": 2461,
    "\u9ed2": 2462,
    "\u696d": 2463,
    "\u4e8b\u3082": 2464,
    "\u8def": 2465,
    "\u4e0a\u306b": 2466,
    "\u305f\u3081\u306e": 2467,
    "\u6bba\u5bb3": 2468,
    "\u2581\u4eca\u671d": 2469,
    "\u3093\u306a": 2470,
    "\u306e\u304a": 2471,
    "\u9053\u3092": 2472,
    "\u30ec\u30b9": 2473,
    "\u301c": 2474,
    "\u4fe1\u983c": 2475,
    "\u306e\u540d\u524d\u306f": 2476,
    "\u306e\u4e16\u754c": 2477,
    "\u304a\u308a": 2478,
    "\u2581\u6e96\u5099": 2479,
    "\u2581\u4eba\u9593\u306e": 2480,
    "\u2581\u6628\u591c": 2481,
    "\u7389": 2482,
    "\u2581A": 2483,
    "\u611f\u3058\u308b": 2484,
    "\u306a\u3093\u3067": 2485,
    "\u5165\u3063\u3066": 2486,
    "\u8a3c\u8a00": 2487,
    "\u30b5\u30a4\u30f3": 2488,
    "\u8cb7\u3063\u3066": 2489,
    "\u8a66": 2490,
    "\u30af\u30e9": 2491,
    "\u7dcf": 2492,
    "\u30ea\u30b9": 2493,
    "\u2581\u30b5\u30e9": 2494,
    "\u53c2\u52a0": 2495,
    "\u30b5\u30fc\u30d3\u30b9": 2496,
    "\u2581100": 2497,
    "\u59cb\u3081\u308b": 2498,
    "\u98f2\u307f": 2499,
    "\u30c6\u30af\u30ce\u30ed\u30b8\u30fc": 2500,
    "\u2581\u8a71": 2501,
    "\u5f85\u3061": 2502,
    "\u2581\u304a\u3063": 2503,
    "\u30cb\u30a2": 2504,
    "\u611f\u67d3": 2505,
    "K": 2506,
    "\u30ad\u30f3": 2507,
    "\u2581\u3061\u3087\u3046\u3069": 2508,
    "\u2581\u30aa\u30fc": 2509,
    "\u59cb\u3081\u3066": 2510,
    "\u2581\u305d\u308c\u3067\u306f": 2511,
    "\u4f5c\u3063\u3066": 2512,
    "\u69cb\u9020": 2513,
    "\u56de\u5fa9": 2514,
    "\u30af\u30b9": 2515,
    "\u2581\u541b\u305f\u3061": 2516,
    "\u2581\u30dc\u30b9": 2517,
    "\u226b": 2518,
    "\u8b70\u8ad6": 2519,
    "\u2581\u3042\u3063\u305f": 2520,
    "\u3042\u306a\u305f\u3092": 2521,
    "40": 2522,
    "\u30a2\u30ea": 2523,
    "\u3092\u6301\u3061": 2524,
    "\u2581\u3057\u3070\u3089\u304f": 2525,
    "\u3068\u601d\u3063\u3066\u305f": 2526,
    "\u2581\u30cf\u30a4": 2527,
    "\u30d5\u30a1": 2528,
    "\u4ee3\u308f\u308a\u306b": 2529,
    "\u5207": 2530,
    "\u2581\u4f55\u3068\u304b": 2531,
    "\u2581\u3082\u3046\u3044\u3044": 2532,
    "\u30c3\u30d7": 2533,
    "\u2581\u6570": 2534,
    "\u79d8\u5bc6": 2535,
    "\u2581\u5927\u5909": 2536,
    "\u5de5\u5834": 2537,
    "\u88ab": 2538,
    "\u3064\u3082\u308a\u3060": 2539,
    "\u5929\u4f7f": 2540,
    "\u53c2": 2541,
    "\u306e\u5f8c": 2542,
    "\u6a29\u5229": 2543,
    "\u30ab\u30b9": 2544,
    "\u5144": 2545,
    "\u8d77\u3053": 2546,
    "\u5efa\u7269": 2547,
    "\u9003\u3052\u305f": 2548,
    "\u7a7a\u9593": 2549,
    "\u533b\u5e2b": 2550,
    "\u5206\u304b\u308a\u307e\u3059": 2551,
    "\u2581\u307e\u305a\u306f": 2552,
    "\u7b4b": 2553,
    "\u611f\u899a": 2554,
    "\u9001": 2555,
    "\u66f8\u3044\u305f": 2556,
    "\u5317": 2557,
    "\u3044\u3044\u304b": 2558,
    "\u2581\u5b87\u5b99": 2559,
    "\u306b\u6765\u3066": 2560,
    "\u2581\u3086\u3063\u304f\u308a": 2561,
    "\u30d1\u30fc\u30c6\u30a3\u30fc": 2562,
    "\u2581\u6bcd": 2563,
    "\u3063\u3061\u3083\u3063\u305f": 2564,
    "\u3044\u308b\u304b": 2565,
    "\u2581\u9577": 2566,
    "\u6614": 2567,
    "\u2581\u75c5\u9662": 2568,
    "\u9762\u767d\u3044": 2569,
    "\u6bba\u3055\u308c\u308b": 2570,
    "\u751f\u307e\u308c": 2571,
    "\u9632": 2572,
    "\u601d": 2573,
    "\u2581\u3042\u3089\u3086\u308b": 2574,
    "\u4e00\u65e5": 2575,
    "\u79d1": 2576,
    "\u30df\u30b9": 2577,
    "\u2581\u5f53\u7136": 2578,
    "\u52c9\u5f37": 2579,
    "\u50cd\u304d": 2580,
    "\u2581\u3053\u306e\u307e\u307e": 2581,
    "\u6a5f\u68b0": 2582,
    "z": 2583,
    "\u68ee": 2584,
    "\u59c9": 2585,
    "\u77e5\u308b": 2586,
    "\u2581\u306f\u3041": 2587,
    "\u805e\u304d\u305f\u3044": 2588,
    "\u3064\u3044\u305f": 2589,
    "\u2581\u3053\u3061\u3089\u306f": 2590,
    "\u30bc\u30ed": 2591,
    "\u307b\u3046\u304c": 2592,
    "\u2581\u3042\u3044\u3064\u306f": 2593,
    "\u30cf\u30a4": 2594,
    "\u8ddd\u96e2": 2595,
    "\u9000": 2596,
    "\u2581\u8d64": 2597,
    "\u9001\u308a": 2598,
    "\u304b\u3088": 2599,
    "\u793a": 2600,
    "\u2581\u884c\u304f": 2601,
    "\u9854\u3092": 2602,
    "\u2581\u767d": 2603,
    "\u968a\u9577": 2604,
    "\u52d5\u304f": 2605,
    "\u590f": 2606,
    "\u2581\u6301\u3063\u3066": 2607,
    "\u2581\u4e8c\u4eba": 2608,
    "\u6bd2": 2609,
    "\u6587\u5b57": 2610,
    "\u51fa\u6765\u305f": 2611,
    "\u5065\u5eb7": 2612,
    "\u3048\u308b": 2613,
    "\u3067\u306d": 2614,
    "\u6700\u9ad8": 2615,
    "\u3059\u304e": 2616,
    "\u30ca\u30a4\u30d5": 2617,
    "\u306b\u623b\u308b": 2618,
    "\u8a8d\u8b58": 2619,
    "\u6c7a\u5b9a": 2620,
    "\u793e\u9577": 2621,
    "\u304c\u597d\u304d": 2622,
    "\u3057\u306a\u3055\u3044": 2623,
    "\u2581\u653f\u5e9c": 2624,
    "\u30cf\u30f3": 2625,
    "\u4e95": 2626,
    "\u888b": 2627,
    "\u2581\u3069\u3046\u3044\u3046\u3053\u3068": 2628,
    "\u6ce8\u610f": 2629,
    "\u6848": 2630,
    "\u8bf4": 2631,
    "\u8b66\u544a": 2632,
    "\u2581\u3067\u3059\u304b\u3089": 2633,
    "\u306e\u306a\u3044": 2634,
    "\u8a00\u3063\u3066\u305f": 2635,
    "\u3053\u3068\u304c\u3067\u304d\u307e\u3059": 2636,
    "\u5411\u3051": 2637,
    "G": 2638,
    "\u2581\u3053\u308c\u307e\u3067": 2639,
    "\u2581\u3082\u3046\u3059\u3050": 2640,
    "\u2581\u305d\u3046\u3088": 2641,
    "\u2581\u4e00\u5ea6": 2642,
    "\u30e1\u30f3": 2643,
    "\u2581\u597d\u304d": 2644,
    "\u3092\u4f5c\u3063\u3066": 2645,
    "\u771f\u5b9f": 2646,
    "\u3060\u3068\u601d\u3044\u307e\u3059": 2647,
    "\u30a6\u30a4\u30eb\u30b9": 2648,
    "\u2581\u6b21\u306b": 2649,
    "\u2581\u4ffa\u305f\u3061\u306f": 2650,
    "\u2581\u8857": 2651,
    "\u899a\u3048": 2652,
    "\u30e9\u30a4\u30c8": 2653,
    "\u30e1\u30fc\u30c8\u30eb": 2654,
    "\u96fb\u8a71\u3092": 2655,
    "\u306a\u3053\u3068": 2656,
    "\u4ee5\u6765": 2657,
    "\u5f93": 2658,
    "\u2581\u307e\u3055\u306b": 2659,
    "\u547c\u3073": 2660,
    "\u591a\u3044": 2661,
    "\u30d5\u30a3\u30fc\u30eb\u30c9": 2662,
    "500": 2663,
    "\u308f\u306a\u3044": 2664,
    "\u7121\u304b\u3063\u305f": 2665,
    "\u5927\u91cf": 2666,
    "\u5e30": 2667,
    "\u2581\u843d\u3061\u7740\u3051": 2668,
    "\u5024": 2669,
    "200": 2670,
    "\u3063\u3066\u3044\u305f": 2671,
    "\u8ab0\u304c": 2672,
    "\u4e16\u754c\u3092": 2673,
    "\u5b88": 2674,
    "\u5f85\u3066": 2675,
    "\u30c3\u30af\u30b9": 2676,
    "\u95a2\u9023": 2677,
    "\u306e\u3067\u3057\u3087\u3046": 2678,
    "\u6d88\u3048": 2679,
    "\u2581\u3044\u3063\u305f\u3044": 2680,
    "\u72c2": 2681,
    "\u8de1": 2682,
    "\u596a": 2683,
    "\u2581\u3046\u3063": 2684,
    "\u767a\u8868": 2685,
    "\u306e\u5199\u771f": 2686,
    "\u57cb\u3081": 2687,
    "\u2581\u9283": 2688,
    "\u9280\u884c": 2689,
    "\u6295\u8cc7": 2690,
    "\u2581\u5199\u771f": 2691,
    "\u4f4f": 2692,
    "\u6df1\u304f": 2693,
    "\u610f\u898b": 2694,
    "\u8eca\u3092": 2695,
    "\u4fdd": 2696,
    "\u3061\u3083\u3093\u3068": 2697,
    "\u3042\u307e\u308a": 2698,
    "\u4ffa\u306b": 2699,
    "\u58f2\u308a": 2700,
    "\u7acb\u5834": 2701,
    "\u2581\u3059\u307e\u306a\u3044": 2702,
    "\u4ee5\u4e0a\u306e": 2703,
    "\u2581\u3053\u3053\u304c": 2704,
    "\u63a2": 2705,
    "\u5dee\u3057": 2706,
    "\u306e\u305f\u3081\u306e": 2707,
    "\u7537\u306f": 2708,
    "\u732b": 2709,
    "\u308f\u3051\u3067\u3059": 2710,
    "\u660e\u65e5": 2711,
    "\u30cd\u30c3\u30c8\u30ef\u30fc\u30af": 2712,
    "\u2581\u3044\u3044\u304b\u3089": 2713,
    "\u2581\u533b\u8005": 2714,
    "\u304b\u308c": 2715,
    "\u3060\u3063\u305f\u306e": 2716,
    "\u30a6\u30a3": 2717,
    "\u2581\u3042\u308b\u3044\u306f": 2718,
    "\u2581\u30a2\u30a4\u30c4": 2719,
    "\u2581\u8a00\u3044": 2720,
    "\u6226\u3046": 2721,
    "\u2581\u53cb\u4eba": 2722,
    "\u9054\u306f": 2723,
    "\u2581\u3068\u3053\u308d\u3067": 2724,
    "\u63d0\u6848": 2725,
    "\u5168\u4f53": 2726,
    "\u7570": 2727,
    "\u304f\u305b\u306b": 2728,
    "\u80cc": 2729,
    "\u307b\u3068\u3093\u3069": 2730,
    "\u983c\u3080": 2731,
    "\u8868\u73fe": 2732,
    "\u258115": 2733,
    "\u304c\u6765\u308b": 2734,
    "\u904b": 2735,
    "\u2581\u7a81\u7136": 2736,
    "\u3092\u6301\u3063\u3066\u308b": 2737,
    "\u2581\u30b5\u30e0": 2738,
    "\u6012\u308a": 2739,
    "\u5185\u5bb9": 2740,
    "\u9060": 2741,
    "\u725b": 2742,
    "\u3061\u3087\u3046\u3060\u3044": 2743,
    "\u304c\u5fc5\u8981\u3067\u3059": 2744,
    "\u2581\u983c\u3080": 2745,
    "\u2581\u3044\u3044\u3088": 2746,
    "\u2581\u6728": 2747,
    "\u3053\u308c\u304c": 2748,
    "\u30e1\u30c3\u30bb\u30fc\u30b8": 2749,
    "\u2581\u3054\u3081\u3093\u306d": 2750,
    "\u3053\u3068\u306f\u306a\u3044": 2751,
    "\u2581\u7a7a": 2752,
    "\u2581\u3053\u3093\u306a\u3053\u3068": 2753,
    "\u306e\u540d\u524d": 2754,
    "\u4fbf": 2755,
    "\u9006": 2756,
    "\u5272": 2757,
    "\u306e\u3082\u306e": 2758,
    "\u9858\u3044": 2759,
    "\u65b9\u5411": 2760,
    "\u2581\u30d4\u30fc\u30bf\u30fc": 2761,
    "\u3082\u306a\u304f": 2762,
    "\u5375": 2763,
    "\u306e\u606f\u5b50": 2764,
    "\u30d0\u30b9": 2765,
    "\u6700\u8fd1": 2766,
    "\u6a39": 2767,
    "\u5c45\u308b": 2768,
    "\u2581\u541b\u3068": 2769,
    "\u65b9\u6cd5\u3092": 2770,
    "\u6e80": 2771,
    "\u306e\u529b": 2772,
    "\u306b\u5165\u3063\u3066": 2773,
    "\u30fc\u3063": 2774,
    "\u2581\u4eba\u751f": 2775,
    "\u81ea\u4fe1": 2776,
    "\u5341": 2777,
    "\u805e\u3053\u3048\u308b": 2778,
    "\u3067\u304d\u3066": 2779,
    "\u5f85\u3063\u3066\u308b": 2780,
    "\u30b8\u30e3\u30fc": 2781,
    "\u4eba\u751f\u3092": 2782,
    "\u306b\u3064\u3044\u3066\u306f": 2783,
    "\u7406\u8ad6": 2784,
    "\u6383\u9664": 2785,
    "\u3057\u3066\u308b\u3093\u3060": 2786,
    "\u7d42\u308f\u308b": 2787,
    "\u6642\u671f": 2788,
    "\u904a\u3073": 2789,
    "\u2581\u53e3": 2790,
    "\u88ab\u5bb3\u8005": 2791,
    "\u2581fbi": 2792,
    "\u624d\u80fd": 2793,
    "\u3057\u305f\u3053\u3068": 2794,
    "\u9023\u308c": 2795,
    "\u2581\u304f\u305d": 2796,
    "\u73ed": 2797,
    "\u9577\u3044": 2798,
    "\u66ae\u3089\u3057": 2799,
    "\u2581\u305d\u3046\u3044\u3046\u3053\u3068": 2800,
    "\u306e\u624b": 2801,
    "\u2581\u30b0": 2802,
    "\u2581\u305d\u308c\u3063\u3066": 2803,
    "\u2581\u6025\u3044\u3067": 2804,
    "\u306a\u3044\u3088\u3046\u306b": 2805,
    "\u9999": 2806,
    "\u2581\u30b7": 2807,
    "\u7d39\u4ecb": 2808,
    "\u4f1a\u3046": 2809,
    "\u2581\u3084\u3063\u3066": 2810,
    "\u2581\u3082\u3057\u3082\u3057": 2811,
    "\u7a81\u304d": 2812,
    "\u64ae\u5f71": 2813,
    "\u6563": 2814,
    "\u304a\u6bcd\u3055\u3093": 2815,
    "\u8033": 2816,
    "\u2581\u3053\u3044\u3064\u306f": 2817,
    "\u3057\u304f": 2818,
    "\u5bc6": 2819,
    "\u2581\u5149": 2820,
    "\u30fc\u30eb": 2821,
    "\u306a\u3044\u306e\u304b": 2822,
    "\u547d\u3092": 2823,
    "\u2581\u51fa\u3066": 2824,
    "\u5acc": 2825,
    "\u3068\u3044\u3063\u305f": 2826,
    "\u30de\u30b7\u30f3": 2827,
    "\u2581\u6bba\u4eba": 2828,
    "\u2581\u30c9": 2829,
    "\u8abf": 2830,
    "\u65e9": 2831,
    "\u30d1\u30bf\u30fc\u30f3": 2832,
    "\u3093\u306e\u304b": 2833,
    "\u2581\u30b8\u30a7\u30fc\u30f3": 2834,
    "\u2581\u30b8\u30e3": 2835,
    "\u3042\u308a\u307e\u3057\u305f": 2836,
    "\u2581\u540d\u524d": 2837,
    "\u5927\u4e8b": 2838,
    "\u81ea\u8eab": 2839,
    "\u2581\u9023\u7d61": 2840,
    "\u5927\u4eba": 2841,
    "\u6765\u307e\u3057\u305f": 2842,
    "\u30b8\u30a7": 2843,
    "\u8a00\u308f\u306a\u3044": 2844,
    "\u2581\u306f\u3042": 2845,
    "\u306e\u305b\u3044": 2846,
    "\u2581\u81ea\u7136": 2847,
    "\u79c1\u305f\u3061\u306e": 2848,
    "\u307f\u305f": 2849,
    "U": 2850,
    "\u8a08\u7b97": 2851,
    "\u5236\u5fa1": 2852,
    "\u2581\u5965\u3055\u3093": 2853,
    "\u6620\u50cf": 2854,
    "\u30d1\u30fc\u30c8\u30ca\u30fc": 2855,
    "\u5012": 2856,
    "\u30d0\u30e9": 2857,
    "\u30c6\u30a3\u30fc": 2858,
    "\u2581\u8a00\u3063\u305f": 2859,
    "\u2581\u3044\u304f\u3089": 2860,
    "\u2581\u6700\u9ad8": 2861,
    "\u307e\u3067\u306f": 2862,
    "\u3058\u3083\u306d\u3048": 2863,
    "\u4e0d\u53ef\u80fd": 2864,
    "\u5730\u56f3": 2865,
    "\u56fa": 2866,
    "\u6ce8\u76ee": 2867,
    "\u306e\u5bb6": 2868,
    "\u7fa9": 2869,
    "\u4f1d\u3048": 2870,
    "\u60c5": 2871,
    "\u2581\u5206\u304b\u308b": 2872,
    "\u672a": 2873,
    "\u3051\u3069\u306d": 2874,
    "\u6771": 2875,
    "\u3093\u3067\u3057\u3087\u3046": 2876,
    "\u5b09\u3057\u3044": 2877,
    "\u60aa\u304f": 2878,
    "\u96c6\u56e3": 2879,
    "\u4ef2": 2880,
    "\u30bb\u30c3\u30c8": 2881,
    "\u2581\u305d\u308c\u306a\u3089": 2882,
    "\u30b7\u30f3": 2883,
    "\u9b54\u6cd5": 2884,
    "\u533b": 2885,
    "\u6975": 2886,
    "\u753b\u50cf": 2887,
    "\u2581\u666e\u901a": 2888,
    "\u308f\u304b\u308a\u307e\u3059": 2889,
    "\u6e90": 2890,
    "\u5165\u3063\u305f": 2891,
    "\u4e71": 2892,
    "\u77e5\u3063\u3066\u305f": 2893,
    "\u6b21\u306e": 2894,
    "\u4f53\u9a13": 2895,
    "\u30de\u30a4": 2896,
    "\u50cf": 2897,
    "\u3044\u3063\u3071\u3044": 2898,
    "\u5927\u597d\u304d": 2899,
    "\u2581\u4ed6": 2900,
    "\u30ce\u30fc": 2901,
    "\u6b7b\u4ea1": 2902,
    "\u2581\u30de\u30fc": 2903,
    "\u3082\u3089\u3048\u308b": 2904,
    "\u6025": 2905,
    "\u8a66\u9a13": 2906,
    "\u78ba\u4fe1": 2907,
    "\u6570\u5b57": 2908,
    "\u2581\u9ed2": 2909,
    "\u30e2\u30fc": 2910,
    "\u7121\u3057": 2911,
    "\u708e": 2912,
    "\u30cc": 2913,
    "\u6050\u6016": 2914,
    "\u3057\u305f\u306e\u3067\u3059": 2915,
    "\u2581\u4eca\u304b\u3089": 2916,
    "\u5b89\u5fc3": 2917,
    "\u4f5c\u308b": 2918,
    "\u305f\u306e\u304b": 2919,
    "\u5c06\u8ecd": 2920,
    "\u2581\u4e00\u3064": 2921,
    "\u8349": 2922,
    "\u30ec\u30fc": 2923,
    "\u7570\u5e38": 2924,
    "\u2581\u305d\u3044\u3064": 2925,
    "\u4e0a\u3067": 2926,
    "\u30d6\u30ea": 2927,
    "\u306e\u524d\u3067": 2928,
    "\u2581\u8d85": 2929,
    "\u3063\u3066\u4f55": 2930,
    "\u2581\u5b8c\u5168\u306b": 2931,
    "\u98db\u884c\u6a5f": 2932,
    "\u751f\u304d\u3066\u3044\u308b": 2933,
    "\u624b\u7d19": 2934,
    "\u3055\u3093\u3068": 2935,
    "\u3082\u306e\u3067": 2936,
    "\u7d66": 2937,
    "\u697d\u3057\u3044": 2938,
    "\u2581\u843d\u3061\u7740\u3044\u3066": 2939,
    "\u3046\u307e\u304f": 2940,
    "\u63d0\u4f9b": 2941,
    "\u30c1\u30e3\u30fc": 2942,
    "\u7121\u8996": 2943,
    "\u8a55\u4fa1": 2944,
    "\u4ea4\u63db": 2945,
    "\u306e\u4e0a\u306b": 2946,
    "\u2581\u9ed9\u3063\u3066": 2947,
    "\u306e\u304b\u3057\u3089": 2948,
    "\u9b54\u5973": 2949,
    "\u5049\u5927\u306a": 2950,
    "\u30c0\u30e1\u3060": 2951,
    "\u3093\u3067\u3059\u304c": 2952,
    "\u2581\u7d50\u69cb": 2953,
    "\u2581\u3059\u3067\u306b": 2954,
    "\u6ca1": 2955,
    "\u6700\u5927\u306e": 2956,
    "\u8fd1\u3044": 2957,
    "\u30da\u30f3": 2958,
    "\u2581\u6b7b": 2959,
    "\u4e88\u6e2c": 2960,
    "\u6b6f": 2961,
    "\u30b9\u30fc\u30c4": 2962,
    "\u2581\u3042\u306a\u305f\u3068": 2963,
    "\u2581\u3044\u3084\u3044\u3084": 2964,
    "\u306e\u9593\u306b": 2965,
    "\u5927\u4e08\u592b\u3060": 2966,
    "\u2581\u3048\u3047": 2967,
    "\u5b9f\u969b\u306b": 2968,
    "\u76ee\u6a19": 2969,
    "\u7363": 2970,
    "ar": 2971,
    "\u540c\u50da": 2972,
    "\u3063\u3066\u305f": 2973,
    "\u2581\u6700\u521d\u306b": 2974,
    "\u7537\u3060": 2975,
    "\u4eba\u985e": 2976,
    "\u8a66\u5408": 2977,
    "\u304a\u524d\u306f": 2978,
    "\u53d7": 2979,
    "\u304c\u3042\u308b\u3093\u3060": 2980,
    "\u3042\u3042": 2981,
    "\u2581\u8ab0\u3060": 2982,
    "\u2581\u30db": 2983,
    "\u2581\u3044\u3044\u308f": 2984,
    "\u30c9\u30a2": 2985,
    "\u2581\u30b2\u30fc\u30e0": 2986,
    "\u2581\u30cf\u30fc": 2987,
    "\u305b\u3044": 2988,
    "j": 2989,
    "\u6298": 2990,
    "\u2581\u60aa": 2991,
    "\u6b69": 2992,
    "\u4ffa\u305f\u3061": 2993,
    "\u266a": 2994,
    "\u3068\u8a00\u3063\u3066": 2995,
    "\u30a8\u30f3\u30b8\u30f3": 2996,
    "\u2581\u793e\u4f1a": 2997,
    "\u308b\u3088\u3046\u306b": 2998,
    "\u6700\u5f8c": 2999,
    "\u2581\u898b\u305f": 3000,
    "\u2581\u5974\u3089": 3001,
    "\u30d0\u30ec": 3002,
    "\u308a\u3083": 3003,
    "\u2581\u305d\u306e\u307e\u307e": 3004,
    "\u8cb4\u65b9": 3005,
    "\u2581I": 3006,
    "\u30b5\u30a4\u30c8": 3007,
    "\u3059\u3089": 3008,
    "\u258112": 3009,
    "\u4f4d\u7f6e": 3010,
    "\u5de6": 3011,
    "\u76d7": 3012,
    "\u2581\u4e2d\u56fd": 3013,
    "\u7269\u8cea": 3014,
    "\u8a00\u8a9e": 3015,
    "\u4e8b\u52d9\u6240": 3016,
    "\u3044\u308b\u306e\u306f": 3017,
    "\u3060\u308d\u3046\u306a": 3018,
    "\u8a00\u3048\u308b": 3019,
    "\u2581\u305d\u3093\u306a\u306e": 3020,
    "\u7121\u7dda": 3021,
    "\u7a7a\u6c17": 3022,
    "\u2581\u3053\u3053\u306b\u3044\u308b": 3023,
    "\u2581\u3069\u3046\u3060": 3024,
    "\u5927\u5b66": 3025,
    "\u2581\u305d\u3093\u306a\u4e8b": 3026,
    "\u8cbb": 3027,
    "\u2581\u79c1\u9054\u306e": 3028,
    "\u5371\u6a5f": 3029,
    "\u9053\u5177": 3030,
    "\u2014": 3031,
    "\u30a4\u30e1\u30fc\u30b8": 3032,
    "\u6307\u7d0b": 3033,
    "\u305f\u304b": 3034,
    "\u4f4f\u6240": 3035,
    "\u2581\u904e\u53bb": 3036,
    "\u2581S": 3037,
    "\u30e8": 3038,
    "\u30d7\u30ec\u30bc\u30f3\u30c8": 3039,
    "\u52c7\u6c17": 3040,
    "\u30bb\u30eb": 3041,
    "\u639b\u3051": 3042,
    "\u2581\u8ab0\u306b\u3082": 3043,
    "\u3067\u304d\u306a\u304b\u3063\u305f": 3044,
    "F": 3045,
    "\u3068\u3053\u308d\u3067": 3046,
    "\u2581\u60c5\u5831": 3047,
    "80": 3048,
    "\u7d42\u308f\u3063\u305f": 3049,
    "\u501f\u308a": 3050,
    "\u6e80\u8db3": 3051,
    "\u3068\u3046": 3052,
    "\u5f15": 3053,
    "\u2581\u3042\u3044\u3064\u3089": 3054,
    "\u5ff5": 3055,
    "18": 3056,
    "\u2581\u306f\u3063\u304d\u308a": 3057,
    "\u5fd9\u3057\u3044": 3058,
    "\u3063\u304b": 3059,
    "\u2581\u8db3": 3060,
    "\u7c73": 3061,
    "\u4f7f\u3048\u308b": 3062,
    "\u306f\u3044\u306a\u3044": 3063,
    "\u2581\u3053\u306e\u5b50": 3064,
    "\u2581\u4ffa\u9054\u306f": 3065,
    "\u751f\u304d\u3066": 3066,
    "\u7c21\u5358": 3067,
    "\u2581\u305d\u3046\u3060\u3088": 3068,
    "\u2581\u3048\u3063\u3068": 3069,
    "\u30b1\u30a4": 3070,
    "\u53e4": 3071,
    "\u2581\u8cb4\u69d8": 3072,
    "\u2581\u72af\u4eba\u306f": 3073,
    "\u7537\u306e\u5b50": 3074,
    "\u51fa\u305f": 3075,
    "\u2581\u308f\u304b\u308b": 3076,
    "\u30a2\u30d1\u30fc\u30c8": 3077,
    "\u2581\u30a6\u30bd": 3078,
    "\u5bb6\u5ead": 3079,
    "\u5473\u65b9": 3080,
    "\u3057\u3083": 3081,
    "\u30b4\u30fc": 3082,
    "\u5bb6\u3067": 3083,
    "\u53e4\u3044": 3084,
    "\u9cf4": 3085,
    "\u5834\u6240\u3092": 3086,
    "\u5ca9": 3087,
    "\u8d85": 3088,
    "\u901f": 3089,
    "\u4e00\u7dd2": 3090,
    "\u2581\u8239": 3091,
    "\u60f3\u50cf": 3092,
    "\u3057\u307e\u3063\u3066": 3093,
    "\u305d\u3093\u306a\u306b": 3094,
    "\u4eba\u3068\u3082": 3095,
    "\u3044\u308b\u306e\u3067\u3059": 3096,
    "\u308c\u3066": 3097,
    "\u2581\u4ffa\u9054": 3098,
    "\u90e8\u4e0b": 3099,
    "\u4eba\u9593\u304c": 3100,
    "\u30c7\u30fc\u30c8": 3101,
    "\u3051\u308c\u3070": 3102,
    "\u2581\u3042\u3063\u3061": 3103,
    "\u304f\u308c\u306a\u3044\u304b": 3104,
    "\u6b66\u5668": 3105,
    "\u8ca0\u3051": 3106,
    "\u4f1a\u793e\u306e": 3107,
    "\u2581\u9003\u3052": 3108,
    "\u306e\u8a71\u3092": 3109,
    "\u540d\u306f": 3110,
    "\u3057\u305f\u306e\u304b": 3111,
    "\u5200": 3112,
    "\u30b9\u30bf": 3113,
    "\u2581\u30d8\u30a4": 3114,
    "\u30c0\u30f3\u30b9": 3115,
    "\u983c": 3116,
    "\u8a00\u308f\u308c\u305f": 3117,
    "\u6295\u3052": 3118,
    "\u5bb3": 3119,
    "\u884c\u65b9\u4e0d\u660e": 3120,
    "\u884c\u304d\u307e\u3059": 3121,
    "\u4ea1\u304f\u306a\u3063\u305f": 3122,
    "\u6bce\u65e5": 3123,
    "\u30ad\u30e3": 3124,
    "\u2581\u2014": 3125,
    "\u30d5\u30e9": 3126,
    "\u2581\u3046\u308f": 3127,
    "\u6625": 3128,
    "\u8131": 3129,
    "\u7f70": 3130,
    "\u2581\u30c6\u30ec\u30d3": 3131,
    "\u9650": 3132,
    "\u8003\u3048\u3066\u308b": 3133,
    "\u2581\u6c7a\u3057\u3066": 3134,
    "\u57fa\u5730": 3135,
    "\u671b\u3080": 3136,
    "\u5fcd": 3137,
    "\u672b": 3138,
    "\u3082\u540c\u3058": 3139,
    "\u2581\u5148": 3140,
    "\u2581\u266c": 3141,
    "\u2581\u304a\u3046": 3142,
    "\u306a\u304b\u3063\u305f\u306e": 3143,
    "\u306a\u3044\u304b\u3089": 3144,
    "\u307e\u3044": 3145,
    "\u3092\u5931\u3063\u305f": 3146,
    "\u4fe1\u53f7": 3147,
    "\u770b": 3148,
    "\u2581\u30d8": 3149,
    "\u751f\u547d": 3150,
    "\u2581\u304a\u304b\u3057\u3044": 3151,
    "\u6df7\u4e71": 3152,
    "\u6b8b\u3063\u3066": 3153,
    "\u306a\u308a\u307e\u3059": 3154,
    "\u5c64": 3155,
    "\u5c4a\u3051": 3156,
    "\u516c\u5712": 3157,
    "\u4f1a\u3063\u3066": 3158,
    "\u2581\u30aa\u30ec\u306e": 3159,
    "\u3054\u3068": 3160,
    "\u6e21\u3059": 3161,
    "\u2581\u3088\u308a": 3162,
    "\u2581\u72af\u4eba": 3163,
    "\u5206\u304b\u3063\u3066": 3164,
    "\u306a\u3089\u306a\u3044": 3165,
    "\u75db\u307f": 3166,
    "\u6271\u3044": 3167,
    "\u3044\u308b\u3068": 3168,
    "\u307f\u308b": 3169,
    "\u5417": 3170,
    "\u30d3\u30b8\u30cd\u30b9": 3171,
    "\u843d\u3061": 3172,
    "\u53f3": 3173,
    "\u51ac": 3174,
    "\u304a\u304b\u3057\u3044": 3175,
    "\u30dc\u30b9": 3176,
    "\u306e\u90e8\u5c4b": 3177,
    "\u306b\u5165\u3063\u305f": 3178,
    "\u9280": 3179,
    "\u3060\u308d\u3046\u304c": 3180,
    "\u306f\u3053\u306e": 3181,
    "\u30cb\u30e5\u30fc": 3182,
    "\u2581\u30bf": 3183,
    "\u2581\u9811\u5f35\u3063\u3066": 3184,
    "\u2581\u9762\u767d\u3044": 3185,
    "\u604b\u4eba": 3186,
    "\u304a\u91d1\u3092": 3187,
    "\u635c\u7d22": 3188,
    "\u8840\u6db2": 3189,
    "\u30bb\u30c3\u30af\u30b9": 3190,
    "\u7206\u767a": 3191,
    "\u30b1\u30fc\u30ad": 3192,
    "\u2581\u30cb\u30e5\u30fc\u30e8\u30fc\u30af": 3193,
    "\u306b\u623b\u3063\u3066": 3194,
    "\u4f4e": 3195,
    "\u8a00\u8449\u3092": 3196,
    "\u8996": 3197,
    "\u690d\u7269": 3198,
    "\u601d\u3063\u3066": 3199,
    "/": 3200,
    "\u8ff7": 3201,
    "\u5d0e": 3202,
    "\u3092\u4e0e\u3048\u308b": 3203,
    "\u3063\u3066\u3044\u3046\u304b": 3204,
    "\u306b\u3042\u3063\u305f": 3205,
    "\u8266": 3206,
    "\u53d6\u308b": 3207,
    "\u3092\u53d6\u3063\u3066": 3208,
    "\u30ef\u30a4\u30f3": 3209,
    "\u5c45\u5834\u6240": 3210,
    "\u5fc3\u3092": 3211,
    "\u306e\u6642": 3212,
    "\u56fd\u306e": 3213,
    "\u2581\u3046\u3061": 3214,
    "\u65b9\u6cd5\u306f": 3215,
    "\u897f": 3216,
    "\u5177\u5408": 3217,
    "\u2581\u7236": 3218,
    "\u672c\u5f53\u306e": 3219,
    "\u3053\u3061\u3089": 3220,
    "\u30fc\u30f3": 3221,
    "\u80a9": 3222,
    "\u5927\u5909": 3223,
    "\u3066\u3057\u307e\u3046": 3224,
    "\u611b\u3059\u308b": 3225,
    "\u88c5": 3226,
    "\u90a3": 3227,
    "\u6d88": 3228,
    "\u8d8a": 3229,
    "\u2581\u6b21": 3230,
    "\u8fba": 3231,
    "\u4e88\u60f3": 3232,
    "\u52d9": 3233,
    "\u3051\u308b": 3234,
    "\u30ab\u30fc\u30c9\u3092": 3235,
    "\u3057\u3066\u3084\u308b": 3236,
    "\u3089\u305a": 3237,
    "\u8a00\u3048\u3070": 3238,
    "\u5b89": 3239,
    "\u898b\u3064\u304b\u3063\u305f": 3240,
    "\u2581\u304a\u524d\u305f\u3061": 3241,
    "\u2581\u793e\u9577": 3242,
    "\u305d\u308c\u3067": 3243,
    "\u304a\u9858\u3044\u3057\u307e\u3059": 3244,
    "\u2581\u304b\u308f\u3044\u3044": 3245,
    "\u304a\u3046": 3246,
    "\u52a0": 3247,
    "\u30c8\u30c3\u30d7": 3248,
    "\u9019": 3249,
    "\u547c\u5438": 3250,
    "\u8001": 3251,
    "\u30b9\u30bf\u30f3": 3252,
    "\u4eba\u53e3": 3253,
    "\u3067\u3082\u306a\u3044": 3254,
    "\u8179": 3255,
    "J": 3256,
    "\u624b\u8853": 3257,
    "\u970a": 3258,
    "X": 3259,
    "\u52dd\u5229": 3260,
    "\u8fd4\u3059": 3261,
    "\u2581\u3044\u3064\u3067\u3082": 3262,
    "\u2581\u5973\u6027": 3263,
    "\u7c21\u5358\u306b": 3264,
    "\u30dc\u30fc\u30c8": 3265,
    "\u793c": 3266,
    "\u505c\u6b62": 3267,
    "\u3060\u3088\u306d": 3268,
    "\u6b73\u306e": 3269,
    "\u540c\u610f": 3270,
    "\u7b11\u3044": 3271,
    "\u2581\u3055\u3059\u304c": 3272,
    "\u9b54": 3273,
    "\u8131\u51fa": 3274,
    "\u5236": 3275,
    "\u2581\u304a\u4e92\u3044": 3276,
    "\u6d3e": 3277,
    "\u30bf\u30fc\u30f3": 3278,
    "\u9593\u9055\u3044": 3279,
    "\u3072\u3069\u3044": 3280,
    "\u30b7\u30a2": 3281,
    "\u2581\u6025\u306b": 3282,
    "\u3057\u305f\u304f\u306a\u3044": 3283,
    "\u2581\u5909\u306a": 3284,
    "\u4ea4\u6e09": 3285,
    "\u8aa4\u89e3": 3286,
    "\u2581\u5317": 3287,
    "\u4f1a\u8a71": 3288,
    "\u2581M": 3289,
    "\u306b\u306a\u308c\u308b": 3290,
    "\u4e2d\u3060": 3291,
    "\u69d8\u5b50": 3292,
    "\u9244": 3293,
    "\u2581\u30ec\u30c3\u30c9": 3294,
    "\u2581\u3042\u308a\u304c\u3068\u3046\u3054\u3056\u3044\u307e\u3057\u305f": 3295,
    "\u5909\u308f\u3063\u3066": 3296,
    "\u9078\u624b": 3297,
    "\u8a2d\u8a08": 3298,
    "\u5206\u3051": 3299,
    "\u8ab0\u304b\u304c": 3300,
    "\u2581\u3042\u306a\u305f\u9054": 3301,
    "\u2581\u3053\u3093\u306a\u306b": 3302,
    "\u2581\u305d\u3057\u305f\u3089": 3303,
    "\u8b70\u54e1": 3304,
    "\u2581\u78ba\u304b": 3305,
    "--": 3306,
    "\u3061\u3083\u3063\u3066": 3307,
    "\u2581\u5206\u304b\u3063\u3066": 3308,
    "\u5217": 3309,
    "\u5b8c\u6210": 3310,
    "90": 3311,
    "\u2581\u5bb6\u306b": 3312,
    "\u50cd\u3044\u3066": 3313,
    "\u3063\u3066\u4e8b": 3314,
    "re": 3315,
    "\u3084\u3081\u3066": 3316,
    "\u5206\u304b\u308a\u307e\u305b\u3093": 3317,
    "\u7d76\u5bfe": 3318,
    "\u7528\u306e": 3319,
    "\u30da\u30fc\u30b8": 3320,
    "\u904a": 3321,
    "\u5229\u76ca": 3322,
    "\u2581\u8b66\u5b98": 3323,
    "\u3092\u53d7\u3051": 3324,
    "\u30cb\u30f3\u30b0": 3325,
    "\u2581\u7406\u89e3": 3326,
    "\u2581\u30d1": 3327,
    "\u5f85\u3064": 3328,
    "\u307e\u3067\u306b": 3329,
    "\u3042\u305f\u308a": 3330,
    "\u306a\u304b\u3063\u305f\u3089": 3331,
    "\u6642\u306e": 3332,
    "\u3082\u3089\u3048": 3333,
    "\u306b\u898b\u3048\u308b": 3334,
    "\u00b7": 3335,
    "\u30c3\u30ab\u30fc": 3336,
    "\u30e9\u30a4\u30f3": 3337,
    "\u30de\u30a4\u30af": 3338,
    "\u2581\u75db\u3044": 3339,
    "\u5409": 3340,
    "\u9078\u629e\u80a2": 3341,
    "\u2581\u56fd": 3342,
    "\u3044\u305f\u3093\u3060": 3343,
    "\u2581\u73fe\u5b9f": 3344,
    "\u2581\u30d7\u30ed": 3345,
    "\u5e02\u6c11": 3346,
    "\u601d\u3063\u305f": 3347,
    "\u902e\u6355": 3348,
    "\u2581\u30cf\u30a1": 3349,
    "\u3069\u3053\u306b": 3350,
    "\u969b": 3351,
    "\u2581\u79d8\u5bc6": 3352,
    "\u77e5\u308a": 3353,
    "\u90e8\u968a": 3354,
    "\u2581\u5a18": 3355,
    "\u81ea\u5df1": 3356,
    "\u4fdd\u967a": 3357,
    "\u982d\u306b": 3358,
    "\u2581\u30e4": 3359,
    "\u7a0b\u5ea6": 3360,
    "\u30c8\u30fc": 3361,
    "\u306b\u95a2\u3057\u3066": 3362,
    "\u305f\u308f": 3363,
    "\u2212": 3364,
    "\u2581\u3069\u3061\u3089": 3365,
    "\u5462": 3366,
    "\u2581\u30df\u30b9\u30bf\u30fc": 3367,
    "\u5927\u5207": 3368,
    "\u8fd1\u304f\u306b": 3369,
    "\u89e3\u653e": 3370,
    "\u4e0d\u660e": 3371,
    "\u30e2\u30ce": 3372,
    "\u89aa\u53cb": 3373,
    "\u3067\u3044\u3044": 3374,
    "\u306b\u306a\u308a\u305f\u3044": 3375,
    "\u2581\u30ed\u30fc": 3376,
    "\u4eba\u9593\u306e": 3377,
    "\u767e": 3378,
    "\u96e8": 3379,
    "\u9032\u3081": 3380,
    "\u30d8": 3381,
    "\u683c": 3382,
    "\u30f3\u30c8": 3383,
    "\u2581\u805e\u3044\u305f": 3384,
    "\u30b9\u30d1\u30a4": 3385,
    "\u51fa\u8eab": 3386,
    "\u306e\u9854": 3387,
    "\u652f\u914d": 3388,
    "\u2581\u898b\u3064\u3051\u305f": 3389,
    "\u2581\u3069\u3046\u305b": 3390,
    "\u98f2\u3080": 3391,
    "\u95a2\u5fc3": 3392,
    "\u2581\u4e8b\u4ef6": 3393,
    "\u2581\u9759\u304b\u306b": 3394,
    "\u623b\u3063\u305f": 3395,
    "\u5165\u308b": 3396,
    "\u5fd8\u308c\u3066": 3397,
    "\u2581\u6016\u3044": 3398,
    "\u5ea7\u3063\u3066": 3399,
    "\u5834\u6240\u3067": 3400,
    "\u30aa\u30d5\u30a3\u30b9": 3401,
    "\u7570\u306a\u308b": 3402,
    "\u5e73\u548c": 3403,
    "\u306b\u5165\u308b": 3404,
    "\u30d5\u30a1\u30a4": 3405,
    "\u5b8c\u5168\u306b": 3406,
    "\u2581\u59b9": 3407,
    "\u2581\u5f01\u8b77\u58eb": 3408,
    "\u5b9f\u73fe": 3409,
    "\u2581\u8d64\u3061\u3083\u3093": 3410,
    "\u306b\u306a\u308b\u3068": 3411,
    "\u2581\u541b\u3082": 3412,
    "\u2581\u6226\u4e89": 3413,
    "\u306f\u3068\u3066\u3082": 3414,
    "\u82e6\u52b4": 3415,
    "\u306b\u5411\u304b\u3063\u3066": 3416,
    "\u3092\u901a\u3057\u3066": 3417,
    "\u2581\u8ab0\u306b": 3418,
    "\u2581\u5f7c\u3068": 3419,
    "\u2581\u82b1": 3420,
    "\u3063\u3051": 3421,
    "\u8907\u96d1": 3422,
    "\u53ef": 3423,
    "\u8d64\u3061\u3083\u3093": 3424,
    "\u4ffa\u3092": 3425,
    "\u3059\u3079\u3066\u306e": 3426,
    "\u2581\u3053\u308c\u3082": 3427,
    "\u304a\u304f": 3428,
    "\u9662": 3429,
    "\u713c\u304d": 3430,
    "\u88cf": 3431,
    "\u2581\u4fe1\u3058\u3089\u308c\u306a\u3044": 3432,
    "\u30d5\u30a1\u30fc": 3433,
    "\u5f37\u76d7": 3434,
    "\u5834\u6240\u306f": 3435,
    "\u2581\u6211\u304c": 3436,
    "\u30ec\u30b9\u30c8\u30e9\u30f3": 3437,
    "\u30b3\u30fc\u30eb": 3438,
    "\u4e00\u4eba\u3067": 3439,
    "\u985e": 3440,
    "\u5171": 3441,
    "\u5927\u5207\u306a": 3442,
    "\u2581\u5148\u8f29": 3443,
    "\u95a2": 3444,
    "\u96e2\u308c\u3066": 3445,
    "\u56db": 3446,
    "\u4e4b": 3447,
    "\u89e6\u308c": 3448,
    "\u2581\u554f\u984c\u306f": 3449,
    "\u6642\u9593\u304c": 3450,
    "\u4f53\u306e": 3451,
    "\u306a\u3093\u3060\u304b\u3089": 3452,
    "\u3092\u5f15\u304d": 3453,
    "\u30e9\u30dc": 3454,
    "\u3055\u305b\u306a\u3044": 3455,
    "\u3044\u3044\u306e\u304b": 3456,
    "\u8d64": 3457,
    "\u304a\u3044": 3458,
    "\u3072\u3068\u308a": 3459,
    "\u552f\u4e00\u306e": 3460,
    "\u65e5\u9593": 3461,
    "\u3092\u63a2\u3059": 3462,
    "\u2581\u30ca\u30eb\u30c8": 3463,
    "\u5207\u308b": 3464,
    "\u5e83": 3465,
    "\u6821": 3466,
    "\u4e00\u822c": 3467,
    "\u8fd9": 3468,
    "\u8cde": 3469,
    "\u6e29": 3470,
    "\u4e16\u4ee3": 3471,
    "\u4f53\u3092": 3472,
    "\u4e00\u676f": 3473,
    "\u898b\u3066\u308b": 3474,
    "\u2581\u5206\u304b\u308a\u307e\u3057\u305f": 3475,
    "\u2581\u3055\u3063\u3055\u3068": 3476,
    "\u2581\u6559\u3048\u3066": 3477,
    "\u6368\u3066": 3478,
    "\u2581\u3069\u3053\u304b": 3479,
    "\u6700\u9ad8\u306e": 3480,
    "\u30b3\u30f3\u30c8\u30ed\u30fc\u30eb": 3481,
    "\u5f97\u610f": 3482,
    "\u4e16\u754c\u3067": 3483,
    "\u3059\u308b\u4e8b": 3484,
    "\u3067\u3082\u3042\u308b": 3485,
    "\u2581\u4e16\u754c\u306e": 3486,
    "\u5ead": 3487,
    "\u3042\u308a\u307e\u305b\u3093\u3067\u3057\u305f": 3488,
    "\u307e\u305a": 3489,
    "\u2581\u30de\u30a4\u30af": 3490,
    "\u5916\u3067": 3491,
    "\u308b\u304b\u3089": 3492,
    "\u306a\u3044\u305e": 3493,
    "\u77e5\u3063\u3066": 3494,
    "\u3084\u308a\u65b9": 3495,
    "\u540c\u58eb": 3496,
    "\u7559": 3497,
    "\u2581\u30b3\u30fc\u30d2\u30fc": 3498,
    "\u7981\u6b62": 3499,
    "\u6642\u8a08": 3500,
    "\u65b9\u306f": 3501,
    "\u8fd4\u3057\u3066": 3502,
    "\u8907\u96d1\u306a": 3503,
    "\u6211\u3005": 3504,
    "\u2581\u5973\u306e\u5b50": 3505,
    "\u4e0a\u3052": 3506,
    "\u2581\u90e8\u5c4b": 3507,
    "\u6301\u3064": 3508,
    "\u4e3b\u5f35": 3509,
    "\u3093\u3058\u3083\u306a\u3044\u304b": 3510,
    "\u540d\u524d\u3092": 3511,
    "\u98df\u6599": 3512,
    "\u2581\u305d\u3053\u307e\u3067": 3513,
    "\u2581\u304a\u524d\u3092": 3514,
    "\u2581\u30b8\u30e7": 3515,
    "\u4e0b\u306b": 3516,
    "\u7ba1": 3517,
    "\u7b97": 3518,
    "\u677e": 3519,
    "\u304c\u6765\u305f": 3520,
    "\u2581\u5e38\u306b": 3521,
    "\u2581\u30d9": 3522,
    "\u30f4\u30a1": 3523,
    "\u30c9\u30fc": 3524,
    "\u2581\u547d": 3525,
    "\u2581\u6765\u305f": 3526,
    "\u307e\u305b\u3093\u304b": 3527,
    "\u623b\u3063\u3066": 3528,
    "\u308b\u305f\u3081\u306b": 3529,
    "\u8ce2\u3044": 3530,
    "\u30ed\u30a4": 3531,
    "\u9650\u754c": 3532,
    "\u306b\u306a\u3089\u306a\u3044": 3533,
    "\u5370": 3534,
    "\u2581\u5f1f": 3535,
    "\u3058\u3083\u306a\u304f": 3536,
    "\u3060\u304b\u3089\u306a": 3537,
    "\u2581\u643a\u5e2f": 3538,
    "\u4e00\u5ea6": 3539,
    "\u30b1\u30f3": 3540,
    "\u5b9f\u884c": 3541,
    "\u7a0e": 3542,
    "\u79c1\u305f\u3061\u304c": 3543,
    "DNA": 3544,
    "\u30a2\u30ca": 3545,
    "\u5c02\u9580": 3546,
    "\u30df\u30f3": 3547,
    "\u50d5\u304c": 3548,
    "\u6d88\u3048\u305f": 3549,
    "\u571f": 3550,
    "\u4e8b\u60c5": 3551,
    "\u4e21\u89aa": 3552,
    "\u8ab2\u984c": 3553,
    "\u30aa\u30fc": 3554,
    "\u7f6e\u3044\u3066": 3555,
    "\u9177\u3044": 3556,
    "\u66f8\u985e": 3557,
    "\u30d5\u30a9\u30fc": 3558,
    "\u3084\u3081": 3559,
    "\u3059\u308b\u306e\u3067\u3059": 3560,
    "\u2581\u305f\u304f\u3055\u3093": 3561,
    "\u2581\u5411\u3053\u3046": 3562,
    "\u30d0\u30c3\u30af": 3563,
    "\u2581\u30ad\u30e3": 3564,
    "\u3057\u305f\u6642": 3565,
    "\u306e\u3067\u3059\u304b": 3566,
    "\u683c\u597d": 3567,
    "\u30b8\u30e3\u30c3\u30af": 3568,
    "\u2581\u30de\u30b8": 3569,
    "\u306e\u3053\u3068\u3067\u3059": 3570,
    "\u3042\u3052\u3066": 3571,
    "\u8aad\u307f": 3572,
    "\u53ce": 3573,
    "\u72a0\u7272\u8005": 3574,
    "\u3068\u304d\u306f": 3575,
    "\u30d7\u30e9": 3576,
    "\u7121\u304f": 3577,
    "\u2581\u3053\u3053\u307e\u3067": 3578,
    "\u4f1d\u3048\u308b": 3579,
    "\u5927\u4e8b\u306a": 3580,
    "\u8fd1\u304f": 3581,
    "\u3063\u305f\u308a": 3582,
    "\u3058\u3083\u306d\u3048\u304b": 3583,
    "\u3051\u308c\u3069": 3584,
    "\u666e\u901a": 3585,
    "\u2581\u5144": 3586,
    "\u306d\u3048\u3088": 3587,
    "\u767a\u751f": 3588,
    "\u5965\u3055\u3093": 3589,
    "\u3092\u63a2\u3057": 3590,
    "\u505c": 3591,
    "\u2581\u305d\u3053\u304b\u3089": 3592,
    "\u30d0\u30c3\u30b0": 3593,
    "\u2581\u30c1\u30e3": 3594,
    "\u3093\u3067\u3059\u3088\u306d": 3595,
    "\u5b88\u308b": 3596,
    "\u6838": 3597,
    "\u5974\u96b7": 3598,
    "\u50cd\u304f": 3599,
    "\u306a\u304f\u306a\u3063\u3066": 3600,
    "\u5185\u90e8": 3601,
    "\u5909\u308f\u308b": 3602,
    "\u81ed\u3044": 3603,
    "\u3069\u304a\u308a": 3604,
    "\u898b\u305b": 3605,
    "\u30a6\u30a3\u30f3": 3606,
    "\u8a00\u3063\u3066\u304f\u308c": 3607,
    "\u2581\u3084\u3081": 3608,
    "\u3084\u3059\u3044": 3609,
    "\u3063\u3061\u3083\u3046": 3610,
    "\u8b77": 3611,
    "\u8a00\u3046\u306a": 3612,
    "\u4ed8\u3044\u3066": 3613,
    "\u258118": 3614,
    "\u2581\u8272\u3005": 3615,
    "\u2581\u30b8\u30a7": 3616,
    "\u81ea\u7531\u306b": 3617,
    "\u2581\u306a\u304b\u306a\u304b": 3618,
    "\u4f1d\u3048\u3066": 3619,
    "\u306b\u6765\u308b": 3620,
    "\u3092\u53d7\u3051\u305f": 3621,
    "\u2581\u30ec\u30a4": 3622,
    "\u77e2": 3623,
    "\u5f7c\u5973\u304c": 3624,
    "\u4e8b\u3067\u3059": 3625,
    "\u5fc5\u8981\u304c\u3042\u308a\u307e\u3059": 3626,
    "\u5b97\u6559": 3627,
    "\u306e\u70ba": 3628,
    "\u306b\u3057\u305f": 3629,
    "\u898b\u3048\u3066": 3630,
    "\u2581\u706b": 3631,
    "\u30c1\u30c3\u30d7": 3632,
    "\u964d": 3633,
    "\u2581\u4eca\u56de\u306f": 3634,
    "\u8c5a": 3635,
    "\u30b0\u30eb": 3636,
    "\u2581\u609f\u7a7a": 3637,
    "\u2581\u3044\u3044\u305e": 3638,
    "\u602a\u6211": 3639,
    "\u512a\u3057\u3044": 3640,
    "\u8eab\u4f53": 3641,
    "\u30dc\u30fc": 3642,
    "\u4e8b\u4ef6\u306e": 3643,
    "\u2581\u30af\u30ed": 3644,
    "\u8eca\u306b": 3645,
    "\u82e5\u3044": 3646,
    "\u9023": 3647,
    "\u2581\u8aac\u660e": 3648,
    "\u5fd8\u308c\u305f": 3649,
    "\u8a3c": 3650,
    "\u5f7c\u5973\u306b": 3651,
    "\u30e9\u30b9": 3652,
    "\u3059\u308b\u3053\u3068\u3067": 3653,
    "\u300e": 3654,
    "\u3060\u3051\u304c": 3655,
    "\u306e\u7537": 3656,
    "\u2581\u3061\u3087": 3657,
    "\u30c1\u30a7": 3658,
    "\u4ecb": 3659,
    "\u2581\u4f55\u3066": 3660,
    "\u3044\u3064": 3661,
    "25": 3662,
    "\u306e\u4e0a": 3663,
    "\u304b\u304b\u3063\u3066": 3664,
    "\u3060\u3063\u305f\u304b\u3089": 3665,
    "\u7740\u3044\u305f": 3666,
    "\u5168\u3066\u3092": 3667,
    "\u77e5\u3089\u306a\u304b\u3063\u305f": 3668,
    "\u304d\u3063\u3068": 3669,
    "\u306e\u6570": 3670,
    "\u5c06\u6765": 3671,
    "\u7121\u4e8b": 3672,
    "\u3084\u308a\u305f\u3044": 3673,
    "\u5916\u306b": 3674,
    "\u601d\u3044\u307e\u3059": 3675,
    "\u8105": 3676,
    "\u2581\u5165\u3063\u3066": 3677,
    "\u3044\u3044\u308f": 3678,
    "\u2581\u597d\u304d\u306a": 3679,
    "\u6211\u3005\u304c": 3680,
    "\u6700\u7d42": 3681,
    "\u30b3\u30f3\u30d4\u30e5\u30fc\u30bf": 3682,
    "\u8ced\u3051": 3683,
    "\u8005\u306b": 3684,
    "\u6226\u95d8": 3685,
    "\u306b\u306a\u3063\u305f\u3089": 3686,
    "\u5de8\u5927\u306a": 3687,
    "\u30ef\u30a4": 3688,
    "\u4ed6\u306b": 3689,
    "\u8a98\u62d0": 3690,
    "\u8aad\u3093\u3067": 3691,
    "\u811a": 3692,
    "\u98ef": 3693,
    "\u5947\u8de1": 3694,
    "\u306b\u3068\u3063\u3066\u306f": 3695,
    "\u2581\u305d\u3046\u3067\u3059": 3696,
    "\u3066\u304f\u308c\u308b": 3697,
    "\u5fa1": 3698,
    "\u59ff\u3092": 3699,
    "\u30dd\u30fc": 3700,
    "\u2581\u30c9\u30a2": 3701,
    "\u547c\u3093\u3067": 3702,
    "\u3092\u5f97\u308b": 3703,
    "\u2581\u30ab\u30fc": 3704,
    "\u8074": 3705,
    "\u7720": 3706,
    "\u3092\u53d6\u308b": 3707,
    "\u2581\u672c\u5f53\u306f": 3708,
    "\u5f53\u3066": 3709,
    "\u5206\u3067": 3710,
    "\u554f\u984c\u306f": 3711,
    "\u5275": 3712,
    "\u5411\u3053\u3046": 3713,
    "\u3044\u3044\u3088": 3714,
    "\u306f\u79c1": 3715,
    "\u3054\u304f": 3716,
    "\u305f\u306e\u306f": 3717,
    "\u3057\u304b\u3063\u305f": 3718,
    "\u2581\u3046\u30fc\u3093": 3719,
    "\u5316\u5b66": 3720,
    "\u2581\u306a\u3093\u3068": 3721,
    "\u7fd2": 3722,
    "\u30e1\u30c7\u30a3\u30a2": 3723,
    "\u5e2f": 3724,
    "\u4e03": 3725,
    "\u3066\u3044\u307e\u3057\u305f": 3726,
    "\u2581\u308f\u3057": 3727,
    "\u30af\u30ed": 3728,
    "\u3065\u3051": 3729,
    "\u2581\u660e\u3089\u304b\u306b": 3730,
    "\u5f8c\u308d\u306b": 3731,
    "\u77e5\u308a\u305f\u3044": 3732,
    "\u2581\u601d\u3063\u305f": 3733,
    "\u6d41\u308c": 3734,
    "\u30a2\u30a4": 3735,
    "\u2581\u52dd\u624b\u306b": 3736,
    "\u6551": 3737,
    "\u30c8\u30ea": 3738,
    "\u5bfe\u8c61": 3739,
    "\u767a\u660e": 3740,
    "\u3059\u308b\u3088": 3741,
    "\u3092\u63a2\u3057\u3066": 3742,
    "\u2581\u30bb": 3743,
    "\u88c1\u5224": 3744,
    "\u4e00\u90e8": 3745,
    "\u82b8\u8853": 3746,
    "er": 3747,
    "\u5b66\u6821\u306b": 3748,
    "\u2581\u8a3c\u62e0": 3749,
    "\u533a": 3750,
    "\u5f7c\u3089\u306e": 3751,
    "\u52dd\u3064": 3752,
    "\u30c7\u30b9": 3753,
    "\u306f\u3069\u3046\u3060": 3754,
    "\u7f72": 3755,
    "\u3082\u7121\u3044": 3756,
    "\u9ad8\u304f": 3757,
    "\u81ea\u5206\u304c": 3758,
    "\u2581\u5371\u967a": 3759,
    "\u30af\u30ea": 3760,
    "\u30a2\u30e1\u30ea\u30ab\u4eba": 3761,
    "\u2581\u6c17\u304c": 3762,
    "\u885b\u661f": 3763,
    "\u82e5\u8005": 3764,
    "\u30b9\u30fc": 3765,
    "\u7c21\u5358\u306a": 3766,
    "\u3044\u3067": 3767,
    "\u88fd\u54c1": 3768,
    "\u8cb7\u3063\u305f": 3769,
    "\u751f\u7523": 3770,
    "\u9054\u304c": 3771,
    "\u2581\u6620\u753b": 3772,
    "\u75c5\u9662\u306b": 3773,
    "\u2581\u3084\u306f\u308a": 3774,
    "\u795e\u7d4c": 3775,
    "\u2581\u304b\u3064\u3066": 3776,
    "\u304c\u6b7b\u3093\u3060": 3777,
    "\u5171\u306b": 3778,
    "\u601d\u3048": 3779,
    "\u5e74\u524d\u306e": 3780,
    "\u6c37": 3781,
    "\u4ec0\u4e48": 3782,
    "\u3049": 3783,
    "\u52dd\u3061": 3784,
    "\u5dfb\u304d": 3785,
    "\u529b\u304c": 3786,
    "dna": 3787,
    "\u9020": 3788,
    "\u5de5": 3789,
    "\u30c1\u30e5\u30fc": 3790,
    "\u6311\u6226": 3791,
    "\u308b\u306e\u3088": 3792,
    "\u305f\u304f\u3066": 3793,
    "\u7d76": 3794,
    "\u2581\u69d8\u3005\u306a": 3795,
    "\u307b\u3046\u304c\u3044\u3044": 3796,
    "\u2581\u305f\u3068\u3048": 3797,
    "\u304f\u306a\u3044": 3798,
    "?\u300b": 3799,
    "\u304a\u524d\u304c": 3800,
    "\u6b8b\u308b": 3801,
    "\u2581\u897f": 3802,
    "\u5c45\u305f": 3803,
    "\u8208\u5473": 3804,
    "\u3042\u3044\u3064": 3805,
    "\u52dd\u8ca0": 3806,
    "\u7802": 3807,
    "\u8a71\u305b": 3808,
    "\u3067\u3057\u3087\u3046\u306d": 3809,
    "\u2581\u65e9": 3810,
    "\u3068\u306f\u9055\u3046": 3811,
    "\u2581\u305d\u3063\u304b": 3812,
    "\u5e78\u904b": 3813,
    "\u9375": 3814,
    "\u99c5": 3815,
    "\u6f14\u594f": 3816,
    "\u8cb7\u3044": 3817,
    "\u2581\u79c1\u9054\u304c": 3818,
    "\u3055\u306a\u3044": 3819,
    "\u306a\u304d\u3083\u3044\u3051\u306a\u3044": 3820,
    "\u5c0f\u3055\u3044": 3821,
    "\u3058\u3083\u306a\u3044\u306e": 3822,
    "\u7e01": 3823,
    "\u4e73": 3824,
    "\u5973\u738b": 3825,
    "\u59eb": 3826,
    "\u3059\u308b\u306e\u304b": 3827,
    "\u5fc5\u8981\u306f\u306a\u3044": 3828,
    "\u30b0\u30e9": 3829,
    "\u308f\u305a\u304b": 3830,
    "\u5742": 3831,
    "\u308f\u304b\u308a\u307e\u305b\u3093": 3832,
    "\u9084": 3833,
    "\u6c17\u3065\u3044\u305f": 3834,
    "\u5909\u66f4": 3835,
    "\u2581\u98df\u3079": 3836,
    "\u2581\u30d9\u30f3": 3837,
    "\u4ee5\u524d": 3838,
    "\u7d20\u6575": 3839,
    "\u526f": 3840,
    "\u2581\u8003\u3048\u3066": 3841,
    "\u5bfe\u5fdc": 3842,
    "\u30ea\u30b9\u30af": 3843,
    "\u5927\u52e2": 3844,
    "\u6238": 3845,
    "\u5b50\u3069\u3082": 3846,
    "\u8feb": 3847,
    "\u500b\u4eba": 3848,
    "\u306a\u3093\u3060\u3051\u3069": 3849,
    "\u2581\u6025": 3850,
    "\u8105\u5a01": 3851,
    "\u7d50\u5a5a\u5f0f": 3852,
    "\u81f3": 3853,
    "\u2581\u30d3\u30eb": 3854,
    "\u8efd": 3855,
    "\u2581D": 3856,
    "\u30ad\u30e3\u30f3\u30d7": 3857,
    "\u2581\u5f15\u304d": 3858,
    "\u4e16\u754c\u306e": 3859,
    "\u4fc2": 3860,
    "\u3069\u3046\u3057\u305f": 3861,
    "\u30d9\u30f3": 3862,
    "\u5f31\u3044": 3863,
    "\u91d1\u6301\u3061": 3864,
    "\u30d5\u30ea\u30fc": 3865,
    "\u2581\u3084\u3041": 3866,
    "\u4e57\u3063\u3066": 3867,
    "\u6b20": 3868,
    "\u304c\u898b\u3048\u308b": 3869,
    "\u307e\u305b": 3870,
    "\u6280": 3871,
    "\u30dc\u30f3": 3872,
    "\u89e6": 3873,
    "\u307f\u306a": 3874,
    "\u2581\u305d\u308c\u3088\u308a": 3875,
    "\u5973\u6027\u304c": 3876,
    "\u2581\u4ffa\u306b\u306f": 3877,
    "\u3078\u3093": 3878,
    "\u2581\u30b5\u30f3": 3879,
    "\u4e00\u4f53": 3880,
    "\u4e3b\u7fa9": 3881,
    "\u2581\u304d\u307f": 3882,
    "\u2581\u30cf\u30cf\u30cf": 3883,
    "\u77e5\u3063\u3066\u3044\u307e\u3059": 3884,
    "\u2581\u3069\u3046\u3057\u3088\u3046": 3885,
    "\u5fa9\u8b90": 3886,
    "\u3089\u308c\u307e\u3057\u305f": 3887,
    "\u30cf\u30fc": 3888,
    "\u4f55\u3092\u3057\u305f": 3889,
    "\u52dd": 3890,
    "\u5c11": 3891,
    "\u2581\u3053\u3046\u3057\u3066": 3892,
    "\u8d77\u304d\u305f": 3893,
    "\u65b9\u3092": 3894,
    "\u306e\u4ef6": 3895,
    "\u5168\u304f": 3896,
    "\u990a": 3897,
    "\u5b8c\u4e86": 3898,
    "\u5bb6\u3092": 3899,
    "\u96a0\u3057": 3900,
    "\u2581\u5343": 3901,
    "\u30b7\u30e3\u30fc": 3902,
    "\u2581\u6025\u3052": 3903,
    "\u3053\u308d": 3904,
    "\u8ca0": 3905,
    "\u2581\u30ce\u30fc": 3906,
    "\u2581\u30c6\u30e1\u30a8": 3907,
    "\u7d04\u675f\u3057\u305f": 3908,
    "\u2581\u5b50\u4f9b\u305f\u3061": 3909,
    "\u2581\u5bdd": 3910,
    "\u2581\u30c0": 3911,
    "\u516c\u958b": 3912,
    "\u30bd\u30fc": 3913,
    "\u3093\u3060\u3088\u306d": 3914,
    "\u2581\u30af": 3915,
    "\u5b9f\u969b": 3916,
    "\u3092\u4f5c\u3063\u305f": 3917,
    "\u554f": 3918,
    "\u9031": 3919,
    "\u30c6\u30fc\u30d7": 3920,
    "\u304f\u306a\u308b": 3921,
    "\u306a\u3057\u3067": 3922,
    "\u2581\u4e00\u4eba\u3067": 3923,
    "\u9769\u547d": 3924,
    "\u3048\u3048": 3925,
    "\u30c3\u30c4": 3926,
    "\u3070\u3063\u304b\u308a": 3927,
    "\u2581\u3084\u3063\u3071": 3928,
    "\u30bb\u30f3": 3929,
    "\u2581\u30eb\u30fc": 3930,
    "\u7d9a\u304d": 3931,
    "\u2581\u5148\u306b": 3932,
    "\u3093\u3060\u3063\u3066": 3933,
    "\u983c\u3093\u3060": 3934,
    "\u5f53\u305f\u308a": 3935,
    "\u2581\u30bd": 3936,
    "\u2581\u4ed6\u306b\u3082": 3937,
    "\u98df\u4e8b": 3938,
    "\u8b66\u90e8": 3939,
    "\u4e0a\u624b": 3940,
    "\u756a\u7d44": 3941,
    "\u53ef\u80fd\u306a": 3942,
    "\u306e\u591c": 3943,
    "\u30ef\u30fc": 3944,
    "\u8a00\u3046\u3068": 3945,
    "\u3092\u6301\u3063\u305f": 3946,
    "\u6b7b\u3093\u3067": 3947,
    "\u6b69\u304d": 3948,
    "\u4e0a\u304c\u3063\u3066": 3949,
    "\u30c7\u30fc\u30bf\u3092": 3950,
    "\u30d1\u30a4": 3951,
    "\u7b11\u9854": 3952,
    "\u5230\u7740": 3953,
    "\u3092\u898b\u308d": 3954,
    "\u534a\u5206": 3955,
    "\u5bbf": 3956,
    "\u2581\u68ee": 3957,
    "\u88fd": 3958,
    "\u3060\u3051\u306e": 3959,
    "\u6700\u5f8c\u306b": 3960,
    "\u75db\u3044": 3961,
    "\u8d77\u3053\u308b": 3962,
    "\u66ff\u3048": 3963,
    "\u52a9": 3964,
    "\u3092\u4e0e\u3048": 3965,
    "\u5fc5\u8981\u306a\u3044": 3966,
    "\u72af\u7f6a\u8005": 3967,
    "\u30ca\u30f3": 3968,
    "\u305b\u3066": 3969,
    "\u2581\u30e1": 3970,
    "\u65b9\u6cd5\u3067": 3971,
    "\u2581\u4eba\u985e": 3972,
    "\u7206\u5f3e": 3973,
    "\u307e\u308b": 3974,
    "\u2581\u6642\u3005": 3975,
    "\u306e\u524d\u306b": 3976,
    "\u53d6\u3063\u305f": 3977,
    "\u2581\u3042\u306a\u305f\u306b\u306f": 3978,
    "\u4ffa\u9054": 3979,
    "\u3092\u3057\u3066\u3044\u308b": 3980,
    "\u3044\u305f\u3044": 3981,
    "\u76ee\u304c": 3982,
    "\u5352\u696d": 3983,
    "\u5b50\u4f9b\u305f\u3061": 3984,
    "\u2581\u307b\u3093\u3068": 3985,
    "\u30b4\u30df": 3986,
    "\u4ed5": 3987,
    "\u52d5\u304b": 3988,
    "\u8003\u3048\u65b9": 3989,
    "\u2581\u4f60": 3990,
    "\u5c11\u306a\u3044": 3991,
    "\u9032\u3093\u3067": 3992,
    "\u3082\u3061\u308d\u3093": 3993,
    "\u98db\u884c": 3994,
    "\u304b\u308c\u305f": 3995,
    "\u3046\u3093": 3996,
    "\u5948": 3997,
    "\u30bb\u30f3\u30c8": 3998,
    "\u63a5\u89e6": 3999,
    "\u30c7\u30fc": 4000,
    "\u4e8b\u614b": 4001,
    "\u30d0\u30eb": 4002,
    "\u3044\u3051": 4003,
    "\u2581\u5974": 4004,
    "\u3063\u3066\u306e\u306f": 4005,
    "\u2581\u30a2\u30a4": 4006,
    "\u306e\u304a\u304b\u3052\u3067": 4007,
    "\u2581\u30de\u30a4\u30b1\u30eb": 4008,
    "\u624b\u304c": 4009,
    "\u975e": 4010,
    "\u2581\u79d1\u5b66": 4011,
    "\u306f\u4f55\u3060": 4012,
    "\u304a\u308b": 4013,
    "\u904e\u304e\u308b": 4014,
    "\u5f7c\u3089": 4015,
    "\u5408\u3063\u3066": 4016,
    "\u30c8\u30eb": 4017,
    "\u77e5\u3063\u3066\u3044\u305f": 4018,
    "\u3092\u5909\u3048\u308b": 4019,
    "\u99ac\u9e7f": 4020,
    "\u8ab2": 4021,
    "\u2581\u3042\u3068\u306f": 4022,
    "\u2581\u8b66\u5bdf\u306b": 4023,
    "\u30c3\u30c1": 4024,
    "\u9818\u57df": 4025,
    "\u30a6\u30f3": 4026,
    "\u4e0d\u601d\u8b70": 4027,
    "\u2581\u666e\u901a\u306e": 4028,
    "\u623b\u3063\u3066\u304f\u308b": 4029,
    "\u4f9d\u983c": 4030,
    "\u2581\u50d5\u306b": 4031,
    "\u3060\u3089\u3051": 4032,
    "\u697d\u3057\u307f": 4033,
    "\u5974\u3060": 4034,
    "\u30d4\u30f3": 4035,
    "\u5929\u624d": 4036,
    "\u2581\u3053\u3053\u306b\u306f": 4037,
    "\u304b\u304b\u3063\u305f": 4038,
    "\u3088\u3046\u306b\u306a\u3063\u305f": 4039,
    "\u51fa\u767a": 4040,
    "16": 4041,
    "\u2581\u30e2": 4042,
    "\u5f8c\u3067": 4043,
    "\u306e\u307e\u307e": 4044,
    "\u2581\u6700\u9ad8\u306e": 4045,
    "\u2581\u3069\u3053\u306b\u3044\u308b": 4046,
    "\u2581\u75c5\u6c17": 4047,
    "\u3055\u305b\u3066\u304f\u308c": 4048,
    "\u2581\u4e8c\u5ea6\u3068": 4049,
    "\u3042\u3093\u306a": 4050,
    "\u65cf": 4051,
    "\u898f\u6a21": 4052,
    "\u9055\u3044\u307e\u3059": 4053,
    "\u304c\u8981\u308b": 4054,
    "\u6700\u521d\u306b": 4055,
    "\u898b\u3064\u304b\u308b": 4056,
    "\u305f\u3093\u3067\u3059": 4057,
    "\u56fd\u6c11": 4058,
    "\u305d\u3046\u3044\u3046": 4059,
    "17": 4060,
    "\u5bdd\u308b": 4061,
    "\u64cd\u4f5c": 4062,
    "\u30b0\u30ea\u30fc\u30f3": 4063,
    "\u8005\u3060": 4064,
    "\u306e\u7814\u7a76": 4065,
    "\u2581\u4eca\u5ea6": 4066,
    "\u3088\u3046\u3060\u306a": 4067,
    "\u4e2d\u592e": 4068,
    "\u3044\u305f\u306e": 4069,
    "\u2581\u89aa\u7236": 4070,
    "\u2581\u4e8b\u6545": 4071,
    "\u89b3\u5bdf": 4072,
    "\u306f\u4f55\u3082": 4073,
    "\u6559\u3048\u3066\u304f\u308c": 4074,
    "\u5175\u5668": 4075,
    "\u2581\u3044\u3044\u3084": 4076,
    "\u96ea": 4077,
    "\u30a4\u30eb": 4078,
    "\u702c": 4079,
    "\u2581\u3042\u306a\u305f\u65b9": 4080,
    "\u2581C": 4081,
    "\u5225\u308c": 4082,
    "\u8d77\u304d": 4083,
    "\u904a\u3093\u3067": 4084,
    "\u3092\u5909\u3048": 4085,
    "\u258150": 4086,
    "70": 4087,
    "\u3092\u77e5\u3063\u3066\u3044\u308b": 4088,
    "\u6ec5": 4089,
    "\u59cb\u3081\u307e\u3057\u305f": 4090,
    "\u4f7f\u3048": 4091,
    "\u30c6\u30fc\u30d6\u30eb": 4092,
    "\u30b9\u30c6": 4093,
    "\u2581\u601d\u3046": 4094,
    "\u306e\u4ef2\u9593": 4095,
    "\u602a\u7269": 4096,
    "\u7279\u5225": 4097,
    "\u2581\u5b9f": 4098,
    "\u30b7\u30e3\u30c4": 4099,
    "\u51fa\u4f1a\u3063\u305f": 4100,
    "\u6483\u3061": 4101,
    "\u8535": 4102,
    "\u30a4\u30fc": 4103,
    "\u2581\u6bba\u3059": 4104,
    "\u2581\u7236\u306f": 4105,
    "\u7cbe": 4106,
    "\u30de\u30fc\u30af": 4107,
    "\u2581\u30d5\u30e9\u30f3\u30af": 4108,
    "\u96f2": 4109,
    "\u3054\u98ef": 4110,
    "\u8981\u7d20": 4111,
    "at": 4112,
    "\u2581\u304a\u3044\u304a\u3044": 4113,
    "\u308f\u3088\u306d": 4114,
    "\u6255\u3046": 4115,
    "\u2581\u5b89\u5168": 4116,
    "\u2581\u307c\u304f": 4117,
    "\u4e5d": 4118,
    "\u2581B": 4119,
    "\u3076\u3063": 4120,
    "\u30a8\u30a4": 4121,
    "\u6012\u3063\u3066": 4122,
    "\u6b21\u7b2c": 4123,
    "\u30c7\u30eb": 4124,
    "\u2581\u30ac": 4125,
    "\u524d\u304b\u3089": 4126,
    "\u306b\u306a\u3063\u3066\u308b": 4127,
    "\u2581\u672c\u7269\u306e": 4128,
    "\u4eba\u6c17": 4129,
    "\u98df\u3079\u305f": 4130,
    "\u3058\u3083\u3042\u308a\u307e\u305b\u3093": 4131,
    "\u624b\u306b\u5165\u308c\u305f": 4132,
    "\u8cb4": 4133,
    "\u3092\u4f5c\u308a": 4134,
    "\u62b5\u6297": 4135,
    "\u6b62\u3081\u308b": 4136,
    "\u2581\u8a00\u3046": 4137,
    "\u2581\u826f\u304b\u3063\u305f": 4138,
    "\u6301\u3063\u3066\u3044\u308b": 4139,
    "\u9774": 4140,
    "\u2581\u3064\u3044\u306b": 4141,
    "\u5264": 4142,
    "\u7acb\u3064": 4143,
    "\u523b": 4144,
    "\u306e\u3088\u3046\u3060": 4145,
    "\u9001\u3063\u3066": 4146,
    "\u4e16\u754c\u306b": 4147,
    "\u30c3\u30ad\u30fc": 4148,
    "\u3063\u3064": 4149,
    "\u7136": 4150,
    "\u5c45\u306a\u3044": 4151,
    "\u4ee5\u5916": 4152,
    "\u305f\u3060\u306e": 4153,
    "\u5909\u308f\u308a": 4154,
    "\u2581\u4eca\u591c\u306f": 4155,
    "\u4e16\u8a71": 4156,
    "\u30ca\u30a4\u30c8": 4157,
    "\u2581\u5f8c\u308d": 4158,
    "\u2581\u5fc5\u8981": 4159,
    "\u30d9\u30a4": 4160,
    "\u4f1a\u3048\u308b": 4161,
    "\u96a0": 4162,
    "\u2581\u30a6\u30a9\u30eb\u30bf\u30fc": 4163,
    "\u306a\u3044\u3057": 4164,
    "\u5e30\u3063\u305f": 4165,
    "\u7d42\u4e86": 4166,
    "\u3065": 4167,
    "\u3057\u306a\u3051\u308c\u3070": 4168,
    "\u672c\u90e8": 4169,
    "\u2581\u305b\u3063\u304b\u304f": 4170,
    "\u3088\u3046\u306b\u306a\u308a\u307e\u3057\u305f": 4171,
    "\u2581\u304f\u3063": 4172,
    "\u629c\u304d": 4173,
    "\u73fe\u308c": 4174,
    "\u30cd\u30ba\u30df": 4175,
    "\u898f\u5247": 4176,
    "\u9078\u6319": 4177,
    "\u2581\u81ea\u6bba": 4178,
    "\u6e1b": 4179,
    "\u306e\u3053\u3068\u3060": 4180,
    "\u5fc3\u81d3": 4181,
    "\u2581\u304a\u3044\u3057\u3044": 4182,
    "\u5206\u5b50": 4183,
    "\u7a4d": 4184,
    "\u554f\u984c\u3092": 4185,
    "\u30c7\u30a4": 4186,
    "\u5f53\u305f\u308a\u524d": 4187,
    "\u3092\u4f7f\u3044": 4188,
    "\u8ecd\u968a": 4189,
    "\u2581\u9ed9\u308c": 4190,
    "\u4eba\u3005\u304c": 4191,
    "\u30db\u30fc\u30eb": 4192,
    "\u5e8a": 4193,
    "\u967d": 4194,
    "\u79c1\u3082": 4195,
    "\u9078": 4196,
    "\u6bb5\u968e": 4197,
    "\u2581\u4eca\u5f8c": 4198,
    "\u2581\u5e78\u305b": 4199,
    "\u5fd7": 4200,
    "\u305b\u3088": 4201,
    "\u9055\u3063\u305f": 4202,
    "\u5bdd\u3066": 4203,
    "\u2581\u4ffa\u3068": 4204,
    "\u82f1\u96c4": 4205,
    "\u2581\u635c\u67fb": 4206,
    "\u60aa\u304f\u306a\u3044": 4207,
    "\u3044\u3089\u306a\u3044": 4208,
    "\u3060\u3051\u3088": 4209,
    "\u2581\u306f\u3063": 4210,
    "\u3057\u305f\u304b": 4211,
    "\u8a00\u308f\u306a\u3044\u3067": 4212,
    "\u76e3\u7763": 4213,
    "\u2581\u3044\u3044\u306d": 4214,
    "\u2581\u6771": 4215,
    "\u53b3\u3057\u3044": 4216,
    "\u4f7f\u3063\u305f": 4217,
    "\u2581\u541b\u306b\u306f": 4218,
    "\u6e08\u307f": 4219,
    "\u306e\u3046\u3061": 4220,
    "\u8d70": 4221,
    "\u4f50": 4222,
    "\u8abf\u5b50": 4223,
    "\u7701": 4224,
    "\u6b8b\u308a": 4225,
    "\u72fc": 4226,
    "\u2581\u3084\u3063\u3066\u307f": 4227,
    "\u80cc\u4e2d": 4228,
    "\u2581\u81ea\u5206\u3092": 4229,
    "\u30e9\u30a4\u30a2\u30f3": 4230,
    "\u8336": 4231,
    "\u306e\u4e00\u3064": 4232,
    "\u2581\u5acc": 4233,
    "\u5bb9\u7591\u8005": 4234,
    "\u3081\u305f": 4235,
    "\u8a70\u3081": 4236,
    "\u2581\u3053\u306e\u4eba": 4237,
    "\u2581\u66f4\u306b": 4238,
    "\u2581\u805e\u3044\u3066\u304f\u308c": 4239,
    "\u2581\u305d\u3046\u3058\u3083\u306a\u3044": 4240,
    "\u2581\u601d\u3063\u3066": 4241,
    "\u751f\u304d\u3066\u308b": 4242,
    "\u2581\u30b3\u30a4\u30c4": 4243,
    "\u30d2\u30c8": 4244,
    "\u2581\u30ab\u30e1\u30e9": 4245,
    "\u3057\u3066\u3044\u308b\u306e\u3067\u3059": 4246,
    "\u614b\u5ea6": 4247,
    "\u3057\u307e\u3044\u307e\u3059": 4248,
    "\u2581\u8cb4\u65b9": 4249,
    "\u306e\u4e8b\u306f": 4250,
    "\u671b\u3093\u3067": 4251,
    "\u60aa\u9b54": 4252,
    "\u30af\u30bf\u30fc": 4253,
    "\u3044\u304b\u306a\u3044": 4254,
    "\u6d88\u3048\u3066": 4255,
    "\u2581\u672a\u6765": 4256,
    "\u2581\u65b0\u305f\u306a": 4257,
    "\u93e1": 4258,
    "\u5bcc": 4259,
    "\u624b\u304c\u304b\u308a": 4260,
    "\u5fc3\u306e": 4261,
    "\u3068\u3067\u3082": 4262,
    "\u2581\u3069\u308c\u3060\u3051": 4263,
    "\u2581\u4f55\u5ea6\u3082": 4264,
    "\u30eb\u30fc\u30c8": 4265,
    "\u2581\u5211\u4e8b": 4266,
    "\u5185\u306b": 4267,
    "\u6319\u3052": 4268,
    "\u305d\u3046\u3068": 4269,
    "\u6a2a": 4270,
    "\u8352": 4271,
    "\u4e57": 4272,
    "\u3067\u3042\u308c\u3070": 4273,
    "V": 4274,
    "\u898b\u305f\u3044": 4275,
    "\u2581\u305d\u3053\u306e": 4276,
    "\u2581\u653b\u6483": 4277,
    "\u2581\u5357": 4278,
    "\u2581\u7121\u4e8b": 4279,
    "\u2581\u5927\u4e08\u592b\u3067\u3059": 4280,
    "\u5bfa": 4281,
    "\u82e6": 4282,
    "\u305f\u3061\u306e": 4283,
    "\u76f8\u624b\u306b": 4284,
    "\u2581\u5974\u3089\u306f": 4285,
    "\u3092\u4f7f\u3063\u305f": 4286,
    "\u6709\u540d\u306a": 4287,
    "\u764c": 4288,
    "\u6c7a\u65ad": 4289,
    "45": 4290,
    "\u3060\u3063\u305f\u308f": 4291,
    "\u8ffd": 4292,
    "\u2581\u82e5\u3044": 4293,
    "\u30ad\u30e5": 4294,
    "\u306e\u307f": 4295,
    "\u76f4\u63a5": 4296,
    "\u56de\u308a": 4297,
    "\u4fee\u7406": 4298,
    "\u51fa\u8840": 4299,
    "\u30d6\u30ed\u30c3\u30af": 4300,
    "\u2581\u5ea7\u3063\u3066": 4301,
    "\u62db\u5f85": 4302,
    "\u3051\u3066": 4303,
    "\u559c\u3073": 4304,
    "\u3068\u304a\u308a": 4305,
    "\u5e74\u5f8c": 4306,
    "\u306b\u9055\u3044\u306a\u3044": 4307,
    "\u2581\u3046\u308b\u3055\u3044": 4308,
    "\u2581\u826f\u304f": 4309,
    "\u306f\u79c1\u306e": 4310,
    "\u623b": 4311,
    "\u30be": 4312,
    "\u2581\u3069\u3046\u3057\u3066\u3082": 4313,
    "\u306e\u4e2d\u306e": 4314,
    "\u2581\u305d\u3046\u3067\u3059\u304b": 4315,
    "\u6848\u5185": 4316,
    "\u30ed\u30a6": 4317,
    "\u305f\u307e": 4318,
    "\u9055\u53cd": 4319,
    "\u308f\u304b\u3063\u3066\u308b": 4320,
    "\u6642\u9593\u3060": 4321,
    "\u2581\u5927\u4e08\u592b\u3088": 4322,
    "\u2581\u6b63": 4323,
    "\u30bf\u30a4\u30e0": 4324,
    "\u8005\u3092": 4325,
    "\u304c\u3042\u308b\u3068": 4326,
    "\u8da3\u5473": 4327,
    "\u6d3b": 4328,
    "\u306b\u306a\u308c": 4329,
    "\u826f": 4330,
    "\u3044\u3066\u3082": 4331,
    "\u3057\u3066\u3044\u3066": 4332,
    "\u4eba\u5f62": 4333,
    "\u2581\u30de\u30b8\u3067": 4334,
    "\u601d\u8003": 4335,
    "\u3054\u3081\u3093": 4336,
    "\u60b2\u3057\u3044": 4337,
    "\u306a\u3051\u308c\u3070\u306a\u308a\u307e\u305b\u3093": 4338,
    "\u3066\u3057\u307e\u3063\u305f": 4339,
    "\u5b89\u5b9a": 4340,
    "\u8d64\u3093\u574a": 4341,
    "\u30d2\u30fc\u30ed\u30fc": 4342,
    "\u306b\u4e57\u3063\u3066": 4343,
    "\u9053\u8def": 4344,
    "\u2581\u30da": 4345,
    "\u8a71\u304c": 4346,
    "\u672c\u7269": 4347,
    "\u8a73\u7d30": 4348,
    "\u63a2\u5075": 4349,
    "\u2581\u30aa\u30ec\u305f\u3061": 4350,
    "\u71c3\u6599": 4351,
    "\u306e\u53cb\u4eba": 4352,
    "\u307e\u308c": 4353,
    "\u304c\u3067\u304d\u308b": 4354,
    "\u30a6\u30a7\u30a4": 4355,
    "\u96c7": 4356,
    "\u2581\u3069\u3053\u3060": 4357,
    "\u4ee3\u8868": 4358,
    "\u6bb5": 4359,
    "\u7403": 4360,
    "\u2581\u738b": 4361,
    "\u90e8\u306e": 4362,
    "\u30b8\u30e7": 4363,
    "\u3068\u3044\u3046\u4e8b": 4364,
    "\u30b9\u30c6\u30fc\u30b8": 4365,
    "\u3092\u884c\u3046": 4366,
    "\u81ea\u6bba": 4367,
    "\u30c8\u30e9\u30c3\u30af": 4368,
    "\u2581\u8179": 4369,
    "\u738b\u5b50": 4370,
    "\u5d50": 4371,
    "\u968e\u6bb5": 4372,
    "\u5199\u771f\u3092": 4373,
    "\u9032\u6b69": 4374,
    "\u306b\u4f1a\u3063\u305f": 4375,
    "\u2581\u306a\u3093\u3068\u304b": 4376,
    "\u697d\u3057\u3093\u3067": 4377,
    "\u4e0a\u3052\u3066": 4378,
    "\u2581\u3069\u3046\u3084\u3089": 4379,
    "\u30e1\u30c3\u30bb\u30fc\u30b8\u3092": 4380,
    "\u2581\u3042\u308a\u304c\u3068": 4381,
    "\u2581\u30df\u30b9": 4382,
    "\u5206\u91ce": 4383,
    "\u2581\u533b\u7642": 4384,
    "\u2581\u6625": 4385,
    "\u30a4\u30f3\u30c9": 4386,
    "\u5712": 4387,
    "\u30b2\u30a4": 4388,
    "\u6c34\u3092": 4389,
    "\u5411\u304d": 4390,
    "\u2581\u3069\u3046\u3057\u305f\u3093\u3060": 4391,
    "\u2581\u305d\u306e\u901a\u308a": 4392,
    "\u2581\u60aa\u9b54": 4393,
    "\u5f88": 4394,
    "\u2581d": 4395,
    "\u7279\u5225\u306a": 4396,
    "\u4e0a\u53f8": 4397,
    "\u306e\u58f0": 4398,
    "\u4f59": 4399,
    "\u2581\u6700\u521d\u306f": 4400,
    "\u2581\u81ea\u7531": 4401,
    "\u6307\u8f2a": 4402,
    "\u2581\u592a\u967d": 4403,
    "\u76f8\u5f53": 4404,
    "\u8fbc\u3081": 4405,
    "\u2581\u30b8\u30e0": 4406,
    "\u512a": 4407,
    "\u306f\u305d\u306e": 4408,
    "\u2581\u751f\u304d\u3066": 4409,
    "\u30a2\u30af\u30bb\u30b9": 4410,
    "\u3068\u547c\u3070\u308c\u308b": 4411,
    "\u4eca\u307e\u3067": 4412,
    "\u2581\u7c21\u5358\u306b": 4413,
    "\u5efa\u8a2d": 4414,
    "\u3053\u308c\u304b\u3089": 4415,
    "\u30d1\u30b9": 4416,
    "\u753b": 4417,
    "\u51fa\u3066\u304f\u308b": 4418,
    "\u2581\u6771\u4eac": 4419,
    "\u507d": 4420,
    "\u30c0\u30a4": 4421,
    "\u3070\u3044\u3044": 4422,
    "\u30b5\u30eb": 4423,
    "\u7d9a\u304f": 4424,
    "\u2581\u5929": 4425,
    "\u308d\u3088": 4426,
    "\u2581\u30aa\u30ec\u304c": 4427,
    "\u2581\u6b7b\u4f53": 4428,
    "\u5fd8\u308c\u308b": 4429,
    "\u6700\u521d": 4430,
    "\u6a19\u7684": 4431,
    "\u3059\u3054\u304f": 4432,
    "\u3054\u5b58\u77e5": 4433,
    "\u8b0e": 4434,
    "\u6570\u5b66": 4435,
    "\u85ac\u3092": 4436,
    "\u306f\u4eca": 4437,
    "\u2581\u9283\u3092": 4438,
    "\u65e5\u672c": 4439,
    "\u4e45": 4440,
    "\u6d99": 4441,
    "\u63f4\u52a9": 4442,
    "\u3064\u304b\u306a\u3044": 4443,
    "\u2581\u98a8": 4444,
    "\u3068\u601d\u3044\u307e\u3057\u305f": 4445,
    "\u304c\u591a\u3044": 4446,
    "\u52e2": 4447,
    "\u306f\u8ab0": 4448,
    "\u66b4\u529b": 4449,
    "\u7a7a\u6e2f": 4450,
    "\u30b8\u30e3\u30f3": 4451,
    "\u7a81": 4452,
    "\u56f0\u96e3": 4453,
    "\u2581\u30ec\u30d9\u30eb": 4454,
    "\u3084\u304c\u3063\u305f": 4455,
    "\u3057\u3087\u3046": 4456,
    "\u6210\u679c": 4457,
    "\u4f53\u304c": 4458,
    "\u3064\u3051\u308b": 4459,
    "\u7537\u306e": 4460,
    "\u901a\u308a\u306b": 4461,
    "\u6b69\u304f": 4462,
    "\u2581\u3042\u308a\u307e\u305b\u3093": 4463,
    "\u69d8\u306a": 4464,
    "\u5f35": 4465,
    "\u77e5\u308a\u5408\u3044": 4466,
    "\u3055\u308c\u3066\u3044\u305f": 4467,
    "\u4e16\u7d00": 4468,
    "\u624b\u3067": 4469,
    "\u7d42": 4470,
    "\u7d30": 4471,
    "\u52d5\u6a5f": 4472,
    "\u6765\u3066\u308b": 4473,
    "\u805e\u304d\u307e\u3057\u305f": 4474,
    "\u8db3\u3092": 4475,
    "\u4e0b\u304c\u3063\u3066": 4476,
    "\u8fd4\u4e8b": 4477,
    "\u64cd": 4478,
    "\u899a\u3048\u3066\u308b": 4479,
    "\u2581\u53e4\u3044": 4480,
    "\u2581\u90aa\u9b54": 4481,
    "\u90e8\u9577": 4482,
    "\u30da\u30c3\u30c8": 4483,
    "\u518d\u751f": 4484,
    "\u30b9\u30bf\u30fc\u30af": 4485,
    "\u4f1d": 4486,
    "\u7406\u60f3": 4487,
    "\u2581\u307b\u3093\u3068\u306b": 4488,
    "\u98df\u3044": 4489,
    "\u2581\u3042\u306e\u7537": 4490,
    "\u7269\u306f": 4491,
    "\u30f4": 4492,
    "\u2581\u6b63\u76f4": 4493,
    "\u5206\u304b\u3089\u3093": 4494,
    "\u2581\u4eca\u5e74": 4495,
    "\u8f2a": 4496,
    "\u7dad\u6301": 4497,
    "\u4e0d\u8db3": 4498,
    "\u2581\u304a\u306f\u3088\u3046\u3054\u3056\u3044\u307e\u3059": 4499,
    "\u30c8\u30e9\u30d6\u30eb": 4500,
    "\u30de\u30eb": 4501,
    "\u5439": 4502,
    "\u3058\u3083\u306a\u3044\u3088": 4503,
    "\u2581\u3053\u308a\u3083": 4504,
    "\u306e\u305b\u3044\u3060": 4505,
    "\u3063\u3053": 4506,
    "\u3057\u306a\u304c\u3089": 4507,
    "\u8a00\u308f\u308c\u3066": 4508,
    "\u5b50\u4f9b\u3092": 4509,
    "\u30d0\u30a4\u30c8": 4510,
    "it": 4511,
    "\u3058\u3083\u3042": 4512,
    "\u3092\u52a9\u3051\u308b": 4513,
    "\u5bb9": 4514,
    "\u3068\u79c1\u306f": 4515,
    "\u5339": 4516,
    "\u2581\u5f53\u6642": 4517,
    "\u8ff7\u60d1": 4518,
    "\u6ce3\u304d": 4519,
    "\u2581\u500b\u4eba": 4520,
    "\u30c7\u30b8\u30bf\u30eb": 4521,
    "\u2581\u88cf": 4522,
    "\u3057\u306a\u304d\u3083": 4523,
    "\u3057\u3066\u304d\u307e\u3057\u305f": 4524,
    "\u3068\u306a\u308a": 4525,
    "\u2581\u305d\u3046\u3059\u308c\u3070": 4526,
    "\u4e8b\u304c\u3042\u308b": 4527,
    "\u91dd": 4528,
    "\u98db\u3093\u3067": 4529,
    "\u30b9\u30d4\u30fc\u30c9": 4530,
    "\u8d70\u308a": 4531,
    "\u884c\u304f\u3088": 4532,
    "\u2581\u306a\u3063": 4533,
    "\u884c\u304b\u306a\u3044\u3068": 4534,
    "\u6687": 4535,
    "\u30e6": 4536,
    "\u713c": 4537,
    "\u898b\u4e8b": 4538,
    "\u30b9\u30ad\u30fc": 4539,
    "\u9014\u4e2d": 4540,
    "\u3068\u3053\u308d\u306b": 4541,
    "\u884c\u304d\u305f\u3044": 4542,
    "\u4e0a\u6607": 4543,
    "\u3082\u306e\u306b": 4544,
    "\u3068\u4e00\u7dd2": 4545,
    "\u30b1\u30fc\u30b9": 4546,
    "\u30a6\u30c3\u30c9": 4547,
    "\u6797": 4548,
    "\u2581\u672c\u6c17": 4549,
    "\u307e\u3057": 4550,
    "\u653e\u9001": 4551,
    "\u2581\u3064\u3044\u3066": 4552,
    "\u4f55\u304b\u3092": 4553,
    "\u2581\u30d5": 4554,
    "\u3044\u3066\u304f\u308c": 4555,
    "\u2581\u97f3\u697d": 4556,
    "\u306e\u4eba\u751f": 4557,
    "\u304b\u3051\u305f": 4558,
    "\u2581\u610f\u5473": 4559,
    "\u30d1\u30fc\u30c6\u30a3": 4560,
    "\u3057\u307e\u3044\u307e\u3057\u305f": 4561,
    "\u8a00\u3048\u306a\u3044": 4562,
    "\u30c9\u30ec\u30b9": 4563,
    "\u7cf8": 4564,
    "\u8003\u3048\u3066\u3044\u308b": 4565,
    "\u3051\u3093": 4566,
    "\u308d\u3046\u3068": 4567,
    "\u2581\u7d04": 4568,
    "\u5973\u5b50": 4569,
    "\u5546\u54c1": 4570,
    "\u2581\u771f\u5b9f": 4571,
    "\u3044\u304d\u307e\u3059": 4572,
    "\u7a93": 4573,
    "\u3084\u308b\u3088": 4574,
    "\u306b\u306a\u308b\u306e": 4575,
    "\u5e38": 4576,
    "\u6620": 4577,
    "\u9060\u3044": 4578,
    "\u4fe1\u3058": 4579,
    "\u2581\u9375": 4580,
    "\u9032\u3080": 4581,
    "\u76ee\u306e": 4582,
    "\u2581\u4e3b": 4583,
    "\u3042\u3089\u3086\u308b": 4584,
    "\u304c\u9055\u3046": 4585,
    "\u6211\u6162": 4586,
    "\u3093\u3060\u306d": 4587,
    "\u308f\u3051\u306a\u3044": 4588,
    "\u9b3c": 4589,
    "\u30c9\u30e9": 4590,
    "\u9001\u308b": 4591,
    "\u6bce": 4592,
    "\u884c\u52d5\u3092": 4593,
    "\u30ca\u30a4": 4594,
    "\u6df7": 4595,
    "\u77e5\u3089\u3093": 4596,
    "\u2581\u3053\u3089": 4597,
    "\u30a1": 4598,
    "\u9664": 4599,
    "\u76f8\u624b\u306f": 4600,
    "\u3089\u3057\u304f": 4601,
    "\u80f8": 4602,
    "\u306e\u65e5": 4603,
    "\u2581\u624b\u8853": 4604,
    "\u80ba": 4605,
    "\u8a66\u307f": 4606,
    "\u8a08": 4607,
    "\u2581\u611b\u3057\u3066\u308b": 4608,
    "\u2581\u90a3": 4609,
    "\u5feb": 4610,
    "1000": 4611,
    "\u3089\u308c\u3066\u3044\u308b": 4612,
    "\u5b66\u8005": 4613,
    "\u5bfe\u51e6": 4614,
    "\u98a8\u5442": 4615,
    "\u6226\u58eb": 4616,
    "\u6bba\u305b": 4617,
    "\u6b62": 4618,
    "\u52a9\u3051\u3066": 4619,
    "\u3069\u306e\u3088\u3046\u306b": 4620,
    "\u306a\u3082\u306e": 4621,
    "\u6301": 4622,
    "\u2581\u6050\u3089\u304f": 4623,
    "\u2581\u3061\u3087\u3063": 4624,
    "in": 4625,
    "\u2581\u7533\u3057\u8a33\u3042\u308a\u307e\u305b\u3093": 4626,
    "\u3069\u3046\u3059\u308b": 4627,
    "\u73fe\u5834": 4628,
    "\u2581\u30de\u30eb": 4629,
    "\u673a": 4630,
    "00": 4631,
    "\u3064\u307e": 4632,
    "\u2581\u3072\u3068\u3064": 4633,
    "\u2581\u518d": 4634,
    "\u2581\u4f55\u306a\u306e": 4635,
    "\u7b2c\u4e00": 4636,
    "\u51fa\u6765\u4e8b": 4637,
    "\u306e\u4e0b": 4638,
    "\u75c7\u72b6": 4639,
    "\u30a6\u30a9\u30fc\u30ab\u30fc": 4640,
    "\u8b66\u5099": 4641,
    "\u8a95\u751f\u65e5": 4642,
    "\u2581\u8ab0\u3082\u304c": 4643,
    "\u5802": 4644,
    "\u4e2d\u56fd": 4645,
    "on": 4646,
    "\u7247\u4ed8\u3051": 4647,
    "\u30eb\u30c9": 4648,
    "\u51c4\u3044": 4649,
    "\u96e2\u308c": 4650,
    "\u6c7a": 4651,
    "\u5b9d": 4652,
    "\u8a00\u3046\u3053\u3068": 4653,
    "\u305d\u3093\u306a\u3053\u3068": 4654,
    "\u30b3\u30fc\u30d2\u30fc": 4655,
    "\u5730\u4e0a": 4656,
    "\u2581T": 4657,
    "\u6c5a": 4658,
    "\u3092\u53d7\u3051\u3066": 4659,
    "\u5009": 4660,
    "\u6b32\u3057\u304b\u3063\u305f": 4661,
    "24": 4662,
    "\u8c46": 4663,
    "\u3059\u308b\u3053\u3068\u306f": 4664,
    "\u7523\u696d": 4665,
    "14": 4666,
    "\u796d": 4667,
    "\u62e1\u5927": 4668,
    "\u2581\u304a\u59c9\u3061\u3083\u3093": 4669,
    "\u3057\u305f\u308f": 4670,
    "\u8a18": 4671,
    "\u8a00\u308f\u306a\u304b\u3063\u305f": 4672,
    "\u4eba\u8cea": 4673,
    "\u691c\u4e8b": 4674,
    "\u7814\u7a76\u6240": 4675,
    "\u52dd\u3063\u305f": 4676,
    "\u901f\u5ea6": 4677,
    "\u3092\u6b62\u3081": 4678,
    "\u3060\u3081": 4679,
    "\u6b7b\u3093\u3067\u308b": 4680,
    "\u6ce5\u68d2": 4681,
    "\u73fe\u8c61": 4682,
    "\u308b\u306e\u3067\u3059": 4683,
    "\u3089\u305b\u3066": 4684,
    "\u5c5e": 4685,
    "\u3092\u898b\u3064\u3051\u3066": 4686,
    "\u62cd\u624b": 4687,
    "\u5b50\u304c": 4688,
    "\u9752": 4689,
    "\u2581\u9996": 4690,
    "\u76f4\u3059": 4691,
    "\u4ee5\u4e0a\u306b": 4692,
    "\u6ce8\u6587": 4693,
    "\u81ea\u5206\u3092": 4694,
    "\u6483\u3066": 4695,
    "\u884c\u304b": 4696,
    "\u6539\u5584": 4697,
    "\u5b66\u7fd2": 4698,
    "\u533b\u5b66": 4699,
    "\u30ec\u30c3\u30c8": 4700,
    "\u3057\u3066\u3044\u308b\u306e": 4701,
    "\u308b\u306e\u306b": 4702,
    "\u2581\u6c17\u306b": 4703,
    "\u30db\u30c6\u30eb": 4704,
    "\u8aac\u660e\u3059\u308b": 4705,
    "\u6e05": 4706,
    "\u30c1\u30e7": 4707,
    "\u3082\u3042\u308a\u307e\u305b\u3093": 4708,
    "\u898b\u3048\u305f": 4709,
    "\u9752\u3044": 4710,
    "\u3060\u3088\u306a": 4711,
    "\u521d\u3081": 4712,
    "\u30d0\u30f3\u30c9": 4713,
    "\u4eba\u3005\u3092": 4714,
    "\u4f55\u3067": 4715,
    "\u2581\u305d\u3046\u305d\u3046": 4716,
    "\u3089\u306a\u304b\u3063\u305f": 4717,
    "\u91d1\u5eab": 4718,
    "\u9ad8\u6821": 4719,
    "\u4eba\u3005\u306b": 4720,
    "\u96a0\u3057\u3066": 4721,
    "\u5bc4\u305b": 4722,
    "\u305b\u306a\u3044": 4723,
    "\u9003\u3052\u308b": 4724,
    "\u2581\u6b8b\u308a": 4725,
    "\u884c\u3051\u308b": 4726,
    "\u4e8c\u3064": 4727,
    "\u5468": 4728,
    "\u50d5\u306b": 4729,
    "\u3068\u3044\u3046\u3053\u3068\u306f": 4730,
    "\u54b2": 4731,
    "\u4f55\u3092\u3057\u3066\u3044\u308b": 4732,
    "\u305f\u3093": 4733,
    "\u793e\u54e1": 4734,
    "\u5009\u5eab": 4735,
    "\u2581\u3044\u305a\u308c": 4736,
    "\u72b6\u6cc1\u3092": 4737,
    "\u2581\u30c1\u30fc\u30e0": 4738,
    "\u2581\u30a4\u30f3\u30c9": 4739,
    "\u6c17\u306b\u306a\u308b": 4740,
    "\u6c17\u3092": 4741,
    "\u30bf\u30eb": 4742,
    "\u8a00\u308f": 4743,
    "\u2581\u697d\u3057\u3044": 4744,
    "\u5584": 4745,
    "\u4e0d\u8981": 4746,
    "\u304f\u306a\u3063\u305f": 4747,
    "\u5b57": 4748,
    "\u5974\u306f": 4749,
    "\u623b\u3063\u3066\u304d\u305f": 4750,
    "\u3057\u305f\u304b\u3063\u305f": 4751,
    "\u3053\u308c\u3067": 4752,
    "is": 4753,
    "\u3069\u3046\u306a\u3063\u305f": 4754,
    "\u2581\u5fc5\u8981\u306a": 4755,
    "\u7d42\u3048": 4756,
    "\u677f": 4757,
    "\u4f86": 4758,
    "\u640d": 4759,
    "\u964d\u308a": 4760,
    "\u2581\u899a\u3048\u3066\u308b": 4761,
    "\u30e9\u30e0": 4762,
    "\u305d\u3046\u3060\u306a": 4763,
    "\u2581\u6c17\u3092\u3064\u3051\u3066": 4764,
    "\u3042\u308b\u306e": 4765,
    "\u2581\u4e21\u89aa": 4766,
    "\u3068\u8a00\u3044\u307e\u3057\u305f": 4767,
    "\u843d\u3061\u3066": 4768,
    "\u30b7\u30a7": 4769,
    "\u77e5\u308a\u307e\u305b\u3093": 4770,
    "\u5893": 4771,
    "\u7f60": 4772,
    "\u2581\u5b50\u3069\u3082": 4773,
    "\u5e74\u9f62": 4774,
    "\u306e\u307b\u3046": 4775,
    "\u96fb\u6c17": 4776,
    "\u5e74\u4ee3": 4777,
    "\u305f\u3044\u306e": 4778,
    "\u2581\u5927\u4eba": 4779,
    "\u305f\u3061\u306b": 4780,
    "\u4f53\u306b": 4781,
    "\u30b3\u30d4\u30fc": 4782,
    "\u2581\u9752": 4783,
    "\u2581\u30d5\u30a3\u30f3\u30c1": 4784,
    "\u2581\u30e8": 4785,
    "\u8cc7\u6599": 4786,
    "\u2581\u85ac": 4787,
    "\u5207\u3063\u3066": 4788,
    "\u306a\u306e\u306f": 4789,
    "\u3042\u308b\u304b": 4790,
    "\u3042\u304d\u3089\u3081": 4791,
    "\u5197\u8ac7": 4792,
    "\u3048\u3066": 4793,
    "\u30a2\u30ec": 4794,
    "\u3092\u9023\u308c\u3066": 4795,
    "\u2581\u4fe1\u3058\u3066": 4796,
    "\u2581\u5e30\u3063\u3066": 4797,
    "\u30c6\u30ed\u30ea\u30b9\u30c8": 4798,
    "\u8e0f\u307f": 4799,
    "\u821e": 4800,
    "\u30b5\u30a4": 4801,
    "\u30d1\u30bd\u30b3\u30f3": 4802,
    "\u6295\u7968": 4803,
    "\u2581\u5931\u793c\u3057\u307e\u3059": 4804,
    "\u6765\u3066\u304f\u308c": 4805,
    "\u8eca\u3067": 4806,
    "\u9ed2\u3044": 4807,
    "\u8377\u7269": 4808,
    "\u2581\u308f\u304b\u308a\u307e\u3057\u305f": 4809,
    "\u697d\u3057\u304b\u3063\u305f": 4810,
    "\u2581\u4f55\u3060\u3063\u3066": 4811,
    "\u3059\u308b\u306e\u306b": 4812,
    "\u305f\u304b\u3089": 4813,
    "\u6b63\u78ba\u306b": 4814,
    "\u3067\u3055\u3048": 4815,
    "\u4fe1\u3058\u3066\u308b": 4816,
    "\u3084\u308c\u308b": 4817,
    "\u592a\u967d": 4818,
    "\u4fdd\u5b89\u5b98": 4819,
    "\u2581\u30aa\u30ea\u30d0\u30fc": 4820,
    "\u306f\u3044\u3064\u3082": 4821,
    "\u6765\u305f\u306e": 4822,
    "\u79fb": 4823,
    "\u65e2\u306b": 4824,
    "\u2581\u3046\u308f\u3063": 4825,
    "\u30a2\u30d5\u30ea\u30ab": 4826,
    "\u305f\u304f\u306a\u304b\u3063\u305f": 4827,
    "\u5199": 4828,
    "\u3078\u884c\u304f": 4829,
    "\u6483": 4830,
    "\u2581\u30e6": 4831,
    "\u56fd\u5bb6": 4832,
    "\u4e00\u81f4": 4833,
    "\u3057\u3061\u3083\u3063\u305f": 4834,
    "\u843d\u3061\u305f": 4835,
    "\u2581\u3061\u3087\u3063\u3068\u5f85\u3066": 4836,
    "\u2581\u30b3\u30f3": 4837,
    "\u8cac\u3081": 4838,
    "\u2581\u30d5\u30c3": 4839,
    "\u7121\u7406\u3060": 4840,
    "\u3067\u304d\u308c\u3070": 4841,
    "\u5b64\u72ec": 4842,
    "\u9055\u6cd5": 4843,
    "\u304b\u3059": 4844,
    "\u304a\u8a71": 4845,
    "\u2581\u3044\u304d\u306a\u308a": 4846,
    "\u6700\u60aa\u306e": 4847,
    "\u5d29\u58ca": 4848,
    "\u9023\u308c\u3066\u884c\u304f": 4849,
    "\u6b21\u5143": 4850,
    "\u304a\u307e\u3048": 4851,
    "\u5165\u308c\u3066": 4852,
    "\u53e3\u3092": 4853,
    "\u2581\u8ab0\u3067\u3082": 4854,
    "\u2581\u305d\u3046\u3044\u3048\u3070": 4855,
    "\u5206\u304b\u3093\u306a\u3044": 4856,
    "\u30d1\u30fc\u30bb\u30f3\u30c8": 4857,
    "\u4f55\u5e74\u3082": 4858,
    "\u304a\u524d\u3092": 4859,
    "\u95c7": 4860,
    "\u653f\u6cbb": 4861,
    "\u306b\u884c\u3053\u3046": 4862,
    "\u306e\u7236\u89aa": 4863,
    "\u2581\u3084\u308a": 4864,
    "\u307e\u3063\u305f": 4865,
    "\u4e2d\u6b62": 4866,
    "\u3063\u3066\u3044\u3046\u306e": 4867,
    "\u30ed\u30fc\u30ba": 4868,
    "\u3092\u78ba\u8a8d": 4869,
    "id": 4870,
    "\u9280\u6cb3": 4871,
    "\u6226\u7565": 4872,
    "\u72a0\u7272": 4873,
    "\u52a0\u3048": 4874,
    "\u8a71\u984c": 4875,
    "\u30b5\u30a4\u30ba": 4876,
    "\u3060\u3051\u3058\u3083\u306a\u3044": 4877,
    "\u7b56": 4878,
    "\u307f\u308b\u3068": 4879,
    "\u5f8c\u308d": 4880,
    "\u4fe1\u3058\u308b": 4881,
    "\u2581\u81ea": 4882,
    "\u7d76\u5bfe\u306b": 4883,
    "\u2581\u4e8b\u5b9f": 4884,
    "\u5b66\u3093\u3060": 4885,
    "\u55a7\u5629": 4886,
    "\u6599": 4887,
    "\u6cd5\u5f8b": 4888,
    "\u96a0\u308c": 4889,
    "\u96e2\u308c\u305f": 4890,
    "\u4e0a\u304c\u308a": 4891,
    "\u511f": 4892,
    "\u30af\u30a4\u30fc\u30f3": 4893,
    "\u4f9b\u7d66": 4894,
    "\u983c\u3093\u3067": 4895,
    "\u3057\u3066\u6b32\u3057\u3044": 4896,
    "\u3093\u3058\u3083\u306d\u3048": 4897,
    "\u2581\u65ad": 4898,
    "\u95d8": 4899,
    "\u2581\u7c73\u56fd": 4900,
    "\u304a\u53cb\u9054": 4901,
    "\u2581\u4eca\u56de\u306e": 4902,
    "\u76ae": 4903,
    "\u9a5a\u304d": 4904,
    "\u8a71\u3060": 4905,
    "\u30cb\u30b9": 4906,
    "\u99c4\u76ee": 4907,
    "\u3043": 4908,
    "\u77ed": 4909,
    "\u2581\u6b66\u5668": 4910,
    "\u660e\u3089\u304b": 4911,
    "\u5c06": 4912,
    "\u4e26": 4913,
    "\u306e\u4e0b\u306b": 4914,
    "\u5947\u5999\u306a": 4915,
    "\u6bba\u3057\u3066": 4916,
    "\u767a\u5c55": 4917,
    "\u9858": 4918,
    "\u5e30\u308c": 4919,
    "\u2581\u30c7\u30fc\u30bf": 4920,
    "\u2581\u308f\u3056\u308f\u3056": 4921,
    "\u2581\u60f3\u50cf": 4922,
    "\u30a4\u30b9": 4923,
    "\u2581\u3082\u3046\u4e00\u3064": 4924,
    "\u30de\u30b7": 4925,
    "\u3067\u3042\u3063\u305f": 4926,
    "\u9577\u3044\u9593": 4927,
    "\u2581\u3072\u3068": 4928,
    "\u2581\u71b1": 4929,
    "\u8a18\u8005": 4930,
    "\u5168\u7136": 4931,
    "\u30cf\u30fc\u30c8": 4932,
    "\u9ed9\u3063\u3066": 4933,
    "\u5275\u9020": 4934,
    "\u4e3a": 4935,
    "\u3064\u3076": 4936,
    "\u2581\u7b54\u3048": 4937,
    "\u3059\u308b\u3088\u3046\u306b": 4938,
    "\u4f11": 4939,
    "\u6d17": 4940,
    "\u6249": 4941,
    "\u2581\u5f7c\u3089\u306b": 4942,
    "\u2581\u3088\u3046\u3053\u305d": 4943,
    "\u3063\u3059": 4944,
    "\u907f\u3051": 4945,
    "\u8a00\u3063\u3066\u3044\u308b": 4946,
    "\u73fe\u308c\u308b": 4947,
    "\u304b\u306a\u308a": 4948,
    "~!!": 4949,
    "\u307e\u3063\u3066": 4950,
    "\u4e00\u6b69": 4951,
    "\u3054\u89a7": 4952,
    "\u3068\u3053\u308d\u3067\u3059": 4953,
    "\u7d1a": 4954,
    "\u76d7\u3093\u3060": 4955,
    "\u5358\u7d14": 4956,
    "\u5973\u6027\u306f": 4957,
    "\u733f": 4958,
    "\u30e1\u30eb": 4959,
    "\u5ba4\u306b": 4960,
    "\u3057\u3066\u4e0b\u3055\u3044": 4961,
    "\u8a3c\u4eba": 4962,
    "\u3060\u304b\u3089\u3067\u3059": 4963,
    "\u2581\u5927\u4e8b\u306a": 4964,
    "\u96fb\u5b50": 4965,
    "\u2581\u78ba\u8a8d": 4966,
    "\u663c": 4967,
    "\u30b5\u30e0": 4968,
    "\u8208\u596e": 4969,
    "\u3066\u306a\u3044": 4970,
    "\u3055\u3042": 4971,
    "\u3059\u308c\u3070\u3044\u3044": 4972,
    "\u611f\u8b1d\u3059\u308b": 4973,
    "\u3092\u6c42\u3081\u3066": 4974,
    "\u8aac\u5f97": 4975,
    "\u2581\u795e\u69d8": 4976,
    "\u2581\u30dc": 4977,
    "\u306a\u304f\u3066\u3044\u3044": 4978,
    "\u3093\u3058\u3083\u306a\u3044\u306e": 4979,
    "\u30c9\u30ed": 4980,
    "\u7a81\u7136": 4981,
    "\u8863": 4982,
    "\u306e\u7d50\u679c": 4983,
    "\u4ee5\u4e0b": 4984,
    "\u2581\u4f8b\u306e": 4985,
    "\u8a71\u304c\u3042\u308b": 4986,
    "\u50b7\u3064\u3051": 4987,
    "\u304b\u3089\u3055": 4988,
    "\u72d9\u3044": 4989,
    "\u2581\u3068\u308a\u3042\u3048\u305a": 4990,
    "\u30b9\u30dd\u30fc\u30c4": 4991,
    "\u71c3\u3048": 4992,
    "\u4e8b\u696d": 4993,
    "\u2581\u8a18\u61b6": 4994,
    "\u3092\u53d7\u3051\u308b": 4995,
    "\u5fae": 4996,
    "\u4ed5\u4e8b\u306b": 4997,
    "\u306e\u5b50": 4998,
    "\u2581\u80f8": 4999,
    "\u3068\u3044\u3046\u3082\u306e": 5000,
    "\u30e1\u30b9": 5001,
    "\u304c\u3042\u308a\u307e\u305b\u3093": 5002,
    "\u2581\u52d5\u7269": 5003,
    "\u2581\u30c8\u30e0": 5004,
    "\u3067\u304d\u308b\u304b": 5005,
    "\u8d70\u3063\u3066": 5006,
    "\u7b11\u3063\u3066": 5007,
    "\u2581\u541b\u9054": 5008,
    "\u60aa\u3044\u3053\u3068": 5009,
    "\u81ea\u8ee2\u8eca": 5010,
    "\u3067\u306f\u306a\u3044\u304b": 5011,
    "\u306e\u547d": 5012,
    "\u2581\u6709": 5013,
    "\u2581\u305d\u3046\u3060\u306d": 5014,
    "\u601d\u3044\u51fa\u3057\u305f": 5015,
    "\u6559\u3048\u308b": 5016,
    "\u30b3\u30fc\u30c8": 5017,
    "\u3059\u308b\u306b\u306f": 5018,
    "\u304b\u6708": 5019,
    "\u9762\u5012": 5020,
    "\u6c5a\u3044": 5021,
    "\u30a4\u30e4": 5022,
    "\u899a\u3048\u3066\u306a\u3044": 5023,
    "\u5efa\u3066": 5024,
    "\u30de\u30b9\u30af": 5025,
    "\u304a\u5f85\u3061": 5026,
    "\u6328\u62f6": 5027,
    "\u2581\u5e73\u6c17": 5028,
    "\u696d\u8005": 5029,
    "\u5bd2\u3044": 5030,
    "\u2581\u4f1a\u793e": 5031,
    "\u3084\u3059": 5032,
    "\u2581\u907a\u4f53": 5033,
    "\u907a\u4f53": 5034,
    "\u60aa\u304b\u3063\u305f": 5035,
    "\u306e\u5834\u5408": 5036,
    "\u767b\u5834": 5037,
    "\u305a\u3064": 5038,
    "\u3066\u304f\u308c\u305f": 5039,
    "\u7d9a\u3044\u3066": 5040,
    "\u901f\u304f": 5041,
    "\u2581\u8ab0\u304b\u306b": 5042,
    "\u898b\u3089\u308c\u308b": 5043,
    "\u3067\u3059\u3051\u3069": 5044,
    "\u7cde": 5045,
    "\u9055\u3063\u3066": 5046,
    "\u3069\u3046\u306a\u3063\u3066\u308b": 5047,
    "\u30b3\u30f3\u30d4\u30e5\u30fc\u30bf\u30fc": 5048,
    "\u7f6e\u304d": 5049,
    "\u7d42\u308f\u308a\u3060": 5050,
    "\u3068\u306a\u3063\u305f": 5051,
    "\u7121\u5b9f": 5052,
    "\u901a\u3063\u3066": 5053,
    "\u3042\u308c\u3070": 5054,
    "\u2581\u3042\u308c\u304c": 5055,
    "\u6d6e": 5056,
    "\u30a2\u30b9": 5057,
    "\u2581\u73fe\u5834": 5058,
    "\u7159": 5059,
    "\u6b53\u8fce": 5060,
    "\u3082\u3093\u3060": 5061,
    "\u2581\u5927\u5b66": 5062,
    "\u56f0\u308b": 5063,
    "\u30ae\u30e3": 5064,
    "\u53bb\u308b": 5065,
    "\u907f\u96e3": 5066,
    "\u306e\u5a18": 5067,
    "\u5fdc\u63f4": 5068,
    "\u8cdb\u6210": 5069,
    "\u30b5\u30f3\u30d7\u30eb": 5070,
    "\u516d": 5071,
    "\u671f\u9593": 5072,
    "\u7a2e\u985e\u306e": 5073,
    "\u2581\u305d\u308c\u307e\u3067": 5074,
    "\u2581\u3053\u3063\u3061\u3060": 5075,
    "\u304b\u3051\u308b": 5076,
    "\u2581\u5974\u306e": 5077,
    "\u8056": 5078,
    "\u2581\u96fb\u6c17": 5079,
    "\u2581\u4eba\u3005\u306f": 5080,
    "\u3060\u3051\u306f": 5081,
    "\u6bba\u3055\u308c": 5082,
    "\u76db": 5083,
    "\u2581\u5b50\u4f9b\u9054": 5084,
    "\u306e\u6e96\u5099": 5085,
    "\u6559\u4f1a": 5086,
    "\u2581\u6765\u308b": 5087,
    "\u8a69": 5088,
    "\u66b4": 5089,
    "\u2581\u3044\u3044\u306a": 5090,
    "\u2581\u30a2\u30d5\u30ea\u30ab": 5091,
    "\u9023\u90a6": 5092,
    "\u2581\u3053\u3053\u3067\u306f": 5093,
    "\u2581\u3069\u3046\u3044\u3046\u3053\u3068\u3060": 5094,
    "\u6628\u65e5": 5095,
    "\u2581\u3084\u3060": 5096,
    "\u2581\u30a4\u30f3\u30bf\u30fc\u30cd\u30c3\u30c8": 5097,
    "\u30c8\u30a5": 5098,
    "\u6d6e\u6c17": 5099,
    "\u305f\u306e\u306b": 5100,
    "\u8a71\u3057\u305f\u3044": 5101,
    "\u798f": 5102,
    "\u7bc4\u56f2": 5103,
    "\u6c7a\u307e\u308a": 5104,
    "\u77f3\u6cb9": 5105,
    "\u3089\u305b": 5106,
    "\u5730\u7344": 5107,
    "\u623b\u308a": 5108,
    "\u30c8\u30ec": 5109,
    "\u305b\u3093": 5110,
    "\u2581\u751f": 5111,
    "al": 5112,
    "\u2581\u3046\u307e\u3044": 5113,
    "\u3092\u77e5\u308b": 5114,
    "\u307f\u307e\u3059": 5115,
    "\u306b\u3057\u308d": 5116,
    "\u30b6\u30f3": 5117,
    "\u8a71\u3057\u3066\u304f\u308c": 5118,
    "\u554f\u984c\u304c": 5119,
    "\u5371\u967a\u3060": 5120,
    "\u5211\u52d9\u6240": 5121,
    "\u2581\u3042\u306e\u6642": 5122,
    "\u30c0\u30e0": 5123,
    "\u5206\u304b\u3063\u3066\u3044\u308b": 5124,
    "\u307e\u3059\u306d": 5125,
    "\u4eba\u5de5": 5126,
    "\u3046\u3061": 5127,
    "\u6c17\u3065\u3044\u3066": 5128,
    "\u79c1\u9054": 5129,
    "\u7269\u3060": 5130,
    "\u306f\u5168\u3066": 5131,
    "\u3067\u3042\u308b\u3053\u3068": 5132,
    "\u6697": 5133,
    "\u2581\u4e16\u754c\u4e2d\u306e": 5134,
    "\u7d50\u8ad6": 5135,
    "\u793e\u4f1a\u7684": 5136,
    "\u308b\u3093\u3067\u3059": 5137,
    "\u5e74\u3082": 5138,
    "\u2581\u304a\u3081\u3067\u3068\u3046": 5139,
    "\u56e3\u4f53": 5140,
    "\u2581\u307f\u306a\u3055\u3093": 5141,
    "\u5909\u3048\u308b": 5142,
    "\u96d1\u8a8c": 5143,
    "\u540d\u8a89": 5144,
    "\u5217\u8eca": 5145,
    "\u5e3d\u5b50": 5146,
    "\u3069\u3053\u304b\u306b": 5147,
    "\u306b\u53c2\u52a0": 5148,
    "\u6a29\u529b": 5149,
    "\u30d7\u30fc\u30eb": 5150,
    "\u8a00\u3063\u3066\u306a\u3044": 5151,
    "\u2581\u305d\u3046\u306a\u306e": 5152,
    "5%": 5153,
    "\u2581\u8cea\u554f": 5154,
    "\u30e9\u30b8\u30aa": 5155,
    "\u2581\u6bba\u3057\u305f": 5156,
    "\u5148\u751f\u306f": 5157,
    "\u751f\u6d3b\u3092": 5158,
    "\u72af\u884c": 5159,
    "\u2581\u30d6\u30e9\u30c3\u30af": 5160,
    "\u305d\u3046\u3088": 5161,
    "\u59cb\u307e\u308a": 5162,
    "\u6b32\u3057\u3044\u306e": 5163,
    "\u5e73\u5747": 5164,
    "\u8fc7": 5165,
    "\u8fd1\u3065\u3044\u3066": 5166,
    "\u8a73\u3057\u304f": 5167,
    "\u30b7\u30e7\u30c3\u30af": 5168,
    "\u2581\u5909": 5169,
    "\u7d99": 5170,
    "\u2581R": 5171,
    "\u2581\u91cd": 5172,
    "\u304f\u308c\u306a\u3044": 5173,
    "\u2581\u9577\u3044": 5174,
    "\u7814\u7a76\u5ba4": 5175,
    "\u306b\u3064\u3044\u3066\u306e": 5176,
    "\u2581\u90e8\u9577": 5177,
    "\u5f15\u3063": 5178,
    "\u2581\u3060\u3081": 5179,
    "\u4ee5\u5916\u306e": 5180,
    "\u4e2d\u3067\u3059": 5181,
    "\u83cc": 5182,
    "\u8a8d\u3081": 5183,
    "\u5341\u5206\u306a": 5184,
    "\u81ea\u5b85": 5185,
    "\u8a3a\u65ad": 5186,
    "\u805e\u3053\u3048\u305f": 5187,
    "\u2581\u30cf\u30f3": 5188,
    "\u5b50\u4f9b\u9054": 5189,
    "\u3053\u3044\u3064": 5190,
    "\u30d8\u30eb": 5191,
    "\u3093\u3084": 5192,
    "\u5171\u540c": 5193,
    "\u73cd\u3057\u3044": 5194,
    "\u88fd\u9020": 5195,
    "\u2581\u305d\u308c\u3058\u3083\u3042": 5196,
    "\u3092\u983c\u3080": 5197,
    "\u8a00\u3044\u65b9": 5198,
    "\u56de\u3063\u3066": 5199,
    "\u9003": 5200,
    "\u3060\u3063\u305f\u306e\u304b": 5201,
    "\u3092\u6551\u3046": 5202,
    "\u6065": 5203,
    "\u79cb": 5204,
    "\u2581\u7814\u7a76": 5205,
    "\u2581\u306f\u3044\u306f\u3044": 5206,
    "\u2581\u7537\u6027": 5207,
    "21": 5208,
    "\u6559\u5ba4": 5209,
    "\u6255\u3063\u3066": 5210,
    "\u30b2\u30fc\u30c8": 5211,
    "le": 5212,
    "\u305d\u306e\u3082\u306e": 5213,
    "\u2581\u3053\u3063\u3061\u306f": 5214,
    "\u2581\u604b": 5215,
    "\u2581\u5211\u52d9\u6240": 5216,
    "\u9996\u3092": 5217,
    "\u304b\u3093": 5218,
    "\u8f9b\u3044": 5219,
    "\u2581\u5c06\u6765": 5220,
    "\u2581\u30e1\u30fc\u30eb": 5221,
    "\u304a\u308a\u307e\u3059": 5222,
    "\u3066\u4e0b\u3055\u3044": 5223,
    "\u30d6\u30fc": 5224,
    "\u30d5\u30a9\u30fc\u30c9": 5225,
    "\u3053\u3068\u306b\u306a\u308a\u307e\u3059": 5226,
    "\u306e\u304b\u3044": 5227,
    "\u306a\u3044\u3067\u3057\u3087\u3046": 5228,
    "\u65e5\u3005": 5229,
    "\u306e\u60c5\u5831": 5230,
    "\u3057\u3066\u305f\u306e": 5231,
    "\u3063\u307d\u3044": 5232,
    "\u8208\u5473\u6df1\u3044": 5233,
    "\u5efa\u7bc9": 5234,
    "\u611b\u3057\u3066\u308b": 5235,
    "\u3059\u304e\u3066": 5236,
    "\u5f53\u7136": 5237,
    "\u4e0d\u662f": 5238,
    "\u30aa\u30fc\u30d7\u30f3": 5239,
    "\u306a\u3044\u3051\u3069": 5240,
    "\u30d5\u30eb": 5241,
    "\u2581\u305f\u304f\u3055\u3093\u306e": 5242,
    "\u7d44\u307f": 5243,
    "\u2581\u304a\u8336": 5244,
    "\u5165\u9662": 5245,
    "\u6027\u3092": 5246,
    "\u5148\u751f\u304c": 5247,
    "\u2581\u30b8\u30e7\u30fc\u30b8": 5248,
    "\u899a\u3048\u3066\u3044\u308b": 5249,
    "\u53ef\u611b\u3044": 5250,
    "\u3059\u308b\u305f\u3081": 5251,
    "\u6761": 5252,
    "\u53bb\u3063\u305f": 5253,
    "\u9f3b": 5254,
    "\u306a\u3055\u3044\u3088": 5255,
    "\u308b\u3088\u3046\u306a": 5256,
    "\u4e0d\u5e78": 5257,
    "\u3044\u308d": 5258,
    "\u30a4\u30a8\u30b9": 5259,
    "\u7684\u3067": 5260,
    "\u3058\u3083\u306a\u3044\u3093\u3060": 5261,
    "\u5150": 5262,
    "ra": 5263,
    "\u3069\u3051": 5264,
    "\u8cc7\u6e90": 5265,
    "\u30b9\u30c8\u30ec\u30b9": 5266,
    "\u2581\u76f4\u63a5": 5267,
    "\u308b\u4e8b": 5268,
    "\u5931\u793c": 5269,
    "\u30a2\u30a6\u30c8": 5270,
    "\u4ed5\u4e8b\u306f": 5271,
    "\u6c17\u306e\u6bd2": 5272,
    "\u5408\u308f\u305b\u3066": 5273,
    "\u2581\u8cb4\u65b9\u306f": 5274,
    "\u2581\u4f55\u51e6": 5275,
    "\u4eca\u591c": 5276,
    "\u7acb\u6d3e\u306a": 5277,
    "\u7d42\u308f\u3063\u3066": 5278,
    "\u5916\u306b\u51fa": 5279,
    "\u30ab\u30c3\u30c8": 5280,
    "\u7e54": 5281,
    "\u3064\u306a\u304c\u308a": 5282,
    "\u96fb\u8a71\u3057\u3066": 5283,
    "\u9031\u672b": 5284,
    "\u3063\u3061": 5285,
    "\u5426\u5b9a": 5286,
    "\u3068\u547c\u3076": 5287,
    "\u2581b": 5288,
    "\u2581OK": 5289,
    "\u9283\u3092": 5290,
    "\u7518\u3044": 5291,
    "\u5cb8": 5292,
    "\u3059\u3067\u306b": 5293,
    "\u306e\u3088\u3046\u306a\u3082\u306e": 5294,
    "\u306e\u540d": 5295,
    "\u6c5f": 5296,
    "\u7b2c\u4e8c": 5297,
    "\u5bfe\u7b56": 5298,
    "\u5177": 5299,
    "\u521d": 5300,
    "\u7dca\u5f35": 5301,
    "\u6551\u3044": 5302,
    "\u3063\u3066\u8a00\u3046": 5303,
    "\u304c\u3042\u308b\u304b\u3089": 5304,
    "\u2581\u672c\u6c17\u3067": 5305,
    "\u2581\u5341\u5206": 5306,
    "\u5065": 5307,
    "\u7fa9\u52d9": 5308,
    "\u592b\u5a66": 5309,
    "\u2581\u5fc3\u81d3": 5310,
    "\u6ce8": 5311,
    "\u547c\u3076": 5312,
    "\u96fb\u8a71\u3059\u308b": 5313,
    "\u306e\u4e00\u4eba": 5314,
    "\u6b74\u53f2": 5315,
    "\u3061\u3087": 5316,
    "\u76ee\u6483": 5317,
    "\u8fd4\u305b": 5318,
    "\u805e\u3044\u3066\u304f\u308c": 5319,
    "\u2581\u3053\u308c\u3063\u3066": 5320,
    "\u3058\u3083\u7121\u3044": 5321,
    "\u9593\u9055\u3063\u3066\u308b": 5322,
    "\u306e\u5927": 5323,
    "\u6483\u305f\u308c\u305f": 5324,
    "\u83dc": 5325,
    "\u2581\u3053\u3093\u306a\u306e": 5326,
    "\u7279\u5b9a\u306e": 5327,
    "\u57fa\u672c": 5328,
    "\u7269\u304c": 5329,
    "\u2581\u3069\u306e\u3088\u3046\u306b": 5330,
    "\u982d\u3092": 5331,
    "\u3082\u306e\u3067\u3057\u305f": 5332,
    "\u2581\u8155": 5333,
    "\u308f\u304b\u3063\u3066": 5334,
    "\u30c3\u30ab": 5335,
    "\u5171\u6709": 5336,
    "\u7fa4": 5337,
    "\u30b1\u30fc": 5338,
    "\u306f\u3044\u3051\u306a\u3044": 5339,
    "\u3084\u3063\u3066\u304f\u308c": 5340,
    "\u2581\u7686\u304c": 5341,
    "\u68d2": 5342,
    "\u885d\u7a81": 5343,
    "\u767a\u5c04": 5344,
    "\u983c\u307f": 5345,
    "\u2581\u3078\u3048": 5346,
    "\u5f37\u3055": 5347,
    "\u3084\u3063\u3066\u3044\u308b": 5348,
    "\u3092\u611f\u3058\u308b": 5349,
    "\u3044\u3089": 5350,
    "\u2581\u77e5\u3063\u3066": 5351,
    "\u91cd\u3044": 5352,
    "\u2581'": 5353,
    "\u8a00\u3044\u305f\u3044": 5354,
    "\u3042\u308a\u307e\u3059\u304b": 5355,
    "\u793e\u306e": 5356,
    "\u306a\u3093\u3067\u3059\u3088": 5357,
    "\u2581\u571f": 5358,
    "\u5909\u308f\u3089\u306a\u3044": 5359,
    "\u2581\u30b7\u30e3": 5360,
    "\u305d\u3070": 5361,
    "\u2581\u3069\u3053\u3078": 5362,
    "\u6027\u306e": 5363,
    "\u30c3\u30b0": 5364,
    "\u8ca9\u58f2": 5365,
    "\u544a\u767d": 5366,
    "\u30db\u30fc\u30e0": 5367,
    "\u5b58\u5728\u3059\u308b": 5368,
    "\u7167": 5369,
    "\u306e\u610f\u5473": 5370,
    "\u30d7\u30e9\u30f3": 5371,
    "\u624b\u52a9\u3051": 5372,
    "\u2581\u96e3\u3057\u3044": 5373,
    "\u4e07\u4eba": 5374,
    "\u3064\u3051\u305f": 5375,
    "\u3060\u3063\u3051": 5376,
    "\u2581\u53bb\u5e74": 5377,
    "=": 5378,
    "\u306e\u6b7b": 5379,
    "\u98db\u3076": 5380,
    "\u3072\u3069\u304f": 5381,
    "\u3067\u304d\u307e\u3057\u305f": 5382,
    "\u7e1b": 5383,
    "\u5909\u306a": 5384,
    "\u6211\u4eec": 5385,
    "\u4eba\u3005\u306f": 5386,
    "\u2581\u4e00\u4f53\u4f55": 5387,
    "800": 5388,
    "\u30b3\u30df\u30e5\u30cb\u30c6\u30a3": 5389,
    "\u69d8\u3005\u306a": 5390,
    "\u30ab\u30a4": 5391,
    "\u3053\u3068\u304c\u3042\u308a\u307e\u3059": 5392,
    "\u2581\u3053\u3046\u3057\u305f": 5393,
    "\u30ac\u30e9\u30b9": 5394,
    "\u304a\u5e97": 5395,
    "\u3060\u304b\u3089\u306d": 5396,
    "\u3092\u898b\u308b\u3068": 5397,
    "\u627f\u77e5": 5398,
    "\u69d8\u306e": 5399,
    "\u30dd\u30b1\u30c3\u30c8": 5400,
    "\u2581\u3053\u306e\u7537": 5401,
    "\u6240\u3067": 5402,
    "\u601d\u3044\u51fa\u3059": 5403,
    "\u5927\u4f1a": 5404,
    "\u597d\u304d\u3060": 5405,
    "\u90ce": 5406,
    "\u5e95": 5407,
    "\u306e\u53cb\u9054": 5408,
    "\u5922\u3092": 5409,
    "\u6b63\u3057\u304b\u3063\u305f": 5410,
    "\u2581\u305d\u3044\u3064\u306f": 5411,
    "\u3042\u3052\u305f": 5412,
    "\u30a4\u30ab": 5413,
    "\u7591": 5414,
    "\u2581\u30a4\u30e4": 5415,
    "\u5185\u306e": 5416,
    "\u5f97\u308b": 5417,
    "\u5c0f\u5c4b": 5418,
    "\u7121\u99c4": 5419,
    "\u2581\u50d5\u3089\u306f": 5420,
    "\u2581\u50d5\u3092": 5421,
    "\u307e\u3057\u3087": 5422,
    "\u3044\u307e\u305b\u3093\u3067\u3057\u305f": 5423,
    "\u2581\u5f7c\u3089\u3092": 5424,
    "\u2581\u305d\u306e\u3046\u3061": 5425,
    "\u2581\u5065\u5eb7": 5426,
    "\u2581\u898b\u305b\u3066": 5427,
    "\u63a5\u7d9a": 5428,
    "\u5358\u7d14\u306a": 5429,
    "\u2581\u65e2\u306b": 5430,
    "\u307e\u3059\u304c": 5431,
    "\u3059\u308b\u307e\u3067": 5432,
    "\u2581\u4fe1\u3058": 5433,
    "\u4eac": 5434,
    "\u2581\u3069\u3063\u304b": 5435,
    "\u2581\u3059\u3063": 5436,
    "\u5f79\u306b\u7acb\u3064": 5437,
    "\u73fe\u91d1": 5438,
    "\u5468\u308a": 5439,
    "\u3092\u5931\u3046": 5440,
    "\u4ee3\u308f\u308a": 5441,
    "\u30f4\u30a3\u30f3": 5442,
    "\u6483\u3064": 5443,
    "\u4fdd\u8a3c": 5444,
    "\u8d77\u3053\u308a": 5445,
    "\u2581\u30ed\u30dc\u30c3\u30c8": 5446,
    "\u512a\u79c0\u306a": 5447,
    "\u306a\u3044\u308f\u3088": 5448,
    "\u3060\u3063\u305f\u3093\u3067\u3059": 5449,
    "\u2581\u3053\u308c\u3089": 5450,
    "\u2581\u3060\u308c": 5451,
    "\u5974\u304c": 5452,
    "\u592b\u4eba": 5453,
    "\u30dd\u30f3\u30c9": 5454,
    "\u5fc5\u8981\u3060": 5455,
    "\u611f\u3058\u305f": 5456,
    "\u5185\u3067": 5457,
    "\u89aa\u7236": 5458,
    "\u305d\u308c\u306b": 5459,
    "\u3084\u3081\u308d": 5460,
    "\u5834\u5408\u306f": 5461,
    "\u8abf\u3079\u3066": 5462,
    "\u7f8a": 5463,
    "\u4e88\u7d04": 5464,
    "\u30aa\u30f3\u30e9\u30a4\u30f3": 5465,
    "\u5897\u52a0": 5466,
    "\u8a00\u308f\u308c": 5467,
    "\u2581\u3046\u3046\u3093": 5468,
    "\u65b0\u805e": 5469,
    "\u6065\u305a\u304b\u3057\u3044": 5470,
    "\u30de\u30c3\u30af\u30b9": 5471,
    "\u6069": 5472,
    "\u5c0a\u656c": 5473,
    "\u4ed5\u4e8b\u3060": 5474,
    "\u904e\u304e\u305f": 5475,
    "\u58f0\u3092": 5476,
    "\u2581\u304a\u308c": 5477,
    "es": 5478,
    "\u6821\u9577": 5479,
    "\u306b\u4f1a\u3046": 5480,
    "\u2581\u6b63\u7fa9": 5481,
    "\u96a0\u308c\u3066": 5482,
    "\u4ed8": 5483,
    "\u2581\u5e0c\u671b": 5484,
    "\u6bba\u4eba\u4e8b\u4ef6": 5485,
    "\u2581\u6301\u3061": 5486,
    "\u9a5a\u304f": 5487,
    "\u306e\u3067\u306f\u306a\u304f": 5488,
    "\u30c0\u30e1\u3088": 5489,
    "\u307f\u307e\u3057\u3087\u3046": 5490,
    "\u91e3\u308a": 5491,
    "\u3044\u305f\u3057\u307e\u3059": 5492,
    "\u5408\u308f\u305b": 5493,
    "\u7e2e": 5494,
    "\u6613": 5495,
    "\u30bf\u30fc\u30b2\u30c3\u30c8": 5496,
    "\u3068\u601d\u3046\u3051\u3069": 5497,
    "\u3069\u3046\u3082": 5498,
    "\u3044\u3051\u306a\u3044": 5499,
    "\u2581\u898b\u308d": 5500,
    "\u8cea\u554f\u3092": 5501,
    "\u2581\u79c1\u306f\u3042\u306a\u305f": 5502,
    "\u30b2\u30fc": 5503,
    "\u3082\u3089\u3044\u305f\u3044": 5504,
    "\u306e\u8a00\u8449": 5505,
    "\u2581\u5f7c\u5973\u3068": 5506,
    "\u2581\u5927\u4e08\u592b\u3067\u3059\u304b": 5507,
    "\u2581\u30c0\u30f3": 5508,
    "\u2581\u8a71\u3057\u3066": 5509,
    "\u2581\u306a\u306e\u306b": 5510,
    "\u30d5\u30a9": 5511,
    "\u5f01": 5512,
    "\u2581\u3053\u306e\u91ce\u90ce": 5513,
    "\u821e\u53f0": 5514,
    "\u5831\u544a\u66f8": 5515,
    "\u610f\u56f3": 5516,
    "\u306e\u65b9\u306f": 5517,
    "\u8af8\u541b": 5518,
    "\u2581\u308f\u305f\u3057\u306f": 5519,
    "\u501f\u91d1": 5520,
    "\u6bd4\u8f03": 5521,
    "\u304c\u4e00\u756a": 5522,
    "\u305d\u3046\u3060\u3063\u305f": 5523,
    "\u304a\u3051": 5524,
    "\u7d4c\u55b6": 5525,
    "\u2581\u30c8\u30a4\u30ec": 5526,
    "\u4fb5\u5165": 5527,
    "\u623b\u308c": 5528,
    "\u2581\u3042\u306a\u305f\u305f\u3061": 5529,
    "\u6587\u53e5": 5530,
    "\u3059\u3079\u3066\u3092": 5531,
    "\u5b66\u6821\u3067": 5532,
    "\u2581\u3064\u3044": 5533,
    "\u3068\u3068\u3082\u306b": 5534,
    "\u3057\u305f\u4e8b": 5535,
    "\u6cb3": 5536,
    "\u306f\u9055\u3046": 5537,
    "\u2581\u307b\u3093\u306e": 5538,
    "\u691c\u7d22": 5539,
    "\u2581\u516c": 5540,
    "\u901a\u5831": 5541,
    "\u306b\u5165\u308c": 5542,
    "\u4f3c": 5543,
    "\u3061\u307e\u3063\u305f": 5544,
    "\u30b7\u30e5\u30fc": 5545,
    "an": 5546,
    "\u3067\u3057\u305f\u304c": 5547,
    "\u81ea\u5206\u305f\u3061": 5548,
    "\u9662\u9577": 5549,
    "\u4eca\u306f": 5550,
    "\u2581\u30a6\u30a3\u30eb": 5551,
    "\u2581\u5730\u7344": 5552,
    "\u306b\u306a\u3063\u3066\u3044\u308b": 5553,
    "\u2581\u3059\u307e\u3093": 5554,
    "\u9178\u7d20": 5555,
    "\u614e\u91cd": 5556,
    "\u2581\u88ab\u5bb3\u8005": 5557,
    "\u2581\u3053\u3063\u3061\u306b": 5558,
    "\u6240\u6709": 5559,
    "\u95a2\u4fc2\u306a\u3044": 5560,
    "\u30db\u30c3": 5561,
    "\u541b\u3068": 5562,
    "\u6f70": 5563,
    "\u6700\u7d42\u7684\u306b": 5564,
    "\u30ec\u30c3\u30c9": 5565,
    "\u2581\u7f8e\u3057\u3044": 5566,
    "\u4f55\u3092\u3057\u3066\u308b": 5567,
    "&": 5568,
    "\u9663": 5569,
    "\u52d8\u9055\u3044": 5570,
    "\u6d88\u8cbb": 5571,
    "\u2581\u3068\u3063\u3066\u3082": 5572,
    "\u306e\u69d8\u5b50": 5573,
    "\u4e0d\u80fd": 5574,
    "\u2581\u307f\u3093\u306a\u3067": 5575,
    "\u2581\u30ed\u30f3\u30c9\u30f3": 5576,
    "\u8a87\u308a": 5577,
    "\u6c7a\u3081\u308b": 5578,
    "\u6307\u63ee": 5579,
    "\u2581\u3069\u3046\u3067\u3082\u3044\u3044": 5580,
    "\u4ed5\u7d44\u307f": 5581,
    "\u2581\u305d\u3082\u305d\u3082": 5582,
    "\u6708\u306b": 5583,
    "\u30b9\u30af": 5584,
    "\u308b\u3060\u3051": 5585,
    "\u884c\u304d\u307e\u3057\u3087\u3046": 5586,
    "\u6cb9": 5587,
    "\u9811\u5f35\u3063\u3066": 5588,
    "\u2581\u5f7c\u306b\u306f": 5589,
    "\u2581\u5e30\u308b": 5590,
    "\u8986": 5591,
    "\u30c0\u30a6\u30f3": 5592,
    "\u8eab\u3092": 5593,
    "\u2581\u3048\u30fc": 5594,
    "\u81ea\u8eab\u306e": 5595,
    "\u2581\u6bd2": 5596,
    "\u2581\u30d1\u30f3": 5597,
    "\u30c8\u30ea\u30c3\u30af": 5598,
    "\u3092\u6bba\u3057\u3066": 5599,
    "\u63a8\u6e2c": 5600,
    "\u601d\u3063\u3066\u308b": 5601,
    "\u2581\u30d8\u30f3\u30ea\u30fc": 5602,
    "\u77e5\u3089\u305a": 5603,
    "\u2581\u732b": 5604,
    "\u9069": 5605,
    "\u3053\u3068\u306f\u3067\u304d\u306a\u3044": 5606,
    "\u2581\u7b2c\u4e00": 5607,
    "\u5f7c\u3089\u304c": 5608,
    "\u552f\u4e00": 5609,
    "\u30f4\u30a1\u30fc": 5610,
    "\u5730\u65b9": 5611,
    "\u3092\u7f6e\u3044\u3066": 5612,
    "\u30e8\u30f3": 5613,
    "\u2581\u58c1": 5614,
    "\u62d2\u5426": 5615,
    "\u2581\u753a": 5616,
    "\u2581\u30de\u30fc\u30af": 5617,
    "\u308b\u3082\u306e": 5618,
    "\u8ab0\u3060": 5619,
    "\u2581\u3048\u3048\u3068": 5620,
    "\u30b3\u30b9\u30c8": 5621,
    "\u5302\u3044": 5622,
    "\u304b\u3082\u3057\u308c\u3093": 5623,
    "\u6c11\u4e3b\u4e3b\u7fa9": 5624,
    "\u8a73\u3057\u3044": 5625,
    "\u8a71\u305d\u3046": 5626,
    "\u304c\u5fc5\u8981\u306a\u306e": 5627,
    "\u5f37\u5236": 5628,
    "\u5834\u306b": 5629,
    "\u2581\u610f\u8b58": 5630,
    "\u5fc3\u306b": 5631,
    "\u3064\u3082\u308a\u306f\u306a\u3044": 5632,
    "\u652f\u3048": 5633,
    "\u308f\u304b\u3089\u3093": 5634,
    "\u6c88": 5635,
    "\u30ef\u30af\u30c1\u30f3": 5636,
    "\u751f\u304d\u7269": 5637,
    "\u2581\u30c1\u30e3\u30fc\u30ea\u30fc": 5638,
    "\u3060\u308d\u3046\u304b": 5639,
    "\u69cb\u308f\u306a\u3044": 5640,
    "\u5f35\u308a": 5641,
    "\u6255\u3044": 5642,
    "\u8972": 5643,
    "\u3053\u306e\u3088\u3046\u306a": 5644,
    "\u30b7\u30eb": 5645,
    "\u30ce\u30fc\u30c8": 5646,
    "\u751f\u307e\u308c\u3066": 5647,
    "\u5730\u533a": 5648,
    "\u8a00\u3046\u306e": 5649,
    "\u58ca": 5650,
    "\u3061\u3083\u3093\u306f": 5651,
    "\u4e0a\u624b\u304f": 5652,
    "\u304a\u3044\u3066": 5653,
    "\u98df\u3079\u7269": 5654,
    "\u7740\u9678": 5655,
    "\u5c02\u9580\u5bb6": 5656,
    "\u3059\u308a": 5657,
    "\u2581\u305d\u306e\u4eba": 5658,
    "\u2581\u5371\u306a\u3044": 5659,
    "\u30d9\u30c3\u30c9": 5660,
    "\u2581\u4eca\u3067\u306f": 5661,
    "\u306e\u97f3": 5662,
    "\u30c9\u30e9\u30a4\u30d6": 5663,
    "\u307b\u3069\u306e": 5664,
    "\u30c1\u30f3": 5665,
    "\u611f\u8b1d\u3057\u307e\u3059": 5666,
    "\u5869": 5667,
    "\u89aa\u5207": 5668,
    "\u2581\u3053\u306e\u3088\u3046\u306b": 5669,
    "\u30d0\u30a4\u30aa": 5670,
    "\u675f": 5671,
    "\u30b7\u30b9\u30c6\u30e0\u3092": 5672,
    "\u8584": 5673,
    "\u30c8\u30ed": 5674,
    "\u2581\u521d": 5675,
    "\u3044\u3051\u308b": 5676,
    "\u307f\u3088\u3046": 5677,
    "\u4eba\u9593\u306f": 5678,
    "\u30c1\u30fc\u30ba": 5679,
    "\u305d\u308c\u3089": 5680,
    "\u3057\u305f\u3044\u306e": 5681,
    "\u7dba\u9e97": 5682,
    "\u5076\u7136": 5683,
    "\u3044\u3044\u304b\u306a": 5684,
    "\u78ba\u304b\u3081": 5685,
    "\u305f\u3063\u305f": 5686,
    "\u30ea\u30fc\u30c9": 5687,
    "\u559c": 5688,
    "\u6050": 5689,
    "\u3060\u306a\u3093\u3066": 5690,
    "\u6ce3\u3044\u3066": 5691,
    "\u7740\u304f": 5692,
    "\u3088\u3046\u3068\u3057\u305f": 5693,
    "\u990c": 5694,
    "\u2581\u30d4": 5695,
    "\u30aa\u30da": 5696,
    "\u9ebb": 5697,
    "\u3055\u3089\u306b": 5698,
    "\u5074\u306b": 5699,
    "\u653f\u7b56": 5700,
    "\u305f\u306e\u3067\u3059": 5701,
    "\u5893\u5730": 5702,
    "\u3084\u3063\u3066\u305f": 5703,
    "\u7591\u3044": 5704,
    "\u2581\u3053\u306e\u4e16\u754c": 5705,
    "\u805e\u3044\u3066\u308b": 5706,
    "\u4f0a": 5707,
    "\u914d\u7f6e": 5708,
    "\u5bc4": 5709,
    "\u3068\u601d\u3063\u3066\u3044\u308b": 5710,
    "\u3055\u3093\u3082": 5711,
    "\u30b9\u30bf\u30fc\u30c8": 5712,
    "\u4f55\u3068\u304b": 5713,
    "\u306e\u3053\u3068\u3067": 5714,
    "\u4e0a\u3052\u308b": 5715,
    "\u5ca1": 5716,
    "\u3069\u3046\u3060": 5717,
    "\u7406\u7531\u3092": 5718,
    "\u2581\u9152": 5719,
    "\u7af6\u4e89": 5720,
    "\u512a\u308c\u305f": 5721,
    "\u30c6\u30fc\u30de": 5722,
    "\u2581\u305d\u3046\u3060\u3063\u305f": 5723,
    "\u676f": 5724,
    "\u4fee": 5725,
    "\u3068\u3057\u3066\u306f": 5726,
    "\u52b4\u50cd": 5727,
    "\u5ac1": 5728,
    "\u30d6\u30ec": 5729,
    "\u2581\u751f\u5f92": 5730,
    "\u2581\u4f55\u304b\u3042\u3063\u305f": 5731,
    "\u706f": 5732,
    "\u304b\u308f\u3044\u305d\u3046": 5733,
    "\u30cb\u30c3\u30af": 5734,
    "\u2581\u30a4\u30f3": 5735,
    "\u2581\u3080\u3057\u308d": 5736,
    "\u2581\u9a5a\u3044\u305f": 5737,
    "\u2581E": 5738,
    "\u547c\u3093\u3060": 5739,
    "\u306a\u3044\u3067\u304f\u308c": 5740,
    "\u518d\u3073": 5741,
    "\u3045": 5742,
    "\u3044\u3044\u3051\u3069": 5743,
    "\u8170": 5744,
    "\u2581\u3082\u3057\u304b\u3057\u305f\u3089": 5745,
    "\u6e08\u3080": 5746,
    "\u3057\u305f\u3068\u304d": 5747,
    "\u3057\u306a\u3051\u308c\u3070\u306a\u3089\u306a\u3044": 5748,
    "\u30ca\u30f3\u30d0\u30fc": 5749,
    "\u2581\u304a\u5144\u3061\u3083\u3093": 5750,
    "\u604b\u611b": 5751,
    "\u6050\u308d\u3057\u3044": 5752,
    "\u98f2\u3093\u3060": 5753,
    "\u6545\u90f7": 5754,
    "\u306e\u4ed5\u696d": 5755,
    "\u306a\u304f\u3061\u3083": 5756,
    "\u304a\u3070\u3055\u3093": 5757,
    "\u30ab\u30ea": 5758,
    "\u30cb\u30e3": 5759,
    "\u6642\u304b\u3089": 5760,
    "\u3061\u3087\u3046\u3069": 5761,
    "\u884c\u304b\u306a\u304d\u3083": 5762,
    "\u3082\u3044\u308b": 5763,
    "\u6e56": 5764,
    "\u666e\u6bb5": 5765,
    "\u6982\u5ff5": 5766,
    "\u4e00\u77ac": 5767,
    "\u6163\u308c": 5768,
    "\u884c\u304f\u305e": 5769,
    "\u2581\u6a2a": 5770,
    "\u5b8c\u74a7\u306a": 5771,
    "\u4f0f\u305b": 5772,
    "\u4eba\u3067\u3059": 5773,
    "\u7406\u7531\u304c": 5774,
    "\u554f\u984c\u306b": 5775,
    "\u88c1": 5776,
    "\u7d0d": 5777,
    "\u30c8\u30fc\u30af": 5778,
    "\u3092\u5f97\u305f": 5779,
    "\u5927\u4f50": 5780,
    "\u904e\u3054\u3059": 5781,
    "\u7206\u7834": 5782,
    "\u2581\u3053\u306e\u524d": 5783,
    "\u6b63\u76f4": 5784,
    "\u2581\u5b6b": 5785,
    "\u2581\u6700\u4f4e": 5786,
    "\u30e1\u30f3\u30d0\u30fc": 5787,
    "\u767b\u9332": 5788,
    "\u9045\u523b": 5789,
    "\u2581\u50d5\u305f\u3061": 5790,
    "\u2581\u305f\u3060\u3044\u307e": 5791,
    "\u2581\u5915\u98df": 5792,
    "\u2581\u3053\u308c\u3060\u3051": 5793,
    "\u6bba\u4eba\u72af": 5794,
    "\u3060\u3063\u305f\u306a": 5795,
    "\u5b89\u5168\u306a": 5796,
    "\u2581\u305d\u308c\u4ee5\u4e0a": 5797,
    "\u3057\u305f\u3093\u3067\u3059": 5798,
    "\u6b63\u7fa9": 5799,
    "\u30d5\u30ea": 5800,
    "\u2581\u590f": 5801,
    "\u2581\u99c4\u76ee": 5802,
    "\u30ca\u30eb": 5803,
    "\u3079\u304d\u3060\u3063\u305f": 5804,
    "\u5f62\u3067": 5805,
    "\u2581\u7dca\u6025": 5806,
    "\u304c\u3044\u305f": 5807,
    "\u5348\u524d": 5808,
    "\u2581\u30ed\u30b7\u30a2": 5809,
    "or": 5810,
    "\u691c": 5811,
    "\u4e57\u308a\u8d8a\u3048": 5812,
    "\u30d7\u30ed\u30bb\u30b9": 5813,
    "\u4f4f\u6c11": 5814,
    "\u2581\u30ad\u30e0": 5815,
    "\u6226\u3063\u3066": 5816,
    "\u4e00\u3064\u306e": 5817,
    "\u90e8\u54c1": 5818,
    "\u304b\u3082\u306a": 5819,
    "\u2581\u30d0\u30f3": 5820,
    "\u5b50\u3069\u3082\u305f\u3061": 5821,
    "\u2581\u518d\u3073": 5822,
    "\u3068\u540c\u3058\u3088\u3046\u306b": 5823,
    "\u3044\u3044\u306e\u3088": 5824,
    "\u305f\u3044\u3093\u3060": 5825,
    "\u6bd4": 5826,
    "\u30ab\u30ea\u30d5\u30a9\u30eb\u30cb\u30a2": 5827,
    "\u2581\u6b63\u3057\u3044": 5828,
    "\u5a18\u304c": 5829,
    "\u6697\u3044": 5830,
    "\u8abf\u3079\u308b": 5831,
    "\u3089\u308c\u306a\u304b\u3063\u305f": 5832,
    "\u9e7f": 5833,
    "\u808c": 5834,
    "\u2581\u98db\u884c\u6a5f": 5835,
    "\u2581\u30c0\u30cb\u30fc": 5836,
    "\u6d88\u3048\u308b": 5837,
    "\u3064\u3044\u3066\u308b": 5838,
    "\u30dc\u30bf\u30f3": 5839,
    "\u306a\u308a\u307e\u3057\u305f": 5840,
    "\u601d\u308f\u306a\u3044": 5841,
    "\u91d1\u5c5e": 5842,
    "\u3067\u306f\u306a\u304b\u3063\u305f": 5843,
    "\u79f0": 5844,
    "\u2581\u30af\u30ea\u30b9\u30de\u30b9": 5845,
    "\u306f\u6b7b\u3093\u3060": 5846,
    "\u97f3\u3092": 5847,
    "\u5236\u5ea6": 5848,
    "\u2581\u5f85\u3063\u3066\u304f\u308c": 5849,
    "\u3042\u3063": 5850,
    "\u56e0": 5851,
    "\u697d\u3057\u304f": 5852,
    "\u8a3a": 5853,
    "\u308b\u307e\u3067": 5854,
    "\u9178": 5855,
    "\u2581\u4e00\u65b9": 5856,
    "\u30b8\u30e7\u30fc": 5857,
    "\u4e2d\u6bd2": 5858,
    "\u304c\u51fa\u308b": 5859,
    "\u306b\u306a\u308c\u3070": 5860,
    "\u2581\u4e45\u3057\u3076\u308a": 5861,
    "\u597d\u304d\u3060\u3063\u305f": 5862,
    "\u8a08\u753b\u3092": 5863,
    "\u96c6\u3081": 5864,
    "\u7279\u306b": 5865,
    "\u8cb7\u3044\u7269": 5866,
    "\u2581\u9811\u5f35\u308c": 5867,
    "\u2581\u7acb\u3061": 5868,
    "\u30eb\u30fc\u30e0": 5869,
    "\u898b\u3066\u3044\u308b": 5870,
    "\u95a2\u4e0e": 5871,
    "\u9670": 5872,
    "\u305f\u306e\u3088": 5873,
    "\u4ee3\u7406": 5874,
    "\u30e9\u30a4\u30d5": 5875,
    "\u2581\u30d3\u30c7\u30aa": 5876,
    "\u2581\u3059\u308b\u3068": 5877,
    "\u5408\u3063\u305f": 5878,
    "\u96c6\u307e\u3063\u3066": 5879,
    "\u899a\u609f": 5880,
    "\u5915\u98df": 5881,
    "\u8a8d\u3081\u308b": 5882,
    "\u30ed\u30fc\u30c9": 5883,
    "\u660e\u3089\u304b\u306b": 5884,
    "\u59cb\u672b": 5885,
    "\u8996\u899a": 5886,
    "\u2581\u4f55\u306e\u8a71": 5887,
    "\u6295": 5888,
    "\u653f\u6cbb\u5bb6": 5889,
    "\u2581\u9003\u3052\u308b": 5890,
    "\u30ae\u30fc": 5891,
    "\u96d1": 5892,
    "\u2581\u5e73": 5893,
    "\u30de\u30cd": 5894,
    "\u62db": 5895,
    "\u30a4\u30f3\u30bf\u30d3\u30e5\u30fc": 5896,
    "\u5854": 5897,
    "\u9000\u5c48": 5898,
    "\u30db\u30f3": 5899,
    "\u3088\u3046\u306b\u306a\u308b": 5900,
    "\u3067\u3042\u308b\u3068": 5901,
    "\u4e0d\u6b63": 5902,
    "\u50cd\u3044\u3066\u308b": 5903,
    "\u8aac": 5904,
    "\u2581\u305d\u306e\u305f\u3081\u306b": 5905,
    "\u30b1\u30c4": 5906,
    "\u2581\u305d\u3053\u306f": 5907,
    "\u88f8": 5908,
    "\u2581\u6b8b\u5ff5\u306a\u304c\u3089": 5909,
    "\u9a12\u304e": 5910,
    "\u8eab\u5143": 5911,
    "\u76ee\u6483\u8005": 5912,
    "\u2581\u3053\u3093\u306a\u4e8b": 5913,
    "\u6b7b\u4f53": 5914,
    "\u5c0f\u3055\u304f": 5915,
    "\u8a71\u3057\u3066\u308b": 5916,
    "\u6c17\u306b\u5165\u3063\u305f": 5917,
    "\u3060\u3063\u305f\u306e\u3067\u3059": 5918,
    "\u2581\u6bce\u5e74": 5919,
    "\u83ef": 5920,
    "\u2581\u5931\u6557": 5921,
    "\u5b9a\u7fa9": 5922,
    "\u5c3d\u304f": 5923,
    "\u6559\u3048\u305f": 5924,
    "\u2581\u5974\u304c": 5925,
    "\u30a7": 5926,
    "\u3069\u3053\u306b\u3044\u308b": 5927,
    "\u60c5\u5831\u306f": 5928,
    "\u3089\u308c\u3066\u308b": 5929,
    "\u7f6e": 5930,
    "\u5f93\u696d\u54e1": 5931,
    "\u5de8\u4eba": 5932,
    "\u2581\u30c1\u30a7": 5933,
    "\u304a\u524d\u306b": 5934,
    "\u88c2": 5935,
    "\u9593\u9055\u3063\u305f": 5936,
    "\u306b\u4f1a\u3044\u306b": 5937,
    "\u672d": 5938,
    "\u306e\u307b\u3046\u304c": 5939,
    "\u8272\u3005": 5940,
    "\u5104\u30c9\u30eb": 5941,
    "\u7518": 5942,
    "\u30ad\u30df": 5943,
    "\u305d\u3053\u3067": 5944,
    "\u82f1\u56fd": 5945,
    "\u3064\u3082\u308a\u3060\u3063\u305f": 5946,
    "\u2581\u305a\u3044\u3076\u3093": 5947,
    "\u5439\u304d": 5948,
    "\u2581\u958b\u3051": 5949,
    "\u2581\u30a2\u30a2": 5950,
    "\u4f53\u306f": 5951,
    "\u505a": 5952,
    "\u8ca7\u56f0": 5953,
    "\u51b7": 5954,
    "\u5831": 5955,
    "\u982d\u306e": 5956,
    "\u635c\u3057": 5957,
    "\u2581\u5468\u308a": 5958,
    "\u2581\u9055\u3044\u307e\u3059": 5959,
    "\u3059\u307f\u307e\u305b\u3093": 5960,
    "\u4e8c\u3064\u306e": 5961,
    "\u3068\u3057\u305f": 5962,
    "\u3092\u8ffd\u3063\u3066": 5963,
    "\u2581\u3069\u3053\u304b\u3089": 5964,
    "\u3066\u3084\u308b": 5965,
    "\u8fd8": 5966,
    "\u7f6a\u3092": 5967,
    "\u2581\u540c\u6642\u306b": 5968,
    "\u7956\u7236": 5969,
    "\u9001\u3063\u305f": 5970,
    "\u2581\u3042\u3093\u307e\u308a": 5971,
    "\u2581\u30d5\u30a1": 5972,
    "\u2581\u7121\u99c4": 5973,
    "\u81ea\u4f53": 5974,
    "\u6c17\u306b\u3057\u306a\u3044": 5975,
    "\u4f1a\u5834": 5976,
    "\u2581\u6765\u3066": 5977,
    "\u2581\u98df\u4e8b": 5978,
    "\u7bc0": 5979,
    "\u307e\u3042": 5980,
    "\u8d08\u308a\u7269": 5981,
    "\u899a\u3048\u3066": 5982,
    "\u30d8\u30ea": 5983,
    "\u4f1a\u3044\u305f\u3044": 5984,
    "\u306a\u3044\u3060\u308d\u3046": 5985,
    "\u266b": 5986,
    "\u2581\u4f55\u3057\u3066\u308b": 5987,
    "\u5bc2\u3057\u3044": 5988,
    "\u6b7b\u8005": 5989,
    "\u5834\u3067": 5990,
    "\u2581\u6c37": 5991,
    "\u2581\u305d\u306e\u3068\u304a\u308a": 5992,
    "\u2581\u8a08\u753b": 5993,
    "\u60a3\u8005\u306e": 5994,
    "\u7956\u6bcd": 5995,
    "\u3060\u3051\u3067\u3082": 5996,
    "\u6563\u6b69": 5997,
    "\u3068\u3057\u3066\u306e": 5998,
    "\u3042\u308b\u306e\u304b": 5999,
    "\u8abf\u3079\u305f": 6000,
    "\u306b\u9023\u7d61": 6001,
    "\u4fe1\u3058\u3089\u308c\u306a\u3044": 6002,
    "\u4e00\u5ea6\u3082": 6003,
    "\u30ac\u30a4": 6004,
    "\u2581\u30d0\u30b9": 6005,
    "\u2581\u3054\u4e3b\u4eba": 6006,
    "\u30c7\u30e5": 6007,
    "\u30c0\u30e1\u30fc\u30b8": 6008,
    "\u2581\u3053\u306e\u5199\u771f": 6009,
    "\u30b9\u30bf\u30c3\u30d5": 6010,
    "\u2581\u8ab0\u306e": 6011,
    "\u8457": 6012,
    "\u30b5\u30f3\u30bf": 6013,
    "\u6368\u3066\u305f": 6014,
    "\u5c04": 6015,
    "\u672c\u4eba": 6016,
    "\u30b0\u30ec": 6017,
    "\u2581\u672a": 6018,
    "\u6fc0": 6019,
    "\u643a\u5e2f\u96fb\u8a71": 6020,
    "\u5e78\u798f": 6021,
    "\u7d66\u6599": 6022,
    "\u624b\u4f1d\u3044": 6023,
    "\u2581\u4f55\u3088": 6024,
    "\u3063\u3071": 6025,
    "\u30d7\u30ea": 6026,
    "\u304a\u3044\u3067": 6027,
    "\u79c1\u305f\u3061\u306b": 6028,
    "\u30cb\u30e5\u30fc\u30e8\u30fc\u30af": 6029,
    "\u3059\u308b\u3064\u3082\u308a": 6030,
    "\u2581\u4e00\u751f": 6031,
    "\u609f": 6032,
    "\u898b\u65b9": 6033,
    "\u7802\u6f20": 6034,
    "\u805e\u304b\u305b\u3066": 6035,
    "\u85ac\u7269": 6036,
    "\u98f2\u3081": 6037,
    "\u898b\u305b\u3066": 6038,
    "\u904b\u8ee2\u624b": 6039,
    "\u7236\u3055\u3093": 6040,
    "\u2581\u96e8": 6041,
    "\u2581\u30b3\u30f3\u30d4\u30e5\u30fc\u30bf": 6042,
    "\u6b63\u3057\u304f": 6043,
    "\u2581\u4eca\u56de": 6044,
    "\u3059\u3093\u3060": 6045,
    "\u8a00\u3063\u305f\u306e": 6046,
    "\u51b7\u305f\u3044": 6047,
    "\u5fa9\u6d3b": 6048,
    "\u72ec\u308a": 6049,
    "\u3069\u3046\u3044\u3046": 6050,
    "\u7bc9": 6051,
    "\u9003\u3052\u3066": 6052,
    "\u2581\u79c1\u306b\u3068\u3063\u3066": 6053,
    "\u7c89": 6054,
    "\u30fc\u30ba": 6055,
    "\u7684\u306b\u306f": 6056,
    "\u696d\u754c": 6057,
    "\u3068\u3044\u3063\u3066": 6058,
    "\u306e\u8eca": 6059,
    "\u53c8": 6060,
    "\u306e\u3046": 6061,
    "\u6750\u6599": 6062,
    "\u2581\u901a\u5e38": 6063,
    "\u308b\u3053\u3068\u306f": 6064,
    "\u80b2\u3063\u305f": 6065,
    "\u2581\u5f37": 6066,
    "\u8cbb\u7528": 6067,
    "\u53e3\u306b": 6068,
    "\u2581\u53ef\u611b\u3044": 6069,
    "\u2581\u3054\u89a7": 6070,
    "\u7248": 6071,
    "\u6b32": 6072,
    "\u77ed\u3044": 6073,
    "\u7de0\u3081": 6074,
    "\u8aad\u3093\u3060": 6075,
    "\u5f85\u6a5f": 6076,
    "\u306a\u3044\u3093\u3067\u3059": 6077,
    "\u2581\u305d\u3046\u3067\u3059\u306d": 6078,
    "\u884c\u304f\u308f": 6079,
    "\u2581\u3044\u306a\u3044": 6080,
    "\u2581\u3044\u304f\u3064\u304b": 6081,
    "\u4eba\u304c\u3044\u308b": 6082,
    "\u500b\u4eba\u7684\u306a": 6083,
    "\u3060\u3063\u305f\u3088": 6084,
    "\u2581\u30c7\u30fc\u30c8": 6085,
    "\u7a2e\u985e": 6086,
    "\u81ea\u3089": 6087,
    "\u306e\u52b9\u679c": 6088,
    "\u30ab\u30e9": 6089,
    "\u2581\u5b50\u4f9b\u306e": 6090,
    "\u65e6\u90a3": 6091,
    "\u6bd4\u3079": 6092,
    "\u306f\u3058\u3081": 6093,
    "\u2581\u672c\u65e5": 6094,
    "\u3068\u306a\u3063\u3066": 6095,
    "\u9014\u4e2d\u3067": 6096,
    "\u7832": 6097,
    "\u2581\u30d5\u30d5\u30d5": 6098,
    "\u30b9\u306f": 6099,
    "\u2581\u3042\u308b\u65e5": 6100,
    "\u306a\u3069\u306e": 6101,
    "\u3092\u4fe1\u3058\u3066": 6102,
    "\u5168\u3066\u304c": 6103,
    "\u304d\u305f\u306e": 6104,
    "\u2581\u904b": 6105,
    "\u3068\u601d\u3063\u3066\u3044\u305f": 6106,
    "\u3044\u304f\u3064\u304b": 6107,
    "\u306a\u3093\u3060\u3063\u3066": 6108,
    "\u2581\u3053\u3053\u3092": 6109,
    "\u771f\u3063": 6110,
    "\u30a6\u30a3\u30eb\u30b9": 6111,
    "\u7d42\u308f\u3089\u305b": 6112,
    "\u56de\u53ce": 6113,
    "\u6c7a\u3057\u3066": 6114,
    "sa": 6115,
    "\u306b\u51fa": 6116,
    "\u306f\u8ab0\u3060": 6117,
    "\u2581\u6b6f": 6118,
    "\u2581\u3060\u3081\u3060": 6119,
    "\u3092\u4fe1\u3058\u308b": 6120,
    "\u5b8c\u5168": 6121,
    "\u3063\u3066\u3070": 6122,
    "\u6b63\u89e3": 6123,
    "\u5e7b": 6124,
    "\ue4c6": 6125,
    "\u56da\u4eba": 6126,
    "\u2581\u30a8\u30cd\u30eb\u30ae\u30fc": 6127,
    "\u306a\u3044\u3068\u3044\u3051\u306a\u3044": 6128,
    "\u73fe\u4ee3": 6129,
    "\u3063\u304d\u308a": 6130,
    "\u3059\u3093\u306a": 6131,
    "km": 6132,
    "FBI": 6133,
    "\u5973\u306f": 6134,
    "\u5fc5\u8981\u306a": 6135,
    "\u2581\u9593\u9055\u3044\u306a\u3044": 6136,
    "\u306f\u305a\u3088": 6137,
    "\u8cb8": 6138,
    "\u5c0b\u554f": 6139,
    "\u304c\u8d77\u304d\u305f": 6140,
    "\u4f5c\u5bb6": 6141,
    "\u3092\u3064\u3051\u3066": 6142,
    "\u8a71\u3055\u306a\u3044": 6143,
    "\u30ea\u30fc\u30f3": 6144,
    "\u5e02\u9577": 6145,
    "\u8ae6\u3081": 6146,
    "\u3088\u308d\u3057\u304f": 6147,
    "\u2581\u8d77\u304d\u3066": 6148,
    "\u4ea4\u901a": 6149,
    "\u3082\u3089\u304a\u3046": 6150,
    "400": 6151,
    "\u4f4e\u3044": 6152,
    "\u7532": 6153,
    "\u2581\u6614\u306e": 6154,
    "\u30a4\u30bf\u30ea\u30a2": 6155,
    "\u8981\u8acb": 6156,
    "\u30c1\u30e5": 6157,
    "\u2581P": 6158,
    "\u2581\u4e16\u754c\u4e2d": 6159,
    "\u7f6e\u304f": 6160,
    "\u5bdf": 6161,
    "\u3063\u3059\u304b": 6162,
    "\u3092\u898b\u305b\u3066": 6163,
    "\u2581\u5076\u7136": 6164,
    "\u2581\u30b8\u30a7\u30a4": 6165,
    "\u2581\u30aa\u30fc\u30b1\u30fc": 6166,
    "\u5c4b\u6839": 6167,
    "\u8077\u5834": 6168,
    "\u6b63\u5e38": 6169,
    "\u9577\u5b98": 6170,
    "\u6c17\u304c\u3059\u308b": 6171,
    "\u306e\u534a\u5206": 6172,
    "\u2581\u5f7c\u7b49": 6173,
    "\u4ed8\u304d\u5408\u3063\u3066": 6174,
    "\u2581\u623b\u3063\u3066": 6175,
    "\u3093\u3067\u3057\u3087\u3046\u304b": 6176,
    "300": 6177,
    "\u6bcd\u3055\u3093": 6178,
    "\u2581\u4e0a\u624b\u304f": 6179,
    "\u2581\u77e5\u308b": 6180,
    "\u88dc": 6181,
    "\u2581\u30d1\u30d1\u306f": 6182,
    "\u2581\u7206\u5f3e": 6183,
    "\u7981": 6184,
    "\u30db\u30ef\u30a4\u30c8": 6185,
    "\u7db2": 6186,
    "\u4f59\u88d5": 6187,
    "\u89e3\u6c7a\u7b56": 6188,
    "\u3089\u305b\u308b": 6189,
    "\u5f37\u529b\u306a": 6190,
    "\u30a3": 6191,
    "\u5e38\u306b": 6192,
    "\u3061\u3083\u3093\u304c": 6193,
    "\u2581\u91cd\u8981\u306a": 6194,
    "\u304b\u3089\u6765\u305f": 6195,
    "\u8868\u9762": 6196,
    "\u6c17\u3092\u4ed8\u3051": 6197,
    "\u3092\u51fa\u3057\u3066": 6198,
    "\u306b\u3067\u3082": 6199,
    "\u2581\u50d5\u306b\u306f": 6200,
    "\u6b8b\u3063\u3066\u308b": 6201,
    "\u2581\u5b9f\u306b": 6202,
    "\u682a": 6203,
    "\u4f11\u61a9": 6204,
    "\u65d7": 6205,
    "\u2581\u5144\u8cb4": 6206,
    "\u2581\u7279\u5225": 6207,
    "\u306b\u3042\u308a\u307e\u3059": 6208,
    "\u78ba\u4fdd": 6209,
    "\u884c\u3046": 6210,
    "\u52b9": 6211,
    "\u3092\u6b62\u3081\u308b": 6212,
    "\u8010\u3048": 6213,
    "\u3089\u3059": 6214,
    "\u30a6\u30bd": 6215,
    "\u88ab\u5bb3": 6216,
    "\u6b7b\u306d": 6217,
    "\u9078\u3093\u3060": 6218,
    "\u2581\u3069\u3046\u306a\u308b": 6219,
    "\u884c\u3051\u306a\u3044": 6220,
    "\u3084\u308d": 6221,
    "\u9f8d": 6222,
    "\u795d": 6223,
    "\u771f\u3093\u4e2d": 6224,
    "\u90fd\u5408": 6225,
    "\u3076\u308a": 6226,
    "\u2581\u3069\u3046\u3044\u3046\u610f\u5473": 6227,
    "\u2581\u6307": 6228,
    "\u6e21\u3057": 6229,
    "\u30c1\u30e7\u30a6": 6230,
    "\u3092\u653b\u6483": 6231,
    "\u2581\u9006": 6232,
    "\u2581\u6b74\u53f2": 6233,
    "\u306b\u306a\u3063\u3066\u3044\u307e\u3059": 6234,
    "\u2581\u5b89": 6235,
    "\u306e\u4eba\u304c": 6236,
    "\u795e\u69d8": 6237,
    "\u2581\u307e\u305a\u3044": 6238,
    "\u3044\u3044\u3093\u3060": 6239,
    "\u5fc5\u305a": 6240,
    "\u30a4\u30d9\u30f3\u30c8": 6241,
    "\u8aa4": 6242,
    "\u30c0\u30eb": 6243,
    "\u6c7a\u3081\u3066": 6244,
    "\u8a00\u3046\u4e8b": 6245,
    "\u9806": 6246,
    "\u3093\u306a\u3089": 6247,
    "\u306a\u3044\u3060\u308d": 6248,
    "\u30c7\u30a3\u30f3\u30b0": 6249,
    "\u5b50\u306f": 6250,
    "\u2581\u884c\u304d\u307e\u3057\u3087\u3046": 6251,
    "\u3054\u3068\u306b": 6252,
    "\u305b\u305a": 6253,
    "\u9928": 6254,
    "\u3092\u63a2\u3057\u3066\u308b": 6255,
    "\u4e57\u308c": 6256,
    "\u691c\u8a0e": 6257,
    "\u51fa\u53e3": 6258,
    "\u3069\u3061\u3089": 6259,
    "\u307e\u3057\u3087\u3046\u304b": 6260,
    "\u5f85\u3063\u305f": 6261,
    "\u65b0\u305f\u306a": 6262,
    "\u60c5\u5831\u304c": 6263,
    "\u3063\u305f\u3093\u3060": 6264,
    "\u73fe\u308c\u305f": 6265,
    "\u3044\u307e\u3059\u304b": 6266,
    "\u8fba\u308a": 6267,
    "\u3092\u51fa\u3059": 6268,
    "\u3059\u308b\u3053\u3068\u304c": 6269,
    "\u5973\u304c": 6270,
    "\u8a71\u305b\u308b": 6271,
    "\u816b\u760d": 6272,
    "\u9806\u8abf": 6273,
    "\u610f\u5fd7": 6274,
    "\u60c5\u71b1": 6275,
    "\u9023\u7d61\u3092": 6276,
    "\u306b\u3057\u3088\u3046": 6277,
    "\u7d50\u69cb": 6278,
    "\u6559\u3048\u3066\u304f\u308c\u305f": 6279,
    "\u2581\u306a\u3093\u3060\u3088": 6280,
    "\u3053\u308c\u3089\u306e": 6281,
    "\u8a17": 6282,
    "\u4e8b\u4ef6\u3092": 6283,
    "\u2581\u5c11\u5e74": 6284,
    "\u2581\u3059\u3070\u3089\u3057\u3044": 6285,
    "\u5e83\u3044": 6286,
    "\u6700\u60aa": 6287,
    "\u2581\u9ad8\u6821": 6288,
    "\u305f\u6642": 6289,
    "\u307b\u3093": 6290,
    "\u523a\u6fc0": 6291,
    "\u5b88\u3063\u3066": 6292,
    "\u3067\u304d\u308b\u3053\u3068": 6293,
    "\u6749": 6294,
    "\u5e74\u751f": 6295,
    "\u2581\u6700\u521d\u304b\u3089": 6296,
    "\u30de\u30fc\u30d5\u30a3\u30fc": 6297,
    "23": 6298,
    "\u3044\u307e": 6299,
    "\u77e5\u308c": 6300,
    "\u6012": 6301,
    "\u304a\u304d": 6302,
    "\u4e00\u5207": 6303,
    "\u30f3\u30ba": 6304,
    "\u6b8b\u5ff5\u3060": 6305,
    "\u4ed6\u4eba": 6306,
    "\u3084\u3089\u308c\u305f": 6307,
    "\u306b\u79fb": 6308,
    "\u2581\u77e5\u3089\u306a\u304b\u3063\u305f": 6309,
    "\u30b9\u30b3": 6310,
    "\u304a\u4e92\u3044": 6311,
    "\u4eba\u3005\u306e": 6312,
    "\u2581\u30d3\u30fc\u30eb": 6313,
    "\u9ebb\u85ac": 6314,
    "\u9023\u7d9a": 6315,
    "\u4f3a": 6316,
    "\u6210\u7e3e": 6317,
    "\u62f7\u554f": 6318,
    "\u624b\u4f1d\u3046": 6319,
    "\u3059\u308b\u3088\u3046": 6320,
    "\u8005\u305f\u3061": 6321,
    "\u30ea\u30f3\u30af": 6322,
    "\u767b": 6323,
    "\u2581\u7d42\u308f\u3063\u305f": 6324,
    "\u258140": 6325,
    "\u2581\u547d\u4ee4": 6326,
    "\u30de\u30b9\u30bf\u30fc": 6327,
    "\u30d5\u30a3\u30f3": 6328,
    "\u6e08\u3093\u3060": 6329,
    "\u3057\u3066\u3057\u307e\u3063\u305f": 6330,
    "\u5831\u916c": 6331,
    "\u628a\u63e1": 6332,
    "\u30ae\u30e3\u30f3\u30b0": 6333,
    "\u8ecd\u306e": 6334,
    "\u4f1a\u3044": 6335,
    "\u8eca\u306e": 6336,
    "\u2581\u5185": 6337,
    "\u304b\u4f55\u304b": 6338,
    "\u3069\u308c": 6339,
    "\u2581\u6628\u65e5\u306e": 6340,
    "\u4e0e\u3048": 6341,
    "\u3054\u3081\u3093\u306a\u3055\u3044": 6342,
    "\u5099\u3048": 6343,
    "\u899a": 6344,
    "\u8eca\u304c": 6345,
    "\u628a": 6346,
    "\u5984\u60f3": 6347,
    "\u80b2": 6348,
    "\u9589\u9396": 6349,
    "\u3059\u308b\u306e\u304c": 6350,
    "\u2581\u30de\u30de\u306f": 6351,
    "\u30c4\u30fc\u30eb": 6352,
    "\u3060\u3068\u601d\u3063\u305f": 6353,
    "\u8cb8\u3057\u3066": 6354,
    "\u5929\u56fd": 6355,
    "\u2581\u304a\u524d\u9054": 6356,
    "\u5e30\u308d\u3046": 6357,
    "\u8aa0": 6358,
    "\u4ea1": 6359,
    "\u30e1\u30f3\u30c8": 6360,
    "\u5c55\u958b": 6361,
    "\u8ad6\u6587": 6362,
    "\u30c1\u30b1\u30c3\u30c8": 6363,
    "\u8a9e\u308a": 6364,
    "\u3069\u3046\u306a\u308b\u304b": 6365,
    "\u2581\u6559\u3048\u3066\u304f\u308c": 6366,
    "\u258111": 6367,
    "\u30d3\u30a2": 6368,
    "\u2581\u3069\u3046\u3059\u308c\u3070": 6369,
    "\u2581\u307f\u3093\u306a\u304c": 6370,
    "\u2581\u307b\u307c": 6371,
    "\u7af9": 6372,
    "\u3092\u8abf\u3079": 6373,
    "\u5883": 6374,
    "\u2581\u3069\u308c\u304f\u3089\u3044": 6375,
    "\u3092\u8abf\u3079\u3066": 6376,
    "\u984c": 6377,
    "\u5927\u5b66\u306e": 6378,
    "\u5168\u54e1\u304c": 6379,
    "\u30bd\u30d5\u30c8": 6380,
    "\u2501": 6381,
    "\u4f59\u8a08": 6382,
    "\u4f55\u4eba": 6383,
    "\u306e\u751f\u6d3b": 6384,
    "\u51fa\u3066\u304d\u305f": 6385,
    "\u756a\u76ee\u306e": 6386,
    "\u30cf\u30a6\u30b9": 6387,
    "\u304a\u304b\u3057\u306a": 6388,
    "\u3063\u3066\u3053\u3068\u306f": 6389,
    "\u30de\u30b9": 6390,
    "\u78ba\u5b9f\u306b": 6391,
    "\u2581\u5bb9\u7591\u8005": 6392,
    "\u8ff0\u3079": 6393,
    "\u8abf\u6574": 6394,
    "\u7d50\u3073": 6395,
    "\u597d\u307f": 6396,
    "\u5831\u9053": 6397,
    "\u4f55\u4eba\u304b": 6398,
    "\u30ea\u30aa": 6399,
    "\u3053\u3068\u3067\u3057\u3087\u3046": 6400,
    "\u4e9c": 6401,
    "\u898b\u3066\u305f": 6402,
    "\u8cb8\u3057": 6403,
    "\u3089\u308c\u3066\u3044\u307e\u3059": 6404,
    "\u30b0\u30e9\u30b9": 6405,
    "\u5211\u52d9\u6240\u306b": 6406,
    "\u3092\u3082\u3063\u3066": 6407,
    "\u76ae\u819a": 6408,
    "\u30b7\u30c6\u30a3": 6409,
    "\u6db2": 6410,
    "\u60a3\u8005\u3055\u3093": 6411,
    "\u8b70\u4f1a": 6412,
    "\u4fe1\u3058\u3066": 6413,
    "\u2581\u697d\u3057\u307f": 6414,
    "\u5931\u6557\u3057\u305f": 6415,
    "\u304b\u306a\u3044": 6416,
    "\u30d5\u30ed": 6417,
    "\u2581\u591a": 6418,
    "\u2581\u8208\u5473": 6419,
    "\u73fe\u5834\u306b": 6420,
    "\u2581\u82f1\u8a9e": 6421,
    "\u2581\u72af\u7f6a": 6422,
    "\u2581\u9280\u884c": 6423,
    "\u5dfb": 6424,
    "\u516b": 6425,
    "\u306d\u3070": 6426,
    "\u59cb\u307e\u308b": 6427,
    "\u98db\u3070": 6428,
    "\u81ea\u52d5\u8eca": 6429,
    "\u6c17\u3092\u3064\u3051": 6430,
    "\u2581\u30d3\u30b8\u30cd\u30b9": 6431,
    "\u2581\u88ab\u5bb3\u8005\u306e": 6432,
    "\u60aa\u5922": 6433,
    "\u2581\u65b0\u805e": 6434,
    "\u9759": 6435,
    "\u306e\u672c": 6436,
    "\u5b50\u3061\u3083\u3093": 6437,
    "22": 6438,
    "\u2581\u3069\u3093\u306a\u306b": 6439,
    "\u57fa\u6e96": 6440,
    "\u8f38\u9001": 6441,
    "\u77e5\u3063\u3066\u307e\u3059": 6442,
    "\u7e70\u308a\u8fd4\u3057": 6443,
    "\u2581\u76f4": 6444,
    "\u5165\u624b": 6445,
    "\u306e\u9803": 6446,
    "\u2581\u52a9\u3051\u3066\u304f\u308c": 6447,
    "\u2581\u96ea": 6448,
    "\u304a\u4f1a\u3044": 6449,
    "\u2581\u3053\u308c\u3089\u306f": 6450,
    "\u771f\u5b9f\u3092": 6451,
    "\u4ed8\u3051\u308b": 6452,
    "\u2581\u8b66\u5bdf\u306f": 6453,
    "\u67c4": 6454,
    "\u3069\u306e": 6455,
    "\u2581\u751f\u304d\u3066\u308b": 6456,
    "\u30b9\u30b3\u30c3\u30c8": 6457,
    "\u2581\u899a\u3048\u3066": 6458,
    "\u773a\u3081": 6459,
    "\u6a5f\u5668": 6460,
    "\u6b7b\u3092": 6461,
    "\u4e0d\u6e80": 6462,
    "\u30a2\u30f3\u30c9": 6463,
    "\u2581\u30be\u30f3\u30d3": 6464,
    "\u63cf\u3044\u3066": 6465,
    "\u602a\u3057\u3044": 6466,
    "\u76ee\u306f": 6467,
    "\u57fa\u672c\u7684\u306b": 6468,
    "\u2581\u30d5\u30f3": 6469,
    "\u2581\u7a93": 6470,
    "\u306e\u52d5\u304d": 6471,
    "\u8cb7\u3046": 6472,
    "\u3059\u308b\u3082\u306e": 6473,
    "\u539a": 6474,
    "\u30bf\u30a4\u30df\u30f3\u30b0": 6475,
    "\u306e\u5b50\u4f9b": 6476,
    "\u306f\u672c\u5f53\u306b": 6477,
    "35": 6478,
    "\u30b9\u30ad\u30e3\u30f3": 6479,
    "\u2581\u305d\u306e\u5b50": 6480,
    "\u2581\u81ea\u5df1": 6481,
    "\u30d1\u30af": 6482,
    "\u6483\u3063\u305f": 6483,
    "\u307f\u307e\u3057\u305f": 6484,
    "\u30c6\u30a3\u30b9": 6485,
    "\u2581\u304a\u524d\u306b\u306f": 6486,
    "\u7537\u306b": 6487,
    "\u307f\u305f\u3044\u306d": 6488,
    "\u611f\u52d5": 6489,
    "\u3057\u3066\u3044\u304f": 6490,
    "\u884c\u3051\u3070": 6491,
    "\u5a18\u3055\u3093": 6492,
    "ro": 6493,
    "\u50d5\u3092": 6494,
    "\u306e\u6226\u3044": 6495,
    "\u2581\u751f\u547d": 6496,
    "\u30de\u30b8\u30c3\u30af": 6497,
    "\u3092\u9078\u3076": 6498,
    "\u30a4\u30f3\u30bf\u30fc\u30cd\u30c3\u30c8": 6499,
    "\u2581\u50d5\u3089": 6500,
    "\u3069\u3053\u304b\u3067": 6501,
    "\u6b8b\u3057\u305f": 6502,
    "\u6c17\u4ed8\u3044\u305f": 6503,
    "\u624b\u914d": 6504,
    "\u2581\u305d\u306e\u524d\u306b": 6505,
    "\u91ce\u7403": 6506,
    "\u2581\u3053\u306e\u4ef6": 6507,
    "\u2581\u304a\u3063\u3068": 6508,
    "\u2581\u6bba\u3055\u308c\u305f": 6509,
    "\u3092\u547c\u3073": 6510,
    "\u2581\u30cf\u30ed\u30eb\u30c9": 6511,
    "\u6642\u4ee3\u306b": 6512,
    "st": 6513,
    "\u30d0\u30c8\u30eb": 6514,
    "\u30a6\u30a9\u30eb": 6515,
    "\u306d\u30fc": 6516,
    "\u9045\u308c": 6517,
    "\u30b9\u30a4\u30c3\u30c1": 6518,
    "\u76ee\u899a\u3081": 6519,
    "\u2581\u5148\u307b\u3069": 6520,
    "fbi": 6521,
    "\u964d\u308a\u3066": 6522,
    "\u304a\u3063\u3057\u3083": 6523,
    "\u258117": 6524,
    "\u623b\u3059": 6525,
    "\u3092\u805e\u3044\u3066": 6526,
    "\u610f\u601d": 6527,
    "\u2581\u3042\u3093\u305f\u306b": 6528,
    "\u53d6\u308c": 6529,
    "\u4e0e": 6530,
    "\u30a6\u30eb": 6531,
    "\u2581\u4e21\u65b9": 6532,
    "\u51fa\u6765\u3066": 6533,
    "ip": 6534,
    "\u3063\u3066\u8a00\u3063\u3066\u305f": 6535,
    "\u30a4\u30e9": 6536,
    "\u2581\u3066\u3081\u3048": 6537,
    "\u8105\u8feb": 6538,
    "\u3068\u3053\u308d\u3060": 6539,
    "\u5c0f\u8aac": 6540,
    "\u6765\u3066\u304f\u308c\u305f": 6541,
    "\u3057\u3066\u307b\u3057\u3044": 6542,
    "\u2581\u598a\u5a20": 6543,
    "\u4ed8\u3051\u305f": 6544,
    "\u3067\u3054\u3056\u3044\u307e\u3059": 6545,
    "\u5b6b": 6546,
    "\u958b\u3051\u3066": 6547,
    "\u3063\u3066\u3070\u3088": 6548,
    "\u30fc\u30b7\u30e7\u30f3": 6549,
    "\u2581\u898b\u3064\u3051": 6550,
    "\u3084\u304c\u3063\u3066": 6551,
    "\u771f\u4f3c": 6552,
    "\u56de\u76ee": 6553,
    "\u2581\u5e02\u6c11": 6554,
    "\u4e21": 6555,
    "\u898b\u3064\u3051\u3066": 6556,
    "\u3055\u308c\u3066\u305f": 6557,
    "\u305f\u3063\u3066": 6558,
    "\u3060\u308d\u3046\u3068": 6559,
    "\u2581\u3084\u3081\u3066\u304f\u308c": 6560,
    "\u30af\u30ec": 6561,
    "\u3055\u305b\u308d": 6562,
    "\u4fe1\u3058\u306a\u3044": 6563,
    "\u5947": 6564,
    "\u2581\u795e\u306e": 6565,
    "\u9665": 6566,
    "\u8a31\u3057\u3066": 6567,
    "\u3067\u304d\u308b\u3088\u3046\u306b": 6568,
    "\u30c8\u30a4\u30ec": 6569,
    "\u2581\u305c\u3072": 6570,
    "\u6750": 6571,
    "\u3059\u304e\u305f": 6572,
    "\u30c6\u30ec": 6573,
    "\u30b3\u30fc\u30b9": 6574,
    "\u2581\u3042\u306e\u5973": 6575,
    "\u3042\u307e\u308a\u306b\u3082": 6576,
    "\u8fd1\u6240": 6577,
    "\u8108": 6578,
    "\u3092\u5207\u308a": 6579,
    "\u822a": 6580,
    "\u640d\u50b7": 6581,
    "\u3060\u3063\u305f\u304b": 6582,
    "\u7d50\u5a5a\u3059\u308b": 6583,
    "\u5bf9": 6584,
    "\u30b5\u30e9": 6585,
    "\u822a\u7a7a": 6586,
    "\u6d77\u5cb8": 6587,
    "\u2581\u5f53": 6588,
    "\u306e\u4e8b\u4ef6": 6589,
    "\u7d50\u5a5a\u3057\u3066": 6590,
    "\u30ed\u30fc\u30de": 6591,
    "\u767a\u52d5": 6592,
    "\u2581\u53d7\u3051\u5165\u308c": 6593,
    "\u2581\u7d20\u6575\u306a": 6594,
    "\u6905\u5b50": 6595,
    "\u8ca0\u3051\u305f": 6596,
    "\u2581\u6050\u6016": 6597,
    "\u5c0f\u50e7": 6598,
    "\u2581\u3069\u3046\u601d\u3046": 6599,
    "\u5fd8\u308c\u3066\u305f": 6600,
    "\u30b7\u30ed": 6601,
    "\u2581\u30b5\u30a4": 6602,
    "\u2581\u4eca\u3084": 6603,
    "\u56f0\u3063\u305f": 6604,
    "\u2581\u9ebb\u85ac": 6605,
    "\u652f\u6301": 6606,
    "\u5c71\u3055\u3093": 6607,
    "\u306b\u884c\u304d": 6608,
    "\u82e6\u3057\u307f": 6609,
    "\u8ab2\u9577": 6610,
    "\u2581\u30ac\u30f3": 6611,
    "\u2581\u552f\u4e00\u306e": 6612,
    "\u2581\u96e2\u5a5a": 6613,
    "\u6c17\u6301": 6614,
    "\u60b2\u5287": 6615,
    "\u2581\u30cf\u30c3": 6616,
    "\u7533\u3057": 6617,
    "\u6b62\u3081\u3066": 6618,
    "\u306a\u3093\u3067\u3082": 6619,
    "\u2581\u308f\u304b\u3063\u3066": 6620,
    "\u3057\u308d\u3088": 6621,
    "\u2581\u30b3\u30f3\u30d4\u30e5\u30fc\u30bf\u30fc": 6622,
    "\u5e72": 6623,
    "\u88c5\u5099": 6624,
    "\u3063\u3066\u3044\u3046\u306e\u306f": 6625,
    "\u306e\u6bcd\u89aa": 6626,
    "\u6b66\u88c5": 6627,
    "\u306b\u5c45\u308b": 6628,
    "\u5fc3\u304c": 6629,
    "\u2581\u3069\u3093\u3069\u3093": 6630,
    "\u3067\u3082\u3044\u3044": 6631,
    "\u2581\u5927\u5909\u306a": 6632,
    "\u5834\u6240\u3060": 6633,
    "\u3092\u9078\u3093\u3060": 6634,
    "\u30ea\u30fc\u30b9": 6635,
    "\u51fa\u305b\u308b": 6636,
    "\u5b50\u4f9b\u304c": 6637,
    "\u3060\u3063\u305f\u306e\u306b": 6638,
    "\u2581\u6bba\u3057": 6639,
    "\u3059\u308b\u304b\u3089": 6640,
    "\u6211\u3005\u3092": 6641,
    "\u75b2\u308c": 6642,
    "\u4e92\u3044\u306b": 6643,
    "\u8aaa": 6644,
    "\u2581\u3044\u3064\u304b\u3089": 6645,
    "\u306e\u304b\u3082": 6646,
    "\u30c7\u30a3\u30b9": 6647,
    "\u2581\u3084\u3064\u3089": 6648,
    "\u30f4\u30a7": 6649,
    "\u30a4\u30e9\u30af": 6650,
    "\u3068\u306a\u308a\u307e\u3059": 6651,
    "\u2581\u56db": 6652,
    "2000": 6653,
    "\u2581\u3042\u305d\u3053\u306b": 6654,
    "\u3057\u3066\u3044\u307e\u305b\u3093": 6655,
    "\u4eca\u5ea6": 6656,
    "\u3059\u308b\u305e": 6657,
    "\u9054\u6210": 6658,
    "\u8a34\u3048": 6659,
    "\u2581\u99ac": 6660,
    "\u3069\u3053\u306b\u3042\u308b": 6661,
    "\u3057\u3055": 6662,
    "\u3042\u305f\u3057": 6663,
    "\u30d6\u30e9\u30c3\u30af": 6664,
    "\u2581\u5f37\u3044": 6665,
    "\u2581\u3088\u308d\u3057\u304f\u304a\u9858\u3044\u3057\u307e\u3059": 6666,
    "\u975e\u96e3": 6667,
    "\u6d3b\u52d5\u3092": 6668,
    "\u30c3\u30b5": 6669,
    "\u2581\u305d\u306e\u7d50\u679c": 6670,
    "\u308b\u3093\u3067\u3059\u304b": 6671,
    "\u2581\u5354\u529b": 6672,
    "\u2581\u8d64\u3044": 6673,
    "\u2581\u9762\u5012": 6674,
    "\u8d77\u304d\u308b": 6675,
    "\u3060\u3068\u601d\u3063\u3066": 6676,
    "\u8e0f": 6677,
    "\u546a\u3044": 6678,
    "\u308b\u306e\u304c": 6679,
    "Y": 6680,
    "\u5e83\u3052": 6681,
    "\u2581\u965b\u4e0b": 6682,
    "\u3044\u3066\u308b": 6683,
    "\u2581\u7206\u767a": 6684,
    "\u884c\u304f\u306e": 6685,
    "\u79fb\u690d": 6686,
    "\u51fa\u4f1a\u3044": 6687,
    "\u4f9d\u983c\u4eba": 6688,
    "\u30f3\u30b0": 6689,
    "\u97f3\u304c": 6690,
    "\u529b\u306f": 6691,
    "\u305b\u305f": 6692,
    "\u8b1d": 6693,
    "\u6297": 6694,
    "\u2581\u4ffa\u305f\u3061\u306e": 6695,
    "\u706b\u661f": 6696,
    "\u306b\u5165\u308c\u3066": 6697,
    "\u2581\u30a2\u30c0\u30e0": 6698,
    "\u2581\u3068\u3093\u3067\u3082\u306a\u3044": 6699,
    "\u62bc\u3055\u3048": 6700,
    "\u2581\u30cb\u30c3\u30af": 6701,
    "\u2581\u4ffa\u3089": 6702,
    "\u63a2\u3057\u3066": 6703,
    "\u8cac\u4efb\u3092": 6704,
    "\u6f2b\u753b": 6705,
    "\u2581\u590f\u76ee": 6706,
    "\u898b\u3048\u307e\u3059": 6707,
    "\u8eca\u306f": 6708,
    "\u30a2\u30fc\u30c8": 6709,
    "\u2581\u662f": 6710,
    "\u4f1a\u793e\u3092": 6711,
    "\u30b0\u30e9\u30d5": 6712,
[...]
