<unk>	0
<s>	0
</s>	0
▁	-2.4535
の	-3.8029
?	-3.81813
。	-3.995
は	-4.17304
が	-4.33715
を	-4.47727
に	-4.49498
!	-4.57942
、	-4.92361
と	-4.95535
で	-4.97892
...	-5.06363
だ	-5.06406
よ	-5.1774
も	-5.34683
か	-5.35002
な	-5.43071
です	-5.51857
から	-5.52016
・	-5.73355
ね	-5.86791
って	-5.91859
」	-6.11281
▁この	-6.15181
し	-6.19086
わ	-6.21702
んだ	-6.25754
や	-6.25759
...。	-6.32222
▁「	-6.35003
る	-6.40251
"	-6.45573
た	-6.45916
した	-6.46081
する	-6.50883
▁その	-6.52724
して	-6.53773
▁でも	-6.54851
▁私は	-6.55948
さ	-6.5787
には	-6.70943
人	-6.72276
て	-6.74149
なら	-6.74917
▁"	-6.79876
1	-6.80828
▁もう	-6.83455
い	-6.8396
ら	-6.85146
▁そして	-6.89208
さん	-6.89562
▁これは	-6.92328
▁それは	-6.93098
➡	-6.93385
▁-	-6.93494
ない	-6.98345
~	-6.99907
だった	-6.99989
▁ああ	-7.01734
ます	-7.01789
のか	-7.02154
2	-7.04162
ぞ	-7.05194
▁あの	-7.06045
▁何	-7.06346
▁彼は	-7.12605
・・・	-7.12756
ー	-7.12902
でも	-7.13294
じゃない	-7.14206
.	-7.14889
ました	-7.16529
まで	-7.16819
のは	-7.16866
▁私	-7.18206
▁お	-7.18627
▁はい	-7.1951
り	-7.24548
▁私の	-7.24665
▁いや	-7.2478
▁《	-7.25853
という	-7.26498
いる	-7.28379
▁私が	-7.28656
▁そう	-7.28747
なんて	-7.3012
だろ	-7.30622
―	-7.30665
けど	-7.3076
的	-7.31988
だよ	-7.32673
ス	-7.33795
では	-7.34951
▁だから	-7.37322
ん	-7.37554
▁今	-7.38343
▁俺は	-7.38818
します	-7.40168
この	-7.40203
▁これ	-7.4104
ろ	-7.41795
▁まだ	-7.42431
▁何か	-7.42433
いた	-7.42959
▁ちょっと	-7.42965
こと	-7.43031
▁1	-7.43574
のです	-7.43685
)	-7.44496
▁2	-7.45617
▁しかし	-7.47945
年	-7.48415
時	-7.48808
でしょう	-7.49051
3	-7.49623
▁あなたは	-7.49733
がある	-7.51012
でした	-7.51431
しました	-7.52166
「	-7.53893
▁それで	-7.54787
だけ	-7.54899
として	-7.55065
》	-7.55166
んです	-7.55593
く	-7.55635
▁なぜ	-7.55988
へ	-7.56225
▁お前	-7.57235
▁あっ	-7.57642
だろう	-7.58048
▁また	-7.59221
してる	-7.6041
より	-7.61341
った	-7.61779
▁君は	-7.63045
つ	-7.63247
す	-7.63336
事	-7.64408
でしょ	-7.64791
▁それが	-7.65057
とか	-7.652
された	-7.65518
▁おい	-7.65808
っ	-7.66166
▁うん	-7.66436
君	-7.66613
▁あ	-7.66796
なんだ	-7.69143
にも	-7.7008
お	-7.705
だと	-7.7092
▁彼女は	-7.71368
ことを	-7.71663
ですか	-7.71733
▁あなた	-7.71917
▁じゃあ	-7.72005
▁だが	-7.72357
います	-7.72627
▁いい	-7.73897
▁そんな	-7.75644
その	-7.75843
できる	-7.75857
そう	-7.75872
とは	-7.76099
n	-7.76132
ある	-7.77116
じゃ	-7.77978
▁あなたの	-7.78407
している	-7.78845
について	-7.79008
一	-7.792
▁みんな	-7.79335
▁ええ	-7.79442
もの	-7.80065
ッ	-7.81023
ように	-7.81095
ト	-7.81416
:	-7.81791
になる	-7.82345
なかった	-7.82628
き	-7.83138
▁それ	-7.83259
んだよ	-7.83801
]	-7.84041
▁本当に	-7.84808
日	-7.85001
▁[	-7.85497
▁どうして	-7.85546
よう	-7.85958
かな	-7.86558
だな	-7.87299
▁もし	-7.87667
子	-7.88189
▁(	-7.88882
▁ありがとう	-7.89399
いい	-7.89727
だって	-7.90551
▁俺	-7.90831
▁あなたが	-7.90983
分	-7.9193
▁これが	-7.92426
中	-7.92591
何	-7.9289
ド	-7.93683
め	-7.94575
▁君の	-7.95539
者	-7.95798
▁3	-7.96065
物	-7.96651
ク	-7.97044
▁僕は	-7.97045
ラ	-7.97739
のよ	-7.97922
だから	-7.98759
▁お前は	-7.98857
ください	-7.99547
ちゃん	-7.99791
▁えっ	-8.02436
4	-8.03033
▁彼の	-8.03367
しています	-8.03641
ズ	-8.03661
んですか	-8.03715
ことは	-8.04433
5	-8.04495
▁俺の	-8.05245
いて	-8.05363
ですね	-8.05863
▁こんな	-8.06577
ば	-8.06636
み	-8.07614
▁もっと	-8.07698
見	-8.08711
のために	-8.09051
▁彼らは	-8.09069
なの	-8.09466
▁俺が	-8.10181
ぜ	-8.10844
話	-8.10891
リー	-8.11375
▁どう	-8.12735
人の	-8.12801
時間	-8.12978
▁あれ	-8.13189
コ	-8.13191
私は	-8.13606
今	-8.13741
▁さあ	-8.14155
手	-8.14362
的な	-8.1497
▁ただ	-8.15087
▁つまり	-8.15823
▁まあ	-8.16722
大	-8.16906
と思う	-8.17028
私	-8.17394
よね	-8.17453
タ	-8.17716
があります	-8.18084
▁ここで	-8.18154
▁≪	-8.18462
前に	-8.19049
▁どんな	-8.19347
ナ	-8.19833
くれ	-8.2064
ねえ	-8.20794
上	-8.2126
▁彼が	-8.2129
される	-8.21772
▁君が	-8.21909
・・	-8.22162
人が	-8.22427
▁自分の	-8.22505
▁何で	-8.22602
月	-8.22674
▁♪	-8.23306
れば	-8.23512
▁我々は	-8.23555
う	-8.24113
力	-8.24309
ア	-8.24345
ル	-8.2462
人は	-8.25107
▁それを	-8.25206
もう	-8.25429
▁私たちは	-8.25661
しない	-8.25663
など	-8.26022
本	-8.26098
への	-8.27163
家	-8.27187
なんか	-8.27354
ではない	-8.2739
私の	-8.27413
ません	-8.27512
リ	-8.27665
▁よく	-8.27925
▁よし	-8.27953
▁君	-8.28352
こ	-8.29153
とき	-8.29561
のこと	-8.2965
しろ	-8.29778
▁いつも	-8.29784
回	-8.29836
10	-8.31281
ために	-8.31421
ですよ	-8.31899
良い	-8.31948
わね	-8.32929
性	-8.33081
▁ある	-8.33095
あ	-8.3353
▁とても	-8.33684
▁ここ	-8.33794
え	-8.3389
所	-8.34154
何か	-8.34237
かもしれない	-8.34374
▁彼	-8.34392
男	-8.3511
▁なんで	-8.35314
▁大丈夫	-8.35596
たい	-8.35788
,	-8.36394
マ	-8.36665
▁私も	-8.37029
▁え	-8.3735
考え	-8.37941
▁他の	-8.38315
である	-8.38541
▁お前の	-8.38848
ほど	-8.3892
ま	-8.38992
▁彼女	-8.39404
カ	-8.39414
のように	-8.39438
▁何も	-8.39622
ず	-8.4
たら	-8.40338
▁もちろん	-8.40568
▁それに	-8.4058
ような	-8.40859
いました	-8.41085
ことが	-8.41324
~!	-8.41412
▁ほら	-8.41589
後	-8.41759
▁ここに	-8.41833
会	-8.42042
▁早く	-8.42145
方	-8.42201
事を	-8.42875
6	-8.42904
ン	-8.43088
出	-8.43206
▁あんた	-8.43645
になった	-8.43735
先生	-8.44135
下	-8.44421
▁今日は	-8.44448
いない	-8.45024
▁一緒に	-8.45121
万	-8.45266
不	-8.45412
しか	-8.45729
様	-8.45798
女	-8.45801
前	-8.4602
ロ	-8.46074
できない	-8.4627
させる	-8.46525
ジ	-8.46643
▁何を	-8.46664
(	-8.47406
-	-8.47436
これ	-8.47533
よく	-8.48101
水	-8.4811
▁大	-8.48258
▁今日	-8.48258
私が	-8.48317
気	-8.48866
やる	-8.48882
かも	-8.48903
つの	-8.48952
それ	-8.49054
キ	-8.49064
わよ	-8.49401
マン	-8.49415
だけだ	-8.4963
ム	-8.4967
了	-8.50031
金	-8.50151
きた	-8.5031
▁今は	-8.50525
▁そうだ	-8.51011
ている	-8.51098
▁そこで	-8.51402
▁新しい	-8.5158
によって	-8.51704
▁では	-8.51719
オ	-8.52025
▁同じ	-8.53034
ですが	-8.53212
▁これで	-8.53232
てる	-8.5343
▁ずっと	-8.54425
せ	-8.55807
になって	-8.55871
また	-8.5605
心	-8.56153
んで	-8.56312
ダ	-8.5638
なさい	-8.56491
点	-8.56647
名	-8.56651
来	-8.56888
▁ねえ	-8.56895
▁お前が	-8.57285
▁誰か	-8.57295
れ	-8.57336
だぞ	-8.57574
▁5	-8.57916
ディ	-8.5821
道	-8.58408
▁違う	-8.58452
にある	-8.58651
▁誰も	-8.58796
ことです	-8.58938
イ	-8.58981
▁あぁ	-8.59175
どう	-8.59364
人間	-8.59676
▁ここは	-8.59767
8	-8.59856
まだ	-8.60309
なく	-8.60747
▁僕	-8.60763
してた	-8.60935
があった	-8.61231
され	-8.61655
仕事	-8.61804
▁いいえ	-8.61829
▁10	-8.62006
▁少し	-8.62276
そうだ	-8.62748
バ	-8.6284
山	-8.62912
地	-8.62944
け	-8.63272
用	-8.63598
したい	-8.63703
したら	-8.63824
はない	-8.64018
かい	-8.64112
みたい	-8.64194
られる	-8.64317
からです	-8.64637
場所	-8.64792
生	-8.64842
事は	-8.65076
▁誰が	-8.65211
▁僕の	-8.65389
チ	-8.65517
知ってる	-8.65664
▁何だ	-8.65676
▁それから	-8.65774
言った	-8.65781
ましょう	-8.65783
度	-8.6579
られた	-8.66178
と思います	-8.66348
シ	-8.66387
ガ	-8.66432
▁なに	-8.6656
ニ	-8.66588
▁何が	-8.66771
▁どうやって	-8.66844
む	-8.66873
時に	-8.66997
体	-8.67217
▁全部	-8.67675
▁ママ	-8.67689
▁ご	-8.67822
問題	-8.67953
▁パパ	-8.67986
ノ	-8.6809
目	-8.68191
していた	-8.68968
のような	-8.69386
▁きっと	-8.69612
なんです	-8.69754
グ	-8.69975
言う	-8.70003
ご	-8.70068
神	-8.70145
ものです	-8.70372
しよう	-8.70569
▁すぐに	-8.70742
サ	-8.70938
くらい	-8.71159
んだろ	-8.71588
▁さて	-8.71593
行く	-8.7164
▁私に	-8.71845
すれば	-8.72019
なのか	-8.72102
レ	-8.72159
口	-8.72485
▁一	-8.72624
ことに	-8.72901
よりも	-8.7326
▁仕事	-8.73355
▁彼女の	-8.73865
ところ	-8.73928
なのです	-8.74215
ミ	-8.74433
ドル	-8.75023
▁僕が	-8.75044
やった	-8.75348
それを	-8.75349
外	-8.75709
下さい	-8.75902
歳	-8.75967
んだけど	-8.76138
らしい	-8.76221
▁4	-8.76474
ではなく	-8.76724
フ	-8.76892
本当に	-8.76925
化	-8.76935
愛	-8.77003
るんだ	-8.7748
ティ	-8.77658
だわ	-8.77834
行	-8.77845
▁これを	-8.77865
▁彼女が	-8.78012
着	-8.78271
新しい	-8.78359
長	-8.78372
ここに	-8.78421
島	-8.7869
かしら	-8.78929
ため	-8.79006
7	-8.79043
』	-8.79242
世界	-8.79607
の中で	-8.79874
ではありません	-8.79966
▁ちゃんと	-8.8007
▁分かった	-8.80248
顔	-8.80581
見て	-8.80602
▁実は	-8.80677
何を	-8.80694
▁ア	-8.81201
20	-8.81242
あなた	-8.81457
悪い	-8.81485
と一緒に	-8.81583
先	-8.81752
通り	-8.81752
だけど	-8.81808
▁皆	-8.81889
ネ	-8.81985
▁やっぱり	-8.82123
▁わかった	-8.8233
くる	-8.82522
でしょうか	-8.82535
”	-8.82663
▁まさか	-8.82888
▁待って	-8.83096
がない	-8.83271
すると	-8.83302
▁お願い	-8.83358
▁我	-8.83364
関係	-8.83623
を見て	-8.83633
自分の	-8.83859
ねぇ	-8.84066
ブ	-8.84356
▁そうか	-8.8444
▁すごい	-8.84641
じゃないか	-8.84708
家族	-8.84802
▁すみません	-8.84806
してくれ	-8.85179
だね	-8.85221
違う	-8.85573
欲しい	-8.85729
年間	-8.85747
エ	-8.85948
▁どうした	-8.86296
取り	-8.86336
あなたの	-8.86538
▁あれは	-8.86581
いく	-8.86702
知らない	-8.86764
させて	-8.86799
▁確かに	-8.86809
同じ	-8.86931
に行く	-8.87317
場	-8.87406
ウ	-8.87448
あった	-8.87612
▁<	-8.87841
大きな	-8.87866
▁どうぞ	-8.87986
バー	-8.88127
死ぬ	-8.88194
と同じ	-8.88208
番	-8.88224
音	-8.88248
田	-8.88378
全て	-8.88605
ツ	-8.88651
>	-8.89646
ち	-8.89708
▁いえ	-8.89753
にいる	-8.90189
みたいな	-8.90196
にとって	-8.90662
一緒に	-8.90841
木	-8.91337
来た	-8.91357
分かる	-8.91589
と言った	-8.91727
プ	-8.91822
▁あと	-8.91841
的に	-8.91866
人に	-8.92033
▁−	-8.92157
是	-8.92225
はずだ	-8.92256
みんな	-8.92276
あの	-8.92421
はず	-8.92643
とも	-8.9291
ています	-8.92941
▁これから	-8.93066
ということです	-8.93112
ター	-8.9315
▁ごめんなさい	-8.93505
▁我々の	-8.93711
▁良い	-8.93735
部	-8.93754
海	-8.93826
▁〈	-8.94066
来る	-8.9415
ないと	-8.94175
リン	-8.94255
だけで	-8.94479
かった	-8.9453
見た	-8.94754
▁あいつ	-8.94836
▁そういう	-8.94935
私に	-8.95183
俺	-8.95233
みたいに	-8.95448
ラー	-8.95555
形	-8.95587
車	-8.95642
9	-8.9569
計画	-8.95804
▁ごめん	-8.959
なきゃ	-8.95911
研究	-8.95914
▁まず	-8.95989
奴	-8.95998
〉	-8.9608
ビー	-8.96292
テ	-8.96335
数	-8.96602
ちょっと	-8.96683
君の	-8.96721
じ	-8.97037
わけ	-8.97075
お前	-8.97158
になります	-8.97182
ながら	-8.9736
言って	-8.97473
がいる	-8.97517
あります	-8.97611
友達	-8.97744
▁じゃ	-8.97893
デ	-8.98009
感じ	-8.98094
無い	-8.98175
そうです	-8.98197
死	-8.98464
s	-8.98471
▁家族	-8.98493
高	-8.98501
▁私を	-8.98508
彼は	-8.98625
彼の	-8.98732
誰か	-8.98739
人で	-8.988
面	-8.98837
▁たぶん	-8.98854
▁ジョン	-8.98976
▁とにかく	-8.99185
▁誰	-8.99224
▁見	-8.99362
国	-8.99476
ここで	-8.99487
少し	-8.99531
やって	-8.9958
を使って	-8.99625
ど	-8.99641
ずっと	-8.99763
中に	-8.99901
状況	-9.0015
発	-9.00156
線	-9.0017
んじゃない	-9.00199
t	-9.00395
ボ	-9.00432
▁見て	-9.00465
機	-9.0059
んだろう	-9.00625
もっと	-9.00716
ってる	-9.00797
こう	-9.00882
わかる	-9.01048
頭	-9.0115
理由	-9.01237
▁どうも	-9.01289
ビ	-9.01432
身	-9.01524
スター	-9.01745
有	-9.01822
▁彼を	-9.01829
屋	-9.01864
なぁ	-9.02233
▁お父さん	-9.02258
ヤ	-9.02262
法	-9.02368
行動	-9.02558
星	-9.02624
間	-9.02658
以上	-9.02772
の中に	-9.02816
▁う	-9.02952
ニー	-9.03074
出来る	-9.03104
素晴らしい	-9.03298
行って	-9.03302
方が	-9.03333
情報	-9.03335
必要	-9.03463
出す	-9.03669
年前	-9.03707
夢	-9.03757
足	-9.03795
▁金	-9.03815
なくて	-9.04138
を殺した	-9.04149
書	-9.04608
▁20	-9.04743
▁すいません	-9.04809
▁先生	-9.04854
できた	-9.04984
なければ	-9.04989
であり	-9.05073
空	-9.05115
▁いいか	-9.0526
これは	-9.05275
代	-9.0536
来て	-9.05447
思い	-9.05535
▁全て	-9.05582
っと	-9.05588
m	-9.05688
戦	-9.05802
▁よかった	-9.05848
▁私たち	-9.05849
▁水	-9.05925
どんな	-9.06009
とても	-9.06012
▁自分	-9.06104
されている	-9.06284
内	-9.06343
それは	-9.06666
されて	-9.06673
トン	-9.06694
んじゃ	-9.06778
彼	-9.07087
小	-9.07176
▁例えば	-9.07288
▁6	-9.0748
ろう	-9.07561
もない	-9.07637
e	-9.07706
による	-9.07785
全部	-9.07832
シー	-9.07858
できます	-9.07959
を見	-9.07961
▁次の	-9.08042
▁私たちの	-9.08201
ソン	-9.08254
ケ	-9.08265
カード	-9.0836
電話	-9.08416
▁すべて	-9.08508
我	-9.08603
ぐらい	-9.08654
▁手	-9.0872
▁すぐ	-9.08729
▁そんなこと	-9.08845
▁あなたに	-9.08874
彼女	-9.08897
にして	-9.08906
やつ	-9.08921
に対して	-9.09035
他の	-9.09242
初めて	-9.093
▁あら	-9.09518
夜	-9.09665
攻撃	-9.09744
▁だって	-9.09834
のことを	-9.09867
▁電話	-9.09896
よかった	-9.1005
なんだよ	-9.10069
早く	-9.10107
君は	-9.10213
流	-9.10267
かもしれません	-9.10388
ると	-9.10414
風	-9.10547
▁誰かが	-9.10624
ですよね	-9.11231
んですよ	-9.11344
こそ	-9.11388
▁バカ	-9.1139
▁そ	-9.11501
▁今まで	-9.11519
花	-9.11555
▁『	-9.11653
入	-9.1172
の話	-9.11875
何も	-9.11891
技術	-9.11962
色	-9.12014
▁明日	-9.12068
ゴ	-9.12288
~。	-9.12346
あり	-9.1237
▁いつ	-9.12413
存在	-9.12517
▁マ	-9.12687
心配	-9.12889
さんは	-9.13079
俺の	-9.13139
30	-9.13477
事が	-9.13553
しましょう	-9.13649
▁素晴らしい	-9.13654
んでしょ	-9.13742
村	-9.13755
の為に	-9.13792
なる	-9.13899
るの	-9.13917
▁ただの	-9.14101
品	-9.14668
▁俺も	-9.14736
光	-9.14909
させた	-9.14974
メ	-9.15013
聞いて	-9.15297
生活	-9.15307
▁皆さん	-9.1535
▁今の	-9.15558
▁友達	-9.15591
川	-9.15624
原	-9.15714
活動	-9.15715
誰	-9.1584
主	-9.15866
の事	-9.15875
たんだ	-9.15887
と思った	-9.15901
ぁ	-9.16242
のね	-9.16311
ってこと	-9.16348
船	-9.16389
▁そこに	-9.16462
▁さらに	-9.16639
▁どこ	-9.16782
▁待て	-9.16873
々	-9.16886
されました	-9.16929
知っている	-9.16988
子供	-9.16998
くん	-9.17041
じゃん	-9.17163
一人	-9.17479
笑	-9.17595
食	-9.17603
ものを	-9.17606
▁お前ら	-9.17662
ぬ	-9.17849
したの	-9.17977
▁別の	-9.18172
そんな	-9.18434
▁なんだ	-9.18456
システム	-9.18694
...》	-9.18787
▁こっち	-9.18839
犬	-9.18852
女性	-9.18923
▁自分で	-9.1896
▁私には	-9.19061
ばかり	-9.19078
なぜ	-9.1908
さえ	-9.19087
達	-9.19106
在	-9.19287
が必要だ	-9.19335
ないわ	-9.19413
ゲーム	-9.19484
▁我々が	-9.19579
からね	-9.19607
モ	-9.19817
▁私達は	-9.19979
スト	-9.20011
たくない	-9.20122
方法	-9.20123
▁こう	-9.20406
こんな	-9.20411
捜査官	-9.20411
▁君に	-9.20636
場合	-9.2074
▁やめろ	-9.20861
感	-9.21032
d	-9.21039
あなたは	-9.21082
さんが	-9.2141
行った	-9.21542
ほしい	-9.21628
ワ	-9.21629
美	-9.21639
なって	-9.2165
もん	-9.21694
いません	-9.21873
人を	-9.21954
すべて	-9.2203
ザ	-9.22037
▁私たちが	-9.22099
を見つけた	-9.22262
ぎ	-9.22274
要	-9.22308
してください	-9.22325
なり	-9.22384
を持って	-9.22419
しかない	-9.2243
室	-9.22489
もらう	-9.2256
してない	-9.22627
能力	-9.22794
▁あんな	-9.22844
分かった	-9.22963
二	-9.23075
ことだ	-9.23355
▁どうしたの	-9.23393
つもり	-9.23404
ようだ	-9.23455
得	-9.23491
学	-9.23513
▁こちら	-9.23812
だし	-9.23831
ぐ	-9.23869
野	-9.24135
年に	-9.24136
啊	-9.24376
くれる	-9.24488
?」	-9.24525
私を	-9.24531
細胞	-9.24544
▁彼に	-9.24585
▁特に	-9.246
▁小	-9.24611
▁まるで	-9.24754
通	-9.24817
とこ	-9.24975
だと思う	-9.25031
ハ	-9.25081
に対する	-9.25218
死んだ	-9.25318
▁子供	-9.254
▁お母さん	-9.25462
▁絶対	-9.25475
▁彼らの	-9.25573
しないと	-9.25678
もある	-9.25714
曲	-9.25714
刑事	-9.25725
してきた	-9.25792
和	-9.25814
皆	-9.25864
があって	-9.25887
多くの	-9.25914
語	-9.26
▁一体	-9.26068
れる	-9.26184
服	-9.26216
だったら	-9.26273
のため	-9.26468
博士	-9.26545
ソ	-9.26719
ことで	-9.26863
你	-9.26936
▁なぜなら	-9.26973
▁そんなに	-9.27248
分からない	-9.27491
名前	-9.27513
傷	-9.27514
▁それとも	-9.27674
▁やめて	-9.2787
a	-9.2788
薬	-9.27987
強い	-9.28013
者は	-9.28068
されてる	-9.28069
石	-9.28072
としても	-9.282
たち	-9.28334
c	-9.28382
骨	-9.2846
ことも	-9.28468
いつも	-9.28689
友人	-9.2878
んだから	-9.2879
からな	-9.28798
状態	-9.28811
させ	-9.28906
▁最近	-9.28922
パ	-9.2897
話した	-9.28972
ジョン	-9.28998
▁人間	-9.29025
ラン	-9.29137
――	-9.29166
命	-9.29167
▁警察	-9.29279
王	-9.29449
かどうか	-9.29533
彼を	-9.29545
▁おお	-9.29619
▁もう一度	-9.29638
情報を	-9.29667
▁昨日	-9.29671
装置	-9.29769
したんだ	-9.29775
父	-9.30006
▁第	-9.30058
しなかった	-9.3014
也	-9.30229
ありません	-9.3033
あなたが	-9.30465
▁ありがとうございます	-9.30643
を持つ	-9.30695
俺は	-9.3078
▁自分が	-9.30814
に行って	-9.30891
これを	-9.30975
は何	-9.31074
を見た	-9.31122
▁うちの	-9.3117
調査	-9.31196
と思って	-9.31245
をする	-9.31457
聞いた	-9.31521
▁オ	-9.31558
になり	-9.31574
つく	-9.31598
相手	-9.31635
▁ジャック	-9.31688
▁彼らが	-9.31733
量	-9.31806
ロー	-9.31965
無	-9.32045
役	-9.32074
次	-9.32128
付け	-9.32182
▁あッ	-9.32248
くれた	-9.32291
っている	-9.32376
▁ー	-9.32381
小さな	-9.32385
話す	-9.32539
するのは	-9.3269
してくれる	-9.32753
y	-9.32776
社会	-9.32812
会社	-9.32864
写真	-9.33065
母	-9.33262
戦争	-9.33334
種	-9.3343
つけ	-9.33453
君が	-9.33497
るのは	-9.33551
別の	-9.33565
敵	-9.33717
なのに	-9.33735
▁大きな	-9.33879
仕事を	-9.33893
ていた	-9.33899
じゃなくて	-9.3398
太	-9.33997
残	-9.34006
▁全然	-9.34151
というのは	-9.34152
好	-9.3423
▁これらの	-9.34285
映画	-9.34323
ライ	-9.34341
兵	-9.34463
なのよ	-9.34572
結果	-9.34589
組織	-9.34664
ガン	-9.34732
発見	-9.34758
人物	-9.34829
里	-9.34961
▁その後	-9.35022
のある	-9.3511
持って	-9.35142
▁ス	-9.35144
引き	-9.35156
学校	-9.3518
▁ホントに	-9.35181
▁現在	-9.35277
▁悪い	-9.35433
行き	-9.35613
やれ	-9.35644
▁一番	-9.35652
為に	-9.35713
位	-9.35715
▁多くの	-9.35741
バカ	-9.35812
▁家	-9.35944
事件	-9.35999
らない	-9.35999
られない	-9.36036
マー	-9.36126
▁7	-9.36196
記録	-9.36281
ものだ	-9.36383
今日	-9.36411
▁そりゃ	-9.36502
▁別に	-9.3662
息子	-9.36827
50	-9.36844
さんの	-9.36855
グループ	-9.36918
▁かなり	-9.36967
動物	-9.37227
▁他に	-9.37259
A	-9.3728
州	-9.37328
血	-9.37542
目的	-9.37559
安全	-9.37565
出して	-9.37574
'	-9.37619
妻	-9.37648
カー	-9.37678
するんだ	-9.37711
見る	-9.37742
台	-9.37751
▁アメリカ	-9.37803
夫	-9.37865
部屋	-9.37926
だけです	-9.37927
病気	-9.38044
▁父さん	-9.38115
全員	-9.38307
▁それと	-9.38396
億	-9.38459
▁えッ	-9.38581
があり	-9.38652
されています	-9.38663
b	-9.38754
▁まったく	-9.38761
▁不	-9.3877
宇宙	-9.38815
▁俺に	-9.3888
味	-9.38939
S	-9.38965
▁ホント	-9.38982
▁奴は	-9.39034
自分	-9.39047
すぎる	-9.39128
やってる	-9.39164
べ	-9.39202
しても	-9.39287
─	-9.39387
元	-9.394
チーム	-9.39467
セ	-9.39497
▁我々	-9.39501
警察	-9.39586
▁どこに	-9.39601
違い	-9.39651
ありがとう	-9.39834
となる	-9.39874
等	-9.40019
世	-9.4003
▁私達	-9.40034
▁必ず	-9.40146
助け	-9.40153
変化	-9.40159
tel	-9.4022
軍	-9.40256
例	-9.40328
気持ち	-9.40395
▁オレは	-9.40424
げ	-9.40427
▁まぁ	-9.40428
15	-9.4047
作	-9.40475
からだ	-9.40558
▁次は	-9.40608
大丈夫	-9.40624
▁さぁ	-9.40683
▁あんたは	-9.40702
生物	-9.40765
になりました	-9.40806
キー	-9.40842
ナー	-9.40971
野郎	-9.41
▁無理	-9.4106
▁最後に	-9.41106
管理	-9.41247
声	-9.4127
i	-9.41459
▁分かってる	-9.41533
就	-9.41613
言い	-9.41631
僕	-9.41679
なあ	-9.41686
▁心配	-9.41732
三	-9.41757
に関する	-9.4178
▁聞いて	-9.41799
きました	-9.41822
しまった	-9.41857
を作る	-9.41873
はどう	-9.41897
▁♫	-9.41966
店	-9.42013
イン	-9.42035
去	-9.42036
モン	-9.42194
機能	-9.4222
一つ	-9.42324
▁彼女を	-9.4235
きて	-9.42494
俺が	-9.42511
▁イ	-9.42593
られて	-9.4264
▁彼ら	-9.42644
いや	-9.42896
しい	-9.42926
パー	-9.42975
ですから	-9.43045
ないよ	-9.43145
すること	-9.43155
時は	-9.43219
▁ここから	-9.43299
年の	-9.4333
▁8	-9.43368
手を	-9.43383
解	-9.4342
▁すごく	-9.43468
▁非常に	-9.43478
お金	-9.43501
都	-9.43502
▁行け	-9.43534
アル	-9.43626
C	-9.43796
社	-9.43877
び	-9.43924
出し	-9.4396
ちゃった	-9.44057
12	-9.44076
それが	-9.44239
▁全ての	-9.44322
すべき	-9.44445
質問	-9.44448
と言う	-9.4446
隊	-9.44544
を見る	-9.44554
アイデア	-9.44611
変	-9.44618
意味	-9.44661
ベ	-9.44809
▁三	-9.44815
朝	-9.44839
▁このような	-9.4492
していました	-9.44983
経験	-9.45027
▁オレ	-9.4508
ここ	-9.45087
▁多分	-9.45156
ビル	-9.454
枚	-9.45434
リング	-9.45469
▁愛	-9.45586
はありません	-9.4561
アン	-9.45681
D	-9.45698
▁やあ	-9.45737
環境	-9.45751
出来ない	-9.4581
すぐ	-9.45919
▁お願いします	-9.45983
器	-9.45985
ダー	-9.46012
▁こんにちは	-9.46013
▁最後の	-9.46206
悪	-9.46324
保護	-9.46392
▁全員	-9.46399
ヤツ	-9.46413
▁男	-9.46616
かかる	-9.46637
▁初めて	-9.4676
歌	-9.46789
言葉	-9.46942
▁そうね	-9.46943
病	-9.46957
部分	-9.47012
なし	-9.47031
準備	-9.47145
もいい	-9.47506
▁ひどい	-9.47516
の方が	-9.47521
100	-9.47527
▁それでも	-9.47538
M	-9.47546
報告	-9.47621
▁海	-9.47666
弁護士	-9.47748
▁知ってる	-9.4783
▁車	-9.47882
▁アンタ	-9.47921
選択	-9.47928
さま	-9.47933
るか	-9.47995
▁実際	-9.48031
見える	-9.48065
人たち	-9.482
良く	-9.48226
ママ	-9.48258
誰も	-9.48484
秒	-9.48543
▁もう少し	-9.48568
デザイン	-9.48714
限り	-9.4892
▁世界	-9.48938
銃	-9.48992
局	-9.49083
にする	-9.49141
方がいい	-9.49284
説明	-9.49286
▁今度は	-9.49317
ものは	-9.49329
ヒ	-9.49384
馬	-9.49424
思う	-9.49452
すぐに	-9.49486
ガー	-9.49546
▁カ	-9.49564
相	-9.49574
により	-9.49582
▁結婚	-9.4967
じゃなかった	-9.49768
母親	-9.49776
るのか	-9.4978
込む	-9.49814
君に	-9.49904
▁そうだな	-9.49908
門	-9.49963
事故	-9.49978
▁最も	-9.50053
▁絶対に	-9.50057
の間	-9.50087
んだぞ	-9.50104
いった	-9.50113
r	-9.50116
やろう	-9.50117
どうして	-9.5013
▁大丈夫だ	-9.50137
天	-9.50174
仲間	-9.50313
直	-9.50313
▁こいつ	-9.50325
女の子	-9.50444
▁大丈夫か	-9.50462
ようです	-9.50591
▁全く	-9.50615
▁デ	-9.50728
んの	-9.50798
開発	-9.50822
はい	-9.50828
力を	-9.50829
るわ	-9.50837
週間	-9.50838
▁エ	-9.50884
そ	-9.50961
▁行くぞ	-9.51089
終わり	-9.5113
危険	-9.5114
中の	-9.51189
実験	-9.51211
たちは	-9.51226
ック	-9.51274
▁新	-9.51386
目に	-9.51389
するために	-9.51447
▁そこ	-9.51557
っていう	-9.51589
希望	-9.51596
られ	-9.51597
ったら	-9.51622
罪	-9.51753
o	-9.51789
プログラム	-9.5182
ポ	-9.51837
プロジェクト	-9.51848
データ	-9.51875
▁嘘	-9.51884
箱	-9.51897
あんた	-9.51898
▁おそらく	-9.5199
話を	-9.52006
頃	-9.52062
無理	-9.5208
▁最初の	-9.52151
テレビ	-9.52203
するの	-9.52248
▁こ	-9.52256
訳	-9.52299
良かった	-9.52426
▁おはよう	-9.52513
上の	-9.52666
重	-9.52687
▁なあ	-9.52736
▁中	-9.52756
▁ちょっと待って	-9.52787
はある	-9.52842
型	-9.5285
料理	-9.52865
まま	-9.5288
▁毎日	-9.52884
l	-9.52897
▁“	-9.5291
企業	-9.52974
▁夢	-9.53148
▁何の	-9.53168
約束	-9.5317
気分	-9.53172
てくれ	-9.53221
居	-9.53339
いか	-9.53356
成	-9.53372
自由	-9.5342
鳥	-9.53533
▁なんか	-9.53562
レン	-9.53622
はまだ	-9.5364
▁30	-9.53642
運動	-9.53645
▁あなたを	-9.53649
最も	-9.53716
▁しかも	-9.53725
▁地球	-9.53728
男性	-9.53745
▁やっと	-9.53766
好き	-9.53808
始めた	-9.53819
聞く	-9.53841
▁9	-9.53879
▁サ	-9.53969
組	-9.54008
るぞ	-9.54076
全ての	-9.5426
見つけた	-9.54317
ベル	-9.5434
▁今夜	-9.54377
▁何だよ	-9.544
都市	-9.54426
父親	-9.54489
ぶ	-9.54564
合い	-9.54634
に行った	-9.54671
▁前	-9.54672
号	-9.54701
地球	-9.54705
一番	-9.54707
▁いま	-9.54779
公	-9.54789
城	-9.54966
k	-9.54989
へと	-9.55025
かね	-9.55045
みたいだ	-9.55056
なくなる	-9.55084
があれば	-9.5511
私たちは	-9.55119
わかった	-9.5516
11	-9.55182
再	-9.55218
▁行こう	-9.5529
動き	-9.55328
▁知らない	-9.55346
僕は	-9.5536
能	-9.55363
モデル	-9.55498
街	-9.55563
コン	-9.55567
施設	-9.5565
科学	-9.55693
したり	-9.55736
▁―	-9.55799
殺人	-9.5588
円	-9.55945
のでしょうか	-9.55957
もらった	-9.55959
ジー	-9.56151
捜査	-9.56169
▁結局	-9.56241
ますか	-9.56256
千	-9.56368
考えて	-9.56377
兄弟	-9.5639
彼女は	-9.56413
定	-9.56492
▁なるほど	-9.56585
いなかった	-9.56615
んだな	-9.56636
過	-9.56679
の一部	-9.56744
シュ	-9.56747
娘	-9.5675
そして	-9.56794
お前の	-9.56911
個	-9.56959
がありました	-9.56981
は無い	-9.57028
▁高	-9.57119
熱	-9.57233
▁お金	-9.57249
わからない	-9.57279
▁死んだ	-9.57282
新	-9.57306
だけでなく	-9.57316
確認	-9.5732
間に	-9.57549
反応	-9.5761
▁今すぐ	-9.5761
なので	-9.57681
T	-9.57775
旅	-9.57863
▁クリス	-9.57908
文	-9.57958
ずに	-9.57989
いって	-9.57991
▁何でも	-9.58029
パパ	-9.58031
よな	-9.58059
はどこ	-9.58064
ときに	-9.58068
x	-9.58131
現実	-9.58135
▁わかってる	-9.58174
切れ	-9.58175
作品	-9.58326
込んで	-9.5835
入り	-9.5844
席	-9.5844
▁俺を	-9.58452
お願い	-9.58468
言	-9.58521
ないか	-9.58544
ませんでした	-9.58646
ファン	-9.58652
▁どの	-9.5869
▁本	-9.58699
持ち	-9.58722
▁ど	-9.58727
時代	-9.58864
指	-9.58938
んですけど	-9.58954
▁彼女に	-9.58969
ドラゴン	-9.58971
▁クソ	-9.58974
によると	-9.59062
▁外	-9.59077
火	-9.59092
来ない	-9.59115
B	-9.59151
の方	-9.59191
の中	-9.59207
効果	-9.59327
ること	-9.59357
ギ	-9.59432
▁失礼	-9.59462
よい	-9.59526
切り	-9.59527
彼が	-9.59558
多く	-9.596
来い	-9.59672
▁それじゃ	-9.59817
ことがある	-9.59826
ット	-9.59858
ぼ	-9.59859
あれ	-9.59986
重要	-9.60025
▁わからない	-9.60054
治	-9.6008
我々の	-9.60169
平	-9.60216
▁お前に	-9.60219
人生	-9.60255
▁あんたの	-9.60284
はどこだ	-9.60327
するな	-9.60333
▁母さん	-9.60415
正しい	-9.6043
年前に	-9.60457
▁小さな	-9.60523
▁実際に	-9.60688
橋	-9.60696
待って	-9.60908
込み	-9.60989
過ぎ	-9.61038
たの	-9.61248
殿	-9.61314
の事を	-9.61343
ただ	-9.61415
▁君を	-9.61425
されます	-9.61443
大きい	-9.61474
てた	-9.61583
中で	-9.616
男が	-9.61629
始め	-9.61641
警官	-9.6165
ということ	-9.61699
人々	-9.61807
吧	-9.6182
担当	-9.61832
僕の	-9.61882
答え	-9.61888
トラ	-9.61889
すごい	-9.61934
▁何故	-9.61963
しないで	-9.61984
ちゃう	-9.62001
転	-9.62086
言いました	-9.62129
殺した	-9.62144
▁心	-9.62258
二人	-9.62279
正	-9.62316
時間を	-9.62328
べき	-9.62441
表	-9.62519
がいい	-9.62543
教育	-9.62559
物語	-9.62604
人だ	-9.62624
▁やった	-9.62779
のですが	-9.62804
あと	-9.62811
において	-9.62813
▁ラ	-9.62873
命令	-9.62892
▁あの子	-9.62903
穴	-9.62911
るな	-9.62945
犯罪	-9.62998
をした	-9.63097
為	-9.63133
じゃないですか	-9.63144
家に	-9.63151
かけて	-9.63208
予定	-9.63266
必要がある	-9.63324
▁本当	-9.63341
物を	-9.63346
件	-9.63354
▁それも	-9.63374
▁了解	-9.63405
子さん	-9.63501
▁女	-9.63591
なくても	-9.63631
ここにいる	-9.63644
階	-9.63694
できません	-9.63712
▁少なくとも	-9.63764
どうやって	-9.63792
肉	-9.63928
証拠	-9.63988
▁さっき	-9.64084
ジュ	-9.6409
▁.	-9.64108
▁あたし	-9.64254
が無い	-9.643
影	-9.64318
▁学校	-9.64365
▁だったら	-9.6437
▁神	-9.64378
ますよ	-9.64394
なんですか	-9.64446
▁顔	-9.64464
帰る	-9.64499
E	-9.64502
団	-9.64505
サン	-9.64552
▁--	-9.64587
エネルギー	-9.64593
判断	-9.64593
犯	-9.64615
客	-9.64659
出した	-9.64664
結婚	-9.64664
▁夜	-9.64768
ひ	-9.64829
▁だけど	-9.64929
▁元	-9.64964
そうな	-9.64986
▁山	-9.65045
▁真	-9.65064
きます	-9.65144
重要な	-9.65206
▁いつか	-9.65215
彼女の	-9.6528
波	-9.65309
はもう	-9.65313
▁助けて	-9.65389
者が	-9.65444
理由は	-9.65524
かけ	-9.65543
ても	-9.65649
言え	-9.65672
式	-9.65843
ないで	-9.6591
半	-9.65945
に来た	-9.65946
ちゃ	-9.6615
が欲しい	-9.66186
魚	-9.66206
もあります	-9.66222
疑問	-9.6624
飛び	-9.66241
少女	-9.66291
行け	-9.66318
▁リ	-9.66324
▁どうか	-9.66326
なった	-9.66393
先に	-9.664
様に	-9.66413
我々は	-9.66465
深い	-9.66498
ことになる	-9.66548
▁手を	-9.6656
▁元気	-9.66575
を使う	-9.66578
任務	-9.6659
取引	-9.66771
弾	-9.66802
番号	-9.66819
▁それだけ	-9.66821
▁もしかして	-9.66841
▁あなたも	-9.66931
メール	-9.66973
しません	-9.66985
未来	-9.67057
多	-9.67089
治療	-9.67202
サー	-9.67273
難しい	-9.67295
▁あー	-9.67322
員	-9.67337
はしない	-9.67418
はずです	-9.67445
ことができる	-9.67472
最初の	-9.67516
自分で	-9.67535
▁俺たち	-9.67556
▁これ以上	-9.67588
のせいで	-9.67666
だったんだ	-9.67733
ないの	-9.67736
理解	-9.67757
高い	-9.67804
のない	-9.67821
エル	-9.67839
としたら	-9.67992
使う	-9.67992
大統領	-9.68001
レイ	-9.68002
入れ	-9.68199
根	-9.68233
医者	-9.68239
事に	-9.68309
ロン	-9.68318
戦い	-9.68428
▁ほとんど	-9.68443
失	-9.68458
美しい	-9.68501
術	-9.68512
▁僕も	-9.68514
のかな	-9.68522
なよ	-9.68595
官	-9.68704
▁行って	-9.6879
リア	-9.68814
を殺す	-9.68871
ロボット	-9.68872
行かない	-9.68882
いるのか	-9.69062
脳	-9.69128
人と	-9.69216
▁ひ	-9.69255
▁お前も	-9.69273
▁親	-9.69318
目を	-9.69367
土地	-9.69391
谷	-9.69412
行こう	-9.6943
機会	-9.69474
立ち	-9.69506
キロ	-9.69602
タン	-9.69683
▁気	-9.69729
眼	-9.6986
における	-9.69869
市場	-9.69903
のことは	-9.69923
協力	-9.70059
いたら	-9.70105
ポイント	-9.70118
成功	-9.70152
▁あまり	-9.70243
移動	-9.70292
条件	-9.70297
モンスター	-9.70349
シャ	-9.70402
ります	-9.70532
▁今日の	-9.7057
続ける	-9.70575
▁こういう	-9.70592
使い	-9.70607
って言った	-9.70622
こっち	-9.70711
合う	-9.70755
▁どうする	-9.70765
▁すべての	-9.7078
▁全	-9.70808
病院	-9.70827
バン	-9.70963
倍	-9.71008
と共に	-9.7106
分の	-9.71083
万ドル	-9.71112
わけじゃない	-9.71124
話して	-9.7114
▁頭	-9.71164
痛	-9.71237
放	-9.71256
惑星	-9.71289
後に	-9.71292
▁後で	-9.71319
期	-9.71473
▁そろそろ	-9.71486
犯人	-9.71533
▁脳	-9.71559
解決	-9.71669
センター	-9.71688
立	-9.71692
図	-9.71719
が必要	-9.7176
家の	-9.71771
▁名前は	-9.71774
ニュース	-9.71809
障害	-9.7181
連中	-9.71873
があるの	-9.71874
リスト	-9.71941
たちが	-9.71966
L	-9.71977
g	-9.7198
▁FBI	-9.72043
知	-9.7207
マイル	-9.72077
やり	-9.72111
▁母	-9.72158
アメリカ	-9.72185
▁銃	-9.72211
▁私と	-9.7224
現在	-9.7227
記憶	-9.72338
尾	-9.72339
約	-9.72428
最後の	-9.72429
分析	-9.72472
会議	-9.72599
あなたに	-9.72614
▁ここの	-9.72617
ビデオ	-9.72627
せる	-9.7265
文化	-9.72659
19	-9.72665
ぇ	-9.7279
するか	-9.72823
テスト	-9.7286
h	-9.72881
場所に	-9.72895
界	-9.72917
瞬間	-9.72934
少年	-9.72993
彼らは	-9.73023
ミー	-9.73044
tv	-9.73049
▁右	-9.73059
意識	-9.73065
でき	-9.73085
明	-9.73118
▁ダメ	-9.73164
ロック	-9.73169
たり	-9.73276
▁ま	-9.73357
日に	-9.73368
▁言って	-9.7337
非常に	-9.73467
動	-9.73588
つき	-9.73623
を守る	-9.73665
▁おっ	-9.73706
白	-9.7376
と思ってた	-9.73769
▁仲間	-9.73953
なくなった	-9.73976
▁下	-9.7399
▁100	-9.73995
▁考え	-9.74306
〜	-9.74318
彼に	-9.74339
みて	-9.74357
経済	-9.74367
▁ハ	-9.74377
何が	-9.74395
患者	-9.74412
ための	-9.74432
元気	-9.74489
p	-9.74618
▁今朝	-9.74636
ことができます	-9.74648
産	-9.74724
親	-9.74731
f	-9.74778
サービス	-9.74791
ヶ月	-9.74807
▁あんたが	-9.74837
ようと	-9.74839
▁ちょうど	-9.74841
先輩	-9.74888
なんで	-9.74909
▁犬	-9.74972
だぜ	-9.74974
そこに	-9.75003
▁息子	-9.75094
してます	-9.75096
つか	-9.75153
構造	-9.7524
≫	-9.75329
議論	-9.7533
好きな	-9.7534
▁それでは	-9.75391
を持っている	-9.75444
▁大統領	-9.7547
毛	-9.75491
殺す	-9.75568
を取り	-9.7565
寝	-9.75662
したのは	-9.75733
監視	-9.75793
見えない	-9.75816
分かってる	-9.75845
▁バー	-9.75908
出来	-9.75971
しまう	-9.76001
工場	-9.76015
殺	-9.7603
もし	-9.76035
片	-9.76117
▁分からない	-9.76131
検査	-9.76255
考える	-9.76272
エン	-9.76288
▁まずは	-9.76291
▁ボス	-9.76311
じゃないわ	-9.76342
空間	-9.76367
渡	-9.76384
訓練	-9.76399
事だ	-9.76441
可能	-9.76441
▁当然	-9.76494
真	-9.76496
人も	-9.76518
感覚	-9.76534
逃げ	-9.76543
▁ロ	-9.7655
込んだ	-9.76658
価値	-9.76706
兵士	-9.76717
▁しっかり	-9.76762
試	-9.76776
▁左	-9.76812
れた	-9.76823
秘密	-9.7685
▁ですから	-9.76891
パン	-9.76946
んですね	-9.76973
才	-9.76981
会った	-9.7701
▁もういい	-9.77025
をして	-9.77037
▁宇宙	-9.77037
▁こちらは	-9.77039
ものが	-9.77044
ランド	-9.77141
働き	-9.77187
まして	-9.77211
ほうが	-9.77304
▁サラ	-9.77325
嫌い	-9.77364
▁そうよ	-9.77403
面白い	-9.77421
▁ダメだ	-9.77434
▁はぁ	-9.77494
使って	-9.77565
音楽	-9.7761
どうぞ	-9.77631
していない	-9.77655
パーティー	-9.77675
特	-9.77763
のでしょう	-9.77776
行為	-9.77779
▁目	-9.77782
嘘	-9.7784
作り	-9.77862
失敗	-9.77889
にいた	-9.78031
要求	-9.78091
帰って	-9.78133
文字	-9.78155
機械	-9.78174
怖い	-9.78188
処理	-9.78198
森	-9.78247
チャ	-9.78267
気に	-9.78295
医療	-9.78402
ライト	-9.78412
チェック	-9.78425
▁あいつは	-9.78449
▁二	-9.78469
沢	-9.7848
決定	-9.78493
程	-9.7864
上に	-9.78727
氏	-9.78736
▁ミ	-9.78739
観	-9.78791
始める	-9.78851
弟	-9.78989
▁ねぇ	-9.79017
しなさい	-9.79056
邪魔	-9.79101
質	-9.7913
開始	-9.7928
▁母親	-9.79302
▁次に	-9.79312
▁まさに	-9.79321
ども	-9.79324
に戻る	-9.79333
いれば	-9.79336
決めた	-9.79374
▁そっち	-9.79377
社長	-9.79382
使用	-9.79397
▁女性	-9.79465
所に	-9.79473
ショー	-9.79475
を見つける	-9.79495
ボール	-9.79513
彼女を	-9.79543
▁いいから	-9.79556
ればいい	-9.79573
するわ	-9.79573
ないんだ	-9.79611
以来	-9.79679
してくれた	-9.79698
影響	-9.79742
者の	-9.79743
政府	-9.79804
さんに	-9.79815
▁いったい	-9.79839
覚え	-9.79888
友	-9.79903
権	-9.79912
▁いいよ	-9.79926
▁取り	-9.80079
▁もうすぐ	-9.80088
奴ら	-9.80093
連絡	-9.80106
▁15	-9.80147
0	-9.8021
▁医者	-9.80223
丸	-9.80253
系	-9.80273
打ち	-9.80283
深く	-9.80375
られます	-9.80467
▁ところで	-9.80493
生まれ	-9.80493
▁人間の	-9.80508
▁時間	-9.80557
▁すまない	-9.80611
▁あらゆる	-9.8062
P	-9.80709
▁美	-9.80711
フェ	-9.80777
私たち	-9.80806
▁あの人	-9.80808
証言	-9.80829
楽	-9.80841
▁ここが	-9.80842
200	-9.80848
▁友人	-9.80921
▁こんなこと	-9.80948
▁俺たちは	-9.80959
▁サム	-9.80981
ネットワーク	-9.81095
らん	-9.81112
▁写真	-9.81145
▁あるいは	-9.81226
合	-9.81307
到	-9.81314
ことはない	-9.81327
あって	-9.81333
13	-9.81346
側	-9.81351
▁どこで	-9.81414
▁コ	-9.81426
感情	-9.81431
士	-9.81434
殺害	-9.8145
▁突然	-9.81458
▁病院	-9.81477
いいか	-9.81483
生き	-9.81545
▁一人	-9.81576
リス	-9.8158
▁一度	-9.81582
提案	-9.81593
▁冗談	-9.8168
レベル	-9.81778
部屋に	-9.8179
が必要です	-9.81821
▁うっ	-9.81828
▁思い	-9.8185
表現	-9.81886
プロ	-9.81886
明日	-9.81917
▁ごめんね	-9.81918
ビン	-9.82008
手段	-9.82046
▁バ	-9.82049
ちょうだい	-9.82076
紙	-9.82098
兄	-9.82121
▁あった	-9.82142
断	-9.82152
他	-9.8216
作った	-9.82194
向	-9.82228
▁奥さん	-9.82263
君を	-9.82293
▁話	-9.82303
角	-9.82349
▁ピーター	-9.82406
教えて	-9.82432
知った	-9.82432
▁なん	-9.82464
やら	-9.82471
乗り	-9.82475
と思ってる	-9.82523
知る	-9.82566
の仕事	-9.82606
止め	-9.82635
ほとんど	-9.82652
作戦	-9.82653
ミス	-9.82671
自然	-9.82734
を持ってる	-9.82745
破壊	-9.82854
皆さん	-9.83029
▁fbi	-9.83049
第	-9.8307
被	-9.83092
なければならない	-9.83181
想	-9.83183
理論	-9.83184
▁くそ	-9.83232
筋	-9.83235
すぎ	-9.8329
▁頼む	-9.83327
ペ	-9.8335
▁しばらく	-9.83435
テン	-9.83461
▁それって	-9.83531
強く	-9.83547
▁そういうこと	-9.83568
ゲ	-9.83595
▁その時	-9.83626
あなたを	-9.83658
ジャ	-9.83664
▁後	-9.83667
姿	-9.83677
▁より	-9.8373
最近	-9.83747
u	-9.83763
K	-9.83796
▁もしもし	-9.83889
▁200	-9.83975
▁こいつは	-9.83986
ルール	-9.83991
師	-9.84012
信頼	-9.84021
のための	-9.84036
方法を	-9.84059
ダメ	-9.84092
▁行く	-9.84195
遊び	-9.84206
のお	-9.84252
▁血	-9.84272
▁おまえ	-9.84332
俺に	-9.84373
こい	-9.84417
ありました	-9.84427
▁わたし	-9.84502
利	-9.84527
パターン	-9.84542
生徒	-9.84568
状	-9.84624
▁ゲーム	-9.84656
の後	-9.84665
じゃねえ	-9.84685
気が	-9.8469
十分	-9.8473
いるの	-9.84747
▁やって	-9.84811
オレ	-9.84817
そこ	-9.84897
望み	-9.84913
▁はあ	-9.84961
てください	-9.84992
猫	-9.85034
かれ	-9.85083
持ってる	-9.85094
顔を	-9.85115
健康	-9.85151
んな	-9.85168
感じる	-9.85195
髪	-9.8522
卵	-9.85228
▁完全に	-9.85301
▁すでに	-9.85318
ならば	-9.85395
G	-9.85419
地図	-9.85448
投資	-9.85521
▁光	-9.85526
ジン	-9.85527
わけです	-9.8555
▁父	-9.85573
率	-9.85649
の息子	-9.85677
んでしょう	-9.85683
▁どういうこと	-9.85735
▁急いで	-9.85834
作って	-9.85882
集団	-9.85937
戻る	-9.85956
してるの	-9.86019
民	-9.8619
▁あそこ	-9.8619
の力	-9.86198
▁19	-9.86215
入って	-9.86226
割	-9.86246
▁それなら	-9.86252
▁今から	-9.86273
前の	-9.86281
ちゃんと	-9.86284
▁問題	-9.86323
私たちの	-9.86369
道を	-9.86378
袋	-9.8642
試験	-9.86434
作業	-9.86447
数字	-9.86463
これが	-9.86476
町	-9.86512
値	-9.86522
▁出	-9.86551
40	-9.86578
教え	-9.8659
に来て	-9.86691
ーっ	-9.86712
▁約束	-9.86798
続け	-9.86867
れない	-9.86915
んですが	-9.86926
差	-9.86969
▁結構	-9.86974
帰	-9.87016
いっぱい	-9.87035
クソ	-9.87068
人達	-9.87087
▁落ち着いて	-9.87127
▁そんなの	-9.87155
ブル	-9.87207
までは	-9.87246
たかった	-9.87251
最高	-9.87269
の前で	-9.8738
恐怖	-9.8739
殺し	-9.87417
▁他	-9.87524
何でも	-9.87584
振り	-9.87612
羽	-9.87622
▁大変	-9.87693
▁12	-9.87706
▁誰だ	-9.87716
人生を	-9.87716
予測	-9.87761
▁いやいや	-9.87868
地域	-9.87869
の名前	-9.87891
▁俺達	-9.87893
▁アン	-9.87925
見え	-9.87983
開	-9.87997
かよ	-9.88059
上で	-9.88061
を見つけ	-9.88092
メン	-9.88098
妹	-9.88102
資金	-9.88225
▁ふ	-9.88227
フィ	-9.88239
座	-9.88284
勉強	-9.88322
ヌ	-9.88417
最大の	-9.88499
実際に	-9.88519
オン	-9.88524
集	-9.88525
責任	-9.88588
▁そのまま	-9.88631
▁犯人	-9.88673
▁自然	-9.88697
▁名前	-9.88759
▁最初に	-9.88804
▁えぇ	-9.88848
アー	-9.88853
取って	-9.88859
だろうな	-9.8892
くれて	-9.8893
実	-9.88979
許可	-9.88985
てきた	-9.89037
サイト	-9.89079
デン	-9.89104
▁誰にも	-9.89123
抜け	-9.89155
ああ	-9.89195
まり	-9.89221
回復	-9.89228
思い出	-9.89232
次の	-9.893
▁ウ	-9.89303
教授	-9.8931
以上の	-9.89435
▁A	-9.89564
立って	-9.89581
♪	-9.8961
腕	-9.89621
▁次	-9.89649
アップ	-9.89744
▁敵	-9.89753
武器	-9.89807
▁うまく	-9.89815
意	-9.89816
原因	-9.89817
▁死ぬ	-9.8982
イメージ	-9.89834
ないように	-9.89843
バラ	-9.89851
ピ	-9.89878
キン	-9.89885
住所	-9.89892
▁いくら	-9.89902
言ってる	-9.89928
探	-9.89934
ざ	-9.89948
▁あなたと	-9.90013
してるんだ	-9.90045
▁よろしく	-9.90086
▁連絡	-9.90087
知らせ	-9.90089
付き	-9.90135
のかしら	-9.90201
満足	-9.90213
もらって	-9.90215
バス	-9.90224
ホ	-9.90235
事も	-9.90272
については	-9.90277
▁情報	-9.9029
だと思います	-9.90348
▁朝	-9.90374
歩いて	-9.90382
ペン	-9.90464
書き	-9.90472
▁貴様	-9.90473
▁アル	-9.90486
べきだ	-9.90497
任	-9.9052
▁えっと	-9.90532
知識	-9.90555
玉	-9.90602
遺伝子	-9.90623
くれないか	-9.90638
▁おかしい	-9.90653
—	-9.90666
アパート	-9.907
あげる	-9.90701
味方	-9.90714
▁日本	-9.90745
逆	-9.90798
▁俺達は	-9.90825
長い	-9.90938
▁いろいろ	-9.90939
说	-9.90978
ザー	-9.90981
の間に	-9.91037
もので	-9.91053
映像	-9.91054
制御	-9.91065
▁あっち	-9.9107
出せ	-9.91084
認識	-9.91122
▁本当の	-9.91153
▁ここにいる	-9.91163
▁どういう	-9.91166
嫌	-9.91181
考えてる	-9.91209
使える	-9.91222
真実	-9.91255
▁—	-9.91322
男だ	-9.91324
人とも	-9.91364
井	-9.9144
▁どうだ	-9.91442
▁この子	-9.91472
達は	-9.9149
▁おう	-9.91542
北	-9.91546
パワー	-9.91592
壁	-9.91626
弱	-9.91629
▁過去	-9.91638
▁上	-9.91649
▁街	-9.91678
刀	-9.91738
のせい	-9.91757
クラブ	-9.9176
お前は	-9.91782
幸せ	-9.91824
▁君と	-9.9185
▁たった	-9.9186
と言って	-9.91925
▁決して	-9.91939
るよ	-9.91966
大学	-9.91968
建物	-9.92016
▁白	-9.92047
早い	-9.92092
行きます	-9.92145
信号	-9.92186
▁私達の	-9.92208
▁言った	-9.92228
送り	-9.92244
草	-9.9226
▁昨夜	-9.92287
を知ってる	-9.92319
物質	-9.92322
▁シ	-9.92335
つもりだ	-9.92342
基地	-9.92392
つけて	-9.92404
掛け	-9.92414
z	-9.92488
▁分かる	-9.92496
▁♬	-9.92534
支援	-9.92545
▁数	-9.92633
を失った	-9.92699
さんと	-9.92703
でもない	-9.92756
ノー	-9.92889
毎日	-9.92911
R	-9.92961
でね	-9.92991
扱い	-9.93003
田さん	-9.93104
吗	-9.93167
18	-9.93181
しようと	-9.93189
タイプ	-9.93259
破	-9.93266
▁レ	-9.93282
したのです	-9.93285
だったの	-9.93285
▁犯人は	-9.93317
証明	-9.9337
ないのか	-9.93377
本当	-9.93412
▁ウソ	-9.93434
南	-9.9345
人間が	-9.93478
電	-9.93546
精神	-9.93609
▁父親	-9.93614
といった	-9.9364
だろうが	-9.93658
飲み	-9.93659
記事	-9.93681
考えた	-9.93689
待ち	-9.93693
利用	-9.93696
▁以前	-9.93726
ところで	-9.93778
カン	-9.93783
▁お互い	-9.93839
聞きたい	-9.93843
メートル	-9.93891
ふ	-9.93912
ファ	-9.93962
が悪い	-9.93968
食べ	-9.94007
金を	-9.9404
▁口	-9.94042
カメラ	-9.94087
クラ	-9.94174
▁社長	-9.94198
像	-9.94216
症	-9.94249
居る	-9.94273
▁船	-9.94279
返	-9.94304
宮	-9.94334
ゼ	-9.94341
▁ハイ	-9.94354
同	-9.9448
N	-9.94498
交換	-9.94504
市	-9.94623
ついた	-9.94648
▁妹	-9.94662
にあった	-9.94666
言わない	-9.94666
生命	-9.9478
クス	-9.94847
班	-9.94868
▁かわいい	-9.94921
▁空	-9.94934
キング	-9.94937
▁痛い	-9.94937
▁ありがとうございました	-9.94952
香	-9.94987
用の	-9.95033
▁赤	-9.95046
▁ゆっくり	-9.95053
▁見た	-9.95068
会話	-9.95104
▁超	-9.95201
もなく	-9.9524
▁落ち着け	-9.95267
楽しい	-9.95299
キス	-9.95307
機関	-9.95324
未	-9.95329
める	-9.95356
過去	-9.95373
▁いつでも	-9.95447
人口	-9.95461
▁殺人	-9.95477
動く	-9.95556
手術	-9.95638
勝利	-9.95662
▁こんなに	-9.95674
▁急に	-9.95684
O	-9.95733
の問題	-9.95772
用意	-9.95821
の名前は	-9.9587
食べて	-9.95879
死に	-9.959
教	-9.95924
の家	-9.95968
▁さすが	-9.95988
誰が	-9.95991
▁黒	-9.96015
▁木	-9.96066
ワン	-9.96108
ーン	-9.96145
ファイル	-9.96149
▁部屋	-9.96153
書いて	-9.96179
▁ニューヨーク	-9.96229
に入る	-9.96239
議員	-9.96366
ウィ	-9.96404
めて	-9.96429
大丈夫だ	-9.96556
大人	-9.9659
便	-9.96591
レス	-9.96601
魔法	-9.96628
ついて	-9.96665
▁面白い	-9.9671
90	-9.96731
選手	-9.96732
右	-9.96794
間違い	-9.96799
古い	-9.96807
▁そしたら	-9.9682
利益	-9.96896
分かりません	-9.96967
ひどい	-9.96983
才能	-9.97041
レー	-9.97052
▁怖い	-9.97101
理	-9.97102
息	-9.97114
▁何とか	-9.9715
命を	-9.97226
没	-9.97307
▁持って	-9.9732
あたり	-9.97327
·	-9.97451
▁ん	-9.97458
絵	-9.97476
したくない	-9.97481
▁昔	-9.97529
ティー	-9.97545
▁弟	-9.97681
のさ	-9.97682
部隊	-9.97727
なん	-9.97731
ピー	-9.97768
自	-9.97936
誰かが	-9.98015
業	-9.98061
▁弁護士	-9.98072
チャンス	-9.98089
を持ち	-9.98117
に関して	-9.98151
の写真	-9.98174
セット	-9.982
入った	-9.98219
▁ミスター	-9.98306
できなかった	-9.98311
マイク	-9.9832
捜索	-9.98359
評価	-9.98373
▁向こう	-9.98385
老	-9.98397
恋	-9.98405
支配	-9.98435
自身	-9.98436
黒	-9.98475
▁たくさん	-9.98481
接	-9.98505
当	-9.98538
ルー	-9.98595
に見える	-9.98598
進め	-9.98606
暮らし	-9.98623
▁ジェーン	-9.98654
コード	-9.98655
▁世界の	-9.98666
▁死	-9.98685
生きる	-9.98708
立て	-9.98747
があるんだ	-9.98754
待て	-9.98768
自己	-9.98795
re	-9.98872
我々	-9.98885
住	-9.98897
▁レッド	-9.98917
出身	-9.98964
▁これも	-9.98971
たくさん	-9.99002
▁先輩	-9.99035
▁どうせ	-9.9905
関心	-9.9907
ネット	-9.99072
になりたい	-9.99072
同様	-9.99073
ガス	-9.99085
案	-9.99091
▁I	-9.99105
道具	-9.99113
言ってた	-9.99117
取る	-9.9918
目標	-9.99216
−	-9.99222
フィールド	-9.99226
様子	-9.9926
守	-9.99393
を通して	-9.99395
古	-9.9941
▁君も	-9.99416
源	-9.99438
に向かって	-9.99477
っけ	-9.99496
手に	-9.99497
すら	-9.99516
葉	-9.9952
事実	-9.99575
雨	-9.996
国の	-9.99616
無かった	-9.9965
焼き	-9.99686
みる	-9.99693
際	-9.99712
書いた	-9.99744
取	-9.9979
▁命	-9.99834
情	-9.99836
に戻って	-9.99877
何だ	-9.99935
対	-9.99941
やり方	-9.99964
▁ほ	-9.99972
んのか	-9.99983
▁これまで	-10.0004
の手	-10.001
消え	-10.0012
▁ヒ	-10.0013
平和	-10.0013
旅行	-10.0016
春	-10.002
ディー	-10.003
端	-10.003
決め	-10.0031
▁マイク	-10.0031
▁わかる	-10.0033
全	-10.0036
信	-10.0037
離れて	-10.0042
乱	-10.0051
▁戦争	-10.0052
噂	-10.0053
▁そんな事	-10.0054
▁分かりました	-10.0057
複雑な	-10.0057
を探す	-10.0058
ラボ	-10.006
スパイ	-10.0062
唯一の	-10.0063
してやる	-10.0064
▁言い	-10.0066
▁コーヒー	-10.0067
虫	-10.0076
変わった	-10.0078
見てる	-10.008
▁娘	-10.0081
▁さっさと	-10.0081
一杯	-10.0084
▁家に	-10.0085
世代	-10.0087
▁変な	-10.0087
ブリ	-10.0092
▁問題は	-10.0092
一人で	-10.0093
ジャー	-10.0093
おり	-10.0099
夏	-10.0099
なんだから	-10.0102
のですか	-10.0104
大きく	-10.0109
▁ジャ	-10.011
うちに	-10.0115
戻った	-10.0116
路	-10.0118
▁ジョー	-10.0119
話し	-10.012
▁ボク	-10.0123
▁現実	-10.0128
たく	-10.0129
長く	-10.0131
▁M	-10.0132
引	-10.0136
の上に	-10.0137
を取って	-10.0138
▁常に	-10.0139
ヴィ	-10.0148
▁赤ちゃん	-10.015
たのか	-10.0151
だよね	-10.0152
▁そこまで	-10.0153
絶対	-10.0156
ひとつ	-10.0164
くて	-10.0168
▁社会	-10.017
いう	-10.0171
教師	-10.0171
いるのです	-10.0177
の世界	-10.0185
飛行機	-10.019
期待	-10.0193
強	-10.0196
異	-10.0201
限界	-10.0208
運命	-10.021
罰	-10.0212
消えた	-10.0217
まず	-10.0218
したのか	-10.0221
モノ	-10.0224
たわ	-10.0225
▁助け	-10.0226
最高の	-10.0229
極	-10.0234
▁ここまで	-10.0244
ダン	-10.0249
▁確か	-10.025
▁女の子	-10.025
職	-10.0252
歯	-10.0256
心を	-10.0257
発表	-10.0263
▁証拠	-10.0264
▁我が	-10.0266
課題	-10.0267
事情	-10.027
必要があります	-10.0271
変わる	-10.0273
書類	-10.0274
じゃなく	-10.0275
出て	-10.0276
▁彼と	-10.0281
▁パ	-10.0281
までに	-10.0285
通信	-10.0288
学生	-10.0288
格好	-10.0292
▁このまま	-10.0295
働く	-10.0297
忍	-10.0305
体験	-10.0316
私たちが	-10.0317
DNA	-10.0321
市民	-10.0326
けれど	-10.0328
のことです	-10.0329
チャー	-10.0334
シン	-10.0335
逃げた	-10.0335
▁チャ	-10.0338
っています	-10.0339
示	-10.0339
人類	-10.0341
管	-10.0348
▁兄	-10.035
の顔	-10.0354
銀行	-10.0359
爆発	-10.0365
派	-10.0371
内容	-10.0372
ジャック	-10.0376
安心	-10.0384
想像	-10.0394
之	-10.0397
▁携帯	-10.0405
ハン	-10.0411
▁なかなか	-10.0416
▁いいぞ	-10.0419
の部屋	-10.042
だからな	-10.0422
いいのか	-10.0432
ッド	-10.0441
▁オー	-10.0448
▁ロー	-10.0455
▁18	-10.0456
ページ	-10.0459
立場	-10.0464
チップ	-10.047
▁悟空	-10.0474
食べる	-10.0481
▁信じられない	-10.0485
▁先	-10.0487
帰り	-10.0487
進	-10.0492
クラス	-10.0495
思った	-10.0496
いるか	-10.0498
関連	-10.05
あげ	-10.0501
すべての	-10.0502
それで	-10.0508
そんなに	-10.0511
▁今回は	-10.0511
参	-10.0511
になれる	-10.0512
になると	-10.0513
I	-10.0513
▁はっきり	-10.0515
方法は	-10.0517
▁いいわ	-10.052
出る	-10.0523
場所を	-10.053
/	-10.0532
俺を	-10.0532
▁無	-10.0534
るように	-10.0536
はどうだ	-10.0536
いるんだ	-10.054
▁明らかに	-10.054
樹	-10.0545
殺される	-10.0546
▁出て	-10.0552
始めて	-10.0561
散	-10.0568
聞き	-10.0572
高く	-10.0575
身体	-10.0577
霊	-10.0577
悪く	-10.0578
やりたい	-10.0584
いると	-10.0589
仲	-10.059
バック	-10.059
若い	-10.0593
停止	-10.0599
流れ	-10.0604
笑い	-10.0605
吉	-10.0605
大変	-10.0606
昔	-10.0611
来ました	-10.0611
シア	-10.0612
『	-10.0613
▁タ	-10.0613
に入って	-10.0619
配	-10.062
こちら	-10.062
脚	-10.0625
ちゃって	-10.0628
X	-10.0631
知って	-10.0632
他に	-10.0632
切	-10.0633
返す	-10.0637
きっと	-10.0639
▁そこから	-10.0639
向け	-10.0644
を取る	-10.0644
知らなかった	-10.0645
▁色々	-10.0648
▁ドア	-10.0649
っていた	-10.0652
毒	-10.0652
▁勝手に	-10.0653
超	-10.0654
将来	-10.0654
▁言う	-10.0655
ゆ	-10.0658
はとても	-10.0665
多い	-10.0666
僕が	-10.0671
▁人生	-10.0676
進化	-10.0679
ラス	-10.0684
首	-10.0684
コンピュータ	-10.0685
急	-10.0685
▁ちょ	-10.0686
時期	-10.0687
費	-10.0689
なかったら	-10.0691
言うな	-10.0694
場所は	-10.0696
▁オレの	-10.0699
▁逃げ	-10.0702
H	-10.0705
だけが	-10.0712
▁見つけた	-10.0725
時間は	-10.0727
彼ら	-10.0727
我々が	-10.0731
ごと	-10.0735
▁悪	-10.0744
受け	-10.0747
ハイ	-10.0747
▁ク	-10.0748
るべき	-10.0749
本当の	-10.0752
けどね	-10.0755
人間の	-10.0755
区	-10.0755
勝つ	-10.0756
論	-10.0758
▁うーん	-10.076
じゃないの	-10.0762
突き	-10.0762
買った	-10.0769
25	-10.077
を与える	-10.0773
って事	-10.0775
売り	-10.0776
ップ	-10.0778
▁ビル	-10.0779
▁様々な	-10.0784
れて	-10.0785
生産	-10.0788
分で	-10.079
製品	-10.0791
▁ジェ	-10.0795
でもある	-10.0796
核	-10.0806
異なる	-10.0813
勝ち	-10.0815
どこ	-10.0818
西	-10.082
広	-10.0821
ないから	-10.0822
を変える	-10.0827
近い	-10.0827
▁本当は	-10.0831
コントロール	-10.0831
はこの	-10.0832
▁たとえ	-10.0835
▁最高	-10.0841
艦	-10.0842
最後	-10.0842
挑戦	-10.0844
差し	-10.0846
▁映画	-10.0846
下に	-10.0852
▁なんと	-10.0862
言えば	-10.0863
炎	-10.0867
▁北	-10.0869
参加	-10.0873
勝負	-10.0876
全体	-10.0877
可	-10.0878
を受けた	-10.0893
とは違う	-10.0899
のもの	-10.0899
▁私達が	-10.0909
▁入って	-10.0909
死亡	-10.0911
殺された	-10.0914
dna	-10.0914
▁やはり	-10.0919
にした	-10.092
▁アー	-10.0921
?》	-10.0922
にならない	-10.0923
酒	-10.0923
したこと	-10.0924
も無い	-10.0926
話せ	-10.0926
りました	-10.0927
気づいた	-10.0932
対応	-10.0932
意見	-10.0934
大勢	-10.0936
危険な	-10.0936
せい	-10.0942
時の	-10.0945
矢	-10.0945
デート	-10.0946
実現	-10.0946
の前に	-10.0946
▁你	-10.0947
押し	-10.0948
▁一人で	-10.0951
の件	-10.0952
氷	-10.0956
画像	-10.0958
弱い	-10.0973
末	-10.0974
いたんだ	-10.0975
係	-10.0981
小さい	-10.0984
▁やぁ	-10.0987
▁どうしよう	-10.0993
ねえよ	-10.0996
▁子供たち	-10.0999
被害者	-10.1001
▁うわ	-10.1002
▁捜査	-10.1006
技	-10.1007
を受け	-10.101
する事	-10.1013
子ども	-10.1013
が見える	-10.1016
▁好きな	-10.1019
▁森	-10.1019
俺たち	-10.1019
左	-10.1024
落	-10.1025
たのは	-10.1033
でいい	-10.1036
場所で	-10.1036
ビジネス	-10.1038
▁こうして	-10.1039
安	-10.104
▁急げ	-10.1042
頼んだ	-10.1044
生きて	-10.1045
ころ	-10.1052
事です	-10.1052
折	-10.1053
▁俺には	-10.1054
義	-10.1055
設計	-10.106
完了	-10.1061
▁そっか	-10.1062
ッシュ	-10.1063
が来る	-10.1068
逮捕	-10.1068
自分が	-10.107
だったから	-10.1071
はいない	-10.1073
▁かつて	-10.1079
▁今度	-10.1083
方向	-10.1085
方は	-10.1091
簡単に	-10.1095
▁花	-10.1097
時には	-10.1097
呢	-10.1099
公開	-10.1101
確信	-10.1102
ときは	-10.1102
へん	-10.1105
▁殺す	-10.1108
一体	-10.1109
もらえる	-10.1111
▁やめ	-10.1113
▁他にも	-10.1114
ばっかり	-10.1117
テープ	-10.1118
無し	-10.1119
▁やっぱ	-10.1119
に来る	-10.1119
到着	-10.112
ブラ	-10.1122
▁50	-10.1123
でしょうね	-10.1123
日間	-10.1125
携帯	-10.1126
▁S	-10.113
することで	-10.113
額	-10.1134
受	-10.1135
バッグ	-10.1136
増	-10.1143
番組	-10.1143
たか	-10.1144
動か	-10.1145
臭い	-10.1146
を持った	-10.1149
半分	-10.1151
▁時々	-10.1153
メッセージ	-10.1154
って何	-10.1156
お前が	-10.1159
努力	-10.116
▁事故	-10.1163
おかしい	-10.1163
運転	-10.1166
脅威	-10.1177
年前の	-10.1179
食事	-10.1179
▁ハァ	-10.1181
不安	-10.1184
も同じ	-10.1184
▁ほんと	-10.1187
ファー	-10.1187
▁最高の	-10.1193
世界の	-10.1195
一度	-10.12
ひとり	-10.1204
ってのは	-10.1205
早	-10.1205
おい	-10.1206
ええ	-10.1207
普通	-10.1207
考え方	-10.1207
時間が	-10.1207
▁あなたには	-10.121
送って	-10.1216
▁マイケル	-10.1219
医師	-10.1219
の時	-10.122
データを	-10.1223
両親	-10.1225
飛行	-10.1225
▁お前を	-10.1225
別	-10.1226
全く	-10.123
知ってた	-10.1235
借り	-10.1239
▁ヘイ	-10.1239
庭	-10.1244
▁黙って	-10.1245
近	-10.1251
▁プロ	-10.1251
男は	-10.1252
彼女が	-10.1252
ピン	-10.1274
終わる	-10.1274
のおかげで	-10.1276
▁ダ	-10.128
耳	-10.128
▁西	-10.1281
▁二度と	-10.1282
▁僕に	-10.1285
▁親父	-10.1286
▁思う	-10.1287
後で	-10.1288
飲む	-10.1289
銀	-10.129
出発	-10.129
赤ちゃん	-10.1297
▁あとは	-10.1299
俺達	-10.13
戻ってくる	-10.13
信用	-10.1304
なります	-10.1305
剣	-10.1306
最初に	-10.1308
彼女に	-10.1308
依頼	-10.1309
もちろん	-10.1311
を探し	-10.1314
のみ	-10.1315
▁いいや	-10.1323
▁あいつら	-10.1325
子供たち	-10.133
▁火	-10.133
願い	-10.1332
藤	-10.1332
▁攻撃	-10.1333
撮影	-10.1333
ヘ	-10.1333
いるのは	-10.1335
▁体	-10.1336
列	-10.1338
ないぞ	-10.1338
愛する	-10.1341
ドー	-10.1344
グル	-10.1344
なんだけど	-10.1345
▁ベン	-10.1347
どおり	-10.1348
操作	-10.1349
するのです	-10.1361
起こ	-10.1364
した時	-10.1366
んだって	-10.1367
▁サン	-10.1367
ジェ	-10.1369
指示	-10.137
になってる	-10.1371
提供	-10.138
上がって	-10.138
方法で	-10.1386
▁レベル	-10.1398
思	-10.14
言える	-10.14
に入った	-10.1407
70	-10.1411
頼む	-10.1414
が来た	-10.1415
▁ぼく	-10.1418
デス	-10.1419
怪物	-10.1419
呼び	-10.1419
シャツ	-10.1419
▁父は	-10.1423
お父さん	-10.1424
んですよね	-10.1425
ようだな	-10.1425
過ぎる	-10.1426
▁刑事	-10.1427
F	-10.1429
そういう	-10.143
位置	-10.1431
賭け	-10.1434
トー	-10.1435
鍵	-10.1437
うまく	-10.1443
ヴァ	-10.1454
雲	-10.1455
は私	-10.1457
絶	-10.146
▁足	-10.1464
獣	-10.1465
サイン	-10.1466
17	-10.1468
女性が	-10.1469
うん	-10.1475
の研究	-10.1479
持っている	-10.148
▁準備	-10.1481
いいよ	-10.1483
発明	-10.1483
崎	-10.1486
残って	-10.1487
守る	-10.1487
▁ナルト	-10.1489
出来た	-10.1491
の声	-10.15
テクノロジー	-10.1502
可能な	-10.1502
▁ついに	-10.1503
▁中国	-10.1503
っちゃう	-10.1503
変わり	-10.1506
距離	-10.1507
ていました	-10.151
特別	-10.1514
禁止	-10.1522
休み	-10.1524
類	-10.1525
彼らの	-10.1525
を作った	-10.1526
反対	-10.153
いつ	-10.1531
--	-10.1533
契約	-10.1535
▁危険	-10.1538
難	-10.154
おく	-10.154
埋め	-10.1542
▁いいね	-10.1542
テロ	-10.1546
▁ウォルター	-10.1546
鳴	-10.1552
▁カメラ	-10.1556
とでも	-10.1557
▁今夜は	-10.1558
犯罪者	-10.1558
防	-10.1558
の話を	-10.156
j	-10.1564
▁必要	-10.1567
▁おいしい	-10.1574
▁未来	-10.1575
たくて	-10.1576
離	-10.1577
終了	-10.1578
ほ	-10.1578
腹	-10.158
ようになりました	-10.1583
手紙	-10.1583
出会った	-10.1584
くせに	-10.1589
パートナー	-10.1591
計算	-10.1591
言ってくれ	-10.1592
ホール	-10.1595
本部	-10.1597
▁そうじゃない	-10.1598
られました	-10.1598
ウイルス	-10.1605
若者	-10.1608
床	-10.1609
せよ	-10.161
分子	-10.1612
素	-10.1613
を作って	-10.1617
靴	-10.1617
▁黙れ	-10.1619
▁事件	-10.162
付いて	-10.162
▁病気	-10.162
▁はっ	-10.1623
▁聞いてくれ	-10.1628
▁風	-10.1628
軍隊	-10.1634
▁そうです	-10.1634
▁今後	-10.1635
▁C	-10.1638
段階	-10.1642
東	-10.1643
▁先に	-10.1645
層	-10.1646
▁フランク	-10.1647
▁本物の	-10.1648
▁良く	-10.1651
印	-10.1653
座って	-10.1653
▁せっかく	-10.1654
アリ	-10.1656
注意	-10.1658
違った	-10.1658
16	-10.1661
具合	-10.1661
使った	-10.1662
魔	-10.1662
回り	-10.1663
ドン	-10.167
英雄	-10.1672
売	-10.1674
▁どっち	-10.1674
▁新たな	-10.1679
済み	-10.1682
▁更に	-10.1683
署	-10.1685
裏	-10.1688
を作り	-10.1693
ダメだ	-10.1693
かかって	-10.1693
▁何度も	-10.1695
▁どれだけ	-10.1696
走	-10.1697
▁普通	-10.1701
女王	-10.1713
▁君たち	-10.1716
▁若い	-10.1717
アイ	-10.1718
しなければ	-10.1718
体を	-10.172
砂	-10.1726
態度	-10.1728
を引き	-10.1735
造	-10.1736
制	-10.1742
みな	-10.1743
変更	-10.1743
▁そうだよ	-10.1743
一日	-10.1744
▁お前たち	-10.1749
わよね	-10.1751
生きてる	-10.1753
爆弾	-10.1756
戦う	-10.1756
▁君には	-10.1763
神経	-10.1763
▁マジ	-10.1764
私も	-10.1768
ドア	-10.1768
主張	-10.1775
力が	-10.1776
▁大丈夫よ	-10.1778
▁座って	-10.1778
九	-10.1782
トリ	-10.1783
▁ありません	-10.1789
課	-10.1789
の事は	-10.1793
▁正	-10.1793
居た	-10.1797
▁うるさい	-10.1804
死んで	-10.1805
のうち	-10.1806
修理	-10.181
に乗って	-10.1814
▁どうしても	-10.1814
▁教えて	-10.1815
悪魔	-10.1816
残り	-10.1816
▁そうですか	-10.1818
てくれる	-10.1819
達が	-10.182
招待	-10.1823
喜び	-10.1824
▁一つ	-10.1827
ゼロ	-10.1827
▁嫌	-10.1828
に違いない	-10.1831
賞	-10.1835
という事	-10.184
仕	-10.1841
中だ	-10.1844
が死んだ	-10.1845
相談	-10.1849
違反	-10.1852
るために	-10.1852
人形	-10.1855
あげて	-10.1855
▁なっ	-10.1858
▁レイ	-10.186
魂	-10.1863
てしまう	-10.1864
趣味	-10.1866
かれた	-10.1867
起	-10.1869
▁思った	-10.1871
▁何て	-10.1872
取った	-10.1872
▁科学	-10.1873
を与え	-10.1876
お母さん	-10.1879
える	-10.1879
思考	-10.188
▁死体	-10.188
▁そこの	-10.1882
運	-10.1887
にとっては	-10.1889
タイム	-10.1892
の男	-10.1892
年後	-10.1892
▁警官	-10.1893
ヒーロー	-10.1893
直接	-10.1893
▁ひとつ	-10.1895
兵器	-10.1895
ほうがいい	-10.1895
▁キミ	-10.1896
▁悪魔	-10.1898
なくなって	-10.1899
解放	-10.1903
するのか	-10.1905
ければ	-10.1905
を使った	-10.191
▁ここには	-10.191
▁その通り	-10.1912
満	-10.1913
▁奴らは	-10.1917
わかってる	-10.1919
▁なんとか	-10.1921
人々が	-10.1922
▁国	-10.1927
60	-10.1928
▁テレビ	-10.1932
おう	-10.1935
消	-10.1936
プラ	-10.1937
んだよね	-10.1938
▁どこか	-10.1942
歳の	-10.1944
忘れ	-10.195
の上	-10.195
▁ミス	-10.1952
容疑者	-10.1955
分野	-10.1963
嵐	-10.1964
▁どうやら	-10.1971
者に	-10.1972
▁ジム	-10.1972
主義	-10.1975
校	-10.1976
の中の	-10.1977
▁約	-10.1981
得意	-10.1981
だけよ	-10.1984
▁良かった	-10.1985
ミン	-10.199
完成	-10.1999
▁ホ	-10.2011
思って	-10.2012
▁貴方	-10.2013
いけ	-10.2014
▁マジで	-10.2017
天使	-10.2019
温	-10.202
▁真実	-10.2021
させない	-10.2022
▁ド	-10.2024
▁東京	-10.2025
言語	-10.2025
謎	-10.2027
落ち	-10.2027
駅	-10.2029
事務所	-10.203
と呼ばれる	-10.203
スタ	-10.2033
痛み	-10.2036
様な	-10.2037
ける	-10.2043
▁簡単に	-10.2043
▁聞いた	-10.2047
トラック	-10.2047
置いて	-10.2048
どこに	-10.2049
感染	-10.205
思います	-10.2056
▁頑張って	-10.2059
観察	-10.2062
不可能	-10.2063
伝え	-10.2064
追跡	-10.2064
続く	-10.2065
の友人	-10.2066
特別な	-10.2067
世界を	-10.2069
代わりに	-10.2069
渡す	-10.2075
標的	-10.2082
は何だ	-10.2082
▁手術	-10.2091
の夜	-10.2092
になったら	-10.2104
援助	-10.2106
it	-10.2109
っちゃった	-10.2113
会う	-10.2114
▁うち	-10.2115
▁最初は	-10.2116
▁主	-10.212
日本	-10.2121
空港	-10.2122
と思いました	-10.2124
やがった	-10.2128
聞け	-10.2131
結	-10.2132
馬鹿	-10.2133
すごく	-10.2137
歩く	-10.214
出てくる	-10.214
困難	-10.214
▁どこだ	-10.2147
マシン	-10.2148
生きている	-10.215
動機	-10.2153
▁オレが	-10.2153
あんな	-10.2154
科学者	-10.2162
歩	-10.2168
まし	-10.217
戻って	-10.2173
これから	-10.2173
以前	-10.2176
りゃ	-10.2182
今まで	-10.2183
科	-10.2185
▁アイツ	-10.2188
食い	-10.2189
▁ガ	-10.2191
じゃありません	-10.2192
▁寝	-10.2193
再生	-10.2193
▁アイ	-10.2194
降	-10.2195
ガキ	-10.2196
非	-10.2198
変わって	-10.2205
相手に	-10.2207
▁ほんとに	-10.2207
を行う	-10.2216
米	-10.2222
トラブル	-10.2222
知り	-10.2223
探し	-10.2224
しゃ	-10.2227
▁こりゃ	-10.2235
ライン	-10.2235
知り合い	-10.2237
看	-10.2242
途中	-10.2246
▁自殺	-10.225
▁ハハハ	-10.2252
ものに	-10.2252
隠	-10.2256
行かないと	-10.2257
奈	-10.2264
持つ	-10.2264
▁そうすれば	-10.2264
院	-10.2266
什么	-10.2273
針	-10.2278
んだね	-10.2278
革命	-10.228
いきます	-10.2282
ができる	-10.2283
ール	-10.2285
▁おはようございます	-10.2289
上昇	-10.2296
言えない	-10.2297
しているのです	-10.2299
るから	-10.2299
ウッド	-10.2302
奴だ	-10.2307
行きたい	-10.2307
十	-10.2311
内に	-10.2319
出来事	-10.2326
まい	-10.2326
▁それより	-10.2326
ケース	-10.2327
パーティ	-10.2329
していて	-10.2331
ルート	-10.2332
チュー	-10.2334
実行	-10.2339
ったり	-10.2339
かかった	-10.234
ニング	-10.2342
寝る	-10.2347
必要はない	-10.2348
▁説明	-10.2349
だめ	-10.235
買い	-10.235
商品	-10.2353
説明する	-10.2353
じゃあ	-10.2353
ところに	-10.2355
残る	-10.2356
払う	-10.2359
▁秘密	-10.2367
遠い	-10.2369
進む	-10.2369
▁あなた達	-10.2369
おる	-10.2371
セント	-10.2374
なこと	-10.2375
ようになった	-10.2376
試み	-10.2376
勝	-10.2386
▁こら	-10.2388
起こる	-10.2392
証	-10.2398
500	-10.2399
カル	-10.2402
してきました	-10.241
覚えてる	-10.2412
しながら	-10.2415
大事な	-10.2423
沢山	-10.2424
▁恐らく	-10.2424
連れ	-10.2426
要素	-10.2427
戦士	-10.2428
選択肢	-10.2429
リーダー	-10.2431
裁判	-10.2433
脱	-10.2438
助	-10.244
進歩	-10.2441
念	-10.2442
じゃねえか	-10.245
が多い	-10.245
インド	-10.2452
▁誰もが	-10.2453
晩	-10.246
演奏	-10.2464
を見つけて	-10.2464
窓	-10.2465
と私は	-10.2466
あまり	-10.2473
▁普通の	-10.2474
を知っている	-10.2478
車を	-10.2484
が好き	-10.249
てしまった	-10.2491
横	-10.2494
言葉を	-10.2495
▁おいおい	-10.2496
中央	-10.2496
▁ヘ	-10.2501
自殺	-10.2501
▁鍵	-10.2503
当たり	-10.2507
行ける	-10.2508
▁お姉ちゃん	-10.2509
だったわ	-10.2512
ワイ	-10.2512
▁D	-10.2515
オー	-10.252
調	-10.2523
▁武器	-10.2524
の一つ	-10.2525
▁妻	-10.2525
ってた	-10.2528
▁必要な	-10.2528
あいつ	-10.253
▁インド	-10.2534
みろ	-10.2536
読み	-10.2537
死んでる	-10.2539
▁ちょっ	-10.2541
大切	-10.2545
涙	-10.2545
隊長	-10.2548
研究所	-10.2549
合って	-10.255
ar	-10.2552
となり	-10.2554
は何も	-10.2556
泥棒	-10.256
▁太陽	-10.2563
拍手	-10.2563
注文	-10.2571
速度	-10.2572
ゾ	-10.2574
世紀	-10.2575
学習	-10.2576
言うと	-10.2579
するよ	-10.258
完全に	-10.2581
▁そうそう	-10.2588
少	-10.2589
ベン	-10.2589
コーヒー	-10.259
中国	-10.2592
▁古い	-10.2592
同僚	-10.2593
▁薬	-10.2593
何で	-10.2593
同士	-10.2597
週	-10.2597
しなきゃ	-10.2602
24	-10.2604
二つ	-10.2604
ボン	-10.2605
方を	-10.2611
ロス	-10.2612
と一緒	-10.2613
▁できる	-10.2613
▁ノー	-10.2615
▁千	-10.2616
生まれた	-10.2616
▁政府	-10.2616
堂	-10.2617
▁後ろ	-10.2618
切る	-10.2618
起き	-10.2619
ませ	-10.2619
戻ってきた	-10.2623
建設	-10.2624
のせいだ	-10.263
社員	-10.2635
は私の	-10.2639
▁現場	-10.2642
まる	-10.2648
倉庫	-10.265
リック	-10.2651
▁音楽	-10.2654
返して	-10.2655
マーク	-10.2662
ソー	-10.2669
もありません	-10.2669
▁T	-10.267
ケーキ	-10.2673
ヨ	-10.2673
年代	-10.2676
字	-10.2676
危機	-10.2678
坂	-10.2682
カス	-10.2685
▁来る	-10.269
14	-10.2691
越	-10.2697
▁気が	-10.2698
打	-10.27
マル	-10.2701
手に入れた	-10.2704
行動を	-10.2704
のほう	-10.2709
▁テメエ	-10.2711
と言いました	-10.2715
の仲間	-10.2718
年齢	-10.2727
狂	-10.2728
っか	-10.273
▁フィンチ	-10.2731
の数	-10.2732
体の	-10.2733
▁正直	-10.2735
ホー	-10.2736
知りません	-10.2739
▁実	-10.2743
を得る	-10.2745
コピー	-10.2749
が違う	-10.2749
公園	-10.2751
▁医療	-10.2752
の結果	-10.2755
接触	-10.2755
以上に	-10.2756
資料	-10.2757
圧	-10.2757
そんなこと	-10.2762
望む	-10.2763
が要る	-10.2767
▁子ども	-10.2767
できて	-10.2772
退	-10.2776
いいわ	-10.2779
かと	-10.278
▁わかりました	-10.278
▁失礼します	-10.2781
んじゃないか	-10.2781
姿を	-10.2782
スキー	-10.2786
くない	-10.2788
踏み	-10.279
▁裏	-10.279
落ちた	-10.2793
奴は	-10.2794
呼んで	-10.2795
▁何だって	-10.2796
づ	-10.2799
けん	-10.2799
やれる	-10.2801
▁安全	-10.2802
卒業	-10.2802
投票	-10.2803
待ってる	-10.2807
程度	-10.2812
のことだ	-10.2812
▁オリバー	-10.2812
じゃないよ	-10.2812
名は	-10.2813
刻	-10.2813
掃除	-10.2814
されていた	-10.2815
交	-10.2817
やるよ	-10.2819
でさえ	-10.2819
電気	-10.2819
を探して	-10.2824
犠牲	-10.2824
▁誰でも	-10.2825
これで	-10.2829
▁メ	-10.2831
興味	-10.2831
ありませんでした	-10.2832
▁動物	-10.2832
収	-10.2833
教える	-10.2833
しちゃった	-10.2833
護	-10.2839
のようだ	-10.2842
▁うわっ	-10.2842
共	-10.2843
▁静かに	-10.2847
計	-10.2847
▁いきなり	-10.2848
の下	-10.2849
どうした	-10.2854
▁ちょっと待て	-10.2857
▁王	-10.2857
権利	-10.2858
なければなりません	-10.2859
からさ	-10.2865
崩壊	-10.2869
は誰	-10.2871
逃げる	-10.2871
▁楽しい	-10.2874
エンジン	-10.2875
無理だ	-10.288
パーセント	-10.288
▁そういえば	-10.2881
ドレス	-10.2885
▁再	-10.2887
いたい	-10.2888
算	-10.289
できれば	-10.2893
那	-10.2895
いても	-10.2898
中止	-10.2899
▁遺体	-10.29
▁信じて	-10.29
▁思って	-10.2904
▁マル	-10.2905
戦略	-10.2911
話題	-10.2913
姉	-10.2913
かなり	-10.2916
に会った	-10.2917
はその	-10.2918
成長	-10.2918
45	-10.2919
しく	-10.2919
▁ひと	-10.2919
大好き	-10.292
とおり	-10.2921
将軍	-10.2921
胸	-10.2923
ハート	-10.2932
密	-10.2936
のまま	-10.2937
寝て	-10.2937
▁米国	-10.2939
監督	-10.2941
糸	-10.2942
症状	-10.2942
んじゃないの	-10.2944
苦労	-10.2944
▁来た	-10.2945
を変え	-10.2947
▁生きて	-10.2947
頼んで	-10.295
乳	-10.2952
戸	-10.2955
供給	-10.2957
私達	-10.2959
隠れ	-10.2963
▁大学	-10.2964
救	-10.2967
活	-10.2974
驚き	-10.2977
人々に	-10.298
知りたい	-10.2981
駄目	-10.2982
お話	-10.2983
▁被害者	-10.2985
信じる	-10.2987
画	-10.2987
很	-10.2988
ぃ	-10.2988
暇	-10.299
▁邪魔	-10.299
▁わざわざ	-10.2994
おまえ	-10.2994
▁春	-10.3
説得	-10.3004
発展	-10.3005
一致	-10.3007
▁誰に	-10.3007
向き	-10.3007
▁いいな	-10.301
ばいい	-10.301
であった	-10.3011
バンド	-10.3013
保	-10.3015
続き	-10.3016
何かを	-10.3017
盗んだ	-10.3025
▁ついて	-10.3026
ベイ	-10.3028
▁事実	-10.3028
▁神様	-10.3028
▁腕	-10.3044
▁引き	-10.3045
やすい	-10.3045
ドラ	-10.3047
▁ようこそ	-10.3052
扉	-10.3054
雪	-10.3055
終わりだ	-10.3056
習	-10.3059
▁トム	-10.3059
次第	-10.3061
総	-10.3061
頭に	-10.3064
縁	-10.3064
入れて	-10.3065
ぉ	-10.3067
規模	-10.3072
ないし	-10.3073
遊んで	-10.3077
▁二人	-10.3081
現象	-10.3083
どうする	-10.3083
があると	-10.3084
さない	-10.3084
走り	-10.3086
▁警察に	-10.3086
近く	-10.3087
っす	-10.3089
笑顔	-10.3089
続けて	-10.3092
▁平気	-10.3095
ボス	-10.3099
お金を	-10.31
単純	-10.3101
ヴ	-10.3102
去る	-10.3102
分け	-10.3103
▁青	-10.3105
▁こっちだ	-10.3108
深	-10.3109
ませんか	-10.3109
事業	-10.3109
全然	-10.311
の命	-10.3111
▁そうだね	-10.3114
メス	-10.3116
▁例の	-10.3116
に行こう	-10.3116
専門	-10.3116
政治	-10.3117
植物	-10.3117
走って	-10.3117
者だ	-10.3119
飲んで	-10.3123
▁やる	-10.3127
タイ	-10.3133
ックス	-10.3134
対象	-10.3135
最後に	-10.3137
▁君達	-10.3139
▁急	-10.314
ですけど	-10.3145
見られる	-10.3146
楽しみ	-10.3147
始めました	-10.3149
▁いない	-10.315
状況を	-10.3152
話だ	-10.3152
わかりません	-10.3153
▁電気	-10.3154
同意	-10.3154
▁くっ	-10.3155
人気	-10.3155
グラ	-10.3156
不足	-10.3156
▁どちら	-10.3158
速く	-10.3158
至	-10.3159
練習	-10.3161
辺	-10.3163
高校	-10.3163
みた	-10.3166
視	-10.3167
僕に	-10.3169
ダンス	-10.3169
上手	-10.3169
▁部長	-10.3172
▁ベ	-10.3174
ボー	-10.3176
注目	-10.3179
▁人々は	-10.3179
▁とりあえず	-10.3185
▁答え	-10.3186
嬉しい	-10.3187
をしている	-10.3187
ッチ	-10.3187
を使い	-10.319
机	-10.3194
だよな	-10.3196
のかい	-10.3198
突然	-10.3199
ごめん	-10.3203
せん	-10.3205
~!!	-10.3206
鬼	-10.3207
▁B	-10.3208
困る	-10.321
くなる	-10.3211
となった	-10.3213
来たの	-10.3216
らなかった	-10.3217
牛	-10.3218
岩	-10.3218
は全て	-10.3221
勇気	-10.3221
▁自分を	-10.3221
バル	-10.3225
忙しい	-10.3227
▁インターネット	-10.3227
イヤ	-10.3227
させてくれ	-10.3231
▁やだ	-10.3233
くれない	-10.3235
剤	-10.324
バイ	-10.3242
違います	-10.3242
▁東	-10.3242
▁難しい	-10.3248
避難	-10.3249
始まり	-10.3249
▁彼らに	-10.325
デル	-10.3252
▁それまで	-10.3252
▁確認	-10.3252
ブロック	-10.3253
消えて	-10.3253
宿	-10.3255
ラム	-10.3258
サンプル	-10.3259
たちの	-10.3261
▁うまい	-10.3267
▁どういうことだ	-10.3267
余	-10.3269
知っています	-10.3269
▁あれが	-10.3271
詩	-10.3272
プレゼント	-10.3272
っちゃ	-10.3273
ご存知	-10.3278
来てくれ	-10.3279
ッツ	-10.3288
▁ここでは	-10.3289
会社の	-10.3289
ァ	-10.3291
だけの	-10.3295
話は	-10.3297
▁俺と	-10.3298
に会う	-10.3299
▁だめ	-10.3301
目の	-10.3301
土	-10.3304
▁南	-10.3307
なくていい	-10.331
るのよ	-10.331
を助ける	-10.3314
▁帰って	-10.3316
コンピューター	-10.3317
決まり	-10.3324
とう	-10.333
前から	-10.3331
可能性	-10.3336
▁おめでとう	-10.3336
そうだな	-10.3336
気づいて	-10.3339
▁どのように	-10.3339
追い	-10.334
あらゆる	-10.334
人々を	-10.3341
太陽	-10.3346
込め	-10.3346
というもの	-10.3347
以外の	-10.3348
詰め	-10.335
抵抗	-10.3351
警備	-10.3352
結論	-10.3355
▁記憶	-10.3357
だからです	-10.3357
はいつも	-10.3364
隣	-10.3367
種類の	-10.3369
昨日	-10.337
倉	-10.3371
雑誌	-10.3371
名誉	-10.3371
いで	-10.3372
だけは	-10.3372
▁こっちは	-10.3372
▁将来	-10.3375
だけじゃない	-10.3377
教会	-10.3378
策	-10.3387
せて	-10.3388
地獄	-10.3393
▁殺した	-10.3397
危険だ	-10.3398
無線	-10.3399
w	-10.3399
そうよ	-10.3401
▁大人	-10.3405
の日	-10.3407
サイズ	-10.3412
診断	-10.3413
コー	-10.3414
についての	-10.3415
▁刑務所	-10.3417
刑務所	-10.3423
歩き	-10.3427
したか	-10.3429
問題を	-10.3432
いろ	-10.3432
検事	-10.3435
▁帰る	-10.3435
製造	-10.3437
▁既に	-10.3439
を救う	-10.344
ターン	-10.3442
▁それじゃあ	-10.3445
たのに	-10.3454
▁はいはい	-10.3458
青	-10.3459
速	-10.346
知っていた	-10.3461
の一人	-10.3462
▁誰かに	-10.3463
貴方	-10.3463
フォー	-10.3464
事がある	-10.3464
薬を	-10.3466
天才	-10.3467
教室	-10.3469
▁直接	-10.3471
お前を	-10.3471
辛い	-10.3475
日々	-10.3479
トル	-10.3481
魔女	-10.3484
瀬	-10.3485
物だ	-10.3486
伝	-10.3488
▁'	-10.3489
乗	-10.349
▁あの時	-10.3492
っぽい	-10.3494
こいつ	-10.3494
者を	-10.3495
そのもの	-10.3498
覚えている	-10.3499
▁お茶	-10.3499
選	-10.35
であること	-10.3502
恋人	-10.3505
▁奴の	-10.3508
建築	-10.3509
親友	-10.3511
映	-10.3515
帰った	-10.3521
するのに	-10.3522
医	-10.3522
輪	-10.3525
宝	-10.3529
終	-10.353
放送	-10.3534
デー	-10.3535
▁いずれ	-10.354
加	-10.3544
送	-10.3547
できるか	-10.3548
知らん	-10.3548
存在する	-10.3548
問題は	-10.3551
▁こんなの	-10.3554
改善	-10.3557
かけた	-10.3558
▁本気で	-10.3559
▁R	-10.3562
言いたい	-10.3564
豆	-10.3568
警告	-10.3568
ワー	-10.3568
国家	-10.357
当然	-10.3571
▁人類	-10.3571
資源	-10.3572
V	-10.3573
▁OK	-10.3574
▁会社	-10.3575
業者	-10.3576
格	-10.3583
シャー	-10.3584
▁好き	-10.3588
じゃ無い	-10.3592
切って	-10.3592
の娘	-10.3593
▁たくさんの	-10.3594
見えて	-10.3599
衣	-10.36
キャ	-10.3601
は今	-10.3601
▁これって	-10.3604
終わって	-10.3606
年も	-10.3607
の下に	-10.361
否定	-10.3613
の子	-10.3613
伝える	-10.3616
物は	-10.3618
対策	-10.3619
のなら	-10.362
と呼ぶ	-10.3621
撃たれた	-10.3625
待つ	-10.3626
払って	-10.3627
おります	-10.3628
呼ぶ	-10.3628
▁なのに	-10.363
感じた	-10.3631
作る	-10.3632
▁貴方は	-10.3634
夫婦	-10.3635
詳細	-10.3638
▁そいつは	-10.3638
▁すると	-10.3641
ことがあります	-10.3648
足を	-10.3649
を失う	-10.3649
▁大丈夫です	-10.3651
頼み	-10.3653
して下さい	-10.3655
週末	-10.3659
すぎて	-10.366
重い	-10.3665
負け	-10.3669
っこ	-10.3669
失礼	-10.3671
強さ	-10.3672
今夜	-10.3679
板	-10.368
▁ロボット	-10.368
っていうか	-10.3681
侵入	-10.3681
▁壁	-10.3683
▁美しい	-10.3688
デイ	-10.3688
化学	-10.369
▁ソ	-10.369
対処	-10.3691
快	-10.3691
イー	-10.3691
來	-10.3692
▁そうなの	-10.3693
▁この男	-10.3696
▁この人	-10.3696
ものでした	-10.3698
子が	-10.3699
はいけない	-10.37
発射	-10.3702
▁へえ	-10.3703
▁一体何	-10.3704
▁チーム	-10.3706
変わらない	-10.371
▁希望	-10.3711
気を	-10.3713
買って	-10.3714
することは	-10.3716
▁研究	-10.3717
終わった	-10.3723
やってくれ	-10.3723
しているの	-10.3725
百	-10.3727
▁胸	-10.373
▁自由	-10.3733
常	-10.3735
告白	-10.3735
当て	-10.3738
交渉	-10.3738
たから	-10.3738
暴力	-10.3741
▁質問	-10.3741
セン	-10.375
=	-10.3752
異常	-10.3753
▁天	-10.3754
しまって	-10.3755
返せ	-10.3756
コミュニティ	-10.3761
夫人	-10.3761
大会	-10.3761
▁キャ	-10.3762
パイ	-10.3763
ガラス	-10.3764
おけ	-10.3764
承知	-10.3769
ウェイ	-10.3769
反	-10.377
手で	-10.3772
in	-10.3776
質問を	-10.3776
聞こえる	-10.3777
たんです	-10.3778
お願いします	-10.378
首を	-10.3782
▁食べ	-10.3785
正しかった	-10.3787
発生	-10.3791
自分を	-10.3792
を連れて	-10.3793
愛してる	-10.3793
▁データ	-10.3794
関係ない	-10.3795
産業	-10.3798
小屋	-10.3798
付	-10.38
を頼む	-10.38
の方は	-10.3802
闇	-10.3803
▁ブラック	-10.3803
良	-10.3803
男の	-10.3806
パス	-10.3806
言わなかった	-10.3807
を受ける	-10.3808
▁男性	-10.3808
ましょ	-10.3812
▁意味	-10.3813
▁どっか	-10.3815
▁僕らは	-10.3818
中です	-10.3818
男の子	-10.382
接続	-10.382
▁きみ	-10.3823
歴史	-10.3823
▁正義	-10.3824
一歩	-10.383
▁わたしは	-10.3833
▁おれ	-10.3836
役に立つ	-10.3837
撃つ	-10.3837
家庭	-10.3839
を見ると	-10.384
▁健康	-10.384
▁マーク	-10.3853
もらいたい	-10.3854
ポンド	-10.3857
様々な	-10.3857
▁みなさん	-10.386
のではなく	-10.3861
記	-10.3863
舞	-10.3866
ゴー	-10.3869
見つかる	-10.3869
▁奴ら	-10.387
して欲しい	-10.387
富	-10.387
無駄	-10.387
予約	-10.3871
増加	-10.3871
▁どうしたんだ	-10.3871
あげた	-10.3872
賢い	-10.3872
▁ううん	-10.3876
▁カー	-10.3877
合わせ	-10.3878
欠	-10.3878
▁猫	-10.3883
撃ち	-10.3886
衝突	-10.3888
だったのか	-10.3888
でしたが	-10.389
段	-10.3893
必要だ	-10.3896
幸運	-10.3897
落ちて	-10.3898
▁トイレ	-10.39
イル	-10.3901
保証	-10.3902
▁あなた方	-10.3905
つける	-10.3906
たん	-10.3907
らせて	-10.3909
▁地獄	-10.3913
今は	-10.3915
するように	-10.3916
いたします	-10.3917
時計	-10.3917
平均	-10.3919
▁やり	-10.392
▁世界中の	-10.392
やめて	-10.3921
法律	-10.3923
次元	-10.3923
釣り	-10.3925
になっている	-10.3928
▁つい	-10.3931
負	-10.3931
拡大	-10.3936
▁町	-10.3937
寺	-10.3939
だっけ	-10.3941
って言う	-10.3942
どうも	-10.3943
▁そのうち	-10.3944
▁この野郎	-10.3946
姫	-10.3947
と思うけど	-10.3951
仕事に	-10.3954
の情報	-10.3954
複雑	-10.3957
親父	-10.3957
現場	-10.3957
舞台	-10.3958
やめろ	-10.3958
へ行く	-10.3959
報告書	-10.3961
豚	-10.3962
心臓	-10.3965
従	-10.3965
理想	-10.3965
せない	-10.3966
個人	-10.3967
製	-10.3971
投げ	-10.3972
経営	-10.3973
フル	-10.3975
記者	-10.3975
ダム	-10.3976
▁とっても	-10.3976
ント	-10.398
部長	-10.3982
世界に	-10.3984
だからね	-10.3985
▁ロンドン	-10.3986
共有	-10.3989
▁どうでもいい	-10.399
▁こうした	-10.399
検索	-10.3991
決	-10.3994
▁十分	-10.3995
チョ	-10.3996
▁ボ	-10.3997
▁話して	-10.3997
られている	-10.3997
とともに	-10.3999
迫	-10.3999
園	-10.4
学校に	-10.4003
▁みんなで	-10.4003
自分たち	-10.4004
てない	-10.4004
月に	-10.4005
四	-10.4005
▁モ	-10.4006
▁申し訳ありません	-10.401
所有	-10.4012
▁生	-10.4014
信じ	-10.4017
奴隷	-10.4019
だろうか	-10.4022
あるか	-10.4023
&	-10.4026
勘違い	-10.4026
ユ	-10.4026
体に	-10.403
誇り	-10.4034
予想	-10.4035
奥さん	-10.4035
るのに	-10.4035
留	-10.4035
er	-10.4037
▁そもそも	-10.4037
いませんでした	-10.404
▁想像	-10.4042
▁ヘンリー	-10.4042
人々は	-10.4047
イス	-10.4051
立つ	-10.4053
▁フッ	-10.4055
油	-10.4057
v	-10.406
▁ありがと	-10.4062
したわ	-10.4062
ダウン	-10.4062
▁ルー	-10.4062
の友達	-10.4064
勝った	-10.4075
セックス	-10.4077
推測	-10.4078
▁彼には	-10.4079
帽子	-10.4079
▁危ない	-10.4081
払い	-10.4085
空気	-10.4086
支え	-10.4091
御	-10.4092
コスト	-10.4093
▁皆が	-10.4094
▁チャーリー	-10.4097
以外	-10.4099
▁ええと	-10.4099
学者	-10.4102
テーブル	-10.411
条	-10.4111
かもしれん	-10.4111
赤	-10.4111
苦	-10.4114
得る	-10.4114
▁えー	-10.4114
女性は	-10.4115
混乱	-10.4116
話そう	-10.4118
生き物	-10.4119
するには	-10.4123
起きた	-10.4123
じゃないんだ	-10.4123
▁あなたたち	-10.4126
んや	-10.4129
▁今では	-10.4129
言わないで	-10.413
ワクチン	-10.413
わかります	-10.4132
わけない	-10.4133
を感じる	-10.4135
思ってる	-10.4137
めた	-10.414
戻	-10.414
al	-10.4144
地区	-10.4145
飛んで	-10.4146
たいの	-10.415
▁そいつ	-10.415
着陸	-10.4151
問題が	-10.4152
なしで	-10.4156
▁大丈夫ですか	-10.4161
疑い	-10.4164
塩	-10.4165
▁長い	-10.4166
メンバー	-10.4169
▁恋	-10.417
レッド	-10.4171
▁銃を	-10.4172
ドライブ	-10.4173
▁心臓	-10.4173
低	-10.4173
聞いてる	-10.4175
ブー	-10.4177
全てを	-10.4177
▁ペ	-10.4177
生活を	-10.4178
分かって	-10.4179
▁すまん	-10.418
つもりはない	-10.418
菜	-10.4181
が一番	-10.419
薄	-10.419
システムを	-10.419
口を	-10.4193
っていうの	-10.4195
医学	-10.4197
▁何なの	-10.4199
ッキー	-10.4207
の音	-10.421
短	-10.421
ニック	-10.4212
餌	-10.4218
▁僕を	-10.422
殺人事件	-10.4223
帯	-10.4224
写	-10.4226
▁幸せ	-10.4228
▁逃げる	-10.423
ことはできない	-10.423
行かなきゃ	-10.4231
▁驚いた	-10.4233
アウト	-10.4234
皮	-10.4234
リード	-10.4236
るのです	-10.4237
ゲート	-10.4239
▁奴	-10.424
料	-10.4243
理由を	-10.4243
▁彼らを	-10.4244
介	-10.4246
痛い	-10.4247
▁知って	-10.4247
スタート	-10.4248
いかない	-10.4248
ロード	-10.4249
志	-10.425
引っ	-10.4253
サム	-10.4255
茶	-10.4258
ヨン	-10.4263
▁駄目	-10.4264
無く	-10.4266
眠	-10.4266
止めて	-10.4268
このような	-10.4268
優れた	-10.4272
テーマ	-10.4273
があるから	-10.4274
欲しいの	-10.4274
死体	-10.4274
杯	-10.4278
の準備	-10.4283
蔵	-10.4285
嫁	-10.4285
忘れて	-10.4287
偶然	-10.4287
▁お兄ちゃん	-10.4288
捨て	-10.4288
ステージ	-10.4288
さらに	-10.429
▁ユ	-10.4293
脱出	-10.4296
▁夕食	-10.43
が出る	-10.4302
▁b	-10.4303
▁腹	-10.4304
あるの	-10.4305
ナイト	-10.4305
ならない	-10.4306
煙	-10.4306
狼	-10.4307
▁僕たち	-10.4311
▁子供達	-10.4311
▁長	-10.4315
ますね	-10.4316
▁この前	-10.4318
▁来て	-10.4318
通りに	-10.432
▁食事	-10.432
会える	-10.4325
故郷	-10.4325
領域	-10.4326
▁ジョ	-10.4327
損	-10.4332
▁彼女と	-10.4332
コート	-10.4335
上げ	-10.4336
▁再び	-10.4338
▁緊急	-10.4338
かもな	-10.4339
湖	-10.4343
販売	-10.4343
概念	-10.4343
▁違います	-10.4346
るような	-10.4347
になれ	-10.4347
問	-10.4348
▁理解	-10.4348
▁それ以上	-10.4351
大佐	-10.4352
先生が	-10.4354
▁セ	-10.4357
▁今回の	-10.436
過ごす	-10.4361
がありません	-10.4365
00	-10.4365
の様子	-10.4366
▁夏	-10.437
働いて	-10.4371
爆破	-10.4371
リスク	-10.4372
見つかった	-10.4377
登録	-10.4379
人間は	-10.4379
メディア	-10.4381
再び	-10.4387
もんだ	-10.439
▁メール	-10.439
だなんて	-10.4392
聞きました	-10.4394
▁熱	-10.4394
彼らが	-10.4399
話したい	-10.4401
消える	-10.4401
スーツ	-10.4405
恐ろしい	-10.4408
▁もしかしたら	-10.4409
読んだ	-10.4411
と思っている	-10.4411
するまで	-10.4411
プロセス	-10.4415
▁そうだった	-10.4416
▁デート	-10.4418
なんですよ	-10.4419
何をしている	-10.4419
部品	-10.4421
ちょうど	-10.4425
▁ダニー	-10.4427
岸	-10.4428
と同じように	-10.4429
易	-10.4432
としては	-10.4433
まった	-10.4433
所で	-10.4435
時から	-10.4436
のことで	-10.4439
しなければならない	-10.4439
▁これら	-10.444
暗い	-10.444
▁ウィル	-10.4442
▁待ってくれ	-10.4442
それに	-10.4444
期間	-10.4445
いたの	-10.4446
実際	-10.4448
電話して	-10.4452
▁久しぶり	-10.4453
▁こんな事	-10.4453
的で	-10.4455
金属	-10.4458
祭	-10.4459
たちに	-10.4462
▁なんだよ	-10.4464
▁このように	-10.4468
らしく	-10.447
恐れ	-10.4471
▁頑張れ	-10.4472
制度	-10.4473
行くぞ	-10.4478
正義	-10.4478
になれば	-10.4482
▁むしろ	-10.4484
ケイ	-10.4485
あっ	-10.4486
▁終わった	-10.4488
やってた	-10.4488
内で	-10.4489
キュ	-10.4494
室に	-10.4497
ないけど	-10.45
事件の	-10.45
クイーン	-10.4502
みましょう	-10.4502
内の	-10.4503
置き	-10.4505
関与	-10.4505
不正	-10.4507
範囲	-10.4509
共同	-10.4513
集まって	-10.4513
ローズ	-10.4514
▁ただいま	-10.4521
給	-10.4521
つながり	-10.4523
食べた	-10.4523
肩	-10.4524
▁何よ	-10.4527
▁気をつけて	-10.4527
を得た	-10.4527
▁コン	-10.4529
過ぎた	-10.4531
陰	-10.4532
を見ろ	-10.4533
▁今回	-10.4534
送った	-10.4534
▁毎年	-10.4539
インタビュー	-10.4542
分かります	-10.4542
ニア	-10.4542
なのは	-10.4543
on	-10.4546
形で	-10.455
▁重要な	-10.455
おいて	-10.4555
説	-10.4556
▁正しい	-10.4557
▁奴が	-10.4558
▁無駄	-10.4559
ケツ	-10.4561
▁同時に	-10.4563
▁計画	-10.4563
怒り	-10.4565
自信	-10.4565
聞いてくれ	-10.4566
る事	-10.4567
を止める	-10.4576
▁アア	-10.4578
▁ジョージ	-10.4581
飯	-10.4588
進んで	-10.4588
还	-10.4589
▁ずいぶん	-10.459
▁そのために	-10.4591
社の	-10.4593
上げて	-10.4595
従業員	-10.4597
可愛い	-10.4599
ウィン	-10.46
見ている	-10.4601
億ドル	-10.4603
▁初	-10.4603
のようなもの	-10.4604
奇妙な	-10.4604
夕食	-10.4604
▁雨	-10.4608
▁変	-10.4611
ろうと	-10.4612
ベッド	-10.4614
▁生徒	-10.4615
做	-10.4615
調べる	-10.4616
▁行きましょう	-10.4616
▁あんまり	-10.4618
さあ	-10.4618
周	-10.4619
気にしない	-10.4623
▁コンピュータ	-10.4624
第一	-10.4624
id	-10.4626
▁E	-10.4628
京	-10.4629
五	-10.4636
祖父	-10.4636
世話	-10.4638
冗談	-10.4638
鉄	-10.4639
ってば	-10.4639
会場	-10.464
▁ご主人	-10.4646
創	-10.4647
来てる	-10.4647
そうだった	-10.4648
がいた	-10.4649
贈り物	-10.4652
政策	-10.4652
誰だ	-10.4653
口に	-10.4653
やめ	-10.4653
▁一生	-10.4653
団体	-10.4656
冷	-10.4657
匂い	-10.4658
▁考えて	-10.4659
▁公	-10.4662
▁強い	-10.4662
▁そこは	-10.4664
会いたい	-10.4664
アフリカ	-10.4664
プラン	-10.4669
ガイ	-10.4674
800	-10.4676
種類	-10.4676
散歩	-10.4677
ことになります	-10.468
▁昔の	-10.4682
▁残念ながら	-10.4684
起こり	-10.4684
スタッフ	-10.4685
救い	-10.4686
糞	-10.4687
銀河	-10.4688
▁そうですね	-10.4694
などの	-10.4699
の生活	-10.4699
見方	-10.47
▁那	-10.4701
は違う	-10.4703
変な	-10.4704
キミ	-10.4706
幸福	-10.4708
給料	-10.4708
不是	-10.4708
▁11	-10.471
もいる	-10.4714
手伝い	-10.4714
チン	-10.4714
の為	-10.4715
追	-10.4717
部の	-10.4718
▁私にとって	-10.4721
▁平	-10.4724
棒	-10.4725
言ったの	-10.4725
砂漠	-10.4726
呼吸	-10.4726
▁まずい	-10.473
のほうが	-10.4732
群	-10.4732
メッセージを	-10.4738
案内	-10.4739
復活	-10.4741
♫	-10.4745
大切な	-10.4745
すみません	-10.4747
▁この写真	-10.4747
最	-10.4753
二つの	-10.4755
代わり	-10.4756
▁起きて	-10.476
業界	-10.4761
▁40	-10.4762
ではなかった	-10.4764
材料	-10.4764
▁横	-10.4766
決して	-10.477
調べて	-10.4771
ずつ	-10.4772
is	-10.4772
▁フフフ	-10.4773
運転手	-10.4774
費用	-10.4775
版	-10.4777
短い	-10.4777
を信じる	-10.4778
待機	-10.4783
おいで	-10.4783
▁覚えてる	-10.4783
たのです	-10.4784
だけでも	-10.4786
の人生	-10.4788
わない	-10.4789
▁孫	-10.4791
▁間違いない	-10.4791
▁だめだ	-10.4794
比べ	-10.4794
移	-10.4797
汚	-10.4797
かす	-10.4797
好きだ	-10.4797
言っている	-10.4799
指揮	-10.48
▁氷	-10.4802
▁偶然	-10.4803
携帯電話	-10.4808
▁実に	-10.4811
カラ	-10.4813
ウィルス	-10.4815
した事	-10.4818
▁治療	-10.4819
▁特別	-10.482
ペット	-10.4821
を殺して	-10.4822
の言葉	-10.4822
▁ハー	-10.4824
新聞	-10.4826
初	-10.483
気がする	-10.4831
調べた	-10.4831
ないといけない	-10.4831
ボート	-10.4831
どうだ	-10.4834
銃を	-10.4835
チェ	-10.4838
心に	-10.4838
話さない	-10.4838
	-10.4838
だったのです	-10.4838
▁愛してる	-10.484
囚人	-10.4841
作家	-10.4841
をつけて	-10.4846
途中で	-10.4848
軽	-10.4848
スピード	-10.4849
理由が	-10.485
んだが	-10.4851
墓	-10.4851
去った	-10.4852
行けない	-10.4853
簡単	-10.4855
すればいい	-10.4856
▁ロシア	-10.4856
精	-10.4857
尋問	-10.4857
興味深い	-10.486
最悪	-10.486
認める	-10.486
たくなかった	-10.486
コール	-10.4862
そこで	-10.4862
常に	-10.4863
交通	-10.4864
km	-10.4865
金庫	-10.4866
自ら	-10.4871
もらおう	-10.4871
の時間	-10.4871
400	-10.4872
いいけど	-10.4872
必要な	-10.4873
貸し	-10.4873
ホーム	-10.4874
リーン	-10.4874
▁兄貴	-10.4874
▁オーケー	-10.4876
▁飛行機	-10.488
選んだ	-10.4882
と思っていた	-10.4882
低い	-10.4882
は死んだ	-10.4885
部下	-10.4885
んなら	-10.4887
言い方	-10.4889
▁どこへ	-10.489
巨人	-10.4893
は誰だ	-10.4893
吹き	-10.4897
いけない	-10.49
盗	-10.4901
現れた	-10.4903
べきだった	-10.4904
言わ	-10.4906
正常	-10.4907
カードを	-10.4907
▁どういう意味	-10.4908
だらけ	-10.4908
安定	-10.491
せず	-10.4911
省	-10.4912
信じてる	-10.4912
はじめ	-10.4913
余裕	-10.4914
強力な	-10.4915
替え	-10.4917
情報は	-10.4919
を置いて	-10.4919
少ない	-10.4921
咲	-10.4922
FBI	-10.493
旗	-10.4933
お前に	-10.4934
▁首	-10.4935
es	-10.4935
か何か	-10.4936
▁知らなかった	-10.4938
写真を	-10.4939
張	-10.494
確保	-10.494
除	-10.494
を探してる	-10.4941
権力	-10.4946
まあ	-10.4946
だったな	-10.495
被害	-10.4955
▁僕ら	-10.4956
父さん	-10.4958
祝	-10.4958
調べ	-10.496
▁ヤ	-10.4966
イカ	-10.4966
現	-10.4968
▁すばらしい	-10.4968
行くわ	-10.4968
出口	-10.4969
陣	-10.4971
イベント	-10.4971
▁ジェイ	-10.4972
んじゃねえ	-10.4973
ごとに	-10.4974
話してる	-10.4977
話せる	-10.498
を出して	-10.4981
300	-10.4981
ないでしょう	-10.4983
ついてる	-10.4988
恥	-10.4989
解決策	-10.4989
の話は	-10.499
検討	-10.499
ますが	-10.499
必ず	-10.4992
興奮	-10.4994
▁僕には	-10.4995
▁ビール	-10.4998
犠牲者	-10.4999
▁馬	-10.5006
わかって	-10.5006
上がり	-10.5008
▁当時	-10.5009
腫瘍	-10.5009
順調	-10.5009
意志	-10.501
情熱	-10.501
くなった	-10.5012
シェ	-10.5014
てくれた	-10.5016
过	-10.5016
母さん	-10.5017
ましょうか	-10.5018
▁クリスマス	-10.5023
の半分	-10.5024
球	-10.5026
助けて	-10.5027
階段	-10.503
ホテル	-10.5036
連邦	-10.5038
酷い	-10.504
▁最初から	-10.504
一切	-10.5042
背	-10.5042
まれ	-10.5045
置	-10.5046
▁容疑者	-10.5046
23	-10.5048
▁パパは	-10.5049
なくちゃ	-10.505
直す	-10.5051
の車	-10.5053
バイオ	-10.5054
▁ある日	-10.5055
覚悟	-10.5055
君と	-10.5057
人がいる	-10.5058
を知る	-10.5065
ra	-10.5067
意図	-10.5068
をもって	-10.507
神様	-10.5071
▁自己	-10.5071
刺激	-10.5071
積	-10.5072
どちら	-10.5074
のかも	-10.5075
決断	-10.5075
新たな	-10.5077
ホン	-10.5077
守って	-10.5078
計画を	-10.508
ヴァー	-10.508
▁窓	-10.5082
▁できない	-10.5082
の場合	-10.5084
▁逆	-10.5085
連続	-10.5086
成績	-10.5086
拷問	-10.5086
手伝う	-10.5086
ナイ	-10.5087
万人	-10.5088
U	-10.5095
を出す	-10.5097
▁どれくらい	-10.5098
を攻撃	-10.5098
▁生きてる	-10.5098
▁助けてくれ	-10.5101
将	-10.5102
報酬	-10.5105
人です	-10.5107
結構	-10.5107
ご覧	-10.5113
▁ほぼ	-10.5114
固	-10.5115
年生	-10.5115
▁協力	-10.5119
▁フ	-10.5119
▁どうすれば	-10.512
菌	-10.5124
把	-10.5124
閉鎖	-10.5125
▁来い	-10.5126
▁最低	-10.5127
ツール	-10.5129
▁酒	-10.513
跡	-10.513
与え	-10.5132
なりました	-10.5134
▁マー	-10.5135
チケット	-10.5145
論文	-10.5145
展開	-10.5146
の父親	-10.5147
寄	-10.515
▁どんなに	-10.5151
▁ダン	-10.5152
地方	-10.5152
▁英語	-10.5152
好み	-10.5153
▁知る	-10.5155
不能	-10.5157
ブレ	-10.5158
帰ろう	-10.516
━	-10.5163
余計	-10.5164
ことでしょう	-10.5167
▁終わり	-10.5168
偉大な	-10.5172
したとき	-10.5173
見たい	-10.5174
教えてくれた	-10.5174
an	-10.5174
頭を	-10.5175
一般	-10.5175
マスター	-10.5175
ってことは	-10.518
チュ	-10.5182
やられた	-10.5182
信じない	-10.5183
▁声	-10.5183
調整	-10.5183
明らか	-10.5185
▁アフリカ	-10.5185
報道	-10.5185
▁ゾンビ	-10.5187
ジョ	-10.5191
に移	-10.5192
奴が	-10.5195
にあります	-10.5196
これらの	-10.5196
シュー	-10.5196
伏せ	-10.5197
全員が	-10.5198
出てきた	-10.5198
身を	-10.52
強盗	-10.5202
▁警察は	-10.5204
害	-10.5206
ごめんなさい	-10.5206
降りて	-10.5207
教えてくれ	-10.5209
▁エネルギー	-10.521
リンク	-10.5215
買う	-10.5216
▁銀行	-10.5216
然	-10.5217
はずよ	-10.5218
届け	-10.5218
属	-10.522
だろうと	-10.5221
自動車	-10.5227
▁両親	-10.5228
さんも	-10.5229
ニューヨーク	-10.5231
▁見せて	-10.5235
何とか	-10.5238
であると	-10.5241
基準	-10.5241
輸送	-10.5241
やがって	-10.5242
80	-10.5243
決めて	-10.5246
覆	-10.5248
遅れ	-10.5248
柄	-10.5251
バレ	-10.5258
不満	-10.5258
降り	-10.5259
といい	-10.5266
▁殺された	-10.5267
減	-10.5267
▁ハン	-10.5268
らせ	-10.527
なきゃいけない	-10.5271
▁あそこに	-10.5273
▁恐怖	-10.5273
▁爆弾	-10.5274
アンド	-10.5276
▁両方	-10.5277
▁17	-10.5277
トリック	-10.5279
タイミング	-10.5281
▁みんなが	-10.5282
▁その前に	-10.5283
撃った	-10.5285
回って	-10.5292
コース	-10.5292
騒ぎ	-10.5294
心の	-10.5297
▁少年	-10.5298
心が	-10.5299
成果	-10.5299
繰り返し	-10.5302
▁グ	-10.5305
隠れて	-10.5305
▁自分自身	-10.5307
マジック	-10.5307
▁大変な	-10.5309
▁おっと	-10.5309
▁ハロルド	-10.5312
を選ぶ	-10.5314
手配	-10.5314
▁ママは	-10.5315
sa	-10.5315
アメリカ人	-10.5319
気付いた	-10.5323
▁意識	-10.5324
行か	-10.5325
六	-10.5326
▁お前には	-10.5326
族	-10.5328
性の	-10.5329
触	-10.5331
なさいよ	-10.5334
務	-10.5334
トレ	-10.5336
しまいます	-10.5337
物が	-10.5338
真似	-10.5338
這	-10.5341
税	-10.5342
▁これらは	-10.5345
時間だ	-10.5348
面倒	-10.5349
スキャン	-10.5352
ホッ	-10.5357
脅迫	-10.536
とした	-10.5361
小説	-10.5364
▁どう思う	-10.5365
ところだ	-10.5366
▁村	-10.5366
ってばよ	-10.5366
としての	-10.5367
損傷	-10.5367
何人か	-10.5367
装	-10.5369
▁コンピューター	-10.537
▁お前達	-10.5372
▁世界中	-10.5372
セル	-10.5376
不要	-10.5376
カット	-10.5376
誤解	-10.5377
22	-10.5382
▁第一	-10.5384
▁命令	-10.5384
でございます	-10.5385
▁可愛い	-10.5385
▁失敗	-10.5389
▁昨日の	-10.5392
にしよう	-10.5393
養	-10.5393
の大	-10.5394
信じられない	-10.5395
▁素敵な	-10.5395
休	-10.5397
を確認	-10.5398
ハー	-10.5398
優しい	-10.5399
インターネット	-10.54
どの	-10.54
信じて	-10.54
に何か	-10.5402
巻き	-10.5403
づけ	-10.5404
悪夢	-10.5405
▁やめてくれ	-10.5406
▁成功	-10.5406
みたいね	-10.5406
▁調査	-10.5407
▁一方	-10.5408
配置	-10.5408
言うの	-10.5408
大学の	-10.5409
試合	-10.5415
通報	-10.5417
对	-10.5419
▁重	-10.542
fbi	-10.542
女が	-10.5424
▁今や	-10.5425
遊	-10.5428
発動	-10.543
一緒	-10.5433
マイ	-10.5434
ようになる	-10.5434
▁ナ	-10.5436
椅子	-10.5436
河	-10.5436
▁赤い	-10.5438
起きる	-10.544
▁どんどん	-10.5442
倒	-10.5442
幸せな	-10.5444
気の毒	-10.5447
操	-10.5448
▁その子	-10.545
▁分かって	-10.5453
組み	-10.5454
補	-10.5457
▁運	-10.5458
苦しみ	-10.5459
気持	-10.5461
▁兄弟	-10.5464
▁特別な	-10.5465
▁歴史	-10.5467
▁犯罪	-10.5469
悲劇	-10.547
▁ニック	-10.5472
▁キム	-10.5473
ないわよ	-10.5477
っていうのは	-10.5477
腰	-10.5479
ギー	-10.548
武装	-10.5481
▁陛下	-10.5481
となります	-10.5481
トイレ	-10.5485
▁いつから	-10.5485
望	-10.5495
▁本気	-10.5496
しさ	-10.5497
羊	-10.5499
說	-10.5499
▁その結果	-10.5503
の意味	-10.5505
達成	-10.5508
▁教えてくれ	-10.551
ねー	-10.5511
▁あの男	-10.5514
であれば	-10.5514
級	-10.5519
させろ	-10.552
したんです	-10.552
グラフ	-10.5529
食料	-10.5531
呪い	-10.5532
かん	-10.5532
ケン	-10.5533
出会い	-10.5535
見せて	-10.5537
忘れた	-10.5538
アート	-10.554
移植	-10.554
▁夏目	-10.5541
けて	-10.5543
ただの	-10.5543
言われて	-10.5544
ちゃんは	-10.5545
無視	-10.5545
いいんだ	-10.5548
居ない	-10.5549
▁とんでもない	-10.555
側に	-10.555
▁こっちに	-10.5551
を選んだ	-10.5555
▁バス	-10.5555
してたの	-10.5556
送る	-10.5557
学んだ	-10.5558
ぶり	-10.5559
だったよ	-10.5563
だったのに	-10.5563
▁何でもない	-10.5565
たのよ	-10.5565
消費	-10.5567
どのように	-10.5567
35	-10.5569
挙げ	-10.5572
病院に	-10.5572
選挙	-10.5574
▁あの女	-10.5575
▁ヨ	-10.5577
▁気に	-10.5578
抜き	-10.558
網	-10.558
と言ってる	-10.5581
▁先ほど	-10.5583
訴え	-10.5584
▁喜んで	-10.5586
▁さっきの	-10.5588
▁オレたち	-10.559
口座	-10.559
▁DNA	-10.559
▁ここを	-10.5591
▁心配するな	-10.5592
▁ただし	-10.5593
▁ぜひ	-10.5594
中心	-10.5599
ウン	-10.56
たいんだ	-10.56
霧	-10.56
あたし	-10.5601
▁大事な	-10.5602
ヒト	-10.5605
▁たとえば	-10.5606
底	-10.5607
確率	-10.5607
▁他人	-10.5607
休暇	-10.561
明らかに	-10.561
決まった	-10.5611
リース	-10.5613
▁各	-10.5616
できること	-10.5618
付ける	-10.5619
塔	-10.5621
ウソ	-10.5624
帝国	-10.5625
還	-10.5625
決める	-10.5626
▁いけ	-10.5626
▁責任	-10.5627
駐車場	-10.5628
議会	-10.5628
匹	-10.5629
▁半	-10.563
注	-10.5631
しな	-10.5633
言うこと	-10.5633
たまえ	-10.5635
休んで	-10.5637
に連絡	-10.5641
細	-10.5641
突	-10.5641
してしまった	-10.5642
▁何があった	-10.5643
情報が	-10.5644
始まった	-10.5645
間違って	-10.5645
▁早	-10.5647
電子	-10.5649
の死	-10.565
ほどの	-10.565
デュ	-10.5652
見つけて	-10.5653
しようとした	-10.5654
雑	-10.5654
問題に	-10.5658
▁感謝	-10.5659
になっています	-10.566
当時	-10.566
られてる	-10.5661
▁人は	-10.5661
連れて行く	-10.5661
によれば	-10.5662
労働	-10.5663
カリ	-10.5664
▁よろしくお願いします	-10.5666
白人	-10.5668
車が	-10.567
ッサ	-10.5671
ヘル	-10.5671
の母親	-10.5673
▁知っている	-10.5674
▁新聞	-10.5676
ていく	-10.5681
暮らす	-10.5682
にしろ	-10.5684
怪我	-10.5686
音を	-10.5687
尊敬	-10.5693
at	-10.5697
ノート	-10.5697
競争	-10.5699
音が	-10.5699
▁どこから	-10.5699
声を	-10.5701
予算	-10.5703
張り	-10.5703
たって	-10.5708
確かに	-10.5709
▁見る	-10.5709
▁誰の	-10.5709
▁あんたに	-10.5711
代表	-10.5711
大変な	-10.5712
▁ようやく	-10.5713
驚くべき	-10.5713
探す	-10.5714
▁ピ	-10.5714
色々	-10.5715
つまり	-10.5724
は本当に	-10.5724
▁ほんの	-10.5726
▁お嬢さん	-10.5726
ミルク	-10.5728
▁市民	-10.5729
組み合わせ	-10.573
▁ビデオ	-10.573
義務	-10.5735
▁君ら	-10.5737
▁生命	-10.5742
思っている	-10.5743
▁唯一の	-10.5744
素敵な	-10.5745
▁違うよ	-10.5749
ヴァン	-10.5749
▁あのね	-10.5753
▁いかに	-10.5755
ダイ	-10.5756
館	-10.576
わけだ	-10.5761
書いてある	-10.5762
英	-10.5763
ところです	-10.5764
譲	-10.5764
拘束	-10.5764
寄付	-10.5767
マネ	-10.5768
▁あの子は	-10.5768
いこう	-10.5771
▁俺ら	-10.5773
▁人を	-10.5773
▁バン	-10.5774
きたの	-10.5775
知ってるの	-10.5778
▁ok	-10.5779
▁無事	-10.5781
蹴	-10.5781
▁教育	-10.5784
▁是	-10.5785
▁こちらの	-10.5785
設定	-10.5785
処分	-10.5788
なんだろう	-10.5789
▁鳥	-10.579
していく	-10.579
男に	-10.5795
スピーカ	-10.5797
簡単な	-10.5801
麻薬	-10.5802
ナンバー	-10.5803
▁人の	-10.5804
ビール	-10.5805
資格	-10.5806
を調べて	-10.5808
▁バカな	-10.581
ーズ	-10.5811
られなかった	-10.5812
▁こいつら	-10.5817
シーン	-10.582
巣	-10.5821
正気	-10.5822
酸	-10.5822
暴	-10.5823
たった	-10.5824
に入れて	-10.5825
委員会	-10.5826
するのが	-10.5827
強制	-10.5827
ロウ	-10.5829
ッカー	-10.583
上がる	-10.5831
入院	-10.5832
支払い	-10.5834
▁dna	-10.5834
見つからない	-10.5835
狙い	-10.5836
今日は	-10.5837
芸術	-10.5837
時間で	-10.5838
ゾンビ	-10.5843
確かめ	-10.5845
家で	-10.5846
肌	-10.5847
汚染	-10.5847
パイロット	-10.5847
ゴール	-10.585
▁この街	-10.5851
って言ってた	-10.5852
良くない	-10.5854
すぎた	-10.5863
欲	-10.5864
出た	-10.5866
トロ	-10.5867
手がかり	-10.5867
冒険	-10.5868
妄想	-10.5868
レット	-10.5871
的话	-10.5871
電話を	-10.5871
有名な	-10.5872
▁待てよ	-10.5878
を受けて	-10.5882
罠	-10.5882
事になる	-10.5882
いくつか	-10.5884
貧困	-10.5888
来てくれた	-10.5889
危ない	-10.5893
でなく	-10.5896
なもの	-10.5902
▁被害者の	-10.5903
なかったの	-10.5904
の原因	-10.5906
ルーム	-10.5906
自体	-10.5907
部門	-10.5907
走る	-10.5909
▁ちなみに	-10.591
▁サー	-10.5912
奇跡	-10.5912
完全	-10.5912
シル	-10.5913
▁何処	-10.5916
▁いろんな	-10.5917
しまい	-10.5918
もらい	-10.5918
使え	-10.5919
▁おぉ	-10.592
トゥ	-10.5923
▁なる	-10.5923
▁俺たちの	-10.5923
えて	-10.5924
灰	-10.5925
するよう	-10.5925
今の	-10.5925
かもしれませんが	-10.5929
節	-10.5929
ダメージ	-10.5929
▁受け入れ	-10.5931
考えている	-10.5933
本の	-10.5934
▁取引	-10.5935
衛星	-10.5935
人々の	-10.5937
▁子供の	-10.5939
英語	-10.5939
するから	-10.594
▁直	-10.594
つもりだった	-10.5943
▁川	-10.5943
プリ	-10.5944
ニス	-10.5945
住む	-10.5946
自身の	-10.5947
できるように	-10.5947
林	-10.5949
入る	-10.5949
久	-10.5951
来ます	-10.5952
してしまう	-10.5954
つは	-10.5954
目が	-10.5954
▁もうちょっと	-10.5955
されない	-10.5955
▁ショー	-10.5956
になるの	-10.5958
▁爆発	-10.5958
力は	-10.596
創造	-10.596
現れ	-10.5962
▁ガン	-10.5965
目は	-10.5965
▁ポール	-10.5965
岡	-10.5967
意外	-10.5968
いますか	-10.5969
者たち	-10.5971
したかった	-10.5974
僕ら	-10.5974
ないでくれ	-10.5975
▁未	-10.5975
▁トラック	-10.5977
▁雪	-10.5977
砲	-10.5978
加速	-10.598
八	-10.598
場所だ	-10.5983
いらない	-10.5984
合った	-10.5985
脈	-10.5985
るんです	-10.5986
▁立ち	-10.5987
していません	-10.5987
サイ	-10.599
まって	-10.5992
赤い	-10.5993
助かる	-10.5995
正しく	-10.5997
▁動くな	-10.5997
戦って	-10.5998
言います	-10.5999
っぱ	-10.6
時代に	-10.6
▁いっぱい	-10.6003
テレ	-10.6003
誕生	-10.6004
欲しかった	-10.6006
ることは	-10.6006
トラップ	-10.6007
有罪	-10.6007
起きて	-10.6009
アニ	-10.6011
車に	-10.6012
られています	-10.6012
丶	-10.6015
令状	-10.6015
た時	-10.6016
だと思った	-10.6018
▁O	-10.602
▁アダム	-10.6021
子は	-10.6023
は無理だ	-10.6023
の夢	-10.6025
▁石	-10.6025
見つける	-10.6029
るまで	-10.603
ハウス	-10.603
▁イヤ	-10.6031
やつだ	-10.6032
▁アラン	-10.6032
下の	-10.6034
するぞ	-10.6035
殺し屋	-10.6036
▁ビジネス	-10.6036
慈悲	-10.6036
ジョー	-10.6037
追加	-10.6038
▁母は	-10.6039
と思うか	-10.6039
▁イン	-10.604
メモ	-10.6041
ンズ	-10.6041
▁わし	-10.6042
サラ	-10.6043
に行き	-10.6047
▁この家	-10.6048
出血	-10.6052
やってきた	-10.6052
▁いけない	-10.6052
こそが	-10.6053
▁二人とも	-10.6053
どれだけ	-10.6056
らせる	-10.6056
辞め	-10.6057
翼	-10.6057
▁やってみ	-10.6059
▁監視	-10.606
研究室	-10.606
声が	-10.606
の人が	-10.6061
燃え	-10.6063
航空	-10.6064
▁c	-10.6068
家を	-10.6068
▁有	-10.6069
以外は	-10.607
▁あなたは私	-10.6075
▁まだまだ	-10.6078
財産	-10.6079
年で	-10.6081
するため	-10.6082
名前を	-10.6084
つもりか	-10.6085
そのまま	-10.6087
▁ドクター	-10.6087
成功した	-10.6089
ろよ	-10.6089
を見せて	-10.609
やろ	-10.6091
聞かせて	-10.6094
のようです	-10.6095
をつけ	-10.6097
ないだろう	-10.6098
▁今日も	-10.6098
かって	-10.6098
ファイ	-10.61
天気	-10.6104
鼻	-10.6105
々と	-10.6105
ベスト	-10.6109
ライフ	-10.611
現場に	-10.6111
電力	-10.6112
難しく	-10.6113
読んで	-10.6115
驚く	-10.6117
冬	-10.6119
マシ	-10.612
の歴史	-10.612
することが	-10.6121
訪問	-10.6121
顧客	-10.6121
素材	-10.6122
制限	-10.6122
▁P	-10.6122
住民	-10.6122
▁残り	-10.6123
連れて	-10.6124
いいですか	-10.6125
くれよ	-10.6126
▁アメリカの	-10.6128
ナム	-10.6129
愛情	-10.613
▁どうかした	-10.6136
傷つけ	-10.6136
何度も	-10.6137
ID	-10.6139
車の	-10.6139
ヘン	-10.6139
伝えて	-10.614
判事	-10.614
盤	-10.6143
TED	-10.6143
繋がり	-10.6143
▁大丈夫だよ	-10.6144
集まり	-10.6144
ィ	-10.6145
を持っています	-10.6147
るもの	-10.6148
ニャ	-10.6148
であろう	-10.6149
▁あの日	-10.615
の下で	-10.6152
水を	-10.6155
ポン	-10.6155
人間だ	-10.6159
布	-10.6159
▁開け	-10.6159
飛ぶ	-10.616
したいの	-10.6163
▁何してる	-10.6163
周辺	-10.6165
▁歯	-10.6165
規則	-10.6168
フォード	-10.6168
▁先週	-10.6169
出ない	-10.6172
つかない	-10.6173
フリ	-10.6173
▁完璧	-10.6174
▁そのような	-10.6174
▁16	-10.6174
書く	-10.6175
回収	-10.618
の本	-10.6183
艦隊	-10.6183
職員	-10.6187
アリバイ	-10.6187
速い	-10.6189
▁高校	-10.6191
▁楽しみ	-10.6191
リオ	-10.6193
中毒	-10.6195
ようね	-10.6196
を知らない	-10.6198
番目の	-10.6198
▁無理だ	-10.62
射	-10.62
始めよう	-10.6207
票	-10.6207
寄せ	-10.6209
得た	-10.621
価格	-10.6213
▁時間が	-10.6213
しかった	-10.6213
キャンプ	-10.6215
▁この世界	-10.6216
▁なんてこと	-10.6216
ちゃんが	-10.6216
ぅ	-10.6219
取れ	-10.622
てやる	-10.6221
▁ウチ	-10.6223
▁そうやって	-10.6223
織	-10.6223
桜	-10.6225
▁その人	-10.6227
意思	-10.6228
関	-10.6229
完璧	-10.6229
を切り	-10.623
▁魔法	-10.623
ウォル	-10.6232
▁バリー	-10.6237
意味が	-10.6237
照	-10.6239
でない	-10.624
▁なぁ	-10.6241
クレ	-10.6243
誰でも	-10.6243
▁前に	-10.6245
衝撃	-10.6251
▁相手	-10.6251
ッグ	-10.6251
怖かった	-10.6252
変態	-10.6252
ギャ	-10.6255
罪を	-10.6255
伝説	-10.6258
連絡を	-10.6258
▁自ら	-10.6259
ゆっくり	-10.6259
▁毒	-10.6259
そば	-10.6261
▁勉強	-10.6261
燃料	-10.6262
厳しい	-10.6262
▁おやすみ	-10.6263
修	-10.6263
▁都市	-10.6267
人間に	-10.6269
特許	-10.6273
バイク	-10.6275
悲しみ	-10.6276
私達は	-10.6277
巨大な	-10.6279
の頃	-10.6281
▁見つけ	-10.6281
うち	-10.6282
Y	-10.6283
癌	-10.6285
過ごした	-10.6288
特定	-10.6288
仕事が	-10.6293
▁ハッ	-10.6294
図書館	-10.6294
▁もう一つ	-10.6295
▁マリア	-10.6297
わたし	-10.6298
ted	-10.6298
狩り	-10.6299
▁目標	-10.6301
行う	-10.6301
責任を	-10.6304
勢	-10.6306
に入れ	-10.6307
って言って	-10.6307
起こった	-10.631
分かってない	-10.6312
会社を	-10.6314
きっかけ	-10.6316
畑	-10.6316
有名	-10.6317
がいて	-10.6318
只	-10.6321
▁目的	-10.6321
私達の	-10.6322
喜んで	-10.6322
▁持ち	-10.6322
▁その日	-10.6322
かつ	-10.6323
活動を	-10.6323
どうしたの	-10.6325
足りない	-10.6329
▁お前と	-10.633
▁だれ	-10.6331
されてた	-10.6332
覚えて	-10.6333
ヒュー	-10.6334
してくる	-10.6335
米国	-10.6339
ブス	-10.634
▁船長	-10.6343
問題がある	-10.6344
ヴェ	-10.6346
入れる	-10.6347
彼氏	-10.6348
▁離婚	-10.635
▁神の	-10.635
会って	-10.635
▁キミは	-10.6351
身に	-10.6351
してたんだ	-10.6352
ブラック	-10.6353
思わない	-10.6354
レース	-10.6356
▁記録	-10.6357
らず	-10.6357
ようとした	-10.6357
▁建物	-10.6358
託	-10.6359
警戒	-10.6359
ing	-10.6362
聞いてない	-10.6365
▁麻薬	-10.6365
なんですけど	-10.6366
ダイヤ	-10.6367
描いて	-10.6368
解明	-10.6372
▁よくやった	-10.6374
▁少しは	-10.6375
っち	-10.6377
パーク	-10.638
遠	-10.638
闘	-10.6381
エージェント	-10.6381
それぞれ	-10.6382
解除	-10.6382
筋肉	-10.6383
文明	-10.6383
の前	-10.6383
することができます	-10.6384
▁一護	-10.6384
▁お話	-10.6389
札	-10.6389
特徴	-10.6392
近所	-10.6392
僕を	-10.6396
来たんだ	-10.6397
▁機械	-10.6398
の鍵	-10.6399
▁今でも	-10.6401
株	-10.6401
保険	-10.6403
▁スピード	-10.6403
田舎	-10.6404
戦闘	-10.6405
ないんです	-10.6405
ウル	-10.6406
バランス	-10.6407
しろよ	-10.6408
国内	-10.6408
行くの	-10.6409
▁フィ	-10.6409
これまで	-10.6411
ふう	-10.6413
のう	-10.6415
▁古	-10.6415
やります	-10.6416
▁そこには	-10.6417
楽しく	-10.6419
▁殺し	-10.6422
都合	-10.6422
やつは	-10.6424
維持	-10.6426
クター	-10.6426
男と	-10.6427
▁すげえ	-10.6427
▁どのくらい	-10.6427
怒ってる	-10.6435
の効果	-10.6436
するつもり	-10.6437
謝る	-10.6439
▁死んで	-10.644
数年	-10.6443
いてくれ	-10.6445
禁	-10.6446
鎖	-10.6447
取材	-10.6448
風邪	-10.6448
共に	-10.645
皆さんに	-10.6451
何故	-10.6452
性を	-10.6454
話が	-10.6454
価値がある	-10.6455
はいい	-10.6456
混	-10.6456
が必要なの	-10.6456
から来た	-10.6457
▁ちょっとした	-10.6457
ほう	-10.6458
みたいで	-10.6459
オペ	-10.6459
際に	-10.6461
スターク	-10.6462
甘	-10.6463
話してくれ	-10.6464
ランチ	-10.6465
他人	-10.6468
子ちゃん	-10.6472
みます	-10.6475
ング	-10.6475
ないだろ	-10.6476
▁いいですか	-10.6476
カップ	-10.6476
に入り	-10.6479
っきり	-10.648
安全だ	-10.6482
トーク	-10.6483
そうか	-10.6484
勝手に	-10.6486
軍の	-10.6489
▁ああっ	-10.6489
広い	-10.649
クロ	-10.649
▁それでいい	-10.6491
部屋で	-10.6491
▁ベッド	-10.6491
存在しない	-10.6492
妨害	-10.6492
妖怪	-10.6492
ドアを開け	-10.6494
いき	-10.6496
そうね	-10.6496
流行	-10.6498
お話し	-10.6499
▁もしくは	-10.65
ていない	-10.6502
の家に	-10.6503
▁馬鹿	-10.6504
いたのです	-10.6505
現れる	-10.6508
を撃った	-10.6509
男子	-10.651
会い	-10.6512
イブ	-10.6513
ッと	-10.6515
▁子供が	-10.6518
▁だいたい	-10.6522
ガル	-10.6524
▁おじさん	-10.6525
▁但是	-10.6529
ちまった	-10.6532
▁車の	-10.6533
▁他の人	-10.6535
一族	-10.6537
宝石	-10.6537
助手	-10.6538
画面	-10.654
屋根	-10.654
刑務所に	-10.654
ことはありません	-10.6541
▁間違い	-10.6543
に居る	-10.6544
永遠	-10.6545
▁逃げろ	-10.6545
は非常に	-10.6547
可能性がある	-10.6548
仕事だ	-10.6549
別に	-10.6551
▁何ですか	-10.6554
行くよ	-10.6555
▁料理	-10.6558
失敗した	-10.6558
広告	-10.6559
車は	-10.6562
運び	-10.6562
使命	-10.6562
制服	-10.6562
▁パーティー	-10.6563
なのだ	-10.6569
となって	-10.657
▁イギリス	-10.6573
灯	-10.6574
しっかり	-10.6574
王子	-10.6574
▁教会	-10.6574
締め	-10.6576
比	-10.6577
縮	-10.6579
性格	-10.6584
イイ	-10.6585
誰にも	-10.6587
▁この町	-10.6587
静	-10.6587
分からん	-10.6589
逃げて	-10.6589
せた	-10.6592
明白	-10.6594
大好きな	-10.6595
学び	-10.6597
か分からない	-10.66
墓地	-10.66
▁断	-10.6602
んでしょうか	-10.6603
合格	-10.6604
観測	-10.6604
骨折	-10.6607
▁野	-10.6607
装備	-10.6607
のとき	-10.6607
必要ない	-10.661
連	-10.6613
ドロ	-10.6614
残った	-10.6616
壊	-10.6616
ブログ	-10.6619
ナン	-10.662
の血	-10.662
ってさ	-10.6621
▁法律	-10.6621
離れた	-10.6624
トップ	-10.6624
頑張って	-10.6625
▁ファ	-10.6625
爪	-10.6626
▁魚	-10.6628
農場	-10.663
飲み物	-10.6632
▁内	-10.6632
善	-10.6633
把握	-10.6634
劇	-10.6636
ってやつ	-10.6636
整	-10.6637
▁興味深い	-10.6637
技術を	-10.6637
の事件	-10.6638
非難	-10.6638
会長	-10.6639
竹	-10.6642
つま	-10.6642
を呼び	-10.6645
べきです	-10.6646
言ってない	-10.6646
つ目の	-10.6646
▁シン	-10.6647
デザイナー	-10.6648
汗	-10.6648
訴訟	-10.6648
デュエル	-10.6649
て下さい	-10.6651
たる	-10.6654
ねば	-10.6657
▁戦い	-10.6657
体は	-10.6659
▁あいつが	-10.6659
▁信じ	-10.6666
▁おまえは	-10.6667
と思うよ	-10.6668
してほしい	-10.6671
ここから	-10.6672
▁何かあった	-10.6672
ウェブ	-10.6673
もらえ	-10.6673
を殺し	-10.6675
ゲイ	-10.6675
みると	-10.6675
行くんだ	-10.6677
もう一度	-10.6678
気持ちは	-10.6678
上司	-10.6678
の姿	-10.668
寝てる	-10.668
を買う	-10.6682
逃	-10.6687
▁人々が	-10.6688
27	-10.6689
をもたらす	-10.669
を聞いて	-10.669
同時に	-10.6692
荒	-10.6697
商	-10.6697
▁パン	-10.6699
帰ってきた	-10.67
でしたか	-10.67
ビーチ	-10.6701
限	-10.6703
詳しい	-10.6704
を呼んで	-10.6704
いいの	-10.6705
▁信頼	-10.6707
▁どこにいる	-10.6709
事で	-10.6709
そうと	-10.6711
動いて	-10.6712
連絡する	-10.6713
るため	-10.6713
いら	-10.6714
▁身体	-10.6714
▁いくつか	-10.6715
▁答えは	-10.6715
似	-10.6717
を通じて	-10.6719
▁または	-10.6719
子供達	-10.672
巨大	-10.6722
▁24	-10.6722
視覚	-10.6722
▁クソッ	-10.673
殺され	-10.6736
申し	-10.6737
▁そうなんだ	-10.6738
ソフト	-10.6739
⦆	-10.6739
状態で	-10.6739
とする	-10.6739
チョウ	-10.674
アイディア	-10.674
表情	-10.674
資産	-10.674
調子	-10.6741
こんなに	-10.6746
通って	-10.6748
発信	-10.6755
最初	-10.6756
▁好	-10.6759
グリーン	-10.6761
悪くない	-10.6761
棚	-10.6762
ミサイル	-10.6762
言われ	-10.6764
▁あん	-10.6765
に対し	-10.6767
乗れ	-10.6768
学ぶ	-10.6768
を起こす	-10.6769
ごらん	-10.677
救出	-10.6771
クロス	-10.6777
だったんです	-10.6777
▁来	-10.6778
時間も	-10.6779
回る	-10.678
注射	-10.6784
▁わかって	-10.6785
最善	-10.6785
▁もはや	-10.6786
レストラン	-10.6791
オフィス	-10.6791
▁こういった	-10.6791
▁単なる	-10.6792
重要なのは	-10.6793
時点で	-10.6799
遅い	-10.68
▁いつまで	-10.68
▁オラ	-10.6802
▁言ってた	-10.6806
雄	-10.6807
龍	-10.6807
▁フランス	-10.6808
▁ねっ	-10.6808
おじさん	-10.6809
仕掛け	-10.681
▁会長	-10.681
なきゃならない	-10.6811
▁政治	-10.6811
発言	-10.6811
平気	-10.6811
だと思って	-10.6812
ドラマ	-10.6814
スペース	-10.6816
▁メイ	-10.6816
基本	-10.6817
言葉は	-10.6818
▁関係ない	-10.6819
みよう	-10.6819
いるわ	-10.682
復讐	-10.6822
▁当	-10.6822
▁それぞれ	-10.6823
不幸	-10.6823
与	-10.6824
聖	-10.6825
ステ	-10.6829
章	-10.683
枝	-10.683
食べ物	-10.6831
▁地下	-10.6834
っすか	-10.6834
暗	-10.6837
必要なのは	-10.6838
▁悟飯	-10.684
▁ブース	-10.684
私には	-10.6841
信じている	-10.6841
コル	-10.6843
▁間違いなく	-10.6851
本を	-10.6852
腕を	-10.6852
ましたか	-10.6853
ゲン	-10.6856
事態	-10.6857
ジャンプ	-10.6859
をかけて	-10.6859
緑	-10.6861
▁私のこと	-10.6861
上手く	-10.6867
▁暴力	-10.6868
だったか	-10.6868
おっしゃ	-10.6869
▁ばか	-10.6869
のせいじゃない	-10.6871
▁ご存じ	-10.6874
まさに	-10.6874
600	-10.6876
泥	-10.6876
ピアノ	-10.6878
クリス	-10.6879
▁非	-10.6879
だめだ	-10.6879
ブルー	-10.688
やん	-10.688
を呼ぶ	-10.6882
▁シャ	-10.6882
戻らない	-10.6884
戻れ	-10.6885
関係者	-10.6888
▁半分	-10.6889
を得て	-10.689
シティ	-10.6891
優	-10.6894
国民	-10.6897
▁何だと	-10.6899
ものと	-10.6899
場合は	-10.6899
▁患者	-10.69
指導者	-10.69
タル	-10.69
ましたが	-10.69
優先	-10.6901
▁なんの	-10.6902
▁楽	-10.6902
山さん	-10.6902
してて	-10.6902
落とした	-10.6904
吸い	-10.6904
▁何やってんだ	-10.6904
目で	-10.6906
▁今も	-10.6909
いいかな	-10.6911
いたのか	-10.6911
子供が	-10.6911
祈り	-10.6914
説明して	-10.6916
続いて	-10.6919
する必要がある	-10.6921
瞳	-10.6923
絆	-10.6923
指導	-10.6924
▁お腹	-10.6925
生存	-10.6931
カム	-10.6932
盗み	-10.6933
様の	-10.6934
▁道	-10.6934
▁御	-10.6937
しているのは	-10.6939
亡くなった	-10.694
を示す	-10.6943
▁約束する	-10.6944
どこで	-10.6946
緊急	-10.6949
▁頼むよ	-10.6952
▁スーパー	-10.6953
片付け	-10.6953
に戻り	-10.6953
フォ	-10.6954
開け	-10.6957
筈	-10.6957
向こう	-10.6957
を守って	-10.6958
▁F	-10.6958
▁なぜだ	-10.696
どう思う	-10.6961
おき	-10.6962
ためには	-10.6965
モー	-10.6965
▁靴	-10.6965
見えた	-10.6968
丘	-10.6969
▁一応	-10.697
会社に	-10.697
ジョーンズ	-10.6972
クリスマス	-10.6974
長官	-10.6974
の場所	-10.6976
▁就	-10.6977
泣き	-10.6978
に住む	-10.6979
▁個人	-10.698
つけた	-10.698
ティス	-10.6981
暗闇	-10.6981
多少	-10.6983
戻り	-10.6986
幻	-10.6991
不明	-10.6991
▁♪♪「	-10.6993
広げ	-10.6993
録音	-10.6993
姉妹	-10.6995
地震	-10.6997
にくい	-10.6998
主任	-10.6998
アス	-10.6998
▁きちんと	-10.6999
▁遊び	-10.6999
▁申し訳ない	-10.7
ダル	-10.7003
変え	-10.7004
道路	-10.7004
血液	-10.7004
▁知ってた	-10.7005
遅	-10.7009
裁判所	-10.7009
▁そのため	-10.7009
踊り	-10.7011
▁うちは	-10.7011
港	-10.7012
争い	-10.7013
▁皆さんに	-10.7016
▁問題ない	-10.7018
描いた	-10.7021
を変えた	-10.7021
貸して	-10.7023
▁マスター	-10.7024
授業	-10.7025
▁小さい	-10.7027
▁サイ	-10.7028
貧しい	-10.7028
生まれて	-10.7033
始まって	-10.7033
浮	-10.7033
▁ロック	-10.7035
私と	-10.7037
抜	-10.7038
修復	-10.7039
騎士	-10.7039
信念	-10.704
▁アレックス	-10.704
マス	-10.704
解剖	-10.7041
小さく	-10.7044
寝た	-10.7045
▁闇	-10.7046
しょ	-10.7046
▁それぞれの	-10.7046
▁みんなに	-10.7047
▁おばあちゃん	-10.7049
ジム	-10.705
の大きさ	-10.705
▁国家	-10.7052
▁恐ろしい	-10.7052
▁多	-10.7056
可能性は	-10.7056
何の	-10.7059
出来て	-10.7059
の形	-10.706
▁⦅	-10.7061
▁止めて	-10.7061
と言います	-10.7062
▁父が	-10.7062
権限	-10.7063
っぽ	-10.7063
苦しい	-10.7064
ますから	-10.7064
解析	-10.7065
車で	-10.7066
地元	-10.7067
独	-10.7068
優勝	-10.7072
どこか	-10.7072
どういう	-10.7073
▁いいんだ	-10.7074
どっち	-10.7078
続けた	-10.7078
時代の	-10.7079
集め	-10.7079
手が	-10.7079
電源	-10.7081
忘れる	-10.7083
黙って	-10.7083
▁ヤツ	-10.7083
起動	-10.7085
終わらせ	-10.7085
▁TED	-10.7086
膝	-10.7086
やめた	-10.7087
学校の	-10.7088
責め	-10.709
▁傷	-10.7091
るのが	-10.7097
落とし	-10.7098
就是	-10.7099
人目	-10.71
んと	-10.71
ことにしました	-10.7102
▁ハンク	-10.7105
▁考える	-10.7105
しまいました	-10.7108
タマ	-10.7109
喉	-10.711
ミッション	-10.711
ワールド	-10.711
防衛	-10.711
メガネ	-10.7111
させます	-10.7112
▁飲み	-10.7112
を聞いた	-10.7112
▁聞き	-10.7114
ウェル	-10.7114
かない	-10.7115
病院で	-10.7115
具	-10.7116
が起きた	-10.7118
何も知らない	-10.712
▁ドイツ	-10.7121
▁あとで	-10.7121
クール	-10.7122
追って	-10.7124
▁どこまで	-10.7124
▁話す	-10.7125
の皆さん	-10.7125
这	-10.7125
▁ダニエル	-10.7126
ちょ	-10.7127
▁平和	-10.7128
ネズミ	-10.7128
▁ワシントン	-10.713
の心	-10.7133
麻	-10.7133
わずか	-10.7134
▁ママが	-10.7134
問題です	-10.7135
▁そちら	-10.7136
夢を	-10.7137
▁そんなことは	-10.714
▁その通りだ	-10.7141
を信じて	-10.7143
le	-10.7145
▁デザイン	-10.7145
▁戻って	-10.7146
逃れ	-10.7147
▁安	-10.7148
▁指	-10.715
両方	-10.7151
度に	-10.7152
できました	-10.7154
ふり	-10.7155
わけではありません	-10.7157
ムダ	-10.7157
救助	-10.7158
偽	-10.7158
暗号	-10.7159
収入	-10.7159
▁コイツ	-10.716
▁カール	-10.7163
船長	-10.7165
仲良く	-10.7169
エリア	-10.7169
いただき	-10.7174
▁知りたい	-10.7175
ませんよ	-10.7179
Z	-10.7181
勤務	-10.7181
▁フィル	-10.7181
▁頭を	-10.7183
落ちる	-10.7184
話し合い	-10.7186
やがる	-10.7188
分間	-10.7188
先生は	-10.7193
奴等	-10.7196
セキュリティ	-10.7197
飲んだ	-10.7198
演	-10.7198
▁駄目だ	-10.7198
せば	-10.7199
ことでした	-10.7201
ワイン	-10.7201
昼	-10.7203
万円	-10.7203
連中は	-10.7203
詐欺	-10.7204
▁スパイ	-10.7205
なのね	-10.7206
▁携帯電話	-10.7207
任せ	-10.7209
▁兄さん	-10.721
▁‐	-10.7211
言ってるの	-10.7212
持ってきた	-10.7214
を取った	-10.7214
回転	-10.7214
▁300	-10.7215
われ	-10.7215
かわいい	-10.7216
男を	-10.7218
を愛してる	-10.722
日常	-10.7222
クマ	-10.7222
▁力	-10.7224
の関係	-10.7225
▁お客さん	-10.7225
▁どうすればいい	-10.7227
▁さよなら	-10.7227
に会って	-10.7227
嗎	-10.7228
▁25	-10.7229
ゴミ	-10.723
かも知れない	-10.723
ケー	-10.7233
▁父の	-10.7233
▁組織	-10.7234
を送る	-10.7237
眺め	-10.7238
わり	-10.7238
かというと	-10.7238
5%	-10.7239
考えてた	-10.724
遠く	-10.7241
▁興味	-10.7243
歓迎	-10.7243
それだけ	-10.7244
失った	-10.7245
と思い	-10.7245
やるんだ	-10.7251
よろしく	-10.7256
最大	-10.7256
責任者	-10.7258
▁周り	-10.7259
すか	-10.7261
此	-10.7263
▁世の中	-10.7263
付き合って	-10.7265
▁チェ	-10.7268
加え	-10.7269
国境	-10.7269
亜	-10.7269
か月	-10.7269
▁入れ	-10.7276
誌	-10.7276
企画	-10.7277
封印	-10.7277
保存	-10.7277
▁せめて	-10.7277
▁なにか	-10.7277
保管	-10.7277
前は	-10.7278
の女性	-10.7278
盗まれた	-10.7279
登場	-10.7279
ドゥ	-10.7281
いるんです	-10.7281
送信	-10.7282
になったの	-10.7283
駆け	-10.7284
...➡	-10.7284
優秀	-10.7284
七	-10.7285
間の	-10.7285
いける	-10.7286
しちゃって	-10.7288
▁おいで	-10.7289
語り	-10.7291
▁いくつかの	-10.7292
▁この国	-10.7292
巻	-10.7293
はあなた	-10.7293
ムリ	-10.7293
話を聞いて	-10.7293
の電話	-10.7294
撃	-10.7296
遅く	-10.7297
に行け	-10.7298
と言ってた	-10.7299
▁相変わらず	-10.7301
センサー	-10.7301
に関しては	-10.7302
りして	-10.7303
軍曹	-10.7303
アジア	-10.7306
する前に	-10.7308
比較	-10.7308
▁ブ	-10.7309
▁私はこの	-10.7309
君たち	-10.731
でもいい	-10.7312
はっきり	-10.7312
▁エル	-10.7312
▁妊娠	-10.7313
温度	-10.7314
▁子供の頃	-10.7315
▁本当だ	-10.7316
の様に	-10.7317
があったら	-10.7318
機密	-10.7323
電話する	-10.7323
あるわ	-10.7323
自慢	-10.7325
伝言	-10.7326
をしています	-10.7326
▁手伝って	-10.7328
急いで	-10.733
重大な	-10.7334
って言うの	-10.7334
話してた	-10.7334
ここに居る	-10.7335
与える	-10.7335
大事	-10.7341
la	-10.7343
▁ブラ	-10.7343
改	-10.7344
があるわ	-10.7345
したもの	-10.7346
くら	-10.7347
芸	-10.7347
▁さようなら	-10.7348
クソ野郎	-10.7348
宿題	-10.7349
▁この部屋	-10.7349
役目	-10.7351
弾丸	-10.7353
クリ	-10.7354
らす	-10.7355
向かい	-10.7361
▁何もかも	-10.7361
外科医	-10.7362
待った	-10.7363
▁わざと	-10.7364
相棒	-10.7364
先生に	-10.7367
気になる	-10.7367
仕組み	-10.7369
容	-10.737
いただきます	-10.7371
の時代	-10.7371
地点	-10.7373
;	-10.7373
嫉妬	-10.7373
殆ど	-10.7373
ウォー	-10.7373
ユニット	-10.7373
出さない	-10.7373
の間で	-10.7374
謝罪	-10.7375
が来て	-10.7376
度と	-10.7379
切った	-10.7379
ベリー	-10.7381
よくない	-10.7381
▁私はあなた	-10.7381
以下	-10.7383
もね	-10.7384
フリー	-10.7384
作られた	-10.7384
为	-10.7385
▁痛み	-10.7386
太郎	-10.7386
▁何なんだ	-10.7387
如	-10.7387
の子供	-10.739
忘れない	-10.7391
スは	-10.7393
▁運転	-10.7393
掛けて	-10.7396
▁タクシー	-10.7396
庁	-10.7397
思え	-10.7398
測定	-10.7398
トンネル	-10.7398
大陸	-10.7403
▁彼も	-10.7404
の話だ	-10.7405
の名	-10.7406
やつら	-10.7408
▁信じる	-10.741
宗教	-10.741
検	-10.7413
を始めた	-10.7414
喧嘩	-10.7417
死の	-10.7418
▁カン	-10.7419
▁フン	-10.742
▁自	-10.742
絶対に	-10.7421
▁ビ	-10.7421
人たちが	-10.7422
▁忘れ	-10.7425
▁経済	-10.7426
▁実験	-10.7426
オス	-10.7431
周り	-10.7431
感謝します	-10.7432
▁キ	-10.7435
最終	-10.7436
の人々	-10.7436
過程	-10.7437
▁単に	-10.7438
シカ	-10.7439
由	-10.7442
▁ところが	-10.7444
健	-10.7444
▁そのとき	-10.7444
いますが	-10.7445
講演	-10.7446
美人	-10.7447
▁s	-10.7453
事件を	-10.7456
だれ	-10.7456
ブラン	-10.7457
んすか	-10.7457
世界で	-10.7458
仕事は	-10.7458
話をする	-10.7461
▁大体	-10.7461
▁エディ	-10.7461
の国	-10.7462
ro	-10.7464
あるんだ	-10.7467
▁a	-10.7468
▁ネット	-10.747
無事	-10.7471
に戻った	-10.7472
シェル	-10.7472
ネル	-10.7472
リアン	-10.7474
▁見える	-10.7475
があったの	-10.7476
尻	-10.7477
聞かない	-10.7478
▁警備	-10.7479
かける	-10.7481
普通の	-10.7481
▁どうだった	-10.7482
ベルト	-10.7485
チョコ	-10.7485
聞こえない	-10.7489
お会い	-10.749
ブランド	-10.7492
▁CIA	-10.7493
▁明日の	-10.7493
沼	-10.7495
鏡	-10.7496
▁きれい	-10.7498
火事	-10.7498
▁どれ	-10.7504
▁アホ	-10.7505
真剣に	-10.7508
近くに	-10.751
ディス	-10.751
▁L	-10.751
ーッ	-10.7511
出せる	-10.7512
▁自分に	-10.7512
番目	-10.7513
雷	-10.7513
高校生	-10.7514
工学	-10.7518
貴重な	-10.752
絶望	-10.752
の仕業	-10.752
ヴィン	-10.7524
血が	-10.7525
金融	-10.7526
するなら	-10.7526
一生	-10.7528
▁警察が	-10.7531
出来なかった	-10.7532
手遅れ	-10.7532
驚いた	-10.7532
歌って	-10.7533
ということは	-10.7535
▁人々の	-10.7536
軍事	-10.7537
▁キャリー	-10.7537
動画	-10.7538
悪いこと	-10.7541
してもらう	-10.7542
▁ホテル	-10.7543
ホームズ	-10.7547
▁逮捕	-10.7548
▁運命	-10.755
▁この間	-10.7551
に向かう	-10.7552
られません	-10.7553
▁ボブ	-10.7554
体重	-10.7556
たよ	-10.7557
著	-10.7559
適	-10.7559
着て	-10.756
漫画	-10.7561
▁これからは	-10.7562
なんですが	-10.7564
もしない	-10.7566
▁髪	-10.7567
▁ケンカ	-10.7569
司令官	-10.7569
襲撃	-10.7569
感謝する	-10.7573
いくら	-10.7574
できん	-10.7575
▁子供は	-10.7576
▁遊星	-10.7579
初め	-10.758
生涯	-10.758
を盗んだ	-10.758
▁シャーロック	-10.7583
見ると	-10.7583
しかし	-10.7584
静かに	-10.7587
ことになった	-10.7588
ないな	-10.7589
開いた	-10.7589
守り	-10.7591
▁わかったよ	-10.7591
▁クレア	-10.7591
るだけ	-10.7591
あい	-10.7593
腸	-10.7594
蛇	-10.7594
苦痛	-10.7594
負傷	-10.7595
なお	-10.7596
読む	-10.7599
んだろうな	-10.7599
ってことだ	-10.7604
誘拐	-10.7604
▁移動	-10.7605
見せる	-10.7608
▁じゃあね	-10.7609
負けた	-10.7609
黙	-10.761
まない	-10.7611
ナイフ	-10.7612
の上で	-10.7613
を利用して	-10.7614
▁弾	-10.7616
熊	-10.7618
▁てめえ	-10.7619
修正	-10.7619
ダーク	-10.7619
するもの	-10.762
をしていた	-10.7624
チャクラ	-10.7624
▁ted	-10.7628
▁ったく	-10.763
に向けて	-10.7631
見てない	-10.7632
合わせて	-10.7632
孫	-10.7636
焦	-10.7636
やす	-10.7638
正確に	-10.7638
癖	-10.7643
絶滅	-10.7644
頼	-10.7647
▁土	-10.7649
真実を	-10.765
配達	-10.7651
たびに	-10.7651
やめる	-10.7651
同じような	-10.7653
液	-10.7656
教えた	-10.7659
変えて	-10.7662
清	-10.7662
マッ	-10.7662
一本	-10.7663
▁違うわ	-10.7665
思い出す	-10.7667
▁アンナ	-10.7667
ドイツ	-10.7669
▁現在の	-10.7669
ているのです	-10.767
▁パリ	-10.7672
▁思ってる	-10.7674
▁ニュース	-10.7674
▁奥様	-10.7674
まとめ	-10.7676
手助け	-10.7676
聴いて	-10.7679
合わ	-10.7681
基本的な	-10.7681
ございます	-10.7682
見てた	-10.7683
言ったこと	-10.7683
ネタ	-10.7684
女子	-10.7685
を待つ	-10.7687
始末	-10.7688
▁去年	-10.7688
▁上手く	-10.769
何なの	-10.7692
呼んだ	-10.7694
れてる	-10.7695
▁気をつけろ	-10.7696
寄って	-10.7697
子供を	-10.7698
過ち	-10.7698
挨拶	-10.7698
リバー	-10.7699
食う	-10.7701
と言えば	-10.7702
ためです	-10.7706
診	-10.7708
はならない	-10.7709
編	-10.7709
好きだった	-10.7709
のところに	-10.771
▁先日	-10.771
神の	-10.771
同じことを	-10.7711
彼らを	-10.7711
知れ	-10.7712
▁嫌な	-10.7712
伝統	-10.7713
分かっている	-10.7716
ルズ	-10.7717
柱	-10.7718
ないのです	-10.7718
mo	-10.7719
別れた	-10.772
cm	-10.772
できるのです	-10.7721
を召喚	-10.7721
▁14	-10.7721
子を	-10.7722
ボーイ	-10.7724
入れた	-10.7725
着く	-10.7727
▁彼氏	-10.7727
▁そうだろ	-10.7728
を発動	-10.7729
▁13	-10.773
働いてる	-10.773
▁あした	-10.7733
るだろう	-10.7733
減少	-10.7734
ないでください	-10.7736
會	-10.774
ばっか	-10.774
老人	-10.7741
回路	-10.7742
の代わりに	-10.7742
アドバイス	-10.7743
▁奴を	-10.7744
カップル	-10.7747
▁あのさ	-10.7747
過ごして	-10.7747
やらない	-10.7749
ようなこと	-10.775
が必要なんだ	-10.7751
▁相棒	-10.7753
まずい	-10.7754
殺してやる	-10.7755
止まって	-10.7756
分か	-10.7759
▁授業	-10.7759
単語	-10.7761
両	-10.7761
狂った	-10.7763
迎え	-10.7764
はどこに	-10.7765
始まる	-10.7766
いてる	-10.7767
虚	-10.7768
美味しい	-10.7769
どうか	-10.7769
もらいます	-10.777
化け物	-10.7771
▁d	-10.7772
ノック	-10.7777
行きましょう	-10.7778
血を	-10.778
問い	-10.7783
果て	-10.7786
付けて	-10.7786
何者だ	-10.7786
入手	-10.7789
▁遺伝子	-10.7789
が出	-10.779
▁今のところ	-10.779
▁んっ	-10.7792
▁知り合い	-10.7793
▁車を	-10.7793
しね	-10.7794
の通り	-10.7795
海賊	-10.7796
松	-10.7796
回も	-10.7796
屋上	-10.7796
並	-10.7797
嫌な	-10.7797
プール	-10.7797
疲れ	-10.7798
キャリア	-10.7798
知ってます	-10.7799
死なせ	-10.7799
溢れ	-10.7802
▁覚えて	-10.7803
笑う	-10.7806
▁くそっ	-10.7806
考えていた	-10.7809
乗って	-10.7811
▁話を	-10.7815
んのよ	-10.7815
壁に	-10.7816
いたのは	-10.7816
▁自分は	-10.7817
公共	-10.7817
と同じだ	-10.7818
落とす	-10.7819
儀式	-10.782
いつでも	-10.782
信仰	-10.7821
エイ	-10.7821
取り組み	-10.7823
商売	-10.7823
▁耳	-10.7823
かもね	-10.7823
▁生活	-10.7824
撃て	-10.7825
手札	-10.7828
が出た	-10.7829
▁話し	-10.7831
父は	-10.7832
協力して	-10.7833
どういうこと	-10.7834
気をつけ	-10.7834
を助け	-10.7836
渡した	-10.784
▁まっ	-10.7841
だけではなく	-10.7841
弁	-10.7841
の力を	-10.7842
▁この世	-10.7842
ピンク	-10.7849
思われ	-10.785
証拠を	-10.7853
みたいだな	-10.7853
って感じ	-10.7855
決まって	-10.7855
が好きだ	-10.7855
遺	-10.7856
安い	-10.7857
▁ルール	-10.7857
を送って	-10.7858
上げる	-10.7858
ことができた	-10.7858
ゲームを	-10.7864
捜し	-10.7868
そう思う	-10.7868
▁貴女	-10.7868
屈	-10.7869
操縦	-10.787
整理	-10.787
▁最後まで	-10.7871
こういう	-10.7873
パンチ	-10.7874
幸せに	-10.7875
使わない	-10.7875
32	-10.7876
指輪	-10.7876
th	-10.7877
直ぐ	-10.7879
▁裁判	-10.7879
かと思った	-10.7882
感謝	-10.7883
▁これだけ	-10.7883
残した	-10.7888
一方	-10.7888
表示	-10.7888
言われた	-10.7889
既に	-10.7889
幕	-10.7892
閣下	-10.7892
に会いたい	-10.7893
勇敢	-10.7894
体が	-10.7895
スピーチ	-10.7895
しましたが	-10.7896
関わり	-10.7896
焼	-10.7897
▁何言って	-10.7898
フード	-10.7898
ならん	-10.7899
構	-10.7899
▁うれしい	-10.7901
繰り返す	-10.7901
の中には	-10.7902
▁トミー	-10.7903
警察に	-10.7903
眠り	-10.7904
▁天使	-10.7907
スパー	-10.7907
ビス	-10.7911
▁☎	-10.7913
去って	-10.7914
やっている	-10.7914
すり	-10.7917
▁もしも	-10.7918
制作	-10.7918
▁悪かった	-10.7919
居て	-10.792
金持ち	-10.792
舌	-10.7921
根拠	-10.7921
起訴	-10.7921
▁タバコ	-10.7922
を集めて	-10.7922
に使う	-10.7922
新しく	-10.7924
たちを	-10.7926
▁ち	-10.7927
探して	-10.7929
を追って	-10.7929
統計	-10.793
▁ガス	-10.793
の記憶	-10.7933
ショック	-10.7935
におい	-10.7937
を作りました	-10.7938
こともある	-10.7938
▁客	-10.7938
自分達	-10.7939
と話した	-10.7941
るんですか	-10.7944
甲	-10.7946
チョコレート	-10.7947
理解できない	-10.7948
▁我々に	-10.7951
メイ	-10.7954
以外に	-10.7958
▁テスト	-10.7958
人たちは	-10.7959
閉	-10.7962
が分かる	-10.7964
抜いて	-10.7965
見事	-10.7966
ゼル	-10.7968
すんだ	-10.7969
何て	-10.7969
に来たの	-10.797
を買って	-10.797
の裏	-10.797
▁永遠に	-10.7971
することを	-10.7972
竜	-10.7972
▁そのとおり	-10.7972
毎	-10.7973
探してる	-10.7974
野菜	-10.7975
つぶ	-10.7978
方法が	-10.7978
の名前を	-10.7979
の目的は	-10.7979
署名	-10.798
▁乾杯	-10.7982
で一番	-10.7983
を手に入れた	-10.7983
▁見つける	-10.7983
チャンスを	-10.7984
純	-10.7986
はここ	-10.7986
厚	-10.7987
可能です	-10.7988
テル	-10.7988
死因	-10.7989
と聞いた	-10.799
おいた	-10.7991
▁悪いけど	-10.7991
したのよ	-10.7991
福	-10.7992
▁私にも	-10.7992
州の	-10.7993
政	-10.7995
正面	-10.7997
▁時には	-10.7997
まるで	-10.7997
軸	-10.7998
展示	-10.8
開いて	-10.8004
抱	-10.8004
購入	-10.8005
より良い	-10.801
の一員	-10.801
汚い	-10.801
動かない	-10.8011
阻止	-10.8012
後悔	-10.8013
▁姉	-10.8013
ロイ	-10.8014
記念	-10.8017
効率	-10.8017
渡し	-10.8018
家族に	-10.802
っすよ	-10.802
落ち着いて	-10.802
▁思い出	-10.8021
候補	-10.8021
っちゃって	-10.8022
卿	-10.8024
撮って	-10.8025
▁60	-10.8026
▁前回	-10.8028
▁心配ない	-10.8031
の目	-10.8031
▁それほど	-10.8033
迷	-10.8033
の命令	-10.8033
言うんだ	-10.8034
しておく	-10.8036
方に	-10.8039
を提供	-10.8039
▁あのう	-10.804
解決する	-10.8041
気になって	-10.8041
しま	-10.8041
日の	-10.8044
誰かに	-10.8044
▁ほかの	-10.8046
判	-10.8046
妙	-10.8048
の居場所	-10.8049
人間を	-10.8049
達に	-10.8049
蜂	-10.805
▁なんだか	-10.805
佐	-10.805
▁教授	-10.8051
頭の	-10.8051
だけなの	-10.8051
▁ほう	-10.8053
臓器	-10.8055
▁頭が	-10.8057
荷	-10.8058
カシ	-10.8058
こうと	-10.8059
民間	-10.8059
ハンター	-10.806
▁来週	-10.8061
▁貴方の	-10.8061
フィン	-10.8064
優しく	-10.8065
電車	-10.8065
ディア	-10.8066
▁残りの	-10.8066
帰れ	-10.8067
るし	-10.8068
▁おなか	-10.8069
壊れた	-10.8072
の記録	-10.8075
細菌	-10.8076
集合	-10.8078
することです	-10.808
背後	-10.8081
知らず	-10.8081
抜く	-10.8082
▁ケガ	-10.8083
ときには	-10.8084
クル	-10.8085
納得	-10.8085
知的	-10.8087
食って	-10.8089
してるのか	-10.809
▁ワン	-10.8091
▁チャンス	-10.8092
武器を	-10.8095
離れ	-10.8098
持ってない	-10.8098
▁軍	-10.8098
最低	-10.8099
もんね	-10.8099
歴	-10.8099
▁報告	-10.8099
クズ	-10.81
▁止め	-10.81
人だった	-10.8101
▁G	-10.8103
を止め	-10.8103
..."	-10.8104
プレイ	-10.8105
様だ	-10.8105
すばらしい	-10.8106
▁遠慮	-10.8106
さぁ	-10.8108
いかん	-10.8108
んじゃないですか	-10.811
▁危険な	-10.811
更	-10.8112
▁期待	-10.8113
ステキ	-10.8114
大金	-10.8118
▁V	-10.8119
▁白い	-10.8127
失踪	-10.8128
虐待	-10.8128
体制	-10.8129
許さない	-10.8129
るなら	-10.813
コナー	-10.8132
本物	-10.8134
軌道	-10.8135
願う	-10.8135
と思っています	-10.8135
▁救急車	-10.8136
前進	-10.8136
傾向	-10.8137
ミング	-10.8137
種の	-10.8138
マスク	-10.814
ウェ	-10.814
▁用意	-10.8141
開き	-10.8142
もいない	-10.8143
▁パパが	-10.8147
▁コード	-10.8147
というか	-10.8149
んだよな	-10.8151
る前に	-10.8152
だけさ	-10.8153
スライド	-10.8154
見たこと	-10.8155
喜ぶ	-10.8155
にでも	-10.8156
▁俺たちが	-10.8157
スタン	-10.8158
▁いくぞ	-10.8159
建て	-10.8162
であれ	-10.8163
そうなる	-10.8163
▁ほとんどの	-10.8163
ロンドン	-10.8167
けどな	-10.817
クルー	-10.817
が始まる	-10.817
激	-10.8171
待ってて	-10.8174
境	-10.8174
せずに	-10.8175
▁戻る	-10.8176
いじめ	-10.8177
外に	-10.8179
すでに	-10.8179
▁デュエル	-10.818
▁この事件	-10.818
あちこち	-10.818
帰ってくる	-10.8181
んぞ	-10.8182
なかったんだ	-10.8182
粒子	-10.8183
嘘を	-10.8183
はいつ	-10.8184
パンツ	-10.8184
女房	-10.8185
▁長く	-10.8187
が殺された	-10.8188
足り	-10.8188
襲	-10.819
そんな事	-10.8191
ニュー	-10.8191
ヨーロッパ	-10.8191
▁テロ	-10.8192
方向に	-10.8192
兄ちゃん	-10.8192
▁後は	-10.8192
知ら	-10.8194
いま	-10.8195
▁ブルー	-10.8197
グリ	-10.8198
▁そう思う	-10.8199
るなんて	-10.8202
サル	-10.8203
飛ば	-10.8205
刺	-10.8206
まったく	-10.8206
警報	-10.8207
ソフトウェア	-10.8207
解読	-10.8208
値段	-10.8208
なりません	-10.8208
ないでしょ	-10.821
あの子	-10.8211
我ら	-10.8211
くれました	-10.8212
真ん中	-10.8213
各	-10.8214
▁出来る	-10.8215
を変えて	-10.8218
謝	-10.8218
ジャン	-10.8218
イラ	-10.8218
する気	-10.8219
っちまった	-10.822
かせ	-10.8221
最新	-10.8222
▁何もない	-10.8223
ここまで	-10.8224
▁人間は	-10.8226
▁話は	-10.8226
ってくれ	-10.8229
別れ	-10.8231
▁キャロル	-10.8231
恩	-10.8233
看護師	-10.8233
捕まった	-10.8234
うまい	-10.8235
進み	-10.8237
に集中	-10.8239
入り口	-10.8239
貢献	-10.8242
▁ジュリア	-10.8243
J	-10.8244
刃	-10.8244
人だけ	-10.8245
▁ヨーロッパ	-10.8249
デモ	-10.8249
▁神経	-10.825
▁国際	-10.8253
年以上	-10.8253
▁罪	-10.8253
悪かった	-10.8254
スコ	-10.8258
時も	-10.8258
を調べる	-10.826
達の	-10.8261
告げ	-10.8263
魅力的	-10.8264
飾	-10.8264
青い	-10.8266
ヒット	-10.8269
そう言った	-10.8272
ヒル	-10.8272
怖	-10.8276
警察官	-10.8278
発見された	-10.8279
衛	-10.828
ティン	-10.8281
は関係ない	-10.8281
サイド	-10.8282
装置を	-10.8282
歳の時	-10.8283
していること	-10.8283
▁わかったわ	-10.8283
▁N	-10.8284
▁午後	-10.8287
しており	-10.8288
エー	-10.8288
▁うわぁ	-10.8288
外れ	-10.8288
と違う	-10.829
じゃないのか	-10.829
気持ちを	-10.8296
微	-10.8299
▁食べて	-10.8301
したから	-10.8302
近づいて	-10.8305
▁何があったの	-10.8306
と思いますが	-10.8306
彼らに	-10.8309
考えろ	-10.831
なんとか	-10.831
▁思ってた	-10.8311
▁cia	-10.8311
▁両	-10.8312
滞在	-10.8313
派遣	-10.8313
ミラー	-10.8315
セー	-10.8315
臭	-10.8317
なれる	-10.8319
▁店	-10.8319
いつか	-10.832
んだぜ	-10.8322
▁覚悟	-10.8323
確認した	-10.8323
立った	-10.8323
周囲	-10.8324
てきました	-10.8325
▁ヤツら	-10.8325
ありがとうございます	-10.8326
うちの	-10.8327
婚	-10.8329
くれてありがとう	-10.8332
手は	-10.8333
のデータ	-10.8334
▁任務	-10.8334
受け入れ	-10.8334
令	-10.8335
▁一日	-10.8336
分らない	-10.8336
泉	-10.8339
杉	-10.8339
援護	-10.8339
評判	-10.834
をしてる	-10.834
聞か	-10.8341
指紋	-10.8342
▁生き	-10.8343
▁トニー	-10.8343
たけど	-10.8344
となりました	-10.8344
触れ	-10.8346
作用	-10.8346
ってきた	-10.8348
考慮	-10.8352
がどう	-10.8352
やっと	-10.8352
▁遅い	-10.8353
研究者	-10.8354
▁500	-10.8356
コーチ	-10.8357
は皆	-10.8358
女性の	-10.8363
収集	-10.8363
▁強	-10.8364
個の	-10.8364
収穫	-10.8366
▁言葉	-10.8368
機器	-10.8368
見かけ	-10.8369
▁奥	-10.8372
関係を	-10.8372
▁ジェシー	-10.8373
釈放	-10.8377
公式	-10.8377
▁武	-10.8378
動作	-10.8379
気をつけて	-10.8383
▁残念	-10.8384
汚れ	-10.8386
泣く	-10.8387
後の	-10.8389
キャン	-10.8391
合成	-10.8395
どこかに	-10.8396
視点	-10.8397
車両	-10.8398
▁ゴ	-10.8399
治療法	-10.84
スカ	-10.8403
▁こうやって	-10.8404
何者か	-10.8406
▁骨	-10.8406
何の用	-10.8411
つ目は	-10.8414
▁この場所	-10.8414
間違ってる	-10.8414
痕	-10.8415
メリ	-10.8415
▁心配しないで	-10.8416
井さん	-10.8417
関係がある	-10.8417
止める	-10.8419
との関係	-10.8419
白い	-10.842
印刷	-10.842
排除	-10.842
▁通常	-10.842
無いわ	-10.8423
レイン	-10.8426
▁無い	-10.8426
過ぎて	-10.8427
農業	-10.8428
▁結婚式	-10.8429
ようなもの	-10.8431
▁注意	-10.8431
無実	-10.8431
デジタル	-10.8432
クビ	-10.8433
見てくれ	-10.8435
覚えてない	-10.8436
ウス	-10.8437
警部	-10.844
はなかった	-10.8441
もんな	-10.8446
最中	-10.8447
100%	-10.8448
突入	-10.8448
干	-10.8449
少々	-10.8449
きり	-10.8449
現状	-10.845
もあった	-10.8452
可能性が	-10.8453
いくつ	-10.8455
見せ	-10.8455
史上	-10.8456
双子	-10.8458
実は	-10.8458
娘は	-10.8462
描き	-10.8462
済んだ	-10.8462
的には	-10.8464
手法	-10.8464
を買い	-10.8464
は私が	-10.8465
▁本日	-10.8466
▁忘れて	-10.8468
一回	-10.847
特に	-10.847
▁ほかに	-10.8471
隠し	-10.8472
施	-10.8472
潮	-10.8474
を失って	-10.8474
しき	-10.8477
といえば	-10.8477
と呼んで	-10.8478
活用	-10.8478
女だ	-10.8479
王国	-10.8481
残ってる	-10.8481
握	-10.8481
いくつかの	-10.8484
国々	-10.8489
ロシア	-10.849
▁正直に	-10.8491
望んだ	-10.8492
に出	-10.8495
地下	-10.8496
クモ	-10.8497
不思議	-10.8498
隠した	-10.8498
の秘密	-10.8499
色の	-10.8502
▁いいかい	-10.8504
ヘッド	-10.8505
それら	-10.8507
いなくなった	-10.8511
氏は	-10.8513
上がった	-10.8514
どれくらい	-10.8514
盛	-10.8515
メル	-10.8515
▁見ろ	-10.8515
▁置いて	-10.8516
人生で	-10.8517
場に	-10.8518
荷物	-10.8519
▁近	-10.852
思いを	-10.852
の王	-10.8522
るわよ	-10.8524
キャラ	-10.8525
21	-10.8526
攻撃を	-10.8528
チャンピオン	-10.8528
▁いよいよ	-10.8528
撤退	-10.8528
▁食べ物	-10.8529
▁ドラゴン	-10.8534
ーい	-10.8536
戦場	-10.8537
直感	-10.8538
紹介	-10.8538
時だ	-10.8539
滅	-10.854
億人	-10.854
学園	-10.854
ところを	-10.8541
▁本物	-10.8542
次は	-10.8544
出産	-10.8544
質問は	-10.8545
お互い	-10.8548
レア	-10.8553
は常に	-10.8553
▁地元の	-10.8554
一週間	-10.8554
永	-10.8555
セリフ	-10.8555
貴	-10.8556
カフェ	-10.8557
外で	-10.8557
那个	-10.8558
▁部下	-10.8559
どうだい	-10.8559
▁魔女	-10.856
しているのか	-10.856
▁世間	-10.8561
▁ウチの	-10.8562
キッド	-10.8563
望んで	-10.8564
継	-10.8564
▁聞いてる	-10.8564
▁これからも	-10.8565
pc	-10.8565
まとも	-10.8567
例を	-10.8569
能力を	-10.8572
取り引き	-10.8575
欲しくない	-10.8576
わせる	-10.8576
▁どうなる	-10.8582
▁こっちの	-10.8582
▁ボート	-10.8582
▁うるせえ	-10.8583
解釈	-10.8583
▁警部	-10.8584
定義	-10.8584
▁総	-10.8584
を与えた	-10.8584
点は	-10.8584
ハッキング	-10.8586
ブラッド	-10.8587
28	-10.8587
▁息子さん	-10.8587
結び	-10.8587
ロープ	-10.8588
▁ユー	-10.8589
とけ	-10.8591
▁ですが	-10.8591
▁どうかな	-10.8594
育った	-10.8594
▁おじいちゃん	-10.8595
▁ショーン	-10.8596
▁テクノロジー	-10.8596
恵	-10.8597
ないなら	-10.8598
ないこと	-10.8598
▁世界は	-10.8598
▁夫	-10.8599
見捨て	-10.8603
終え	-10.8604
のやり方	-10.8605
スー	-10.8608
の所に	-10.861
奥	-10.8612
▁よーし	-10.8612
メイド	-10.8613
の存在	-10.8615
▁別	-10.8616
メイン	-10.8617
見つけ	-10.8617
ジュース	-10.8618
みました	-10.8618
微生物	-10.8621
大量	-10.8622
場で	-10.8623
抗	-10.8624
▁金を	-10.8624
割り	-10.8624
出来ません	-10.8625
隠す	-10.8627
中学	-10.8627
るって	-10.8628
▁在	-10.8628
んか	-10.863
教えてください	-10.8631
▁十	-10.8632
に出て	-10.8633
48	-10.8633
重力	-10.8633
を教えて	-10.8634
使えない	-10.8634
成り	-10.8635
聞こえ	-10.8636
▁ロバート	-10.8636
適当	-10.8638
海岸	-10.8639
遊ぶ	-10.864
の多くは	-10.8641
▁極めて	-10.8642
ミリ	-10.8642
▁わずか	-10.8643
証人	-10.8644
もう少し	-10.8648
連れてきた	-10.8648
コフ	-10.8649
我々に	-10.8651
かもしれないけど	-10.8654
▁たまたま	-10.8655
▁何の話	-10.8655
狂ってる	-10.8656
笑って	-10.8657
捨てた	-10.8659
だと思ってる	-10.866
表面	-10.8661
グラス	-10.8661
▁ここだ	-10.8663
▁何してるの	-10.8663
しばらく	-10.8663
她	-10.8665
違って	-10.8665
▁アーサー	-10.8666
するべき	-10.8668
▁古代	-10.8668
▁私だって	-10.867
運営	-10.8672
の脳	-10.8673
気にする	-10.8673
▁証明	-10.8674
何人	-10.8676
勝てる	-10.8677
▁八	-10.8677
数千	-10.8677
してみる	-10.8678
26	-10.8678
と思われる	-10.8679
売って	-10.8679
▁鼻	-10.8681
▁そういうの	-10.8681
▁何だか	-10.8683
▁ここから出	-10.8683
ばかりだ	-10.8685
チキン	-10.8685
自動	-10.8686
構成	-10.8687
召喚	-10.869
可以	-10.869
歳で	-10.869
出来ます	-10.8691
と思わない	-10.8691
基礎	-10.8693
スポーツ	-10.8693
結果を	-10.8693
秘書	-10.8694
えっ	-10.8694
支持	-10.8695
のよね	-10.8695
いたんです	-10.8696
▁助かった	-10.8697
やること	-10.8697
月の	-10.8698
確認して	-10.8699
いいぞ	-10.8699
没有	-10.8699
▁落ち	-10.8699
みたいです	-10.87
すべてを	-10.8702
▁面倒	-10.8705
▁藤	-10.8705
自分に	-10.8706
なれ	-10.8707
ch	-10.8708
学校で	-10.871
女は	-10.871
設	-10.8711
アメリカの	-10.8713
▁恐れ	-10.8713
後ろ	-10.8714
29	-10.8715
因	-10.8716
胃	-10.872
へようこそ	-10.872
復帰	-10.8721
営業	-10.8721
応用	-10.8722
ラブ	-10.8722
行方不明	-10.8724
兄貴	-10.8724
▁何百	-10.8724
要請	-10.8724
を入れて	-10.8725
ma	-10.8726
▁数学	-10.8727
公表	-10.8728
ベース	-10.8729
聖書	-10.8729
ボク	-10.8731
グレー	-10.8731
悲しい	-10.8732
▁ここに来た	-10.8732
方が良い	-10.8734
▁破壊	-10.8739
するための	-10.874
et	-10.8742
の中心	-10.8744
重要だ	-10.8744
肝	-10.8748
礼	-10.8748
いろいろ	-10.8749
はどうした	-10.875
再現	-10.8751
かれる	-10.8751
の様な	-10.8752
先の	-10.8753
ボックス	-10.8753
▁噂	-10.8753
裂	-10.8754
時まで	-10.8754
電話番号	-10.8754
▁おかげで	-10.8756
話せない	-10.8757
理由で	-10.876
漏れ	-10.8761
クリア	-10.8763
怒る	-10.8764
どうでもいい	-10.8767
未知	-10.8768
私たちに	-10.8769
数学	-10.8771
の仕事は	-10.8771
寝室	-10.8771
止まる	-10.8772
なかったから	-10.8774
一年	-10.8775
▁お客様	-10.8776
ちゃんの	-10.8778
ができた	-10.8778
▁アリ	-10.8782
赤ん坊	-10.8784
を手に	-10.8784
待っている	-10.8785
の違い	-10.8785
▁変化	-10.8785
オブ	-10.8787
あれば	-10.8788
物体	-10.8788
乗る	-10.8789
刑	-10.8789
▁環境	-10.879
は同じ	-10.8792
クレイ	-10.8795
さないと	-10.8795
見解	-10.8795
失う	-10.8799
▁どういう意味だ	-10.8799
に興味	-10.88
▁止まれ	-10.88
150	-10.88
吹	-10.8801
ように見える	-10.8801
てくる	-10.8803
勇	-10.8803
仮説	-10.8804
進展	-10.8804
番だ	-10.8808
サッカー	-10.8813
▁む	-10.8817
聞こえて	-10.8817
無罪	-10.8819
ボード	-10.8819
我的	-10.882
▁男の子	-10.882
▁不安	-10.882
結構です	-10.8821
売れ	-10.8821
▁パトリック	-10.8822
晴	-10.8824
オフ	-10.8824
▁戦闘	-10.8827
を見てる	-10.8827
測	-10.8828
重要なこと	-10.8829
プラスチック	-10.8832
シーズン	-10.8832
ペンギン	-10.8832
おもちゃ	-10.8833
っつ	-10.8835
届く	-10.8836
の誕生日	-10.8837
▁星	-10.8838
▁神は	-10.8838
してくれて	-10.8841
を集め	-10.8843
リオン	-10.8844
猿	-10.8845
仏	-10.8846
さっき	-10.8846
▁後悔	-10.8846
の木	-10.8851
残念だ	-10.8852
駄目だ	-10.8853
の正体	-10.8853
子供の	-10.8855
囲	-10.8856
付き合い	-10.8859
ストーリー	-10.886
激しい	-10.8861
▁ワシ	-10.8861
衣装	-10.8862
▁深	-10.8863
▁放	-10.8863
始めます	-10.8864
マウス	-10.8867
と話す	-10.8872
ハッカー	-10.8873
ってことか	-10.8874
▁空気	-10.8877
でもあります	-10.8877
の状態	-10.8877
例です	-10.8878
▁四	-10.8879
永遠に	-10.888
▁赤ん坊	-10.888
▁調べ	-10.8881
遅れて	-10.8882
叫	-10.8883
領	-10.8885
有効	-10.8886
に関わる	-10.8886
▁どこの	-10.8887
飲め	-10.8888
すべきだ	-10.8888
to	-10.889
単に	-10.889
ストーン	-10.8891
フラッシュ	-10.8892
経って	-10.8893
ずる	-10.8894
答える	-10.8895
耐え	-10.8897
スク	-10.8897
果	-10.8898
▁もっとも	-10.89
答えて	-10.8902
接近	-10.8903
司	-10.8905
ショ	-10.8905
することに	-10.8905
奴を	-10.8906
▁世界を	-10.8907
ぼく	-10.8907
載って	-10.8907
手続き	-10.8907
▁ポ	-10.8911
▁悲しい	-10.8914
郎	-10.8916
パスワード	-10.8917
野さん	-10.8917
トロン	-10.892
▁主人	-10.8921
明かり	-10.8921
裏切り者	-10.8922
テッド	-10.8925
理由がある	-10.8927
ないのに	-10.8927
突き止め	-10.8929
思える	-10.8931
を理解する	-10.8931
ゴルフ	-10.8932
出て行く	-10.8932
ケガ	-10.8935
どこにいる	-10.8937
カレー	-10.8937
▁嫌だ	-10.8939
人には	-10.894
斬	-10.8941
▁そうして	-10.8943
伴	-10.8943
負ける	-10.8943
生まれる	-10.8945
承認	-10.8945
を食べる	-10.8945
二度と	-10.8945
提出	-10.8945
▁皆さんの	-10.8946
▁へぇ	-10.8946
よし	-10.8952
願	-10.8952
来いよ	-10.8953
▁どこに行く	-10.8956
一定	-10.8959
▁カードを	-10.8959
まじ	-10.896
▁言ってる	-10.8962
されていない	-10.8962
1000	-10.8965
に乗る	-10.8965
▁ご飯	-10.8966
を取り戻す	-10.8967
洗い	-10.8967
▁お願いだ	-10.8969
ょ	-10.8969
▁聞く	-10.8971
だとしたら	-10.8973
中尉	-10.8974
作動	-10.8976
行けば	-10.8976
ったんだ	-10.8977
お世話	-10.8978
設置	-10.8979
▁巨大な	-10.8979
開く	-10.8982
がなかった	-10.8982
▁強く	-10.8984
分かりました	-10.8984
▁次回	-10.8985
▁行動	-10.8985
したいんだ	-10.8987
裸	-10.8987
向上	-10.8988
▁食料	-10.8988
▁反対	-10.8991
▁下がって	-10.8992
思わなかった	-10.8993
耳に	-10.8996
素敵	-10.8996
んじゃないかな	-10.8998
▁サスケ	-10.8998
▁強盗	-10.9
石油	-10.9002
エア	-10.9002
W	-10.9002
砂糖	-10.9002
近づく	-10.9002
大丈夫か	-10.9002
と申します	-10.9002
と思ったら	-10.9003
セイ	-10.9003
▁あんなに	-10.9004
億円	-10.9005
計画は	-10.9005
▁キー	-10.9006
死刑	-10.9006
▁幽霊	-10.9007
遺伝	-10.9007
共通	-10.9009
こともできます	-10.9009
▁法	-10.9009
▁この件	-10.901
呪文	-10.9011
近くの	-10.9012
▁逃げて	-10.9012
三人	-10.9014
座り	-10.9015
だろうね	-10.9018
見てください	-10.9022
約束した	-10.9022
の位置	-10.9022
デルタ	-10.9024
と思うわ	-10.9024
▁高い	-10.9027
ケア	-10.9028
鈴	-10.9029
理解できる	-10.9029
は無理	-10.9029
贈	-10.903
カナダ	-10.9031
▁ゆ	-10.9033
サメ	-10.9033
に会いに	-10.9034
▁何が起きた	-10.9037
全体の	-10.9037
ようですね	-10.9039
▁いいの	-10.904
コレ	-10.9041
co	-10.9041
様は	-10.9042
代理	-10.9045
▁いらっしゃい	-10.9047
見てきた	-10.9048
▁外で	-10.9048
史	-10.9048
中身	-10.9049
存	-10.905
▁ええっ	-10.9051
▁練習	-10.9053
置いた	-10.9054
気付いて	-10.9055
▁追跡	-10.9055
▁通信	-10.9058
▁もう一人	-10.9059
塚	-10.9059
妖精	-10.9059
集会	-10.9059
仕事で	-10.906
ネーム	-10.9061
をしました	-10.9061
列車	-10.9062
大臣	-10.9063
フィート	-10.9063
▁他には	-10.9064
うな	-10.9065
から連絡	-10.9067
暑い	-10.9067
us	-10.9068
逮捕された	-10.9071
やれよ	-10.9072
!》	-10.9072
意見を	-10.9072
簡単だ	-10.9072
▁聖	-10.9074
は別	-10.9074
するだろう	-10.9076
あそこ	-10.9077
目撃	-10.9077
▁ベル	-10.9079
▁m	-10.908
軽い	-10.9081
▁リサ	-10.9081
消して	-10.9082
▁リチャード	-10.9082
一つだけ	-10.9084
屋さん	-10.9084
家は	-10.9087
博物館	-10.9088
無限	-10.9088
en	-10.9089
になるわ	-10.9089
亡くなって	-10.9089
シス	-10.9095
を食べ	-10.9095
当局	-10.9095
とは思えない	-10.9095
チャン	-10.9096
バイト	-10.9097
スキル	-10.9097
▁皆さんが	-10.9097
例外	-10.9098
受けた	-10.9098
信号を	-10.9099
消し	-10.9104
言ったら	-10.9105
するような	-10.9105
▁ライアン	-10.9106
ほか	-10.911
はできない	-10.9115
んじゃないのか	-10.9115
▁嬉しい	-10.9115
吾	-10.9116
切断	-10.9118
狩	-10.9119
▁だからこそ	-10.9122
可能性を	-10.9123
があるのか	-10.9126
時間の	-10.9126
“	-10.9126
止	-10.9126
血管	-10.9126
するなんて	-10.9127
秘密を	-10.9127
ラジオ	-10.9127
やったんだ	-10.9129
に必要な	-10.9129
▁どうしたらいい	-10.913
凄い	-10.9131
寄り	-10.9132
者です	-10.9134
シャン	-10.9136
工	-10.9136
年後に	-10.9141
党	-10.9142
暗殺	-10.9146
変だ	-10.9146
平等	-10.9147
▁清	-10.9147
頼まれた	-10.9148
模様	-10.9148
同情	-10.9149
ディング	-10.9152
レーザー	-10.9154
ボタン	-10.9156
▁マイ	-10.9159
▁納得	-10.916
風呂	-10.916
が好きなの	-10.9161
ランス	-10.9161
触る	-10.9161
吸	-10.9162
▁技術	-10.9163
▁仕方ない	-10.9165
彼と	-10.9167
いいな	-10.9168
つつ	-10.9169
束	-10.917
教えてくれる	-10.9171
誕生日	-10.9173
怎么	-10.9174
取り組む	-10.9176
と言い	-10.9176
ゾーン	-10.9176
▁セックス	-10.9178
がいます	-10.9178
ポー	-10.9179
▁ビリー	-10.918
名の	-10.918
日前	-10.918
チーズ	-10.9181
象	-10.9187
はずだった	-10.9188
パソコン	-10.9189
日だ	-10.919
ジェーン	-10.919
くそ	-10.919
▁皆さんは	-10.9191
監視カメラ	-10.9192
or	-10.9194
がなければ	-10.9197
食べたい	-10.9198
▁死に	-10.9198
▁父上	-10.9198
ート	-10.9198
▁通	-10.9198
が入って	-10.92
下がって	-10.9201
共感	-10.9201
无	-10.9202
知ってるのか	-10.9203
〟	-10.9203
ほん	-10.9204
恐れる	-10.9205
安全な場所	-10.9205
大尉	-10.9206
恨み	-10.9206
いいから	-10.9211
大規模な	-10.9211
に戻れ	-10.9212
の光	-10.9213
▁W	-10.9214
下げ	-10.9214
ライブ	-10.9215
歌う	-10.9216
で最も	-10.9216
置け	-10.9218
フィー	-10.9218
▁真の	-10.9218
眠れ	-10.9219
▁時間がない	-10.922
言われる	-10.922
頼り	-10.9221
を殺せ	-10.9223
世紀の	-10.9223
フェル	-10.9226
翔	-10.9227
スーパー	-10.9227
島に	-10.923
▁待ってください	-10.9232
レイプ	-10.9233
踏	-10.9235
▁今週	-10.9235
のを見た	-10.9237
ローン	-10.9238
みたいなもの	-10.9239
に従う	-10.924
晴れ	-10.9241
▁明日は	-10.9244
に従って	-10.9245
他にも	-10.9246
▁解決	-10.9246
▁うそ	-10.9246
コム	-10.9246
殺人者	-10.9246
ブタ	-10.9246
様が	-10.925
行ってくる	-10.9254
▁私から	-10.9254
▁どけ	-10.9257
パニック	-10.9258
納	-10.9259
▁バイト	-10.9259
いられる	-10.926
印象	-10.926
ニューロン	-10.9261
叔父	-10.9261
▁あんたも	-10.9261
イスラエル	-10.9262
木ノ葉	-10.9262
わかんない	-10.9262
妊娠	-10.9263
▁モンスター	-10.9263
効	-10.9264
ものか	-10.9264
▁君たちは	-10.9266
性質	-10.9269
匿名	-10.927
カギ	-10.9272
一部	-10.9274
しちゃ	-10.9275
は全く	-10.9276
▁随分	-10.9279
▁丸	-10.9282
させてください	-10.9282
▁代わりに	-10.9283
▁肉	-10.9283
▁忙しい	-10.9283
▁アメリカ人	-10.9286
ーク	-10.9289
気に入って	-10.9289
欲しいんだ	-10.9289
ロボ	-10.929
示す	-10.929
宗	-10.9291
証拠は	-10.9291
習慣	-10.9291
ドライバー	-10.9292
するという	-10.9292
必死	-10.9295
婚約	-10.9295
電池	-10.9295
お別れ	-10.9296
手掛かり	-10.9298
誰もが	-10.9298
▁人質	-10.9299
どこへ	-10.9299
▁ハル	-10.93
▁ワトソン	-10.9301
国王	-10.9302
▁精神	-10.9302
▁ありえない	-10.9302
試してみ	-10.9303
間違いない	-10.9304
▁ちっ	-10.9304
を求めて	-10.9305
売る	-10.9305
何かが	-10.9306
▁何度	-10.9309
する必要があります	-10.931
家に帰る	-10.9312
这个	-10.9312
あるのか	-10.9313
動け	-10.9313
▁よせ	-10.9314
の部下	-10.9314
で見た	-10.9317
江	-10.9317
▁やつら	-10.9318
技術者	-10.9318
分かんない	-10.9318
面接	-10.9318
▁すっかり	-10.9319
だけだよ	-10.932
▁切り	-10.9321
コミュニケーション	-10.9321
親戚	-10.9321
GPS	-10.9321
全てが	-10.9322
▁あのとき	-10.9324
▁将軍	-10.9325
快適	-10.9327
事実を	-10.9328
では無い	-10.9329
▁共に	-10.9329
地位	-10.9329
認めて	-10.933
ようで	-10.9331
▁お願いだから	-10.9332
お友達	-10.9333
だけじゃ	-10.9333
が見えます	-10.9333
のご	-10.9334
ビア	-10.9337
チー	-10.9341
タウン	-10.9344
の方に	-10.9347
ルド	-10.9348
廃	-10.935
数日	-10.935
隔離	-10.9351
▁メッセージ	-10.9352
好きじゃない	-10.9352
99	-10.9353
森林	-10.9354
レスター	-10.9354
▁理由は	-10.9355
るよう	-10.9359
尾行	-10.936
ましたね	-10.9361
▁脱出	-10.9361
とった	-10.9363
サーバー	-10.9364
▁わしは	-10.9365
ジェリー	-10.9368
進行	-10.937
たくさんの	-10.937
▁ウォーカー	-10.9372
▁見つかった	-10.9374
▁頼むから	-10.9374
得られる	-10.9375
を見ている	-10.9378
冷蔵庫	-10.938
肺	-10.9381
楽しかった	-10.9382
▁校長	-10.9383
▁参加	-10.9383
▁この辺	-10.9384
気づく	-10.9386
▁真実を	-10.9386
君も	-10.9387
を求め	-10.9388
▁勿論	-10.9388
性的	-10.9388
弱点	-10.939
▁ガキ	-10.9392
▁J	-10.9392
▁奴らが	-10.9392
▁H	-10.9393
なんだろ	-10.9393
付く	-10.9398
隠して	-10.9399
お手伝い	-10.9399
という意味	-10.9402
そっくり	-10.9402
思っていた	-10.9403
死なない	-10.9403
話している	-10.9405
がないと	-10.9405
似てる	-10.9408
注意を	-10.9408
吸血鬼	-10.9409
▁もともと	-10.941
麻酔	-10.941
職業	-10.941
日が	-10.9412
許	-10.9413
原子	-10.9413
デッキ	-10.9414
▁どのような	-10.9416
mi	-10.9418
はるかに	-10.9419
るなよ	-10.9419
ることが	-10.942
でないと	-10.9421
▁地球の	-10.9425
大きさ	-10.9425
単純な	-10.9426
コロ	-10.9428
撮った	-10.9428
▁彼等	-10.9429
主人	-10.943
海に	-10.943
真是	-10.9431
缶	-10.9433
がいない	-10.9434
ほら	-10.9435
伊	-10.9436
スキ	-10.9436
発見した	-10.9437
▁いいだろう	-10.9438
no	-10.9438
告発	-10.9438
すまない	-10.9438
を発見した	-10.9439
バッテリー	-10.9439
gps	-10.944
黒い	-10.944
問題だ	-10.9442
言ってるんだ	-10.9443
▁ワイン	-10.9445
俺も	-10.9445
心配して	-10.9445
▁感情	-10.9445
の件で	-10.9445
▁簡単な	-10.9446
頭が	-10.9446
ウォーカー	-10.9447
辞めた	-10.9449
▁荷物	-10.945
▁博士	-10.9452
店で	-10.9452
渡して	-10.9454
預け	-10.9455
専門家	-10.9456
じゃないと	-10.9457
当たって	-10.9457
▁食べる	-10.9459
夜に	-10.9459
くなって	-10.946
不可	-10.946
何をした	-10.9462
人もいる	-10.9462
▁リーダー	-10.9464
殺して	-10.9466
あう	-10.9467
バリ	-10.9467
家族が	-10.9468
▁実際には	-10.9468
適応	-10.9469
ぴったり	-10.9469
雇用	-10.9471
つだけ	-10.9472
テロリスト	-10.9473
戻ってきて	-10.9473
が高い	-10.9473
廊下	-10.9474
ヒント	-10.9474
るつもり	-10.9474
▁自転車	-10.9475
就職	-10.9475
妻と	-10.9479
▁ご覧	-10.948
を見つけました	-10.948
クッキー	-10.9481
緑の	-10.9482
▁チャールズ	-10.9482
ご飯	-10.9483
ゲー	-10.9483
実に	-10.9485
の妻	-10.9485
焼け	-10.9486
心配する	-10.9486
浮気	-10.9489
アラ	-10.9492
凍	-10.9493
もまた	-10.9494
止まった	-10.9495
▁この子は	-10.9495
撃って	-10.9496
嬢	-10.9498
プライバシー	-10.9499
滝	-10.9499
洞窟	-10.9499
宣言	-10.9499
掘り	-10.95
働いている	-10.95
助言	-10.95
内緒	-10.9501
遺体	-10.9503
▁諸君	-10.9504
▁アレク	-10.9505
出番	-10.9505
とっても	-10.9506
▁実際は	-10.9506
▁牛	-10.9507
アプリ	-10.9508
拒否	-10.9509
選ぶ	-10.951
▁何時	-10.9512
▁負け	-10.9515
合わない	-10.9518
乗り越え	-10.9519
が出て	-10.9522
芸術家	-10.9522
起きてる	-10.9522
粉	-10.9524
昼食	-10.9524
タンク	-10.9524
▁それか	-10.9526
見つかって	-10.9526
は無かった	-10.9527
▁メキシコ	-10.9528
▁本人	-10.9528
ゲノム	-10.9529
脇	-10.9529
见	-10.9529
を着て	-10.9529
患者が	-10.9531
合図	-10.9531
食べない	-10.9531
▁五	-10.9532
悩み	-10.9535
してんの	-10.9536
グローバル	-10.9538
を助けて	-10.9539
名を	-10.9539
国際	-10.9539
の匂い	-10.954
借金	-10.954
▁若	-10.954
ありますか	-10.9541
の妹	-10.9542
の価値	-10.9542
もんか	-10.9542
▁英国	-10.9543
に任せて	-10.9543
話をして	-10.9544
▁クロ	-10.9544
▁調べて	-10.9544
厳	-10.9548
▁予想	-10.9551
レーン	-10.9551
小学校	-10.9553
があるんです	-10.9553
店に	-10.9554
勤め	-10.9554
▁怪我	-10.9554
▁ダメよ	-10.9554
とり	-10.9555
ドゥー	-10.9556
▁奇跡	-10.9556
生物学	-10.9558
なくては	-10.9558
娘を	-10.9559
遺産	-10.956
離婚	-10.9561
という言葉	-10.9561
▁こっちへ	-10.9564
嫌だ	-10.9565
会社が	-10.9565
▁プレゼント	-10.9566
その他	-10.9566
戻す	-10.9568
ネコ	-10.9575
訊	-10.9579
授	-10.9579
尽く	-10.958
▁見えない	-10.9582
犯した	-10.9583
話です	-10.9583
ナル	-10.9583
湾	-10.9587
かつて	-10.9588
幅	-10.9588
▁キス	-10.9589
受け取って	-10.9589
鈍	-10.9589
手紙を	-10.9591
は全部	-10.9591
暴行	-10.9592
の魂	-10.9592
帰宅	-10.9592
人格	-10.9593
女に	-10.9593
ではないのです	-10.9595
我が	-10.9595
本気	-10.9597
手錠	-10.9598
出席	-10.9598
トム	-10.9599
知らせる	-10.9599
地に	-10.96
してるわ	-10.96
何千	-10.9608
と違って	-10.9608
▁これまでの	-10.9609
一つの	-10.961
でしょうが	-10.961
したいと思います	-10.9611
応援	-10.9611
であっても	-10.9612
チェン	-10.9613
▁契約	-10.9613
化する	-10.9614
メー	-10.9614
エロ	-10.9615
てます	-10.9616
重要です	-10.9619
沙	-10.962
に電話	-10.962
知恵	-10.962
ウェブサイト	-10.962
事務	-10.9623
いいんだよ	-10.9625
怒	-10.9626
▁ナイフ	-10.9627
依存	-10.9627
▁コー	-10.9628
裁	-10.9628
何より	-10.9628
のためだ	-10.9629
5000	-10.9629
出しました	-10.9629
幸い	-10.9631
▁マリ	-10.9634
わかり	-10.9635
▁自由に	-10.9636
きたんだ	-10.9636
ことはできません	-10.9639
ないって	-10.964
▁集中	-10.9641
いいですね	-10.9642
音声	-10.9642
採	-10.9644
ひどく	-10.9644
やったの	-10.9645
迷惑	-10.9646
逃亡	-10.9646
レポート	-10.9646
恐竜	-10.965
▁怒り	-10.9651
発砲	-10.9652
人質	-10.9653
▁簡単	-10.9654
やれば	-10.9654
出版	-10.9656
▁女性の	-10.9656
沈	-10.9657
はあるか	-10.9657
けた	-10.9658
殺されて	-10.9658
低下	-10.9658
▁脳の	-10.9659
どなた	-10.9659
は俺の	-10.9661
エネルギーを	-10.9663
担	-10.9663
でなければ	-10.9664
気か	-10.9664
たいと	-10.9666
▁できるだけ	-10.9666
▁犯人が	-10.9666
愚かな	-10.9667
未来を	-10.9669
トランク	-10.967
▁長い間	-10.9671
▁どうもありがとう	-10.9672
急に	-10.9673
出かけ	-10.9673
なりたい	-10.9675
不可能だ	-10.9676
非常	-10.9678
陛下	-10.9678
酸素	-10.9678
▁相手の	-10.9678
乗客	-10.9679
塞	-10.9679
宇宙船	-10.9681
導入	-10.9681
指令	-10.9682
執行	-10.9683
から聞いた	-10.9684
馬鹿な	-10.9685
▁お帰り	-10.9685
申し出	-10.9687
▁隊長	-10.9688
かえ	-10.9689
魅力	-10.9689
▁マシン	-10.969
歌を	-10.9691
関係が	-10.9693
▁恋人	-10.9697
あら	-10.9699
頭痛	-10.9699
の色	-10.97
入力	-10.9703
にゃ	-10.9703
を残して	-10.9704
から電話	-10.9704
▁亡くなった	-10.9705
映像を	-10.9706
んだい	-10.9707
後ろに	-10.9707
本能	-10.9707
ロビー	-10.9708
相手を	-10.971
かれて	-10.971
ウサギ	-10.9711
カウンター	-10.9711
	-10.9711
の中から	-10.9711
済まない	-10.9711
食糧	-10.9711
電波	-10.9713
スタイル	-10.9713
答えは	-10.9714
▁リズボン	-10.9715
▁相手は	-10.9715
家族は	-10.9717
スープ	-10.9718
溶	-10.972
道は	-10.9721
しなければなりません	-10.9722
お店	-10.9722
良くなる	-10.9722
会え	-10.9724
冷静	-10.9724
撮	-10.9724
▁無視	-10.9724
▁教師	-10.9726
▁息子の	-10.9726
▁1000	-10.9726
直して	-10.9731
▁凄い	-10.9732
児	-10.9732
▁どこにも	-10.9732
こう言いました	-10.9733
黄色	-10.9735
伝えてくれ	-10.9735
潰	-10.9736
▁作戦	-10.9738
▁課長	-10.9738
りしない	-10.974
のメンバー	-10.9741
処刑	-10.9742
相手は	-10.9743
▁同	-10.9745
どこでも	-10.9745
チームは	-10.9745
ここへ	-10.9747
の流れ	-10.9749
になるでしょう	-10.975
幸	-10.975
▁医師	-10.9752
▁アナタ	-10.9753
▁心の	-10.9754
容疑	-10.9754
処	-10.9755
娘が	-10.9755
タワー	-10.9756
何処に	-10.9758
しちゃう	-10.9758
るのを	-10.976
に手を	-10.9761
オール	-10.9762
会社は	-10.9763
分後に	-10.9763
吸収	-10.9764
▁我慢	-10.9766
▁ここへ	-10.9767
付いた	-10.977
滑	-10.977
兆	-10.9771
ガード	-10.9771
時間に	-10.9772
HIV	-10.9772
ボランティア	-10.9772
忠告	-10.9772
▁タイ	-10.9774
▁ドン	-10.9776
▁エレン	-10.9776
▁でもね	-10.9777
年寄り	-10.9778
以	-10.9782
護衛	-10.9783
るんだよ	-10.9783
現れて	-10.9784
たいと思います	-10.9785
イチ	-10.9786
騙	-10.9787
ファック	-10.9787
パラ	-10.9788
文書	-10.9788
▁ジミー	-10.9788
家族を	-10.9789
まん	-10.9791
年代に	-10.9791
をつける	-10.9792
安全な	-10.9793
▁警告	-10.9794
と話して	-10.9794
しますか	-10.9795
▁お金を	-10.9796
▁第二	-10.9797
を追う	-10.9798
自分自身	-10.9799
コア	-10.9799
船を	-10.9799
75	-10.9799
分から	-10.9801
三つ	-10.9801
されたら	-10.9802
いいね	-10.9803
捕まえ	-10.9803
タンパク質	-10.9803
の水	-10.9805
ツー	-10.9805
▁完璧な	-10.9805
開放	-10.9805
誓う	-10.9805
苦手	-10.9806
洋	-10.9806
の元	-10.9808
フレ	-10.9808
モーガン	-10.9809
知性	-10.9811
言ったように	-10.9812
▁止めろ	-10.9817
運んで	-10.9818
スティン	-10.9819
意味で	-10.9819
ならなかった	-10.9819
ジェン	-10.9819
が見つかった	-10.9822
癒	-10.9823
ジーン	-10.9823
▁偉大な	-10.9826
▁宗教	-10.9827
▁何をする	-10.9828
調査を	-10.9829
いきました	-10.9829
ではないか	-10.983
店の	-10.983
ギル	-10.9831
建	-10.9831
フラン	-10.9834
膜	-10.9834
▁指紋	-10.9834
幻覚	-10.9834
友情	-10.9836
追いかけて	-10.9837
ホント	-10.9838
返し	-10.9838
暮らして	-10.9839
やっつけ	-10.9839
ものよ	-10.984
とはいえ	-10.984
込まれた	-10.9843
実験を	-10.9844
ありがとうございました	-10.9845
パリ	-10.9845
選ばれた	-10.9845
▁利用	-10.9845
ですからね	-10.9847
たくさんある	-10.9847
に出る	-10.9847
▁追い	-10.9847
つもりです	-10.9848
に値する	-10.985
▁リック	-10.9855
飛	-10.9857
いること	-10.9858
に行くの	-10.9861
▁電話を	-10.9861
を破壊する	-10.9863
母ちゃん	-10.9864
▁この先	-10.9865
▁少女	-10.9865
脳の	-10.9867
▁それには	-10.9868
やがれ	-10.9869
▁どうなった	-10.987
会いたかった	-10.9871
ベー	-10.9873
ピア	-10.9873
▁警察の	-10.9873
こんなことを	-10.9879
▁どこへ行く	-10.988
▁ギ	-10.9882
分る	-10.9882
りする	-10.9883
労働者	-10.9883
ポール	-10.9885
時半	-10.9886
やるぞ	-10.9889
▁黒い	-10.9891
敷	-10.9891
生き残る	-10.9891
ことがない	-10.9892
▁ジェームズ	-10.9892
▁おかえり	-10.9895
削減	-10.9897
皿	-10.9897
の気持ち	-10.9899
▁ジェイソン	-10.9901
トゥー	-10.9902
政治家	-10.9903
仮	-10.9903
もありました	-10.9903
the	-10.9907
▁ジャン	-10.9908
があるのです	-10.9908
▁v	-10.991
に感謝	-10.9911
▁いったい何	-10.9911
の動き	-10.9912
誓い	-10.9913
▁ゼロ	-10.9914
らどうだ	-10.9916
した後	-10.9917
▁忘れた	-10.9918
▁芸術	-10.9919
に近い	-10.9923
間違えた	-10.9923
しょう	-10.9924
▁取って	-10.9924
をどう	-10.9926
疾患	-10.9926
たび	-10.9927
お茶	-10.9927
一発	-10.9928
秀	-10.9928
襲われた	-10.9928
阿	-10.9928
眼鏡	-10.9929
メーカー	-10.9929
振	-10.9933
食品	-10.9934
地下鉄	-10.9935
広がって	-10.9943
量の	-10.9943
▁わあ	-10.9945
▁どっちが	-10.9945
着いた	-10.9946
▁成長	-10.9947
使われる	-10.9948
静か	-10.9949
崩れ	-10.9949
次に	-10.9952
▁自信	-10.9952
とく	-10.9953
るかも	-10.9953
ドクター	-10.9954
所だ	-10.9954
態	-10.9954
部屋を	-10.9954
作成	-10.9955
▁ならない	-10.9955
北部	-10.9957
も一緒に	-10.9957
奇	-10.9958
请	-10.9959
ゆく	-10.996
を迎え	-10.996
を言う	-10.996
▁カーター	-10.9961
地帯	-10.9962
▁十分な	-10.9963
答えを	-10.9963
ケル	-10.9964
訳じゃない	-10.9965
にとっても	-10.9966
大学で	-10.9968
心配してる	-10.9968
使わ	-10.9968
事はない	-10.9969
を追い	-10.9969
▁ぼくは	-10.997
集中	-10.9971
▁基本的に	-10.9971
変革	-10.9972
テー	-10.9972
みたら	-10.9973
ドッグ	-10.9974
▁岩	-10.9975
があるか	-10.9975
▁受け	-10.9976
を確保	-10.9976
▁そして今	-10.9977
▁困った	-10.9978
哦	-10.9979
▁酷い	-10.998
怒って	-10.9982
下手	-10.9982
▁その上	-10.9982
睡眠	-10.9983
に参加	-10.9984
問題ない	-10.9984
わからん	-10.9984
の腕	-10.9984
ひと	-10.9986
我们	-10.9986
ドラゴンボール	-10.9987
▁ホワイト	-10.9988
うる	-10.9988
の敵	-10.9988
なくてもいい	-10.9991
退院	-10.9991
▁優しい	-10.9992
▁今年	-10.9992
ものがある	-10.9995
▁エンジン	-11.0001
を感じ	-11.0003
経済的	-11.0004
色々な	-11.0006
男女	-11.0008
向かって	-11.0009
我慢	-11.0009
するでしょう	-11.0011
▁マックス	-11.0012
を見せ	-11.0013
世界は	-11.0013
▁テロリスト	-11.0014
▁もちろんです	-11.0014
追い詰め	-11.0017
立ち上げ	-11.0018
いただきたい	-11.0018
でもありません	-11.0019
ことじゃない	-11.002
▁大切な	-11.002
ショップ	-11.0021
▁っていうか	-11.0021
エンジニア	-11.0021
劣	-11.0022
自閉症	-11.0022
雰囲気	-11.0022
マンション	-11.0024
▁彼女には	-11.0025
そいつ	-11.0026
べきか	-11.0026
充分	-11.0027
聴	-11.0027
▁シスター	-11.0027
心当たり	-11.0027
▁一緒	-11.0027
▁未来の	-11.0029
悟	-11.0029
フェイ	-11.003
ブリッジ	-11.003
▁復讐	-11.0031
を送った	-11.0032
そうですね	-11.0033
▁私自身	-11.0034
券	-11.0034
PC	-11.0034
▁出た	-11.0035
エラ	-11.0036
乗せて	-11.0036
獲物	-11.0036
本物の	-11.0038
らい	-11.0038
ぶち	-11.004
▁デジタル	-11.004
▁エリック	-11.0041
けば	-11.0041
かわからない	-11.0043
挙	-11.0045
秘	-11.0046
▁目が	-11.0046
話がある	-11.0047
力で	-11.0047
▁人類の	-11.0049
手伝ってくれ	-11.0049
典	-11.0051
を買った	-11.0051
さないで	-11.0052
いただいて	-11.0052
アクセス	-11.0053
▁松	-11.0053
▁誤解	-11.0053
多様性	-11.0054
懐	-11.0054
完	-11.0054
住宅	-11.0054
節約	-11.0055
統合	-11.0055
なかったのか	-11.0056
域	-11.0056
退屈	-11.0057
おいしい	-11.0058
肉体	-11.0058
述べ	-11.0059
ユー	-11.0059
島さん	-11.0059
▁こんな風に	-11.0062
しますよ	-11.0063
▁お待ち	-11.0063
学んで	-11.0064
慣れて	-11.0065
溺れ	-11.0065
ジェット	-11.0066
ドアを	-11.0067
あんたの	-11.0068
▁最終	-11.0068
地域の	-11.007
システムは	-11.007
喜	-11.007
▁ブロディ	-11.0071
▁マク	-11.0071
の経験	-11.0072
▁色	-11.0072
どうかな	-11.0073
▁やめてよ	-11.0073
ペース	-11.0074
じっと	-11.0074
▁ザ	-11.0076
が出来る	-11.0076
▁寒い	-11.0076
言うことを	-11.0077
花火	-11.0078
攻め	-11.0078
▁コラ	-11.0079
分だ	-11.008
叩き	-11.008
備え	-11.008
させること	-11.0082
紀	-11.0083
しましょうか	-11.0084
感動	-11.0085
陸	-11.0087
改め	-11.0089
▁国民	-11.0089
をやる	-11.0091
思い出した	-11.0092
情け	-11.0093
付か	-11.0094
発達	-11.0094
育	-11.0095
台無し	-11.0095
ブリー	-11.0095
ギター	-11.0097
出かける	-11.0097
町の	-11.0098
急ぎ	-11.0099
▁今晩	-11.0099
オーバー	-11.01
▁手紙	-11.0101
▁もう大丈夫	-11.0103
ケンカ	-11.0103
を傷つける	-11.0103
が何か	-11.0103
再開	-11.0104
をつけた	-11.0104
お分かり	-11.0105
▁グリーン	-11.0105
であろうと	-11.0106
間違っている	-11.0106
▁ゴー	-11.0107
誤	-11.0108
会おう	-11.0114
が居る	-11.0114
▁行った	-11.0115
▁ボクは	-11.0116
扱う	-11.0117
栄養	-11.0117
演技	-11.0118
変えた	-11.0119
▁紙	-11.012
殺せ	-11.012
ないんですか	-11.0121
オープン	-11.0121
民主主義	-11.0121
違法	-11.0122
についても	-11.0122
できたら	-11.0123
行こうぜ	-11.0124
を受け入れ	-11.0124
会わせ	-11.0124
ヘリ	-11.0126
以内	-11.0127
システムが	-11.0128
を捕まえる	-11.0128
▁会って	-11.0129
捨てる	-11.013
のひとつ	-11.0131
見た事	-11.0131
ってわけ	-11.0132
hiv	-11.0132
グレイ	-11.0134
研究を	-11.0135
ということだ	-11.0137
カバー	-11.0137
する方法	-11.0137
人じゃない	-11.0137
まえ	-11.014
行きなさい	-11.014
を開く	-11.0141
降りる	-11.0142
チビ	-11.0146
▁楽しかった	-11.0147
▁学生	-11.0149
ショット	-11.0149
ラニスター	-11.0149
頂戴	-11.0149
肝臓	-11.0149
墜落	-11.0149
投与	-11.0149
▁犠牲者	-11.015
▁俺達の	-11.0152
ラル	-11.0153
はないわ	-11.0155
詳しく	-11.0156
割れ	-11.0159
僕たち	-11.016
やり方で	-11.0161
優秀な	-11.0162
アドレス	-11.0162
基	-11.0162
ta	-11.0163
しませんでした	-11.0167
ほぼ	-11.0169
▁ロス	-11.0169
緒	-11.0173
▁コール	-11.0173
▁状況は	-11.0174
エス	-11.0174
ぶら	-11.0174
やるから	-11.0174
んでる	-11.0175
▁これに	-11.0175
▁午前	-11.0176
ビジョン	-11.0179
▁貴方が	-11.018
故	-11.018
潜入	-11.0181
固定	-11.0182
戦った	-11.0183
使ってる	-11.0183
が起こる	-11.0187
▁お父さんは	-11.0187
を書く	-11.0187
ブラウン	-11.0188
▁んん	-11.0188
▁ネズミ	-11.0189
高級	-11.0189
られたら	-11.019
気はない	-11.019
新人	-11.0191
通りの	-11.0191
言う事	-11.0191
いただく	-11.0192
受ける	-11.0193
を守るために	-11.0193
▁出来ない	-11.0195
にしか	-11.0195
▁うむ	-11.0196
クローン	-11.0198
を求める	-11.02
日は	-11.02
をお	-11.0202
▁ごく	-11.0203
寒い	-11.0203
▁ポー	-11.0204
▁立て	-11.0204
何年も	-11.0204
右側	-11.0207
独立	-11.0207
▁僕たちは	-11.0211
▁現	-11.0211
▁お友達	-11.0211
お前ら	-11.0212
蘇	-11.0212
▁一つの	-11.0212
リル	-11.0212
大丈夫です	-11.0213
頑張る	-11.0213
批判	-11.0213
葬儀	-11.0214
閉じ込められ	-11.0215
▁娘さん	-11.0216
▁f	-11.0219
場面	-11.0219
求め	-11.022
▁起きろ	-11.022
▁大きく	-11.0222
▁その男	-11.0223
ると思う	-11.0223
左側	-11.0224
▁シュ	-11.0225
スミス	-11.0225
▁ダンス	-11.0227
▁僕と	-11.0228
覚	-11.023
ジュン	-11.023
来なかった	-11.0231
ナス	-11.0232
床に	-11.0232
長い間	-11.0232
がわかる	-11.0233
傍	-11.0233
▁外に	-11.0234
称	-11.0236
カ月	-11.0236
間違え	-11.0238
チームが	-11.0238
▁お店	-11.0239
▁名前を	-11.0239
返事	-11.0239
見えます	-11.0239
言えよ	-11.024
殺人犯	-11.024
▁最近の	-11.024
真面目	-11.0242
▁攻撃力	-11.0242
越え	-11.0242
さい	-11.0244
氏の	-11.0244
見ても	-11.0245
▁戦う	-11.0246
パキスタン	-11.0246
韓国	-11.0246
予備	-11.0246
だもん	-11.0247
▁p	-11.0249
データベース	-11.025
数は	-11.025
患者の	-11.0251
ぶっ	-11.0253
ゲル	-11.0255
その後	-11.0255
▁娘の	-11.0256
だったのよ	-11.0257
▁どこかに	-11.0257
が言ってた	-11.0259
破滅	-11.0259
聞こえた	-11.0259
捕まえる	-11.0259
たこと	-11.026
の影響	-11.0262
自宅	-11.0262
いられない	-11.0262
▁ぶっ	-11.0264
▁大した	-11.0264
こともあります	-11.0266
は何か	-11.0268
▁オンライン	-11.0268
▁病院に	-11.0268
そうで	-11.0268
開ける	-11.0269
いち	-11.027
疑	-11.0272
そうする	-11.0273
▁ウイルス	-11.0273
談	-11.0274
▁ゴミ	-11.0274
▁対	-11.0275
▁イタリア	-11.0275
んだもん	-11.0277
▁結果	-11.0277
賀	-11.0278
アルゴリズム	-11.0278
好奇心	-11.0278
児童	-11.0278
大使館	-11.0278
祝福	-11.0278
台の	-11.028
ここを	-11.028
▁院長	-11.0281
練	-11.0282
モニター	-11.0283
気持ちが	-11.0284
ネス	-11.0284
テス	-11.0285
住んでる	-11.0285
十分な	-11.0285
ということを	-11.0286
▁子供を	-11.0286
があるなら	-11.0287
▁じゃあな	-11.0288
いいじゃん	-11.0288
▁すべてが	-11.0289
ルス	-11.0289
私達が	-11.0291
▁リスト	-11.0292
▁不思議	-11.0292
急ぐ	-11.0293
科学的	-11.0298
を探している	-11.0299
CA	-11.0299
の山	-11.0301
分解	-11.0303
場所です	-11.0303
▁w	-11.0303
桃	-11.0304
スラ	-11.0304
正確な	-11.0305
知らねえ	-11.0306
が必要な	-11.0308
▁血液	-11.0309
見つけられる	-11.0309
営	-11.0309
の戦い	-11.0309
しなくていい	-11.031
楽しむ	-11.0311
継続	-11.0311
採用	-11.0311
言っていた	-11.0311
▁そんなもの	-11.0316
▁こん	-11.0316
その通り	-11.0317
▁現金	-11.0317
作れる	-11.0318
払った	-11.0318
ばかりで	-11.0319
賢く	-11.0319
やったこと	-11.0319
もらえますか	-11.0321
たいなら	-11.0324
神々	-11.0325
皆が	-11.0325
ことができない	-11.0325
食え	-11.0327
▁しょうがない	-11.0327
アレ	-11.0328
しかいない	-11.0329
吸って	-11.033
議	-11.0333
話しかけ	-11.0333
東京	-11.0334
▁掃除	-11.0334
▁悪いが	-11.0335
▁思い出した	-11.0337
▁冬	-11.0337
言ったんだ	-11.0338
伝えた	-11.0338
▁なぜか	-11.034
考えました	-11.0341
勘	-11.0341
ためだ	-11.0342
やったら	-11.0342
エジプト	-11.0343
デバイス	-11.0343
免疫	-11.0343
済ませ	-11.0343
炭素	-11.0344
▁あんたら	-11.0345
シールド	-11.0345
届	-11.0345
▁会社の	-11.0346
▁分かんない	-11.0346
愛し	-11.0347
だと思ってた	-11.0347
数百	-11.0348
多分	-11.0349
叔父さん	-11.0349
▁普通に	-11.0351
NY	-11.0352
ナノ	-11.0352
になるんだ	-11.0352
リップ	-11.0353
食べよう	-11.0354
グレ	-11.0354
扱って	-11.0355
りたい	-11.0356
じゃないぞ	-11.0357
潜	-11.036
▁バイ	-11.0361
▁何人	-11.0362
▁ターゲット	-11.0363
▁お父さんが	-11.0364
▁こういうの	-11.0364
知られて	-11.0366
立派な	-11.0367
▁カル	-11.0367
休憩	-11.0368
珍しい	-11.0369
チェス	-11.0374
故障	-11.0376
移動する	-11.0376
および	-11.0377
怖くない	-11.0377
を持っていた	-11.0379
▁母が	-11.0379
多くの人	-11.0381
▁カリフォルニア	-11.0381
ca	-11.0381
▁そうさ	-11.0381
が変わった	-11.0382
▁珍しい	-11.0383
数え	-11.0384
たま	-11.0384
▁それら	-11.0384
▁被害者は	-11.0385
職場	-11.0387
甘い	-11.0388
ボウ	-11.039
していると	-11.039
▁这	-11.0391
を調べ	-11.0395
いじ	-11.0396
文句	-11.0397
バーグ	-11.04
を見てください	-11.0401
▁同僚	-11.0403
若	-11.0403
グラム	-11.0403
た方がいい	-11.0404
物に	-11.0405
ることで	-11.0407
人生の	-11.0408
1,000	-11.0409
起こす	-11.041
局長	-11.0411
おかげで	-11.0411
強化	-11.0418
▁我々には	-11.0419
言葉が	-11.042
我々を	-11.0423
スペイン	-11.0423
環境に	-11.0424
しそう	-11.0425
▁信用	-11.0426
のことも	-11.0426
はもっと	-11.0429
▁お兄さん	-11.0429
の事で	-11.0432
▁こんばんは	-11.0432
を聞く	-11.0432
王様	-11.0434
ウィル	-11.0435
夕	-11.0435
▁肩	-11.0438
息子を	-11.0438
バード	-11.0438
おばさん	-11.0441
副	-11.0441
の授業	-11.0441
アプローチ	-11.0441
▁気にしないで	-11.0442
皇帝	-11.0442
▁キサマ	-11.0442
芝居	-11.0442
向いて	-11.0443
モル	-11.0443
関わって	-11.0443
パズル	-11.0444
想定	-11.0444
言っても	-11.0444
きゃ	-11.0444
美しく	-11.0446
ライオン	-11.0446
型の	-11.0446
脅	-11.0446
大事なこと	-11.0446
患者は	-11.0447
の壁	-11.0447
午後	-11.0448
少しずつ	-11.0449
▁僕達	-11.0449
するのを	-11.0449
時間がかかる	-11.045
恥ずかしい	-11.0451
にしても	-11.0451
必要が	-11.0452
▁そこを	-11.0452
が起きる	-11.0453
年から	-11.0453
ていて	-11.0453
無料	-11.0455
間もなく	-11.0456
▁自宅	-11.0458
掘	-11.0459
終わ	-11.0459
ハム	-11.0459
ーション	-11.046
坊や	-11.046
▁うう	-11.046
祭り	-11.0463
▁感染	-11.0464
光栄です	-11.0466
黒人	-11.0466
▁許して	-11.047
▁誰と	-11.0471
バリー	-11.0474
確か	-11.0474
監禁	-11.0475
予防	-11.0475
処置	-11.0475
やってない	-11.0475
出ろ	-11.0476
▁いい加減	-11.0477
おそらく	-11.0477
成立	-11.0477
結局	-11.0479
導く	-11.048
るところ	-11.048
いらっしゃる	-11.0481
工作	-11.0483
招	-11.0483
外部	-11.0484
ip	-11.0484
イヤー	-11.0484
▁考えた	-11.0485
と考える	-11.0486
されていました	-11.0487
▁子どもたち	-11.0488
なかったのです	-11.0489
の始まり	-11.049
▁これだ	-11.049
ジョーク	-11.0491
下り	-11.0493
▁どこが	-11.0493
途	-11.0494
順	-11.0494
いったい	-11.0495
自由に	-11.0497
▁絵	-11.0497
▁それらの	-11.0498
池	-11.0499
革新	-11.0499
と考えています	-11.0499
▁逆に	-11.05
▁昨日は	-11.05
ましい	-11.0501
瓶	-11.0503
▁どこかで	-11.0504
仕方	-11.0506
突っ	-11.0506
而	-11.0508
ストリート	-11.0508
陰謀	-11.0508
規制	-11.0508
慣れ	-11.0508
抜ける	-11.0509
便利	-11.0509
って言ってる	-11.051
ハード	-11.051
言わせて	-11.0512
風に	-11.0512
事項	-11.0513
化した	-11.0513
取り組んで	-11.0514
▁文句	-11.0514
用心	-11.0514
湯	-11.0515
首相	-11.0516
郷	-11.0516
特定の	-11.0518
片方	-11.0518
求める	-11.052
▁イエス	-11.052
認知	-11.052
人数	-11.0522
の準備を	-11.0523
するのよ	-11.0525
筈だ	-11.0525
信頼できる	-11.0526
▁昨年	-11.0527
村さん	-11.0528
一枚	-11.053
そうなの	-11.053
を書いて	-11.0531
回目	-11.0531
けどさ	-11.0532
▁詳しく	-11.0534
▁皆に	-11.0534
▁交渉	-11.0535
るんじゃない	-11.0535
▁どれも	-11.0537
ところは	-11.054
ウチ	-11.0541
▁お待たせ	-11.0542
帰還	-11.0542
女を	-11.0542
▁やがて	-11.0542
の言うとおり	-11.0542
ということで	-11.0544
一瞬	-11.0544
▁サイン	-11.0544
サポート	-11.0545
大変だ	-11.0546
場所が	-11.0548
▁訓練	-11.0549
ok	-11.055
に電話して	-11.0551
だけでは	-11.0552
▁ピッコロ	-11.0552
要因	-11.0553
仲間が	-11.0554
ことが出来る	-11.0554
本人	-11.0558
▁二人の	-11.0559
関係ある	-11.0559
市長	-11.056
▁そっちは	-11.056
解け	-11.0561
▁エド	-11.0563
何者	-11.0564
国で	-11.0565
秋	-11.0565
桜木	-11.0566
▁ニュー	-11.0566
一番の	-11.0567
▁開発	-11.057
払え	-11.057
取れる	-11.057
といいます	-11.057
想像力	-11.0572
ることができます	-11.0574
フロ	-11.0574
言っておく	-11.0574
彩	-11.0574
出してくれ	-11.0574
相互	-11.0574
改革	-11.0574
退職	-11.0575
▁たま	-11.0576
背景	-11.0581
側面	-11.0581
大変だった	-11.0583
▁そういう事	-11.0584
ヤツが	-11.0585
王の	-11.0586
センチ	-11.0586
ねえんだよ	-11.0589
▁言われた	-11.0589
▁経験	-11.059
応え	-11.059
探偵	-11.0592
▁ディーン	-11.0594
目の前に	-11.0596
になること	-11.0597
バット	-11.0597
に行きたい	-11.0597
▁過去の	-11.0598
外国	-11.0598
を殺そうと	-11.0599
▁何にも	-11.0601
間違った	-11.0602
▁早い	-11.0603
キット	-11.0603
カイ	-11.0604
▁分かったよ	-11.0605
略	-11.0605
剥	-11.0607
膨大な	-11.0608
めちゃくちゃ	-11.0608
をもたらし	-11.0608
▁しっかりしろ	-11.0609
行こうか	-11.0611
ハーバード	-11.0611
▁フフッ	-11.0611
は何ですか	-11.0613
広く	-11.0614
▁使う	-11.0615
▁ビッグ	-11.0617
動脈	-11.0617
▁相談	-11.0618
▁そうする	-11.0618
ポリ	-11.0621
上げた	-11.0622
シンプル	-11.0622
▁つらい	-11.0625
誘い	-11.0626
▁なんでも	-11.0627
に入れる	-11.0627
死んだら	-11.063
モード	-11.0632
熱心	-11.0632
36	-11.0635
0.	-11.0636
▁やばい	-11.0638
▁メアリー	-11.0639
▁聞こえた	-11.064
許し	-11.0641
イノベーション	-11.0641
侮辱	-11.0641
被験者	-11.0641
戻せ	-11.0642
▁別れ	-11.0643
回し	-11.0644
疑う	-11.0647
▁ストレス	-11.0647
グッド	-11.0648
▁家庭	-11.0651
▁私の人生	-11.0652
終わったら	-11.0653
不動産	-11.0653
尋ねた	-11.0655
おしまい	-11.0655
思えない	-11.0658
、「	-11.066
減って	-11.0661
▁勇気	-11.0661
されてない	-11.0661
する為に	-11.0663
▁金持ち	-11.0663
▁目撃者	-11.0663
死ぬまで	-11.0664
はどうする	-11.0665
感謝してる	-11.0668
何やってる	-11.0669
有難う	-11.0675
火を	-11.0675
嘘をついた	-11.0676
わかってない	-11.0678
去り	-11.068
▁使用	-11.068
▁あきらめ	-11.068
組織の	-11.0681
の話です	-11.0682
たっぷり	-11.0683
▁パワー	-11.0684
▁魂	-11.0685
ヤマ	-11.0687
▁進化	-11.0687
寒	-11.0688
▁フリー	-11.0688
▁ほっと	-11.0689
を始める	-11.069
ことなく	-11.069
ようとしている	-11.069
▁立派な	-11.0692
を与えて	-11.0692
金額	-11.0695
▁なんだと	-11.0696
思い出せ	-11.0697
知ってるわ	-11.0697
▁地上	-11.0697
▁わたしが	-11.0698
まとめて	-11.0698
▁ジェイコブ	-11.0699
女と	-11.0702
報	-11.0703
洗	-11.0704
諦める	-11.0704
もあり	-11.0704
度目	-11.0705
を送り	-11.0705
勧め	-11.0708
ジル	-11.0709
男性が	-11.0711
アニメ	-11.0711
▁呼吸	-11.0712
▁いつまでも	-11.0712
済	-11.0714
足跡	-11.0714
▁甘い	-11.0716
分類	-11.0718
ハエ	-11.0718
の変化	-11.0719
人種	-11.072
47	-11.0721
イエス	-11.0722
持ってた	-11.0724
▁お互いに	-11.0728
ハチ	-11.073
を倒す	-11.0732
又	-11.0733
んなよ	-11.0733
の事だ	-11.0735
ちゃダメ	-11.0736
世界一	-11.0738
現代	-11.0738
言いたいのは	-11.0739
警部補	-11.074
勝手な	-11.0741
▁そこが	-11.0742
希	-11.0742
鶏	-11.0743
もらえませんか	-11.0743
及び	-11.0743
と言うの	-11.0743
▁個人的な	-11.0745
▁くだらない	-11.0746
広がり	-11.0749
どれ	-11.075
ミル	-11.075
左右	-11.0751
▁こいつが	-11.0751
▁所以	-11.0752
るでしょう	-11.0752
▁科学者	-11.0753
ごろ	-11.0754
ここは	-11.0755
▁最	-11.0755
誇	-11.0757
と同じくらい	-11.0758
のやつ	-11.0758
期待して	-11.076
▁あまりにも	-11.0766
幽霊	-11.077
自転車	-11.0771
マイケル	-11.0771
と言える	-11.0771
▁唯一	-11.0771
的なもの	-11.0773
地下室	-11.0774
システムの	-11.0774
ストレス	-11.0775
▁私たちに	-11.0776
反射	-11.0778
ステップ	-11.0778
理解する	-11.0779
タグ	-11.0779
郊外	-11.078
しろと	-11.0781
大抵	-11.0781
意味がある	-11.0782
築	-11.0783
以降	-11.0783
▁ソウル	-11.0785
であって	-11.0786
その時	-11.0787
を知りたい	-11.0788
▁楽しんで	-11.0791
なくなります	-11.0793
▁悪くない	-11.0795
▁遅刻	-11.0796
硬	-11.0797
電話した	-11.0797
外科	-11.0798
の弟	-11.0798
▁サンタ	-11.0799
▁ヤツは	-11.0802
ソース	-11.0804
景色	-11.0805
手伝って	-11.0805
▁オープン	-11.0805
地域で	-11.0806
▁すなわち	-11.0806
ギャング	-11.0808
見ろ	-11.0808
手に入る	-11.0808
イライラ	-11.0811
光景	-11.0812
もらえない	-11.0812
▁人生の	-11.0813
反対側	-11.0814
▁逃げた	-11.0815
覚えています	-11.0815
▁聞こえるか	-11.0816
着け	-11.0817
ちょい	-11.0818
唯一	-11.082
▁応援	-11.082
手順	-11.082
認め	-11.082
時々	-11.0821
ることができる	-11.0821
リアル	-11.0821
イギリス	-11.0822
▁多く	-11.0822
▁連れて	-11.0823
数時間	-11.0824
来るの	-11.0825
から離れ	-11.0826
ことができるのです	-11.0827
▁今日から	-11.083
無用	-11.0831
見張って	-11.0831
▁いい子	-11.0831
ってしまった	-11.0832
辞める	-11.0832
うまくいって	-11.0832
あぁ	-11.0832
残して	-11.0833
噛み	-11.0833
▁旅行	-11.0836
光を	-11.0837
生き方	-11.0837
かせて	-11.0837
正直	-11.0837
アイデアを	-11.0838
オリ	-11.0839
飾り	-11.0839
▁ゾーイ	-11.0842
▁特定の	-11.0843
▁どうしたら	-11.0844
プル	-11.0844
かかります	-11.0844
ガソリン	-11.0845
▁なぜ私	-11.0845
眠る	-11.0845
容易	-11.0845
検証	-11.0845
配列	-11.0846
バッジ	-11.0847
▁犯人の	-11.0847
▁気に入った	-11.0847
遅かった	-11.0847
必要です	-11.0848
共通点	-11.0849
夏休み	-11.0854
来なさい	-11.0854
えば	-11.0854
▁たまには	-11.0856
▁レストラン	-11.0856
▁オイ	-11.0861
el	-11.0861
を書き	-11.0863
数週間	-11.0863
▁全てが	-11.0863
経験を	-11.0864
▁何年も	-11.0864
使われて	-11.0865
▁誘拐	-11.0865
愚か	-11.0867
華	-11.0868
と戦う	-11.0871
cia	-11.0872
▁大好き	-11.0874
の悪い	-11.0876
のとおり	-11.0879
▁遊馬	-11.0879
座標	-11.0879
主義者	-11.088
捉え	-11.0881
▁青い	-11.0882
儲け	-11.0888
の所へ	-11.0889
▁シー	-11.0889
▁車に	-11.089
オーナー	-11.0891
▁生きている	-11.0891
あるもの	-11.0891
言ってんの	-11.0894
▁21	-11.0896
国に	-11.0896
はどうだった	-11.0897
臨	-11.0898
アンタ	-11.0898
ようとする	-11.0901
立派	-11.0901
酔	-11.0902
▁一度も	-11.0903
▁いっ	-11.0903
▁迷惑	-11.0903
ぴ	-11.0904
▁マーフィー	-11.0906
たいのか	-11.0906
房	-11.0907
見ました	-11.0909
思いました	-11.091
700	-11.0911
▁クラブ	-11.0912
闘い	-11.0912
▁分った	-11.0913
▁乗って	-11.0913
▁最悪の	-11.0913
▁エミリー	-11.0913
季節	-11.0914
損失	-11.0915
一連の	-11.0916
ri	-11.0916
ここにいた	-11.0916
メニュー	-11.0917
選べ	-11.0918
分かり	-11.0918
の底	-11.0919
当たる	-11.0919
ことにした	-11.092
皮膚	-11.092
▁変わった	-11.0921
まわり	-11.0922
ゅ	-11.0923
服を	-11.0924
▁保安官	-11.0924
はやめて	-11.0925
▁何てこと	-11.0925
影響を与え	-11.0927
の専門家	-11.0927
方も	-11.0927
となると	-11.0929
いたから	-11.093
てるの	-11.0932
残っている	-11.0933
▁これには	-11.0935
しております	-11.0936
呼ばれて	-11.0937
▁彼女も	-11.0937
は決して	-11.0937
▁ルーク	-11.0938
フライ	-11.0941
生存者	-11.0943
ハッピー	-11.0943
社会の	-11.0944
▁素敵	-11.0945
へ行って	-11.0948
こっそり	-11.0948
オーバーレイ	-11.0949
ケーブル	-11.0949
▁ここにある	-11.0949
何が起こる	-11.0949
でしたね	-11.0951
連行	-11.0951
公平	-11.0953
▁カイル	-11.0953
大気	-11.0954
鍵を	-11.0954
面で	-11.0957
▁どうするつもり	-11.0959
痕跡	-11.0961
モテ	-11.0963
▁いいのよ	-11.0964
▁時間を	-11.0964
飲	-11.0964
ダブル	-11.0964
空き	-11.0964
▁自らの	-11.0965
構築	-11.0968
縛	-11.0968
▁これじゃ	-11.0968
▁アタシ	-11.0971
冷たい	-11.0971
面会	-11.0972
出ました	-11.0972
▁押し	-11.0974
夢中	-11.0975
会えた	-11.0975
あて	-11.0975
フェア	-11.0975
▁何と	-11.0976
気だ	-11.0976
▁それ以外	-11.0977
▁こちらへ	-11.0978
協力する	-11.0981
洗濯	-11.0982
侍	-11.0983
紳士	-11.0983
▁刑事さん	-11.0984
▁自分たちの	-11.0984
コイン	-11.0984
防御	-11.0985
に居た	-11.0986
昔の	-11.0988
有る	-11.0989
そこまで	-11.099
▁見た目	-11.0991
貰った	-11.0991
个	-11.0993
の携帯	-11.0995
変身	-11.0996
思いついた	-11.0997
これ以上	-11.0997
タス	-11.0999
をとって	-11.1
いている	-11.1001
▁海外	-11.1002
に向かってる	-11.1002
あるから	-11.1003
死者	-11.1004
プレ	-11.1006
も良い	-11.1007
▁聞いたこと	-11.1008
を起こした	-11.1009
拳	-11.1009
政権	-11.101
▁普段	-11.101
させようと	-11.1012
えた	-11.1012
続けろ	-11.1014
すんの	-11.1015
▁スーツ	-11.1015
▁鏡	-11.1016
▁今度の	-11.1016
▁最初	-11.1017
敬	-11.1017
开	-11.1018
解雇	-11.1019
直し	-11.102
▁たまに	-11.1023
はどうでしょう	-11.1023
▁ロイ	-11.1023
が良い	-11.1024
豊か	-11.1025
見てみましょう	-11.1025
▁当時の	-11.1027
光栄	-11.1029
隠れ家	-11.1029
キム	-11.1029
わけではない	-11.103
ワード	-11.103
頂	-11.1031
についてです	-11.1036
届いた	-11.1037
わかりました	-11.1038
▁女子	-11.1039
役割	-11.1039
騒	-11.104
▁浮気	-11.104
ケリー	-11.1042
圏	-11.1043
しようか	-11.1047
借りた	-11.1048
の世界に	-11.1051
宅	-11.1052
なんじゃ	-11.1053
弓	-11.1053
探索	-11.1053
精神科医	-11.1054
がまだ	-11.1054
▁植物	-11.1056
だったけど	-11.1057
専用	-11.1058
週間前	-11.1058
社会的	-11.1059
ヘイ	-11.1059
▁どういう事	-11.1059
好きなの	-11.1061
買い物	-11.1062
物です	-11.1065
なしに	-11.1066
叩	-11.1067
なんだって	-11.1069
狙撃	-11.1071
鹿	-11.1072
一度も	-11.1073
そっち	-11.1074
偽物	-11.1075
呼べ	-11.1077
を奪った	-11.1077
お待ちください	-11.1077
ヨー	-11.108
▁ジョニー	-11.1081
▁何これ	-11.1082
▁オリビア	-11.1083
行き先	-11.1085
▁お礼	-11.1086
▁うちに	-11.1087
リンゴ	-11.1088
起きている	-11.109
何時	-11.1091
▁忘れる	-11.1094
なんでしょう	-11.1096
呼び出し	-11.1096
▁マリー	-11.1097
いただけ	-11.1097
くれれば	-11.1099
▁当たり前	-11.1099
含	-11.1099
▁聞け	-11.11
下で	-11.1101
你的	-11.1103
▁本当か	-11.1104
用事	-11.1104
▁l	-11.1104
合わせる	-11.1105
を発見	-11.1107
犠牲に	-11.1107
▁どうですか	-11.1108
見なかった	-11.111
親子	-11.111
外出	-11.111
スティ	-11.1111
する時	-11.1111
何もない	-11.1111
単なる	-11.1112
経	-11.1114
漁	-11.1115
千人	-11.1117
野球	-11.1117
▁違法	-11.1118
フランス	-11.1119
▁道路	-11.112
大胆	-11.112
熟	-11.112
捨てて	-11.1122
タフ	-11.1123
綱	-11.1123
に基づいて	-11.1123
ストーカー	-11.1123
捕虜	-11.1123
伸び	-11.1125
忘れてた	-11.1126
予言	-11.1127
コメント	-11.1127
目の前	-11.1132
▁たいした	-11.1132
日記	-11.1132
me	-11.1133
▁続けて	-11.1133
狭い	-11.1134
こんなこと	-11.1135
▁いう	-11.1135
泊	-11.1136
つい	-11.1139
秒で	-11.1139
美術	-11.114
チームの	-11.1141
特殊	-11.1142
うんざり	-11.1142
▁こっちが	-11.1144
に戻	-11.1146
お気に入り	-11.1146
行きました	-11.1149
▁低	-11.1149
まさか	-11.1151
の時に	-11.1154
カメ	-11.1154
持っていた	-11.1155
▁ならば	-11.1158
編集長	-11.1159
抗議	-11.1159
呪	-11.116
採取	-11.1161
あげたい	-11.1161
当然だ	-11.1162
勢い	-11.1162
しようとしている	-11.1163
▁そしてこの	-11.1164
ピーター	-11.1166
わせ	-11.1166
死んでいる	-11.1166
並み	-11.1168
の仕事を	-11.1168
なんでしょ	-11.1168
ロール	-11.1169
の傷	-11.1171
子供は	-11.1172
▁U	-11.1173
近くで	-11.1173
ーブ	-11.1176
ション	-11.1176
戻して	-11.1177
導	-11.1178
もらいました	-11.1178
陽	-11.1178
▁何それ	-11.1178
ないのよ	-11.1179
▁七	-11.118
▁確実に	-11.1182
▁全てを	-11.1187
引っ張	-11.1187
お嬢さん	-11.1189
したいと	-11.1189
が有る	-11.1189
▁調子	-11.1189
ドリ	-11.1191
▁覚えてない	-11.1191
▁お父様	-11.1192
喰	-11.1192
は必要ない	-11.1192
▁昔から	-11.1193
こない	-11.1194
スイーツ	-11.1194
宣伝	-11.1194
同盟	-11.1194
牧師	-11.1194
▁恥ずかしい	-11.1196
認められ	-11.1196
タイヤ	-11.1197
▁混乱	-11.1198
結合	-11.1198
助けが必要	-11.1199
▁虫	-11.12
試し	-11.12
恋愛	-11.12
行い	-11.1202
寿命	-11.1203
▁こっちも	-11.1204
旦那	-11.1204
出そうと	-11.1205
そうじゃない	-11.1208
らないで	-11.1209
▁異常	-11.1211
持	-11.1214
▁スティーブ	-11.1214
▁ローマ	-11.1216
▁長年	-11.1217
やらせて	-11.1222
経路	-11.1225
組み立て	-11.1226
▁ケイト	-11.1227
常識	-11.1228
▁ふん	-11.1228
過ごし	-11.1229
津	-11.1229
インフルエンザ	-11.123
フロリダ	-11.123
頑張った	-11.123
投稿	-11.123
少佐	-11.123
合意	-11.1231
ことについて	-11.1232
▁よっしゃ	-11.1232
子供に	-11.1232
うれしい	-11.1234
のものだ	-11.1238
発作	-11.1239
を呼んだ	-11.1239
ことができ	-11.1239
角度	-11.1239
と思ったの	-11.124
内部	-11.1241
▁認め	-11.1241
諸国	-11.1243
現金	-11.1245
農家	-11.1246
アホ	-11.1248
今朝	-11.1248
ヴォ	-11.125
▁恋愛	-11.1251
どこにいた	-11.1253
代の	-11.1253
▁じっとして	-11.1254
▁ローレル	-11.1255
ことない	-11.1256
パート	-11.126
▁生きる	-11.126
待	-11.1261
▁あの夜	-11.1262
ライダー	-11.1263
インター	-11.1264
くれたら	-11.1264
▁反	-11.1265
見られ	-11.1265
プライド	-11.1265
懐かしい	-11.1265
脱獄	-11.1265
殺さない	-11.1269
▁こちらに	-11.127
▁ありゃ	-11.1271
言葉で	-11.1272
最悪の	-11.1272
してるんです	-11.1275
爆弾を	-11.1275
んじゃねえよ	-11.1276
▁待つ	-11.1279
幹	-11.1279
運ぶ	-11.1283
そんなことを	-11.1283
数値	-11.1284
▁よかったら	-11.1285
▁カレン	-11.1286
どうなるか	-11.1287
デブ	-11.1289
泣いて	-11.1289
理解し	-11.1289
倍の	-11.129
日本語	-11.1292
▁すっ	-11.1292
を使えば	-11.1293
▁おかしな	-11.1296
倒れた	-11.1298
迎えに	-11.1298
私達に	-11.13
什麼	-11.13
牙	-11.1301
野朗	-11.1301
くり	-11.1302
そんな風に	-11.1303
ed	-11.1303
方針	-11.1304
壊した	-11.1304
の映像	-11.1306
▁着いた	-11.1306
者と	-11.1307
▁何やってんの	-11.1307
おか	-11.1308
▁死ね	-11.1308
まどか	-11.1309
どのくらい	-11.1309
ケット	-11.131
劇場	-11.131
アド	-11.131
拳銃	-11.1311
▁昔は	-11.1311
ディナー	-11.1312
体調	-11.1312
▁お酒	-11.1312
記録を	-11.1313
行っている	-11.1313
初期	-11.1313
液体	-11.1313
んど	-11.1314
厄介な	-11.1315
▁アフガニスタン	-11.1315
トレイ	-11.1316
は終わった	-11.1317
込まれて	-11.1318
フン	-11.1318
を待ってる	-11.1318
載	-11.1319
乾	-11.1319
おっ	-11.1319
誠実	-11.132
犯人は	-11.132
は確か	-11.132
のうちに	-11.1321
パック	-11.1322
高速	-11.1323
ここに来た	-11.1323
ことある	-11.1324
出張	-11.1325
っ子	-11.1325
いい人	-11.1325
▁居場所	-11.1327
を紹介	-11.1327
席に	-11.1328
排	-11.1328
ふざけ	-11.1331
死を	-11.1331
考えを	-11.1333
及	-11.1335
最悪だ	-11.1335
苦しむ	-11.1337
誘惑	-11.1337
設備	-11.1337
需要	-11.1337
判決	-11.1338
屋敷	-11.1338
以前に	-11.1339
家に帰って	-11.1339
の無い	-11.1339
抱き	-11.134
ポート	-11.1341
▁いろいろな	-11.1343
トマト	-11.1345
通常	-11.1347
の高い	-11.1347
▁こんな感じ	-11.1347
の母	-11.1348
お楽しみ	-11.135
会話を	-11.135
誰なんだ	-11.135
ねばならない	-11.1352
正解	-11.1354
システムに	-11.1355
言うなよ	-11.1355
▁猿	-11.1356
ダメです	-11.1356
謝り	-11.1357
女性に	-11.1358
と同様に	-11.1358
を投げ	-11.1358
▁背	-11.1359
軽く	-11.136
という事です	-11.1361
アナ	-11.1361
▁何のために	-11.1361
▁隠し	-11.1362
▁出る	-11.1363
▁俺達が	-11.1366
何があったか	-11.1368
仰	-11.1369
▁どうしたんですか	-11.137
が正しい	-11.1371
▁ケビン	-11.1371
一気に	-11.1372
时	-11.1373
売春婦	-11.1373
バクテリア	-11.1373
翻訳	-11.1374
を特定	-11.1376
アルファ	-11.1376
生成	-11.1376
と思いますか	-11.1377
設立	-11.1379
パイプ	-11.1379
種族	-11.1379
mr	-11.1381
疑って	-11.1381
▁近くに	-11.1381
▁スコット	-11.1382
つつある	-11.1384
小僧	-11.1385
働いた	-11.1385
オンライン	-11.1386
要らない	-11.1388
たぶん	-11.1391
名字	-11.1391
恐	-11.1392
ましたよ	-11.1392
ようになります	-11.1392
読め	-11.1393
の調査	-11.1394
ねえぞ	-11.1395
売った	-11.1395
▁努力	-11.1395
の絵	-11.1395
厄介	-11.1396
難い	-11.14
のリーダー	-11.1402
出入り	-11.1402
▁支援	-11.1404
俺だ	-11.1406
なんでも	-11.1407
▁どうにか	-11.1408
撮り	-11.1408
だす	-11.1409
っていました	-11.1409
師匠	-11.141
単位	-11.141
転送	-11.1411
▁トップ	-11.1411
税金	-11.1412
独身	-11.1412
居場所	-11.1416
▁僕らが	-11.1417
を見れば	-11.1417
▁止める	-11.1418
人生は	-11.1419
閉め	-11.142
▁探し	-11.1421
に乗り	-11.1422
トリー	-11.1424
見れば	-11.1425
ターゲット	-11.1425
の最後の	-11.1428
圧力	-11.1429
じゃないけど	-11.1429
堅	-11.1434
一言	-11.1434
マンガ	-11.1434
▁政府の	-11.1435
▁飲んで	-11.1437
▁r	-11.1438
座る	-11.1439
▁副	-11.144
リズム	-11.144
▁80	-11.144
してました	-11.1441
大半	-11.1442
▁笑って	-11.1443
はすべて	-11.1443
側の	-11.1443
連れて行け	-11.1443
請	-11.1444
▁学校で	-11.1445
やすく	-11.1445
露	-11.1446
高度	-11.1446
プライベート	-11.1446
生態系	-11.1446
美術館	-11.1446
結末	-11.1447
▁放して	-11.1447
言おうと	-11.1448
の責任	-11.1449
の未来	-11.145
目を向け	-11.145
を打ち	-11.1451
と言っている	-11.1451
機会を	-11.1451
ちゃいけない	-11.1454
しようとする	-11.1454
意味を	-11.1455
深刻な	-11.1455
たぞ	-11.1456
st	-11.1456
輝く	-11.1456
自身が	-11.1458
離れる	-11.1459
似た	-11.1461
バート	-11.1462
申し訳ない	-11.1464
トレー	-11.1465
待た	-11.1467
▁南極	-11.1467
▁クロエ	-11.1468
は何でしょう	-11.1469
必要なもの	-11.1469
其	-11.1469
▁やめてください	-11.147
目を覚ま	-11.1473
が原因	-11.1474
賛成	-11.1474
書かれて	-11.1474
ピザ	-11.1474
つもりで	-11.1477
並んで	-11.1479
奇妙	-11.148
▁撃て	-11.1482
ハンニバル	-11.1482
プレーヤー	-11.1482
兆候	-11.1482
明るい	-11.1482
あげよう	-11.1483
放射線	-11.1483
心理学	-11.1483
▁アンディ	-11.1484
ヵ月	-11.1486
安く	-11.1488
を奪う	-11.1489
坊	-11.1489
を動かす	-11.149
叫び	-11.149
与えた	-11.1491
はあります	-11.1491
のリスト	-11.1492
の巣	-11.1492
年には	-11.1492
▁g	-11.1492
になるまで	-11.1493
▁優秀な	-11.1493
ちまう	-11.1494
▁見せ	-11.1496
驚いて	-11.1497
派手	-11.1499
と言われた	-11.1499
室で	-11.1499
▁行くわよ	-11.1502
時刻	-11.1503
言ってました	-11.1505
日で	-11.1505
浅	-11.1506
いないの	-11.1506
現場で	-11.1507
感情を	-11.1508
ギン	-11.1511
ブロ	-11.1511
▁聞こえる	-11.1512
政治的	-11.1512
だったので	-11.1513
融資	-11.1513
眠って	-11.1514
を失い	-11.1516
▁息子は	-11.1516
▁ああいう	-11.1517
話せば	-11.1517
船に	-11.1518
ープ	-11.1519
にもかかわらず	-11.1519
参考	-11.1519
崩	-11.1519
OK	-11.152
捕まえて	-11.152
お昼	-11.152
付けた	-11.1521
勇敢な	-11.1522
あくまで	-11.1522
知ってるだろ	-11.1523
ファイルを	-11.1523
伝えたい	-11.1523
▁カイ	-11.1523
はあった	-11.1527
親切	-11.1529
歩け	-11.1529
ますよね	-11.153
ネー	-11.1532
ゴールド	-11.1534
▁タイラー	-11.1535
▁妙な	-11.1536
▁よい	-11.1537
私のせい	-11.1537
出します	-11.1541
真相	-11.1543
の名は	-11.1543
叫んで	-11.1543
▁隣	-11.1545
▁今のは	-11.1545
共通の	-11.1546
ヤク	-11.1548
物語を	-11.1548
あなたと	-11.1549
興	-11.1549
するとき	-11.1549
言えばいい	-11.1549
執	-11.1552
を知って	-11.1553
れます	-11.1553
を読んで	-11.1554
クリーム	-11.1555
農	-11.1555
アメリカで	-11.1555
サンドイッチ	-11.1556
軒	-11.1556
ウォリアー	-11.1556
大げさ	-11.1556
タイトル	-11.1558
クト	-11.1559
▁きれいな	-11.1561
を守り	-11.1563
楽器	-11.1563
死後	-11.1564
オタク	-11.1565
残念	-11.1566
ショウ	-11.1566
に過ぎない	-11.1566
ウィルソン	-11.1568
孤独	-11.1571
▁どうするの	-11.1571
電話で	-11.1571
▁話が	-11.1572
▁アブ	-11.1573
持ってくる	-11.1574
法廷	-11.1575
もう一つ	-11.1575
包	-11.1576
がここに	-11.1577
▁遠	-11.1578
どうするの	-11.1578
他の人	-11.1579
流れて	-11.158
したことは	-11.1583
スイス	-11.1583
▁敵の	-11.1584
生体	-11.1584
ようなものです	-11.1587
更に	-11.1589
hr	-11.1589
蟲	-11.1592
郡	-11.1593
暁	-11.1593
▁凶器	-11.1594
ありませんか	-11.1594
巻き込まれ	-11.1594
▁ヴィ	-11.1595
今すぐ	-11.1595
嘘をつく	-11.1597
らぬ	-11.1598
▁リンダ	-11.1599
▁エイミー	-11.16
虐殺	-11.16
いないと	-11.1601
▁我们	-11.1602
というものです	-11.1605
▁緊張	-11.1605
何もしない	-11.1606
▁火星	-11.1606
決心	-11.1607
▁私は彼	-11.1608
きれいに	-11.1608
を選んで	-11.1609
ここで何してる	-11.1609
▁許可	-11.1614
タラ	-11.1614
日曜	-11.1617
▁貴	-11.1617
▁そんなことない	-11.1618
起こっている	-11.1619
お尻	-11.1619
落として	-11.162
を隠す	-11.162
の件は	-11.162
豊かな	-11.1622
▁セル	-11.1622
住んで	-11.1624
選択を	-11.1624
どんどん	-11.1625
这样	-11.1627
来てください	-11.1627
嘘つき	-11.1628
みなさん	-11.1629
葬式	-11.1629
▁モー	-11.1629
ティング	-11.1629
彦	-11.163
凵	-11.163
マラリア	-11.163
ドロイド	-11.163
ことか	-11.163
沈黙	-11.163
に置いて	-11.163
を読み	-11.1631
何て言った	-11.1631
下着	-11.1631
民族	-11.1632
はいらない	-11.1632
彼女と	-11.1634
辞めて	-11.1635
和解	-11.1635
誘って	-11.1637
映画の	-11.1637
であることを	-11.1638
買	-11.1638
を生み出し	-11.1642
修行	-11.1643
ティム	-11.1646
といて	-11.1646
ol	-11.1649
院長	-11.1651
で働く	-11.1652
たとき	-11.1654
んだったら	-11.1658
▁シロ	-11.1659
▁規則	-11.1661
▁早くしろ	-11.1661
▁患者さん	-11.1662
事故で	-11.1663
人として	-11.1664
真的	-11.1665
用に	-11.1666
タバコ	-11.1666
一晩	-11.1666
を超える	-11.1666
▁スポーツ	-11.1667
→	-11.1667
麻痺	-11.1667
▁誠	-11.1667
祈る	-11.1668
の中でも	-11.1668
何があっても	-11.1668
ホワイトハウス	-11.1669
▁石油	-11.167
死体を	-11.167
▁誕生日	-11.1672
を襲った	-11.1672
3000	-11.1672
スクリーン	-11.1675
カタ	-11.1676
使	-11.1676
嫌いだ	-11.1676
立てる	-11.1677
信じた	-11.1677
きなさい	-11.1678
ることを	-11.1679
わけには	-11.168
の奥	-11.1682
▁ちょっとだけ	-11.1684
ドレ	-11.1686
ハハ	-11.1687
▁リリー	-11.1689
ミニ	-11.1689
▁探偵	-11.169
▁会う	-11.1694
▁ラジオ	-11.1694
▁殺される	-11.1694
方法がある	-11.1696
▁衛星	-11.1697
の捜査	-11.1699
さえも	-11.1699
直せ	-11.1701
▁ゲイ	-11.1702
しようとしてる	-11.1703
気を付け	-11.1703
ジャーナリスト	-11.1704
共和国	-11.1704
小野寺	-11.1704
政府は	-11.1704
クーパー	-11.1704
髪の毛	-11.1704
しなくて	-11.1704
ビショップ	-11.1706
寂しい	-11.1707
確かめる	-11.1707
フェンス	-11.1707
▁内部	-11.1707
依頼人	-11.1708
してあげる	-11.171
打って	-11.1714
▁過去に	-11.1716
がっかり	-11.1716
させたい	-11.1717
▁クリ	-11.1717
を見ました	-11.1717
動いた	-11.1719
▁王子	-11.1721
▁死者	-11.1722
女性を	-11.1723
▁厳しい	-11.1723
ようになって	-11.1725
ゃ	-11.1727
安全に	-11.1727
してもいい	-11.1728
▁親友	-11.1728
▁初めての	-11.173
驚か	-11.1731
遭	-11.1731
注意して	-11.1732
になるか	-11.1733
アレン	-11.1733
▁薬物	-11.1733
ひとりで	-11.1734
こんな事	-11.1735
ロッカー	-11.1735
男の人	-11.1735
分野で	-11.1736
聞かれた	-11.1736
▁本来	-11.1737
▁時計	-11.1738
さっぱり	-11.1742
診察	-11.1742
トレーニング	-11.1742
数ヶ月	-11.1742
▁早速	-11.1742
ギュマン	-11.1742
タオル	-11.1747
雇	-11.1747
▁家で	-11.1747
交流	-11.1751
来たら	-11.1752
ic	-11.1753
ハンド	-11.1754
の種	-11.1754
しかありません	-11.1757
▁もう一回	-11.1757
を見てみましょう	-11.1758
綺麗	-11.176
状況で	-11.176
みれば	-11.1762
▁ありがたい	-11.1764
ことができました	-11.1764
ヘビ	-11.1768
as	-11.1768
▁ナイス	-11.1769
▁僕らの	-11.177
▁どうなるか	-11.1771
なんかじゃない	-11.1771
会えない	-11.1771
ザン	-11.1771
なってる	-11.1775
の物語	-11.1775
▁計算	-11.1777
分離	-11.1778
殻	-11.1779
往	-11.1779
冊	-11.1779
パスポート	-11.1779
改造	-11.178
マイナス	-11.1781
神秘	-11.1784
▁そう言う	-11.1785
まれて	-11.1785
隠してる	-11.1786
吹き飛ば	-11.1786
▁いいんじゃない	-11.1786
独り	-11.179
大学に	-11.1792
を入れる	-11.1794
一体何	-11.1794
手術を	-11.1795
▁かなりの	-11.1795
事件は	-11.1799
を見せる	-11.1801
ごう	-11.1801
ェ	-11.1801
▁互いに	-11.1801
えない	-11.1802
▁他人の	-11.1803
を傷つけ	-11.1803
ヌー	-11.1806
に立ち	-11.1807
隊員	-11.181
せいで	-11.1812
マグ	-11.1812
お宅	-11.1813
サンド	-11.1814
▁パートナー	-11.1814
よろしいですか	-11.1815
タコ	-11.1815
后	-11.1815
裏切り	-11.1816
なにか	-11.1816
Google	-11.1817
ファッション	-11.1817
昇進	-11.1817
るわけ	-11.1817
求	-11.1818
付近	-11.1818
死ね	-11.1818
に話した	-11.1819
移行	-11.1819
▁ホントは	-11.1819
素早く	-11.182
捜して	-11.1821
それらを	-11.1822
を探せ	-11.1824
来るんだ	-11.1824
に乗った	-11.1825
裁判官	-11.1825
▁買って	-11.1826
▁こないだ	-11.1828
アンナ	-11.1828
まね	-11.1828
洗って	-11.1829
みてください	-11.1829
ボル	-11.1829
遣	-11.1829
カッコ	-11.1831
ったのは	-11.1832
▁開けて	-11.1833
▁ベス	-11.1835
▁男は	-11.1836
を起こして	-11.1836
放棄	-11.1837
▁朝食	-11.1837
人から	-11.1837
いたわ	-11.1838
毎年	-11.1839
たければ	-11.184
姉ちゃん	-11.1842
構え	-11.1842
帰らない	-11.1842
▁あんた達	-11.1846
マックス	-11.1847
生命体	-11.1848
連中が	-11.1852
▁上司	-11.1852
ッター	-11.1852
湿	-11.1855
跟	-11.1855
现在	-11.1855
失われ	-11.1856
至急	-11.1856
具体的に	-11.1856
▁さすがに	-11.1856
レベルで	-11.1859
で死んだ	-11.1859
どうなってる	-11.1859
让	-11.1859
最高だ	-11.1859
ガール	-11.186
▁まあまあ	-11.1861
▁ひどく	-11.1862
▁スタン	-11.1863
凄く	-11.1863
天井	-11.1864
イルカ	-11.1865
から出て	-11.1865
欠け	-11.1869
如何	-11.1869
壊れ	-11.187
遅刻	-11.1872
ストップ	-11.1874
祖母	-11.1875
▁すべてを	-11.1875
に座って	-11.1876
が入ってる	-11.1876
考えない	-11.1877
大嫌い	-11.1878
▁そしてその	-11.188
追求	-11.188
を起こし	-11.1881
千万	-11.1882
どうするか	-11.1883
受信	-11.1883
▁百	-11.1884
の死体	-11.1886
ゴン	-11.1886
お伝え	-11.1886
原理	-11.1887
んですから	-11.1888
▁捨て	-11.1888
▁剣	-11.1889
思ってない	-11.1889
ラウンド	-11.1891
▁どいて	-11.1892
万人の	-11.1892
言葉に	-11.1893
を信じ	-11.1893
吃	-11.1893
は彼	-11.1893
を除いて	-11.1893
徹底的に	-11.1894
祖先	-11.1895
ディン	-11.1896
だからだ	-11.1896
翌日	-11.1898
タトゥー	-11.1899
判った	-11.1899
物理	-11.1899
▁オレに	-11.1901
最強の	-11.1901
▁どうしました	-11.1901
記憶を	-11.1901
ヤン	-11.1902
許せ	-11.1902
掴	-11.1903
▁この問題	-11.1904
倍に	-11.1905
ミア	-11.1905
時間がない	-11.1907
▁無線	-11.1908
追いかけ	-11.1909
わせて	-11.1909
の人々が	-11.191
航	-11.1912
天国	-11.1915
嫌われ	-11.1917
▁いいわね	-11.192
マク	-11.1922
▁調子は	-11.1925
二度	-11.1925
▁エイ	-11.1926
▁保険	-11.1926
行ってくれ	-11.1926
当たった	-11.1928
おめでとうございます	-11.1929
かかってる	-11.1929
向かっている	-11.1929
桐	-11.1929
したけど	-11.193
アーティスト	-11.1931
懸念	-11.1931
言おう	-11.1931
バッ	-11.1933
静流	-11.1933
実施	-11.1933
ライバル	-11.1935
ぽ	-11.1935
▁お待たせしました	-11.1937
の存在を	-11.1937
捕まって	-11.1938
ガム	-11.1939
年間で	-11.1939
んじ	-11.194
しなくても	-11.1941
▁ちくしょう	-11.1944
子どもたち	-11.1945
全体が	-11.1947
▁任せて	-11.1948
▁いらっしゃいませ	-11.1948
se	-11.1949
▁但	-11.195
が死んで	-11.195
をかけ	-11.1952
と思うが	-11.1953
分からないけど	-11.1953
と私	-11.1953
ご存じ	-11.1954
やっぱり	-11.1955
▁秋	-11.1956
理由だ	-11.1956
▁キング	-11.1957
始まります	-11.1958
結婚した	-11.1959
が始まった	-11.1959
達を	-11.1959
とすれば	-11.196
押	-11.1961
▁泣き	-11.1961
出て行った	-11.1962
▁レイチェル	-11.1962
巡	-11.1962
ウム	-11.1963
▁少しだけ	-11.1963
をやって	-11.1963
を救った	-11.1964
ビット	-11.1964
目覚めた	-11.1964
un	-11.1965
政府の	-11.1965
秩序	-11.1966
境界	-11.1969
言うなら	-11.1969
綿	-11.1969
腐敗	-11.1969
▁なんてこった	-11.197
▁諦め	-11.197
▁スイッチ	-11.197
の持ち主	-11.197
ここの	-11.1971
すんな	-11.1973
止められない	-11.1973
アディ	-11.1974
していたの	-11.1974
番号を	-11.1975
▁なにを	-11.1975
美しさ	-11.1975
熱い	-11.1976
▁2000	-11.1977
▁なんだって	-11.1977
必ずしも	-11.1978
署長	-11.1979
ほしいの	-11.198
聞いている	-11.198
いなければ	-11.1981
▁ある種の	-11.1982
倒れて	-11.1983
▁ますます	-11.1983
▁お二人	-11.1984
▁癌	-11.1986
の意見	-11.1986
力がある	-11.199
の言葉を	-11.1993
爆	-11.1995
今日の	-11.1995
唯一の方法	-11.1999
充電	-11.1999
▁これを見て	-11.1999
分からなかった	-11.2
の出来事	-11.2001
ノア	-11.2003
▁同じように	-11.2004
貫	-11.2005
たのね	-11.2006
▁それらは	-11.2007
二酸化炭素	-11.2008
わけにはいかない	-11.2008
アンダーソン	-11.2008
突破	-11.2009
を呼べ	-11.2009
インフラ	-11.201
ロケット	-11.201
選んで	-11.201
全身	-11.2011
イスラム	-11.2012
ツアー	-11.2013
▁店長	-11.2014
ご家族	-11.2014
検出	-11.2015
▁賢い	-11.2016
▁旦那	-11.2017
することも	-11.2017
出現	-11.2019
捜査を	-11.2021
▁あり得ない	-11.2021
▁姉さん	-11.2022
暗号化	-11.2022
救う	-11.2023
好きな人	-11.2023
▁それ以来	-11.2025
入学	-11.2026
をかける	-11.2028
丁	-11.2029
神話	-11.2029
船が	-11.2029
▁エレベーター	-11.2032
▁どれほど	-11.2032
ないよう	-11.2033
セクシー	-11.2034
▁キャンプ	-11.2035
▁この辺り	-11.2037
▁一生懸命	-11.2038
バカな	-11.2039
これら	-11.2041
▁肺	-11.2041
川さん	-11.2042
が必要だった	-11.2042
筆	-11.2046
を調べた	-11.2046
を捕まえた	-11.2046
お守り	-11.2046
挟	-11.2046
マズイ	-11.2046
クジラ	-11.2047
父ちゃん	-11.2047
コカイン	-11.2049
改良	-11.2049
▁マギー	-11.2049
▁撮影	-11.2049
▁私はただ	-11.2049
回して	-11.2049
▁今度こそ	-11.205
青年	-11.2051
千ドル	-11.2051
開発した	-11.2054
?-	-11.2056
▁不思議な	-11.2056
考えてみてください	-11.2056
応	-11.2058
▁疲れた	-11.2058
」「	-11.206
降伏	-11.206
がついて	-11.2063
結婚式	-11.2064
占い	-11.2067
▁心から	-11.2068
たんだよ	-11.2069
来ている	-11.2069
スティック	-11.2069
することができる	-11.2071
▁一瞬	-11.2071
経過	-11.2071
人材	-11.2072
錠	-11.2074
を捧げ	-11.2074
見つけました	-11.2075
ベラ	-11.2075
かと思って	-11.2075
▁チッ	-11.2076
▁シカゴ	-11.2076
やつが	-11.2076
は終わりだ	-11.2076
揺れ	-11.2076
▁アマンダ	-11.2076
受け取る	-11.2078
使っている	-11.2078
再会	-11.2079
壁を	-11.208
▁民主主義	-11.208
ビックリ	-11.2081
人もいます	-11.2084
削	-11.2084
われた	-11.2085
実践	-11.2085
隻	-11.2085
受験	-11.2085
告訴	-11.2085
▁いいかげん	-11.2085
みせる	-11.2085
かまわない	-11.2086
十分に	-11.2086
かぎり	-11.2086
ないですか	-11.2087
半年	-11.2089
なっちゃって	-11.2091
緊急事態	-11.2092
読	-11.2092
疲れて	-11.2093
ベッドに	-11.2093
ゆえ	-11.2095
研修	-11.2096
プス	-11.2097
▁時間は	-11.2099
▁おや	-11.2099
じゃねぇ	-11.21
は僕	-11.21
荷物を	-11.2101
殴り	-11.2102
▁ケーキ	-11.2103
一般的な	-11.2104
説教	-11.2108
やって来た	-11.2108
の親	-11.2108
全体を	-11.2109
os	-11.211
▁先生は	-11.2111
が消えた	-11.2113
▁やる気	-11.2113
を止めて	-11.2113
武	-11.2116
▁鑑識	-11.2117
助けてくれる	-11.2118
の指紋	-11.2121
▁必要ない	-11.2121
メキシコ	-11.2122
せろ	-11.2124
ビジター	-11.2124
教訓	-11.2124
▁要するに	-11.2124
基盤	-11.2124
保持	-11.2124
▁天国	-11.2125
ダウンロード	-11.2125
▁グレース	-11.2125
いかがですか	-11.2126
ホテルの	-11.2127
▁世界中で	-11.2128
真夜中	-11.2128
▁殺して	-11.2128
li	-11.2129
ご主人	-11.2129
夕方	-11.213
は大丈夫	-11.2132
入らない	-11.2133
手に入れる	-11.2134
話をした	-11.2134
戻ったら	-11.2135
引き出し	-11.2137
を撃つ	-11.2138
可是	-11.214
患者を	-11.2141
サイバー	-11.2143
怖く	-11.2143
分かれ	-11.2147
▁おまえの	-11.2147
▁息を	-11.2148
▁199	-11.2148
▁おまえが	-11.2149
に住んでる	-11.2151
働け	-11.2151
高校の	-11.2152
与えられた	-11.2154
▁我々を	-11.2156
稼ぎ	-11.2156
▁これでいい	-11.2159
特性	-11.2159
▁いわゆる	-11.2159
ワル	-11.2159
おこう	-11.216
▁サル	-11.2161
▁ほれ	-11.2162
生きてた	-11.2163
已经	-11.2163
から離れて	-11.2164
しているか	-11.2165
▁おばさん	-11.2165
ことになりました	-11.2167
CIA	-11.2167
余地	-11.2168
アマ	-11.2168
▁正確に	-11.2168
▁キミの	-11.217
ランプ	-11.2171
ものだと	-11.2171
編集	-11.2171
醜い	-11.2172
に何を	-11.2173
を入れ	-11.2174
だからさ	-11.2174
▁キャプテン	-11.2178
被告	-11.2179
ようとしてる	-11.218
▁買い物	-11.2183
ねえな	-11.2183
を超えて	-11.2184
原さん	-11.2185
ものだった	-11.2185
脅し	-11.2188
▁ボストン	-11.219
お菓子	-11.2192
▁そなた	-11.2193
オフィスに	-11.2193
ダメよ	-11.2193
先は	-11.2194
と話を	-11.2195
▁怪しい	-11.2195
合ってる	-11.2196
38	-11.2196
を見たら	-11.2197
号室	-11.2197
チーフ	-11.2198
変える	-11.2198
ーん	-11.2199
▁物事	-11.22
一方で	-11.22
講	-11.2201
フー	-11.2201
らっしゃい	-11.2202
娼婦	-11.2202
逸	-11.2202
ジュリエット	-11.2202
チンパンジー	-11.2202
偵察	-11.2202
ガールフレンド	-11.2202
誘導	-11.2202
アンドリュー	-11.2203
負担	-11.2203
講義	-11.2203
偽装	-11.2203
▁ここに来る	-11.2203
ホルモン	-11.2203
クラウス	-11.2203
素人	-11.2203
気候	-11.2205
姿勢	-11.2205
分ってる	-11.2206
▁トッド	-11.2207
というのか	-11.2208
のレベル	-11.221
ホロウ	-11.221
▁こちらこそ	-11.2211
▁女の	-11.2211
▁言語	-11.2213
一緒にいた	-11.2213
お話しします	-11.2213
▁前の	-11.2216
▁バウアー	-11.2216
間違いなく	-11.2216
昨夜	-11.2217
怪しい	-11.2217
よぉ	-11.2217
スリー	-11.2217
気に入った	-11.2218
を生み出す	-11.2218
数の	-11.2219
▁大変だ	-11.2219
アフリカの	-11.2219
はいません	-11.2221
到着した	-11.2223
描	-11.2224
あったら	-11.2226
の居場所を	-11.2226
しないわ	-11.2227
▁安全な	-11.2229
あれは	-11.2229
やりました	-11.2231
マッチ	-11.2232
モリー	-11.2234
▁こちらが	-11.2234
▁入る	-11.2235
何かあった	-11.2235
競	-11.2237
▁孤独	-11.2239
▁試合	-11.224
兵隊	-11.2241
蚊	-11.2242
猛	-11.2242
ジェームス	-11.2242
隅	-11.2242
競技	-11.2242
原則	-11.2243
決意	-11.2243
わけじゃ	-11.2243
救命	-11.2244
したものです	-11.2246
シップ	-11.2246
いるので	-11.2247
かかり	-11.2247
効く	-11.2249
▁そうじゃなくて	-11.225
嘘をついて	-11.225
▁作る	-11.2251
教えろ	-11.2254
▁単純な	-11.2255
少なくとも	-11.2255
そこにいる	-11.2255
▁そんなもん	-11.2257
▁返事	-11.2257
るべきだ	-11.2258
▁奴隷	-11.2258
試した	-11.2259
タダ	-11.2259
量を	-11.2259
▁わからん	-11.226
▁これは私の	-11.226
▁薫	-11.226
ロジャー	-11.2262
積み	-11.2263
無関係	-11.2265
象徴	-11.2271
可愛	-11.2272
▁この男は	-11.2272
できることは	-11.2272
南部	-11.2275
▁正解	-11.2275
まれた	-11.2276
▁アレ	-11.2277
向かう	-11.2277
▁ちがう	-11.2278
着いて	-11.2278
世の中	-11.228
▁アーロン	-11.2281
お呼び	-11.2281
栗	-11.2281
経歴	-11.2281
スタジオ	-11.2282
リンカーン	-11.2282
エレ	-11.2282
go	-11.2284
▁こういうこと	-11.2284
見ない	-11.2288
階級	-11.2288
銃撃	-11.2288
エサ	-11.2289
震え	-11.229
▁相手が	-11.229
▁いらない	-11.229
見たら	-11.2291
やってみ	-11.2292
ドキ	-11.2292
▁ステ	-11.2292
▁約束した	-11.2297
の仕方	-11.2298
ピース	-11.2299
危	-11.2301
新たに	-11.2302
同行	-11.2302
貧	-11.2307
話しました	-11.2307
▁奴に	-11.2307
を守れ	-11.2308
チームを	-11.2309
▁ナンバーズ	-11.231
んだっけ	-11.231
訪ねて	-11.2312
帝	-11.2313
になるぞ	-11.2313
限定	-11.2314
ボロ	-11.2314
らないと	-11.2314
働いていた	-11.2314
33	-11.2315
▁オフィス	-11.2316
手首	-11.2316
有利	-11.2317
冷や	-11.2317
プレゼン	-11.2317
沒	-11.2317
言わせ	-11.2318
を手に入れ	-11.2319
検察	-11.232
紛争	-11.2321
貧乏	-11.2321
申請	-11.2321
射撃	-11.2321
▁水を	-11.2322
いいのよ	-11.2322
▁ウェイン	-11.2322
文章	-11.2322
だそうです	-11.2323
約束を	-11.2324
▁分かっている	-11.2325
材	-11.2326
娘に	-11.2326
▁総理	-11.2326
をとる	-11.2327
ジョナ	-11.2327
激しく	-11.233
▁私たちも	-11.2331
抜けて	-11.2332
▁ドク	-11.2335
を手に入れる	-11.2337
ョ	-11.2338
導き	-11.2339
唯	-11.2339
できますか	-11.234
効果的	-11.2341
▁何らかの	-11.2342
私にとって	-11.2343
回避	-11.2343
出さ	-11.2345
見えません	-11.2345
たまま	-11.2346
の中を	-11.2347
通話	-11.2348
▁息子が	-11.2349
真の	-11.235
▁金は	-11.235
飽き	-11.2352
交わ	-11.2352
▁死神	-11.2352
されると	-11.2353
っちゃん	-11.2353
黄	-11.2353
既	-11.2353
▁出血	-11.2353
悪人	-11.2354
証拠が	-11.2354
が起き	-11.2354
起こした	-11.2354
▁その時は	-11.2354
考えられる	-11.2356
たいんです	-11.2356
▁帰れ	-11.2356
助けてくれ	-11.2356
カエル	-11.2357
am	-11.2357
地球上	-11.2357
ウィリアム	-11.2358
▁大量の	-11.2358
▁放せ	-11.2359
話すこと	-11.2359
になるのです	-11.236
矛盾	-11.2361
旅を	-11.2361
ウエスト	-11.2362
って誰	-11.2362
呼ばれた	-11.2362
キャメロン	-11.2362
追放	-11.2363
家賃	-11.2363
▁カラム	-11.2363
ようになり	-11.2364
奪	-11.2364
ラーメン	-11.2366
コーナー	-11.2366
の穴	-11.2367
はかなり	-11.2367
▁イラク	-11.2368
▁世界で	-11.2369
入れない	-11.237
友人が	-11.2371
ライフル	-11.2372
▁ハリー	-11.2372
捕え	-11.2372
▁バトル	-11.2374
行動は	-11.2374
踊って	-11.2374
そこにある	-11.2376
言いたかった	-11.2377
▁鹿	-11.2378
助ける	-11.2379
思ってた	-11.238
▁燃料	-11.238
別々	-11.2381
ってしまう	-11.2381
はいけません	-11.2382
久しぶり	-11.2383
▁dr	-11.2384
てるんだ	-11.2385
いいのに	-11.2385
目撃者	-11.2386
▁政府は	-11.2386
が変わる	-11.2389
がわかった	-11.239
▁両親は	-11.2395
完璧な	-11.2395
償	-11.2397
を全部	-11.2397
浴び	-11.2398
▁クイン	-11.2398
隣人	-11.2399
アイツ	-11.24
▁ホット	-11.24
勝手	-11.24
デイビッド	-11.2401
从	-11.2401
望遠鏡	-11.2401
憎しみ	-11.2401
▁とっとと	-11.2401
指摘	-11.2401
振動	-11.2401
箇所	-11.2402
風景	-11.2402
ノン	-11.2402
不審	-11.2403
宮殿	-11.2403
▁つうか	-11.2404
々しい	-11.2404
▁酸素	-11.2405
▁分かります	-11.2405
ハンサム	-11.2405
対立	-11.2405
たれ	-11.2407
自白	-11.2407
読める	-11.2407
▁バカ野郎	-11.2408
▁サイモン	-11.2408
ローラ	-11.2411
を立て	-11.2412
▁じゃぁ	-11.2414
900	-11.2414
失望	-11.2414
女の子が	-11.2415
できるのか	-11.2417
▁気になる	-11.2417
んでいる	-11.2417
皮肉	-11.2417
ドール	-11.2418
▁好きに	-11.2418
▁俺だって	-11.2419
内側	-11.242
くれたの	-11.2421
添	-11.2428
▁とっくに	-11.2428
可能だ	-11.2429
間抜け	-11.243
買え	-11.243
▁いいこと	-11.2431
▁慎重に	-11.2431
出てきて	-11.2434
どういう意味	-11.2435
婚約者	-11.2436
オレンジ	-11.2436
▁彼女たち	-11.2436
がいるの	-11.2438
引き上げ	-11.2438
王女	-11.2439
所有者	-11.244
抗生物質	-11.2441
别	-11.2441
▁♪♪~	-11.2441
極秘	-11.2441
スケール	-11.2441
王妃	-11.2442
集めて	-11.2443
区別	-11.2443
支払う	-11.2443
感じている	-11.2444
の中にある	-11.2444
っとる	-11.2445
焦点	-11.2445
シャトル	-11.2445
▁何が言いたい	-11.2446
▁頭に	-11.2446
▁カワイイ	-11.2446
破壊された	-11.2446
戦術	-11.2446
血痕	-11.2448
いきましょう	-11.2449
典型的な	-11.245
押さえ	-11.245
▁借金	-11.2451
スイッチ	-11.2452
西洋	-11.2453
▁悪いこと	-11.2453
含まれ	-11.2455
身長	-11.2455
を破壊し	-11.2455
65	-11.2456
▁リスク	-11.2457
フォース	-11.2459
階に	-11.246
▁怒って	-11.2461
許せない	-11.2461
中に入って	-11.2461
信じられる	-11.2464
の指示	-11.2464
年代の	-11.2465
物理学	-11.2465
▁メディア	-11.2467
じゃねえよ	-11.2468
第二	-11.2468
▁生まれた	-11.2468
っぺ	-11.2468
▁冷たい	-11.247
生きた	-11.247
カリフォルニア	-11.2471
為の	-11.2471
モンロー	-11.2472
フラ	-11.2473
▁マジかよ	-11.2473
こう言う	-11.2475
どころか	-11.2477
とその	-11.2478
▁パク	-11.2478
句	-11.248
隠れる	-11.2481
google	-11.2481
智	-11.2481
止めた	-11.2481
クラーク	-11.2482
変換	-11.2482
副作用	-11.2482
貰う	-11.2483
融合	-11.2483
エビ	-11.2486
ビデオを	-11.2486
心理	-11.2487
しねえ	-11.2488
欲しいもの	-11.2488
日曜日	-11.2489
の跡	-11.249
通った	-11.2491
にかけて	-11.2491
▁誰もいない	-11.2491
▁来年	-11.2493
呼んでる	-11.2494
話すの	-11.2496
式の	-11.2496
wi	-11.2496
の近く	-11.2497
火影	-11.2497
らせた	-11.2497
留め	-11.2498
んでしょうね	-11.2498
迫って	-11.25
平気だ	-11.2502
▁それだけだ	-11.2503
グランド	-11.2504
父が	-11.2504
話がしたい	-11.2505
マジ	-11.2507
のだが	-11.2507
カメラを	-11.2507
▁警備員	-11.251
▁フフ	-11.2511
にしては	-11.2512
死んでた	-11.2512
▁オレも	-11.2512
いえ	-11.2512
の外に	-11.2513
を開け	-11.2514
スピ	-11.2515
▁鉄	-11.2515
必要があった	-11.2516
の治療	-11.2516
わかっている	-11.2516
製の	-11.2517
テント	-11.2518
偏	-11.2519
ヤバい	-11.2519
人物が	-11.252
ユダヤ人	-11.252
連絡して	-11.2521
コンサルタント	-11.2522
フィフス	-11.2522
▁何をしてる	-11.2523
所持	-11.2524
▁よく聞け	-11.2525
▁妻が	-11.2525
毎回	-11.2526
ヤツら	-11.2526
構わない	-11.2526
事例	-11.2527
TV	-11.2529
イラク	-11.2529
諸君	-11.2529
きれ	-11.2532
▁事件の	-11.2532
はずがない	-11.2533
都会	-11.2536
いいえ	-11.2536
事ができる	-11.2537
憧れ	-11.2537
しやがって	-11.2538
▁殺人犯	-11.2538
▁そんな事は	-11.2538
▁分からん	-11.2541
暴れ	-11.2542
諦め	-11.2543
▁かっこいい	-11.2543
▁でも私は	-11.2544
▁お姉さん	-11.2544
大いに	-11.2545
さんのこと	-11.2545
42	-11.2546
無力	-11.2548
校長	-11.2548
思い出せない	-11.2551
通過	-11.2551
れている	-11.2551
スン	-11.2553
来てくれる	-11.2553
37	-11.2555
葬	-11.2558
バター	-11.2558
ビビ	-11.2558
るはず	-11.2558
▁誰よりも	-11.2558
是非	-11.2559
応答	-11.256
財布	-11.256
ない限り	-11.2562
▁初めまして	-11.2562
ボーイフレンド	-11.2562
チャンネル	-11.2563
プレイヤー	-11.2563
推理	-11.2563
消滅	-11.2563
詐欺師	-11.2563
エドワード	-11.2564
キャンディ	-11.2564
ハッキリ	-11.2564
▁ケン	-11.2565
強力	-11.2565
順番	-11.2565
の可能性	-11.2566
複数	-11.2569
神父	-11.2569
張って	-11.257
バルブ	-11.2573
を引く	-11.2573
▁何をした	-11.2574
すこと	-11.2574
入ってる	-11.2575
クビに	-11.2575
▁仕事は	-11.258
2、3	-11.2584
建築家	-11.2586
▁間違った	-11.2588
いたので	-11.2588
ワープ	-11.2589
引用	-11.2589
▁遠く	-11.2593
路上	-11.2594
製作	-11.2594
向かってる	-11.2595
▁マスク	-11.2596
▁毎晩	-11.2596
▁デレク	-11.2597
来れば	-11.2597
▁行方不明	-11.2597
許す	-11.2599
▁現代	-11.2603
盾	-11.2603
鍋	-11.2603
幼稚園	-11.2603
侵略	-11.2603
活躍	-11.2603
ハリウッド	-11.2603
埋葬	-11.2605
▁ジュニア	-11.2606
なってきた	-11.2606
で会おう	-11.2606
郵便	-11.2607
▁手がかり	-11.2607
つきあって	-11.2608
留守	-11.2609
ヘンリー	-11.261
使われた	-11.2614
分かっています	-11.2618
訪れる	-11.2618
▁桜子	-11.262
を防ぐ	-11.262
重さ	-11.262
▁アクセス	-11.2621
たちと	-11.2622
コミュニティー	-11.2623
▁学校に	-11.2623
▁ハニー	-11.2623
やめよう	-11.2623
台所	-11.2624
カート	-11.2625
遅れる	-11.2626
▁その間	-11.2626
海軍	-11.2628
組んで	-11.2628
▁畜生	-11.2629
まもなく	-11.2629
働いてた	-11.263
知らせて	-11.2631
が足りない	-11.2631
なんてない	-11.2632
祈って	-11.2634
住み	-11.2635
頃には	-11.2636
どころ	-11.2637
沢山の	-11.2638
段階で	-11.2638
一緒に行く	-11.2638
揚げ	-11.2638
ドナー	-11.2638
なっている	-11.264
冠	-11.2641
財	-11.2642
槍	-11.2644
模倣	-11.2644
拘留	-11.2644
不可欠	-11.2645
世界中	-11.2645
▁あなたなら	-11.2646
航海	-11.2646
地上	-11.2647
▁うぅ	-11.2647
でもなく	-11.2648
所属	-11.2649
を切って	-11.2651
▁そういった	-11.2652
近づけ	-11.2654
▁社会的	-11.2654
なんだぞ	-11.2656
音楽を	-11.2656
キレイ	-11.266
を取り戻	-11.2661
ハメ	-11.2662
▁手が	-11.2663
目で見	-11.2663
特殊な	-11.2663
を食べて	-11.2664
憎	-11.2665
▁すっごく	-11.2666
影響力	-11.2668
チョー	-11.2668
大物	-11.2668
▁昨晩	-11.2668
を上げて	-11.2669
のだろうか	-11.267
延	-11.2671
お返し	-11.2672
複製	-11.2672
ここにいるの	-11.2672
ございま	-11.2673
か知ってる	-11.2674
技術は	-11.2677
休め	-11.2677
▁CBI	-11.2677
午前	-11.2679
ストン	-11.268
ズボン	-11.2681
生きていた	-11.2681
レーション	-11.2682
区域	-11.2683
助けてくれた	-11.2684
請求	-11.2684
患者さん	-11.2685
丿	-11.2685
グーグル	-11.2685
原稿	-11.2686
業務	-11.2686
者達	-11.2688
どこに行った	-11.2688
止めてくれ	-11.2689
▁ダグ	-11.269
スロー	-11.2691
を始めました	-11.2692
▁イラン	-11.2693
諸	-11.2693
マイクロ	-11.2698
▁走れ	-11.2698
言われても	-11.2698
が生まれる	-11.27
クリック	-11.2702
所得	-11.2702
問題じゃない	-11.2703
人生に	-11.2703
停	-11.2705
▁こいつを	-11.2707
任せろ	-11.2707
準備を	-11.2708
貴様	-11.2708
テラ	-11.2708
▁ラリー	-11.271
を出した	-11.2711
記事を	-11.2716
できるのは	-11.2719
一緒だ	-11.2719
初期の	-11.272
▁お風呂	-11.2723
テキサス	-11.2723
▁有名な	-11.2725
▁ルイス	-11.2726
泡	-11.2726
▁ともかく	-11.2727
▁森山先生	-11.2727
買収	-11.2727
▁サンキュー	-11.2727
の効果発動	-11.2727
財団	-11.2727
▁私なら	-11.2729
してみた	-11.2729
お知らせ	-11.273
東大	-11.273
▁いやいやいや	-11.273
▁ということは	-11.2731
も知らない	-11.2731
気に入らない	-11.2731
を見たい	-11.2734
ッパー	-11.2735
ンス	-11.2737
望んでいる	-11.2737
大丈夫よ	-11.2737
▁今夜の	-11.2737
レックス	-11.2738
▁びっくり	-11.2738
個人的な	-11.274
レベルの	-11.274
警備員	-11.2741
▁先月	-11.2745
試す	-11.2746
▁おもしろい	-11.2746
銃弾	-11.2747
▁アナ	-11.2749
確実	-11.2749
▁またね	-11.2749
必要はありません	-11.275
みせ	-11.2752
だろうけど	-11.2753
考えると	-11.2753
られていた	-11.2754
カラス	-11.2754
▁この状況	-11.2755
▁豚	-11.2755
▁それなのに	-11.2757
速さ	-11.2758
説明します	-11.2758
▁スターク	-11.2759
触って	-11.2759
を押し	-11.276
育て	-11.2761
映画を	-11.2761
ブレイク	-11.2762
を出せ	-11.2762
▁一人の	-11.2763
ジョージ	-11.2763
避け	-11.2764
博	-11.2768
拒	-11.2768
研	-11.2768
胸に	-11.2768
お聞き	-11.2768
▁ひょっとして	-11.2768
鶴	-11.2768
0,000	-11.2768
▁ゆうべ	-11.2768
対話	-11.277
が現れた	-11.277
de	-11.277
日目	-11.2771
適用	-11.2771
レーダー	-11.2772
ロット	-11.2773
消す	-11.2773
外へ	-11.2774
女性と	-11.2774
▁退屈	-11.2776
所を	-11.2776
ようでした	-11.2778
引け	-11.2778
▁汚い	-11.2779
▁又	-11.278
▁選挙	-11.2781
ハンマー	-11.2782
部分を	-11.2785
地面に	-11.2785
▁エリザベス	-11.2786
質問に答え	-11.2786
裏切	-11.2787
に送り	-11.2788
たりしない	-11.2789
いましたが	-11.2791
フライト	-11.2794
▁読んで	-11.2797
借りて	-11.2797
の奥さん	-11.2799
明け	-11.2799
▁どこにある	-11.2802
活性化	-11.2802
悪化	-11.2805
職人	-11.2808
役割を	-11.2808
聞いたら	-11.2808
尊	-11.2809
合わせた	-11.2809
国を	-11.2809
オリジナル	-11.281
听	-11.281
寮	-11.281
放課後	-11.281
▁イーサン	-11.281
日付	-11.281
つめ	-11.281
ホームレス	-11.2811
渡り	-11.2811
きてる	-11.2812
▁応答	-11.2812
パネル	-11.2813
単	-11.2815
▁分かったわ	-11.2815
行きましょ	-11.2817
プラス	-11.2818
事件に	-11.2818
丁度	-11.2819
クリスタル	-11.2819
メント	-11.2819
アルコール	-11.2819
人権	-11.282
壊れて	-11.282
▁体が	-11.2821
にはならない	-11.2822
やるの	-11.2823
▁相当	-11.2825
考えは	-11.2832
どの位	-11.2832
▁トーマス	-11.2833
を決める	-11.2835
敵に	-11.2835
ワーク	-11.2836
沢さん	-11.2837
患者に	-11.2837
ていません	-11.2838
フォン	-11.284
漂	-11.2841
回答	-11.2841
同一	-11.2841
部に	-11.2842
を考える	-11.2843
ことなんて	-11.2845
動いてる	-11.2845
レル	-11.2846
▁思いやり	-11.2847
しないでください	-11.2847
呼んでくれ	-11.2848
この子	-11.2848
sh	-11.2848
コーン	-11.2848
なくなり	-11.2849
ベティ	-11.2851
沙汰	-11.2852
虎	-11.2852
征服	-11.2852
大事だ	-11.2853
介入	-11.2856
発想	-11.2857
捕まる	-11.2858
言い訳	-11.2858
敗	-11.2859
▁銀さん	-11.2859
伝統的	-11.286
聞いてた	-11.2861
街に	-11.2863
くれるか	-11.2864
幾	-11.2865
片づけ	-11.2865
ヤバイ	-11.2865
神聖な	-11.2865
巨	-11.2866
そっと	-11.2866
▁助ける	-11.2866
を殺そうとした	-11.2868
合流	-11.2868
の言う通り	-11.2869
好きで	-11.2871
大地	-11.2871
ベルリン	-11.2872
▁気にするな	-11.2873
能力は	-11.2873
レディ	-11.2873
掛かる	-11.2874
2'	-11.2874
が入った	-11.2874
ロング	-11.2874
実家	-11.2874
てほしい	-11.2875
の写真を	-11.2877
▁ドロー	-11.2878
見たのは	-11.2878
▁正確には	-11.2878
▁お疲れ	-11.2879
▁おー	-11.2879
を守るため	-11.288
気付く	-11.288
▁以前は	-11.2881
捜	-11.2882
ヤード	-11.2882
と話したい	-11.2883
時間以内に	-11.2884
ヤツは	-11.2884
▁車で	-11.2887
▁持ってる	-11.2887
却	-11.289
けれども	-11.2891
2000	-11.2891
概	-11.2892
パーカー	-11.2892
オイル	-11.2893
于	-11.2894
キャンペーン	-11.2894
虹	-11.2894
ダイエット	-11.2894
引きずり	-11.2894
▁ふざけんな	-11.2895
息子が	-11.2895
排出	-11.2895
先祖	-11.2895
によるもの	-11.2896
▁殺せ	-11.29
ソル	-11.2901
▁結婚して	-11.2901
▁娘が	-11.2903
レンジャー	-11.2903
▁ゴードン	-11.2903
系の	-11.2906
流し	-11.2907
免	-11.2908
私の仕事	-11.2908
先を	-11.2909
診て	-11.2909
見たくない	-11.2912
形式	-11.2913
どこかで	-11.2913
▁ヘリ	-11.2914
なったら	-11.2915
百万	-11.2915
待たせ	-11.2917
へ行った	-11.2918
キリ	-11.2918
▁クッ	-11.2921
保安官	-11.2923
ゲイル	-11.2923
▁二人で	-11.2924
溶け	-11.2925
▁わたしの	-11.2927
▁何かあったら	-11.2927
じき	-11.2929
かどうかは	-11.2929
透明	-11.2931
を狙って	-11.2933
しすぎ	-11.2934
折り	-11.2935
を売る	-11.2935
シリーズ	-11.2936
フィル	-11.2936
尋ねる	-11.2938
ジャケット	-11.2938
ファースト	-11.2939
タク	-11.2939
打ち上げ	-11.2941
ホテルに	-11.2942
にアクセス	-11.2942
涼	-11.2944
おかしく	-11.2945
辺り	-11.2946
させました	-11.2947
パク	-11.2949
間違ってた	-11.2949
何が起こった	-11.295
してくれました	-11.2951
世界中の	-11.2953
コツ	-11.2953
と会う	-11.2953
を捕まえ	-11.2955
メールを	-11.2956
下げて	-11.2957
マップ	-11.2957
いてください	-11.2958
▁即	-11.2959
ミュ	-11.2961
言った通り	-11.2963
本気で	-11.2963
人殺し	-11.2963
何とも	-11.2965
駐車	-11.2965
▁紹介	-11.2965
ロイド	-11.2965
をやめ	-11.2966
▁よろしい	-11.2966
なかったわ	-11.2967
無しで	-11.2967
技術が	-11.2969
中東	-11.2969
好きに	-11.2969
私たちを	-11.297
▁何のこと	-11.297
▁彼らには	-11.2972
▁この仕事	-11.2973
と同時に	-11.2974
▁寂しい	-11.2976
につき	-11.2976
保障	-11.2976
訪れ	-11.2977
落ち着く	-11.2977
免許	-11.2978
动	-11.2978
オリンピック	-11.2978
崖	-11.2978
煮	-11.2978
お断り	-11.2979
偽造	-11.2979
コンビニ	-11.2979
連合	-11.2979
かもしれないが	-11.298
前向き	-11.2981
kg	-11.2982
断片	-11.2983
ドローン	-11.2986
明か	-11.2987
ってくれる	-11.2987
を始め	-11.2992
者として	-11.2992
初日	-11.2992
はダメ	-11.2993
ないんだよ	-11.2993
労	-11.2994
食事を	-11.2997
▁後ろに	-11.2998
の特徴	-11.3
ストロ	-11.3
分だけ	-11.3001
マリ	-11.3002
貴方の	-11.3002
誠人	-11.3002
▁二人は	-11.3002
が起きて	-11.3002
▁証人	-11.3002
極めて	-11.3002
不安定	-11.3003
▁あまりに	-11.3005
▁あの人は	-11.3006
クション	-11.3007
っちまう	-11.3007
たんですか	-11.3008
些	-11.3011
クラン	-11.3011
が好きなんだ	-11.3014
の後に	-11.3016
則	-11.3017
療法	-11.3018
お礼を	-11.3018
助かった	-11.3019
くじ	-11.302
▁皆様	-11.3021
ミツバチ	-11.3021
周波数	-11.3021
繊維	-11.3021
▁だいぶ	-11.3021
鑑定	-11.3021
更新	-11.3022
▁ショック	-11.3023
衝動	-11.3023
▁ゴルゴ	-11.3024
ジャングル	-11.3025
チャーリー	-11.3026
ボルト	-11.3029
▁犯行	-11.3029
▁わしの	-11.3029
んち	-11.3029
仙	-11.3032
は既に	-11.3033
IS	-11.3034
ポスター	-11.3035
トニー	-11.3038
▁リラックス	-11.3041
ボケ	-11.3045
決まってる	-11.3045
自体が	-11.3046
尽	-11.3047
二人の	-11.3047
繰り返	-11.3047
語る	-11.3047
音は	-11.3049
うつ	-11.305
まかせ	-11.3052
そうだね	-11.3054
大使	-11.3054
を持て	-11.3054
▁人工	-11.3055
探している	-11.3056
キモ	-11.3057
した方がいい	-11.3057
▁どちらか	-11.3058
引退	-11.3058
何十	-11.306
▁キレイ	-11.306
▁行くよ	-11.306
を突き	-11.306
▁直ぐに	-11.3061
マック	-11.3061
リスクを	-11.3061
率は	-11.3062
を教える	-11.3062
が見えた	-11.3062
独自の	-11.3062
▁このままじゃ	-11.3063
イズ	-11.3063
傘	-11.3063
干渉	-11.3063
唇	-11.3063
上院議員	-11.3064
見当	-11.3064
サブ	-11.3064
終わりました	-11.3064
ow	-11.3064
ほしかった	-11.3065
握り	-11.3066
バージョン	-11.3066
静かな	-11.3066
起業家	-11.3067
クラスの	-11.3067
が作った	-11.3067
コネ	-11.3068
シドニー	-11.3068
を開けて	-11.3069
誰なのか	-11.307
ウォール	-11.3071
事じゃない	-11.3071
ンダー	-11.3071
攻	-11.3072
を捨て	-11.3073
日前に	-11.3073
広がる	-11.3075
には関係ない	-11.3075
確実に	-11.3076
効率的	-11.3076
エリート	-11.3077
部族	-11.3077
中継	-11.3077
哀れな	-11.3077
▁熱い	-11.3078
会った時	-11.3078
信用できない	-11.308
除外	-11.308
怖くて	-11.308
昼間	-11.3082
尋ねて	-11.3083
▁いちばん	-11.3084
おめでとう	-11.3084
死人	-11.3085
ィー	-11.3086
いただけますか	-11.3087
て欲しい	-11.3088
最後まで	-11.3088
投	-11.3089
▁すまなかった	-11.309
コブ	-11.3092
▁そりゃあ	-11.3092
▁やめなさい	-11.3096
を続ける	-11.3096
全く同じ	-11.3098
皇	-11.3098
答えろ	-11.3099
育ち	-11.31
一流	-11.31
気に入る	-11.3102
ご用	-11.3102
▁信じてくれ	-11.3104
治療を	-11.3106
婆	-11.3106
リハビリ	-11.3106
昆虫	-11.3106
相続	-11.3107
似合う	-11.3108
司法	-11.3109
キャロル	-11.3109
江戸	-11.311
生き残った	-11.311
タクシー	-11.311
ワット	-11.3112
すいません	-11.3112
レム	-11.3112
価値観	-11.3113
▁そうだけど	-11.3115
料金	-11.3115
名前だ	-11.3115
了解	-11.3118
▁ロケット	-11.3119
走れ	-11.3119
きょう	-11.312
ないので	-11.312
▁電話で	-11.3121
帳	-11.3121
回す	-11.3124
問題なの	-11.3125
ハル	-11.3128
▁結果は	-11.3129
抜いた	-11.3129
仕上げ	-11.313
できるわ	-11.313
なくてはならない	-11.313
言ってみろ	-11.3132
オレは	-11.3132
惜し	-11.3133
選ばれ	-11.3134
あんたが	-11.3136
ニン	-11.3136
▁敵は	-11.3138
出所	-11.3139
増えて	-11.314
ブツ	-11.3141
コードを	-11.3141
するなよ	-11.3142
▁知ってるか	-11.3142
法を	-11.3143
ラット	-11.3143
ちゃんも	-11.3143
海洋	-11.3146
分けて	-11.3147
有機	-11.3147
知ったら	-11.3147
申	-11.3148
伺	-11.3149
かも知れません	-11.315
推進	-11.315
相当	-11.3151
照明	-11.3151
正確	-11.3154
関わる	-11.3155
に侵入	-11.3155
してるから	-11.3155
出て行って	-11.3156
ワシントン	-11.3156
▁喧嘩	-11.3158
▁福	-11.3159
時間です	-11.3159
このまま	-11.316
見かけた	-11.316
を受けました	-11.3161
心地	-11.3161
になっても	-11.3161
臆病者	-11.3162
を救って	-11.3164
鍛え	-11.3165
分かってた	-11.3166
定め	-11.3167
と思われます	-11.3168
写真が	-11.317
引く	-11.317
使われ	-11.317
思いやり	-11.3172
気づき	-11.3173
イナ	-11.3173
▁言っただろ	-11.3173
話しましょう	-11.3174
さず	-11.3175
▁仮に	-11.3175
鉱	-11.3177
然と	-11.3177
顔して	-11.3178
の歌	-11.3178
輝	-11.3178
塗り	-11.3179
野生	-11.3182
送金	-11.3183
話を聞く	-11.3183
疲れた	-11.3184
標準	-11.3186
けない	-11.3187
脳に	-11.3187
受け取った	-11.3188
絞	-11.3188
方法です	-11.3188
ai	-11.3188
もなし	-11.3188
浦	-11.3188
あるけど	-11.319
ay	-11.3192
コロンビア	-11.3193
マンハッタン	-11.3193
啦	-11.3193
徐々に	-11.3193
爆撃	-11.3193
集めた	-11.3193
絵を	-11.3195
te	-11.3195
を認め	-11.3197
リストに	-11.3197
▁えーと	-11.3198
とすると	-11.3199
マルセル	-11.32
だけではありません	-11.32
降下	-11.32
構いません	-11.3201
▁変える	-11.3201
▁観客	-11.3201
大家	-11.3203
キル	-11.3204
体内	-11.3204
マーフィー	-11.3205
の練習	-11.3205
▁カネ	-11.3205
それから	-11.3206
外交	-11.3207
シート	-11.3207
来るぞ	-11.3207
右手	-11.321
声明	-11.321
のくせに	-11.3212
を開いて	-11.3212
飼	-11.3212
ローマ	-11.3213
放出	-11.3213
植え	-11.3214
なくなりました	-11.3214
いけば	-11.3214
慰め	-11.3215
▁どうなってる	-11.3218
ジオ	-11.3218
ドック	-11.3219
死な	-11.322
スパ	-11.322
法則	-11.3221
気づかなかった	-11.3221
ほんの少し	-11.3222
機嫌	-11.3223
▁市長	-11.3225
飛ばす	-11.3229
出された	-11.3231
▁政治家	-11.3232
ばかりの	-11.3233
と考えた	-11.3234
羅	-11.3236
穂	-11.3236
道徳	-11.3236
欠陥	-11.3237
出てる	-11.3237
▁いかが	-11.3237
霊圧	-11.3237
対処する	-11.3238
▁クリリン	-11.3238
初の	-11.3239
▁財布	-11.3239
はしません	-11.324
と思うんだ	-11.324
シェフ	-11.3241
大部分	-11.3241
申し上げ	-11.3241
軍人	-11.3241
生徒会長	-11.3241
昇	-11.3242
致します	-11.3243
▁私たちには	-11.3244
外す	-11.3244
偉い	-11.3244
辛	-11.3244
が生まれた	-11.3246
待ってた	-11.3247
よこせ	-11.3247
▁およそ	-11.3248
北極	-11.3248
かせる	-11.3249
▁お母さんは	-11.3249
▁どちらも	-11.325
感じます	-11.325
頭蓋骨	-11.3251
チャンスだ	-11.3254
面白く	-11.3255
酔って	-11.3255
じゃないわよ	-11.3256
ところだった	-11.3259
▁また明日	-11.326
ハリ	-11.326
ab	-11.326
バーン	-11.3261
▁祖母	-11.3261
出せない	-11.3261
引っ越し	-11.3261
紛れ	-11.3263
られるか	-11.3263
▁完全な	-11.3265
者も	-11.3267
やってるんだ	-11.3267
調理	-11.3268
魂を	-11.3269
1.	-11.3269
そこにいた	-11.3271
▁・「	-11.3272
▁依頼人	-11.3273
検査を	-11.3273
▁残念だ	-11.3274
頂いて	-11.3274
酷	-11.3275
▁このカードは	-11.3276
させられる	-11.3278
行われた	-11.3279
聞こう	-11.3279
▁おとなしく	-11.328
的人	-11.328
▁cbi	-11.328
程度の	-11.328
NSA	-11.3281
困ってる	-11.3281
といって	-11.3282
悪党	-11.3284
▁こんなもの	-11.3285
ユーザー	-11.3288
やろうか	-11.3288
というより	-11.3289
尽き	-11.3292
長生き	-11.3293
一下	-11.3294
か分かる	-11.3294
▁たいてい	-11.3294
▁君なら	-11.3295
ヶ月前	-11.3296
▁もう二度と	-11.3297
無意識	-11.3298
即	-11.3299
にせよ	-11.3299
出会う	-11.3299
▁いやぁ	-11.3299
正体を	-11.3299
うるさい	-11.33
気分だ	-11.3302
企んで	-11.3302
かなぁ	-11.3304
ズル	-11.3305
というわけ	-11.3307
▁指輪	-11.3307
我が国	-11.3308
持続	-11.3309
▁もっと早く	-11.331
渡せ	-11.3312
持ってきて	-11.3313
▁今頃	-11.3313
▁捕まえた	-11.3313
てえ	-11.3314
を示しています	-11.3315
▁いつだって	-11.3316
▁ある意味	-11.3319
カバン	-11.332
推	-11.3321
知らぬ	-11.3322
っすね	-11.3322
群れ	-11.3322
町に	-11.3323
豪	-11.3324
NASA	-11.3324
イライアス	-11.3324
ベンジャミン	-11.3324
鷹	-11.3324
▁ターンエンド	-11.3324
聴衆	-11.3324
不倫	-11.3325
スコフィールド	-11.3325
最も重要な	-11.3325
▁いえいえ	-11.3325
疲れてる	-11.3325
が悪かった	-11.3327
到達	-11.3327
▁離せ	-11.3329
に影響	-11.3329
の旅	-11.3331
に来たんだ	-11.3331
▁俺のこと	-11.3332
動きが	-11.3332
届ける	-11.3333
良いこと	-11.3335
近寄	-11.3336
カミ	-11.3336
砕	-11.3337
どんなもの	-11.3338
言いたいこと	-11.3339
▁マーカス	-11.334
部分は	-11.334
学びました	-11.3342
奴に	-11.3345
のであれば	-11.3345
双	-11.3346
何かある	-11.3346
▁身元	-11.3348
ッパ	-11.3349
る時	-11.3349
▁間違ってる	-11.335
ドラム	-11.335
避けて	-11.3351
どれほど	-11.3352
したくて	-11.3352
の後ろに	-11.3353
▁人殺し	-11.3354
ことのない	-11.3354
▁外に出	-11.3356
とは何か	-11.3357
▁結婚する	-11.3361
愛している	-11.3362
キュー	-11.3365
ur	-11.3365
止められる	-11.3365
孝	-11.3368
拡張	-11.3368
▁バイバイ	-11.3368
取引を	-11.3369
に行きました	-11.3369
ジャクソン	-11.3371
▁もちろんだ	-11.3372
移民	-11.3372
▁陽	-11.3373
何もしてない	-11.3373
対抗	-11.3374
事件が	-11.3376
なんと	-11.3376
▁挨拶	-11.3378
みたいなもん	-11.3378
デカ	-11.3385
▁何なんだよ	-11.3385
化学物質	-11.3386
違うんだ	-11.3387
真っ	-11.3388
じゃないのよ	-11.3389
▁パソコン	-11.339
スコット	-11.3392
十分だ	-11.3393
行かせ	-11.3394
小便	-11.3395
流れる	-11.3396
役立つ	-11.3397
らう	-11.3398
悔	-11.3399
ロビン	-11.34
展	-11.34
誤り	-11.34
一家	-11.3401
ドルで	-11.3401
▁準備は	-11.3401
魅力的な	-11.3402
▁専門家	-11.3402
▁エイリアン	-11.3404
▁個人的に	-11.3406
Q	-11.3409
んねえ	-11.341
ゥ	-11.3411
▁ブラジル	-11.3411
兼	-11.3412
ガレージ	-11.3412
遁	-11.3412
オヤジ	-11.3412
推薦	-11.3412
コレクション	-11.3412
削除	-11.3412
稼ぐ	-11.3412
叫ぶ	-11.3413
逃げ出した	-11.3414
取られた	-11.3414
撮る	-11.3414
ゴリラ	-11.3414
▁ここにいて	-11.3416
明るく	-11.3416
付いてる	-11.3416
▁他に何か	-11.3417
モア	-11.3418
殺人鬼	-11.3419
切り替え	-11.342
おっさん	-11.342
次第だ	-11.342
は出来ない	-11.3423
と言ったら	-11.3423
しに来た	-11.3424
置き去りに	-11.3424
犯行	-11.3425
ir	-11.3426
やり直し	-11.3426
もっとも	-11.3427
二階	-11.3428
見られた	-11.343
げる	-11.343
私達を	-11.3431
▁それにしても	-11.3436
チームに	-11.3438
シンプルな	-11.3439
▁ラッキー	-11.3439
▁沢山の	-11.3441
を忘れた	-11.3442
ねえだろ	-11.3444
乗せ	-11.3444
最悪な	-11.3444
きちんと	-11.3444
▁俺だ	-11.3446
命を救った	-11.3446
▁私たちを	-11.3447
▁マット	-11.3448
しないように	-11.3448
ダース	-11.3448
バトル	-11.3449
の術	-11.345
困って	-11.3451
火星	-11.3451
上手い	-11.3451
司令	-11.3452
もあるし	-11.3454
おった	-11.3455
噴	-11.3455
盗聴	-11.3456
旦	-11.3456
デール	-11.3456
巡査	-11.3456
紫	-11.3457
脂肪	-11.3457
お嬢様	-11.3457
pa	-11.3457
消せ	-11.3457
▁ハハッ	-11.3457
▁一方で	-11.3459
を書いた	-11.3459
交代	-11.3461
▁ギャング	-11.3461
行われる	-11.3462
光が	-11.3462
暴動	-11.3463
悲し	-11.3464
法案	-11.3464
をかけた	-11.3464
へ行け	-11.3464
窓から	-11.3465
起こして	-11.3468
の世話を	-11.3468
夜明け	-11.347
不良	-11.3471
スさん	-11.3472
▁ドラッグ	-11.3475
ビッチ	-11.3476
何百万	-11.3476
▁お母様	-11.3477
▁野球	-11.3478
▁念のため	-11.3478
do	-11.3479
開けて	-11.348
当たり前	-11.3481
の命が	-11.3481
もうすぐ	-11.3486
データが	-11.3487
▁気分が	-11.3487
bo	-11.3488
▁ソール	-11.3488
lo	-11.3488
▁小僧	-11.3488
盗む	-11.3488
▁より多くの	-11.3489
腐	-11.349
▁メル	-11.3491
▁アリア	-11.3491
書け	-11.3493
レコード	-11.3493
信用できる	-11.3494
観客	-11.3496
おしゃべり	-11.3496
無意味	-11.3497
ルト	-11.3499
架	-11.3501
浜	-11.3501
を含む	-11.3501
ネックレス	-11.3501
遮断	-11.3501
する気だ	-11.3502
▁列車	-11.3504
たくさんあります	-11.3504
▁見ろよ	-11.3504
押す	-11.3505
ままに	-11.3506
▁ねえねえ	-11.3506
ことだけ	-11.3508
博士は	-11.3509
▁フラ	-11.3509
▁日本の	-11.351
▁世界に	-11.351
▁救急	-11.351
▁分かってます	-11.3511
▁お願いです	-11.3511
▁職場	-11.3511
鋭い	-11.3512
作ったの	-11.3512
心臓発作	-11.3512
無事で	-11.3513
らなければ	-11.3514
を選び	-11.3516
▁中国の	-11.3517
▁前にも	-11.3517
住んでいる	-11.3517
とはな	-11.3517
パル	-11.3521
コック	-11.3521
に夢中	-11.3523
いいでしょう	-11.3523
▁多くの人が	-11.3524
嬉しいよ	-11.3525
ネイ	-11.3526
LA	-11.3526
消費者	-11.3527
たちも	-11.3529
飢え	-11.353
▁奴らの	-11.353
揃って	-11.3531
▁ベジータ	-11.3533
ことがあって	-11.3535
意義	-11.3535
薬物	-11.3536
知事	-11.3537
探検	-11.3538
▁皮膚	-11.3538
みたいですね	-11.354
大型	-11.354
たくなる	-11.3541
紅	-11.3541
こんにちは	-11.3542
行かせて	-11.3543
互いに	-11.3543
▁私の名前は	-11.3544
ドーム	-11.3546
梅	-11.3546
叱	-11.3546
さまざまな	-11.3546
役立たず	-11.3546
シフト	-11.3546
に任せる	-11.3547
ウッ	-11.3547
多数	-11.3547
▁複数の	-11.3547
▁江	-11.3548
小学生	-11.3548
▁でかい	-11.3549
▁何かある	-11.3549
己	-11.355
▁いい感じ	-11.3552
▁皆さんも	-11.3552
ここに居	-11.3553
ポケット	-11.3553
あるいは	-11.3554
シロ	-11.3555
申し上げます	-11.3557
▁わかっている	-11.3558
いただける	-11.3559
▁アイツは	-11.356
分も	-11.356
▁見たい	-11.3561
以内に	-11.3561
▁ニコ	-11.3561
なければならなかった	-11.3562
に入れた	-11.3564
聞かせ	-11.3565
っとけ	-11.3565
間違いだ	-11.3565
空腹	-11.3565
元に戻	-11.3566
うえ	-11.3566
理子	-11.3567
すんだよ	-11.3567
何をしてる	-11.357
呼	-11.357
身分	-11.357
ホントに	-11.3571
たかったの	-11.3572
一緒だった	-11.3572
ペル	-11.3572
生かして	-11.3572
▁あんたたち	-11.3575
なんかない	-11.3577
やってくる	-11.3578
克服	-11.3579
▁背中	-11.358
恵まれ	-11.358
フランク	-11.3582
▁グレン	-11.3582
話してない	-11.3583
願って	-11.3584
君達	-11.3588
▁お休み	-11.3588
▁文字通り	-11.3588
似て	-11.3589
送ってくれ	-11.3589
買える	-11.3589
香り	-11.359
見込み	-11.3591
デビッド	-11.3591
穏やか	-11.3591
ドキドキ	-11.3591
[	-11.3591
▁そうだろう	-11.3591
欲望	-11.3592
ネイサン	-11.3592
助けようと	-11.3592
プロポーズ	-11.3593
クリニック	-11.3593
犯人を	-11.3593
反撃	-11.3593
31	-11.3594
としか	-11.3595
なしでは	-11.3598
なくてはなりません	-11.3598
2,3	-11.3598
になるだろう	-11.3598
の立場	-11.36
絵画	-11.36
お持ち	-11.36
痛む	-11.36
奏	-11.3601
厳しく	-11.3602
お客様	-11.3602
分裂	-11.3603
▁ヘヘヘ	-11.3603
何とかする	-11.3603
▁国連	-11.3603
まぁ	-11.3604
▁最終的に	-11.3604
120	-11.3606
役者	-11.3608
つら	-11.3609
気温	-11.3611
ブライ	-11.3611
全世界	-11.3613
たくはない	-11.3615
▁チーズ	-11.3615
横に	-11.3616
親しい	-11.3618
倒す	-11.3618
ようとして	-11.3619
小型	-11.3619
用意して	-11.3619
▁そのあと	-11.362
オビ	-11.362
▁そして私は	-11.3621
▁人生は	-11.3623
続	-11.3623
後悔する	-11.3624
って思った	-11.3624
▁うまくいく	-11.3624
刺した	-11.3625
ついに	-11.3625
われて	-11.3625
流す	-11.3626
ベス	-11.3627
氏が	-11.3627
粒	-11.3627
やりましょう	-11.3628
知られ	-11.3628
合衆国	-11.3629
大量に	-11.363
責任がある	-11.363
資本	-11.3635
ネクタイ	-11.3636
對	-11.3636
俳優	-11.3636
嬉しかった	-11.3636
温泉	-11.3637
クレジットカード	-11.3637
到底	-11.3638
に決まってる	-11.3639
形態	-11.3639
求めて	-11.3641
イタリア	-11.3641
楽しんで	-11.3641
見つけ出す	-11.3641
エンド	-11.3643
▁構わない	-11.3644
▁嘘つき	-11.3645
▁休憩	-11.3646
を感じた	-11.3647
▁ジェダイ	-11.3647
りゃいい	-11.3649
のお母さん	-11.365
街で	-11.365
逃走	-11.3652
聞いてください	-11.3652
何をする	-11.3654
してるのよ	-11.3657
▁ちょっと待ってください	-11.3658
握手	-11.3658
動揺	-11.3658
見られます	-11.3658
形成	-11.3659
プログラムを	-11.3659
CO	-11.3661
貸	-11.3661
開かれ	-11.3662
▁ピート	-11.3663
必	-11.3663
▁最高だ	-11.3665
に任せ	-11.3668
備	-11.3668
あふれ	-11.3669
過去の	-11.367
▁一部	-11.3671
部署	-11.3671
勝って	-11.3673
お見せ	-11.3673
帰ってきて	-11.3675
を飲んで	-11.3677
▁ピザ	-11.3678
目覚め	-11.3678
深刻	-11.368
人を殺した	-11.3681
乃	-11.3682
急速に	-11.3682
レッスン	-11.3682
▁一晩中	-11.3682
▁#	-11.3683
もったいない	-11.3683
声が聞こえ	-11.3683
集まる	-11.3684
なければいけない	-11.3684
▁プール	-11.3684
の周りに	-11.3686
ゲスト	-11.3686
が存在する	-11.3687
もいいですか	-11.3689
するんです	-11.369
▁私はその	-11.369
るだけだ	-11.369
しとく	-11.3691
モーター	-11.3691
を向いて	-11.3691
水着	-11.3692
殺してない	-11.3692
そのような	-11.3692
んじゃなかった	-11.3693
われる	-11.3693
▁実際の	-11.3694
首都	-11.3694
作ろう	-11.3694
てしまいます	-11.3695
▁おーい	-11.3695
ぼう	-11.3695
願います	-11.3695
状態に	-11.3696
許してくれ	-11.3696
じゃな	-11.3697
紹介する	-11.3698
作れ	-11.3698
資金を	-11.3699
森の中	-11.3699
と一緒だ	-11.3699
兄さん	-11.37
示した	-11.3701
▁中には	-11.3701
進行中	-11.3703
叶え	-11.3704
▁旧	-11.3704
デッド	-11.3705
テイ	-11.3707
▁なにも	-11.371
▁そんなことを	-11.371
そんな事を	-11.371
知道	-11.371
▁例え	-11.3711
してません	-11.3712
こんで	-11.3713
以下の	-11.3713
お気に入りの	-11.3713
謝って	-11.3715
レディー	-11.3715
ホーン	-11.3716
幼	-11.3719
参加者	-11.372
▁そこにいる	-11.3721
詰	-11.3721
持て	-11.3722
万ドルの	-11.3722
ごめんね	-11.3722
飲まない	-11.3722
を渡す	-11.3722
生まれました	-11.3723
いねえ	-11.3725
つかめ	-11.3725
のドア	-11.3726
▁話がある	-11.3726
住んでた	-11.3727
遥	-11.3727
行ってきます	-11.3727
久利生	-11.3727
録画	-11.3728
▁第三	-11.3728
看板	-11.3728
かのように	-11.3729
セラ	-11.373
エイズ	-11.373
乗った	-11.3732
▁もうひとつ	-11.3733
低く	-11.3735
▁マスコミ	-11.3736
などです	-11.3737
正式に	-11.3738
アラブ	-11.374
国は	-11.3741
捧げ	-11.3741
出かけて	-11.3741
考えています	-11.3741
da	-11.3742
認めた	-11.3743
会社で	-11.3746
気配	-11.3748
ものではありません	-11.3752
すぎだ	-11.3754
ホモ	-11.3754
ザック	-11.3754
捕	-11.3755
瞬間に	-11.3755
権利がある	-11.3756
▁分かるか	-11.3756
並べ	-11.3757
隔	-11.3758
悪い事	-11.3762
▁この瞬間	-11.3762
はどうなる	-11.3764
ここにある	-11.3768
▁我也	-11.3768
手に入れ	-11.3769
は必ず	-11.3773
冒	-11.3773
綾	-11.3773
オランダ	-11.3773
報復	-11.3773
バク	-11.3775
株式	-11.3775
知能	-11.3775
仮面	-11.3776
が出来た	-11.3776
聞くんだ	-11.3777
の本質	-11.3779
警察署	-11.378
▁ブルース	-11.378
スケ	-11.378
経った	-11.3781
副大統領	-11.3782
箱に	-11.3782
年ぶり	-11.3783
▁レオ	-11.3783
というのが	-11.3783
グリム	-11.3785
女優	-11.3788
▁エリカ	-11.3789
し続ける	-11.3789
▁でも今は	-11.379
んねん	-11.379
▁たった今	-11.3791
明確に	-11.3791
さなかった	-11.3793
生きていく	-11.3793
確認する	-11.3795
を覚えてる	-11.3796
▁ポケット	-11.3796
お話を	-11.3797
▁たしか	-11.3799
▁彼は私	-11.38
インチ	-11.3803
を維持	-11.3803
▁全国	-11.3803
らしくない	-11.3803
主要な	-11.3804
▁いとこ	-11.3805
上空	-11.3805
刺し	-11.3806
只是	-11.3806
ペア	-11.3807
成長する	-11.3808
それ以上	-11.3813
が終わったら	-11.3814
込	-11.3814
出世	-11.3814
イヴ	-11.3815
覚えた	-11.3816
▁ny	-11.3817
▁この島	-11.3818
取得	-11.3818
さなきゃ	-11.3819
怠	-11.3819
关	-11.3819
アインシュタイン	-11.3819
ヘリコプター	-11.3819
マイアミ	-11.3819
嫌がらせ	-11.3819
▁礼	-11.382
▁ブライアン	-11.382
通す	-11.382
拠点	-11.382
▁これほど	-11.382
1%	-11.382
尻尾	-11.3821
テイラー	-11.3821
負けて	-11.3822
いるのが	-11.3822
反省	-11.3822
を向け	-11.3822
間に合う	-11.3823
されてます	-11.3824
どうしようもない	-11.3824
結婚する	-11.3826
▁この本	-11.3826
おっしゃる	-11.3827
緊張	-11.3828
花嫁	-11.3829
代目	-11.3829
協会	-11.383
時期に	-11.3831
苦しんで	-11.3832
棟	-11.3833
言うべき	-11.3833
ぺ	-11.3834
▁ヴァンパイア	-11.3834
▁現代の	-11.3835
▁皆で	-11.3836
ラッキー	-11.3836
▁十分に	-11.3838
あまりにも	-11.3839
を取れ	-11.3841
時間後に	-11.3841
娘さん	-11.3841
とにかく	-11.3842
飲ま	-11.3842
飛んだ	-11.3842
▁一言	-11.3844
占め	-11.3844
人体	-11.3844
仲間に	-11.3844
▁両手を	-11.3845
どのような	-11.3845
▁忘れてた	-11.3845
▁パティ	-11.3845
頂き	-11.3846
カナ	-11.3847
困難な	-11.3847
▁気を付けて	-11.3847
死にたい	-11.3847
楽しんでる	-11.3848
▁なんでもない	-11.3848
立っている	-11.385
やってくれる	-11.3854
▁言い訳	-11.3854
想い	-11.3854
やるか	-11.3856
のお父さん	-11.3856
行くか	-11.3856
理由です	-11.3856
34	-11.3857
▁どうするんだ	-11.3858
組織を	-11.386
取り戻し	-11.3862
件の	-11.3863
もいます	-11.3865
凝	-11.3866
紅茶	-11.3866
保健	-11.3866
損害	-11.3866
っていうんだ	-11.3867
フランス語	-11.3867
クライ	-11.3868
ウォーター	-11.3868
▁アリス	-11.3869
カツ	-11.3869
変異	-11.3869
俺と	-11.387
休む	-11.387
があっても	-11.3872
を経て	-11.3873
歌手	-11.3873
賞金	-11.3874
▁楽しそう	-11.3875
公正	-11.3878
を持ってた	-11.3879
茶色	-11.3879
歴史上	-11.3881
尋ね	-11.3881
悪者	-11.3883
▁あなた達は	-11.3883
の証拠	-11.3883
いるぞ	-11.3884
72	-11.3888
▁夫は	-11.3889
店を	-11.389
申し訳ありません	-11.3892
逃げろ	-11.3892
分前	-11.3893
しといて	-11.3893
▁黒人	-11.3893
信じられ	-11.3894
命令を	-11.3894
お腹	-11.3896
尊重	-11.3897
そろ	-11.3898
▁世界が	-11.39
を出て	-11.3901
im	-11.3901
を傷つけた	-11.3901
▁やってみる	-11.3904
どけ	-11.3906
▁そうなのか	-11.3907
盛り	-11.3909
ボールを	-11.3909
を伝える	-11.3909
こう言った	-11.3909
の場合は	-11.3909
戻ら	-11.3911
嘆	-11.3912
は無し	-11.3912
ライオネル	-11.3912
嘛	-11.3912
堀	-11.3912
窃盗	-11.3912
5,000	-11.3912
ベトナム	-11.3912
▁如果	-11.3912
抑制	-11.3912
▁はじめまして	-11.3912
2%	-11.3912
独房	-11.3913
抱きしめ	-11.3913
悩んで	-11.3913
及ぶ	-11.3913
ウォーレン	-11.3914
自覚	-11.3914
那么	-11.3915
興味ない	-11.3916
貸してくれ	-11.3916
▁現地	-11.3917
▁出て行け	-11.3917
残す	-11.3918
させられ	-11.3918
▁泣いて	-11.3919
弁護	-11.3922
目的地	-11.3923
くさい	-11.3924
直前に	-11.3924
あっても	-11.3925
裏切る	-11.3925
ッカ	-11.3927
▁ベラ	-11.3929
▁その後は	-11.3929
を売って	-11.393
触れて	-11.3933
自然界	-11.3935
工業	-11.3936
▁下がれ	-11.3936
▁お祝い	-11.3937
のボス	-11.3938
▁もし私が	-11.3938
カニ	-11.3939
できるでしょう	-11.3939
バウアー	-11.3943
しとけ	-11.3943
▁同じこと	-11.3944
なんですね	-11.3945
と呼ばれ	-11.3948
になったんだ	-11.3948
隙	-11.3949
脱いで	-11.395
ておく	-11.395
仲間を	-11.395
察	-11.3952
番号は	-11.3952
ブリン	-11.3952
おうと	-11.3954
を上げ	-11.3956
廷	-11.3957
舎	-11.3957
評	-11.3958
$	-11.3959
オーディション	-11.3959
循環	-11.3959
教科書	-11.3959
爱	-11.3959
罪悪感	-11.3959
総督	-11.3959
災害	-11.3959
協定	-11.3959
幹細胞	-11.396
タイプの	-11.396
▁あの子が	-11.3961
チア	-11.3961
▁テア	-11.3962
嬉しく	-11.3962
▁待ってろ	-11.3962
になろうと	-11.3962
放置	-11.3962
回線	-11.3963
状況に	-11.3963
を引き起こし	-11.3965
▁そこで私は	-11.3966
嬉しいわ	-11.3967
指定	-11.3967
かなって	-11.3967
不思議な	-11.3968
理解した	-11.3969
と結婚	-11.3973
仕方ない	-11.3974
▁ホープ	-11.3975
いなくて	-11.3976
行ってた	-11.3976
実力	-11.3976
の試合	-11.3977
と思っていました	-11.3978
▁ベイビー	-11.3981
▁もう十分	-11.3982
移住	-11.3983
▁女は	-11.3984
▁どういうことですか	-11.3984
作品を	-11.3986
封鎖	-11.3987
似たような	-11.3988
▁オレたちは	-11.3989
バカだ	-11.3989
少なく	-11.399
考えがある	-11.399
されること	-11.3992
だったかな	-11.3992
ばれ	-11.3995
数分	-11.3995
成功する	-11.3997
わからなかった	-11.3997
▁うわー	-11.3997
濡れ	-11.3997
地面	-11.3998
いる間	-11.3998
ぱ	-11.3998
動きを	-11.4
格差	-11.4
払わ	-11.4
お許し	-11.4002
否	-11.4003
忘れろ	-11.4004
セバスチャン	-11.4006
邸	-11.4006
統治	-11.4006
香港	-11.4007
怯え	-11.4007
坊主	-11.4007
濃度	-11.4008
▁2,3	-11.4009
んじゃん	-11.401
▁分かったか	-11.4011
ボトル	-11.4012
この国	-11.4012
誓った	-11.4013
何なんだ	-11.4014
驚くほど	-11.4014
トルコ	-11.4014
ガイド	-11.4015
つ目	-11.4016
してみましょう	-11.4017
▁普通は	-11.4017
眠れない	-11.4019
を超えた	-11.4021
リヤ	-11.4022
の写真です	-11.4023
現実的	-11.4024
進める	-11.4024
電話に出	-11.4027
ここから出	-11.4027
▁ネルソン	-11.4028
▁賛成	-11.4028
描く	-11.4029
許可を	-11.403
増え	-11.4032
保護者	-11.4032
▁あちら	-11.4034
鉄道	-11.4034
無事だ	-11.4036
▁あたしは	-11.4037
▁大丈夫なの	-11.4039
忍者	-11.4041
英国	-11.4041
それほど	-11.4042
許されない	-11.4042
惑	-11.4045
どうなるの	-11.4045
議長	-11.4045
ビュー	-11.4046
遠慮	-11.4046
びっくり	-11.4046
完全な	-11.4046
最強	-11.4047
ハント	-11.4047
狭	-11.4048
だけだった	-11.4051
食わ	-11.4052
がたくさん	-11.4053
祐	-11.4053
戒	-11.4053
コンサート	-11.4053
ナイジェリア	-11.4053
に近づく	-11.4054
という男	-11.4054
経験した	-11.4055
止まり	-11.4055
ブン	-11.4056
金曜日	-11.4057
山田	-11.4058
実現する	-11.4059
55	-11.4059
吐	-11.4059
雨宮	-11.4059
▁ちょっと失礼	-11.4059
▁オーストラリア	-11.4059
250	-11.406
物事を	-11.406
ウォ	-11.406
見えなかった	-11.4061
一緒にいる	-11.4064
▁それだけで	-11.4065
▁少しでも	-11.4066
しましょ	-11.4067
助けられる	-11.4068
セキュリティー	-11.4069
愛人	-11.407
準備して	-11.407
感じてる	-11.4071
ンド	-11.4073
ホル	-11.4075
上着	-11.4076
跳ね	-11.4077
どうしたんだ	-11.4078
見せた	-11.4079
▁スカイ	-11.4079
前科	-11.408
指名	-11.4081
はありませんでした	-11.4083
下がる	-11.4085
広場	-11.4087
障	-11.4087
▁誰から	-11.4089
ふさわしい	-11.4089
おきます	-11.4089
▁明日の朝	-11.409
どき	-11.4096
▁無事に	-11.4096
▁そうしたら	-11.4096
無礼	-11.4098
訪れた	-11.4098
のためにも	-11.41
を入れた	-11.41
クライアント	-11.41
スターダスト	-11.41
枕	-11.41
マフィア	-11.41
渋滞	-11.41
がんばって	-11.41
ひっくり返	-11.41
ロマンチック	-11.41
友だち	-11.41
頑固	-11.4101
孤立	-11.4101
を利用する	-11.4101
も何も	-11.4101
▁キッチン	-11.4101
売買	-11.4101
シンボル	-11.4102
ハマ	-11.4102
▁アイリス	-11.4102
衛生	-11.4104
10%	-11.4105
外側	-11.4105
▁さっきから	-11.4106
▁君たちの	-11.4107
のそばに	-11.4107
起こって	-11.4109
が終わった	-11.411
ボーン	-11.4111
選ば	-11.4111
最初から	-11.4114
もたらす	-11.4114
飛べ	-11.4114
ふっ	-11.4116
▁これまでに	-11.4116
服を着	-11.4117
カール	-11.4119
家具	-11.412
母上	-11.4121
考えれば	-11.4121
を読んだ	-11.4123
経つ	-11.4124
を狙う	-11.4124
上がれ	-11.4124
らしいな	-11.4125
してなかった	-11.4127
とは思わない	-11.4128
こうして	-11.4128
てもいい	-11.4129
を学ぶ	-11.4129
を助けた	-11.4131
▁適切な	-11.4132
メガ	-11.4132
気絶	-11.4133
息子さん	-11.4134
▁最新の	-11.4136
の被害者	-11.4136
答	-11.4137
を消す	-11.4137
▁患者の	-11.414
辞	-11.414
街を	-11.4141
もんじゃない	-11.4143
で見つけた	-11.4144
を切った	-11.4146
組合	-11.4146
好きです	-11.4146
▁誰なの	-11.4148
歪	-11.4148
进	-11.4148
nasa	-11.4148
自警団	-11.4148
點	-11.4148
をお願い	-11.4148
侵害	-11.4148
停電	-11.4149
来たのか	-11.4149
▁いいんですか	-11.4149
ホワイト	-11.4149
暖かい	-11.4149
▁リース君	-11.415
見せかけ	-11.415
逃がす	-11.4151
聖杯	-11.4151
戦車	-11.4152
20%	-11.4152
▁今天	-11.4152
できず	-11.4153
▁マーティン	-11.4153
▁そういや	-11.4154
の数は	-11.4155
のは難しい	-11.4156
あなた方	-11.4156
続けている	-11.4156
に住んで	-11.4157
ゾン	-11.4158
変わりました	-11.416
賢	-11.4161
▁気候変動	-11.4162
だということです	-11.4164
哲学	-11.4164
世紀に	-11.4165
今年	-11.4165
だということ	-11.4166
盗んで	-11.4167
感心	-11.4167
報告を	-11.4168
ss	-11.4171
なっています	-11.4171
じゃなきゃ	-11.4172
サンタ	-11.4174
甘く	-11.4175
▁ギリシャ	-11.4176
分前に	-11.4178
女神	-11.4179
見張り	-11.4179
残れ	-11.4181
実際の	-11.4183
が言うには	-11.4184
人達が	-11.4185
奥様	-11.4185
いないわ	-11.4186
答えが	-11.4186
のようなものです	-11.4187
▁一日中	-11.4188
いることを	-11.4188
誓って	-11.4188
誘拐された	-11.4189
倫理	-11.4189
勢力	-11.4191
の攻撃力	-11.4192
▁そうなんですか	-11.4194
▁何回	-11.4194
土曜日	-11.4195
杖	-11.4196
溝	-11.4196
賄	-11.4196
管轄	-11.4196
夕飯	-11.4196
▁お疲れさまでした	-11.4196
▁よいしょ	-11.4196
置く	-11.4196
暗黒	-11.4197
最優先	-11.4198
ny	-11.4199
を捜して	-11.4199
不愉快	-11.42
なかったんです	-11.42
▁お仕事	-11.42
起きたこと	-11.4201
▁あの娘	-11.4201
▁ドーム	-11.4201
感知	-11.4201
▁私だけ	-11.4202
御坂	-11.4203
人たちに	-11.4203
貸せ	-11.4204
答えた	-11.4204
聴く	-11.4204
▁オル	-11.4204
が起こった	-11.4205
邪悪な	-11.4207
会合	-11.4207
が私を	-11.421
を読む	-11.4212
あけ	-11.4213
▁血圧	-11.4213
▁秘密の	-11.4214
過程で	-11.4215
連絡先	-11.4215
ホット	-11.4215
父上	-11.4215
国立	-11.4218
水素	-11.4218
ハゲ	-11.4219
▁安心して	-11.4222
キシ	-11.4223
を知り	-11.4224
んぼ	-11.4224
遠くに	-11.4227
許して	-11.4228
ot	-11.4228
済む	-11.4228
▁ここに来て	-11.4229
高価な	-11.423
何してる	-11.4231
を飲む	-11.4234
レンズ	-11.4234
連れて行った	-11.4234
お客さん	-11.4235
沖	-11.4235
再建	-11.4235
▁アハハ	-11.4236
合法	-11.4236
約束する	-11.4237
チリ	-11.4237
せえ	-11.4237
動かす	-11.4238
しかなかった	-11.4239
遺体を	-11.4239
を受け入れる	-11.424
囲まれ	-11.424
一致する	-11.424
がいるんだ	-11.4241
▁サンフランシスコ	-11.4241
ウィー	-11.4242
出て行け	-11.4243
アイルランド	-11.4244
アルバム	-11.4244
股	-11.4244
取り除く	-11.4244
悲鳴	-11.4244
ランディ	-11.4245
見失った	-11.4246
破片	-11.4247
探してた	-11.4248
チェーン	-11.425
してやれ	-11.4252
酒を	-11.4252
戦争を	-11.4253
一个	-11.4253
名刺	-11.4255
ウォルター	-11.4258
画像を	-11.4259
指を	-11.4259
りん	-11.426
創造性	-11.426
を出た	-11.426
考えても	-11.4262
は絶対に	-11.4263
リュー	-11.4263
43	-11.4264
▁アニー	-11.4264
▁やっ	-11.4265
通路	-11.4265
▁ルーシー	-11.4266
婦人	-11.4269
盲目	-11.4269
ルイ	-11.427
曲げ	-11.4273
多くの人々	-11.4274
控え	-11.4274
▁ハンナ	-11.4276
いよう	-11.4277
この世界	-11.4277
▁フリン	-11.4279
の遺体	-11.4279
付き合ってる	-11.428
警察が	-11.4281
家族と	-11.4282
選択肢は	-11.4283
見せたい	-11.4283
どこにある	-11.4284
んとこ	-11.4284
朝食	-11.4285
されていません	-11.4286
の権利	-11.4287
状態です	-11.4287
したことを	-11.429
▁オメエ	-11.4292
▁ていうか	-11.4292
マネージャー	-11.4293
フランシス	-11.4293
拒絶	-11.4293
常務	-11.4293
▁まっすぐ	-11.4293
無人機	-11.4294
▁キャシー	-11.4296
人を殺す	-11.4297
亡くなりました	-11.4298
のかもしれません	-11.4298
は何もない	-11.4298
食物	-11.43
すべきこと	-11.4301
不公平	-11.4301
蹴り	-11.4302
▁くそったれ	-11.4302
残念です	-11.4302
始めましょう	-11.4305
できてる	-11.4308
通りだ	-11.4309
戦え	-11.4309
が好きで	-11.431
ブック	-11.431
ゅう	-11.431
があったんだ	-11.4311
の世界で	-11.4312
も同じだ	-11.4312
実在	-11.4313
ミック	-11.4313
の時間だ	-11.4315
▁そうかい	-11.4315
これだけ	-11.4315
▁何やってんだよ	-11.4317
▁ゴメン	-11.4318
共犯者	-11.4319
幾つか	-11.4319
捕らえ	-11.4319
感じました	-11.4321
きたら	-11.4322
の真	-11.4322
の端	-11.4323
サリ	-11.4323
当初	-11.4323
拾って	-11.4325
が知りたい	-11.4326
を必要とし	-11.4326
ジロ	-11.4328
▁他の誰か	-11.4328
がつく	-11.4329
▁最後は	-11.4329
惚れ	-11.4329
そうとした	-11.4334
替わ	-11.4336
登	-11.4337
取り戻す	-11.4338
をもつ	-11.434
の仕事だ	-11.4341
俗	-11.4341
嶋	-11.4341
浮かぶ	-11.4341
死んじゃう	-11.4341
包囲	-11.4341
申し訳ございません	-11.4341
か知りたい	-11.4341
出会って	-11.4343
▁わかるか	-11.4343
ジャズ	-11.4343
▁私の息子	-11.4344
食堂	-11.4344
隼人	-11.4346
抜けた	-11.4346
▁言ったでしょ	-11.4346
うわ	-11.4346
▁すぐ戻る	-11.4347
フィッツ	-11.4347
クルーズ	-11.4348
データは	-11.4351
と同じです	-11.4351
させよう	-11.4355
スカイ	-11.4355
とは思わなかった	-11.4355
ゴースト	-11.4356
▁というのも	-11.4357
んでね	-11.4358
調べました	-11.4358
の距離	-11.4359
を奪い	-11.436
旧	-11.436
▁いくらでも	-11.4361
美さん	-11.4361
素直	-11.4362
知りたいの	-11.4362
って言うんだ	-11.4363
▁黙ってろ	-11.4364
▁痛っ	-11.4364
つながって	-11.4364
弟子	-11.4365
行為を	-11.4365
▁わしが	-11.4365
うまくいく	-11.4365
勝者	-11.4366
失われた	-11.4366
▁離して	-11.4367
をお願いします	-11.4367
モント	-11.437
しなくちゃ	-11.4373
物理学者	-11.4373
を望んでる	-11.4374
が待ってる	-11.4376
▁今なら	-11.4377
っぱなし	-11.4377
の中だ	-11.4378
▁you	-11.4378
だと言う	-11.438
壊す	-11.4382
を振り	-11.4382
話していた	-11.4383
▁元気か	-11.4384
行ってる	-11.4386
きつい	-11.4388
dvd	-11.439
仁	-11.439
積極的	-11.439
怯えて	-11.439
しつこい	-11.439
を借りて	-11.439
キャラクター	-11.439
殴って	-11.439
期限	-11.4391
反抗	-11.4391
打ち明け	-11.4392
道徳的	-11.4392
▁コイツは	-11.4393
吸う	-11.4393
一直	-11.4394
外に出て	-11.4394
▁どうやったら	-11.4395
別人	-11.4396
▁ご両親	-11.4397
説明を	-11.4397
ハワード	-11.4397
書かれた	-11.4397
惹かれ	-11.4399
と呼んでいます	-11.44
のお陰で	-11.44
貴族	-11.4402
逃げよう	-11.4403
▁近所の	-11.4404
サマリア人	-11.4405
理解して	-11.4406
傷つく	-11.4406
▁朝の	-11.4407
受け止め	-11.4409
言っちゃ	-11.4409
▁※	-11.4411
人達は	-11.4411
磨	-11.4411
集中して	-11.4411
ドリー	-11.4412
いるのよ	-11.4414
南アフリカ	-11.4415
まだ生きてる	-11.4415
に見せ	-11.4417
飲ませ	-11.4418
▁数年前	-11.4419
ッコ	-11.4419
やるわ	-11.442
▁アイス	-11.4421
落ち着け	-11.4423
カッ	-11.4425
と思うんです	-11.4425
▁あそこで	-11.4425
ビリ	-11.4426
ゴミ箱	-11.4427
スノー	-11.4433
ちゃだめ	-11.4437
取り付け	-11.4438
転換	-11.4438
県	-11.4439
鬱	-11.4439
シミュレーション	-11.4439
テキスト	-11.4439
桁	-11.4439
スレイド	-11.4439
暴露	-11.4439
キャンセル	-11.4439
を切る	-11.444
50%	-11.4441
を用意して	-11.4441
特権	-11.4442
テストを	-11.4442
をお持ち	-11.4445
もないのに	-11.4445
法的	-11.4446
ブラックホール	-11.4446
▁われわれ	-11.4449
だとか	-11.4451
を考えると	-11.4451
に殺された	-11.4453
▁これは何	-11.4455
切れる	-11.4457
▁この女	-11.4459
年上	-11.446
島で	-11.4461
あっち	-11.4461
MS	-11.4462
を続けて	-11.4462
ナビ	-11.4463
ッキ	-11.4463
自殺した	-11.4464
狂気	-11.4466
ドラッグ	-11.4468
どこから	-11.4469
あそこに	-11.4469
ディスク	-11.4469
▁こうなる	-11.4469
全力	-11.4471
シルバー	-11.4472
手段を	-11.4472
判る	-11.4473
ジャンク	-11.4473
倍も	-11.4474
演説	-11.4475
私を見て	-11.4475
仲間だ	-11.4476
お姉ちゃん	-11.4477
企業の	-11.4478
ヤー	-11.4478
見たんだ	-11.448
话	-11.4481
暑	-11.4485
トウ	-11.4486
出発する	-11.4487
裕	-11.4487
▁グレッグ	-11.4488
繁栄	-11.4488
▁毎朝	-11.4488
カッコイイ	-11.4488
泳ぎ	-11.4489
コーラ	-11.4489
電球	-11.4489
転校生	-11.4489
▁妻は	-11.449
差別	-11.449
喰種	-11.4491
取り調べ	-11.4491
刑務所で	-11.4492
クルマ	-11.4492
司令部	-11.4492
呼ばれる	-11.4493
▁あなたのこと	-11.4495
恨	-11.4496
だけでいい	-11.4498
作業を	-11.4499
を満た	-11.4499
▁それは違う	-11.4503
撃たれて	-11.4503
ないわね	-11.4503
を持ってきた	-11.4504
の役割	-11.4505
ms	-11.4505
▁アンタは	-11.4506
化し	-11.4508
▁来てくれて	-11.4509
結びつけ	-11.4509
▁我々も	-11.451
▁そいつを	-11.4511
ことによって	-11.4513
掛	-11.4516
市の	-11.4516
始まりました	-11.4518
and	-11.4518
つかま	-11.452
太陽系	-11.4521
▁そいつが	-11.4522
いいんです	-11.4522
▁着替え	-11.4522
石炭	-11.4522
▁シャワー	-11.4522
いずれ	-11.4522
敬意を	-11.4522
首に	-11.4523
想像して	-11.4524
になっちゃう	-11.4528
仕え	-11.4528
んじゃないかと	-11.4528
は無事	-11.453
▁冗談じゃない	-11.453
襲われ	-11.4531
閉じ	-11.4531
▁かわいそう	-11.4532
同じ事を	-11.4532
ことなのです	-11.4533
▁玄関	-11.4535
▁毎週	-11.4535
▁理解して	-11.4535
計画が	-11.4536
決めました	-11.4537
昧	-11.4537
ビタミン	-11.4537
太平洋	-11.4537
渇	-11.4537
蘭	-11.4537
蝶	-11.4537
同学	-11.454
だけなんだ	-11.4541
牛乳	-11.4541
感染症	-11.4542
憶えてる	-11.4542
▁ハロー	-11.4543
スポット	-11.4544
凛	-11.4546
▁シャーク	-11.4546
▁何してんだ	-11.4546
役を	-11.4547
知る限り	-11.4548
じゃないだろ	-11.4549
伝達	-11.4551
諦めて	-11.4551
▁ネットで	-11.4552
に達し	-11.4552
年ほど前	-11.4552
しているんだ	-11.4553
内容は	-11.4553
若い女性	-11.4553
逮捕した	-11.4554
ジェイ	-11.4554
倒して	-11.4555
▁お母さんが	-11.456
amp	-11.456
海外	-11.4561
世界的	-11.4562
髪を	-11.4563
は終わり	-11.4564
可能性があります	-11.4565
拭	-11.4565
決断を	-11.4567
用意した	-11.4567
お客	-11.4567
良いか	-11.457
とは言えない	-11.4571
インク	-11.4572
何だって	-11.4574
を用いて	-11.4574
ブロー	-11.4575
フランクリン	-11.4578
どこにでも	-11.4579
▁その話は	-11.4581
存在します	-11.4582
▁今さら	-11.4582
▁ニキータ	-11.4582
▁大事に	-11.4583
▁妻の	-11.4583
帰ります	-11.4583
理解している	-11.4584
何しに来た	-11.4585
するつもりだ	-11.4586
話を聞いた	-11.4587
遡	-11.4587
檻	-11.4587
粗	-11.4587
长	-11.4587
隆	-11.4587
黙示録	-11.4587
切符	-11.4587
守護	-11.4589
指揮官	-11.4589
探せ	-11.4593
ウェルズ	-11.4594
と言っていた	-11.4595
▁アストラル	-11.4595
ウエ	-11.4597
を抱えて	-11.4598
を愛して	-11.4598
も含めて	-11.4599
を越えて	-11.46
ナイフを	-11.4602
必要とする	-11.4602
恒星	-11.4604
もらおうか	-11.4605
叶	-11.4606
ここに来る	-11.4607
会わない	-11.4608
輝き	-11.461
人なの	-11.4612
▁スーザン	-11.4614
幹部	-11.4616
▁聞こえてる	-11.4618
話したくない	-11.4618
どうしよう	-11.4618
に出た	-11.462
HR	-11.462
そこから	-11.4621
受けて	-11.4621
▁わっ	-11.4622
▁悪いな	-11.4622
ですかね	-11.4622
そうした	-11.4623
ベッドで	-11.4623
人の男	-11.4624
找	-11.4624
の開発	-11.4625
質問です	-11.4625
来てた	-11.4627
薬は	-11.463
代償	-11.4632
誘った	-11.4632
殺人を	-11.4632
本物だ	-11.4633
▁座れ	-11.4633
▁オッケー	-11.4634
私の娘	-11.4637
DVD	-11.4637
茂	-11.4637
近づいた	-11.4637
スケジュール	-11.4637
▁とうとう	-11.4637
盗難	-11.4638
野心	-11.4639
踊る	-11.4639
▁嘘だ	-11.464
黄金	-11.4641
▁リグスビー	-11.4643
を使え	-11.4644
動物園	-11.4645
何であれ	-11.4646
タッチ	-11.4646
取り入れ	-11.4647
を利用した	-11.4648
を利用し	-11.4648
の使用	-11.465
をまとめ	-11.4652
人間関係	-11.4652
ばら	-11.4652
ついでに	-11.4654
居るの	-11.4659
部活	-11.4662
▁見てみろ	-11.4662
に備えて	-11.4669
いけません	-11.4669
▁色んな	-11.467
量は	-11.467
~~	-11.4671
量子	-11.4672
▁誰にでも	-11.4674
▁最近は	-11.4675
楽しめ	-11.4675
させられた	-11.4676
話します	-11.4677
▁黒崎	-11.4677
不在	-11.4679
还是	-11.468
手口	-11.4682
ヒョン	-11.4683
連れてって	-11.4683
いるからです	-11.4684
怪	-11.4684
の領域	-11.4685
凶器	-11.4686
摂	-11.4687
实	-11.4687
剃	-11.4687
楓	-11.4687
开始	-11.4688
▁余計なこと	-11.4688
陪審員	-11.4688
を引き起こす	-11.4688
ブルックリン	-11.4688
暴走	-11.4688
フリーザ	-11.4689
は十分	-11.4689
そう思った	-11.469
絞り	-11.4691
奴らは	-11.4691
れなかった	-11.4691
貰って	-11.4692
襲って	-11.4693
バナナ	-11.4693
来たわ	-11.4696
▁しれない	-11.4697
産む	-11.4697
頂きたい	-11.4698
調達	-11.4698
見つかりました	-11.4698
▁つまらない	-11.4699
みたいだね	-11.4701
モンスターを	-11.4701
カーター	-11.4702
無人	-11.4703
作り上げ	-11.4704
持っていない	-11.4705
▁残念だが	-11.4705
るほど	-11.4706
クロー	-11.4706
シリア	-11.4707
匹の	-11.4708
おこ	-11.4709
守ってくれ	-11.471
成分	-11.471
泳	-11.4713
もないし	-11.4713
▁謎の	-11.4714
▁確かな	-11.4714
下ろして	-11.4715
命を救う	-11.4717
ad	-11.4718
エクス	-11.472
言葉です	-11.4721
いただいた	-11.4722
▁受けて	-11.4723
ござ	-11.4726
リコ	-11.4729
綺麗な	-11.4735
はずなのに	-11.4735
お姫様	-11.4736
お弁当	-11.4736
驚きました	-11.4737
全員に	-11.4737
怒った	-11.4737
躍	-11.4737
樣	-11.4738
CEO	-11.4738
アカデミー	-11.4738
染色体	-11.4738
顕微鏡	-11.4738
近づき	-11.4738
アンジェラ	-11.4738
連携	-11.4738
最良の	-11.4738
▁クロウ	-11.4738
役員	-11.4739
照合	-11.4739
▁《≪	-11.4739
つなげ	-11.4739
に行くんだ	-11.474
言った事	-11.474
役に立て	-11.474
退治	-11.474
御免	-11.474
しろって	-11.4741
▁お疲れさまです	-11.4741
診療所	-11.4743
ドウ	-11.4745
主人公	-11.4746
フィッシュ	-11.4746
殴られた	-11.4746
死んだんだ	-11.4747
大きな問題	-11.4748
いなくなって	-11.4748
緑色	-11.4751
を付けて	-11.4751
みたいだった	-11.4753
▁どんな感じ	-11.4753
何があった	-11.4753
カオス	-11.4753
少数	-11.4754
掛けた	-11.4754
寸前	-11.4755
着替え	-11.4756
サイコ	-11.4757
頂け	-11.4757
▁分かってるよ	-11.4758
夜中	-11.4758
ことになって	-11.4759
見てみよう	-11.4761
▁アフリカの	-11.4761
が欲しかった	-11.4761
探した	-11.4764
一点	-11.4766
▁ボクの	-11.4768
本番	-11.4769
を取得	-11.477
▁これより	-11.4774
戻って来た	-11.4774
スペル	-11.4775
大騒ぎ	-11.4775
似ています	-11.4775
回目の	-11.4775
諦めない	-11.4776
一個	-11.4776
抽出	-11.4776
理性	-11.4776
おきたい	-11.4778
となっています	-11.4779
たいのです	-11.478
わからないけど	-11.4781
リーク	-11.4781
誘われ	-11.4781
当てて	-11.4782
わけがない	-11.4783
を見てくれ	-11.4786
とやら	-11.4787
▁いいわよ	-11.4789
實	-11.4789
〝	-11.4789
ジェレミー	-11.4789
臨床	-11.4789
▁斉藤さん	-11.479
職務	-11.479
集まった	-11.479
したいのか	-11.4791
に到達	-11.4793
プリント	-11.4793
減らし	-11.4793
何回も	-11.4794
▁レベッカ	-11.4795
見返り	-11.4795
マラ	-11.4795
出来れば	-11.4796
逮捕する	-11.4799
な感じ	-11.4799
はすでに	-11.48
中佐	-11.4804
ジェダイ	-11.4804
夫妻	-11.4808
フィルム	-11.4808
ごはん	-11.4808
ランク	-11.4809
の全	-11.481
クイン	-11.4813
見られて	-11.4813
パール	-11.4815
なき	-11.4816
たほうがいい	-11.4817
おお	-11.482
大事なのは	-11.482
ガリ	-11.4821
無くなった	-11.4821
んだけどね	-11.4821
奪われた	-11.4821
▁残りは	-11.4821
日中	-11.4822
一致した	-11.4824
息を	-11.4825
を理解し	-11.4826
出そう	-11.4826
浸	-11.483
連れて来た	-11.4831
垣	-11.4831
を裏切った	-11.4831
▁びっくりした	-11.4834
読者	-11.4834
▁艦長	-11.4837
今後	-11.4837
いわれ	-11.4838
週間前に	-11.4838
危険です	-11.4839
梶	-11.484
しばしば	-11.484
圧倒的	-11.484
アザ	-11.4841
切除	-11.4841
殺さ	-11.4841
読書	-11.4841
井戸	-11.4841
木さん	-11.4842
▁どこにいるの	-11.4843
たがってる	-11.4843
いらん	-11.4843
今度	-11.4844
▁いやあ	-11.4848
闘う	-11.4848
ティア	-11.4848
▁いいんです	-11.4849
見せてくれ	-11.4849
▁よくある	-11.485
両手	-11.4855
達と	-11.4856
▁直ちに	-11.4856
第三	-11.4856
耐えられない	-11.4856
国が	-11.4858
運転して	-11.4858
連れてきて	-11.4859
くださ	-11.4859
掛かり	-11.4862
▁よくも	-11.4862
直した	-11.4863
恥ずかし	-11.4864
▁よっ	-11.4865
怖がらせ	-11.4867
んだけどさ	-11.4868
あなた達	-11.4868
勝て	-11.4869
賭けて	-11.4872
ばかりです	-11.4872
面白	-11.4874
お待ち	-11.4876
しゃべって	-11.4876
スクール	-11.4877
ha	-11.4878
この男	-11.4878
時頃	-11.4878
▁思ったより	-11.488
シェイ	-11.488
▁そうよね	-11.488
寝てた	-11.4883
▁もう終わり	-11.4883
ほっといて	-11.4884
決まる	-11.4885
はあまり	-11.4885
模	-11.4885
怒られ	-11.4886
出かけた	-11.4887
▁あれから	-11.4887
捨てられた	-11.4887
あげるわ	-11.4888
たかったんだ	-11.4888
▁うまくいった	-11.4888
容赦	-11.4889
出てけ	-11.489
モール	-11.489
すげぇ	-11.4891
琴	-11.4891
腎臓	-11.4891
遠ざけ	-11.4891
まさしく	-11.4891
教わった	-11.4891
顧問	-11.4891
コウモリ	-11.4891
▁だから私は	-11.4891
幼児	-11.4891
ポンプ	-11.4894
解散	-11.4894
[...]
