<unk>	0
<s>	0
</s>	0
▁	-3.06668
▁the	-3.22132
,	-3.37161
.	-3.75284
▁of	-3.93333
s	-3.96585
▁(	-4.15929
and	-4.19216
ed	-4.22695
-	-4.30041
▁to	-4.36432
▁a	-4.51513
▁in	-4.52769
)	-4.55081
▁was	-4.6844
e	-4.76434
ing	-4.95454
▁is	-5.06784
▁Station	-5.07842
n	-5.18553
▁The	-5.23041
'	-5.2614
"	-5.26838
▁"	-5.32984
▁as	-5.34485
▁f	-5.41098
▁that	-5.42759
:	-5.47129
y	-5.48228
d	-5.49437
▁by	-5.50436
▁he	-5.51073
rom	-5.51175
▁be	-5.51554
▁on	-5.53511
▁Kyoto	-5.64161
en	-5.69615
▁his	-5.7241
▁no	-5.74585
ly	-5.7522
t	-5.75265
a	-5.764
al	-5.82328
ji	-5.84624
i	-5.89706
o	-5.92092
▁with	-5.94915
▁at	-5.95949
▁for	-5.97572
▁City	-6.00009
▁A	-6.00607
▁N	-6.04652
▁Line	-6.05433
▁S	-6.06353
).	-6.11043
▁Prefecture	-6.11197
▁Yoshinobu	-6.17491
in	-6.18098
wee	-6.1864
▁Emperor	-6.19245
),	-6.20186
▁bet	-6.21954
were	-6.25187
▁-	-6.27253
▁Nara	-6.29302
▁it	-6.31066
▁M	-6.33244
;	-6.40224
▁In	-6.40299
ion	-6.40572
but	-6.40733
▁Daimyo	-6.43149
▁which	-6.46381
th	-6.47654
▁who	-6.48915
▁are	-6.49592
▁an	-6.50457
r	-6.54461
▁O	-6.58707
u	-6.60765
juku	-6.64676
▁'	-6.66252
▁or	-6.66709
▁It	-6.6727
the	-6.67624
▁He	-6.6787
▁Family	-6.68782
▁after	-6.6892
▁line	-6.68958
l	-6.70116
ring	-6.70232
▁B	-6.70538
had	-6.73098
shu	-6.74652
erial	-6.75405
ational	-6.75508
▁T	-6.76019
▁name	-6.76077
Amaterasu	-6.77583
▁Japan	-6.77745
▁TOKUGAWA	-6.77965
to	-6.78196
▁C	-6.79384
▁call	-6.80071
▁this	-6.8019
▁Japanese	-6.80301
▁Uji	-6.8237
▁Shogun	-6.83152
▁hav	-6.85827
▁Omikami	-6.87224
▁E	-6.87494
▁Temple	-6.89789
lso	-6.89805
no	-6.91842
▁Imp	-6.9242
▁Edo	-6.92484
▁c	-6.92663
ko	-6.94867
▁train	-6.95151
▁used	-6.95486
ku	-6.95657
ki	-6.96758
ro	-6.97634
jo	-6.97796
▁period	-6.97901
/	-6.97901
▁there	-6.99512
K	-7.00599
red	-7.00849
ent	-7.0099
er	-7.01232
han	-7.01528
▁s	-7.01761
▁one	-7.02776
g	-7.04083
ge	-7.04878
▁Railway	-7.04904
c	-7.05116
ever	-7.05283
▁re	-7.05388
se	-7.0647
▁Class	-7.06955
▁du	-7.07202
ation	-7.0775
▁not	-7.07966
came	-7.08569
▁wh	-7.08695
▁P	-7.09846
▁School	-7.09854
▁some	-7.10298
▁service	-7.11047
▁I	-7.11096
ten	-7.11318
▁god	-7.11417
ir	-7.12197
▁her	-7.12816
▁rapid	-7.13083
▁Shomyo	-7.13331
▁On	-7.14472
▁Railways	-7.15156
ra	-7.15902
▁Ward	-7.16524
ment	-7.17034
▁b	-7.19284
▁JR	-7.19795
▁Shizuoka	-7.19862
▁family	-7.19956
▁Osaka	-7.20307
▁order	-7.20595
▁its	-7.21017
▁time	-7.21896
has	-7.22886
▁w	-7.23058
▁book	-7.23728
▁opened	-7.23733
ei	-7.23994
▁t	-7.24575
▁stations	-7.246
▁Ko	-7.25143
▁H	-7.25327
M	-7.2554
▁There	-7.26203
▁son	-7.26248
The	-7.26374
h	-7.26615
▁D	-7.27095
▁Shogunate	-7.27445
m	-7.27784
O	-7.29689
C	-7.30792
▁Drama	-7.30983
▁through	-7.30985
▁R	-7.31206
▁Thi	-7.3145
▁Sa	-7.31527
cho	-7.32178
▁un	-7.32941
H	-7.34294
▁December	-7.34983
▁Series	-7.34997
▁Kizu	-7.35008
arch	-7.35443
ance	-7.35647
tion	-7.35989
or	-7.36121
▁so	-7.36765
shin	-7.36823
▁To	-7.36871
▁L	-7.37787
I	-7.38111
es	-7.38882
st	-7.39008
▁region	-7.39164
▁daughter	-7.39463
▁Tokugawa	-7.39468
▁Hiei	-7.39482
ter	-7.4053
ri	-7.40535
yama	-7.40637
▁p	-7.41236
te	-7.41556
▁18	-7.42947
do	-7.42965
▁Locomotive	-7.43497
▁because	-7.43538
▁first	-7.44039
f	-7.45472
▁clan	-7.45916
shi	-7.45953
▁section	-7.46051
ta	-7.47401
ight	-7.48037
▁other	-7.48054
▁Train	-7.48059
▁km	-7.4806
mpress	-7.48064
JR	-7.48133
▁Clan	-7.48169
ut	-7.48927
into	-7.50727
ga	-7.50859
▁trains	-7.51321
▁3	-7.51494
▁19	-7.51695
▁run	-7.52599
▁How	-7.5281
▁Highway	-7.52815
gun	-7.52921
▁Steam	-7.52974
fact	-7.53641
▁chapters	-7.53643
ary	-7.54507
ther	-7.55653
▁sam	-7.5571
le	-7.55827
k	-7.55961
ichi	-7.56153
such	-7.56727
pri	-7.56839
ur	-7.57016
an	-7.5705
A	-7.57807
▁Tenchi	-7.5781
▁main	-7.5781
▁two	-7.57829
Tenji	-7.57889
▁you	-7.57903
round	-7.58011
▁Hon	-7.58394
ll	-7.58478
▁go	-7.58562
gan	-7.58686
ok	-7.58696
▁work	-7.58728
▁1	-7.61441
ai	-7.61749
gawa	-7.62586
▁school	-7.63068
▁Manu	-7.63085
▁rank	-7.63219
Tokaido	-7.63219
on	-7.6371
▁JNR	-7.63729
sho	-7.63827
▁sect	-7.63847
▁Fushimi	-7.64257
san	-7.66966
ar	-7.67129
um	-7.67636
ic	-7.6768
▁writ	-7.67901
▁loc	-7.68506
▁Company	-7.68623
▁Umekoji	-7.68779
▁Road	-7.68783
▁cars	-7.68793
▁locomotives	-7.68794
▁July	-7.68903
▁established	-7.68911
made	-7.69123
▁up	-7.6922
▁form	-7.69334
ma	-7.69494
fore	-7.70015
▁man	-7.70307
7	-7.71152
▁out	-7.72195
mi	-7.72553
▁station	-7.72598
N	-7.72683
3	-7.73067
p	-7.73264
▁him	-7.74497
▁temple	-7.74506
▁Court	-7.74506
▁Registra	-7.74516
▁Transfer	-7.74532
▁marri	-7.7458
▁West	-7.74824
▁Meiji	-7.74858
▁part	-7.75547
▁Ma	-7.75861
▁Shin	-7.76178
▁G	-7.76241
▁F	-7.76788
ers	-7.76984
▁ex	-7.78077
at	-7.78971
ke	-7.79458
▁Oyamazaki	-7.80756
▁branch	-7.80756
▁perform	-7.80756
▁After	-7.80756
▁Bypass	-7.80756
▁collect	-7.80758
▁politic	-7.80927
▁consider	-7.80936
▁place	-7.80992
▁found	-7.81001
▁where	-7.81239
▁de	-7.81307
▁bas	-7.81549
5	-7.81726
▁Kei	-7.81835
2	-7.82054
as	-7.82445
oshi	-7.838
wa	-7.84351
ka	-7.84545
▁Sho	-7.84927
▁Kin	-7.85846
she	-7.87043
team	-7.87216
▁chang	-7.8734
ould	-7.87414
▁Interchange	-7.87422
▁Service	-7.87422
Shobogenzo	-7.87423
▁people	-7.87423
▁power	-7.87423
▁University	-7.87424
▁those	-7.87424
▁said	-7.87432
▁delet	-7.87436
▁Miko	-7.87515
▁four	-7.87665
▁Main	-7.87744
▁position	-7.87937
▁Kan	-7.88325
▁bo	-7.88534
▁like	-7.88613
ce	-7.88898
led	-7.89992
▁former	-7.90079
▁15	-7.90462
▁manuscript	-7.92426
ong	-7.93018
ari	-7.93318
▁old	-7.93606
▁Shig	-7.93611
oku	-7.9413
us	-7.94306
▁age	-7.94361
▁use	-7.9443
▁world	-7.94565
▁Temmu	-7.94565
▁Book	-7.94566
▁Kamakura	-7.94568
▁death	-7.94568
▁Kumiyama	-7.94579
▁under	-7.94592
urban	-7.94603
▁operation	-7.94604
▁sun	-7.94693
▁Domain	-7.9477
ld	-7.9484
ber	-7.95001
▁Ta	-7.95082
kan	-7.9513
▁ha	-7.95235
▁Du	-7.9525
."	-7.95356
▁Otsu	-7.95549
▁September	-7.9658
▁more	-7.96601
▁Mi	-7.96615
▁bor	-7.96848
out	-7.96928
own	-7.9758
B	-7.97582
ded	-7.97689
ies	-7.98056
b	-7.98411
8	-7.98583
et	-7.99419
▁includ	-7.99923
▁Shrine	-8.0012
ne	-8.00346
▁follow	-8.00597
yo	-8.01176
▁day	-8.01661
rd	-8.01876
▁30	-8.01989
re	-8.02229
apid	-8.02251
▁Momoyama	-8.02258
▁system	-8.02258
▁temporar	-8.02258
▁various	-8.02258
▁died	-8.02276
▁Sub	-8.02277
▁even	-8.02279
▁since	-8.02314
▁can	-8.02396
▁Hitotsubashi	-8.02478
▁thre	-8.02635
til	-8.02647
▁mov	-8.02748
ive	-8.02808
ived	-8.0283
▁K	-8.02894
E	-8.03138
▁brother	-8.03666
it	-8.04046
▁August	-8.04442
w	-8.04827
ock	-8.04984
▁2	-8.05343
ome	-8.05828
Emperor	-8.05954
▁U	-8.06376
age	-8.06448
▁12	-8.06843
izu	-8.0749
▁Y	-8.08226
bo	-8.0839
▁dis	-8.08877
▁discipl	-8.08895
ern	-8.09238
ard	-8.09992
]	-8.10591
▁1987	-8.10591
▁abolished	-8.10591
▁limit	-8.10591
▁schedule	-8.10591
▁Nariaki	-8.10591
▁adopt	-8.10591
▁preservation	-8.10594
▁confinement	-8.10595
▁Joyo	-8.10605
▁Tendai	-8.10615
▁Tokyo	-8.10637
▁becom	-8.10678
▁signal	-8.10687
▁class	-8.10736
illow	-8.10816
▁mother	-8.10868
▁known	-8.10956
▁end	-8.10989
▁January	-8.11247
▁began	-8.11308
est	-8.11317
▁did	-8.11619
▁heir	-8.11745
▁land	-8.12033
▁theory	-8.12344
▁all	-8.12549
▁over	-8.13099
▁refer	-8.13211
▁10,	-8.13721
ted	-8.14152
▁came	-8.14272
track	-8.14542
▁Go	-8.14593
former	-8.14604
▁Yoshi	-8.15466
td	-8.15832
▁d	-8.15849
▁ga	-8.15869
able	-8.15903
▁gods	-8.15958
▁1,	-8.17173
cept	-8.17631
ical	-8.17646
9	-8.18452
▁Engine	-8.18641
▁connect	-8.18669
▁vi	-8.19004
gi	-8.19012
62	-8.19446
ama	-8.19515
ecause	-8.19595
Nihon	-8.19682
▁1979	-8.19682
▁Depot	-8.19682
▁government	-8.19682
▁mountain	-8.19682
▁life	-8.19682
▁introduced	-8.19683
▁kami	-8.19685
▁Expressway	-8.19685
▁Office	-8.19688
▁Television	-8.19688
will	-8.19691
▁giv	-8.19765
▁army	-8.19786
▁rece	-8.1979
▁person	-8.19803
▁official	-8.19803
▁era	-8.19899
▁Mei	-8.19902
less	-8.19919
▁head	-8.1993
▁father	-8.19949
▁abo	-8.2032
hron	-8.20327
▁accord	-8.20755
▁road	-8.20882
inryu	-8.21064
▁Oct	-8.21097
▁am	-8.22985
▁Ki	-8.24345
ence	-8.24422
if	-8.24448
▁own	-8.25653
ew	-8.25893
▁Sei	-8.26647
ure	-8.2774
long	-8.27878
▁10	-8.27923
▁11	-8.28451
ccord	-8.28524
▁lines	-8.2881
za	-8.2893
▁Co	-8.29016
tai	-8.29107
▁Ima	-8.29122
ju	-8.29463
▁direct	-8.29506
1	-8.29644
▁Buddhist	-8.29682
▁Castle	-8.29682
▁College	-8.29682
▁November	-8.29682
▁domain	-8.29682
▁stops	-8.29683
▁accept	-8.29683
▁while	-8.29683
▁visit	-8.29688
▁koku	-8.29722
▁building	-8.29726
▁Sakura	-8.29733
▁Mito	-8.29863
▁Shinto	-8.29936
▁Kanagawa	-8.29976
▁how	-8.29976
▁High	-8.29996
▁Yamato	-8.30013
achi	-8.30106
▁Michi	-8.3011
ity	-8.30237
▁Kyo	-8.3038
▁Ha	-8.3039
▁means	-8.30418
na	-8.30707
zo	-8.3071
▁original	-8.30754
tic	-8.30853
▁IC	-8.30862
▁designate	-8.31145
iga	-8.3123
▁built	-8.31534
▁Higashi	-8.32603
ated	-8.33067
▁Dogen	-8.33138
S	-8.33452
▁though	-8.34237
▁At	-8.34243
▁sp	-8.34249
be	-8.34285
ura	-8.34489
▁4	-8.35047
ant	-8.35453
▁ever	-8.35772
▁rule	-8.35802
53	-8.3601
though	-8.36013
ni	-8.36031
▁often	-8.36712
);	-8.37339
tary	-8.37591
▁group	-8.38546
der	-8.3859
ified	-8.38914
ve	-8.39426
▁fact	-8.39726
nger	-8.39762
▁Wh	-8.40047
▁bi	-8.40116
▁express	-8.40118
▁San	-8.40152
▁Ji	-8.40259
mori	-8.40351
▁say	-8.40555
▁Ya	-8.40564
6	-8.40674
▁consist	-8.40682
attle	-8.40713
▁high	-8.40735
ox	-8.40792
▁Buddhism	-8.40793
▁Transport	-8.40793
higashi	-8.40793
—	-8.40793
▁Iemochi	-8.40793
▁Zuimonki	-8.40793
▁different	-8.40793
▁Rolling	-8.40793
icles	-8.40795
▁Restoration	-8.40799
▁control	-8.408
still	-8.40801
▁Shingon	-8.40802
▁general	-8.40805
▁highway	-8.40816
▁221	-8.40818
▁22	-8.40831
Keiki	-8.40846
tetsu	-8.40923
way	-8.40942
▁23	-8.40954
▁Kans	-8.40963
▁Kai	-8.41062
▁left	-8.41123
▁half	-8.41123
▁Junction	-8.41128
▁great	-8.41136
▁early	-8.41158
▁driver	-8.41159
▁Choshu	-8.41179
▁them	-8.41187
▁now	-8.41354
▁2003	-8.41693
aisei	-8.41704
▁imp	-8.42561
ions	-8.42646
chi	-8.42712
▁ab	-8.43477
▁6	-8.44357
▁mi	-8.4436
▁Tai	-8.44421
▁Miyakoji	-8.44686
▁days	-8.45284
▁53	-8.45968
▁As	-8.46143
ho	-8.46403
aki	-8.47013
▁l	-8.47027
me	-8.48311
for	-8.48497
Shogun	-8.48607
un	-8.49377
))	-8.49917
bu	-8.50448
▁compris	-8.50642
ryu	-8.516
▁mak	-8.51862
dai	-8.52113
Ko	-8.52248
▁Commu	-8.52599
kawa	-8.53023
51	-8.53066
▁respect	-8.53249
▁facilit	-8.53257
▁rail	-8.53278
▁#1	-8.53293
▁character	-8.53293
registered	-8.53293
≒	-8.53293
▁MATSUDAIRA	-8.53293
▁SAIONJI	-8.53293
▁castle	-8.53293
▁minutes	-8.53293
▁title	-8.53293
▁Prince	-8.53296
▁beginning	-8.53302
▁support	-8.53302
▁Hokan	-8.53308
▁29,	-8.5331
▁maj	-8.53315
▁eye	-8.53315
▁well	-8.53325
▁number	-8.53325
▁education	-8.53328
▁Seta	-8.53353
fuku	-8.53366
▁seem	-8.53369
ddle	-8.53389
yodo	-8.53396
▁enter	-8.53435
▁east	-8.53454
▁An	-8.53457
▁second	-8.53471
▁Shoki	-8.53484
▁pass	-8.53583
▁restored	-8.53618
▁peak	-8.53661
▁Shimeigatake	-8.5367
▁Kawasaki	-8.5367
▁Satsuma	-8.5367
▁shrine	-8.53673
▁area	-8.53716
il	-8.53724
▁another	-8.53857
▁24	-8.53911
current	-8.54163
▁Dai	-8.54189
▁sent	-8.54227
▁vassal	-8.54322
▁ver	-8.54403
▁present	-8.54499
da	-8.54878
lu	-8.54908
▁therefore	-8.54942
ound	-8.55017
000	-8.56082
ch	-8.56354
▁side	-8.56436
▁Ryo	-8.57032
▁take	-8.57258
▁Shi	-8.58013
tsu	-8.58333
of	-8.58821
grat	-8.59227
▁long	-8.5976
▁mo	-8.5988
▁8	-8.60578
▁Fu	-8.60603
ate	-8.60913
T	-8.60933
is	-8.6125
▁con	-8.61478
▁Kok	-8.62044
op	-8.62076
Miyakoji	-8.6271
Dogen	-8.62738
sai	-8.63044
ver	-8.63184
▁author	-8.63215
▁Keij	-8.63227
▁7	-8.63605
▁Ju	-8.63647
ally	-8.65007
▁year	-8.65571
▁names	-8.65631
▁W	-8.662
50	-8.66444
▁Al	-8.66477
▁referr	-8.66746
▁20	-8.669
ink	-8.66961
▁War	-8.67221
▁193	-8.67286
econd	-8.67373
ized	-8.67445
▁16	-8.67501
ffic	-8.67559
ught	-8.67574
▁Buddha	-8.67579
special	-8.67579
▁#2	-8.67579
▁Himemiko	-8.67579
▁Nippo	-8.67579
▁SHIMAZU	-8.67579
▁Working	-8.67579
▁famous	-8.67579
▁point	-8.67579
morning	-8.67579
▁entire	-8.67579
▁guardian	-8.67579
▁Bunko	-8.67579
▁caus	-8.67579
▁Ieyasu	-8.67581
▁music	-8.67581
▁contain	-8.67583
▁Shonagon	-8.67588
▁fall	-8.67594
taka	-8.67598
▁reform	-8.67602
▁Bridge	-8.6761
▁enemy	-8.67617
kyo	-8.67623
bara	-8.6765
▁located	-8.6765
▁preserved	-8.67667
baku	-8.6768
▁exist	-8.67711
▁tra	-8.67714
▁national	-8.67738
▁direction	-8.67836
▁dist	-8.68008
▁*	-8.68017
▁female	-8.68017
▁FUJIWARA	-8.68017
▁wife	-8.68018
▁Jingu	-8.68025
▁Hit	-8.68143
ess	-8.68414
▁cop	-8.68432
▁type	-8.68779
one	-8.69166
oe	-8.69184
▁Kami	-8.69265
▁17	-8.69282
elt	-8.69326
▁years	-8.69643
▁writing	-8.69652
D	-8.69714
ast	-8.6982
mon	-8.69894
▁Sh	-8.70243
▁idea	-8.70398
▁Hi	-8.70433
▁Mu	-8.70445
▁ran	-8.70533
oya	-8.70632
▁5,	-8.70812
▁Masahi	-8.70824
rai	-8.7083
▁se	-8.70951
▁13	-8.71051
▁Taka	-8.71087
▁Naka	-8.71869
od	-8.71912
▁Jun	-8.72561
▁Land	-8.73637
sure	-8.73745
ept	-8.73823
nt	-8.74123
served	-8.74363
gen	-8.75137
G	-8.75476
man	-8.75489
,'	-8.75559
▁g	-8.75725
▁track	-8.76598
00	-8.76676
▁see	-8.76762
▁dr	-8.76909
v	-8.77299
ide	-8.77583
▁ro	-8.78012
Fuji	-8.7898
TV	-8.79146
Naka	-8.79277
bon	-8.7938
Higashi	-8.79405
Ten	-8.79423
August	-8.79462
September	-8.79475
more	-8.79479
em	-8.79497
Kyoto	-8.79658
over	-8.79659
▁m	-8.80068
hashi	-8.80127
▁do	-8.80432
tomo	-8.80671
▁No	-8.80896
ha	-8.81562
hito	-8.81944
▁record	-8.82107
nce	-8.82483
▁9	-8.82528
▁open	-8.82803
ors	-8.82815
clud	-8.83057
▁Nag	-8.83478
▁pr	-8.83667
▁enthrone	-8.83733
▁plan	-8.8383
ting	-8.83904
each	-8.84125
▁worship	-8.8417
▁succe	-8.842
▁prince	-8.84201
zan	-8.84241
GAWA	-8.84245
Record	-8.84245
X	-8.84245
▁Electri	-8.84245
▁Palace	-8.84245
▁SHIBA	-8.84245
▁Volume	-8.84245
▁children	-8.84245
▁suggest	-8.84245
▁territory	-8.84245
▁travel	-8.84245
simila	-8.84246
▁Susanoo	-8.84246
▁country	-8.84246
▁garage	-8.84246
▁result	-8.84246
▁remain	-8.84246
▁Shimogyo	-8.84246
▁birth	-8.84246
▁love	-8.84247
▁Ministry	-8.84249
▁religio	-8.8425
▁Shinden	-8.84251
▁extend	-8.84251
▁male	-8.84257
▁lists	-8.84259
▁revision	-8.84262
▁museum	-8.84264
▁ancestor	-8.84265
nryaku	-8.84267
▁himself	-8.84276
▁represent	-8.84276
▁toward	-8.84277
▁Shinran	-8.84279
▁1872	-8.84283
circula	-8.84287
▁return	-8.84291
mitsu	-8.84299
▁six	-8.84304
▁south	-8.84305
▁moder	-8.8431
▁join	-8.84312
▁Commentary	-8.84325
▁1880	-8.84342
▁Art	-8.84359
▁ceremony	-8.84371
▁Rai	-8.84401
ship	-8.8445
▁teaching	-8.8446
▁Zenji	-8.84499
▁offer	-8.84499
amam	-8.84515
ry	-8.84635
▁seven	-8.84655
doro	-8.84669
▁sister	-8.8477
▁Koshaku	-8.84778
▁back	-8.84793
▁Shugo	-8.84798
▁railway	-8.84803
▁common	-8.8481
▁holidays	-8.84821
▁members	-8.84821
▁hand	-8.84986
▁belong	-8.85024
▁operating	-8.85125
by	-8.85235
▁issue	-8.853
story	-8.85458
▁Bus	-8.85558
orta	-8.8566
▁February	-8.85682
▁new	-8.85694
▁Waka	-8.85698
▁miko	-8.85716
▁Ryoma	-8.85747
emi	-8.85975
▁sc	-8.85976
he	-8.85979
▁189	-8.86003
history	-8.86324
▁make	-8.86401
▁Year	-8.86626
▁areas	-8.87621
▁read	-8.87742
▁For	-8.87854
▁yard	-8.88556
rush	-8.88602
▁Tsu	-8.88933
uita	-8.88976
▁En	-8.89395
▁inf	-8.89494
matsu	-8.89495
wo	-8.89987
▁comp	-8.90202
▁best	-8.90244
▁Se	-8.90297
20	-8.90312
▁Yamashi	-8.90798
▁fe	-8.90945
▁Am	-8.91573
im	-8.91659
ble	-8.91719
▁Hik	-8.91886
▁way	-8.92013
ashi	-8.92059
mili	-8.92708
▁ju	-8.92748
butsu	-8.92874
thing	-8.92926
once	-8.93839
ish	-8.9467
aku	-8.94864
▁cit	-8.94894
oto	-8.94923
myo	-8.95415
yu	-8.95469
▁mil	-8.95816
▁services	-8.96301
ba	-8.97
ad	-8.97173
Daish	-8.97892
▁187	-8.98086
▁Na	-8.98758
ory	-8.9889
▁Koya	-8.991
ex	-8.99183
10	-8.99248
mikoto	-8.99269
read	-8.9935
Fushimi	-8.99523
P	-8.99583
und	-8.99624
St	-8.99688
ijo	-8.99815
R	-8.99966
ian	-9.00593
yard	-9.00595
▁Fud	-9.0072
name	-9.01171
▁Han	-9.01248
55	-9.01871
ful	-9.02173
▁pro	-9.02345
val	-9.0258
aini	-9.02598
gu	-9.02742
→	-9.02848
▁Jo	-9.03604
▁photograph	-9.03657
olog	-9.0387
▁Zen	-9.03937
eparat	-9.04026
▁post	-9.04086
ng	-9.04143
word	-9.04151
ensho	-9.0416
hara	-9.04208
▁transport	-9.04245
nosuke	-9.04245
―	-9.04245
▁2001	-9.04245
▁2006	-9.04245
▁Branch	-9.04245
▁Collection	-9.04245
▁Daihiei	-9.04245
▁Protector	-9.04245
▁Special	-9.04245
▁Takamanohara	-9.04245
▁business	-9.04245
▁century	-9.04245
▁episode	-9.04245
▁genealogy	-9.04245
Kuwana	-9.04245
▁Kohata	-9.04245
OKA	-9.04246
▁Chizan	-9.04246
▁First	-9.04246
▁paper	-9.04246
▁reason	-9.04246
▁retreat	-9.04246
▁master	-9.04246
▁Daigo	-9.04246
▁lost	-9.04246
▁wrote	-9.04246
▁Later	-9.04247
xim	-9.04247
Aodani	-9.04248
▁center	-9.04248
▁retire	-9.04249
▁Area	-9.04249
Kameyama	-9.04249
▁alia	-9.04252
UR	-9.04253
▁construction	-9.04253
▁Sankanbon	-9.04255
▁Buzan	-9.04256
▁Sakaibon	-9.04257
▁distinguish	-9.04257
▁IKEDA	-9.04257
eral	-9.04258
▁resign	-9.04258
▁stay	-9.04261
▁Asahi	-9.04262
AMOTO	-9.04264
useum	-9.04265
▁478	-9.04266
▁poet	-9.04269
▁thus	-9.04271
▁speed	-9.04274
hood	-9.04279
▁Teishi	-9.0428
▁right	-9.04281
▁Mikako	-9.04281
▁strong	-9.04282
▁should	-9.04282
lower	-9.04285
▁1897	-9.04303
▁prev	-9.04303
▁display	-9.04305
▁bypass	-9.04305
ngine	-9.04305
▁Nakagawa	-9.04323
▁invit	-9.04324
▁Tan	-9.04326
▁1994	-9.04329
▁play	-9.0434
▁assume	-9.0435
▁things	-9.04359
▁nature	-9.04362
▁27	-9.04383
▁Translation	-9.04386
▁Fre	-9.04397
▁passes	-9.044
▁Ohara	-9.04401
▁cover	-9.04405
▁color	-9.04412
▁pillow	-9.0442
▁want	-9.04427
▁late	-9.0444
56	-9.04447
kuni	-9.04456
▁Hachi	-9.04465
▁facilities	-9.04477
version	-9.04503
▁conditions	-9.04508
▁Tada	-9.04513
▁Iwa	-9.04523
lot	-9.04558
▁Rail	-9.04601
▁location	-9.0461
▁noble	-9.04629
▁Fur	-9.04693
▁Oka	-9.04741
▁II	-9.04745
▁again	-9.04766
▁bro	-9.04795
86	-9.04829
▁Minister	-9.04898
▁Chief	-9.04899
▁style	-9.04899
▁Michichika	-9.04908
last	-9.04925
▁interest	-9.04934
▁State	-9.04941
side	-9.04953
▁Koso	-9.04953
▁Ota	-9.04989
▁plann	-9.04996
annot	-9.0508
Toyo	-9.05094
▁court	-9.05102
▁awar	-9.05127
▁Sakyo	-9.0517
wis	-9.0518
▁Ro	-9.05182
▁terms	-9.05448
▁show	-9.05461
▁meaning	-9.0552
3.	-9.05613
W	-9.05628
▁saying	-9.0573
▁Par	-9.05762
▁JCT	-9.06035
▁difficult	-9.06035
istorical	-9.06037
▁double	-9.06038
wide	-9.06194
▁minister	-9.06347
▁pres	-9.0645
▁evening	-9.06476
per	-9.06518
nin	-9.06791
▁His	-9.06978
▁kil	-9.07199
▁ric	-9.0722
▁view	-9.07281
▁near	-9.07418
▁5	-9.07451
▁rest	-9.07747
su	-9.08099
old	-9.08185
40	-9.0822
▁k	-9.08413
▁Yoshihisa	-9.08413
▁get	-9.08514
stand	-9.08578
moto	-9.08677
▁disciple	-9.08698
sama	-9.0903
▁Di	-9.09038
▁indicat	-9.09223
▁mikoto	-9.09803
ty	-9.09899
hiko	-9.10009
▁inte	-9.10828
▁TV	-9.10942
▁we	-9.11106
▁Un	-9.11249
▁rou	-9.11761
▁St	-9.11837
▁Og	-9.1208
▁Min	-9.12412
kaku	-9.12413
▁include	-9.12582
shima	-9.13051
▁Mor	-9.13547
iku	-9.13581
▁real	-9.13909
nci	-9.13943
ukai	-9.14002
4	-9.14028
thology	-9.14148
ran	-9.14198
▁Ten	-9.14464
ext	-9.1456
saka	-9.14645
0,	-9.14845
0	-9.15808
▁uncle	-9.16636
▁pre	-9.173
▁Nobu	-9.17457
▁Ken	-9.17475
titu	-9.17793
uki	-9.17799
▁us	-9.18437
muni	-9.18496
ya	-9.18588
dom	-9.18609
machi	-9.19073
tal	-9.19321
bat	-9.19371
order	-9.19994
▁ten	-9.20374
ud	-9.20667
am	-9.20913
▁Cho	-9.2144
J	-9.2166
▁Shim	-9.22064
om	-9.22196
eng	-9.22628
day	-9.2305
yoshu	-9.23201
bi	-9.23204
pe	-9.23221
▁i	-9.23515
pi	-9.23714
Amateru	-9.23993
57	-9.24014
later	-9.24091
Yoshihisa	-9.24142
▁Re	-9.24223
compris	-9.24352
built	-9.24411
part	-9.24462
brother	-9.24468
Sei	-9.24511
Japanese	-9.24595
TOKUGAWA	-9.24596
Yoshinobu	-9.24618
time	-9.24619
Shin	-9.24677
like	-9.2469
):	-9.24709
mei	-9.24713
13	-9.24916
eizo	-9.25011
▁doc	-9.25808
uman	-9.25837
oma	-9.26094
Sa	-9.2617
▁Be	-9.2621
▁21	-9.26502
▁lord	-9.27005
etc	-9.27074
▁origin	-9.27179
jingu	-9.27347
▁Is	-9.27389
▁sign	-9.27583
4,	-9.27755
shiro	-9.27797
gaku	-9.27822
zu	-9.27904
0.	-9.27952
▁relat	-9.27971
▁mean	-9.28439
sha	-9.28458
▁im	-9.28556
▁Kish	-9.28588
chu	-9.28695
nother	-9.28831
okuji	-9.28869
self	-9.2896
61	-9.29021
script	-9.29038
aff	-9.29049
▁Translat	-9.29065
even	-9.29071
ransfer	-9.29154
▁Lib	-9.29168
▁continu	-9.29232
Suzuka	-9.29245
hirumenomuchi	-9.29245
ubsequently	-9.29245
university	-9.29245
▁1914	-9.29245
▁2005	-9.29245
▁Baekje	-9.29245
▁Chinese	-9.29245
▁Echizen	-9.29245
▁Government	-9.29245
▁Infrastructure	-9.29245
▁Iruka	-9.29245
▁Jimukyoku	-9.29245
▁Kintsune	-9.29245
▁Limited	-9.29245
▁Naosuke	-9.29245
▁Province	-9.29245
▁Sekigahara	-9.29245
▁associat	-9.29245
▁depot	-9.29245
▁difference	-9.29245
▁employ	-9.29245
▁example	-9.29245
▁feeling	-9.29245
▁instead	-9.29245
▁intelligen	-9.29245
▁omikami	-9.29245
▁popular	-9.29245
▁pronounc	-9.29245
▁tradition	-9.29245
ASHI	-9.29245
emperor	-9.29245
nja	-9.29245
▁NISHI	-9.29245
▁Naidaijin	-9.29245
▁develop	-9.29245
▁legitima	-9.29245
Jidosha	-9.29246
UTA	-9.29246
cadem	-9.29246
▁1984	-9.29246
▁Shichijo	-9.29246
▁qui	-9.29246
▁stopped	-9.29246
▁house	-9.29246
▁Nanzan	-9.29246
▁description	-9.29246
▁honor	-9.29246
expect	-9.29246
Eihei	-9.29246
evaluat	-9.29246
▁content	-9.29247
▁decision	-9.29247
▁household	-9.29247
▁further	-9.29247
▁tru	-9.29247
▁Sciences	-9.29248
▁arriv	-9.29248
YAMA	-9.29248
▁arts	-9.29248
▁chosen	-9.29248
▁kind	-9.29248
▁Tomo	-9.29248
SHIDA	-9.29249
usubi	-9.29249
▁ICHIJO	-9.2925
▁information	-9.29251
▁coup	-9.29251
▁Kinmune	-9.29252
▁Kinmochi	-9.29253
▁lute	-9.29254
▁begin	-9.29257
▁generation	-9.29257
Shinagawa	-9.29259
▁1991	-9.2926
▁Hamamatsu	-9.29261
▁2004	-9.29264
▁divided	-9.29265
▁descend	-9.29266
▁1992	-9.29269
▁maintain	-9.29271
ventually	-9.29271
ultur	-9.29272
▁1948	-9.29277
▁1867	-9.2928
▁History	-9.29281
▁1946	-9.29286
▁Kotoku	-9.29288
▁send	-9.29289
▁1887	-9.29291
▁14	-9.29296
▁1878	-9.29298
▁ob	-9.293
▁Yoko	-9.29305
umera	-9.29306
▁Shun	-9.29306
▁recent	-9.2931
▁learn	-9.29315
▁elder	-9.29319
tters	-9.2932
sidence	-9.29321
▁listed	-9.29327
▁highest	-9.29329
▁Tenri	-9.29332
▁thir	-9.29333
▁Toba	-9.29337
▁26	-9.29341
▁Taika	-9.29341
angu	-9.29342
1968	-9.29356
▁Object	-9.2936
▁successor	-9.29373
▁moon	-9.29374
▁Broadcasting	-9.29375
nami	-9.29382
▁Note	-9.29385
▁28	-9.29385
bashi	-9.29392
▁Kuni	-9.29407
▁25	-9.2941
▁Reg	-9.29426
▁manage	-9.29435
Nakatsu	-9.29466
▁Tairo	-9.29483
▁gold	-9.29497
▁opposit	-9.29499
gyo	-9.29509
▁worshipped	-9.29512
▁Take	-9.29516
▁separat	-9.29528
▁relation	-9.29533
▁Kam	-9.29535
▁classes	-9.29559
▁status	-9.29591
▁Miya	-9.29594
▁SA	-9.29601
▁Hiroshi	-9.29611
▁starting	-9.29612
▁Studies	-9.29617
▁lived	-9.29625
▁Noin	-9.29652
▁Joi	-9.29656
▁Hisa	-9.29696
koma	-9.29723
bid	-9.29735
rima	-9.29769
▁103	-9.29784
udie	-9.29807
▁photography	-9.29853
▁fish	-9.29871
▁site	-9.29872
▁Ishi	-9.29876
▁Hama	-9.29922
fu	-9.29952
llowed	-9.2997
▁specified	-9.29973
tories	-9.29981
▁started	-9.30003
ately	-9.30038
▁enthroned	-9.30053
▁ATS	-9.30099
▁poem	-9.30107
▁Izanagi	-9.30108
▁praise	-9.30115
▁office	-9.30115
▁Kusatsu	-9.30116
ommentary	-9.30152
▁share	-9.30157
▁Other	-9.30166
▁provinces	-9.3019
▁letters	-9.30193
▁assign	-9.30204
▁Nishi	-9.30216
▁study	-9.30216
ITA	-9.30243
▁edit	-9.30307
▁relative	-9.30369
▁Kar	-9.30382
unsho	-9.30476
ince	-9.30501
▁66	-9.30514
▁Kita	-9.30549
emb	-9.30586
rying	-9.30609
ved	-9.30698
▁Jin	-9.30737
▁sh	-9.30773
lation	-9.30856
▁pat	-9.30875
▁End	-9.30928
▁Ashi	-9.30965
▁All	-9.31015
reserved	-9.3108
ust	-9.31155
▁Saga	-9.31399
▁fac	-9.31473
▁1988	-9.31608
▁chief	-9.31614
▁KATSU	-9.31614
▁single	-9.3162
ness	-9.31739
mono	-9.31743
memo	-9.31758
▁Sc	-9.32045
imp	-9.32061
grand	-9.32121
ope	-9.32146
scal	-9.32204
▁sl	-9.32211
▁Ii	-9.32282
▁Also	-9.32381
▁Koka	-9.32632
▁records	-9.32693
▁Den	-9.32717
▁Ka	-9.33094
▁turn	-9.33142
▁hour	-9.33194
▁Chuo	-9.33407
much	-9.33864
DE	-9.33999
▁Akita	-9.34139
ormerly	-9.34638
▁inter	-9.34657
▁20.	-9.34658
▁Amateru	-9.34787
▁later	-9.34965
▁mis	-9.35053
04	-9.35323
▁followed	-9.35382
pped	-9.35444
▁Heav	-9.35489
Keihan	-9.35533
▁exp	-9.36002
▁nin	-9.36292
▁stand	-9.36499
▁describe	-9.36641
70	-9.36869
atur	-9.36939
tting	-9.37094
▁So	-9.37168
▁Shrines	-9.37233
ior	-9.3744
▁188	-9.37671
▁col	-9.3779
▁manuscripts	-9.37897
▁Ama	-9.37988
ice	-9.38168
▁Fuji	-9.38649
atsu	-9.38778
▁any	-9.38868
▁Gener	-9.39092
▁foreign	-9.3934
▁unit	-9.39536
▁2.	-9.39805
49	-9.40218
89	-9.40391
Aizu	-9.40396
▁fin	-9.40977
▁Ku	-9.41283
ident	-9.41472
samu	-9.41703
war	-9.42594
▁my	-9.42967
▁clans	-9.43352
▁sections	-9.43518
clear	-9.43672
▁Ho	-9.43844
ck	-9.43847
ame	-9.43949
ct	-9.43981
IN	-9.4445
▁Kus	-9.44533
▁argue	-9.44736
▁com	-9.44822
▁myth	-9.44844
ushi	-9.45204
umo	-9.45732
ous	-9.45912
estern	-9.4607
▁Ch	-9.46154
77	-9.4616
▁comm	-9.46436
mu	-9.46572
▁1.	-9.46776
▁Ke	-9.4725
▁noted	-9.47289
▁str	-9.47462
▁Mo	-9.47576
de	-9.47634
▁times	-9.47669
ology	-9.47744
kata	-9.48012
awa	-9.48059
cation	-9.48978
otoku	-9.49025
▁Hei	-9.50387
hiro	-9.50827
▁Yama	-9.50887
uri	-9.51305
▁set	-9.52683
iver	-9.52982
58	-9.53002
▁Bu	-9.5373
▁stre	-9.53905
rest	-9.54725
ative	-9.55112
aven	-9.55313
▁Su	-9.5612
top	-9.56138
▁190	-9.56183
U	-9.56401
number	-9.56449
Shim	-9.56874
Y	-9.57059
V	-9.57064
organiz	-9.57086
daijin	-9.57119
▁sur	-9.57203
▁har	-9.57269
▁design	-9.57276
L	-9.57327
turn	-9.57338
Chuo	-9.57345
hour	-9.57491
view	-9.57513
Year	-9.57582
JNR	-9.57872
first	-9.57894
chapters	-9.57906
18	-9.57941
near	-9.57947
Daimyo	-9.57956
road	-9.57999
Otsu	-9.5801
Osaka	-9.58034
who	-9.58037
11	-9.58055
Oct	-9.58271
commen	-9.58513
sue	-9.58616
▁term	-9.58748
this	-9.58926
did	-9.59298
meters	-9.59475
▁Shins	-9.59518
bet	-9.59588
west	-9.59603
KI	-9.59808
hoko	-9.60006
▁historic	-9.6003
▁mar	-9.60069
▁monk	-9.60121
ick	-9.60164
So	-9.60166
▁Fo	-9.60431
▁chapter	-9.60662
▁reach	-9.60693
▁execut	-9.6087
days	-9.61194
kaido	-9.6148
▁Mon	-9.61605
ities	-9.61866
Mi	-9.61935
▁instruct	-9.61992
reat	-9.62012
▁know	-9.62013
▁Th	-9.62024
▁star	-9.62133
istic	-9.62163
ction	-9.62179
▁arm	-9.62216
▁co	-9.62229
▁activ	-9.62261
▁close	-9.62269
▁cour	-9.6228
▁respective	-9.62343
▁Saky	-9.62356
ubjugat	-9.62389
bject	-9.62419
entral	-9.62449
oncubine	-9.62455
▁Chu	-9.62458
complete	-9.62467
loodl	-9.62469
▁House	-9.62555
goin	-9.6256
servation	-9.62567
bas	-9.62572
MURA	-9.62578
zen	-9.62579
▁grave	-9.62579
▁occu	-9.62579
AGA	-9.62579
Kuroshio	-9.62579
Sekimukai	-9.62579
avoid	-9.62579
interchange	-9.62579
lacquer	-9.62579
xtravagant	-9.62579
▁Amenooshihomimi	-9.62579
▁Bosatsu	-9.62579
▁Education	-9.62579
▁English	-9.62579
▁Fujiwara	-9.62579
▁Industries	-9.62579
▁Mountain	-9.62579
▁NAKANE	-9.62579
▁Period	-9.62579
▁Publishing	-9.62579
▁SHIBUSAWA	-9.62579
▁Shichiromaro	-9.62579
▁Shunjusha	-9.62579
▁Works	-9.62579
▁advisor	-9.62579
▁attempt	-9.62579
▁conduct	-9.62579
▁confrontation	-9.62579
▁dawn	-9.62579
▁depict	-9.62579
▁details	-9.62579
▁discussion	-9.62579
▁enlightenment	-9.62579
▁extreme	-9.62579
▁flourish	-9.62579
▁grandchild	-9.62579
▁messenger	-9.62579
▁nickname	-9.62579
▁nobility	-9.62579
▁permission	-9.62579
▁question	-9.62579
▁reminiscence	-9.62579
▁request	-9.62579
▁respon	-9.62579
▁secret	-9.62579
▁stipend	-9.62579
▁suppress	-9.62579
▁typical	-9.62579
慶	-9.62579
神	-9.62579
▁Kogyoku	-9.62579
Hienoyama	-9.62579
▁672	-9.62579
▁relocat	-9.62579
▁split	-9.62579
枕	-9.62579
▁confirmed	-9.62579
Kakegawa	-9.62579
Okazaki	-9.62579
gishiki	-9.62579
▁large	-9.62579
alternat	-9.62579
amateru	-9.62579
avor	-9.62579
▁contribut	-9.62579
▁model	-9.62579
Numazu	-9.62579
appoint	-9.62579
▁account	-9.62579
▁break	-9.62579
▁Drive	-9.6258
▁small	-9.6258
▁Okimi	-9.6258
▁cases	-9.6258
▁Hakase	-9.6258
blade	-9.6258
Shimada	-9.6258
▁China	-9.6258
▁park	-9.6258
▁Iz	-9.62581
▁34.	-9.62581
▁achieve	-9.62582
Shinpan	-9.62582
▁famili	-9.62582
ITO	-9.62582
▁Saicho	-9.62583
usukin	-9.62583
▁regula	-9.62583
warrior	-9.62584
▁Iesada	-9.62584
▁commented	-9.62584
▁promoted	-9.62584
▁Center	-9.62585
▁lane	-9.62585
Honbyo	-9.62586
▁spine	-9.62586
merge	-9.62587
istrict	-9.62589
▁Gyozan	-9.62589
hind	-9.62591
Izanami	-9.62591
▁2008	-9.62592
▁state	-9.62592
NAKA	-9.62592
olv	-9.62592
▁priest	-9.62592
▁shogunate	-9.62593
▁scene	-9.62594
▁practice	-9.62595
▁humani	-9.62597
▁home	-9.62599
▁regard	-9.62602
▁merged	-9.62603
▁1866	-9.62605
▁1921	-9.62606
▁settle	-9.6261
▁rather	-9.6261
hime	-9.62612
▁1996	-9.62613
uzun	-9.62613
▁Daikaku	-9.62615
▁Yomi	-9.62618
▁north	-9.62619
future	-9.62621
▁Edition	-9.62622
tial	-9.62624
▁1902	-9.62631
▁Thereafter	-9.62631
▁Iey	-9.62633
▁hold	-9.62635
▁1907	-9.62636
Makura	-9.62639
roduced	-9.62639
▁block	-9.6264
ensus	-9.6264
▁Saimei	-9.6264
▁Taishogun	-9.62643
▁Even	-9.62651
guard	-9.62652
Ameno	-9.62656
▁link	-9.62668
▁1875	-9.62669
suka	-9.6267
▁Yori	-9.62671
▁1913	-9.62672
▁carrie	-9.62674
▁1901	-9.62675
▁1873	-9.62678
possible	-9.6268
▁Mitsu	-9.62686
▁entr	-9.62689
▁Kaga	-9.62691
▁congestion	-9.62696
▁1910	-9.62697
▁field	-9.62698
taimei	-9.62701
▁concubine	-9.62702
▁1869	-9.62706
▁plot	-9.62708
▁Central	-9.62717
ONO	-9.62719
usual	-9.6272
▁1895	-9.6272
▁fire	-9.62722
▁simpl	-9.62729
urren	-9.62733
lect	-9.62749
▁110	-9.62754
▁painting	-9.62767
▁port	-9.62767
essay	-9.62769
▁date	-9.62769
akusho	-9.62772
aya	-9.62773
akko	-9.62785
▁122	-9.62803
▁techn	-9.62807
▁subjugat	-9.62808
nishi	-9.62812
▁cha	-9.62814
▁Genji	-9.62822
▁particularly	-9.62823
▁creat	-9.62831
1983	-9.62859
Hea	-9.62863
postscript	-9.62867
▁commu	-9.62868
▁Law	-9.62875
▁defeat	-9.62884
▁47	-9.62892
kyoku	-9.62893
▁Seki	-9.62896
▁declined	-9.62903
▁Shiki	-9.62914
▁battle	-9.62922
Tanba	-9.62927
▁IS	-9.62955
▁assassinated	-9.62968
▁respectively	-9.62968
▁electrified	-9.6297
▁Taisho	-9.63002
▁operat	-9.63023
▁Jito	-9.63057
acult	-9.63065
▁gate	-9.63067
▁scholars	-9.63084
cross	-9.63091
ACHI	-9.63093
ccess	-9.63117
▁lead	-9.63118
asically	-9.63122
icipate	-9.63142
▁changes	-9.63153
▁Treasure	-9.63154
▁Reng	-9.63176
miya	-9.63182
▁Sect	-9.63183
kiyo	-9.63191
▁Cable	-9.63196
▁TA	-9.63216
ited	-9.63218
▁Amatsu	-9.63232
▁Pur	-9.63249
fficial	-9.6327
lay	-9.63278
▁pers	-9.63342
▁addition	-9.63393
muse	-9.63428
urth	-9.63484
urik	-9.63502
▁closed	-9.63509
▁tri	-9.63524
1-1	-9.63536
▁prim	-9.63635
eave	-9.63646
UN	-9.63683
ouris	-9.6369
▁Mori	-9.63699
dori	-9.63707
1998	-9.63755
▁1982	-9.63836
▁agree	-9.63841
▁ABE	-9.63841
▁parent	-9.63842
▁Life	-9.63843
▁don	-9.63851
▁Eizan	-9.63858
▁notation	-9.63882
▁appro	-9.63931
▁100	-9.63942
▁volumes	-9.63959
ists	-9.63983
▁enshrine	-9.6412
▁Kit	-9.64152
▁192	-9.64239
▁Hak	-9.64254
▁mid	-9.64286
king	-9.64301
bun	-9.64311
▁executed	-9.64317
▁TSU	-9.64335
▁Toku	-9.64366
runn	-9.64385
termin	-9.64403
▁Taish	-9.64426
▁reading	-9.64453
bow	-9.64527
▁event	-9.64543
▁met	-9.64702
▁expression	-9.64886
zane	-9.64936
▁fil	-9.6495
▁historical	-9.65199
EN	-9.65221
▁fre	-9.65259
Shik	-9.65296
▁Lo	-9.65392
▁Scho	-9.65435
▁boy	-9.65449
45	-9.65594
▁signs	-9.65754
▁lords	-9.6579
▁186	-9.6595
▁privatiz	-9.65952
▁44	-9.66051
▁completed	-9.66077
▁come	-9.66223
Yu	-9.66352
▁Saka	-9.66432
cla	-9.66463
▁21.	-9.66668
rial	-9.66727
▁Jome	-9.66793
▁wom	-9.66949
▁sit	-9.67006
▁Medic	-9.6707
range	-9.67175
▁Engineer	-9.67223
▁31	-9.67269
some	-9.67341
55.	-9.67678
yag	-9.67827
nsei	-9.68243
Sanjo	-9.68253
▁meters	-9.68266
▁Ei	-9.683
▁organiz	-9.68423
▁war	-9.68737
cy	-9.68814
ating	-9.68869
omei	-9.68888
ier	-9.69031
▁5.	-9.69068
ied	-9.69296
▁Refer	-9.69306
fied	-9.69406
numbers	-9.6942
▁Yuk	-9.69515
▁kee	-9.6958
▁bu	-9.70278
▁groups	-9.70519
▁57	-9.70768
mm	-9.70783
▁Nor	-9.70795
▁Yoshitom	-9.70942
▁Kazu	-9.70965
OG	-9.71337
▁Nin	-9.71397
refore	-9.71662
up	-9.71726
▁daijin	-9.72005
▁By	-9.72102
▁inv	-9.72549
bor	-9.72923
▁Man	-9.73138
ron	-9.73323
hige	-9.73325
ves	-9.74137
hap	-9.74197
▁Wa	-9.74524
▁aut	-9.75077
▁Yoshis	-9.75123
▁training	-9.75618
▁35	-9.7668
older	-9.76746
▁My	-9.77021
63	-9.77039
9,	-9.7819
dia	-9.78383
▁Kig	-9.79058
81	-9.79093
ree	-9.79863
ua	-9.80077
▁Soto	-9.80164
akata	-9.80361
ave	-9.80579
roku	-9.80715
Gok	-9.80962
▁Koda	-9.81428
uiju	-9.81583
her	-9.8179
let	-9.82168
42	-9.82588
▁121	-9.82598
act	-9.82619
gain	-9.8285
▁Masa	-9.83953
rar	-9.83981
oted	-9.84417
76	-9.85002
ade	-9.85031
9)	-9.8504
ot	-9.85985
asu	-9.86066
▁aim	-9.86306
▁off	-9.86458
31	-9.86523
▁MI	-9.87135
▁revi	-9.87362
▁Tos	-9.87397
▁196	-9.88635
▁Fi	-9.88737
▁4,	-9.88743
ori	-9.89633
▁199	-9.89651
▁identi	-9.89658
ip	-9.8996
ization	-9.91253
▁Yo	-9.91275
▁secure	-9.91994
▁compl	-9.94391
▁Age	-9.94436
vi	-9.95733
Sh	-9.95867
present	-9.96868
▁Gen	-9.96904
polit	-9.9702
erous	-9.97076
minister	-9.97159
reaty	-9.97465
▁describ	-9.97535
▁Katsu	-9.97592
publi	-9.97793
ital	-9.98341
take	-9.98386
▁Kink	-9.9851
ria	-9.98857
mos	-9.98911
90	-9.99073
▁ye	-9.99343
▁Rui	-9.99421
▁Takam	-9.99509
rui	-9.99682
IC	-9.9999
his	-10.0137
▁serve	-10.0142
works	-10.0164
sushi	-10.019
▁Inte	-10.0268
nsha	-10.0279
hi	-10.0394
air	-10.0419
uchi	-10.0533
eru	-10.0594
dono	-10.0618
19	-10.0619
ture	-10.0638
iyama	-10.0655
▁gran	-10.0656
oute	-10.0683
acc	-10.0693
Saka	-10.0701
Kag	-10.0706
▁privat	-10.073
KATSU	-10.0739
chief	-10.074
1988	-10.0741
▁Maeda	-10.0742
position	-10.0747
Atsu	-10.0753
difficult	-10.0754
JCT	-10.0754
single	-10.076
MOTO	-10.0761
Koka	-10.0762
February	-10.0763
Waka	-10.0763
44	-10.0763
Ryoma	-10.0765
For	-10.077
type	-10.0772
vassal	-10.0774
double	-10.0774
2003	-10.0777
Jun	-10.0778
com	-10.0784
January	-10.0784
F	-10.0784
form	-10.079
after	-10.0791
where	-10.0791
Tokugawa	-10.0794
daughter	-10.0794
Class	-10.0797
Hiei	-10.0797
Man	-10.0797
Shomyo	-10.0797
Japan	-10.0798
which	-10.08
completed	-10.08
(	-10.08
with	-10.0801
Shogunate	-10.0808
▁appea	-10.083
book	-10.0838
▁Aki	-10.0852
▁Tra	-10.0854
Kyo	-10.0857
▁medi	-10.0858
miko	-10.0871
▁Ky	-10.0877
Go	-10.09
▁Kor	-10.0904
Hon	-10.0948
Og	-10.0989
Ta	-10.0996
count	-10.1001
TOMI	-10.1003
▁inspection	-10.1014
▁level	-10.1014
▁pronunciation	-10.1014
▁weekday	-10.1014
▁provi	-10.1033
▁volume	-10.1036
▁letter	-10.1047
▁province	-10.1049
▁opera	-10.1049
▁holiday	-10.1056
▁member	-10.1056
▁driv	-10.1062
▁locomotive	-10.1067
ealth	-10.1075
▁start	-10.1082
▁specifi	-10.1094
▁curr	-10.1105
▁establish	-10.111
ddition	-10.1126
▁soci	-10.1135
nivers	-10.1136
▁restor	-10.1137
ious	-10.1139
Li	-10.1149
zed	-10.116
ult	-10.1174
▁Prefectur	-10.1175
ories	-10.1179
▁lea	-10.1183
UCHI	-10.1184
▁dec	-10.1189
▁lat	-10.1196
▁decline	-10.1205
acilities	-10.1209
rce	-10.121
▁ceremon	-10.1214
▁car	-10.1214
hough	-10.1216
new	-10.122
echnic	-10.1221
▁particular	-10.1221
▁teach	-10.1223
log	-10.1224
airin	-10.1224
ix	-10.1237
shina	-10.1238
▁(19	-10.1238
▁congest	-10.1239
shihi	-10.1239
▁educat	-10.1241
▁Hide	-10.1243
▁oppos	-10.1245
rban	-10.1245
Amateras	-10.1245
▁success	-10.1245
raft	-10.1246
umber	-10.1246
akura	-10.1247
roperty	-10.125
assenger	-10.125
UJI	-10.125
▁divi	-10.1253
tinguish	-10.1254
nitially	-10.1255
▁Express	-10.1256
▁eas	-10.1256
duce	-10.1256
iwake	-10.1256
▁trans	-10.1257
▁reli	-10.1257
▁ISHI	-10.1257
▁resi	-10.1257
nagon	-10.1257
▁equi	-10.1258
MAEDA	-10.1258
▁individual	-10.1258
▁nakatsukuni	-10.1258
YASU	-10.1258
▁capabilit	-10.1258
▁confid	-10.1258
▁doubt	-10.1258
!	-10.1258
?	-10.1258
Hodogaya	-10.1258
JIMA	-10.1258
Midaidokoro	-10.1258
Tsukuyomi	-10.1258
UMA	-10.1258
Yokkaichi	-10.1258
ZAWA	-10.1258
iterature	-10.1258
literally	-10.1258
mattress	-10.1258
quar	-10.1258
terpretations	-10.1258
throwing	-10.1258
witch	-10.1258
▁#45	-10.1258
▁1915)	-10.1258
▁Amenohoakari	-10.1258
▁Campus	-10.1258
▁Geograph	-10.1258
▁Godaigo	-10.1258
▁HATANO	-10.1258
▁HOJO	-10.1258
▁HORIKAWA	-10.1258
▁HOSOKAWA	-10.1258
▁Hidetada	-10.1258
▁Hiroyasu	-10.1258
▁KAGAMISHIMA	-10.1258
▁Kuwashi	-10.1258
▁Lectures	-10.1258
▁Moshitsugi	-10.1258
▁Motofusa	-10.1258
▁People	-10.1258
▁Photograph	-10.1258
▁Poems	-10.1258
▁Publi	-10.1258
▁SHINMURA	-10.1258
▁System	-10.1258
▁Taoism	-10.1258
▁YAMAZAKI	-10.1258
▁Zuiso	-10.1258
▁advantage	-10.1258
▁announce	-10.1258
▁calendar	-10.1258
▁childhood	-10.1258
▁circumstance	-10.1258
▁conflict	-10.1258
▁consequently	-10.1258
▁countries	-10.1258
▁destination	-10.1258
▁destroy	-10.1258
▁disadvantage	-10.1258
▁dynasty	-10.1258
▁effort	-10.1258
▁equipment	-10.1258
▁financial	-10.1258
▁hobbies	-10.1258
▁increased	-10.1258
▁necessary	-10.1258
▁newspaper	-10.1258
▁parallel	-10.1258
▁possession	-10.1258
▁principle	-10.1258
▁problem	-10.1258
▁relax	-10.1258
▁revolution	-10.1258
▁scheme	-10.1258
▁structure	-10.1258
▁subordinates	-10.1258
▁territories	-10.1258
▁vehicles	-10.1258
▁violent	-10.1258
▁wooden	-10.1258
ア	-10.1258
天照大御神	-10.1258
子	-10.1258
枕草子	-10.1258
Steamliner	-10.1258
▁Ninigi	-10.1258
▁emphasize	-10.1258
▁length	-10.1258
▁picture	-10.1258
▁remove	-10.1258
9633	-10.1258
Gizan	-10.1258
Hirume	-10.1258
ccasion	-10.1258
▁2002	-10.1258
▁Associat	-10.1258
▁Daijusho	-10.1258
▁Design	-10.1258
▁Myozen	-10.1258
▁TAKA	-10.1258
▁elevat	-10.1258
▁junction	-10.1258
▁lifted	-10.1258
▁magazines	-10.1258
▁okami	-10.1258
▁polic	-10.1258
▁quali	-10.1258
▁require	-10.1258
▁rough	-10.1258
▁soldier	-10.1258
Hiratsuka	-10.1258
propriety	-10.1258
▁#160	-10.1258
▁1233	-10.1258
▁1972	-10.1258
▁Biwako	-10.1258
▁apparent	-10.1258
▁matter	-10.1258
▁northeast	-10.1258
▁watch	-10.1258
raduate	-10.1258
▁Army	-10.1258
▁Business	-10.1258
▁belie	-10.1258
▁jottings	-10.1258
▁pardon	-10.1258
▁Sanekane	-10.1258
▁MATSUD	-10.1258
▁highlight	-10.1258
▁purp	-10.1258
▁NAKAMURA	-10.1258
ivil	-10.1258
▁girl	-10.1258
▁pork	-10.1258
▁roots	-10.1258
▁concern	-10.1258
▁spots	-10.1258
▁1954	-10.1258
▁IMA	-10.1258
▁Otaru	-10.1258
▁54.	-10.1258
▁pull	-10.1258
Yoshinaga	-10.1258
▁OKUBO	-10.1258
▁expert	-10.1258
▁Garden	-10.1258
▁sentiment	-10.1258
▁defin	-10.1258
▁material	-10.1258
▁subject	-10.1258
yashiki	-10.1258
▁Jaku	-10.1258
▁ancest	-10.1258
▁article	-10.1258
▁weakened	-10.1258
Flam	-10.1258
▁Owari	-10.1258
▁bakufu	-10.1258
▁culture	-10.1258
1-4	-10.1258
1859	-10.1258
season	-10.1258
phon	-10.1258
▁novel	-10.1258
icul	-10.1258
▁TAMAKI	-10.1258
Odawara	-10.1258
Fukuroi	-10.1258
▁Iemitsu	-10.1258
▁diary	-10.1258
▁hill	-10.1258
▁Medicine	-10.1258
rawn	-10.1258
▁(12	-10.1258
▁cap	-10.1258
isplay	-10.1258
▁omitted	-10.1258
▁beautiful	-10.1258
▁deep	-10.1258
ATE	-10.1258
Fujisawa	-10.1258
▁complicated	-10.1258
▁taste	-10.1258
Totsuka	-10.1258
cycl	-10.1258
certain	-10.1259
▁falsifi	-10.1259
▁Hokur	-10.1259
▁refuse	-10.1259
▁iwato	-10.1259
▁illness	-10.1259
▁function	-10.1259
▁foot	-10.1259
▁Rebellion	-10.1259
▁Kanaz	-10.1259
▁shogun	-10.1259
▁several	-10.1259
bellion	-10.126
Goryo	-10.126
upervis	-10.126
▁data	-10.126
fusa	-10.126
▁measure	-10.126
▁KOGA	-10.126
▁intention	-10.126
fense	-10.126
Chiryu	-10.126
▁elde	-10.126
▁dictionary	-10.126
▁1864	-10.126
▁HIRA	-10.126
▁biography	-10.1261
▁slope	-10.1261
oward	-10.1261
patche	-10.1261
With	-10.1261
▁plate	-10.1261
▁1884	-10.1261
OCHI	-10.1261
▁(1.1	-10.1261
▁Residence	-10.1261
▁Ropeway	-10.1261
rotect	-10.1261
kyu	-10.1261
syllab	-10.1261
▁initially	-10.1261
minal	-10.1261
▁wield	-10.1262
▁cancel	-10.1262
ousehold	-10.1262
▁initia	-10.1262
▁month	-10.1262
▁tunnel	-10.1262
▁Tsuneko	-10.1262
▁lives	-10.1262
▁645	-10.1263
08	-10.1263
▁1874	-10.1263
TANI	-10.1263
▁Shotoku	-10.1263
iraka	-10.1263
▁tell	-10.1263
▁Corporation	-10.1263
▁vo	-10.1264
▁chant	-10.1264
▁replace	-10.1264
harm	-10.1264
▁must	-10.1264
Port	-10.1264
▁short	-10.1264
▁mater	-10.1265
▁1997	-10.1265
▁1928	-10.1265
▁1868	-10.1265
012	-10.1265
daimyo	-10.1265
▁Hikone	-10.1265
▁Ryonin	-10.1265
▁negotiation	-10.1266
obunkan	-10.1266
pened	-10.1266
▁passenger	-10.1266
▁1922	-10.1266
▁Vi	-10.1266
▁property	-10.1266
▁1976	-10.1267
847	-10.1267
▁Shinbun	-10.1267
▁1888	-10.1267
▁Royal	-10.1267
▁1905	-10.1267
Moriguchi	-10.1267
▁nationalized	-10.1267
▁explain	-10.1268
Katsuragi	-10.1268
Kobu	-10.1268
llow	-10.1268
▁381	-10.1268
soft	-10.1268
▁1885	-10.1269
▁Survey	-10.1269
cious	-10.1269
▁restoration	-10.1269
Hirakata	-10.1269
guchi	-10.1269
▁Network	-10.1269
▁Nochi	-10.1269
vant	-10.1269
▁Tetsu	-10.1269
▁Alliance	-10.127
▁Yataka	-10.127
▁surround	-10.127
▁Bunky	-10.127
makura	-10.127
gallery	-10.127
▁1958	-10.1271
▁depart	-10.1271
▁incorporat	-10.1271
▁Pos	-10.1271
▁craft	-10.1271
▁46.	-10.1272
▁understand	-10.1272
▁1970	-10.1272
▁1908	-10.1273
▁Kasa	-10.1273
▁continuously	-10.1273
istry	-10.1273
scend	-10.1273
▁Sakurada	-10.1273
▁attendant	-10.1273
▁room	-10.1273
Moso	-10.1273
▁independent	-10.1273
▁anti	-10.1274
Fujieda	-10.1274
lways	-10.1274
dani	-10.1274
Shimei	-10.1275
▁Yana	-10.1276
▁bloodl	-10.1276
▁Bogy	-10.1276
▁41	-10.1276
earing	-10.1276
▁106	-10.1277
▁1893	-10.1277
▁1961	-10.1278
cience	-10.1278
emp	-10.1278
626	-10.1278
▁Gaku	-10.1278
▁Kozu	-10.1278
37.	-10.1279
▁above	-10.1279
▁Kata	-10.1279
sleep	-10.128
▁prospe	-10.128
▁Jodo	-10.1281
▁princess	-10.1283
ridge	-10.1283
▁Ikoma	-10.1284
▁gre	-10.1284
ibrary	-10.1284
▁Kawa	-10.1286
▁Gate	-10.1286
▁1886	-10.1286
▁feature	-10.1287
gon	-10.1287
▁1950	-10.1287
▁Comme	-10.1287
▁Hira	-10.1287
DO	-10.1289
tory	-10.1289
horyo	-10.129
attai	-10.129
▁marke	-10.129
▁Ritt	-10.129
▁char	-10.1291
▁Mika	-10.1291
▁1960	-10.1291
▁meeting	-10.1292
shimo	-10.1292
▁broadcasting	-10.1292
▁photographer	-10.1292
▁del	-10.1294
▁cities	-10.1294
usha	-10.1294
En	-10.1294
▁attain	-10.1295
▁Operation	-10.1295
ordin	-10.1297
▁owners	-10.1297
▁Doh	-10.1299
ukiyo	-10.1299
chika	-10.13
▁pun	-10.13
Keik	-10.13
hese	-10.1301
▁heart	-10.1301
▁trac	-10.1301
aint	-10.1302
▁ill	-10.1303
▁Koun	-10.1304
▁afterword	-10.1306
▁rais	-10.1306
▁Shira	-10.1306
▁edition	-10.1306
▁prove	-10.1308
▁Kyokun	-10.1308
ugu	-10.1309
lant	-10.1309
1926	-10.131
▁1962	-10.1311
▁analog	-10.1312
uhito	-10.1312
▁itself	-10.1313
razo	-10.1314
▁Sakai	-10.1315
▁Today	-10.1315
▁East	-10.1315
council	-10.1315
▁wind	-10.1315
▁Soga	-10.1315
wake	-10.1315
▁Hidey	-10.1316
▁deci	-10.1317
▁Daijo	-10.1317
▁1862	-10.1319
▁consistent	-10.1321
▁Tott	-10.1322
kaga	-10.1325
firm	-10.1325
46	-10.1326
oyal	-10.1326
▁32	-10.1328
▁wit	-10.133
▁Takato	-10.1331
ively	-10.1331
▁Zo	-10.1331
▁Rest	-10.1332
rine	-10.1333
azak	-10.1334
OHARA	-10.1335
160	-10.1336
▁1939	-10.1338
▁Lord	-10.1346
▁mention	-10.1346
▁categorize	-10.135
80	-10.1351
umul	-10.1354
▁instructor	-10.1354
▁incr	-10.1355
Takatsu	-10.1356
azuk	-10.1357
udge	-10.1358
▁freel	-10.1358
▁Gyo	-10.1359
▁(199	-10.136
▁1930	-10.1361
call	-10.1365
▁hun	-10.1371
▁distin	-10.1371
600	-10.1375
lock	-10.1377
▁rep	-10.1378
iso	-10.1378
stance	-10.138
48.	-10.138
ociety	-10.1383
▁Universi	-10.1384
Gomyo	-10.1385
icated	-10.1386
ogata	-10.1389
17	-10.1389
▁writer	-10.1393
rned	-10.1395
Mishima	-10.1399
▁Kun	-10.1406
rrect	-10.1411
▁Pri	-10.1417
▁hard	-10.1418
umu	-10.1429
▁Kinhi	-10.1432
shim	-10.1437
hist	-10.1438
▁bri	-10.144
▁prin	-10.1448
dings	-10.1452
▁Memor	-10.1453
▁Tate	-10.1454
1898	-10.1456
▁cri	-10.1457
endai	-10.1459
▁reg	-10.1462
okawa	-10.1463
rown	-10.1467
nii	-10.1474
yaku	-10.1478
▁Bon	-10.1484
▁done	-10.1484
52	-10.1486
unk	-10.1486
mony	-10.1487
dera	-10.1496
▁TO	-10.15
rror	-10.1502
▁notes	-10.1504
oru	-10.1505
▁inspections	-10.1508
▁levels	-10.1508
▁pronunciations	-10.1508
▁weekdays	-10.1508
1977	-10.1509
Koy	-10.1511
Hojo	-10.1513
dministrati	-10.1514
Shu	-10.1517
ATOMI	-10.1519
▁encou	-10.1522
▁dev	-10.1535
▁Oyama	-10.1535
▁mea	-10.1543
Chi	-10.1545
▁furi	-10.1561
ogon	-10.1561
▁Sun	-10.1563
hang	-10.1567
▁fun	-10.157
▁Unite	-10.1575
▁Ejo	-10.1576
▁reached	-10.1577
kasan	-10.1582
▁Iku	-10.1593
nch	-10.1602
ommunicat	-10.1602
outh	-10.1614
koto	-10.1622
pala	-10.1622
sugi	-10.1625
▁soshi	-10.1629
kui	-10.1635
95	-10.1635
▁alb	-10.1644
▁Naga	-10.165
Shingi	-10.1663
kana	-10.1671
▁monks	-10.1674
)→	-10.1676
▁fame	-10.1709
▁appear	-10.1709
▁God	-10.1711
bone	-10.1716
ike	-10.1722
media	-10.1722
▁Fuku	-10.1722
▁Whi	-10.1729
▁Sato	-10.1731
ichii	-10.1739
▁myths	-10.1752
▁provis	-10.1752
sevent	-10.1761
▁hear	-10.1769
TOKI	-10.1785
aedabon	-10.1809
▁Oto	-10.181
goro	-10.1853
Tatsu	-10.1857
▁far	-10.1873
llion	-10.1879
▁Ar	-10.1883
▁AK	-10.1906
ky	-10.1911
AKI	-10.1921
▁interv	-10.1921
▁full	-10.1922
▁Mai	-10.1926
oshin	-10.1936
▁Part	-10.1961
Tensho	-10.1968
▁connection	-10.1972
ety	-10.1979
Suru	-10.1981
YO	-10.2027
arn	-10.2039
tain	-10.2066
spirit	-10.2085
low	-10.2093
▁administ	-10.2096
▁Cu	-10.2105
▁marr	-10.2107
rack	-10.2112
▁Kyoku	-10.2134
inherited	-10.2172
▁MO	-10.2178
Mono	-10.2179
VI	-10.2188
▁Kado	-10.2206
▁cl	-10.2229
rid	-10.2235
eries	-10.2242
Kiku	-10.2252
0)	-10.2273
▁acqui	-10.2274
▁194	-10.2297
gamo	-10.2319
▁Kokush	-10.2326
▁harb	-10.2349
umi	-10.2354
Jo	-10.2397
Shig	-10.2436
Movie	-10.2468
chinyo	-10.2485
Kogo	-10.2494
Hana	-10.2645
uku	-10.2654
▁Kuma	-10.2676
▁force	-10.2683
nar	-10.2723
▁Ue	-10.2725
verse	-10.2783
▁esta	-10.2804
cal	-10.289
▁Sanki	-10.2905
uden	-10.2943
KURA	-10.2982
blished	-10.2985
ack	-10.3099
▁treat	-10.3142
vic	-10.3154
▁Shose	-10.3155
▁rele	-10.3213
▁fo	-10.3391
▁fool	-10.3392
▁Hig	-10.3497
rted	-10.3621
mmer	-10.3766
iwa	-10.3767
▁secur	-10.3833
▁depr	-10.3851
rocess	-10.3851
▁Yasu	-10.3865
mar	-10.3891
ilit	-10.3968
▁comprise	-10.4043
▁Her	-10.4099
▁Sane	-10.4141
uma	-10.4153
▁Sui	-10.4239
ashin	-10.4312
▁rul	-10.4535
▁mit	-10.4637
revis	-10.4655
Mune	-10.4741
West	-10.4767
▁conve	-10.4812
ndon	-10.4856
99	-10.4884
ays	-10.4965
▁argu	-10.5069
iya	-10.51
▁Kinmo	-10.5446
authorize	-10.5487
hik	-10.5608
iming	-10.5824
▁Toda	-10.5974
cien	-10.6014
ference	-10.6022
tive	-10.6106
ven	-10.6181
Dai	-10.6262
mb	-10.6374
etsu	-10.6428
aisha	-10.6506
▁proce	-10.6598
▁Son	-10.6772
foreigner	-10.6782
▁serv	-10.7048
▁spr	-10.7123
▁stud	-10.7171
Fush	-10.7224
abur	-10.7294
ashing	-10.7405
lease	-10.7729
▁authoriz	-10.7788
hokk	-10.7835
Biograph	-10.8008
dicate	-10.8182
ankin	-10.8186
ake	-10.8186
strip	-10.8241
▁Kaz	-10.8373
place	-10.8417
▁tak	-10.8475
sects	-10.8655
050	-10.8655
▁Ichin	-10.8706
kasa	-10.8742
oseki	-10.8745
▁swe	-10.8816
500	-10.8921
▁Mar	-10.8951
ools	-10.9025
thre	-10.9062
▁Mov	-10.908
▁Fuk	-10.9219
▁inherit	-10.9225
quisit	-10.9227
chik	-10.9311
fac	-10.9465
akuma	-10.9478
▁Neg	-10.9892
kkai	-10.9986
▁Histori	-11.0009
unet	-11.0059
24	-11.0142
▁app	-11.0257
▁belo	-11.0308
suga	-11.0319
vision	-11.0465
lace	-11.0479
cop	-11.0583
urrently	-11.0603
early	-11.0649
nshrined	-11.065
sign	-11.0683
*	-11.0799
草	-12.0574
御	-12.0575
大	-12.0576
照	-12.0577
天	-12.0578
[	-12.0579
#	-12.058
q	-12.0581
Z	-12.0582
x	-12.0583
z	-12.0584
j	-12.0585
