<unk>	0
<s>	0
</s>	0
.	-2.60076
'	-3.26992
,	-3.29206
▁the	-3.58319
▁you	-3.60014
▁i	-3.61295
s	-3.71245
?	-3.91268
▁to	-3.93755
▁a	-4.06313
▁it	-4.17538
▁that	-4.32969
▁and	-4.37429
▁of	-4.47039
t	-4.60796
!	-4.61284
▁is	-4.64614
▁in	-4.75074
▁we	-4.79699
▁this	-4.86674
▁what	-4.88313
...	-5.03323
▁me	-5.15973
▁for	-5.20359
▁was	-5.23445
▁he	-5.28008
▁have	-5.3124
▁are	-5.32538
▁do	-5.32828
m	-5.34416
re	-5.35708
▁my	-5.37004
▁on	-5.37083
▁your	-5.39645
▁not	-5.40657
▁be	-5.42679
▁so	-5.43452
▁can	-5.45967
▁with	-5.49902
▁but	-5.50703
▁	-5.54455
▁no	-5.61365
▁know	-5.64241
▁there	-5.65294
▁they	-5.65925
▁don	-5.6727
▁all	-5.69308
▁just	-5.70922
▁like	-5.76236
▁about	-5.77855
▁if	-5.7881
▁here	-5.82478
▁one	-5.91949
▁get	-5.92774
▁right	-5.94919
▁at	-5.96399
ll	-5.98866
▁now	-5.993
▁out	-6.00412
▁she	-6.01183
▁go	-6.01324
▁up	-6.05735
▁from	-6.08273
▁how	-6.12451
▁will	-6.12618
▁him	-6.17942
▁as	-6.19401
▁who	-6.22475
▁well	-6.22646
▁want	-6.23354
▁think	-6.24581
▁her	-6.25452
▁did	-6.29001
▁an	-6.29364
ve	-6.30842
▁see	-6.31182
▁why	-6.3324
▁time	-6.33736
▁when	-6.34229
▁got	-6.36361
▁going	-6.37158
▁let	-6.39426
▁come	-6.4557
▁his	-6.46078
d	-6.4696
▁our	-6.47391
▁good	-6.48254
▁were	-6.49766
▁us	-6.51541
▁or	-6.51587
▁then	-6.51715
▁oh	-6.51965
▁would	-6.53981
▁back	-6.54617
▁by	-6.55096
▁where	-6.56051
▁really	-6.58375
▁them	-6.58903
▁people	-6.59672
▁yeah	-6.59857
▁been	-6.61197
▁something	-6.64241
▁had	-6.65246
▁need	-6.66685
▁because	-6.67832
▁more	-6.67901
▁take	-6.68134
▁okay	-6.68139
▁way	-6.70141
▁look	-6.70549
▁some	-6.73826
▁has	-6.74952
▁say	-6.77825
▁could	-6.78541
▁too	-6.83973
▁hey	-6.84654
▁tell	-6.84872
▁make	-6.8555
▁yes	-6.87493
▁please	-6.87723
▁gonna	-6.89047
▁these	-6.89822
▁didn	-6.90196
▁very	-6.91552
▁even	-6.93407
▁only	-6.94512
▁down	-6.96292
▁said	-6.96478
▁over	-6.97901
▁man	-6.98216
▁doing	-7.00572
▁sorry	-7.00987
▁should	-7.06424
▁two	-7.06624
▁little	-7.09501
▁their	-7.09708
▁thing	-7.10078
▁first	-7.10738
▁into	-7.1211
▁am	-7.15359
▁other	-7.15509
▁much	-7.1611
▁work	-7.17468
▁any	-7.18097
▁never	-7.183
▁mean	-7.19481
▁still	-7.21523
▁find	-7.23854
▁after	-7.24036
▁give	-7.25309
▁world	-7.25508
▁help	-7.26781
▁years	-7.2691
▁than	-7.2732
▁off	-7.28071
▁things	-7.28361
▁thank	-7.30236
▁those	-7.30691
▁life	-7.31231
▁day	-7.33602
▁before	-7.3375
▁which	-7.34034
▁anything	-7.36603
▁new	-7.37063
▁thought	-7.39454
▁again	-7.39687
▁stop	-7.40241
▁wait	-7.40472
▁sure	-7.40997
▁talk	-7.43189
ing	-7.43681
▁last	-7.44424
▁love	-7.45136
▁call	-7.46143
▁put	-7.46787
▁...	-7.49159
▁home	-7.49821
▁away	-7.51491
▁kind	-7.51789
▁around	-7.52997
▁place	-7.54036
▁nothing	-7.54834
▁maybe	-7.55663
▁told	-7.5586
▁today	-7.56119
▁being	-7.56214
▁actually	-7.56548
▁name	-7.57077
▁long	-7.57388
▁also	-7.58865
▁same	-7.59237
▁made	-7.60269
▁mr	-7.60357
▁lot	-7.60513
▁someone	-7.61321
▁won	-7.61542
▁guy	-7.61943
▁does	-7.63717
▁keep	-7.64651
▁isn	-7.64728
▁always	-7.65826
:	-7.66047
▁better	-7.67404
▁everything	-7.67474
▁every	-7.68006
▁found	-7.68195
▁uh	-7.68433
▁came	-7.68544
▁through	-7.68961
▁night	-7.69114
▁understand	-7.70985
▁doesn	-7.71232
▁three	-7.71617
▁many	-7.72343
▁father	-7.72355
▁wanted	-7.72572
ed	-7.72697
▁next	-7.72792
▁believe	-7.73971
▁might	-7.75403
▁great	-7.75478
▁kill	-7.75642
▁leave	-7.76525
▁guys	-7.78568
▁happened	-7.78906
▁must	-7.78971
▁use	-7.79535
▁ever	-7.7981
▁feel	-7.80499
▁done	-7.80652
▁left	-7.80978
▁wrong	-7.81627
▁ago	-7.82164
▁own	-7.82722
▁huh	-7.82805
▁ah	-7.82855
▁looking	-7.83198
▁god	-7.83618
▁coming	-7.83687
▁big	-7.83742
?!	-7.84345
▁money	-7.84656
▁already	-7.84912
▁bad	-7.8498
▁most	-7.85024
▁person	-7.8669
▁another	-7.86768
▁school	-7.87236
▁talking	-7.87789
▁course	-7.88876
▁everyone	-7.88989
▁old	-7.90207
▁may	-7.9025
▁together	-7.91447
▁went	-7.92298
▁ask	-7.9261
▁called	-7.9266
▁remember	-7.92801
▁mother	-7.95065
▁girl	-7.95786
▁stay	-7.96099
▁trying	-7.96798
▁house	-7.97019
▁enough	-7.97166
▁dead	-7.97486
▁fine	-7.9792
▁show	-7.98006
▁family	-7.98086
▁real	-8.00128
▁getting	-8.00202
▁try	-8.00656
▁saw	-8.00715
▁best	-8.01018
▁care	-8.01132
▁hear	-8.01833
▁used	-8.02221
▁end	-8.02418
▁room	-8.02704
▁killed	-8.02898
▁such	-8.03876
▁heard	-8.03955
▁different	-8.03973
▁year	-8.04394
▁move	-8.0506
▁wasn	-8.05665
▁start	-8.06553
▁hell	-8.06574
▁else	-8.06981
▁nice	-8.08098
▁car	-8.08578
▁listen	-8.08712
▁sir	-8.0906
▁live	-8.09521
▁idea	-8.09711
▁case	-8.09933
▁since	-8.10441
▁saying	-8.1052
▁dad	-8.10861
▁friend	-8.11119
▁bit	-8.11382
▁took	-8.11835
▁while	-8.1192
▁without	-8.12195
▁problem	-8.1313
▁yet	-8.13244
▁job	-8.13391
▁once	-8.13686
▁son	-8.13996
▁power	-8.1423
▁die	-8.14253
▁until	-8.14424
▁thanks	-8.1493
▁true	-8.15426
▁head	-8.15487
▁change	-8.15566
▁morning	-8.15909
▁hard	-8.16126
▁mind	-8.16413
▁yourself	-8.17674
▁matter	-8.17941
▁pretty	-8.18196
▁able	-8.18967
▁run	-8.20011
i	-8.20301
▁working	-8.20603
a	-8.22666
▁guess	-8.23001
▁woman	-8.23166
▁hand	-8.23879
▁knew	-8.23926
▁turn	-8.2483
▁part	-8.2549
▁few	-8.25778
▁thinking	-8.26565
▁human	-8.26852
▁brother	-8.27294
▁face	-8.27819
▁bring	-8.28269
▁important	-8.28294
▁seen	-8.28354
▁each	-8.28864
▁second	-8.28879
▁body	-8.29299
▁both	-8.29406
▁open	-8.29407
▁looks	-8.29895
▁fucking	-8.30277
▁become	-8.30426
▁meet	-8.30546
▁hold	-8.31565
▁phone	-8.32022
▁wouldn	-8.32397
▁probably	-8.32678
▁men	-8.33079
▁started	-8.33486
▁friends	-8.33501
▁alone	-8.34203
▁anyone	-8.34257
▁whole	-8.35084
y	-8.35675
▁lost	-8.3622
▁eat	-8.36244
▁boy	-8.36309
▁happen	-8.36531
▁soon	-8.3661
▁water	-8.36767
▁police	-8.36867
▁happy	-8.37376
▁far	-8.37416
▁number	-8.37838
e	-8.37969
▁myself	-8.38702
▁point	-8.38717
▁days	-8.38923
▁inside	-8.39007
▁story	-8.39745
▁mom	-8.39848
▁play	-8.41071
▁high	-8.41136
▁hope	-8.41199
▁ok	-8.41462
▁means	-8.42323
▁though	-8.43613
▁couldn	-8.43768
▁reason	-8.43981
▁fight	-8.44346
▁death	-8.44682
▁under	-8.4501
▁fuck	-8.45566
▁wife	-8.45984
san	-8.46011
▁child	-8.46332
▁city	-8.46483
▁seems	-8.46519
▁haven	-8.46786
▁shit	-8.46879
▁gone	-8.47526
▁five	-8.47755
▁having	-8.48304
▁question	-8.48345
▁ready	-8.48642
▁heart	-8.48648
▁baby	-8.49205
ly	-8.49681
▁four	-8.50441
▁um	-8.50821
▁company	-8.51119
er	-8.51736
▁fact	-8.51838
▁side	-8.51937
▁between	-8.52355
▁making	-8.52458
▁moment	-8.5295
▁asked	-8.53371
▁taking	-8.53583
▁tomorrow	-8.5374
▁business	-8.54272
▁blood	-8.54412
▁close	-8.54501
▁whatever	-8.54623
▁quite	-8.56135
▁eyes	-8.56661
▁later	-8.56771
▁exactly	-8.5696
▁kid	-8.58121
n	-8.58133
▁late	-8.58418
▁children	-8.58474
▁watch	-8.58525
▁system	-8.58712
▁hello	-8.58963
▁gave	-8.59037
▁wanna	-8.5938
▁set	-8.59579
▁president	-8.59633
▁minutes	-8.59635
▁worry	-8.60055
▁young	-8.60304
▁excuse	-8.61642
▁e	-8.61919
▁aren	-8.62631
▁stuff	-8.62704
▁gotta	-8.62856
▁1	-8.63333
▁hands	-8.63955
▁says	-8.64823
▁answer	-8.6484
▁light	-8.65047
▁died	-8.65163
▁dr	-8.65873
▁door	-8.65919
o	-8.66042
▁against	-8.66449
▁sister	-8.66547
▁future	-8.66698
▁team	-8.67101
▁behind	-8.67103
▁anyway	-8.67167
▁times	-8.67456
▁trust	-8.67611
▁order	-8.67715
▁10	-8.67725
▁war	-8.67804
▁chance	-8.67974
▁hurt	-8.68283
▁waiting	-8.68509
▁kids	-8.68737
▁deal	-8.68787
▁safe	-8.68809
▁half	-8.69278
▁million	-8.69333
▁save	-8.6949
▁possible	-8.69491
▁beautiful	-8.6954
▁hit	-8.69604
▁least	-8.69629
▁information	-8.7037
▁check	-8.7047
▁truth	-8.70652
▁alive	-8.71041
r	-8.71154
▁read	-8.71162
▁special	-8.72002
▁anymore	-8.72106
▁damn	-8.72325
▁rest	-8.7241
▁plan	-8.7244
▁food	-8.72458
▁easy	-8.72695
▁doctor	-8.72793
▁word	-8.72991
▁supposed	-8.73396
▁attack	-8.74214
▁front	-8.74422
▁black	-8.74473
▁fire	-8.74811
▁somebody	-8.74934
▁women	-8.74957
▁red	-8.75432
▁living	-8.75644
▁almost	-8.76105
▁tried	-8.76205
▁finally	-8.76211
▁makes	-8.76526
▁cut	-8.7671
▁hours	-8.76844
▁wonder	-8.76917
▁john	-8.76945
▁game	-8.77321
▁using	-8.77408
th	-8.77754
▁protect	-8.7788
▁office	-8.77995
▁daughter	-8.78224
▁shot	-8.7954
▁tonight	-8.7987
▁fun	-8.8015
▁line	-8.80171
▁country	-8.80222
▁outside	-8.80271
▁control	-8.80459
▁earth	-8.80976
▁hospital	-8.80986
▁small	-8.81566
▁miss	-8.8197
▁break	-8.82299
▁everybody	-8.82767
▁shut	-8.83279
▁forget	-8.83447
▁sort	-8.83721
▁past	-8.8381
▁week	-8.83856
▁lives	-8.83932
▁pay	-8.8411
▁20	-8.84151
▁goes	-8.84416
▁book	-8.84666
▁couple	-8.84812
▁3	-8.85626
▁six	-8.85644
▁comes	-8.85687
▁either	-8.86162
▁telling	-8.86353
▁brain	-8.86506
▁wish	-8.86625
▁brought	-8.86708
▁building	-8.87522
▁months	-8.87628
▁feeling	-8.88353
▁gun	-8.88374
▁free	-8.885
▁welcome	-8.88626
in	-8.88692
▁happens	-8.88936
▁town	-8.89209
▁dream	-8.89641
▁minute	-8.89798
▁sense	-8.90058
▁captain	-8.90215
▁husband	-8.90271
▁mine	-8.90427
▁drink	-8.90702
▁trouble	-8.91085
▁clear	-8.91465
▁sit	-8.91991
▁card	-8.92098
▁2	-8.92108
▁crazy	-8.92217
▁murder	-8.92318
▁agent	-8.92705
▁top	-8.92798
▁hi	-8.928
▁wow	-8.92976
▁speak	-8.93053
▁alright	-8.93234
▁sleep	-8.93365
▁cannot	-8.93371
▁stand	-8.93552
▁full	-8.93592
▁lose	-8.93646
▁running	-8.93824
▁wants	-8.93838
▁white	-8.93856
▁data	-8.94141
▁percent	-8.94148
▁walk	-8.94354
▁king	-8.94866
▁taken	-8.95162
▁stupid	-8.95653
▁words	-8.95801
▁buy	-8.96205
▁sometimes	-8.96873
▁send	-8.96972
▁security	-8.97505
▁afraid	-8.97874
▁decided	-8.97996
▁detective	-8.98125
▁sound	-8.9844
▁parents	-8.98675
▁promise	-8.98882
▁level	-8.99429
▁hurry	-8.99716
▁amazing	-8.99945
▁!	-9.01231
▁eh	-9.01337
▁along	-9.01858
▁return	-9.0186
▁changed	-9.02193
c	-9.02655
▁picture	-9.03295
▁cool	-9.03598
▁nobody	-9.0386
▁sent	-9.03911
▁less	-9.04182
▁worked	-9.05406
▁jack	-9.05411
▁party	-9.05782
▁looked	-9.0584
▁girls	-9.06107
▁perhaps	-9.06983
▁news	-9.07029
▁group	-9.07057
▁interesting	-9.07388
▁machine	-9.07595
▁ha	-9.07748
▁asking	-9.0776
▁monster	-9.07968
▁meeting	-9.08035
▁lord	-9.08202
▁serious	-9.08475
▁during	-9.09013
▁air	-9.09229
▁ain	-9.09366
▁hate	-9.09429
▁somewhere	-9.09462
▁longer	-9.09753
▁secret	-9.11017
▁strong	-9.11122
▁happening	-9.11312
▁boss	-9.11582
▁learn	-9.11712
▁cold	-9.11774
▁moving	-9.11787
▁space	-9.12209
▁imagine	-9.12476
▁pick	-9.12502
▁master	-9.12698
▁choice	-9.12728
▁evidence	-9.12739
▁lady	-9.13028
▁yesterday	-9.13522
▁questions	-9.13526
▁completely	-9.13819
▁hot	-9.14308
▁o	-9.14328
▁met	-9.14524
▁himself	-9.14781
▁sounds	-9.15071
▁figure	-9.15088
▁ten	-9.1554
▁married	-9.15584
▁state	-9.16092
▁example	-9.16207
▁single	-9.16243
▁ahead	-9.16353
▁win	-9.16436
▁cell	-9.1646
▁technology	-9.16463
▁strange	-9.17314
▁dog	-9.17382
▁follow	-9.17457
▁30	-9.17514
▁field	-9.17689
▁government	-9.18113
▁seem	-9.1825
▁ship	-9.18469
▁energy	-9.18849
em	-9.18922
▁shouldn	-9.18974
▁lie	-9.19315
▁rather	-9.19489
▁class	-9.19573
▁worried	-9.19793
▁piece	-9.19931
l	-9.20245
al	-9.20428
▁middle	-9.20672
▁report	-9.20697
▁leaving	-9.20788
▁shall	-9.20852
▁eye	-9.21119
cause	-9.21189
▁simple	-9.21248
▁born	-9.21699
▁playing	-9.21768
▁early	-9.21798
▁seeing	-9.21844
▁dark	-9.2189
▁turned	-9.22024
▁perfect	-9.22117
▁touch	-9.22123
▁u	-9.2271
▁impossible	-9.22887
▁dangerous	-9.22985
▁victim	-9.23141
▁age	-9.23204
▁shoot	-9.23327
▁within	-9.2338
▁test	-9.23416
▁felt	-9.23478
▁chief	-9.2348
▁computer	-9.23592
▁history	-9.24191
▁crime	-9.24236
▁others	-9.24253
▁step	-9.24444
▁public	-9.24473
▁fast	-9.24485
0	-9.24828
▁needed	-9.25002
▁became	-9.2515
▁scared	-9.25189
▁given	-9.25443
es	-9.25598
▁known	-9.2576
▁calm	-9.25768
▁street	-9.25855
▁needs	-9.25871
▁drive	-9.25941
▁voice	-9.25973
▁explain	-9.26115
▁pain	-9.26213
▁club	-9.26659
▁key	-9.2669
▁calling	-9.26716
▁missing	-9.26821
▁anybody	-9.26896
k	-9.26932
▁situation	-9.27099
▁killer	-9.27254
▁instead	-9.27316
▁hour	-9.27734
▁across	-9.27952
▁5	-9.28001
▁whether	-9.28085
▁clean	-9.28209
▁l	-9.2823
▁seven	-9.28288
▁catch	-9.28374
▁weeks	-9.28392
▁area	-9.2842
▁dinner	-9.28541
▁force	-9.29341
▁general	-9.29855
▁forward	-9.29873
▁blue	-9.30447
▁contact	-9.30601
▁message	-9.30724
▁video	-9.3105
▁pull	-9.31183
▁seriously	-9.31348
▁weren	-9.31351
▁hair	-9.31816
▁sick	-9.31961
▁create	-9.31971
▁third	-9.32548
▁dna	-9.32833
▁boys	-9.32893
▁definitely	-9.33046
▁giving	-9.33657
▁glad	-9.33891
▁student	-9.33993
▁fbi	-9.34451
▁experience	-9.34715
▁however	-9.3472
▁fault	-9.34777
p	-9.35242
▁write	-9.35358
▁100	-9.35427
▁works	-9.35525
▁month	-9.35585
▁normal	-9.35672
▁cute	-9.35888
▁planet	-9.36398
▁c	-9.36462
▁d	-9.36525
▁ma	-9.36642
▁careful	-9.36889
▁fall	-9.36923
▁station	-9.37109
▁dragon	-9.37237
▁knows	-9.37583
▁science	-9.37824
▁date	-9.3806
▁build	-9.38126
▁teacher	-9.38135
▁research	-9.38322
▁music	-9.38345
▁entire	-9.38383
▁absolutely	-9.38545
▁difficult	-9.38699
▁luck	-9.3913
▁patient	-9.39214
▁battle	-9.39282
▁whoa	-9.39376
kun	-9.39658
▁worth	-9.39885
▁mistake	-9.40096
▁short	-9.40162
▁act	-9.40312
▁15	-9.40384
▁watching	-9.40433
▁cause	-9.40623
▁lead	-9.40942
▁certain	-9.4117
▁weird	-9.41532
▁york	-9.41583
▁ran	-9.42098
▁saved	-9.42177
▁ground	-9.42225
▁kept	-9.42236
▁sign	-9.42304
▁funny	-9.42381
▁gets	-9.42409
▁drop	-9.42508
▁dollars	-9.42621
▁caught	-9.42666
▁often	-9.42738
▁quickly	-9.43163
▁bitch	-9.43186
▁wall	-9.43203
▁effect	-9.43375
▁suddenly	-9.4359
▁killing	-9.43698
▁list	-9.43766
▁sea	-9.44034
▁land	-9.44176
▁floor	-9.45333
▁starting	-9.45569
▁bed	-9.45914
▁share	-9.4598
▁law	-9.46021
▁wake	-9.46021
▁director	-9.46105
▁project	-9.46115
▁wonderful	-9.46206
▁fighting	-9.46289
▁loved	-9.46338
▁hang	-9.4638
▁4	-9.4639
▁near	-9.46752
▁talked	-9.47201
▁accident	-9.47606
▁stopped	-9.4783
▁island	-9.48199
▁lucky	-9.48504
▁social	-9.48535
▁position	-9.48561
▁road	-9.48707
▁support	-9.49428
▁park	-9.49442
▁design	-9.49523
▁star	-9.49606
▁scene	-9.4975
▁students	-9.49825
▁beginning	-9.49859
▁personal	-9.49888
▁learned	-9.49973
man	-9.50112
▁worse	-9.50322
▁sun	-9.50409
▁fear	-9.50426
▁poor	-9.50436
▁continue	-9.50539
▁problems	-9.50736
▁green	-9.50851
▁eight	-9.50889
on	-9.50943
▁charge	-9.5099
▁interested	-9.51023
▁target	-9.51184
▁involved	-9.5164
▁magic	-9.5219
▁busy	-9.52214
▁art	-9.52267
▁pass	-9.52409
▁hmm	-9.52435
▁code	-9.52589
▁study	-9.52673
▁type	-9.52934
▁mission	-9.53096
▁feet	-9.53557
▁train	-9.53721
▁none	-9.53729
▁12	-9.54037
▁medical	-9.54093
▁enemy	-9.54113
▁box	-9.54182
▁built	-9.54216
▁50	-9.54367
▁b	-9.54395
b	-9.54578
▁health	-9.54903
▁lying	-9.5503
▁hide	-9.55047
▁store	-9.55129
▁officer	-9.55243
▁quiet	-9.55374
▁bank	-9.55501
▁somehow	-9.5553
▁ms	-9.55689
▁anywhere	-9.56014
▁lab	-9.56165
▁terrible	-9.56283
▁throw	-9.56371
▁fish	-9.56617
▁straight	-9.56742
▁speed	-9.56868
▁deep	-9.57133
▁american	-9.57412
▁weapon	-9.57774
▁present	-9.58082
▁queen	-9.58104
u	-9.5826
▁huge	-9.58273
▁paper	-9.58369
▁department	-9.58559
▁certainly	-9.58637
▁soul	-9.58683
▁north	-9.58735
▁relationship	-9.58889
▁ii	-9.58933
▁shop	-9.58996
▁sell	-9.59142
▁ya	-9.59196
▁prison	-9.59433
▁camera	-9.5951
▁investigation	-9.59591
▁access	-9.59641
▁spend	-9.59832
▁attention	-9.59856
chan	-9.60082
▁south	-9.60312
▁per	-9.60373
▁states	-9.60443
▁quick	-9.60497
▁unless	-9.60543
▁hasn	-9.60662
▁fly	-9.60664
▁process	-9.60671
▁honey	-9.60713
▁totally	-9.60727
▁beat	-9.60839
▁spent	-9.60884
am	-9.60927
▁america	-9.60945
g	-9.61258
▁feelings	-9.61373
▁service	-9.61464
▁song	-9.61495
▁miles	-9.61639
▁difference	-9.61639
▁cover	-9.61639
▁idiot	-9.6177
▁realize	-9.61836
▁bag	-9.61848
▁cat	-9.6223
▁peace	-9.62245
▁join	-9.63076
▁large	-9.63199
▁forgive	-9.6326
▁begin	-9.63455
▁ourselves	-9.6362
▁professor	-9.6362
▁sweet	-9.63834
▁choose	-9.63975
▁training	-9.6422
▁hotel	-9.64364
▁itself	-9.6439
▁coffee	-9.64449
▁cancer	-9.64453
▁search	-9.64463
▁risk	-9.6453
▁moved	-9.64617
▁private	-9.64671
▁village	-9.64714
▁summer	-9.64806
▁expect	-9.64883
▁humans	-9.64927
▁helped	-9.65035
▁bar	-9.65145
▁program	-9.65261
▁center	-9.65349
▁peter	-9.65596
▁match	-9.65658
to	-9.65893
▁finish	-9.65958
▁forever	-9.66038
▁wearing	-9.66183
▁sitting	-9.66256
▁bought	-9.66372
▁united	-9.67081
▁earlier	-9.67164
or	-9.67294
▁partner	-9.67444
h	-9.67491
▁un	-9.67515
▁mark	-9.67642
▁handle	-9.6767
▁surprised	-9.67714
▁sam	-9.67925
▁themselves	-9.68085
▁recently	-9.68093
▁nature	-9.68154
▁ice	-9.68334
▁fell	-9.68382
▁local	-9.68495
▁takes	-9.68676
▁record	-9.68722
▁criminal	-9.68898
▁daddy	-9.69088
▁turns	-9.69607
▁tea	-9.69615
▁created	-9.70055
▁meant	-9.70126
▁wind	-9.70227
▁jesus	-9.70271
2	-9.70465
▁mouth	-9.70532
▁quit	-9.70605
▁broke	-9.70636
▁boat	-9.70753
▁grow	-9.70794
▁smart	-9.7094
▁billion	-9.71027
▁society	-9.71028
▁clothes	-9.71029
▁lived	-9.71053
▁passed	-9.71144
▁notice	-9.71233
▁basically	-9.71411
▁drug	-9.71513
▁movie	-9.71541
▁tough	-9.71576
▁suspect	-9.71698
▁named	-9.7177
▁natural	-9.7184
▁dear	-9.72126
▁numbers	-9.72207
▁seconds	-9.72303
▁address	-9.72389
▁draw	-9.72573
▁army	-9.72652
▁accept	-9.72846
▁ball	-9.72861
▁reach	-9.72869
▁standing	-9.72952
▁immediately	-9.73022
▁countries	-9.73084
▁holding	-9.73128
▁places	-9.73142
▁rules	-9.73157
▁complete	-9.73232
laughter	-9.73329
▁eating	-9.73403
▁stories	-9.73473
▁trip	-9.73499
▁ted	-9.73731
▁uncle	-9.73755
▁lunch	-9.73788
▁destroy	-9.73856
▁damage	-9.73906
▁sky	-9.73992
▁memory	-9.73996
▁common	-9.74054
▁sensei	-9.7412
▁except	-9.74123
▁19	-9.74131
▁sword	-9.74319
▁visit	-9.74343
▁final	-9.74552
▁walter	-9.7479
▁listening	-9.74827
▁ride	-9.74957
▁mama	-9.74963
▁walking	-9.7498
▁p	-9.75177
▁moon	-9.75184
▁teach	-9.75357
▁wear	-9.75443
▁cop	-9.75473
▁allow	-9.75487
▁angry	-9.75513
▁national	-9.75682
▁tv	-9.75729
▁smell	-9.75971
▁till	-9.76093
▁dude	-9.76182
▁decide	-9.76214
▁favorite	-9.7638
▁low	-9.76552
▁powerful	-9.76571
▁feels	-9.76627
▁hundred	-9.76787
▁realized	-9.76844
▁birthday	-9.76919
▁tired	-9.77071
▁finished	-9.77101
▁escape	-9.77168
▁paid	-9.77337
▁model	-9.77592
▁obviously	-9.77674
▁frank	-9.7771
ers	-9.77758
▁dance	-9.77839
▁forgot	-9.77936
▁books	-9.7797
▁internet	-9.78017
▁mad	-9.78093
▁especially	-9.78344
▁putting	-9.7837
▁table	-9.78526
▁wrote	-9.78622
▁speaking	-9.78631
▁fix	-9.78859
▁lots	-9.789
▁arrest	-9.79135
it	-9.7923
▁arm	-9.79232
▁major	-9.79233
▁bomb	-9.79262
▁count	-9.79353
▁nine	-9.79526
▁device	-9.79649
▁community	-9.79653
▁sex	-9.79697
▁stage	-9.79728
▁18	-9.79794
▁agree	-9.79796
▁suppose	-9.79982
▁honor	-9.80091
▁yen	-9.80092
▁manager	-9.80429
▁apologize	-9.8061
▁jane	-9.80788
▁points	-9.80917
▁west	-9.81004
▁n	-9.81065
▁truly	-9.81118
no	-9.81226
▁waste	-9.81265
▁helping	-9.81294
▁reality	-9.81349
▁simply	-9.81398
▁ring	-9.8143
▁tree	-9.81686
▁blow	-9.81745
▁broken	-9.81773
▁summon	-9.81863
▁sake	-9.81887
▁offer	-9.81975
▁slow	-9.82036
▁showed	-9.82094
▁apartment	-9.82102
▁super	-9.82208
▁board	-9.82218
▁enjoy	-9.82282
▁operation	-9.82643
▁college	-9.82819
▁planning	-9.82821
▁evening	-9.82866
▁hiding	-9.82907
▁letter	-9.82968
▁plane	-9.83053
▁stick	-9.83191
▁africa	-9.83228
▁suit	-9.83344
▁dying	-9.83392
▁de	-9.83494
▁global	-9.83512
▁window	-9.83778
▁disease	-9.83935
▁wedding	-9.83969
▁universe	-9.84234
▁sad	-9.84243
▁surgery	-9.84625
▁language	-9.84675
▁bill	-9.84717
▁according	-9.84752
▁although	-9.84841
▁cells	-9.84867
▁kidding	-9.85137
▁goodbye	-9.85138
▁meaning	-9.85461
▁prove	-9.85465
▁decision	-9.85495
▁self	-9.85528
▁honest	-9.85531
▁r	-9.85645
▁size	-9.85782
▁lawyer	-9.85799
▁ability	-9.85845
▁cost	-9.85853
▁destroyed	-9.86064
▁boyfriend	-9.8609
▁opportunity	-9.86163
▁yo	-9.86227
▁marriage	-9.86686
▁following	-9.86873
▁track	-9.86908
▁animals	-9.86957
▁fair	-9.87084
▁amount	-9.8711
▁bigger	-9.8714
▁based	-9.87285
▁older	-9.87419
▁suicide	-9.87428
▁f	-9.87453
an	-9.87588
▁main	-9.87634
▁beyond	-9.87653
▁usually	-9.87744
▁gas	-9.87831
▁university	-9.8818
▁doubt	-9.883
▁thousands	-9.88409
▁image	-9.88558
▁thousand	-9.88641
▁court	-9.88858
▁gentlemen	-9.89013
▁truck	-9.89037
▁leader	-9.89054
▁bear	-9.89177
▁bye	-9.89217
▁strength	-9.89291
▁hungry	-9.89321
ness	-9.89359
▁swear	-9.89471
▁evil	-9.8948
▁bottom	-9.89624
▁skin	-9.89628
▁particular	-9.8968
▁bastard	-9.89725
▁east	-9.89752
▁besides	-9.89801
▁market	-9.89833
▁treat	-9.89874
▁pressure	-9.89874
▁cops	-9.89896
▁ways	-9.90107
▁figured	-9.90181
▁likely	-9.90195
▁respect	-9.90323
▁justice	-9.90351
▁ladies	-9.90469
▁view	-9.9048
▁form	-9.90508
▁cross	-9.90762
▁indeed	-9.90778
▁drugs	-9.90816
▁push	-9.90836
▁condition	-9.90885
▁patients	-9.91049
▁pictures	-9.91408
▁memories	-9.91634
▁emergency	-9.91636
▁color	-9.91694
▁weapons	-9.91939
▁surprise	-9.91954
▁round	-9.91981
▁carry	-9.91983
▁seat	-9.9202
▁due	-9.92048
▁delicious	-9.92103
▁incident	-9.92114
you	-9.92175
▁consider	-9.92227
▁danger	-9.92418
▁40	-9.92816
▁several	-9.92891
▁gold	-9.92909
▁radio	-9.92991
▁animal	-9.92994
▁activate	-9.93247
▁mrs	-9.93864
▁worst	-9.93924
▁rock	-9.94118
▁reading	-9.94203
▁military	-9.94327
▁trap	-9.94485
▁hole	-9.94588
▁trial	-9.94645
▁missed	-9.94699
▁responsibility	-9.94726
▁girlfriend	-9.9489
▁favor	-9.95012
▁began	-9.95095
▁11	-9.95096
▁action	-9.95141
▁copy	-9.95341
▁species	-9.95381
▁sleeping	-9.95534
▁upon	-9.95663
▁finding	-9.95685
▁buddy	-9.95701
▁conversation	-9.95725
▁base	-9.95752
▁mountain	-9.95754
▁ideas	-9.9587
▁prepare	-9.95953
the	-9.9607
▁price	-9.96297
▁locked	-9.96324
▁purpose	-9.96464
▁murdered	-9.96473
▁signal	-9.96655
▁focus	-9.96659
ro	-9.96661
▁ended	-9.96668
▁english	-9.96675
▁christmas	-9.96761
▁writing	-9.97017
▁appreciate	-9.97265
▁survive	-9.97431
▁princess	-9.9755
▁bodies	-9.97675
▁spirit	-9.97705
▁michael	-9.98008
▁guard	-9.9807
▁rate	-9.98154
▁interest	-9.98238
▁issue	-9.9827
▁seemed	-9.98273
▁....	-9.98344
▁zero	-9.9841
▁innocent	-9.98418
▁keeping	-9.98602
▁oil	-9.98697
▁expected	-9.98814
▁clearly	-9.98897
▁further	-9.98921
▁grab	-9.98967
▁japan	-9.99089
▁education	-9.99114
▁river	-9.99189
▁flight	-9.99206
▁proud	-9.99322
▁fool	-9.9935
▁gift	-9.99582
▁taught	-9.9968
▁rich	-9.99749
▁mess	-9.99859
▁china	-9.99865
▁games	-10.0023
▁kiss	-10.0027
▁taste	-10.0027
▁online	-10.003
5	-10.0031
▁bus	-10.0034
▁closer	-10.004
▁understood	-10.0045
▁everywhere	-10.0045
▁necessary	-10.0062
▁200	-10.0064
▁dreams	-10.007
▁press	-10.0074
▁hero	-10.0085
▁promised	-10.0087
able	-10.0112
▁g	-10.0114
▁site	-10.0118
▁8	-10.0118
▁practice	-10.0121
▁prince	-10.0124
▁apparently	-10.0131
▁whose	-10.0137
▁m	-10.0145
▁results	-10.0149
▁closed	-10.0154
ra	-10.0155
▁result	-10.0162
▁smile	-10.0172
▁bridge	-10.0183
▁location	-10.019
x	-10.0194
▁y	-10.0195
▁jump	-10.0197
is	-10.0198
▁written	-10.0235
▁ocean	-10.0244
▁mike	-10.0251
▁henry	-10.0252
▁allowed	-10.0258
▁network	-10.026
ie	-10.0264
▁ho	-10.027
▁sold	-10.0281
▁weak	-10.0284
▁map	-10.0296
le	-10.0299
▁van	-10.0304
▁value	-10.0309
▁hidden	-10.0339
▁stuck	-10.0339
▁received	-10.0347
▁driving	-10.0348
▁tokyo	-10.0374
▁release	-10.0385
▁gotten	-10.0387
▁losing	-10.0412
▁bunch	-10.0418
▁unit	-10.0434
▁noticed	-10.044
▁member	-10.0459
▁correct	-10.0465
▁san	-10.0477
▁defense	-10.0489
▁above	-10.0489
▁double	-10.0491
▁wondering	-10.0492
▁picked	-10.0509
ta	-10.0511
▁sudden	-10.0523
▁cards	-10.0528
ri	-10.0532
ic	-10.054
▁joke	-10.0544
▁neither	-10.0552
▁restaurant	-10.0561
▁relax	-10.0568
▁towards	-10.057
▁aware	-10.0579
▁awesome	-10.0579
▁responsible	-10.0579
▁grand	-10.0584
▁raise	-10.0591
▁arrived	-10.0605
▁growing	-10.0624
▁theory	-10.0627
v	-10.0628
▁onto	-10.063
▁account	-10.0665
▁goddamn	-10.0665
▁discovered	-10.0671
▁photo	-10.0672
▁knowing	-10.0678
▁file	-10.0693
▁burn	-10.0698
▁joe	-10.07
▁environment	-10.0708
▁media	-10.0722
▁whoever	-10.0725
▁foot	-10.0726
▁snow	-10.0751
▁heavy	-10.077
▁corner	-10.078
▁among	-10.0787
▁held	-10.0798
▁willing	-10.0801
▁medicine	-10.0822
▁cry	-10.0825
▁development	-10.0828
▁learning	-10.0831
▁parts	-10.0854
▁v	-10.0859
▁knife	-10.0871
▁orders	-10.0872
▁original	-10.0888
▁shooting	-10.0894
▁companies	-10.0899
▁systems	-10.0901
▁rule	-10.0906
▁source	-10.0927
▁current	-10.0943
▁david	-10.0946
▁glass	-10.0947
▁incredible	-10.0964
▁faster	-10.0969
en	-10.0983
▁caused	-10.0986
▁connected	-10.0995
1	-10.1001
▁names	-10.1004
▁changing	-10.1012
▁warm	-10.1026
▁terms	-10.1028
▁blame	-10.1033
▁disappeared	-10.1043
▁minister	-10.1048
▁cash	-10.1067
▁crying	-10.1123
▁dirty	-10.1125
▁victims	-10.1139
▁challenge	-10.1139
▁spot	-10.114
▁rain	-10.1141
▁recognize	-10.1147
▁physical	-10.1151
▁naruto	-10.1153
▁holy	-10.1155
▁extra	-10.1157
▁judge	-10.1171
▁sing	-10.1183
▁exist	-10.1187
▁steal	-10.1202
▁hearing	-10.121
▁robot	-10.1216
▁apart	-10.1217
▁virus	-10.1229
▁witness	-10.1247
▁members	-10.1252
▁forest	-10.1258
▁13	-10.1261
▁crew	-10.1268
▁properly	-10.1269
▁failed	-10.1271
▁fake	-10.1273
▁usual	-10.1275
▁calls	-10.1286
▁twice	-10.1297
▁angel	-10.131
▁fit	-10.1312
▁prepared	-10.1315
▁including	-10.1326
▁possibly	-10.1345
▁solve	-10.1351
▁century	-10.1365
▁cia	-10.1367
▁duty	-10.1374
▁unfortunately	-10.1375
▁race	-10.1385
▁lock	-10.1387
▁led	-10.1399
▁attacked	-10.1402
▁stole	-10.1431
▁james	-10.1433
▁papa	-10.1435
▁demon	-10.1446
▁marry	-10.1466
▁path	-10.1471
▁central	-10.1472
▁grace	-10.1473
▁pulled	-10.1482
▁staying	-10.1494
▁birth	-10.1501
▁liked	-10.1537
▁hadn	-10.1558
▁charlie	-10.1562
▁25	-10.1568
▁pleasure	-10.1571
▁24	-10.1577
▁famous	-10.1589
▁film	-10.1607
and	-10.1615
▁jim	-10.1617
▁treatment	-10.1618
▁church	-10.163
▁lieutenant	-10.1651
▁travel	-10.1676
▁trick	-10.1691
▁believed	-10.1696
▁behavior	-10.1707
▁knowledge	-10.1711
▁scary	-10.1712
▁prime	-10.1719
▁empty	-10.1721
▁chinese	-10.1721
▁nervous	-10.1741
▁hurts	-10.1757
▁easily	-10.1762
▁acting	-10.1765
▁happiness	-10.1772
▁drunk	-10.1781
▁bird	-10.1794
▁cars	-10.1795
▁al	-10.1815
f	-10.1824
ko	-10.1827
▁drinking	-10.1833
▁staff	-10.1843
▁mention	-10.1843
▁commander	-10.1847
▁excited	-10.1854
▁directly	-10.1865
▁connection	-10.1867
▁walked	-10.1868
▁fate	-10.1878
▁similar	-10.1881
▁sending	-10.1893
▁add	-10.1905
▁ghost	-10.1919
▁bringing	-10.1923
▁grew	-10.1936
▁hoping	-10.1937
▁threat	-10.1939
up	-10.1942
▁showing	-10.1958
▁records	-10.1959
▁meat	-10.1967
▁safety	-10.1967
▁leg	-10.1969
▁lower	-10.1972
▁smoke	-10.1977
▁gate	-10.1978
▁command	-10.2
▁shows	-10.2007
▁festival	-10.2008
▁intelligence	-10.2019
▁spring	-10.2036
▁client	-10.2036
▁heading	-10.2042
▁movement	-10.2069
▁9	-10.2073
▁japanese	-10.2075
▁period	-10.208
▁camp	-10.208
▁dropped	-10.2081
▁extremely	-10.2082
▁freedom	-10.2091
▁eventually	-10.2112
▁surface	-10.2113
▁feed	-10.2114
▁remind	-10.2119
▁shape	-10.2129
▁changes	-10.2134
▁played	-10.2138
00	-10.2146
▁london	-10.2154
▁ben	-10.2156
▁crap	-10.2175
▁credit	-10.2186
▁horse	-10.2198
▁kick	-10.2199
▁herself	-10.2207
▁duel	-10.2208
▁chris	-10.2212
▁material	-10.2225
▁political	-10.2237
▁identity	-10.2249
▁success	-10.2258
▁india	-10.2264
▁lovely	-10.227
▁flying	-10.2281
▁becoming	-10.2283
▁laugh	-10.2286
▁pregnant	-10.2292
▁hall	-10.2307
▁fired	-10.2309
▁driver	-10.2321
▁spread	-10.2322
us	-10.2333
▁easier	-10.2335
▁rid	-10.2338
▁co	-10.2355
▁loss	-10.2365
4	-10.2366
▁owe	-10.2369
▁shoes	-10.2371
▁disappear	-10.2372
ation	-10.2377
▁goku	-10.2409
▁hundreds	-10.2411
▁bother	-10.2425
▁culture	-10.2428
▁weight	-10.2429
▁proof	-10.2435
▁organization	-10.2452
▁familiar	-10.2453
▁ca	-10.2453
▁former	-10.2477
▁beach	-10.2495
▁reasons	-10.2504
▁higher	-10.252
▁opponent	-10.2527
▁kinds	-10.2528
▁understanding	-10.2549
▁council	-10.2551
▁plans	-10.2554
▁k	-10.2554
▁arrested	-10.2558
▁request	-10.2562
▁afternoon	-10.2562
▁starts	-10.2576
▁popular	-10.2584
▁congratulations	-10.2606
▁audience	-10.2609
▁cities	-10.2618
▁transfer	-10.2628
▁enter	-10.263
el	-10.2646
▁jail	-10.2651
▁legs	-10.2667
▁complicated	-10.2684
▁rice	-10.2695
▁admit	-10.2706
▁guns	-10.2712
▁interview	-10.2717
▁exchange	-10.2724
▁wine	-10.2726
▁families	-10.274
▁tiny	-10.2751
▁total	-10.2755
▁opened	-10.2771
▁fat	-10.2774
▁neck	-10.2775
▁dress	-10.2782
▁greatest	-10.2788
▁pieces	-10.2792
▁nick	-10.2792
▁violence	-10.2796
▁otherwise	-10.2796
▁cup	-10.2797
▁nose	-10.2801
▁roof	-10.2807
ity	-10.281
▁stronger	-10.2813
▁mm	-10.2816
▁career	-10.2817
▁soldiers	-10.283
▁mate	-10.2834
▁population	-10.2835
▁gives	-10.2837
▁finch	-10.2842
▁character	-10.2844
▁female	-10.2847
▁faith	-10.2854
▁fan	-10.2857
▁saving	-10.2858
▁beauty	-10.2875
▁christ	-10.2899
ch	-10.2907
ma	-10.2908
▁turning	-10.2908
▁progress	-10.2909
▁beer	-10.2911
▁lies	-10.2912
▁designed	-10.2942
▁la	-10.2949
▁checked	-10.2952
▁biggest	-10.2965
▁roll	-10.2977
▁cases	-10.2993
▁stone	-10.2994
▁storm	-10.2998
▁14	-10.3039
▁goal	-10.3047
z	-10.3048
▁returned	-10.3084
mon	-10.3091
▁shadow	-10.3093
▁darkness	-10.3105
▁followed	-10.3105
▁surely	-10.3105
▁experiment	-10.311
▁oliver	-10.3115
▁developed	-10.3131
▁details	-10.3136
▁monsters	-10.3147
▁contract	-10.3148
▁stars	-10.3149
▁brothers	-10.3152
▁kitchen	-10.3173
▁obvious	-10.3183
▁bullet	-10.3186
▁murderer	-10.3195
▁available	-10.3197
▁kim	-10.32
ion	-10.3205
▁becomes	-10.3212
▁scale	-10.3213
▁lights	-10.3215
▁plus	-10.3222
▁spoke	-10.323
▁switch	-10.323
▁individual	-10.3242
▁journey	-10.3243
▁rose	-10.3246
▁heat	-10.3256
▁engine	-10.3258
▁bullshit	-10.3267
▁concerned	-10.327
▁plant	-10.3272
▁upset	-10.3281
▁sight	-10.3285
▁positive	-10.3289
▁remain	-10.3297
▁international	-10.33
▁nearly	-10.3307
▁opening	-10.3311
▁h	-10.3312
ba	-10.3313
▁cook	-10.3314
▁direction	-10.3317
▁giant	-10.332
▁breath	-10.3338
▁appears	-10.3343
▁role	-10.3344
▁castle	-10.335
▁george	-10.335
▁wild	-10.3352
▁millions	-10.3353
▁headed	-10.3357
all	-10.3359
▁arms	-10.3364
▁cake	-10.3371
▁ray	-10.3382
▁appear	-10.3382
▁email	-10.3382
▁fresh	-10.3383
▁bloody	-10.3399
▁breathe	-10.3405
▁honestly	-10.3412
▁stolen	-10.3423
▁lied	-10.3424
do	-10.3437
▁complex	-10.3456
▁page	-10.348
▁useless	-10.3484
▁yu	-10.3487
▁mass	-10.3488
less	-10.3494
▁skills	-10.3496
▁paul	-10.3501
▁possibility	-10.3505
▁lay	-10.351
▁post	-10.3517
▁mask	-10.3523
▁300	-10.3533
▁flowers	-10.3543
▁issues	-10.3555
ar	-10.3571
▁subject	-10.3586
▁potential	-10.36
▁product	-10.3602
▁guilty	-10.3603
8	-10.3606
▁impact	-10.3611
▁average	-10.3614
▁sarah	-10.3615
▁pattern	-10.3615
▁lines	-10.3621
▁tape	-10.3624
▁letting	-10.3628
▁ooh	-10.3647
▁hunt	-10.3649
▁devil	-10.365
▁block	-10.3663
▁structure	-10.368
▁blind	-10.37
▁bones	-10.3704
▁lonely	-10.3713
▁defeat	-10.3714
▁vision	-10.3755
▁w	-10.3757
▁section	-10.3762
▁literally	-10.3762
▁barry	-10.3762
▁response	-10.3779
▁excellent	-10.3799
▁trade	-10.3814
▁advice	-10.3824
▁solution	-10.3842
▁paying	-10.3851
▁secure	-10.3859
▁forced	-10.387
▁deserve	-10.3891
▁alex	-10.3898
▁growth	-10.3903
▁x	-10.3904
▁economic	-10.3908
▁generation	-10.3909
▁chose	-10.3922
▁plenty	-10.3924
ton	-10.3947
▁french	-10.3949
▁cameras	-10.396
▁square	-10.3961
la	-10.397
▁introduce	-10.3997
▁chest	-10.3998
▁desk	-10.4012
▁breaking	-10.4042
▁serve	-10.4044
▁z	-10.4046
▁soldier	-10.4062
▁approach	-10.4077
▁invited	-10.4087
▁regret	-10.4088
3	-10.4112
▁dealing	-10.4121
▁breakfast	-10.4153
▁rare	-10.4161
▁files	-10.4162
▁powers	-10.4165
▁dare	-10.4181
▁assume	-10.4189
▁answers	-10.4219
▁note	-10.4235
▁teeth	-10.4243
▁trees	-10.4245
▁currently	-10.4246
▁doctors	-10.4255
▁useful	-10.4263
▁male	-10.4266
▁expensive	-10.4269
▁scientists	-10.427
▁hat	-10.4272
▁lee	-10.4275
▁weather	-10.4283
▁tight	-10.4292
▁fill	-10.4302
▁younger	-10.4308
▁poison	-10.4311
yearold	-10.4322
▁healthy	-10.4327
da	-10.4333
▁property	-10.4335
▁selling	-10.4335
▁neighborhood	-10.434
▁carefully	-10.4341
▁sat	-10.4342
me	-10.4343
▁text	-10.4347
▁managed	-10.4349
▁tower	-10.4354
▁mommy	-10.4362
rs	-10.437
▁web	-10.4376
▁silver	-10.4383
▁division	-10.4387
▁specific	-10.439
▁heaven	-10.4391
▁owner	-10.4396
▁wound	-10.4403
▁distance	-10.4413
ha	-10.4416
clock	-10.4427
▁professional	-10.4428
▁band	-10.4433
na	-10.4434
▁remains	-10.4434
▁player	-10.4437
▁lately	-10.4439
▁boring	-10.444
▁direct	-10.4451
▁nor	-10.4456
▁bone	-10.446
▁opinion	-10.4462
▁legal	-10.4465
▁slowly	-10.4483
▁raised	-10.4489
▁event	-10.4493
▁dogs	-10.45
▁suffering	-10.451
go	-10.4516
▁digital	-10.4517
▁suggest	-10.4519
▁avoid	-10.4522
▁falling	-10.4523
▁range	-10.4531
▁task	-10.454
▁perfectly	-10.454
▁object	-10.4543
▁conference	-10.4544
▁mary	-10.455
▁nowhere	-10.4568
▁exciting	-10.4573
▁resources	-10.4582
▁jobs	-10.4584
▁st	-10.4629
▁anna	-10.4633
▁agreed	-10.4643
▁covered	-10.4665
▁adult	-10.4665
▁basic	-10.4668
▁discuss	-10.467
ru	-10.4674
▁provide	-10.4674
▁balls	-10.4674
▁vote	-10.4685
▁normally	-10.4687
▁vice	-10.4696
▁cooking	-10.4715
▁bottle	-10.4725
▁deliver	-10.4736
▁therefore	-10.4737
▁asshole	-10.4738
▁booth	-10.474
ling	-10.4745
▁capable	-10.4749
▁images	-10.475
est	-10.4754
co	-10.4757
▁performance	-10.4763
▁chicken	-10.478
▁shame	-10.4784
▁fuckin	-10.4785
▁pocket	-10.4789
▁traffic	-10.479
▁spell	-10.4798
▁google	-10.4804
▁doc	-10.481
▁insurance	-10.4817
▁afford	-10.4826
▁bro	-10.4832
▁protecting	-10.4849
be	-10.4849
▁europe	-10.4858
ne	-10.4859
▁whenever	-10.4875
▁treasure	-10.4875
▁actual	-10.4884
▁da	-10.4885
▁economy	-10.4886
▁ends	-10.4911
▁attorney	-10.4915
w	-10.4928
▁assistant	-10.4928
▁hm	-10.4928
▁rise	-10.494
▁screen	-10.494
▁pro	-10.4964
▁max	-10.4974
▁manage	-10.4984
ki	-10.4992
▁suspicious	-10.4998
▁sand	-10.5001
▁winter	-10.5011
▁folks	-10.5012
▁asleep	-10.5019
▁increase	-10.502
▁rescue	-10.5025
▁mostly	-10.5026
▁bite	-10.5032
▁tools	-10.5035
ka	-10.5044
▁strike	-10.5049
▁stark	-10.5066
▁surveillance	-10.5068
▁dig	-10.5087
▁vehicle	-10.5093
▁fought	-10.5096
▁exact	-10.5108
ian	-10.5112
▁carrie	-10.5132
▁district	-10.5139
▁flower	-10.5153
▁curious	-10.5153
▁effort	-10.5166
▁photos	-10.5166
▁revenge	-10.5167
▁grandpa	-10.5173
▁permission	-10.5181
▁sweetheart	-10.5181
▁failure	-10.5195
▁bathroom	-10.521
▁nurse	-10.521
▁500	-10.5212
▁industry	-10.5224
▁nuclear	-10.5224
▁ears	-10.5225
we	-10.5226
▁reese	-10.5253
▁activity	-10.5253
▁warrior	-10.5254
▁protection	-10.5255
▁keys	-10.5273
▁hired	-10.5277
▁j	-10.5278
▁deck	-10.5284
▁successful	-10.5309
▁genius	-10.5309
▁planned	-10.5311
▁pen	-10.5318
▁junior	-10.5325
▁committed	-10.5325
▁loud	-10.5327
▁prefer	-10.5339
▁series	-10.5339
▁released	-10.535
▁barely	-10.5354
▁belong	-10.5355
▁bath	-10.5355
sama	-10.5383
▁enemies	-10.5383
▁harder	-10.5389
▁witch	-10.5397
▁brave	-10.5401
▁ancient	-10.5412
▁danny	-10.5412
▁cure	-10.5425
▁yellow	-10.5427
▁crash	-10.543
▁odd	-10.5431
il	-10.5435
▁darling	-10.5441
▁chairman	-10.5442
▁measure	-10.5446
▁noise	-10.5446
▁ate	-10.5451
▁fantastic	-10.5456
▁forgotten	-10.5456
▁awful	-10.5469
▁agency	-10.547
▁watched	-10.5472
▁areas	-10.5472
▁ordered	-10.5484
▁pool	-10.5491
▁miracle	-10.5492
▁fail	-10.5497
▁climate	-10.55
▁horrible	-10.55
▁brown	-10.5501
▁financial	-10.5513
▁forces	-10.5529
▁particularly	-10.5533
ry	-10.5534
▁matters	-10.5538
▁split	-10.5544
▁software	-10.5544
▁guest	-10.5553
▁hunting	-10.5553
▁mum	-10.5554
▁goodness	-10.5559
▁equipment	-10.5559
▁highly	-10.5561
▁route	-10.5564
▁ex	-10.5572
▁loose	-10.5579
▁teaching	-10.5587
▁creating	-10.5589
▁mi	-10.559
▁core	-10.5603
▁hanging	-10.5606
▁capital	-10.5606
ized	-10.5613
▁80	-10.5616
▁knock	-10.5625
▁streets	-10.5627
▁chocolate	-10.5629
mo	-10.5631
▁modern	-10.5633
▁facility	-10.5633
▁iron	-10.5633
▁warning	-10.5637
▁advantage	-10.5645
▁reached	-10.5658
▁paris	-10.5662
▁illegal	-10.5676
▁airport	-10.5678
▁fifth	-10.5679
▁speech	-10.5683
▁trace	-10.5688
▁carrying	-10.569
▁regular	-10.5691
▁remove	-10.5693
▁stomach	-10.5693
▁pig	-10.5695
▁fully	-10.5698
▁mentioned	-10.5699
▁hank	-10.57
▁harold	-10.5708
▁metal	-10.5711
▁grade	-10.5714
▁secrets	-10.5715
▁woods	-10.5716
▁lisbon	-10.5723
▁milk	-10.5723
▁personally	-10.5732
▁pop	-10.5734
▁zone	-10.5738
▁sooner	-10.5741
▁0	-10.5752
▁walls	-10.5758
▁gather	-10.5758
▁mystery	-10.5768
▁comfortable	-10.5769
▁factory	-10.5785
▁pack	-10.5791
▁solar	-10.5793
▁ridiculous	-10.5797
ga	-10.5805
▁fourth	-10.581
▁kinda	-10.5811
▁dry	-10.5821
▁daniel	-10.5829
▁tend	-10.5832
▁bread	-10.5841
▁federal	-10.5844
▁ticket	-10.5845
▁collect	-10.5848
▁circumstances	-10.5849
▁official	-10.5858
▁license	-10.5859
ya	-10.5874
ies	-10.588
▁recent	-10.5888
▁incredibly	-10.589
▁shaw	-10.5894
▁martin	-10.5895
▁wave	-10.5905
▁lake	-10.5909
▁visual	-10.591
▁pretend	-10.591
▁meal	-10.5916
▁walker	-10.5918
▁mental	-10.5918
▁laughing	-10.5918
▁related	-10.5918
▁gang	-10.5918
▁stayed	-10.5919
▁upstairs	-10.5921
▁prize	-10.5932
▁various	-10.5936
▁monkey	-10.5943
▁phil	-10.5948
▁adam	-10.595
▁rat	-10.5954
▁produce	-10.5968
▁competition	-10.5982
▁threw	-10.5982
▁episode	-10.5985
▁lack	-10.5988
▁studying	-10.5999
▁brilliant	-10.6011
▁california	-10.6013
ty	-10.6024
▁revolution	-10.6029
▁shopping	-10.6029
▁glasses	-10.603
▁carter	-10.6032
▁filled	-10.6036
▁rough	-10.6042
▁aunt	-10.6058
▁proper	-10.6058
▁bauer	-10.606
▁stock	-10.6066
▁burning	-10.607
▁precious	-10.6075
▁fuel	-10.6078
▁below	-10.6082
▁refuse	-10.6091
▁supply	-10.6101
▁launch	-10.6103
▁farm	-10.6104
▁clock	-10.6106
▁entrance	-10.6107
▁ordinary	-10.6107
▁strategy	-10.6122
▁vacation	-10.6122
▁fellow	-10.6131
▁version	-10.6133
▁services	-10.6138
▁quality	-10.6139
▁shift	-10.6149
▁separate	-10.6152
▁grandmother	-10.6154
▁chair	-10.6164
▁finger	-10.618
▁chain	-10.6185
▁bob	-10.6189
▁con	-10.6193
▁explosion	-10.6202
▁dating	-10.6202
▁debt	-10.6205
▁jin	-10.6214
▁21	-10.6225
▁wood	-10.6232
▁policy	-10.6232
▁edge	-10.6235
▁humanity	-10.6252
se	-10.6255
po	-10.6263
▁culprit	-10.6264
▁despite	-10.628
▁investigate	-10.628
▁teachers	-10.6298
▁shh	-10.6302
▁developing	-10.6318
▁repeat	-10.6318
▁colonel	-10.6328
▁tax	-10.6341
▁crisis	-10.6344
▁letters	-10.6347
▁computers	-10.6349
▁secretary	-10.6359
▁sherlock	-10.6376
▁yep	-10.6377
▁develop	-10.6381
▁shock	-10.6381
▁tool	-10.6382
▁negative	-10.6394
te	-10.6405
▁curse	-10.6409
▁math	-10.6412
▁treated	-10.6417
▁employees	-10.6418
▁massive	-10.6422
▁mayor	-10.6439
▁plastic	-10.6442
▁wash	-10.6444
ist	-10.6449
▁doors	-10.6459
▁standard	-10.6462
▁harm	-10.6464
▁zombie	-10.6477
▁someday	-10.6478
▁tie	-10.6478
▁warrant	-10.6489
▁lesson	-10.6493
▁scientific	-10.6506
▁courage	-10.6515
▁concern	-10.6529
▁museum	-10.6538
▁connect	-10.6546
▁leads	-10.6547
▁olivia	-10.6555
▁satellite	-10.6557
ter	-10.6559
▁russian	-10.6574
▁heads	-10.6578
▁cream	-10.6587
▁construction	-10.6587
▁bleeding	-10.6589
▁shower	-10.6599
▁critical	-10.6602
▁alien	-10.6607
▁dick	-10.6608
▁detail	-10.6619
▁meters	-10.6622
▁attacks	-10.6624
▁fortune	-10.6626
he	-10.6632
▁natsume	-10.6636
▁pride	-10.6653
▁washington	-10.6653
▁consciousness	-10.6653
▁ow	-10.6664
▁beast	-10.6675
▁richard	-10.668
▁searching	-10.6686
ku	-10.6686
▁opposite	-10.6686
▁effects	-10.6692
▁counting	-10.67
▁foreign	-10.67
▁baseball	-10.6703
▁pal	-10.6716
▁babies	-10.6719
▁claire	-10.6719
▁phase	-10.672
▁insane	-10.6734
▁mood	-10.6736
▁magazine	-10.6743
▁paint	-10.6746
▁birds	-10.6753
▁cleaning	-10.6759
▁mirror	-10.676
▁season	-10.6772
▁customers	-10.6784
▁receive	-10.6791
▁grown	-10.6797
▁trigger	-10.6798
▁keeps	-10.681
▁mail	-10.6812
▁expecting	-10.6819
▁technologies	-10.6819
▁greater	-10.6822
▁burned	-10.6827
▁article	-10.6828
▁brains	-10.6829
▁shown	-10.6832
▁tracking	-10.6833
▁citizens	-10.6833
▁false	-10.6834
▁mister	-10.6837
▁respond	-10.6842
▁german	-10.6844
▁breathing	-10.6846
▁ceremony	-10.6853
ia	-10.6858
▁events	-10.686
ur	-10.687
▁confirmed	-10.6874
▁grandfather	-10.6887
▁leading	-10.6891
▁nation	-10.6892
▁style	-10.6893
▁parent	-10.6904
▁settle	-10.6905
▁artist	-10.6907
▁saul	-10.6907
▁robots	-10.6909
▁circle	-10.6916
▁cheap	-10.6916
▁grateful	-10.6921
ment	-10.6933
▁unique	-10.6936
▁sergeant	-10.6938
▁laptop	-10.6938
▁confirm	-10.6939
▁liar	-10.695
▁chip	-10.6951
▁dan	-10.697
▁website	-10.6972
▁woke	-10.6978
▁agents	-10.6979
▁flash	-10.6979
▁hardly	-10.698
▁gps	-10.6984
▁plate	-10.6988
ul	-10.699
▁americans	-10.7001
▁screw	-10.7013
▁garden	-10.7025
▁robert	-10.7032
▁background	-10.7042
▁abandoned	-10.7043
mi	-10.7046
son	-10.7046
ism	-10.705
▁alan	-10.7069
▁temperature	-10.7073
▁parking	-10.7077
▁reaction	-10.709
▁terrorist	-10.709
▁charles	-10.7091
▁funeral	-10.7092
▁appeared	-10.7098
▁effective	-10.7107
▁library	-10.7109
▁conditions	-10.7114
▁painting	-10.7115
▁entered	-10.7116
▁considered	-10.7136
▁unusual	-10.7142
▁blade	-10.7146
▁shoulder	-10.7147
out	-10.7148
▁row	-10.7154
▁multiple	-10.7164
▁mo	-10.7169
▁childhood	-10.7179
▁heck	-10.7203
▁weekend	-10.7215
▁tony	-10.723
▁investigating	-10.7231
▁buried	-10.7231
▁ryan	-10.7231
▁sunday	-10.7231
▁units	-10.7238
▁desire	-10.7238
▁fingers	-10.7238
▁costs	-10.725
▁senior	-10.725
▁customer	-10.7251
▁term	-10.7257
▁link	-10.7263
▁leaves	-10.7273
▁bright	-10.7274
▁firm	-10.7281
▁buying	-10.7282
um	-10.7285
▁setting	-10.7286
▁campaign	-10.7313
▁flow	-10.733
▁carbon	-10.7334
▁brody	-10.7336
▁remembered	-10.7337
▁divorce	-10.7338
▁tip	-10.734
▁cho	-10.7351
▁unknown	-10.7354
▁brings	-10.7357
▁tail	-10.7368
▁imagination	-10.7372
▁mobile	-10.7375
▁kingdom	-10.7377
▁statement	-10.7378
▁flat	-10.7384
▁materials	-10.7387
▁temple	-10.739
▁jesse	-10.739
▁cha	-10.7404
▁signed	-10.7406
▁painful	-10.7406
▁coincidence	-10.7407
▁murphy	-10.7407
▁aside	-10.7407
▁coast	-10.7411
▁groups	-10.7411
▁sample	-10.7415
▁borrow	-10.7415
▁roger	-10.742
▁squad	-10.7425
▁passing	-10.7427
▁communication	-10.7432
▁brand	-10.7441
▁rude	-10.7444
▁senator	-10.7445
▁sacrifice	-10.7453
▁largest	-10.7453
like	-10.7454
▁watson	-10.7461
▁motion	-10.7461
▁uniform	-10.7469
▁punch	-10.7469
▁alarm	-10.747
▁custody	-10.7479
▁extraordinary	-10.7479
▁jacob	-10.7479
▁commit	-10.748
▁tommy	-10.7516
▁invite	-10.7517
▁degrees	-10.7521
▁score	-10.7532
pa	-10.7537
▁sugar	-10.7551
▁carol	-10.7552
▁protected	-10.7565
▁suffer	-10.7569
▁trained	-10.7569
▁depends	-10.7571
▁en	-10.7579
▁throat	-10.7587
▁sasuke	-10.7587
ize	-10.7592
▁awake	-10.7613
▁checking	-10.7614
▁charges	-10.7617
▁ambulance	-10.7623
▁mode	-10.7624
ted	-10.7627
▁ward	-10.7634
▁aid	-10.7638
▁sharp	-10.7647
▁ear	-10.7649
▁machines	-10.7656
▁crimes	-10.7658
▁movies	-10.7659
▁spending	-10.766
▁backup	-10.7667
▁talent	-10.7669
▁compared	-10.767
▁coat	-10.7674
▁grandma	-10.7679
▁touched	-10.768
▁everyday	-10.768
▁landing	-10.7682
ho	-10.7689
▁equal	-10.7689
▁ships	-10.7693
▁electricity	-10.7697
▁limit	-10.7697
▁package	-10.7697
▁entirely	-10.7704
▁sheriff	-10.7715
▁travis	-10.7715
▁footage	-10.7715
▁shark	-10.773
▁option	-10.7734
▁colleagues	-10.7739
▁gay	-10.774
▁convinced	-10.7748
▁eggs	-10.7751
▁status	-10.7752
▁chosen	-10.7754
▁forth	-10.7759
▁tank	-10.7762
▁crystal	-10.7767
▁dancing	-10.777
▁beg	-10.7773
▁throughout	-10.7775
▁pilot	-10.778
▁arthur	-10.7788
▁drawing	-10.7802
▁stood	-10.7807
▁silly	-10.7807
▁non	-10.7809
▁balance	-10.781
▁fucked	-10.7814
▁prevent	-10.7814
▁steel	-10.7826
▁santa	-10.7828
▁soft	-10.7835
▁00	-10.7839
that	-10.7839
▁shake	-10.7843
▁emotional	-10.7843
▁pounds	-10.7844
nd	-10.7845
▁er	-10.7857
▁holmes	-10.7863
▁ugly	-10.7863
▁pardon	-10.7863
▁desert	-10.7866
▁dressed	-10.7872
▁stress	-10.7876
▁jones	-10.7882
▁fixed	-10.7893
▁picking	-10.7893
▁apple	-10.7894
▁cousin	-10.79
▁technique	-10.79
▁23	-10.7917
▁region	-10.7926
▁pre	-10.7926
▁identify	-10.7932
▁schedule	-10.7941
▁dean	-10.7945
▁lift	-10.7946
ting	-10.7946
▁tech	-10.795
▁operating	-10.7956
▁crowd	-10.7968
▁joined	-10.7971
so	-10.7976
▁yup	-10.7977
▁toward	-10.7994
▁evolution	-10.7995
▁sailor	-10.8013
▁fishing	-10.8014
▁confidence	-10.8014
▁tall	-10.8016
▁mountains	-10.8019
▁sara	-10.802
▁explanation	-10.8032
▁cheese	-10.8032
▁wide	-10.8032
▁winning	-10.8034
▁loves	-10.8034
▁pulling	-10.8039
▁citizen	-10.8055
▁90	-10.8059
j	-10.8063
▁dumb	-10.8066
▁toilet	-10.8067
▁sec	-10.8067
▁perspective	-10.807
▁survived	-10.8087
▁sexual	-10.8088
▁oxygen	-10.8089
▁pray	-10.8096
▁facebook	-10.8109
▁moral	-10.811
▁se	-10.8124
▁grave	-10.8124
▁jason	-10.8127
▁jacket	-10.8128
▁pants	-10.8129
▁bay	-10.8136
▁previous	-10.8144
▁judgment	-10.8146
▁aim	-10.8153
▁signs	-10.8161
▁assault	-10.8161
▁celebrate	-10.8169
▁march	-10.8176
▁pet	-10.8179
▁violent	-10.8183
▁closing	-10.8185
▁rick	-10.8188
▁innovation	-10.8211
▁freak	-10.8216
▁claim	-10.8221
▁elevator	-10.8224
▁border	-10.8231
▁chemical	-10.8234
▁waited	-10.8239
▁jealous	-10.8241
▁ed	-10.8249
but	-10.825
▁tissue	-10.8252
▁swim	-10.8261
▁golden	-10.8263
▁active	-10.8265
▁mmhmm	-10.8273
▁scott	-10.8279
▁collection	-10.8282
▁bell	-10.8283
▁plants	-10.8294
▁button	-10.8295
▁reports	-10.8302
▁convince	-10.8305
▁downstairs	-10.832
▁el	-10.8322
if	-10.8332
▁seal	-10.8332
▁pair	-10.8341
▁confused	-10.8343
▁bike	-10.8345
▁shirt	-10.8351
▁anger	-10.8356
ni	-10.8363
▁escaped	-10.8365
▁vampire	-10.8371
▁delivery	-10.8382
▁timing	-10.8383
▁smaller	-10.8394
▁spy	-10.8394
ish	-10.8398
un	-10.8402
ful	-10.8403
ce	-10.8407
▁wire	-10.8414
▁cloud	-10.8421
▁capture	-10.8423
▁bow	-10.8427
▁battery	-10.8438
▁deputy	-10.8439
▁influence	-10.8442
▁maria	-10.845
▁suck	-10.845
▁net	-10.8459
▁wolf	-10.8459
▁ko	-10.8464
▁papers	-10.8465
▁singing	-10.8472
▁spare	-10.8473
▁quinn	-10.8478
▁eddie	-10.8478
▁infected	-10.8481
▁riding	-10.849
▁clinic	-10.8491
▁silent	-10.8496
▁shared	-10.8501
▁heh	-10.8501
▁larger	-10.8503
▁han	-10.8503
▁pleased	-10.8503
▁armed	-10.8512
▁presence	-10.8517
▁existence	-10.8518
▁removed	-10.8518
▁passion	-10.8518
▁soup	-10.8521
▁civil	-10.8537
▁atmosphere	-10.8537
ley	-10.854
▁intend	-10.8543
▁production	-10.8558
▁victory	-10.8559
▁labor	-10.8562
▁unlike	-10.8576
▁describe	-10.8579
▁loan	-10.8589
▁egg	-10.8592
▁basement	-10.8598
▁badly	-10.8598
▁choices	-10.8603
▁gods	-10.8616
de	-10.8617
▁emperor	-10.8617
▁embarrassing	-10.8618
▁cbi	-10.8619
▁mistakes	-10.8637
▁principal	-10.8638
▁decisions	-10.8639
▁stopping	-10.8641
▁levels	-10.8652
▁belongs	-10.8653
▁22	-10.8656
▁hated	-10.8656
▁scientist	-10.8657
▁slide	-10.8665
ji	-10.8665
▁politics	-10.8669
▁hill	-10.8671
▁jo	-10.8677
▁reported	-10.868
▁grid	-10.8682
▁genetic	-10.8697
▁bureau	-10.8698
▁slightly	-10.8699
▁advance	-10.8703
▁billy	-10.8725
▁method	-10.8725
▁offered	-10.8732
▁clever	-10.8737
▁valuable	-10.8739
▁academy	-10.874
▁reward	-10.8749
one	-10.8749
▁random	-10.8757
▁thief	-10.8759
▁leaders	-10.8759
▁sweetie	-10.8761
▁begins	-10.8763
▁smells	-10.8766
ine	-10.8798
▁studies	-10.88
▁robbery	-10.88
▁fallen	-10.8802
▁carried	-10.8802
▁hook	-10.8812
▁trash	-10.8816
▁ninja	-10.882
▁dave	-10.8825
▁wheel	-10.8828
ate	-10.8829
land	-10.884
ah	-10.8844
▁content	-10.8845
line	-10.8858
sensei	-10.8864
▁naturally	-10.8868
▁mexico	-10.8882
▁pizza	-10.8882
▁annoying	-10.8883
▁western	-10.8884
▁mmm	-10.8886
▁faces	-10.8892
▁em	-10.8894
▁democracy	-10.8903
▁homicide	-10.8903
▁expert	-10.8908
▁marks	-10.8912
▁rent	-10.892
▁steve	-10.8922
▁samurai	-10.8924
▁concept	-10.8929
▁arrive	-10.8932
▁stealing	-10.8936
▁rush	-10.8938
▁dozen	-10.8941
▁commercial	-10.8944
▁authority	-10.8945
▁management	-10.8946
▁nah	-10.8963
▁ser	-10.8968
▁ka	-10.8969
9	-10.8985
▁column	-10.8986
▁hr	-10.8989
▁guarantee	-10.8991
▁stairs	-10.8997
▁clue	-10.8998
▁senpai	-10.9002
▁profile	-10.9003
▁na	-10.9003
▁extreme	-10.9005
▁british	-10.9007
▁trapped	-10.9007
▁ignore	-10.9012
▁laws	-10.9024
▁urban	-10.9028
▁hiv	-10.9029
▁affair	-10.9036
▁tear	-10.9038
▁recall	-10.9044
▁dies	-10.9046
▁mysterious	-10.9047
▁destiny	-10.9049
▁pure	-10.9055
▁title	-10.906
▁pushed	-10.906
▁murders	-10.9062
▁sentence	-10.9063
▁crack	-10.9066
▁champion	-10.907
▁joy	-10.9078
▁employee	-10.9079
▁kit	-10.9087
▁communicate	-10.9091
▁friday	-10.9091
▁motherfucker	-10.91
▁chase	-10.9105
▁fashion	-10.9108
vi	-10.9111
▁ichigo	-10.9112
▁jimmy	-10.9112
▁union	-10.9113
▁pot	-10.9118
▁mars	-10.9127
▁trusted	-10.9131
▁alibi	-10.9133
▁destruction	-10.9134
▁demand	-10.9134
▁fruit	-10.9135
ng	-10.9136
▁port	-10.9144
▁bishop	-10.9154
▁pin	-10.9157
▁crown	-10.9157
▁deeply	-10.9183
▁perform	-10.9184
▁fundamental	-10.9194
▁causing	-10.9197
sa	-10.9198
▁objects	-10.92
▁cutting	-10.9201
▁photograph	-10.9202
▁counter	-10.921
▁drove	-10.9218
▁patrick	-10.922
▁cast	-10.9222
▁function	-10.9226
▁julia	-10.9234
▁officers	-10.9236
▁skull	-10.9239
▁impressive	-10.9239
▁prosecutor	-10.9253
▁tears	-10.9253
▁individuals	-10.9258
▁mercy	-10.9261
▁lend	-10.9261
▁wherever	-10.9268
▁wings	-10.9276
▁disaster	-10.9282
▁prisoner	-10.9283
▁ending	-10.9285
▁wanting	-10.9287
▁thin	-10.9292
bo	-10.9294
ke	-10.9295
▁skill	-10.93
▁products	-10.9303
▁afghanistan	-10.9304
▁magical	-10.9306
▁scare	-10.9306
rd	-10.9323
▁tests	-10.933
▁45	-10.9335
▁ought	-10.9344
▁instance	-10.9369
▁tongue	-10.9369
▁television	-10.937
▁served	-10.9373
ca	-10.9374
▁runs	-10.9375
▁coach	-10.9384
▁newspaper	-10.9386
▁outta	-10.9387
▁limited	-10.9395
men	-10.9397
ier	-10.9402
▁workers	-10.9412
▁thomas	-10.9412
▁drag	-10.9418
▁climb	-10.9422
▁occurred	-10.9434
▁invented	-10.9435
▁notes	-10.9437
▁wise	-10.9438
▁engineering	-10.9441
▁bang	-10.9445
▁buildings	-10.9451
▁survival	-10.9456
▁morgan	-10.9456
▁nsa	-10.9458
▁tied	-10.9459
▁lo	-10.9461
▁attempt	-10.9465
▁spider	-10.9475
what	-10.9476
▁injured	-10.9479
li	-10.9479
▁ken	-10.9499
▁motive	-10.9499
▁sub	-10.9502
▁nuts	-10.9505
▁1,000	-10.9506
▁budget	-10.9509
for	-10.951
▁apply	-10.9517
▁sale	-10.9517
▁sales	-10.9522
▁gear	-10.9523
ge	-10.9529
▁exists	-10.953
▁income	-10.954
▁decades	-10.9556
▁emotions	-10.9559
▁patterns	-10.9564
▁personality	-10.9567
▁pm	-10.9569
▁sakura	-10.9582
▁cap	-10.9584
▁aw	-10.9586
▁inspector	-10.9588
▁riko	-10.959
by	-10.959
▁threatened	-10.959
▁silence	-10.9591
▁nightmare	-10.9611
▁handsome	-10.9611
▁synchro	-10.9623
▁solid	-10.9629
▁exit	-10.963
▁april	-10.9632
▁appointment	-10.9632
▁flag	-10.9636
▁manga	-10.9638
▁sports	-10.9647
▁models	-10.9648
▁punishment	-10.9654
▁confess	-10.9662
▁headquarters	-10.9669
▁chasing	-10.9678
▁emily	-10.9678
▁candy	-10.9681
▁discover	-10.9686
▁walt	-10.9688
▁royal	-10.9689
▁bug	-10.9697
▁yourselves	-10.9699
▁juice	-10.9699
▁kevin	-10.9699
▁creatures	-10.9708
my	-10.9719
tic	-10.9719
▁analysis	-10.9721
▁invisible	-10.9721
▁sharing	-10.9725
▁solved	-10.9735
▁gain	-10.9738
off	-10.9739
▁attitude	-10.9748
▁engage	-10.9751
▁allows	-10.9756
▁angle	-10.9756
▁essentially	-10.9768
▁betrayed	-10.977
▁lt	-10.9776
▁lover	-10.9786
▁yamato	-10.9789
▁exercise	-10.9794
▁pink	-10.9796
▁placed	-10.9796
▁gene	-10.9809
▁amy	-10.981
▁tyler	-10.9812
▁chaos	-10.9812
▁elementary	-10.9812
▁highest	-10.9815
▁exam	-10.9819
▁messages	-10.9836
▁dust	-10.9841
▁testing	-10.9845
▁era	-10.9853
▁bacteria	-10.9857
▁actions	-10.9858
▁simon	-10.9874
▁alert	-10.9877
▁selfish	-10.9878
▁compassion	-10.988
▁bedroom	-10.9881
▁struggle	-10.9887
▁soil	-10.9892
▁romantic	-10.9903
▁naked	-10.9903
▁guide	-10.991
▁clients	-10.991
▁gohan	-10.9916
▁scan	-10.9916
▁engaged	-10.9918
▁internal	-10.9924
▁forms	-10.9925
▁valley	-10.9926
▁aah	-10.9926
▁germany	-10.9929
▁creative	-10.9946
▁studied	-10.9948
▁madam	-10.9949
▁daily	-10.9949
▁surrounded	-10.995
ally	-10.9952
▁conflict	-10.9955
▁importantly	-10.9956
▁decade	-10.9958
▁channel	-10.9959
▁stranger	-10.997
▁tour	-10.997
▁flesh	-10.9971
▁intention	-10.9981
▁steps	-10.999
▁projects	-10.9993
▁babe	-11.0004
▁los	-11.0015
▁engineer	-11.0022
applause	-11.0025
lo	-11.0026
▁benefit	-11.0031
▁serial	-11.0041
▁joking	-11.0041
▁illness	-11.0042
▁confident	-11.0043
▁heal	-11.0052
▁foundation	-11.0062
▁traditional	-11.0063
▁saturday	-11.0064
▁lisa	-11.0064
▁seek	-11.0065
▁unable	-11.0066
▁pie	-11.0067
▁nope	-11.0073
▁kicked	-11.0073
▁argument	-11.0076
▁kyle	-11.0087
▁liver	-11.0095
▁sin	-11.0102
▁rocket	-11.0102
▁linda	-11.0111
▁facing	-11.0113
▁desperate	-11.0132
▁communities	-11.0134
▁throwing	-11.0135
▁friendship	-11.0135
▁regarding	-11.0136
▁phones	-11.0157
▁association	-11.0157
▁basis	-11.0157
▁theater	-11.0158
▁jedi	-11.0158
▁agreement	-11.0158
▁guards	-11.016
▁bucks	-11.0168
ee	-11.017
▁whom	-11.017
▁legend	-11.0172
▁dump	-11.0173
▁carl	-11.0177
▁hire	-11.018
▁northern	-11.018
▁degree	-11.018
▁sorts	-11.0204
▁kidnapped	-11.0204
▁dawn	-11.0204
▁remote	-11.0219
▁electric	-11.0233
▁expression	-11.0269
age	-11.027
▁garage	-11.0275
▁harry	-11.0275
▁cow	-11.028
▁frame	-11.0281
▁safely	-11.0296
▁twenty	-11.0299
▁underground	-11.0299
▁tan	-11.0303
▁cab	-11.0308
▁10,000	-11.0308
▁considering	-11.0317
▁fox	-11.032
▁belt	-11.0326
▁blast	-11.033
▁achieve	-11.0331
▁improve	-11.0336
▁hack	-11.0338
▁genes	-11.034
▁sisters	-11.0343
▁significant	-11.0345
▁ruined	-11.0351
▁anti	-11.0352
▁anytime	-11.0352
▁marie	-11.0353
▁focused	-11.0359
▁captured	-11.0365
▁physics	-11.0371
▁ahh	-11.0372
▁fingerprints	-11.0376
▁exposed	-11.0379
izing	-11.0379
▁blocks	-11.0391
▁nelson	-11.0395
▁fancy	-11.0395
bar	-11.0414
▁uses	-11.0417
▁dome	-11.0424
▁root	-11.043
▁recording	-11.0438
▁eaten	-11.0449
▁graduate	-11.045
▁traveling	-11.0457
▁mile	-11.046
▁beating	-11.0461
▁previously	-11.047
▁dollar	-11.0475
▁argue	-11.0475
▁oi	-11.0482
shi	-11.0485
▁warehouse	-11.0491
wa	-11.0494
▁database	-11.0494
▁express	-11.0504
ner	-11.0512
ating	-11.0512
▁knight	-11.0515
▁cruel	-11.0515
▁chloe	-11.0515
▁panic	-11.0516
▁therapy	-11.0517
▁lifetime	-11.052
▁defend	-11.052
▁bound	-11.0531
▁advanced	-11.0534
▁unexpected	-11.0538
▁cemetery	-11.054
▁reputation	-11.054
▁reduce	-11.0548
▁jumped	-11.0552
▁hurting	-11.0553
▁discussion	-11.0565
▁johnny	-11.0565
▁visitors	-11.0566
▁drone	-11.0567
▁trail	-11.0584
▁tickets	-11.0587
▁crow	-11.0588
▁poverty	-11.0588
▁drama	-11.0589
▁adults	-11.0592
▁wounds	-11.0599
▁gates	-11.0601
▁remaining	-11.0601
▁sweets	-11.0611
▁absolute	-11.0611
▁chicago	-11.0613
▁larry	-11.0613
▁branch	-11.0614
▁smoking	-11.0615
▁quote	-11.0616
▁homework	-11.0617
▁affect	-11.063
▁blew	-11.0638
▁stabbed	-11.0638
▁moments	-11.0651
▁summoned	-11.0653
▁windows	-11.0654
▁differently	-11.0655
▁ruin	-11.0657
ary	-11.0659
▁waves	-11.0659
▁transport	-11.0672
▁partners	-11.0675
▁pete	-11.0677
▁rope	-11.0678
▁types	-11.068
▁returning	-11.0683
▁wallet	-11.0688
▁shelter	-11.0688
▁upper	-11.0689
▁indian	-11.0692
▁wishes	-11.0696
▁required	-11.0702
▁accepted	-11.0703
▁recorded	-11.0704
▁wayne	-11.0708
et	-11.0711
▁gordon	-11.0712
▁grant	-11.0714
bi	-11.0729
▁unbelievable	-11.0736
▁capacity	-11.0737
▁nearby	-11.0737
▁rely	-11.0739
▁investment	-11.0742
▁tunnel	-11.0743
▁hammer	-11.0757
,000	-11.0758
▁hopefully	-11.0763
▁load	-11.0763
▁fund	-11.0763
▁replace	-11.0771
▁ni	-11.0776
▁shine	-11.0781
▁suspects	-11.0784
▁continued	-11.0786
▁combination	-11.0786
▁genome	-11.0786
▁struck	-11.0786
ster	-11.079
▁kai	-11.0795
▁marty	-11.0795
▁guests	-11.0797
▁schools	-11.0797
▁nasa	-11.0802
▁falls	-11.0802
▁artificial	-11.0809
▁jordan	-11.0811
▁burden	-11.0811
▁luke	-11.0811
▁priority	-11.0812
▁toy	-11.0821
▁35	-11.0825
▁warn	-11.0825
bu	-11.0827
▁wealth	-11.0834
▁wing	-11.0834
▁tournament	-11.0836
▁resistance	-11.0836
▁piano	-11.0836
▁muscle	-11.0844
▁todd	-11.0851
▁boston	-11.0861
▁nonsense	-11.0861
▁surgeon	-11.087
hara	-11.0885
▁host	-11.0886
▁cultural	-11.0886
▁slept	-11.0887
▁quarter	-11.0898
▁hong	-11.0906
▁enormous	-11.091
▁context	-11.0912
▁bride	-11.0912
▁moves	-11.0929
▁friendly	-11.093
▁pushing	-11.0931
▁bee	-11.0933
▁reporter	-11.0936
▁spiritual	-11.0937
▁galaxy	-11.0937
▁privacy	-11.0937
▁studio	-11.0942
di	-11.0945
▁maid	-11.0956
▁surprising	-11.0961
▁editor	-11.0963
▁devices	-11.0963
▁laid	-11.0965
▁kate	-11.0967
▁rumor	-11.097
▁documents	-11.099
▁suffered	-11.0994
▁fairy	-11.0996
▁ra	-11.1003
▁burst	-11.1007
▁bullets	-11.1009
▁surrender	-11.1009
▁alcohol	-11.1013
ou	-11.1016
▁monitor	-11.1017
▁religion	-11.1026
▁experienced	-11.1027
▁le	-11.1029
▁require	-11.1036
▁fleet	-11.1037
▁majesty	-11.1039
▁biology	-11.1039
▁specifically	-11.1039
▁taxi	-11.1042
▁thoughts	-11.1042
▁delivered	-11.1047
pe	-11.1064
▁addition	-11.1064
▁remarkable	-11.1065
▁completed	-11.1075
▁approaching	-11.1076
▁tumor	-11.1078
▁ceo	-11.1079
▁experiments	-11.1089
▁england	-11.109
▁ri	-11.1091
▁amanda	-11.1091
▁writer	-11.1092
▁heroes	-11.1093
▁staring	-11.1094
▁eve	-11.1096
▁maintain	-11.1107
▁junk	-11.1108
▁swing	-11.1113
at	-11.1114
▁golgo	-11.1116
▁traitor	-11.1116
▁impression	-11.1116
▁fraud	-11.1118
▁neighbor	-11.1125
▁nest	-11.1126
▁creature	-11.1132
▁drill	-11.1133
▁rob	-11.1139
▁sometime	-11.1141
▁determine	-11.1141
▁autopsy	-11.1142
▁derek	-11.1142
▁twitter	-11.1142
per	-11.1147
▁begun	-11.1151
▁ne	-11.1153
com	-11.1153
▁helicopter	-11.1157
ger	-11.1163
▁abandon	-11.1163
▁foster	-11.1168
▁stable	-11.117
▁pan	-11.1192
▁palace	-11.1194
▁slip	-11.1194
ive	-11.1205
▁colleague	-11.1211
▁roy	-11.1216
▁smiling	-11.122
▁salt	-11.1233
▁entering	-11.1234
▁th	-11.1235
▁minds	-11.125
▁pissed	-11.1252
▁requires	-11.1259
▁symptoms	-11.1264
▁bowl	-11.1265
▁stu	-11.1272
▁guessing	-11.1273
▁hood	-11.1287
▁beth	-11.1288
▁servant	-11.1292
▁fairly	-11.1306
▁ugh	-11.1308
▁hostage	-11.1319
▁ultimate	-11.1323
▁causes	-11.1323
▁radiation	-11.1325
▁relationships	-11.1327
▁latest	-11.1329
▁shin	-11.1333
▁orange	-11.1334
▁worrying	-11.1345
▁estate	-11.1352
▁alpha	-11.1353
▁comfort	-11.1371
▁guardian	-11.1373
▁narrow	-11.1373
▁abuse	-11.1374
▁storage	-11.1378
▁graham	-11.1378
▁mouse	-11.138
pi	-11.1386
▁sector	-11.1399
▁freeze	-11.1404
▁frankly	-11.141
▁deeper	-11.1414
▁cleared	-11.1418
▁crossed	-11.1419
▁flu	-11.142
▁succeed	-11.1421
▁iraq	-11.1424
▁fed	-11.1431
▁fever	-11.1431
▁gentleman	-11.1432
▁disgusting	-11.1432
▁published	-11.1433
▁discovery	-11.1434
▁screwed	-11.1438
▁rumors	-11.1446
▁determined	-11.1447
▁gray	-11.1453
▁shots	-11.1457
▁connor	-11.1464
▁consequences	-11.1472
▁mit	-11.1474
▁yusei	-11.1484
▁garbage	-11.1484
▁alice	-11.1484
▁bust	-11.1485
▁gary	-11.1486
▁hitting	-11.1487
▁boxes	-11.1489
▁confession	-11.149
▁earn	-11.1494
▁cage	-11.1495
▁knees	-11.15
▁teams	-11.1503
▁hearts	-11.1508
▁pathetic	-11.1511
▁alec	-11.1515
▁sexy	-11.152
▁screaming	-11.1522
year	-11.1536
▁victor	-11.1536
▁empire	-11.1538
▁weakness	-11.1538
this	-11.1539
ja	-11.154
▁hunter	-11.1541
▁fu	-11.1547
▁examples	-11.1563
▁gentle	-11.1564
▁classroom	-11.1564
▁rachel	-11.1565
▁souls	-11.157
▁introduced	-11.1571
▁compare	-11.1576
▁inner	-11.1579
▁bags	-11.158
▁suits	-11.1585
▁nypd	-11.1592
▁midnight	-11.1592
▁snake	-11.1592
▁swimming	-11.1593
▁spoken	-11.1598
▁cats	-11.1599
▁proceed	-11.1609
▁sensitive	-11.1623
▁arrow	-11.1625
▁chan	-11.1625
▁african	-11.1627
▁doug	-11.1629
▁recover	-11.1634
▁shield	-11.1637
▁activities	-11.1646
▁pulse	-11.1646
▁toast	-11.165
▁attend	-11.1663
▁joint	-11.1664
▁values	-11.1666
▁archer	-11.1672
▁injury	-11.1674
▁transferred	-11.1674
▁pile	-11.1674
nt	-11.1681
▁cheers	-11.1681
50	-11.1682
ol	-11.1683
▁piss	-11.1686
▁necessarily	-11.1701
▁helpful	-11.1703
▁fence	-11.1703
▁instructions	-11.171
▁neighbors	-11.1712
▁combat	-11.1715
▁print	-11.1719
▁players	-11.1721
▁preparing	-11.1728
▁attached	-11.173
▁rising	-11.1731
▁motor	-11.1732
▁vast	-11.1737
▁somewhat	-11.1743
tel	-11.1752
▁angels	-11.1755
▁sean	-11.1759
▁bored	-11.1761
▁thrown	-11.1765
▁bat	-11.1768
▁assure	-11.1768
▁facts	-11.1782
▁songs	-11.1784
▁plain	-11.1784
▁actor	-11.1792
▁participate	-11.1795
▁po	-11.1809
▁pole	-11.1834
▁scream	-11.1834
▁prints	-11.1835
▁religious	-11.1838
▁operations	-11.1839
▁cooperation	-11.1839
▁debate	-11.184
▁cabin	-11.184
▁strongest	-11.1841
▁needle	-11.1852
▁laurel	-11.1866
▁worker	-11.1867
▁dealer	-11.1868
▁cooperate	-11.1871
▁clan	-11.1873
▁gathering	-11.1877
▁diet	-11.1878
of	-11.1892
▁platform	-11.1894
▁wisdom	-11.1894
▁bruce	-11.1894
▁france	-11.1894
▁gym	-11.1894
▁sequence	-11.1915
▁foolish	-11.1922
ant	-11.1925
▁woo	-11.1928
▁emotion	-11.193
▁vaccine	-11.1931
▁reverse	-11.1938
don	-11.1946
za	-11.1948
▁lincoln	-11.195
▁samaritan	-11.195
▁injuries	-11.195
▁primary	-11.195
▁ethan	-11.195
▁digging	-11.195
▁troops	-11.1952
ring	-11.1952
ir	-11.1953
▁stands	-11.1963
▁lucy	-11.1978
▁colors	-11.1979
▁originally	-11.1984
▁sum	-11.1988
▁protocol	-11.1988
▁shortly	-11.199
▁william	-11.1993
▁scratch	-11.1995
▁ideal	-11.1996
▁electrical	-11.2003
▁congress	-11.2005
▁governor	-11.2006
▁repair	-11.2008
kin	-11.2009
▁election	-11.2017
▁tiger	-11.2018
▁jerk	-11.2028
▁broadcast	-11.2029
▁offering	-11.203
▁authorities	-11.2035
▁habit	-11.2035
▁scar	-11.2038
ey	-11.2042
▁programs	-11.2047
ent	-11.2048
▁sweat	-11.2048
▁voices	-11.2056
▁aaron	-11.2063
▁county	-11.2072
▁mid	-11.2075
▁dirt	-11.2089
▁anniversary	-11.2091
▁monday	-11.2091
▁angeles	-11.2094
▁lane	-11.2097
▁options	-11.2097
▁dis	-11.21
▁deny	-11.2116
▁lightning	-11.2121
▁constantly	-11.2121
▁serving	-11.2122
▁chat	-11.2131
▁nasty	-11.2148
▁nations	-11.2159
▁appearance	-11.2163
▁predict	-11.2166
▁committee	-11.2177
▁cheating	-11.2182
▁400	-11.2192
▁winner	-11.2193
chi	-11.2203
▁typical	-11.2204
▁fascinating	-11.2206
▁laser	-11.2208
▁script	-11.2209
▁relieved	-11.2209
▁imagined	-11.2217
▁youth	-11.2226
▁marine	-11.223
▁underneath	-11.2235
▁intelligent	-11.2235
▁fried	-11.2238
▁tag	-11.2255
▁rabbit	-11.2266
▁gathered	-11.2272
▁slave	-11.2273
cha	-11.2276
▁mix	-11.2277
▁concentrate	-11.2277
▁samples	-11.2281
▁afterwards	-11.2283
▁bond	-11.2289
▁tragedy	-11.2292
▁shrine	-11.2292
▁francisco	-11.2293
▁shy	-11.2293
▁impressed	-11.2294
▁operate	-11.2294
▁arts	-11.2298
▁wipe	-11.23
▁solutions	-11.2307
▁brief	-11.231
▁accounts	-11.2314
▁yard	-11.232
▁creation	-11.2322
▁covering	-11.2322
▁badge	-11.2338
as	-11.2339
well	-11.234
▁terror	-11.235
▁architecture	-11.2351
▁organized	-11.2358
▁chi	-11.2365
▁ki	-11.2365
▁affairs	-11.2368
▁stake	-11.2371
▁telephone	-11.238
▁flew	-11.238
▁abilities	-11.2381
▁represent	-11.239
▁transform	-11.2391
misunderstanding	-11.2395
ran	-11.2399
▁feather	-11.2403
▁cares	-11.2404
▁novel	-11.2404
▁elizabeth	-11.2409
▁boom	-11.2411
▁disappointed	-11.2411
▁ta	-11.2422
▁jet	-11.2428
lin	-11.243
▁32	-11.2432
▁hid	-11.2433
▁invitation	-11.2439
▁produced	-11.2439
▁inspired	-11.2453
▁barrier	-11.2461
▁continues	-11.2463
▁zombies	-11.2464
▁curry	-11.2468
▁ultimately	-11.247
▁smith	-11.2472
▁pretending	-11.2479
▁explore	-11.248
▁aye	-11.2483
way	-11.2484
▁matt	-11.2488
▁relative	-11.2489
▁bud	-11.2491
▁ashamed	-11.2498
▁andrew	-11.2499
▁messed	-11.2514
▁coward	-11.2519
▁cycle	-11.2526
▁football	-11.2528
▁dropping	-11.2528
▁precisely	-11.2529
ph	-11.254
gi	-11.2547
▁conclusion	-11.2552
▁nam	-11.2554
▁settled	-11.2555
▁shoe	-11.2556
▁definition	-11.2557
▁officially	-11.2561
▁sealed	-11.2564
▁belly	-11.2565
▁knocked	-11.2566
▁drinks	-11.2583
▁anonymous	-11.2585
▁engagement	-11.2587
▁raw	-11.2589
▁loving	-11.259
▁witnesses	-11.259
▁spirits	-11.259
▁parties	-11.2592
▁pages	-11.2593
▁damaged	-11.2598
▁asia	-11.2601
▁cave	-11.2601
▁neurons	-11.2601
▁adventure	-11.2606
▁lu	-11.2612
▁classic	-11.2613
▁industrial	-11.2615
▁biological	-11.2615
▁appropriate	-11.2615
▁jam	-11.2616
▁liquid	-11.2617
▁firing	-11.2617
▁marcus	-11.2617
▁begging	-11.2617
▁embarrassed	-11.2618
▁independent	-11.2619
▁downtown	-11.262
▁crush	-11.2634
▁infrastructure	-11.2647
▁drew	-11.2647
▁mixed	-11.2651
▁puzzle	-11.2659
▁log	-11.2661
▁safer	-11.2669
▁guitar	-11.2678
ler	-11.2679
▁holes	-11.2684
▁symbol	-11.2687
▁micro	-11.2696
▁environmental	-11.2697
▁wrap	-11.2706
▁entry	-11.2707
▁leadership	-11.2708
▁corpse	-11.2709
▁terrorists	-11.271
▁diseases	-11.2722
▁reveal	-11.2726
▁plot	-11.2728
▁yuki	-11.2733
▁description	-11.2738
▁identified	-11.2738
▁institute	-11.2738
▁dish	-11.2738
▁bury	-11.2739
▁granted	-11.2743
▁chances	-11.2749
▁rolling	-11.2753
▁te	-11.276
▁fields	-11.2767
▁scylla	-11.2768
▁trunk	-11.2768
▁eric	-11.2769
con	-11.2771
▁nail	-11.2779
▁torture	-11.2783
▁bio	-11.2792
▁chakra	-11.2799
▁supreme	-11.2799
▁sacred	-11.2799
▁pills	-11.2799
▁merely	-11.2803
▁gap	-11.2804
▁defeated	-11.2809
▁height	-11.2814
▁smooth	-11.2825
ated	-11.2825
▁urgent	-11.2827
▁russia	-11.2827
▁harvard	-11.2829
▁grass	-11.2833
▁tim	-11.2838
▁chips	-11.2846
ging	-11.2848
▁perimeter	-11.286
▁lester	-11.286
▁creepy	-11.2861
▁stem	-11.2863
▁hits	-11.2864
▁bitter	-11.2865
fi	-11.2866
▁classes	-11.2868
▁pr	-11.2869
▁treating	-11.2883
▁charged	-11.289
▁refused	-11.289
▁supplies	-11.2891
▁susan	-11.2893
▁session	-11.2893
▁diamond	-11.2894
▁ease	-11.2894
▁string	-11.2899
work	-11.2902
▁decent	-11.2922
▁acid	-11.2922
▁frozen	-11.2922
▁technically	-11.2923
▁representative	-11.2925
▁procedure	-11.2925
▁organ	-11.2933
▁locker	-11.2934
▁intel	-11.2938
▁lance	-11.2938
▁feeding	-11.2939
▁hug	-11.2948
▁concert	-11.2952
▁closely	-11.2953
▁principle	-11.2957
▁matches	-11.2957
▁disorder	-11.2958
▁emails	-11.2965
▁added	-11.2965
▁characters	-11.2969
▁bees	-11.2969
▁collapse	-11.2972
▁pervert	-11.2979
▁lessons	-11.2982
▁nikita	-11.2984
▁dumped	-11.2989
▁dive	-11.2997
▁enjoying	-11.3009
▁contest	-11.3016
▁overlay	-11.3017
▁challenges	-11.3031
▁recommend	-11.3035
▁worries	-11.3046
▁maggie	-11.3046
▁inspection	-11.3046
head	-11.3046
▁cleaned	-11.3047
▁obsessed	-11.3048
▁tradition	-11.3051
ous	-11.3053
tra	-11.3054
▁evolved	-11.3054
▁bastards	-11.3067
▁connections	-11.3069
les	-11.3072
she	-11.3073
▁hikari	-11.3074
▁patty	-11.3081
▁patent	-11.3081
▁pity	-11.3081
▁alternative	-11.3085
▁psychic	-11.3087
▁wasting	-11.3093
▁sneak	-11.3098
▁tracks	-11.3104
▁trauma	-11.3108
▁majority	-11.3111
▁pa	-11.3116
▁belief	-11.3117
▁coordinates	-11.312
▁generations	-11.312
▁institutions	-11.3122
▁june	-11.3122
gu	-11.3127
▁severe	-11.3129
▁betray	-11.3129
▁wondered	-11.3132
▁ace	-11.3137
▁technical	-11.3138
▁cancel	-11.3139
▁graveyard	-11.314
▁satisfied	-11.314
▁profit	-11.3149
▁collecting	-11.3152
lu	-11.316
▁divorced	-11.3168
▁increased	-11.3175
▁closest	-11.3179
▁governments	-11.3191
▁escort	-11.3199
▁sakuragi	-11.3204
▁european	-11.3205
▁explained	-11.3206
▁recovery	-11.3206
den	-11.3214
▁corporation	-11.3215
▁pitch	-11.3219
▁bloom	-11.3225
▁separated	-11.3235
▁grief	-11.3235
▁possession	-11.3236
▁makeup	-11.3236
30	-11.3248
▁peaceful	-11.3248
▁catching	-11.3248
▁ba	-11.3252
▁flame	-11.3252
▁blog	-11.3262
▁organs	-11.3262
▁assuming	-11.3267
▁thirty	-11.327
▁highness	-11.3277
▁stream	-11.3277
▁quietly	-11.3279
▁error	-11.3284
▁iris	-11.3287
▁theme	-11.3293
ff	-11.3296
▁golf	-11.3298
▁hobby	-11.3299
▁someplace	-11.3301
house	-11.3307
▁display	-11.3321
▁palm	-11.3325
▁patrol	-11.3331
▁vegeta	-11.3331
▁despair	-11.3332
▁noisy	-11.3332
▁boo	-11.3332
▁tries	-11.3332
▁efforts	-11.3334
▁inter	-11.3334
▁twin	-11.3339
▁launched	-11.334
▁pat	-11.3348
▁breast	-11.3352
▁spin	-11.3357
▁expedition	-11.3364
▁loser	-11.3367
▁tested	-11.3369
▁gut	-11.3371
▁nerve	-11.338
▁answering	-11.3385
▁corporate	-11.3396
▁priest	-11.3396
▁include	-11.3397
▁bull	-11.3403
▁controlled	-11.3405
▁notion	-11.3411
▁piccolo	-11.3427
▁horses	-11.3427
▁awkward	-11.3428
▁terribly	-11.3429
▁kidnapping	-11.3429
▁radar	-11.3429
que	-11.3429
let	-11.3432
▁tap	-11.345
▁criminals	-11.346
▁miserable	-11.3461
▁southern	-11.3462
▁minor	-11.3464
▁tons	-11.3473
▁reporting	-11.3478
▁visited	-11.3483
▁aki	-11.3484
▁asset	-11.3487
▁thick	-11.3492
▁unnecessary	-11.3494
▁annie	-11.3494
▁karen	-11.3494
▁jury	-11.3494
▁blown	-11.3502
▁sucks	-11.3504
▁mistaken	-11.3505
▁tattoo	-11.3508
▁elements	-11.3509
time	-11.3521
▁visiting	-11.3523
▁answered	-11.3526
▁believing	-11.3527
▁embassy	-11.3527
▁behalf	-11.353
▁cameron	-11.3531
hi	-11.3554
▁louis	-11.3555
▁survey	-11.3555
▁hung	-11.3557
▁permanent	-11.3558
▁korea	-11.3558
▁sandwich	-11.3559
▁proposal	-11.356
▁wilson	-11.356
▁raising	-11.356
▁dreaming	-11.3562
▁sue	-11.3563
▁affected	-11.3565
▁listened	-11.3574
▁password	-11.358
▁aboard	-11.3586
▁tremendous	-11.3591
▁temporary	-11.3593
▁rainbow	-11.3593
▁slipped	-11.3593
▁threatening	-11.3599
▁movements	-11.3601
▁homeland	-11.3601
▁signature	-11.3614
ron	-11.3618
▁cooper	-11.3621
ass	-11.3622
▁objective	-11.3624
▁testimony	-11.3626
▁valve	-11.3628
che	-11.3638
▁driven	-11.3648
▁interrupt	-11.3648
▁server	-11.3653
ad	-11.3657
▁texas	-11.3659
▁steady	-11.3659
▁floating	-11.3662
▁kilometers	-11.3671
▁cheer	-11.3672
▁suggesting	-11.3673
▁recognized	-11.368
▁topic	-11.3682
led	-11.3683
▁beside	-11.3688
▁conscious	-11.3692
▁hannibal	-11.3692
▁youtube	-11.3692
jo	-11.3693
▁sa	-11.3694
▁limits	-11.37
▁meantime	-11.37
▁healing	-11.3701
▁sink	-11.3705
▁aria	-11.3706
der	-11.3706
▁protein	-11.3716
q	-11.3717
▁hollow	-11.3717
▁comment	-11.3717
car	-11.3722
▁charity	-11.3726
▁kenny	-11.3726
▁eastern	-11.3726
▁volume	-11.3727
▁beef	-11.3729
▁provided	-11.3731
▁drawn	-11.3737
▁150	-11.374
▁sites	-11.3745
▁julian	-11.375
▁aliens	-11.3752
▁relevant	-11.3759
▁territory	-11.3759
▁classified	-11.3762
ex	-11.3762
▁inform	-11.3766
▁warned	-11.3766
▁located	-11.3772
▁messing	-11.3784
▁dvd	-11.3785
▁unfortunate	-11.3791
▁virtual	-11.3791
▁brennan	-11.3793
▁apology	-11.3793
▁jutsu	-11.3793
▁relief	-11.3793
▁mc	-11.3795
▁overcome	-11.3796
▁efficient	-11.3796
▁hacked	-11.3799
▁seats	-11.3809
su	-11.381
ii	-11.3816
▁republic	-11.3826
▁uncomfortable	-11.3827
▁contacted	-11.3827
▁mankind	-11.3828
▁highway	-11.3829
▁artists	-11.3839
amp	-11.3848
▁eva	-11.3855
▁opportunities	-11.3861
▁kong	-11.3864
▁owen	-11.3867
▁rip	-11.3868
▁touching	-11.3877
sh	-11.3881
▁mount	-11.3884
▁described	-11.3887
▁breach	-11.389
▁civilization	-11.3892
▁domestic	-11.3895
▁magician	-11.3896
▁lucas	-11.3903
▁shooter	-11.3904
▁jar	-11.391
▁signals	-11.3912
▁depend	-11.3914
▁idiots	-11.3924
▁immediate	-11.3927
▁chef	-11.3929
▁beam	-11.3929
▁teddy	-11.3929
▁ji	-11.3943
▁targets	-11.3945
▁gu	-11.3947
▁explode	-11.3947
▁detect	-11.3952
based	-11.3957
▁organic	-11.3962
▁phrase	-11.3963
▁italian	-11.3963
▁chapter	-11.3963
▁questioning	-11.3967
ard	-11.3972
▁collected	-11.3973
▁designer	-11.3973
ai	-11.3974
▁planted	-11.3979
▁bothering	-11.3981
▁document	-11.3984
▁28	-11.3985
▁survivors	-11.399
▁enterprise	-11.3994
▁odds	-11.3997
▁ambassador	-11.3997
▁phenomenon	-11.3997
▁flies	-11.3997
ite	-11.3997
▁warren	-11.4
▁tricks	-11.4001
▁rocks	-11.4006
▁ouch	-11.4009
▁yuma	-11.4013
ten	-11.4015
▁seed	-11.4023
▁assistance	-11.4032
▁subway	-11.4032
▁length	-11.4034
▁accused	-11.4037
▁recovered	-11.4037
yo	-11.4038
▁29	-11.4043
▁requested	-11.4045
▁strip	-11.4054
▁bush	-11.4059
▁joining	-11.4066
▁creativity	-11.4066
▁dexter	-11.4067
▁applied	-11.4067
▁realm	-11.4071
▁vi	-11.4074
▁ski	-11.408
▁benefits	-11.4082
▁dana	-11.4088
ator	-11.409
ac	-11.409
▁brazil	-11.4101
▁legendary	-11.4101
▁chamber	-11.4102
▁shining	-11.4109
▁linked	-11.411
▁corn	-11.4111
▁stab	-11.4114
▁deserves	-11.4115
▁jay	-11.4117
hu	-11.4119
▁suspected	-11.4125
▁review	-11.4126
▁acts	-11.413
▁landed	-11.4132
▁differences	-11.4133
▁nathan	-11.4136
uh	-11.4139
▁versus	-11.4171
▁superior	-11.4172
▁gravity	-11.4172
▁menu	-11.4172
▁cried	-11.4173
▁clothing	-11.4174
▁billions	-11.4176
▁2,000	-11.4182
can	-11.4193
▁noble	-11.4202
▁sauce	-11.4202
▁offense	-11.4206
▁stubborn	-11.4206
▁uhhuh	-11.4207
▁rin	-11.421
king	-11.4219
▁twins	-11.4225
▁heshe	-11.4231
▁insist	-11.4236
▁beans	-11.4237
▁cursed	-11.424
▁bicycle	-11.4241
▁taylor	-11.4241
▁dragged	-11.4242
▁witches	-11.4244
▁xray	-11.4245
▁gosh	-11.4246
▁duck	-11.4246
▁suggests	-11.4249
▁alley	-11.425
▁prisoners	-11.4256
▁cock	-11.426
im	-11.4263
▁di	-11.4268
▁chad	-11.4272
▁armor	-11.4273
▁abigail	-11.4277
▁abroad	-11.4277
▁personnel	-11.4277
▁possibilities	-11.4277
▁lily	-11.428
▁mari	-11.428
▁executive	-11.4281
▁intended	-11.4284
▁jun	-11.4285
▁harvest	-11.4287
▁organizations	-11.429
▁911	-11.4291
▁sounded	-11.4291
▁attacking	-11.4291
day	-11.4299
▁virgin	-11.4305
▁rome	-11.4311
▁transplant	-11.4312
▁vault	-11.4312
▁gorgeous	-11.4312
▁prior	-11.4312
▁elite	-11.4313
▁landscape	-11.4317
▁item	-11.4321
▁wounded	-11.4324
▁ja	-11.4326
▁embrace	-11.4332
▁owned	-11.4335
field	-11.434
▁florida	-11.4348
▁transmission	-11.4348
▁invasion	-11.4349
▁gross	-11.4349
▁lecture	-11.4349
▁sources	-11.435
ak	-11.4351
▁assassin	-11.4353
▁loaded	-11.4354
▁borrowed	-11.4356
▁shocked	-11.4357
▁joon	-11.4358
▁sheep	-11.4363
▁factor	-11.4365
id	-11.4368
▁intense	-11.4381
▁vulnerable	-11.4383
▁happily	-11.4384
▁harsh	-11.4384
▁cigarette	-11.4391
▁lion	-11.4397
▁48	-11.4397
▁sp	-11.4408
▁:	-11.441
▁demons	-11.4412
▁unconscious	-11.4417
▁turkey	-11.4419
▁fiction	-11.442
▁miller	-11.4422
ay	-11.4425
▁dynamic	-11.4427
▁app	-11.4428
▁wasted	-11.4443
▁invest	-11.4448
▁lawyers	-11.4453
▁behave	-11.4453
▁september	-11.4455
▁dunham	-11.4455
▁gdp	-11.4455
ball	-11.4457
▁frequency	-11.4457
▁fr	-11.4458
▁prototype	-11.4463
▁politicians	-11.4473
▁loop	-11.4476
▁tone	-11.4481
back	-11.4482
▁deposit	-11.449
▁complain	-11.449
▁flip	-11.4491
▁manufacturing	-11.4491
▁quantum	-11.4491
▁residence	-11.4491
▁depression	-11.4491
▁zoe	-11.4492
▁successfully	-11.4497
▁depending	-11.4498
ization	-11.4501
▁etc	-11.4508
▁pointed	-11.4511
right	-11.4513
▁jung	-11.4515
▁mob	-11.4515
▁bean	-11.4518
▁threaten	-11.4519
▁relations	-11.452
▁routine	-11.4525
▁patience	-11.4528
▁feds	-11.4534
▁farmers	-11.4537
▁costume	-11.4537
▁freaking	-11.4539
ville	-11.4546
ci	-11.4548
▁rider	-11.4553
▁punish	-11.4554
▁flood	-11.4554
▁raid	-11.4559
ab	-11.4563
▁cyber	-11.4564
▁conspiracy	-11.4564
▁october	-11.4564
▁statue	-11.4564
▁kyoto	-11.4564
▁thus	-11.4564
▁inn	-11.4567
▁cliff	-11.4567
▁mud	-11.4573
▁earthquake	-11.4575
▁vessel	-11.4576
▁su	-11.458
ck	-11.4596
▁essential	-11.4598
▁betty	-11.4602
▁jake	-11.4604
▁mai	-11.4606
▁marcel	-11.4607
▁packed	-11.4611
▁brian	-11.4612
▁formula	-11.4616
▁leo	-11.4622
▁musical	-11.4632
▁accurate	-11.4635
▁methods	-11.4636
▁kurosaki	-11.4636
▁socalled	-11.4637
▁loyalty	-11.4637
▁antarctica	-11.4638
▁fortunately	-11.4638
▁ku	-11.464
▁whwhat	-11.4648
▁infection	-11.465
▁missile	-11.4652
▁collapsed	-11.4655
10	-11.4657
▁knee	-11.4672
sen	-11.4673
▁activated	-11.4674
▁particles	-11.4676
▁practically	-11.4676
▁reference	-11.4688
▁saint	-11.4689
▁tooth	-11.4689
▁umm	-11.4701
▁tube	-11.4705
▁networks	-11.4705
▁glory	-11.4711
▁throne	-11.4711
▁kelly	-11.4711
▁regards	-11.4725
▁candidate	-11.4726
▁existed	-11.4727
▁mole	-11.4731
▁interact	-11.4737
▁sides	-11.4738
▁concrete	-11.4748
▁societies	-11.4748
▁depressed	-11.4748
▁delta	-11.4749
▁halfway	-11.475
▁beaten	-11.475
▁100,000	-11.4758
▁pit	-11.4763
▁cheat	-11.4764
▁clip	-11.4764
▁application	-11.4764
▁enjoyed	-11.477
▁attract	-11.478
▁guilt	-11.4783
▁centuries	-11.4785
▁examination	-11.4785
▁bravo	-11.4785
▁bible	-11.4786
dy	-11.4786
▁trials	-11.4791
▁bars	-11.4796
va	-11.4797
▁poisoned	-11.4797
▁rooms	-11.4799
20	-11.4805
▁warming	-11.4808
▁sniper	-11.4814
▁ro	-11.4818
▁traces	-11.4827
▁compound	-11.484
▁bubble	-11.4841
ise	-11.4841
▁frog	-11.4842
ina	-11.4843
sha	-11.4844
▁jungle	-11.4845
▁leaf	-11.4847
▁cable	-11.4847
▁australia	-11.4855
▁mill	-11.4857
▁sis	-11.4858
▁formed	-11.486
▁penny	-11.486
▁plug	-11.4861
▁moriyama	-11.4861
▁warp	-11.4862
▁household	-11.4862
▁league	-11.4863
▁wrapped	-11.4864
▁handed	-11.4868
side	-11.4878
▁engineers	-11.4881
▁strangers	-11.4884
▁experts	-11.4888
▁lit	-11.4891
▁increasing	-11.4895
▁fold	-11.4897
▁fusco	-11.4897
▁interests	-11.4901
▁ash	-11.4904
▁smarter	-11.4909
▁hal	-11.4916
▁element	-11.4917
▁transformation	-11.4917
▁rifle	-11.4917
▁theft	-11.4923
▁ancestors	-11.4929
▁reaching	-11.4931
▁molecules	-11.4932
▁blank	-11.4935
▁spanish	-11.4935
▁jeez	-11.4935
▁ripper	-11.4935
▁elias	-11.4936
▁graph	-11.4939
▁800	-11.494
▁posted	-11.4949
▁informed	-11.4952
▁businesses	-11.4954
▁fluid	-11.4957
ance	-11.4961
▁destroying	-11.497
▁rational	-11.4971
▁madoka	-11.4971
▁interrogation	-11.4973
▁clinical	-11.4974
▁institution	-11.4976
kawa	-11.4976
▁oldest	-11.4984
▁experiences	-11.499
▁resist	-11.5
▁cole	-11.5003
▁reiko	-11.5008
▁immortal	-11.5011
▁basketball	-11.5011
▁corruption	-11.5011
▁miami	-11.5011
▁campus	-11.5015
▁hoped	-11.5036
▁magnetic	-11.5037
▁fee	-11.5041
video	-11.5048
▁metaphor	-11.5049
▁industries	-11.5049
▁duke	-11.5049
▁coal	-11.5053
▁silk	-11.5054
▁transition	-11.5055
▁pace	-11.5058
▁reasonable	-11.5059
▁photographs	-11.5065
ny	-11.5069
▁spreading	-11.507
▁fighter	-11.5076
▁closet	-11.5079
▁clouds	-11.5082
▁beneath	-11.5087
▁importance	-11.5087
▁franklin	-11.5088
▁assigned	-11.5088
▁worldwide	-11.5089
▁registered	-11.5091
▁earned	-11.5094
▁rats	-11.5101
▁chill	-11.5109
▁vital	-11.5113
▁hana	-11.5116
▁constant	-11.5124
▁generous	-11.5124
▁scofield	-11.5126
▁laboratory	-11.5126
▁pepper	-11.5126
▁drank	-11.5126
▁presentation	-11.5128
▁ensure	-11.5131
▁erica	-11.5131
han	-11.5142
▁volunteer	-11.5142
▁insects	-11.5146
▁propose	-11.5149
▁journal	-11.5164
▁convenience	-11.5164
▁destination	-11.5164
▁interface	-11.5165
▁scent	-11.5165
▁ellen	-11.517
▁planets	-11.5172
▁li	-11.5177
ped	-11.5177
▁chuck	-11.5195
▁items	-11.5199
▁journalist	-11.5202
▁chemistry	-11.5203
▁whale	-11.5205
▁patch	-11.5209
gen	-11.5215
ber	-11.5217
▁carlos	-11.522
▁leak	-11.5221
▁neo	-11.5221
▁encounter	-11.5227
▁replaced	-11.5227
▁occur	-11.5228
▁mall	-11.523
▁kindness	-11.5231
▁retreat	-11.5232
fa	-11.5236
▁brat	-11.5237
▁steam	-11.5238
▁rigsby	-11.5242
▁ceiling	-11.5242
▁terrorism	-11.5242
▁bobby	-11.5243
▁sustainable	-11.5244
▁vehicles	-11.525
▁physically	-11.525
▁associate	-11.5256
▁spit	-11.5264
▁expand	-11.5271
▁electronic	-11.5276
▁kaito	-11.5281
▁fifty	-11.5281
zo	-11.5283
▁assumed	-11.5289
▁painted	-11.5294
▁forensics	-11.5294
▁finance	-11.5296
▁hates	-11.5299
▁click	-11.5308
▁brush	-11.5309
▁tens	-11.5311
▁scenario	-11.5312
▁bo	-11.5314
▁variety	-11.532
▁kiera	-11.5321
▁rapidly	-11.5322
▁punk	-11.5322
▁coke	-11.5329
vo	-11.5331
▁evan	-11.5344
▁rape	-11.5346
▁standards	-11.5348
▁skip	-11.5349
▁delay	-11.535
▁collective	-11.5358
▁legacy	-11.536
▁practicing	-11.536
▁defendant	-11.536
▁shuttle	-11.536
▁paperwork	-11.5361
▁italy	-11.5361
▁overnight	-11.5362
▁hint	-11.5363
▁attempted	-11.5368
▁sync	-11.5368
▁tastes	-11.5378
▁secretly	-11.5383
▁lap	-11.5386
▁risks	-11.5387
▁investigator	-11.5393
▁satan	-11.5393
▁peak	-11.5396
▁gender	-11.5399
▁diversity	-11.5399
▁sensors	-11.5399
▁chess	-11.5402
▁sphere	-11.5405
▁bi	-11.5409
io	-11.5411
▁maya	-11.5419
fu	-11.542
▁reed	-11.5422
▁2000	-11.5433
▁eternal	-11.5437
▁practical	-11.5437
▁beloved	-11.5439
▁banks	-11.5442
▁arranged	-11.5454
ding	-11.5456
▁matthew	-11.5458
▁homeless	-11.5461
▁claims	-11.5462
▁rings	-11.5464
wood	-11.5472
▁pipe	-11.5472
▁author	-11.5473
▁funds	-11.5475
▁disagree	-11.5478
▁stardust	-11.5479
▁dramatic	-11.5479
▁notebook	-11.5479
▁andy	-11.5481
▁lung	-11.5486
▁creates	-11.5489
▁amongst	-11.5489
▁cam	-11.5495
ble	-11.5496
▁assets	-11.5497
▁aids	-11.5498
op	-11.5498
▁31	-11.5499
▁user	-11.5505
▁fulfill	-11.5508
oo	-11.5512
▁initial	-11.5514
▁rounds	-11.5514
▁chick	-11.5517
▁universal	-11.5517
▁subjects	-11.5518
▁distant	-11.5519
▁bait	-11.552
▁katie	-11.5521
▁visitor	-11.5521
▁fits	-11.5523
▁passenger	-11.5531
cho	-11.5532
▁99	-11.5533
▁fella	-11.5535
▁troubled	-11.5536
ial	-11.5546
▁wore	-11.5548
▁react	-11.5548
▁assignment	-11.5556
▁particle	-11.5558
▁entertainment	-11.5559
▁approximately	-11.5559
▁sheet	-11.556
▁boots	-11.5571
▁manner	-11.5572
▁tu	-11.5576
▁eliminate	-11.5584
▁ages	-11.5584
▁locate	-11.5584
cy	-11.5587
▁assist	-11.5591
▁holiday	-11.5598
▁salary	-11.5599
▁charm	-11.5599
▁starving	-11.5599
▁enforcement	-11.5599
▁caleb	-11.5599
wi	-11.5602
▁pacific	-11.5602
▁via	-11.5602
▁controlling	-11.5604
▁lips	-11.5613
▁wa	-11.5621
▁ties	-11.5624
▁roads	-11.5624
▁shell	-11.5625
▁russians	-11.5633
▁drones	-11.5638
▁techniques	-11.564
▁receiving	-11.564
▁soccer	-11.564
▁apologies	-11.564
▁announcement	-11.564
▁troublesome	-11.5641
▁rejected	-11.5642
▁relatives	-11.5649
▁butter	-11.5652
▁gin	-11.5656
▁erase	-11.5661
her	-11.5664
▁drives	-11.5665
▁communications	-11.5665
▁stretch	-11.5667
▁ur	-11.5668
▁searched	-11.5669
cu	-11.5672
▁op	-11.5674
▁outfit	-11.5675
▁psychological	-11.5678
▁avenue	-11.568
▁onodera	-11.568
▁puppet	-11.568
▁hokage	-11.5681
▁regardless	-11.5681
▁blah	-11.5681
▁commitment	-11.5681
▁nazir	-11.5682
▁isolated	-11.5686
▁charming	-11.5687
▁aiming	-11.5693
▁cannon	-11.5694
▁pump	-11.5705
▁tune	-11.5715
▁radical	-11.5719
▁facial	-11.5721
▁grabbed	-11.5721
▁stepped	-11.5722
▁illusion	-11.5722
▁airplane	-11.5723
▁emi	-11.5724
▁roughly	-11.5727
▁iphone	-11.5734
▁vampires	-11.5738
▁parker	-11.5739
▁sixth	-11.5744
▁yuri	-11.5744
▁par	-11.5754
▁casey	-11.5754
▁damned	-11.5755
▁speaker	-11.5758
▁loyal	-11.576
▁distribution	-11.5762
▁horror	-11.5762
▁psychiatrist	-11.5762
▁struggling	-11.5762
▁circuit	-11.5765
▁sh	-11.5766
▁sins	-11.5774
▁bold	-11.5775
▁helen	-11.5776
▁wins	-11.5781
▁markets	-11.5786
▁arrange	-11.5788
▁crossing	-11.5793
▁val	-11.5799
▁graduation	-11.5803
▁laundry	-11.5803
▁manhattan	-11.5803
▁fireworks	-11.5803
▁hollywood	-11.5803
▁orbit	-11.5807
▁balloon	-11.5807
▁lad	-11.5809
▁seo	-11.581
▁busted	-11.5811
▁ink	-11.5812
▁labs	-11.5813
▁vest	-11.582
▁observe	-11.5827
▁haha	-11.5829
▁freely	-11.5833
▁august	-11.5844
▁geez	-11.5845
▁perpetrator	-11.5845
▁forbidden	-11.5845
▁naive	-11.5845
foot	-11.5847
▁lungs	-11.5849
▁bills	-11.5849
▁expectations	-11.5849
▁deer	-11.5849
▁confessed	-11.5853
▁photographer	-11.5857
▁associated	-11.5861
▁anderson	-11.5867
▁hu	-11.5867
▁threats	-11.5868
▁canada	-11.587
▁structures	-11.5875
▁clone	-11.5878
▁origin	-11.5881
▁iran	-11.5883
▁arguing	-11.5886
▁molly	-11.5886
▁allen	-11.5892
ig	-11.5894
▁dea	-11.5901
ura	-11.5909
▁slice	-11.5912
down	-11.5919
▁targeted	-11.5921
▁layer	-11.5923
ping	-11.5925
▁sail	-11.5925
80	-11.5927
▁additional	-11.5927
▁einstein	-11.5928
▁jeremy	-11.5928
▁umbrella	-11.5928
▁berlin	-11.5928
▁farewell	-11.5928
▁happier	-11.5928
▁bucket	-11.5928
▁aircraft	-11.5928
▁holly	-11.5928
▁madame	-11.5932
over	-11.5933
▁rot	-11.5949
▁tracked	-11.5952
▁ghosts	-11.5953
▁cared	-11.5957
▁roman	-11.596
▁videos	-11.596
▁profound	-11.5968
▁imperial	-11.597
▁attractive	-11.597
▁exhibition	-11.597
▁transportation	-11.597
▁prick	-11.5971
▁violation	-11.5977
▁rear	-11.598
▁funding	-11.5981
▁switched	-11.5985
▁vegas	-11.5986
▁pursue	-11.5996
▁feature	-11.6006
▁sal	-11.601
▁champagne	-11.6012
▁necklace	-11.6012
▁recognition	-11.6012
▁whereabouts	-11.6012
▁clay	-11.6012
▁medal	-11.6015
▁paintings	-11.6015
▁revealed	-11.6018
▁observation	-11.602
▁hostages	-11.6022
rr	-11.6023
▁bomber	-11.6032
▁ants	-11.6047
▁toys	-11.6048
▁convenient	-11.6052
▁medium	-11.6054
▁davis	-11.6054
▁agenda	-11.6054
▁frankie	-11.6057
▁frobisher	-11.6057
▁sang	-11.6057
▁surprisingly	-11.6057
aka	-11.606
▁instrument	-11.6064
▁backwards	-11.6064
▁jon	-11.6071
▁insect	-11.6074
▁admire	-11.6076
▁pee	-11.6093
▁intellectual	-11.6095
▁recipe	-11.6096
▁conscience	-11.6096
▁settlement	-11.6097
▁designers	-11.6105
▁stroke	-11.6107
▁retired	-11.6108
▁cord	-11.6111
▁broad	-11.6112
▁payment	-11.6115
▁encourage	-11.6123
▁shu	-11.6123
▁gum	-11.6129
▁blowing	-11.6131
▁diamonds	-11.6134
▁absurd	-11.6139
▁january	-11.6139
▁promotion	-11.6139
▁guts	-11.6141
▁punished	-11.6144
▁crashed	-11.6151
▁savings	-11.616
▁liber	-11.616
▁soo	-11.6166
▁heir	-11.6178
▁grudge	-11.6182
▁psychology	-11.6182
▁retirement	-11.6182
▁riley	-11.6182
▁desperately	-11.6185
▁fellas	-11.6186
▁sport	-11.619
▁wrist	-11.6195
▁reactor	-11.6195
ara	-11.6199
▁kissed	-11.6203
▁horn	-11.6205
ver	-11.6207
▁howard	-11.6208
▁worthy	-11.6209
▁flavor	-11.622
▁concerns	-11.622
▁syndrome	-11.6224
▁undercover	-11.6224
▁pleasant	-11.6225
▁nancy	-11.6225
▁hatred	-11.6225
▁hallway	-11.6225
▁contain	-11.6226
▁extent	-11.6232
hour	-11.6243
▁traveled	-11.6243
zu	-11.6245
▁wwhat	-11.6246
▁outcome	-11.6249
▁moron	-11.6252
▁wha	-11.6252
▁psycho	-11.6257
▁rub	-11.6265
▁instant	-11.6266
▁phantom	-11.6268
▁absence	-11.6268
▁thunder	-11.6268
▁complexity	-11.6269
▁auto	-11.6269
▁mori	-11.6273
▁merry	-11.6287
▁bin	-11.63
▁conduct	-11.63
▁bless	-11.6303
▁intercept	-11.6307
▁kaoru	-11.6308
▁shrimp	-11.6311
▁entrust	-11.6311
▁dedicated	-11.6314
▁tension	-11.6314
▁ham	-11.6317
▁dc	-11.632
▁sayaka	-11.6322
▁medication	-11.6327
▁faced	-11.633
▁thas	-11.6337
▁malaria	-11.6339
▁spill	-11.6344
▁rep	-11.6344
▁chop	-11.635
▁corps	-11.6352
▁bombs	-11.6353
▁felicity	-11.6354
▁maintenance	-11.6354
▁november	-11.6354
▁powder	-11.6354
▁lionel	-11.6355
▁immune	-11.6355
▁marshall	-11.6355
▁shore	-11.6356
▁unlikely	-11.6359
▁rarely	-11.6361
▁compromised	-11.6366
ship	-11.637
▁laughed	-11.6372
▁chart	-11.6387
▁principles	-11.6391
▁haruka	-11.6397
▁deceased	-11.6398
▁epidemic	-11.6398
▁jersey	-11.6398
▁melissa	-11.6398
▁trading	-11.6398
▁compete	-11.6399
▁roommate	-11.64
▁define	-11.6401
▁processing	-11.6401
▁restore	-11.6402
▁zoo	-11.6408
ana	-11.6417
▁lannister	-11.6417
▁meetings	-11.6417
▁turtle	-11.6418
▁negotiate	-11.6426
▁purchase	-11.6426
▁nu	-11.6427
▁appeal	-11.6432
▁extend	-11.6433
▁daughters	-11.6436
▁shadows	-11.644
▁equivalent	-11.6442
▁twelve	-11.6442
▁pussy	-11.6442
▁filthy	-11.6442
▁july	-11.6443
▁passes	-11.645
▁gotham	-11.6455
▁rage	-11.6462
▁generally	-11.6463
▁42	-11.6465
▁chemicals	-11.6466
▁ph	-11.6466
▁cookies	-11.6468
▁vegetables	-11.6482
▁opera	-11.6482
▁identical	-11.6486
▁oniichan	-11.6486
▁terminal	-11.6486
▁liberty	-11.6486
▁subtle	-11.6486
▁underwear	-11.6486
▁pigs	-11.6491
▁formal	-11.6493
tsu	-11.6494
▁suggested	-11.65
▁fans	-11.6503
▁continent	-11.6506
▁tale	-11.6511
▁announce	-11.6511
▁graduated	-11.6514
▁endure	-11.6517
▁kin	-11.6518
▁extract	-11.6525
▁clark	-11.6528
▁greg	-11.6529
ries	-11.653
▁choosing	-11.653
▁kindergarten	-11.653
▁nowadays	-11.653
▁precinct	-11.653
▁trillion	-11.653
▁mistress	-11.653
▁abby	-11.653
▁robbed	-11.6532
▁logic	-11.6535
▁pops	-11.6536
▁coin	-11.6546
▁translate	-11.6559
▁yui	-11.656
▁passengers	-11.6561
▁bleed	-11.6569
▁accent	-11.6575
▁continuing	-11.6575
▁tuning	-11.6575
▁humor	-11.6575
▁battlefield	-11.6576
▁2010	-11.6577
▁starling	-11.6577
▁blackout	-11.6579
▁hopeless	-11.658
▁privilege	-11.6582
▁stones	-11.6583
▁meals	-11.6587
▁update	-11.6588
▁combined	-11.6588
gra	-11.6592
▁snap	-11.6596
▁panel	-11.6601
board	-11.6617
▁strict	-11.6617
▁twist	-11.6619
▁envy	-11.6619
▁moriarty	-11.6619
▁paradise	-11.6619
▁sebastian	-11.6619
▁jessica	-11.6619
▁helmet	-11.6619
▁shaking	-11.662
▁void	-11.662
▁skyler	-11.662
▁lifestyle	-11.6622
oh	-11.663
▁arrangement	-11.6645
▁explains	-11.6646
▁acknowledge	-11.6649
▁lobby	-11.6662
▁passionate	-11.6662
▁hyun	-11.6664
▁bon	-11.6664
▁fossil	-11.6664
▁eagle	-11.6664
▁ministry	-11.6664
▁sophisticated	-11.6664
▁jerry	-11.6664
▁jazz	-11.6664
▁astral	-11.6664
▁mentor	-11.6664
▁pockets	-11.6668
▁sho	-11.6671
▁grows	-11.6673
▁performed	-11.6673
▁haru	-11.6675
▁q	-11.6676
▁fewer	-11.6678
▁bothered	-11.6683
▁wiped	-11.6688
zi	-11.669
▁mechanism	-11.6691
▁depth	-11.6691
▁deadly	-11.67
▁register	-11.6705
▁literature	-11.6709
▁amusement	-11.6709
▁couch	-11.671
▁mason	-11.6712
▁climbing	-11.6721
▁bend	-11.6734
▁occasion	-11.6735
▁maiden	-11.6737
▁ignored	-11.6743
▁reform	-11.6745
▁manual	-11.6752
▁approval	-11.6754
▁celebration	-11.6754
▁dignity	-11.6754
▁barbara	-11.6755
▁native	-11.6755
▁joan	-11.6755
▁min	-11.6757
▁relatively	-11.6758
▁prey	-11.6766
min	-11.6767
▁demands	-11.6777
▁tortured	-11.6778
▁bolt	-11.6779
▁nicely	-11.6783
▁expose	-11.6785
▁fighters	-11.6786
▁sticking	-11.6791
▁administration	-11.68
▁autism	-11.68
▁fantasy	-11.68
▁malcolm	-11.68
▁judging	-11.68
▁unfair	-11.68
▁motel	-11.68
▁tide	-11.68
▁raven	-11.68
▁suspended	-11.6801
▁commissioner	-11.6803
▁triple	-11.6808
▁fa	-11.6811
▁reminded	-11.6819
▁amateur	-11.683
▁penguin	-11.683
▁forensic	-11.6831
▁instinct	-11.6831
▁eren	-11.6833
▁researchers	-11.6835
▁kuririn	-11.6843
▁fabulous	-11.6846
▁audition	-11.6846
▁congressman	-11.6847
▁cafe	-11.6849
▁inches	-11.6849
ari	-11.6855
▁donor	-11.6856
▁slaves	-11.6864
▁tablet	-11.6865
▁gi	-11.6879
▁pe	-11.6881
▁bombing	-11.6884
▁input	-11.6885
▁parttime	-11.6891
▁accomplice	-11.6891
▁lawsuit	-11.6891
▁steak	-11.6891
▁pursuit	-11.6891
▁visible	-11.6891
▁simulation	-11.6891
▁pillow	-11.6891
▁diary	-11.6892
▁purse	-11.6892
▁vigilante	-11.6893
▁coma	-11.6897
mura	-11.69
▁inspiration	-11.6905
▁shoulders	-11.6909
▁melon	-11.6918
▁goin	-11.6921
▁interfere	-11.6922
▁dislike	-11.6922
▁insight	-11.6925
▁chased	-11.6927
▁stack	-11.6929
▁pakistan	-11.6931
▁lean	-11.6934
▁francis	-11.6937
▁certificate	-11.6937
▁curiosity	-11.6937
▁mathematics	-11.6937
▁hunger	-11.6941
rin	-11.6942
▁blessed	-11.6942
▁represents	-11.6951
▁pound	-11.6952
▁connecting	-11.6954
▁jumping	-11.6969
▁marked	-11.697
▁greek	-11.6971
zz	-11.6976
▁allowing	-11.6978
▁stan	-11.6982
▁admitted	-11.6983
▁theories	-11.6984
▁senate	-11.6984
▁housing	-11.6984
▁taxes	-11.6987
▁den	-11.6987
▁equally	-11.6989
▁democratic	-11.6991
▁hon	-11.6992
▁talented	-11.6995
▁dale	-11.7001
▁5,000	-11.7006
▁conversations	-11.7014
▁suspicion	-11.7019
▁edward	-11.7019
▁fo	-11.7021
▁farmer	-11.7026
▁misaki	-11.7028
▁tragic	-11.703
▁challenging	-11.703
▁solving	-11.703
▁tuesday	-11.703
▁cisco	-11.703
▁selection	-11.7031
▁leverage	-11.7031
▁kitty	-11.7031
▁terrified	-11.7031
▁passage	-11.7032
▁molecular	-11.7032
▁anxiety	-11.7032
▁formation	-11.7034
▁opposed	-11.7039
just	-11.7044
▁yea	-11.705
▁included	-11.7053
▁meaningful	-11.7053
▁photon	-11.7054
▁proven	-11.706
▁decline	-11.7061
▁sleepy	-11.7067
▁pour	-11.7068
▁users	-11.7069
▁pirate	-11.707
▁bail	-11.7074
▁latin	-11.7076
▁polar	-11.7077
▁whip	-11.7077
▁ambition	-11.7077
▁consent	-11.7077
▁december	-11.7077
▁vincent	-11.7077
▁properties	-11.7077
▁thirsty	-11.7078
▁cdc	-11.7078
▁swords	-11.7079
0,000	-11.7085
fl	-11.709
▁performing	-11.7095
▁engines	-11.7108
▁interaction	-11.7116
▁download	-11.7117
▁precise	-11.7122
▁toxic	-11.7124
▁matrix	-11.7124
▁maximum	-11.7124
▁rebecca	-11.7124
▁leap	-11.7124
▁wives	-11.7124
▁harrison	-11.7125
▁abu	-11.7126
▁disturbing	-11.7129
▁dug	-11.7132
▁iii	-11.7137
▁tin	-11.7137
▁tsu	-11.7139
▁dong	-11.7143
▁witnessed	-11.7145
ow	-11.7156
▁prism	-11.716
12	-11.7165
▁shrink	-11.7165
▁testify	-11.7166
▁organisms	-11.7168
▁hacker	-11.7168
▁academic	-11.7171
▁arrival	-11.7171
▁leather	-11.7171
▁thursday	-11.7171
▁brooklyn	-11.7171
▁rotten	-11.7171
▁exhausted	-11.7172
▁plays	-11.7172
▁deaf	-11.7178
▁goals	-11.7181
▁washed	-11.7184
▁award	-11.7184
free	-11.7195
ium	-11.721
▁barrel	-11.7213
ach	-11.7213
▁pearl	-11.7216
▁slight	-11.7217
▁agriculture	-11.7219
▁reliable	-11.7219
▁ripped	-11.7219
▁sunset	-11.7219
▁targeting	-11.7224
▁handling	-11.7228
▁brad	-11.723
▁seventh	-11.7235
▁israel	-11.7235
▁miso	-11.7236
▁kou	-11.7237
▁directions	-11.7243
▁ohh	-11.7252
▁myth	-11.7258
▁ritual	-11.7261
▁jean	-11.7264
▁harris	-11.7265
▁aggressive	-11.7266
▁orchestra	-11.7266
▁mexican	-11.7266
ov	-11.7266
▁gently	-11.7266
▁overseas	-11.7266
▁cabinet	-11.7266
▁thread	-11.7271
▁burns	-11.7271
ita	-11.7274
▁josh	-11.7276
▁yards	-11.7282
▁1000	-11.7286
▁stations	-11.7286
▁divide	-11.7298
▁breaks	-11.7302
▁seeds	-11.7306
▁exhibit	-11.7309
▁faint	-11.731
ichan	-11.731
▁fragile	-11.7314
▁ramen	-11.7315
▁spotted	-11.7315
▁navy	-11.7315
▁adopted	-11.7317
▁jackson	-11.7317
▁wandering	-11.7318
▁houses	-11.7321
▁crushed	-11.7321
▁claimed	-11.7325
▁tent	-11.7329
▁bonds	-11.7333
▁proposed	-11.7333
▁thor	-11.7339
▁positions	-11.734
▁examine	-11.7344
▁envelope	-11.7345
▁discipline	-11.7346
▁dozens	-11.7349
▁multi	-11.7349
▁swallow	-11.7352
▁scheduled	-11.7354
▁invention	-11.7359
▁civilian	-11.736
▁delicate	-11.7362
▁fifteen	-11.7362
▁harvey	-11.7362
▁minimum	-11.7362
▁cherry	-11.7362
▁soviet	-11.7362
▁albert	-11.7362
▁abducted	-11.7363
▁noon	-11.7363
▁meanwhile	-11.7363
▁wicked	-11.7364
▁walks	-11.7367
▁detected	-11.7368
▁rio	-11.7372
▁outer	-11.7379
▁centers	-11.7379
▁honored	-11.7392
▁maps	-11.7398
▁residents	-11.7399
▁withdraw	-11.7402
▁ringing	-11.7402
▁mu	-11.7404
▁thumb	-11.7408
▁crucial	-11.7408
▁towel	-11.7409
▁clown	-11.741
▁lecter	-11.741
▁sunlight	-11.7411
▁christine	-11.7411
▁shout	-11.7418
▁lame	-11.7419
▁deceived	-11.7419
▁quest	-11.742
▁3,000	-11.742
▁solo	-11.7422
▁tama	-11.7425
rou	-11.743
▁strongly	-11.7439
▁pill	-11.7442
▁juliet	-11.7443
▁sweep	-11.7446
▁absorb	-11.7449
▁seeking	-11.745
ists	-11.7452
▁rebuild	-11.7453
▁aging	-11.7456
▁violin	-11.7458
▁benjamin	-11.7459
▁gratitude	-11.7459
▁initiative	-11.7459
▁unpleasant	-11.7459
▁radius	-11.7459
▁slade	-11.7459
▁rural	-11.7459
▁frightened	-11.7461
▁increasingly	-11.7462
▁yay	-11.7464
▁proved	-11.7465
▁finest	-11.7467
▁announced	-11.7476
▁synchron	-11.7479
▁oz	-11.7481
▁julie	-11.7488
▁evacuate	-11.7492
▁bald	-11.7493
▁baker	-11.7496
yama	-11.75
▁maker	-11.7505
▁therapist	-11.7508
▁gorilla	-11.7508
▁saber	-11.7508
▁freezing	-11.7508
▁elsewhere	-11.751
▁quitting	-11.751
▁wealthy	-11.7512
▁effectively	-11.7513
ities	-11.7524
▁figures	-11.7525
▁exception	-11.7531
▁intentions	-11.7535
▁barn	-11.7538
▁indicate	-11.7543
▁sticks	-11.7546
▁mice	-11.7548
▁corrupt	-11.7553
▁nurses	-11.7556
▁motivation	-11.7556
▁potato	-11.7556
▁inevitable	-11.7557
▁joffrey	-11.7557
▁swore	-11.7557
▁parole	-11.7557
▁ginger	-11.7557
▁elderman	-11.7557
▁hardware	-11.7558
▁apocalypse	-11.7562
▁runner	-11.7566
ning	-11.7568
▁belonged	-11.7571
▁presents	-11.7573
▁shocking	-11.7575
▁nickname	-11.759
▁muscles	-11.7591
▁hip	-11.7591
▁resolve	-11.7595
▁ban	-11.7595
ze	-11.7599
▁elephant	-11.76
▁bears	-11.76
▁infinite	-11.7604
ju	-11.7606
▁kakashi	-11.7606
▁amazon	-11.7606
▁empathy	-11.7606
▁anime	-11.7606
▁longterm	-11.7606
▁unhappy	-11.7606
▁doin	-11.7606
▁korean	-11.7609
▁organism	-11.761
▁molecule	-11.7611
▁robotics	-11.7614
▁sharks	-11.7617
▁meaningless	-11.7622
▁shane	-11.7625
▁prep	-11.7637
▁obey	-11.7645
au	-11.765
▁strings	-11.765
▁accomplish	-11.7651
▁wolves	-11.7655
▁fusion	-11.7656
▁terrifying	-11.7656
▁grain	-11.7656
▁clearance	-11.7657
▁psychopath	-11.7659
▁consultant	-11.7659
▁rival	-11.766
▁cheated	-11.7661
▁cartel	-11.7662
▁bid	-11.767
▁blocked	-11.7673
▁washing	-11.7673
▁mac	-11.7674
▁holds	-11.7679
▁detectives	-11.7682
▁si	-11.7689
▁praise	-11.769
▁filed	-11.7691
▁involves	-11.7693
▁harbor	-11.7705
▁poetry	-11.7705
▁copies	-11.7707
▁intent	-11.7708
▁tar	-11.7709
▁steven	-11.7715
▁rates	-11.7715
▁cracked	-11.7716
▁ross	-11.7716
lan	-11.772
▁abbott	-11.7723
▁mri	-11.7737
▁controls	-11.7738
▁metro	-11.774
▁insult	-11.7745
▁officials	-11.7752
▁concentration	-11.7755
▁dammit	-11.7755
▁heavily	-11.7755
▁monsieur	-11.7755
▁forgiveness	-11.776
▁brick	-11.776
▁deaths	-11.7764
▁keen	-11.7765
▁sakurako	-11.7765
▁compliment	-11.7765
▁hatch	-11.7767
▁sim	-11.7771
end	-11.7771
▁films	-11.7771
▁sha	-11.778
▁fooled	-11.7781
▁monkeys	-11.7782
▁raining	-11.7786
▁combine	-11.779
▁magnet	-11.7792
▁reflect	-11.78
▁divine	-11.7806
▁gambling	-11.7806
▁twilight	-11.7806
▁jude	-11.7806
▁stalker	-11.7806
▁collar	-11.781
▁urge	-11.781
▁supporting	-11.7812
▁titan	-11.7813
▁mustn	-11.7816
▁hooked	-11.7816
room	-11.7819
▁angela	-11.782
ichi	-11.7825
▁anne	-11.7831
▁sung	-11.7837
▁squeeze	-11.784
▁cigarettes	-11.7846
▁fog	-11.7847
ren	-11.785
▁favour	-11.7856
▁album	-11.7856
▁anxious	-11.7856
▁consumption	-11.7856
▁providing	-11.7856
▁contrary	-11.7856
▁dentist	-11.7856
▁countless	-11.7858
▁2008	-11.786
cra	-11.7862
▁clubs	-11.7862
▁complaining	-11.7864
▁surrounding	-11.7869
▁increases	-11.7872
▁singer	-11.7874
▁bare	-11.7885
▁hesitate	-11.7891
▁whereas	-11.7893
▁admiral	-11.7907
▁furniture	-11.7907
▁ronnie	-11.7907
▁teresa	-11.7907
▁widow	-11.7907
▁alliance	-11.7907
▁britain	-11.7907
▁grip	-11.7907
▁batteries	-11.7907
▁barbie	-11.7907
▁whistle	-11.7908
▁equipped	-11.7911
▁inch	-11.7912
▁lana	-11.7915
2.	-11.7916
▁pirates	-11.7917
▁coral	-11.7918
▁deserved	-11.7919
▁praying	-11.7922
▁approached	-11.7924
▁hop	-11.7927
▁ar	-11.7934
ep	-11.7934
▁measures	-11.7937
▁cass	-11.7939
▁arab	-11.7946
▁possess	-11.7947
▁involve	-11.7954
▁facilities	-11.7958
▁nephew	-11.7958
▁thieves	-11.7958
▁dubaku	-11.7958
▁stiff	-11.7958
▁romance	-11.7958
▁stray	-11.7959
▁lovers	-11.796
▁typically	-11.7961
▁managing	-11.7962
▁pi	-11.7962
▁roots	-11.7962
▁monitoring	-11.7969
▁detailed	-11.7971
ious	-11.7977
▁spots	-11.7981
▁zoom	-11.7986
▁gloves	-11.799
▁contains	-11.7991
▁nut	-11.7993
▁inspire	-11.7994
▁emissions	-11.7996
▁fist	-11.7996
bout	-11.8
▁scandal	-11.8003
▁asian	-11.8003
▁tasty	-11.8009
▁shade	-11.8009
▁reply	-11.8011
▁awareness	-11.8012
▁drowned	-11.8013
▁correctly	-11.8021
senpai	-11.8021
▁passport	-11.8023
▁rank	-11.8026
▁dots	-11.803
▁nerves	-11.8036
▁kang	-11.8038
▁ivan	-11.8039
▁flames	-11.8043
how	-11.8045
▁ga	-11.8045
▁wars	-11.8051
ps	-11.8055
▁overwhelming	-11.8059
▁reception	-11.806
▁mechanical	-11.806
▁saiyan	-11.8061
▁daryl	-11.8061
▁grail	-11.8061
▁skirt	-11.8061
▁flynn	-11.8061
▁minus	-11.8061
▁established	-11.8066
▁diagnosed	-11.8066
▁stamp	-11.8073
▁benny	-11.8075
▁pointing	-11.8083
there	-11.809
▁instruments	-11.8099
pro	-11.81
▁wired	-11.8102
▁globe	-11.8112
▁memorial	-11.8112
▁troubling	-11.8112
▁generate	-11.8112
▁magnificent	-11.8112
▁moses	-11.8113
▁percy	-11.8113
▁occasionally	-11.8113
▁skies	-11.8114
▁hachi	-11.8114
▁civilians	-11.8115
▁masa	-11.8116
ap	-11.8116
▁forgetting	-11.8117
▁scenes	-11.8118
▁thankful	-11.8119
▁swamp	-11.8119
▁fuss	-11.8122
▁messy	-11.8128
▁nails	-11.8143
▁retrieve	-11.8149
▁sora	-11.8149
ung	-11.8153
▁resource	-11.816
▁mutual	-11.8162
▁stare	-11.8163
▁submit	-11.8164
▁experiencing	-11.8165
▁hobbs	-11.8165
▁summit	-11.8165
▁gallery	-11.8165
▁valentine	-11.8165
▁gradually	-11.8165
▁architect	-11.8182
▁awhile	-11.8191
▁mighty	-11.8193
▁oops	-11.8194
▁ingredients	-11.8216
▁dylan	-11.8217
▁carpet	-11.8217
▁jewelry	-11.8217
▁dishes	-11.8219
▁todai	-11.822
ok	-11.8234
▁nap	-11.8238
▁muslim	-11.8238
▁cooked	-11.8241
▁filming	-11.8248
▁wished	-11.8248
▁stores	-11.8248
▁handled	-11.8249
▁rhythm	-11.826
▁tomato	-11.8269
▁abraham	-11.827
▁assembly	-11.827
▁fugitive	-11.827
▁houston	-11.827
▁skeleton	-11.827
▁dennis	-11.827
▁operator	-11.827
▁rapid	-11.827
▁worn	-11.827
▁denied	-11.827
▁ransom	-11.827
▁waking	-11.827
▁actress	-11.827
▁furthermore	-11.827
▁mansion	-11.8271
▁instantly	-11.8272
aki	-11.8277
▁potentially	-11.8278
▁bella	-11.8279
▁printing	-11.8281
▁hills	-11.8281
▁telescope	-11.829
▁crab	-11.829
▁aspect	-11.829
▁butcher	-11.8294
▁ti	-11.8294
▁ke	-11.8296
▁achieved	-11.8304
lic	-11.8305
▁sons	-11.8315
▁worthless	-11.8316
▁intern	-11.8322
▁parallel	-11.8322
▁forehead	-11.8322
▁hydrogen	-11.8322
▁lazy	-11.8323
▁stuffed	-11.8323
▁feedback	-11.8323
▁dried	-11.8324
▁stepping	-11.8324
▁synthetic	-11.8325
tz	-11.833
▁languages	-11.8337
▁ego	-11.8339
▁preparations	-11.8341
1.	-11.8343
▁fatal	-11.8343
▁reservation	-11.8344
▁du	-11.8352
▁dragons	-11.8354
▁yyou	-11.8356
▁statistics	-11.8366
▁parked	-11.8367
▁wires	-11.8373
▁involving	-11.8376
▁paranoid	-11.8376
▁ollie	-11.8376
▁cease	-11.8376
▁partnership	-11.8376
▁lamp	-11.8377
▁selected	-11.8379
▁transformed	-11.8384
▁acquaintance	-11.8398
▁equation	-11.8399
▁components	-11.8403
▁activates	-11.8405
▁clues	-11.8411
▁existing	-11.8411
▁jill	-11.8415
▁spray	-11.8419
▁meth	-11.842
▁fucker	-11.8424
▁misaka	-11.8427
▁agencies	-11.8429
▁corridor	-11.8429
▁luxury	-11.8429
▁moscow	-11.8429
▁intuition	-11.8429
▁healthcare	-11.8429
▁donald	-11.843
▁producing	-11.8432
▁goat	-11.8434
▁senses	-11.8435
▁sickness	-11.8439
▁tactical	-11.8439
▁diego	-11.8441
▁flowing	-11.8447
fe	-11.845
▁erased	-11.845
▁failing	-11.845
▁marshal	-11.8452
ori	-11.8453
▁analyze	-11.8466
▁yell	-11.8466
ile	-11.847
▁counsel	-11.8476
▁lighter	-11.848
▁gabriel	-11.8482
▁resort	-11.8483
▁auction	-11.8483
▁purple	-11.8483
▁hostile	-11.8483
▁chopper	-11.8485
▁audio	-11.8488
▁rescued	-11.8489
▁canceled	-11.849
▁bot	-11.8496
ology	-11.8497
▁allies	-11.8501
▁politician	-11.851
▁algorithm	-11.853
▁finishing	-11.8535
▁heights	-11.8535
▁gig	-11.8536
▁curtis	-11.8537
▁pregnancy	-11.8537
▁scheme	-11.8537
▁fridge	-11.8537
▁colony	-11.8538
▁chow	-11.8541
▁reserve	-11.8549
▁dimensions	-11.8554
▁butler	-11.8554
▁gen	-11.8555
pin	-11.8556
▁amounts	-11.8562
▁ankle	-11.8567
▁kicking	-11.8567
▁gifts	-11.8572
▁eun	-11.8573
▁retire	-11.8575
▁manipulate	-11.8576
▁pierce	-11.8576
▁returns	-11.8576
▁features	-11.8579
▁oceans	-11.8585
ure	-11.8588
▁rust	-11.8589
▁poem	-11.8589
▁february	-11.8591
▁butterfly	-11.8591
▁excitement	-11.8591
▁humble	-11.8591
▁wifi	-11.8591
▁philip	-11.8591
pu	-11.8592
▁confirmation	-11.8592
▁tuner	-11.8594
▁fastest	-11.8595
▁optimistic	-11.8601
▁fond	-11.8602
▁estimate	-11.8605
▁elder	-11.8605
iv	-11.861
▁scout	-11.861
▁responding	-11.861
▁risky	-11.8612
▁!!	-11.8619
▁dreamed	-11.862
▁taka	-11.8622
▁upside	-11.8626
▁reduced	-11.8626
▁antibiotics	-11.8629
hold	-11.8629
▁presented	-11.8634
ned	-11.8636
▁factors	-11.8636
▁pale	-11.8638
▁tracker	-11.864
▁genuine	-11.8644
▁horizon	-11.8646
▁gretchen	-11.8646
▁ribbon	-11.8646
▁bamboo	-11.8646
▁marilyn	-11.8646
▁spinning	-11.8646
▁fumikun	-11.8646
▁counselor	-11.8647
▁frustrated	-11.8647
▁elected	-11.8647
▁spectrum	-11.8647
▁wireless	-11.8648
▁resolution	-11.8648
▁alter	-11.8649
▁virginia	-11.8656
▁lure	-11.8661
▁tara	-11.8662
ut	-11.8663
▁circles	-11.8664
▁fry	-11.8665
▁cube	-11.8666
▁miki	-11.8672
▁lands	-11.8674
gg	-11.8674
▁33	-11.8677
▁caring	-11.8681
▁mini	-11.8681
▁shi	-11.8687
▁cart	-11.8688
▁tab	-11.8688
▁crawl	-11.8691
▁trans	-11.8692
▁lou	-11.8692
▁wreck	-11.8696
▁galaxies	-11.8701
▁halloween	-11.8701
▁innocence	-11.8701
▁jurisdiction	-11.8701
▁manuscript	-11.8701
▁thanksgiving	-11.8701
▁granny	-11.8701
▁employment	-11.8701
▁saitosan	-11.8702
▁avery	-11.8702
▁disk	-11.8703
▁percentage	-11.8704
▁possessed	-11.8706
▁twisted	-11.8706
▁comm	-11.8707
▁fred	-11.8708
▁grasp	-11.871
▁gyu	-11.8711
▁hacking	-11.8714
▁carrier	-11.8716
▁moreover	-11.8717
▁fur	-11.872
▁consumer	-11.8736
▁melt	-11.875
▁listed	-11.875
▁ichika	-11.8751
▁brutal	-11.8754
ide	-11.8754
▁investigated	-11.8755
▁atlantic	-11.8756
▁collins	-11.8756
▁pyramid	-11.8756
▁wheelchair	-11.8756
▁alzheimer	-11.8756
▁reggie	-11.8756
▁osaka	-11.8756
▁harassment	-11.8756
▁tuna	-11.8757
▁potatoes	-11.8757
▁thoroughly	-11.8758
▁viruses	-11.8762
point	-11.8765
▁gal	-11.8766
▁gus	-11.8768
▁cargo	-11.8769
▁cal	-11.8771
▁raped	-11.8782
▁curve	-11.8787
▁limb	-11.8787
rate	-11.8788
▁alike	-11.8788
▁scanner	-11.879
▁suggestion	-11.8791
▁soap	-11.8804
▁blonde	-11.8807
▁fabric	-11.8811
▁collaboration	-11.8812
▁essence	-11.8812
▁madison	-11.8812
▁sushi	-11.8812
▁2009	-11.8814
▁romeo	-11.8814
moto	-11.8816
▁tri	-11.8822
▁beard	-11.8823
▁economics	-11.8829
▁questioned	-11.8829
ability	-11.8832
,00	-11.8832
▁christian	-11.8835
▁explaining	-11.8836
uri	-11.8839
▁bump	-11.8839
omi	-11.8843
▁mia	-11.8844
▁refer	-11.8847
▁preparation	-11.8848
▁corporations	-11.8848
▁consume	-11.885
▁persuade	-11.8852
▁approve	-11.8852
▁mis	-11.8854
▁blessing	-11.8854
▁glenn	-11.8855
▁matched	-11.8855
qui	-11.886
▁pond	-11.886
▁blink	-11.8862
▁yield	-11.8863
▁dispatch	-11.8863
▁reckless	-11.8865
▁islands	-11.8865
▁consistent	-11.8865
▁bizarre	-11.8868
▁demonstration	-11.8868
▁lawrence	-11.8868
▁messenger	-11.8868
▁wizard	-11.8868
▁dagger	-11.8868
▁foul	-11.8868
▁crops	-11.8869
▁underwater	-11.8869
▁hospitals	-11.8872
▁attracted	-11.8874
▁idol	-11.8877
woman	-11.888
boy	-11.8883
▁sen	-11.8884
▁remained	-11.8888
▁shelf	-11.8892
▁leon	-11.8892
▁mar	-11.8898
▁perception	-11.8904
▁comrade	-11.8905
▁250	-11.8914
▁issued	-11.8916
▁bargain	-11.8918
▁warriors	-11.8919
▁kenya	-11.8923
▁guidance	-11.8924
▁terrific	-11.8924
▁tachibana	-11.8924
▁neural	-11.8924
▁oneechan	-11.8924
▁amber	-11.8926
▁sadness	-11.8928
▁johnson	-11.8929
▁pumpkin	-11.8934
▁gained	-11.8935
▁estimated	-11.894
ible	-11.8941
▁suite	-11.8944
▁filling	-11.8949
▁visualize	-11.8954
▁dimension	-11.8962
▁fiber	-11.8963
▁evolve	-11.8965
▁ron	-11.8974
▁inviting	-11.898
▁savior	-11.898
▁winterfell	-11.898
▁elegant	-11.898
▁whiskey	-11.898
▁pencil	-11.898
▁anakin	-11.898
▁trent	-11.898
▁venture	-11.8981
▁sunny	-11.8981
osan	-11.8983
13	-11.8987
▁buck	-11.8987
▁designing	-11.8988
▁neat	-11.899
▁healed	-11.8991
▁torn	-11.8991
▁ashes	-11.8991
▁planes	-11.8992
▁abe	-11.8999
▁spear	-11.9001
▁remembering	-11.9004
▁mega	-11.9016
are	-11.9021
▁exams	-11.9022
▁kings	-11.9023
15	-11.9023
▁hail	-11.9025
▁prayer	-11.9027
▁situations	-11.9035
▁starfleet	-11.9037
▁unstable	-11.9037
▁pelt	-11.9037
▁viral	-11.9037
▁ge	-11.9037
▁drake	-11.9038
▁barnes	-11.9038
▁grandson	-11.9039
▁workplace	-11.9039
▁dam	-11.9045
▁yelling	-11.9047
▁edo	-11.9051
▁sadly	-11.9053
▁avoiding	-11.9062
▁fracture	-11.9063
▁compromise	-11.9079
▁wheels	-11.9084
!!!	-11.9089
▁sketch	-11.9091
▁moore	-11.9091
▁christopher	-11.9094
▁diagnosis	-11.9094
▁impulse	-11.9094
▁prescription	-11.9094
▁sydney	-11.9094
▁jenny	-11.9094
▁intact	-11.9095
▁cellphone	-11.9095
▁spain	-11.9095
▁explosives	-11.9097
▁bullying	-11.9098
▁backyard	-11.9099
▁gil	-11.9102
▁disabled	-11.9104
▁mold	-11.9106
▁mainly	-11.911
▁incoming	-11.9113
▁del	-11.9113
▁va	-11.9119
▁boot	-11.912
▁jokes	-11.9128
▁kissing	-11.9133
▁float	-11.9134
▁contribute	-11.9136
▁drivers	-11.9137
▁physician	-11.9138
▁marketing	-11.9138
▁fingerprint	-11.9139
▁lamb	-11.9147
▁wh	-11.915
▁adorable	-11.9152
▁cardiac	-11.9152
▁fetch	-11.9152
▁index	-11.9152
▁expertise	-11.9152
▁evolutionary	-11.9152
▁luckily	-11.9152
▁slavery	-11.9153
▁kouta	-11.9153
tion	-11.9154
▁shapes	-11.9157
▁weed	-11.9162
our	-11.9162
▁scrap	-11.9166
chuckles	-11.917
▁comic	-11.9172
▁poisoning	-11.9177
▁corrected	-11.918
ative	-11.9188
ence	-11.9189
▁hopes	-11.9192
▁pub	-11.9192
▁bench	-11.9194
▁tribe	-11.9198
▁bugs	-11.9202
▁matching	-11.9208
▁coffin	-11.9209
▁convincing	-11.9209
▁natalie	-11.9209
▁russell	-11.9209
▁honour	-11.921
▁automatically	-11.921
▁accountant	-11.921
▁portion	-11.921
▁greenhouse	-11.9211
▁copper	-11.9213
▁accomplished	-11.9214
▁anyhow	-11.9218
▁processes	-11.9219
▁executed	-11.9223
▁tire	-11.9228
▁yoshi	-11.9231
sighs	-11.9231
▁adding	-11.9243
▁opens	-11.9245
▁framed	-11.9247
▁pod	-11.9248
▁hiro	-11.9251
▁dial	-11.9251
▁ren	-11.9264
▁goddess	-11.9267
▁hudson	-11.9268
▁vacuum	-11.9268
▁assassination	-11.9268
▁productive	-11.9268
▁tucker	-11.9269
▁youngest	-11.9276
▁deb	-11.9276
▁motivated	-11.9277
▁fe	-11.9281
▁habitat	-11.929
top	-11.929
▁dull	-11.9295
▁bum	-11.9295
▁cape	-11.9296
▁faction	-11.9298
25	-11.9302
▁magazines	-11.9302
▁noah	-11.9311
▁commission	-11.9318
▁addict	-11.9321
▁tsukuda	-11.9324
▁takagi	-11.9326
ip	-11.9326
▁stew	-11.9326
▁legitimate	-11.9326
▁eugene	-11.9326
▁rudy	-11.9326
▁annual	-11.9326
▁chin	-11.9327
▁randy	-11.9327
▁hitler	-11.9329
▁distracted	-11.933
▁select	-11.933
▁hunters	-11.9331
▁cheaper	-11.9333
▁sober	-11.9334
▁plates	-11.934
▁declared	-11.9341
▁soda	-11.9341
they	-11.9344
box	-11.9346
▁sole	-11.9351
▁sets	-11.9357
pan	-11.9368
▁cos	-11.9369
▁preserve	-11.9369
▁bottles	-11.937
las	-11.9374
▁fixing	-11.9376
▁120	-11.9377
▁convey	-11.938
▁55	-11.9382
▁basket	-11.9385
▁accompany	-11.9385
▁alexander	-11.9385
▁hybrid	-11.9385
▁sunshine	-11.9385
▁qualified	-11.9385
▁joshua	-11.9385
▁jewish	-11.9385
▁rooftop	-11.9385
▁hannah	-11.9385
▁replacement	-11.9385
▁shipping	-11.9386
▁poster	-11.9387
▁thrilled	-11.9388
▁founded	-11.9393
▁divided	-11.9404
▁pose	-11.9413
▁assured	-11.9418
▁improved	-11.9424
▁confront	-11.9434
▁establish	-11.9434
▁disturb	-11.9434
▁nazi	-11.9436
▁acted	-11.944
▁arriving	-11.9444
▁liquor	-11.9444
▁penalty	-11.9444
▁supermarket	-11.9444
▁ladder	-11.9444
▁parade	-11.9444
▁elderly	-11.9446
▁shove	-11.9448
▁counts	-11.9448
▁consult	-11.9449
▁killers	-11.9452
▁acquired	-11.946
▁il	-11.9462
▁sends	-11.9464
▁trains	-11.9464
▁drops	-11.9474
▁cents	-11.9487
▁kindly	-11.9494
▁protest	-11.9495
▁snack	-11.9498
▁tails	-11.9501
ea	-11.9501
▁regrets	-11.9502
▁polite	-11.9502
▁olive	-11.9502
port	-11.9503
▁egypt	-11.9503
▁cocaine	-11.9504
▁emerging	-11.9504
▁honeymoon	-11.9504
▁irrelevant	-11.9504
▁philosophy	-11.9504
▁whatsoever	-11.9504
▁triangle	-11.9504
▁cattle	-11.9504
▁appetite	-11.9504
▁hound	-11.9504
▁mortality	-11.9504
▁breakthrough	-11.9504
▁skynet	-11.9504
▁equality	-11.9505
▁lemon	-11.9507
▁shouting	-11.9511
▁fled	-11.9512
▁approved	-11.9524
laughs	-11.9525
uma	-11.9531
▁yur	-11.9534
▁applications	-11.9537
▁missiles	-11.9541
▁adapt	-11.9552
▁imp	-11.9552
▁invent	-11.9552
▁greet	-11.9553
▁contacts	-11.9559
▁companion	-11.9559
▁chu	-11.956
▁explosive	-11.956
▁obtain	-11.9561
▁surgical	-11.9561
▁mortal	-11.9563
▁joseph	-11.9563
▁accelerator	-11.9563
▁dessert	-11.9563
▁embedded	-11.9563
▁policies	-11.9563
▁supervisor	-11.9563
▁sagara	-11.9564
▁rubber	-11.9564
▁taiki	-11.9564
▁laura	-11.9564
▁peterson	-11.9566
▁strictly	-11.9566
▁2005	-11.9569
▁nagisa	-11.9583
ui	-11.9597
▁dinosaurs	-11.9599
▁emerge	-11.9608
▁demonstrate	-11.9608
▁stored	-11.9615
stro	-11.9616
▁hyper	-11.9619
▁label	-11.9621
▁technological	-11.9622
▁fortunate	-11.9622
▁mathematical	-11.9622
▁historical	-11.9622
▁container	-11.9623
▁bonus	-11.9623
▁celebrity	-11.9624
▁phoenix	-11.9624
▁rehearsal	-11.9624
▁creator	-11.9624
▁racing	-11.9624
▁stannis	-11.9624
▁morgue	-11.9624
▁casualties	-11.9624
▁persistent	-11.9624
▁langley	-11.9624
▁martinez	-11.9624
▁rookie	-11.9624
▁petty	-11.9625
▁greedy	-11.9626
▁madness	-11.9628
▁folk	-11.9628
▁servants	-11.964
▁penguins	-11.9644
▁jewel	-11.9647
▁irish	-11.9648
▁cultures	-11.965
▁buyer	-11.966
▁drum	-11.9665
ong	-11.9665
▁fears	-11.9669
rk	-11.967
▁bass	-11.9672
ham	-11.9674
▁pointless	-11.9676
▁glow	-11.9679
gy	-11.968
▁izumi	-11.9683
▁abstract	-11.9684
▁razor	-11.9684
▁klaus	-11.9684
▁puppy	-11.9684
▁hostess	-11.9684
▁immunity	-11.9684
▁boundaries	-11.9684
▁sensor	-11.9685
▁salad	-11.9686
▁sasha	-11.9687
▁momentum	-11.9691
ata	-11.9692
▁dancer	-11.9698
▁discussed	-11.9704
▁banker	-11.9705
ken	-11.9706
▁mal	-11.9708
▁dose	-11.9709
▁organize	-11.9722
▁info	-11.9727
▁pad	-11.9728
▁boarding	-11.9734
▁unlock	-11.9735
▁weigh	-11.9738
▁temper	-11.974
▁rail	-11.974
▁hayato	-11.9742
▁execution	-11.9742
▁advisor	-11.9745
▁coulson	-11.9745
▁eager	-11.9745
▁exploration	-11.9745
▁ignoring	-11.9745
▁plague	-11.9745
▁cowboy	-11.9745
▁blanket	-11.9745
rn	-11.9749
▁leaked	-11.9752
▁pd	-11.9752
▁blows	-11.9753
▁evans	-11.9756
▁spaces	-11.9756
▁junichi	-11.9768
▁discussing	-11.9772
grade	-11.9775
▁convention	-11.9776
▁poet	-11.9786
▁cue	-11.9788
▁buzz	-11.9798
▁lightly	-11.9802
▁cognitive	-11.9805
▁endless	-11.9806
▁bankrupt	-11.9807
▁analyst	-11.9807
▁grenade	-11.9807
▁promising	-11.9807
▁freddy	-11.9807
▁capability	-11.9807
looking	-11.9807
▁artery	-11.9807
▁emma	-11.9808
▁efficiency	-11.9808
▁override	-11.9809
▁massage	-11.9809
▁protective	-11.981
▁zoey	-11.9811
▁norman	-11.9811
▁obtained	-11.9811
nu	-11.9812
▁sc	-11.9819
▁beck	-11.982
▁gunshot	-11.982
▁spark	-11.9822
▁reset	-11.9825
▁50,000	-11.9829
▁shotgun	-11.9832
▁speaks	-11.9834
▁expenses	-11.9835
▁disappearing	-11.984
▁tub	-11.9849
▁sw	-11.9852
▁revive	-11.9853
cal	-11.9855
▁supposedly	-11.9859
▁drain	-11.9859
har	-11.9864
▁hinata	-11.9868
▁celebrating	-11.9868
▁dallas	-11.9868
▁fiona	-11.9868
phone	-11.987
▁renee	-11.987
▁portal	-11.9871
▁accidentally	-11.9871
▁robin	-11.9871
▁headache	-11.9873
▁poker	-11.9876
▁kenji	-11.988
▁hardest	-11.9882
▁tricky	-11.9882
kai	-11.9885
▁sting	-11.9886
▁mon	-11.9887
▁droids	-11.9888
▁spine	-11.9889
▁functions	-11.9892
▁slaughter	-11.991
▁erik	-11.991
▁beliefs	-11.9913
ang	-11.9915
▁porn	-11.9917
▁contents	-11.9917
▁hut	-11.9918
▁smash	-11.992
▁elijah	-11.993
▁jonathan	-11.993
▁nicholas	-11.993
▁squirrel	-11.993
▁microbes	-11.993
▁cotton	-11.993
▁circus	-11.993
▁gellar	-11.993
▁array	-11.9931
▁tennis	-11.9931
▁cd	-11.9931
▁shed	-11.9934
▁narrative	-11.9935
▁sookie	-11.9936
▁fundamentally	-11.9936
▁handful	-11.9939
▁newspapers	-11.9943
book	-11.9947
ably	-11.9949
▁flare	-11.9957
▁includes	-11.9962
iness	-11.9964
nce	-11.9965
▁trusting	-11.9966
▁dates	-11.9967
▁quarters	-11.9967
▁worship	-11.9972
▁kane	-11.9978
▁interviews	-11.998
▁pope	-11.998
kosan	-11.9981
▁sacrificed	-11.9985
▁indicates	-11.9991
▁defensive	-11.9993
▁dwarf	-11.9993
▁gimme	-11.9993
▁sophie	-11.9993
▁unprecedented	-11.9993
▁blaming	-11.9993
▁gulf	-11.9993
▁lewis	-11.9993
▁trivial	-11.9993
▁traced	-11.9995
▁measured	-11.9997
▁gregory	-11.9997
▁sheets	-11.9998
▁pickup	-12
▁serves	-12
▁succeeded	-12.0003
▁deadline	-12.0004
▁bra	-12.0005
▁lifted	-12.0007
▁cloth	-12.0009
▁quiz	-12.0011
▁col	-12.0012
py	-12.0015
▁germans	-12.0021
▁scars	-12.0027
▁fury	-12.0029
▁borders	-12.0029
▁marrying	-12.003
▁declare	-12.004
▁disguise	-12.0041
▁34	-12.0043
▁maze	-12.0043
ek	-12.0044
ama	-12.0046
▁gale	-12.0051
▁echo	-12.0052
▁ju	-12.0053
▁thorough	-12.0054
▁kobato	-12.0055
▁snakes	-12.0056
▁buddha	-12.0056
▁exposure	-12.0056
▁orleans	-12.0056
▁superintendent	-12.0056
▁violet	-12.0056
▁taliban	-12.0056
▁martha	-12.0056
▁instructor	-12.0056
▁nursery	-12.0057
▁lowest	-12.0059
▁extended	-12.0062
▁insisted	-12.0064
▁nigger	-12.0064
▁antique	-12.0064
▁awfully	-12.0065
▁craft	-12.0068
▁wander	-12.0069
two	-12.0071
▁joey	-12.0072
▁worm	-12.0075
▁rap	-12.0079
▁packing	-12.008
▁resting	-12.0084
▁ty	-12.0085
war	-12.0089
▁dressing	-12.0092
▁accounting	-12.0096
▁vessels	-12.0099
ties	-12.0102
▁ye	-12.0103
▁promote	-12.0104
▁adjust	-12.0109
▁satellites	-12.0109
▁relate	-12.0113
▁scoop	-12.0115
▁spectacular	-12.0117
▁fiance	-12.0118
8.	-12.0119
▁darwin	-12.0119
▁dominic	-12.0119
▁obligation	-12.0119
▁yuuki	-12.0119
▁tanner	-12.012
▁mature	-12.012
▁vanished	-12.0122
▁bunker	-12.0122
▁manners	-12.0122
▁hometown	-12.0123
▁suitable	-12.0125
▁ch	-12.0127
▁generator	-12.0129
▁kidney	-12.013
▁volunteers	-12.0139
▁mor	-12.0146
▁misa	-12.0146
▁kilo	-12.0148
▁villages	-12.0155
▁experimental	-12.0159
▁pressing	-12.0163
▁fools	-12.0163
▁probe	-12.0163
▁rig	-12.0165
▁codes	-12.0167
▁drown	-12.0173
▁cl	-12.0175
▁broker	-12.0176
▁eighth	-12.0179
▁yoko	-12.018
▁bounty	-12.0183
▁cortex	-12.0183
▁eternity	-12.0183
▁hodgins	-12.0183
▁strawberry	-12.0183
▁martial	-12.0183
▁motorcycle	-12.0183
▁bullied	-12.0183
▁crane	-12.0183
▁marumo	-12.0183
▁programming	-12.0183
▁dragging	-12.0183
▁bodyguard	-12.0184
▁medic	-12.0184
▁waitress	-12.0185
▁farther	-12.0185
more	-12.0186
▁owners	-12.0187
▁programmed	-12.0187
▁reflection	-12.0188
▁sally	-12.0189
ub	-12.0189
▁pilots	-12.019
▁invested	-12.0191
▁spite	-12.0191
ami	-12.0191
▁cu	-12.0196
▁specialist	-12.02
▁joker	-12.0202
oshi	-12.0202
ward	-12.0204
please	-12.0207
▁interviewed	-12.0208
▁strangely	-12.0218
▁mug	-12.0223
▁profits	-12.0227
▁publish	-12.0228
▁distress	-12.0243
▁demo	-12.0244
▁takeru	-12.0244
2,	-12.0247
▁arrogant	-12.0247
▁probability	-12.0247
▁casino	-12.0247
▁gossip	-12.0247
▁beacon	-12.0247
▁lottery	-12.0247
▁rogue	-12.0247
ford	-12.0251
▁recommended	-12.0256
▁setup	-12.0258
▁tshirt	-12.026
▁relation	-12.026
▁improvement	-12.026
▁signing	-12.0261
▁survivor	-12.0261
▁ridge	-12.0262
▁secured	-12.0263
zawa	-12.0264
▁fights	-12.0264
▁43	-12.0275
▁dj	-12.0275
▁policeman	-12.0276
ade	-12.0281
▁grounds	-12.0282
music	-12.0284
▁axe	-12.0286
▁wears	-12.0289
type	-12.0297
▁supported	-12.0301
▁accepting	-12.0305
▁frost	-12.0309
▁dutch	-12.0311
▁meter	-12.0311
▁corporal	-12.0311
▁external	-12.0311
▁feast	-12.0311
▁lorelei	-12.0311
▁subaru	-12.0311
▁sympathy	-12.0311
▁confusing	-12.0311
▁metatron	-12.0311
▁charlotte	-12.0313
▁heroin	-12.0315
▁bun	-12.0317
yu	-12.032
▁predicted	-12.0321
▁chester	-12.0322
related	-12.0323
▁rec	-12.0323
▁nicky	-12.0325
▁ongoing	-12.0325
▁vulcan	-12.0326
▁ecosystem	-12.0326
▁associates	-12.0327
▁resident	-12.0327
▁stunt	-12.0328
▁tick	-12.0329
▁sch	-12.0329
▁printer	-12.033
tter	-12.0332
▁dash	-12.0334
▁ruler	-12.0336
▁victoria	-12.0339
▁articles	-12.0342
▁ballet	-12.0343
▁diner	-12.0347
▁respected	-12.0348
▁sucker	-12.0349
▁complaints	-12.0353
▁somethin	-12.036
▁wo	-12.036
▁nova	-12.0361
▁ratio	-12.0373
▁introduction	-12.0376
▁reconsider	-12.0376
▁resume	-12.0376
▁samuel	-12.0376
▁involvement	-12.0377
▁contrast	-12.0377
▁domain	-12.0377
▁whistler	-12.0379
bound	-12.0381
net	-12.0382
▁remotely	-12.0382
▁contained	-12.0383
▁jr	-12.0384
▁lethal	-12.0384
▁sandy	-12.0388
▁bitches	-12.039
▁gar	-12.039
▁attending	-12.039
▁kan	-12.0393
▁proteins	-12.0394
▁gp	-12.0396
▁tessa	-12.0399
▁georgia	-12.04
▁ranger	-12.0405
▁knocking	-12.0408
▁algorithms	-12.0409
▁texts	-12.0411
▁liz	-12.0413
▁advise	-12.0421
▁educational	-12.0422
▁blend	-12.0428
▁actors	-12.043
aku	-12.0431
▁chew	-12.0431
▁doubled	-12.0437
oon	-12.0437
▁mikami	-12.044
▁alicia	-12.0442
▁charging	-12.0442
▁wellbeing	-12.0442
▁bacon	-12.0442
▁dense	-12.0442
▁skinny	-12.0443
▁lump	-12.0443
▁prom	-12.0444
▁consideration	-12.0445
▁masters	-12.0446
▁conducted	-12.0448
▁childish	-12.0449
▁nina	-12.045
▁grades	-12.0455
▁electronics	-12.0457
▁promoted	-12.0458
▁cheek	-12.0459
cat	-12.0462
▁arrangements	-12.047
▁operational	-12.0471
▁exploded	-12.0472
▁regional	-12.0485
▁ram	-12.0491
▁promises	-12.0499
▁regime	-12.0506
ag	-12.0506
▁felix	-12.0508
▁chappie	-12.0508
▁suzuki	-12.0508
▁1990	-12.0509
▁walkers	-12.0511
▁hugo	-12.0512
ora	-12.0512
▁briefly	-12.0512
▁prank	-12.0513
▁helpless	-12.0514
▁kinji	-12.0516
▁realizing	-12.0517
▁draft	-12.0519
▁interior	-12.0522
▁nothin	-12.0526
ock	-12.0534
▁chains	-12.0536
▁heavens	-12.0542
▁ambush	-12.0569
▁tapes	-12.057
▁nana	-12.0573
▁functional	-12.0573
▁anthony	-12.0574
▁engaging	-12.0574
▁exploring	-12.0574
▁refrigerator	-12.0574
▁shinigami	-12.0574
▁stadium	-12.0574
▁releasing	-12.0574
▁removing	-12.0574
▁microscope	-12.0574
▁duties	-12.0574
▁inoue	-12.0574
▁reborn	-12.0574
▁diving	-12.0574
▁christina	-12.0574
▁intersection	-12.0574
▁2011	-12.0575
▁sansa	-12.0576
▁2012	-12.0576
▁upload	-12.0577
▁mushi	-12.0577
▁virtually	-12.0578
▁za	-12.0584
▁trailer	-12.0586
▁kato	-12.0588
too	-12.0589
▁20,000	-12.059
▁rebel	-12.0598
▁lena	-12.0599
▁musician	-12.06
▁swat	-12.0611
▁dealt	-12.0614
ical	-12.0614
▁karl	-12.0614
▁tackle	-12.0622
▁deals	-12.0623
▁regain	-12.063
▁der	-12.0632
nc	-12.0633
19	-12.0634
▁stash	-12.0637
▁whoo	-12.0638
▁raymond	-12.064
▁banner	-12.064
▁cocktail	-12.064
▁liking	-12.0642
▁rex	-12.0643
▁installed	-12.0644
▁mentally	-12.0649
▁maniac	-12.065
▁angie	-12.065
die	-12.065
▁fringe	-12.0651
▁ironic	-12.0656
▁oo	-12.0659
light	-12.0662
▁ally	-12.0678
▁habits	-12.068
▁kei	-12.0684
▁dolls	-12.0687
▁trucks	-12.0692
tan	-12.0698
eye	-12.0703
▁blunt	-12.0706
▁animation	-12.0708
▁wednesday	-12.0708
▁sperm	-12.0708
▁relay	-12.0708
▁referring	-12.0708
▁straw	-12.0708
▁persian	-12.0708
▁rally	-12.0709
▁kirk	-12.0711
▁carries	-12.0721
▁scaring	-12.0721
▁classmates	-12.0723
▁liberal	-12.0725
▁servers	-12.0731
▁911.	-12.0732
▁defined	-12.0734
▁footprint	-12.0734
uck	-12.0739
▁elliot	-12.0742
cle	-12.0744
▁candidates	-12.0747
▁smelled	-12.0751
ky	-12.076
▁choi	-12.0767
▁nigeria	-12.0773
▁profession	-12.0774
▁morris	-12.0774
▁ellis	-12.0774
▁hawaii	-12.0775
▁makoto	-12.0775
▁avenge	-12.0775
▁coroner	-12.0775
▁eldest	-12.0775
▁shinpachi	-12.0775
▁atlanta	-12.0775
▁capsule	-12.0775
▁translation	-12.0775
▁inheritance	-12.0775
▁extinction	-12.0775
▁encrypted	-12.0776
▁hamburger	-12.0777
▁branches	-12.0778
▁shipment	-12.0779
▁firmly	-12.0783
bit	-12.0783
▁trend	-12.0787
▁filter	-12.0792
▁scum	-12.0796
▁instincts	-12.0796
▁comrades	-12.0798
▁poll	-12.0801
▁dinosaur	-12.0805
▁teenager	-12.0805
good	-12.0806
▁cookie	-12.0807
with	-12.0811
ini	-12.0813
▁tense	-12.0818
not	-12.0829
▁distract	-12.0833
maker	-12.0841
▁advertising	-12.0843
▁fischer	-12.0843
▁hurricane	-12.0843
▁jupiter	-12.0843
▁vodka	-12.0843
▁orphanage	-12.0843
▁prefecture	-12.0845
▁grandchildren	-12.0845
▁competitive	-12.0846
▁strap	-12.0849
▁complaint	-12.0852
▁siblings	-12.0856
▁spike	-12.0856
▁protector	-12.086
▁ver	-12.0861
▁shiro	-12.0867
▁ned	-12.0868
▁pine	-12.087
▁logo	-12.0871
lar	-12.0872
▁williams	-12.0876
▁producer	-12.0879
▁vic	-12.088
▁noodles	-12.088
▁handy	-12.0882
▁coins	-12.0889
▁focusing	-12.0892
▁execute	-12.0896
▁bark	-12.0897
▁bearing	-12.0901
▁timeline	-12.0902
▁jan	-12.0907
▁burnt	-12.0909
▁nightmares	-12.0909
▁teenage	-12.091
▁confidential	-12.0912
▁carnival	-12.0912
▁housewife	-12.0912
▁imagining	-12.0912
▁merlyn	-12.0912
▁nevertheless	-12.0912
▁octopus	-12.0912
▁xyz	-12.0912
▁oath	-12.0912
▁rehab	-12.0912
▁akatsuki	-12.0912
▁lousy	-12.0912
▁masterpiece	-12.0912
▁crowley	-12.0912
▁knights	-12.0913
▁repeatedly	-12.0913
▁ivy	-12.0914
▁rental	-12.0915
▁logical	-12.0919
oma	-12.0919
▁distributed	-12.0922
▁represented	-12.0922
▁output	-12.0928
▁forests	-12.0929
▁vent	-12.0929
▁moss	-12.0929
ice	-12.0932
▁resolved	-12.0934
▁restored	-12.0937
▁debts	-12.0942
▁consequence	-12.0944
▁socks	-12.0948
▁custom	-12.0949
▁vocal	-12.0949
▁grimm	-12.0951
...?!	-12.0954
▁marco	-12.0955
▁lighting	-12.0956
▁acquire	-12.0966
▁midst	-12.0971
▁vietnam	-12.0981
▁buddies	-12.0981
▁confusion	-12.0981
▁figuring	-12.0981
▁identification	-12.0981
▁outbreak	-12.0981
▁perfume	-12.0981
▁yakuza	-12.0981
▁diagram	-12.0981
▁extension	-12.0981
▁microphone	-12.0981
▁informant	-12.0981
▁tandy	-12.0981
▁consultation	-12.0981
▁iranian	-12.0981
▁convicted	-12.0982
▁cassie	-12.0983
▁dismissed	-12.0983
pol	-12.0986
▁drowning	-12.0987
▁losses	-12.0987
▁52	-12.0987
▁legally	-12.0992
▁beats	-12.0994
▁behavioral	-12.1002
▁investors	-12.1006
▁38	-12.1009
▁anyways	-12.101
ign	-12.1012
▁assumption	-12.1014
▁component	-12.1015
▁oda	-12.102
▁ruled	-12.1027
▁arrives	-12.1031
▁rei	-12.1033
asan	-12.1033
▁negate	-12.1035
▁reject	-12.1039
hole	-12.1049
▁catholic	-12.105
▁comparison	-12.105
▁innovative	-12.105
▁pursuing	-12.105
▁reunion	-12.105
▁outstanding	-12.105
▁scholarship	-12.105
▁absent	-12.105
▁stanford	-12.105
▁obama	-12.105
▁caspere	-12.105
▁akira	-12.1051
oka	-12.1055
▁unreasonable	-12.1055
▁auntie	-12.1055
▁hye	-12.1055
▁backpack	-12.1056
▁ops	-12.1056
▁encountered	-12.1058
▁printed	-12.1061
▁tanks	-12.1063
art	-12.1065
▁crowded	-12.1066
▁strikes	-12.1069
▁zs	-12.107
▁dated	-12.1075
▁pawn	-12.1075
ada	-12.1078
▁authentic	-12.1082
▁scores	-12.1083
▁laying	-12.1084
▁distraction	-12.1085
▁wig	-12.1091
▁booked	-12.1093
▁95	-12.1096
ification	-12.1098
ft	-12.1099
▁overall	-12.1102
▁lens	-12.1107
▁clones	-12.111
▁falcone	-12.1114
▁trunks	-12.1119
▁desmond	-12.112
▁knives	-12.112
▁surviving	-12.112
▁isaac	-12.112
▁hahaha	-12.112
▁resignation	-12.112
▁framework	-12.112
▁popped	-12.112
▁serum	-12.1121
▁coverage	-12.1122
▁2004	-12.1126
▁swallowed	-12.1126
▁consulting	-12.1127
▁dock	-12.113
▁hackers	-12.1133
▁climbed	-12.1134
▁addy	-12.1136
5.	-12.1137
▁funded	-12.1142
▁les	-12.1146
▁rolled	-12.1147
4.	-12.1147
▁andrea	-12.1153
▁cartoon	-12.1156
▁expense	-12.1158
your	-12.116
▁sack	-12.1162
▁cao	-12.1163
▁justin	-12.1163
▁investigations	-12.1167
▁behold	-12.1177
▁adopt	-12.118
▁peck	-12.1184
▁cruise	-12.1187
▁cleaner	-12.119
▁cyrus	-12.119
▁dispute	-12.119
▁elaborate	-12.119
▁glorious	-12.119
▁inequality	-12.119
▁monroe	-12.119
▁niece	-12.119
▁offensive	-12.119
▁pistol	-12.119
▁reduction	-12.119
▁debris	-12.119
▁seigi	-12.1191
▁obsession	-12.1191
▁islam	-12.1192
▁hunch	-12.1193
▁dorm	-12.1194
▁amen	-12.1195
▁publishing	-12.1197
▁hans	-12.1198
▁ab	-12.1199
▁cured	-12.1199
hy	-12.12
▁defending	-12.1207
▁ci	-12.1207
ec	-12.1212
▁scarf	-12.1223
40	-12.1224
▁sponsor	-12.1224
▁atlas	-12.1226
▁footprints	-12.1234
▁sta	-12.1245
45	-12.125
take	-12.1251
▁gamble	-12.1257
▁exclusive	-12.1259
▁nitta	-12.126
▁anchor	-12.1261
▁ambitious	-12.1261
▁category	-12.1261
▁dorothy	-12.1261
▁infant	-12.1261
▁irresponsible	-12.1261
▁skywalker	-12.1261
▁sworn	-12.1261
▁jellyfish	-12.1261
▁interference	-12.1261
▁dramatically	-12.1262
▁axis	-12.1262
▁disappearance	-12.1262
▁dental	-12.1262
14	-12.1263
▁kagami	-12.1264
▁pause	-12.1265
▁inherited	-12.1265
ik	-12.1267
▁crawling	-12.1269
▁nishi	-12.1269
▁pork	-12.127
use	-12.1273
▁riot	-12.1275
mile	-12.1277
▁freaked	-12.1277
▁permit	-12.1279
istic	-12.1284
▁nobel	-12.1287
▁lawn	-12.1288
▁enable	-12.1289
▁abel	-12.1292
▁marines	-12.1293
▁lister	-12.1295
▁stink	-12.1296
▁careless	-12.1304
▁objection	-12.1304
▁cur	-12.1313
▁yuu	-12.1314
▁calculate	-12.1317
▁asano	-12.1317
▁heroic	-12.1318
▁founder	-12.1322
▁adrian	-12.133
▁alfred	-12.1331
▁grey	-12.1333
▁hanamichi	-12.1333
▁hypothesis	-12.1333
▁pollution	-12.1333
▁treason	-12.1333
▁unicorn	-12.1333
▁guild	-12.1333
▁briefcase	-12.1333
▁cunt	-12.1333
▁landlord	-12.1333
▁affection	-12.1334
▁bingo	-12.1334
▁frequently	-12.1334
▁perry	-12.1336
▁successor	-12.1337
fully	-12.1341
▁armored	-12.1342
▁devoted	-12.1342
▁hawk	-12.1343
▁mami	-12.1351
▁regulations	-12.1352
▁whales	-12.1352
▁asses	-12.1357
▁betting	-12.1357
▁mist	-12.1358
▁dh	-12.1366
▁regard	-12.1367
▁nan	-12.1369
▁requesting	-12.1371
▁vega	-12.1376
▁loki	-12.138
200	-12.1386
▁shiny	-12.1388
ther	-12.139
▁tess	-12.1398
▁tweet	-12.1399
▁chatter	-12.14
▁kirishima	-12.1403
▁extinct	-12.1404
▁mycroft	-12.1405
▁deciding	-12.1405
▁kidnap	-12.1405
▁hotaru	-12.1405
▁genetically	-12.1405
▁extraction	-12.1406
▁comin	-12.1406
▁rita	-12.1406
▁haunted	-12.1408
▁spilled	-12.1412
▁astrid	-12.1414
▁addresses	-12.1416
▁hewes	-12.1417
ski	-12.1418
▁rea	-12.1418
who	-12.142
▁advised	-12.1422
▁triggered	-12.1423
star	-12.1425
▁educated	-12.1427
▁batch	-12.1431
▁delivering	-12.1436
▁difficulty	-12.1441
▁je	-12.1442
▁locke	-12.1449
▁pillar	-12.1451
▁predator	-12.1451
▁mushroom	-12.1451
▁token	-12.1455
▁decrease	-12.1461
▁delete	-12.1462
▁feared	-12.1465
▁conquer	-12.1466
▁votes	-12.1467
▁verify	-12.1471
▁deploy	-12.1473
▁mizuno	-12.1475
threedimensional	-12.1477
ration	-12.1477
▁chesapeake	-12.1477
▁crimson	-12.1477
▁detroit	-12.1477
▁disposal	-12.1477
▁fountain	-12.1477
▁jaime	-12.1477
▁mafia	-12.1477
▁striking	-12.1477
▁welfare	-12.1477
▁splendid	-12.1477
▁omar	-12.1477
▁pension	-12.1477
▁suitcase	-12.1477
▁seattle	-12.1478
▁1980	-12.1479
▁hanson	-12.1479
▁spaceship	-12.1479
▁turk	-12.1479
▁accidents	-12.1481
▁deepest	-12.1481
▁mack	-12.1482
ery	-12.1483
▁boxing	-12.1483
▁rod	-12.1486
shot	-12.1489
some	-12.149
▁mimic	-12.1495
▁dai	-12.1496
▁secondly	-12.15
▁cakes	-12.1508
zaki	-12.1512
know	-12.1515
▁modest	-12.1518
old	-12.1518
▁banana	-12.1525
▁bind	-12.1525
▁contractor	-12.1529
get	-12.1531
▁seize	-12.1535
▁exploit	-12.1539
ei	-12.154
▁shaped	-12.1546
▁manifest	-12.1548
▁conservation	-12.1548
▁quarantine	-12.155
▁rukia	-12.155
▁transparency	-12.155
▁simmons	-12.155
▁isolation	-12.155
▁togashi	-12.155
▁encryption	-12.155
▁byebye	-12.155
▁arctic	-12.155
▁injection	-12.155
▁linus	-12.155
bert	-12.1553
▁lip	-12.1553
▁daylight	-12.1557
▁cor	-12.1559
▁decides	-12.1562
▁thy	-12.1563
▁skilled	-12.1565
bb	-12.1566
▁fractures	-12.157
water	-12.1586
ified	-12.1586
▁hydra	-12.1589
shima	-12.1591
ale	-12.1592
ez	-12.1593
▁droid	-12.1603
▁bounce	-12.1606
aw	-12.1607
row	-12.1608
▁provides	-12.1618
see	-12.1621
▁greed	-12.1622
▁repay	-12.1624
▁broyles	-12.1624
▁creek	-12.1624
▁oldfashioned	-12.1624
▁pudding	-12.1624
▁switzerland	-12.1624
▁tsukishima	-12.1624
▁dummy	-12.1624
▁lizard	-12.1624
▁spartan	-12.1625
▁destroys	-12.1625
▁atom	-12.1625
▁designs	-12.1625
▁harmony	-12.1626
▁symbols	-12.1628
▁amazed	-12.1631
▁erm	-12.1636
▁briefing	-12.1638
▁responded	-12.1643
▁newly	-12.1645
▁trainer	-12.1646
▁arc	-12.165
▁powered	-12.1659
▁nara	-12.1661
oid	-12.1661
▁aspects	-12.1669
▁meds	-12.167
▁cluster	-12.1672
▁arrows	-12.168
▁halt	-12.1686
je	-12.1687
▁affects	-12.169
▁silicon	-12.1695
▁hanzawa	-12.1697
berg	-12.1697
▁apologizing	-12.1698
▁luggage	-12.1698
▁samantha	-12.1698
▁tuxedo	-12.1698
▁transparent	-12.1698
▁cloak	-12.1698
▁gagaga	-12.1698
▁vicious	-12.1698
▁michelle	-12.1698
▁seoul	-12.1698
▁spies	-12.1698
▁lockdown	-12.1698
▁tactics	-12.1699
▁locations	-12.1699
▁wooden	-12.17
dra	-12.1702
▁dent	-12.1704
▁eleven	-12.1705
▁expanding	-12.1709
eo	-12.1715
ray	-12.1717
▁alma	-12.1719
▁treaty	-12.172
▁goose	-12.1722
▁largely	-12.1723
▁skye	-12.1724
▁observed	-12.1726
▁recruit	-12.1734
▁miracles	-12.1737
▁centre	-12.1737
▁prices	-12.1744
▁checks	-12.1749
▁flows	-12.1751
▁ribs	-12.176
▁implications	-12.1762
▁odin	-12.1764
▁neuro	-12.1765
phy	-12.177
▁alternate	-12.1772
▁greece	-12.1772
▁hector	-12.1772
▁measuring	-12.1772
▁rendezvous	-12.1772
▁splash	-12.1772
▁straightforward	-12.1772
▁carroll	-12.1772
▁misery	-12.1772
▁interpol	-12.1772
▁diversion	-12.1773
▁jamie	-12.1773
▁capitalism	-12.1774
▁blake	-12.1774
ld	-12.1774
▁brotherhood	-12.1775
▁okami	-12.1775
▁airline	-12.1777
▁corpses	-12.1778
▁authorized	-12.1779
isan	-12.178
▁photography	-12.178
▁pouring	-12.1782
▁vow	-12.1782
▁classics	-12.1782
▁reaches	-12.1784
▁tac	-12.1786
bara	-12.1793
▁consumed	-12.1793
▁overtime	-12.1794
level	-12.1806
▁des	-12.1812
▁exceptional	-12.1816
▁wade	-12.1819
▁margot	-12.1821
▁convert	-12.1826
▁classmate	-12.1831
▁forty	-12.1838
▁reckon	-12.1842
▁bias	-12.1843
era	-12.1843
▁impress	-12.1844
▁semester	-12.1848
▁squid	-12.1848
▁submarine	-12.1848
▁wikipedia	-12.1848
▁bypass	-12.1848
▁oxford	-12.1848
▁lunatic	-12.1848
▁panties	-12.1848
▁tomoki	-12.1848
▁trafficking	-12.1848
▁revolutionary	-12.1848
▁committing	-12.1849
▁villain	-12.1849
▁proves	-12.1849
▁spinal	-12.185
▁tits	-12.1851
▁frightening	-12.1851
▁drawer	-12.1851
▁smashed	-12.1853
▁behaviors	-12.1855
▁feeds	-12.1859
▁rented	-12.1864
▁bran	-12.1874
▁fi	-12.1885
24	-12.1886
▁megan	-12.1887
▁colored	-12.19
pm	-12.1907
rt	-12.1912
▁mag	-12.1919
▁regions	-12.1921
▁vague	-12.1921
▁tanegashima	-12.1922
▁cult	-12.1923
▁calendar	-12.1923
▁cynthia	-12.1923
▁gideon	-12.1923
▁nursing	-12.1923
▁peculiar	-12.1923
▁capabilities	-12.1923
▁misunderstood	-12.1923
▁freddie	-12.1923
▁canyon	-12.1923
▁scarred	-12.1924
▁edition	-12.1924
▁zeus	-12.1924
▁pollen	-12.1924
▁dunno	-12.1924
▁predictable	-12.1925
▁dining	-12.1925
▁mustang	-12.1928
▁marker	-12.1931
▁purge	-12.1931
ue	-12.1935
mu	-12.1935
▁fitting	-12.1936
▁rushed	-12.1939
▁greatly	-12.1942
▁touches	-12.1942
▁occurs	-12.1943
'00	-12.1947
▁youkai	-12.1947
▁prayers	-12.1947
▁para	-12.1952
▁44	-12.1955
▁relaxed	-12.196
▁takashi	-12.197
gawa	-12.197
▁roses	-12.1973
▁paths	-12.1975
▁sei	-12.1977
▁199	-12.198
▁breed	-12.1983
▁initiate	-12.1984
▁vitamin	-12.1984
ose	-12.1984
▁seizure	-12.1985
▁receipt	-12.1985
▁peanut	-12.1985
▁mechanics	-12.1989
▁surround	-12.1989
▁missy	-12.1991
▁fierce	-12.1998
▁continuous	-12.1998
▁katsura	-12.1998
▁handing	-12.1998
▁minami	-12.1999
▁almeida	-12.2
▁dioxide	-12.2
▁sprout	-12.2
▁sustainability	-12.2
▁bracelet	-12.2
▁bunny	-12.2
▁naughty	-12.2
▁forcing	-12.2
▁recommendation	-12.2001
ric	-12.2002
▁doomed	-12.2003
▁jess	-12.2004
▁standby	-12.2004
burg	-12.2005
af	-12.2007
▁jealousy	-12.2009
ob	-12.201
▁entrepreneurs	-12.201
▁sucked	-12.2016
ker	-12.202
▁robotic	-12.2027
hhh	-12.2036
▁misunderstand	-12.2036
▁cooler	-12.2052
jack	-12.2055
ano	-12.2055
▁underestimate	-12.2061
▁portrait	-12.2063
▁limitations	-12.2064
▁disappoint	-12.2066
▁capita	-12.2073
▁monami	-12.2074
▁juma	-12.2076
▁sorrow	-12.2076
▁altitude	-12.2077
▁apprentice	-12.2077
▁austin	-12.2077
▁computing	-12.2077
▁currency	-12.2077
▁frustrating	-12.2077
▁scissors	-12.2077
▁caitlin	-12.2077
▁haqqani	-12.2077
▁jeff	-12.2077
▁assessment	-12.2077
▁breeze	-12.2077
▁fascinated	-12.2079
▁colin	-12.2079
▁ginsan	-12.2081
▁counters	-12.2083
▁absorbed	-12.2083
▁stein	-12.2095
▁cr	-12.2103
▁howl	-12.2104
▁atoms	-12.2105
▁charter	-12.2107
ily	-12.2107
▁lin	-12.2114
thank	-12.2115
gan	-12.2117
gram	-12.212
▁kyu	-12.2123
▁hull	-12.2123
▁bribe	-12.2126
▁ol	-12.2127
▁reader	-12.2129
▁hay	-12.2132
▁poop	-12.2135
▁maki	-12.2137
▁intervention	-12.2142
▁physicist	-12.2143
▁inherit	-12.215
ud	-12.2151
oi	-12.2151
▁amemiya	-12.2154
▁gibbs	-12.2154
▁loneliness	-12.2154
▁tornado	-12.2154
▁platoon	-12.2154
▁debut	-12.2156
ain	-12.2162
▁peek	-12.2162
▁secondary	-12.2162
▁attach	-12.2163
▁conducting	-12.2165
▁yasu	-12.2168
til	-12.218
▁br	-12.2181
▁fade	-12.2181
▁fees	-12.2183
▁ammo	-12.2183
cl	-12.2191
▁vicki	-12.2193
▁conventional	-12.2193
mate	-12.2193
▁2003	-12.22
▁counted	-12.2203
▁vaccines	-12.2209
▁chickens	-12.2212
gar	-12.222
oku	-12.2222
▁proportion	-12.2223
▁surprises	-12.2226
▁resign	-12.2228
▁hiroshi	-12.2232
▁cyril	-12.2232
▁caesar	-12.2232
▁sparrow	-12.2232
▁swiss	-12.2232
▁merle	-12.2232
▁natsumi	-12.2232
▁clap	-12.2233
▁elise	-12.2233
▁flock	-12.2233
▁canvas	-12.2234
▁reaper	-12.2235
▁paralyzed	-12.2236
▁kon	-12.2237
▁hospitalized	-12.224
▁broadcasting	-12.2248
▁recovering	-12.2249
sky	-12.2252
▁sai	-12.2255
▁encouraged	-12.2261
▁breasts	-12.2262
▁wage	-12.2265
▁mop	-12.2268
face	-12.2272
▁cuts	-12.2276
▁pays	-12.2276
ala	-12.2278
▁boats	-12.2281
fin	-12.2281
▁israeli	-12.2284
▁rode	-12.2286
▁gem	-12.2287
▁males	-12.2288
▁characteristics	-12.2292
▁shares	-12.2296
uk	-12.2302
▁curtain	-12.2304
▁yamada	-12.2309
▁kiri	-12.231
▁automatic	-12.2311
▁capitol	-12.2311
▁paradigm	-12.2311
▁prosthetic	-12.2311
▁sanctuary	-12.2311
▁sleeve	-12.2311
▁trajectory	-12.2311
▁conservative	-12.2311
▁daisy	-12.2311
▁judy	-12.2311
▁cooperative	-12.2311
▁begged	-12.2311
▁harmless	-12.2313
▁sour	-12.2321
lock	-12.2325
▁sneaking	-12.2326
ato	-12.2327
▁che	-12.2328
▁stressed	-12.2329
▁phillips	-12.233
▁offers	-12.233
▁sonya	-12.2337
ula	-12.2337
▁pinch	-12.2343
▁tricked	-12.2345
ied	-12.235
fish	-12.2351
▁fails	-12.2352
▁teenagers	-12.2358
then	-12.2364
▁spoil	-12.2366
▁tunnels	-12.237
▁creep	-12.237
▁fuji	-12.2372
▁chronic	-12.2377
ised	-12.2378
▁refugee	-12.2387
▁kagura	-12.239
▁clerk	-12.239
▁compensation	-12.239
▁determination	-12.239
▁evacuation	-12.239
▁hercules	-12.239
▁province	-12.239
▁temporarily	-12.239
▁testament	-12.239
▁mmmhmm	-12.239
▁ultra	-12.239
▁takaoka	-12.239
▁granddaughter	-12.239
▁championship	-12.2391
▁ownership	-12.2391
▁harper	-12.2391
▁temporal	-12.2392
▁recon	-12.2393
▁homo	-12.2393
▁neutral	-12.2393
▁tada	-12.2393
▁brass	-12.2398
▁sexually	-12.2399
▁ding	-12.2401
▁flea	-12.2401
▁drawings	-12.2403
▁disc	-12.2403
▁apologized	-12.2408
▁glades	-12.2408
ney	-12.2408
ero	-12.2409
▁masks	-12.2409
▁repeated	-12.241
▁replicate	-12.241
ick	-12.241
▁emerged	-12.2411
▁warmer	-12.2417
▁texting	-12.2426
cr	-12.2426
▁monthly	-12.2427
▁gail	-12.243
▁lively	-12.2438
▁elections	-12.244
▁views	-12.2442
ola	-12.2444
▁nav	-12.2451
▁arise	-12.2451
▁swan	-12.2454
▁tolerate	-12.2455
▁layers	-12.246
▁airi	-12.2461
▁peer	-12.2465
▁gr	-12.2466
▁yankee	-12.2466
▁negotiation	-12.2467
▁vertical	-12.2468
▁asylum	-12.247
▁disadvantage	-12.247
▁marijuana	-12.247
▁pennsylvania	-12.247
▁strategies	-12.247
▁swimsuit	-12.247
▁qualities	-12.247
▁exotic	-12.247
▁luther	-12.247
▁voting	-12.247
▁penis	-12.2472
▁alongside	-12.2473
▁vain	-12.2473
▁outrageous	-12.2473
▁realistic	-12.2474
▁density	-12.2475
▁banking	-12.2476
▁shutting	-12.2478
▁mock	-12.2479
▁elephants	-12.2481
▁mining	-12.2481
▁voted	-12.2482
▁slit	-12.2493
rie	-12.2495
▁opinions	-12.2496
mmer	-12.2496
▁reminder	-12.2497
▁quicker	-12.2498
▁crop	-12.2499
air	-12.2501
▁bla	-12.2501
▁purposes	-12.2506
▁pressed	-12.2511
ged	-12.2513
sit	-12.2514
▁kara	-12.2517
act	-12.2517
▁channels	-12.2518
▁39	-12.252
▁blamed	-12.2523
hei	-12.2532
100	-12.254
▁needles	-12.254
▁forged	-12.2541
▁connects	-12.2541
mori	-12.2542
▁temp	-12.2546
▁disrupt	-12.2546
▁philosopher	-12.2549
▁revenue	-12.2549
iz	-12.2549
▁achievement	-12.2549
▁abort	-12.2551
▁lauren	-12.2551
▁autumn	-12.2551
▁courtesy	-12.2551
▁exwife	-12.2551
▁primitive	-12.2551
▁rebellion	-12.2551
▁marrow	-12.2551
▁donnie	-12.2551
▁colour	-12.2551
▁untie	-12.2552
▁stalking	-12.2553
▁occupied	-12.2554
▁brandon	-12.2554
▁scanning	-12.2555
▁scotch	-12.2555
▁poly	-12.2557
▁frontier	-12.2557
▁greeting	-12.2558
▁strain	-12.256
▁shitty	-12.2563
▁stall	-12.2569
▁jackie	-12.257
▁rotate	-12.2571
▁manipulated	-12.2574
▁kneel	-12.258
gate	-12.2581
▁eliminated	-12.2582
▁85	-12.2597
▁sentences	-12.2598
▁com	-12.2605
▁dime	-12.2606
▁plea	-12.2607
▁gan	-12.2612
▁chun	-12.2621
▁drift	-12.2622
▁beautifully	-12.2623
▁queens	-12.2626
▁wu	-12.2626
▁villa	-12.2627
▁apparent	-12.263
▁nerd	-12.2631
▁sensation	-12.2631
▁gesture	-12.2632
▁bachelor	-12.2632
▁communicating	-12.2632
▁metropolitan	-12.2632
▁brigade	-12.2632
▁shinobi	-12.2632
▁spock	-12.2632
▁griffin	-12.2632
▁wagon	-12.2633
▁archie	-12.2633
▁brazilian	-12.2633
▁kamen	-12.2634
▁operative	-12.2635
▁choir	-12.2636
11	-12.2644
▁duct	-12.2646
▁accelerated	-12.2647
▁static	-12.2653
▁mikey	-12.2654
hand	-12.266
▁hunted	-12.2661
▁pc	-12.2663
▁longest	-12.2664
▁mmhm	-12.2666
▁visa	-12.2667
▁generated	-12.2669
ella	-12.2669
▁artistic	-12.2675
▁lori	-12.2683
▁kingdoms	-12.2689
▁freaks	-12.2691
▁owed	-12.2698
▁conclude	-12.27
▁hence	-12.27
▁shops	-12.2703
▁lick	-12.2707
pp	-12.271
where	-12.2712
▁abnormal	-12.2714
▁parliament	-12.2714
▁crawford	-12.2714
▁maneuver	-12.2714
▁vanessa	-12.2714
▁camille	-12.2714
▁wheat	-12.2714
▁shaft	-12.2714
▁firewall	-12.2715
▁appointed	-12.2716
▁northeast	-12.2717
▁partial	-12.2717
▁delighted	-12.2718
▁laughter	-12.2719
▁kyoko	-12.2719
▁lone	-12.2721
▁30,000	-12.2729
▁scope	-12.273
▁13.	-12.2731
▁cellular	-12.2732
▁ak	-12.2732
▁suv	-12.2735
▁tables	-12.2737
▁fires	-12.2739
▁treatments	-12.274
▁wit	-12.2742
▁donation	-12.2746
▁sid	-12.2747
▁bubbles	-12.2756
▁disappears	-12.2759
▁ordering	-12.2761
dan	-12.2762
born	-12.2765
▁visions	-12.2765
▁mint	-12.2765
▁harmon	-12.2767
▁protocols	-12.2768
18	-12.2771
▁lions	-12.2781
late	-12.2783
▁troubles	-12.2786
▁constitution	-12.2787
▁suited	-12.279
▁eli	-12.2791
▁independence	-12.2797
▁jyouou	-12.2797
▁kansas	-12.2797
▁modified	-12.2797
▁referred	-12.2797
▁saekosan	-12.2797
▁aizen	-12.2798
▁representation	-12.2798
▁turner	-12.2798
▁winds	-12.2798
▁utterly	-12.2798
▁ipod	-12.2799
▁inappropriate	-12.28
▁villagers	-12.2801
▁prediction	-12.2803
▁altered	-12.2804
▁pu	-12.2805
▁torch	-12.2805
▁requests	-12.2807
▁reef	-12.2812
▁arena	-12.2813
▁lid	-12.2818
▁dar	-12.2819
▁hose	-12.2824
▁concerning	-12.2827
▁rack	-12.283
▁undo	-12.2831
▁blocking	-12.2836
▁tales	-12.284
hood	-12.2844
▁burrows	-12.2848
▁uni	-12.2848
cap	-12.2849
▁needing	-12.2852
ona	-12.286
▁produces	-12.286
▁taro	-12.2862
▁lf	-12.2862
▁deceive	-12.2865
▁olympics	-12.2871
▁tae	-12.2876
long	-12.2878
▁hatake	-12.2878
▁boost	-12.2878
▁beijing	-12.288
▁catherine	-12.288
▁numerous	-12.288
▁satisfaction	-12.288
▁universities	-12.288
▁decoy	-12.288
▁dialogue	-12.288
▁flexible	-12.288
▁uebaya	-12.288
▁marvin	-12.2881
▁moira	-12.2881
▁sweden	-12.2881
▁supper	-12.2881
▁sincerely	-12.2882
▁implant	-12.2884
▁smoothly	-12.2886
▁hangar	-12.2886
▁vegetable	-12.2888
iko	-12.2889
▁specialty	-12.289
▁ogre	-12.2897
▁pike	-12.2897
ani	-12.2899
▁weaker	-12.2899
▁gee	-12.2903
▁journalists	-12.2903
▁tougher	-12.2906
▁honesty	-12.2906
▁screwing	-12.2909
▁businessman	-12.2912
did	-12.2927
▁environments	-12.2931
▁toby	-12.2933
dono	-12.2936
▁bats	-12.2942
▁sire	-12.2945
▁blackmail	-12.2948
rio	-12.2948
▁heels	-12.2951
▁desires	-12.2955
▁malfunction	-12.2958
ette	-12.2961
▁bg	-12.2961
▁vip	-12.2963
▁transmit	-12.2963
▁barbecue	-12.2964
▁dictionary	-12.2964
▁diggle	-12.2964
▁escaping	-12.2964
▁ignorance	-12.2964
▁jennifer	-12.2964
▁sausage	-12.2964
▁shepherd	-12.2964
▁billionaire	-12.2964
▁iseshima	-12.2964
▁kimijima	-12.2964
▁electromagnetic	-12.2964
▁elbow	-12.2964
▁forbid	-12.2964
▁piggy	-12.2965
▁gregson	-12.2965
▁nicole	-12.2965
▁simultaneously	-12.2965
▁restricted	-12.2965
▁tips	-12.2966
▁inventory	-12.2966
▁akari	-12.2966
▁clearing	-12.2967
▁freeza	-12.2968
▁scenery	-12.2969
ida	-12.2969
▁thermal	-12.2969
▁mosquito	-12.2972
▁bitten	-12.2972
▁parasite	-12.2972
▁olympic	-12.2974
▁smallest	-12.2974
▁orphan	-12.2975
▁aoi	-12.2977
shaped	-12.2981
▁span	-12.2995
▁shorter	-12.3
lot	-12.3003
class	-12.3007
▁bennett	-12.3013
▁beep	-12.3018
▁architects	-12.302
▁rag	-12.3031
▁disorders	-12.3033
▁jaw	-12.3034
▁kudo	-12.3035
▁liv	-12.3036
del	-12.3041
stone	-12.3042
▁cows	-12.3043
▁circuits	-12.3043
▁verge	-12.3046
▁akagi	-12.3047
▁commence	-12.3049
▁civic	-12.3049
▁evaluation	-12.3049
▁margaret	-12.3049
▁resurrection	-12.3049
▁domino	-12.3049
▁flashlight	-12.3049
▁imaging	-12.305
▁graphic	-12.3056
▁virtue	-12.3059
▁bulb	-12.306
▁pharmaceutical	-12.3062
▁interrupting	-12.3064
ius	-12.3065
▁pretended	-12.3073
▁spying	-12.3074
▁ctu	-12.3076
▁avoided	-12.3077
ory	-12.3077
▁finn	-12.3078
▁justify	-12.3079
pen	-12.3081
▁crashing	-12.3083
▁judges	-12.3084
▁joo	-12.3091
▁claus	-12.31
▁linc	-12.3104
▁cope	-12.3108
fire	-12.3111
▁guaranteed	-12.3113
▁fitz	-12.3114
▁professionals	-12.3115
▁bur	-12.3118
▁glue	-12.3122
▁construct	-12.3124
▁procedures	-12.3124
▁intimate	-12.3132
▁sufficient	-12.3132
▁guessed	-12.3133
▁guinea	-12.3134
▁identities	-12.3134
▁omega	-12.3134
▁participation	-12.3134
▁proving	-12.3134
▁reynolds	-12.3134
▁vengeance	-12.3134
▁sloppy	-12.3134
▁fraction	-12.3135
▁sugiyama	-12.3135
▁tracy	-12.3135
▁stephanie	-12.3135
▁grocery	-12.3135
▁adoption	-12.3135
▁submitted	-12.3135
▁solomon	-12.3135
▁champ	-12.3135
▁overwhelmed	-12.3135
▁miho	-12.3136
▁tsuru	-12.3136
▁keyboard	-12.3136
▁sustained	-12.3138
▁honorable	-12.314
▁uploaded	-12.314
▁peacefully	-12.3141
▁breeding	-12.3141
▁counseling	-12.3144
▁beetle	-12.3149
▁warden	-12.3152
▁explorer	-12.3152
▁receiver	-12.3154
▁rainy	-12.3155
▁lent	-12.3156
▁reasoning	-12.3156
▁sy	-12.3156
▁hassan	-12.3168
▁consumers	-12.3169
▁comedy	-12.3172
▁pairs	-12.3173
▁diplomatic	-12.3174
▁crank	-12.3176
wing	-12.3177
cent	-12.3178
▁publicly	-12.3178
▁rib	-12.3179
▁badass	-12.3179
making	-12.3181
300	-12.3186
door	-12.3189
▁musicians	-12.3191
▁bore	-12.3191
▁tofu	-12.32
▁!?	-12.3206
▁mat	-12.3206
▁inject	-12.3209
ria	-12.3211
▁recorder	-12.3213
▁battles	-12.3215
▁nno	-12.3216
og	-12.3217
▁participants	-12.3217
▁gardner	-12.3221
▁integrity	-12.3221
▁mortgage	-12.3221
▁titus	-12.3221
▁picnic	-12.3221
▁discount	-12.3221
▁chiba	-12.3221
▁aurora	-12.3221
▁sutter	-12.3221
▁terry	-12.3221
▁woah	-12.3221
▁swap	-12.3221
▁fortress	-12.3221
▁mathison	-12.3221
▁russo	-12.3221
▁addiction	-12.3221
▁polio	-12.3221
▁deliberately	-12.3222
▁danda	-12.3223
▁nets	-12.3223
▁confined	-12.3225
▁acceptable	-12.3227
▁whisper	-12.3227
▁uhoh	-12.323
▁bu	-12.3232
▁inconvenience	-12.3233
▁travels	-12.3234
ify	-12.3235
▁textbook	-12.3237
▁flee	-12.3237
▁savage	-12.3238
▁khan	-12.3241
scale	-12.3244
away	-12.3246
▁crows	-12.3248
▁tomb	-12.3251
gh	-12.3252
▁painter	-12.3255
▁zip	-12.3263
▁customs	-12.3266
▁hoo	-12.3267
▁wi	-12.3269
burn	-12.3272
▁mild	-12.3272
▁gou	-12.3274
worth	-12.3275
▁dough	-12.3282
▁scales	-12.3286
tom	-12.3288
▁fame	-12.3289
▁las	-12.3289
▁steer	-12.3302
▁historic	-12.3306
▁eyewitness	-12.3307
▁sakamoto	-12.3307
▁thrust	-12.3307
▁takuto	-12.3307
▁crocodile	-12.3308
▁economies	-12.3308
▁gasoline	-12.3308
▁origami	-12.3308
▁prosecution	-12.3308
▁yummy	-12.3308
▁islamic	-12.3308
▁sanada	-12.3308
▁copycat	-12.3308
▁1950	-12.331
▁spoiled	-12.3312
▁exorcist	-12.3313
▁facedown	-12.3313
▁owl	-12.3313
▁melted	-12.3315
▁darn	-12.3315
▁unexpectedly	-12.3315
▁spiders	-12.3315
▁mitch	-12.3316
▁kido	-12.3317
▁4,000	-12.3319
▁calculations	-12.332
▁melting	-12.332
▁calculated	-12.3327
▁farms	-12.333
▁rocky	-12.333
▁applying	-12.3331
▁analyzed	-12.3333
▁offline	-12.3337
▁loans	-12.3345
▁chairs	-12.3348
view	-12.335
fer	-12.3352
▁females	-12.3352
▁finals	-12.3359
▁gotcha	-12.3361
▁brace	-12.3361
▁dolphins	-12.3366
▁poke	-12.3368
why	-12.3368
nic	-12.337
cher	-12.3374
▁covers	-12.3374
hh	-12.3376
zy	-12.3377
▁influenced	-12.3377
▁assemble	-12.338
5,000	-12.3382
▁ditch	-12.3386
▁rash	-12.3387
▁flags	-12.3388
▁ami	-12.3389
▁groom	-12.339
▁equip	-12.3395
▁allergic	-12.3395
▁baltimore	-12.3395
▁cautious	-12.3395
▁collision	-12.3395
▁manipulation	-12.3395
▁prophecy	-12.3395
▁proposition	-12.3395
▁structural	-12.3395
▁threshold	-12.3395
▁wrath	-12.3395
▁cinema	-12.3395
▁escher	-12.3395
▁abduction	-12.3395
▁sunrise	-12.3396
▁bully	-12.3396
▁interactive	-12.3396
▁salmon	-12.3396
▁fulltime	-12.3399
▁rusty	-12.3399
▁smartest	-12.3399
▁deployed	-12.3401
▁heroine	-12.3406
▁woody	-12.3408
und	-12.3409
▁forming	-12.3409
▁investing	-12.341
▁conviction	-12.3415
▁richer	-12.3416
▁nun	-12.3419
ching	-12.342
ishi	-12.3422
▁mushrooms	-12.3427
▁toes	-12.343
▁semi	-12.3438
▁inspiring	-12.3451
oko	-12.3452
▁outcomes	-12.3454
▁ryo	-12.346
▁concepts	-12.346
▁burnett	-12.3463
▁kami	-12.3469
▁followers	-12.347
▁shave	-12.347
▁itachi	-12.3473
▁harness	-12.348
▁burglar	-12.3482
▁risking	-12.3482
▁tamura	-12.3482
▁restaurants	-12.3484
▁amendment	-12.3484
▁encouraging	-12.3484
▁juvenile	-12.3484
▁northwest	-12.3484
▁trinity	-12.3484
▁winchester	-12.3484
▁occupy	-12.3484
▁pitiful	-12.3484
▁karaoke	-12.3484
▁automobile	-12.3484
▁compelling	-12.3484
▁spoon	-12.3484
▁saudi	-12.3484
▁interpretation	-12.3484
▁kaname	-12.3484
▁mira	-12.3484
▁caroline	-12.3485
▁dumbass	-12.3486
▁shipped	-12.3486
▁shattered	-12.3487
▁initially	-12.3488
▁slides	-12.3489
▁blond	-12.3491
▁dodge	-12.3494
now	-12.3495
▁discharged	-12.3497
▁sweating	-12.3502
▁punched	-12.3505
▁shovel	-12.3514
▁cm	-12.3515
▁nano	-12.3516
▁starve	-12.3518
▁stinks	-12.3519
five	-12.3524
thing	-12.3527
▁51	-12.3533
▁interestingly	-12.3538
▁ze	-12.354
▁pam	-12.3541
bro	-12.3546
vin	-12.3549
itz	-12.355
▁classical	-12.3553
▁gran	-12.3554
▁reinforcements	-12.3556
▁booze	-12.3559
▁forge	-12.356
▁camel	-12.356
▁install	-12.3563
play	-12.3567
▁flush	-12.3568
▁insert	-12.357
▁peach	-12.357
▁antenna	-12.3571
▁acceleration	-12.3573
▁avatar	-12.3573
▁bryce	-12.3573
▁carriage	-12.3573
▁columbia	-12.3573
▁digimon	-12.3573
▁reverend	-12.3573
▁trevor	-12.3573
▁diabetes	-12.3573
▁chemist	-12.3573
▁bernard	-12.3573
▁sawyer	-12.3573
▁oscar	-12.3573
▁owada	-12.3573
▁export	-12.3574
▁sharon	-12.3574
▁wax	-12.3574
▁accessible	-12.3574
▁shallow	-12.3575
▁negotiations	-12.3577
▁retain	-12.3577
▁shack	-12.3577
▁floors	-12.358
▁significantly	-12.3581
▁veins	-12.3581
▁volunteered	-12.3583
▁emotionally	-12.3583
▁manami	-12.3584
▁cent	-12.3588
▁specialized	-12.3594
▁slap	-12.3594
▁soy	-12.3595
▁demanding	-12.3598
▁claiming	-12.36
▁subordinate	-12.3602
▁borrowing	-12.3603
▁partly	-12.3606
▁mono	-12.3607
▁lacking	-12.3607
▁momoko	-12.3608
▁lasted	-12.3617
▁uniforms	-12.3625
was	-12.3628
▁reporters	-12.3636
▁cheeks	-12.3637
▁heel	-12.3638
▁expo	-12.3646
tv	-12.3647
▁summoning	-12.3647
▁presume	-12.3648
▁arresting	-12.3649
▁cro	-12.3651
▁ruins	-12.3652
▁defect	-12.3658
▁southwest	-12.3662
▁meteor	-12.3663
▁dizzy	-12.3663
▁frustration	-12.3663
▁gloria	-12.3663
▁judith	-12.3663
▁melody	-12.3663
▁nonprofit	-12.3663
▁preliminary	-12.3663
▁separation	-12.3663
▁specimen	-12.3663
▁suspension	-12.3663
▁forecast	-12.3663
▁machete	-12.3663
▁randall	-12.3663
▁snuck	-12.3663
▁oven	-12.3663
▁altogether	-12.3663
▁rebound	-12.3663
▁module	-12.3664
▁turbo	-12.3664
state	-12.3664
▁ellison	-12.3664
▁prohibited	-12.3664
▁conductor	-12.3665
▁kung	-12.3665
▁pony	-12.3665
▁betrayal	-12.3666
▁sensory	-12.3667
▁economists	-12.3669
▁refugees	-12.367
▁approaches	-12.367
▁cellar	-12.3671
▁integrated	-12.3671
▁vet	-12.3672
▁ryu	-12.3673
▁boil	-12.3676
ashi	-12.3677
▁comments	-12.3685
▁engineered	-12.3688
▁bosses	-12.3689
▁ranking	-12.3689
▁bells	-12.369
▁sonny	-12.3694
▁aura	-12.3694
▁purchased	-12.3695
▁rises	-12.3701
▁arguments	-12.3706
▁watches	-12.3706
zen	-12.3712
▁follows	-12.372
▁49	-12.3726
▁statements	-12.3727
▁kyo	-12.3728
▁cip	-12.373
lf	-12.373
ira	-12.3735
▁stages	-12.3736
▁rem	-12.3741
▁earl	-12.3746
▁haul	-12.375
▁ethical	-12.3752
pping	-12.3753
▁tomoya	-12.3754
▁birkhoff	-12.3754
▁expansion	-12.3754
▁hiccup	-12.3754
▁mermaid	-12.3754
▁nozomi	-12.3754
▁spiral	-12.3754
▁plasma	-12.3754
▁prospect	-12.3754
▁dougami	-12.3754
▁apollo	-12.3754
▁disability	-12.3754
▁reign	-12.3754
▁skipped	-12.3754
▁stir	-12.3755
▁majin	-12.3755
▁salon	-12.3756
▁cody	-12.3757
▁2013	-12.3757
▁grandparents	-12.3757
▁scattered	-12.3757
▁icon	-12.376
▁ox	-12.3763
▁reactions	-12.3763
▁talkin	-12.3763
▁taller	-12.3764
suke	-12.3766
▁practices	-12.3772
▁assaulted	-12.3775
▁dev	-12.3777
▁attempting	-12.3779
▁tearing	-12.3782
▁dolphin	-12.3785
▁candle	-12.3785
▁employer	-12.3786
▁grim	-12.379
▁barr	-12.3792
ae	-12.3799
awa	-12.38
▁breakin	-12.3802
▁ob	-12.3805
▁spa	-12.3805
ane	-12.3805
▁camping	-12.3805
four	-12.382
▁practiced	-12.3828
▁undergo	-12.3832
million	-12.3832
▁naka	-12.3832
▁transit	-12.3833
▁weekends	-12.3839
▁resent	-12.3841
▁okazaki	-12.3844
▁miyuki	-12.3844
▁fujimoto	-12.3844
▁bartender	-12.3846
▁clyde	-12.3846
▁dilemma	-12.3846
▁elaine	-12.3846
▁advocate	-12.3846
▁agricultural	-12.3846
▁baratheon	-12.3846
▁mysteries	-12.3846
▁orochimaru	-12.3846
▁sentinel	-12.3846
▁syndicate	-12.3846
▁unacceptable	-12.3846
▁robust	-12.3846
▁subconscious	-12.3846
▁offshore	-12.3846
▁cambridge	-12.3846
▁clarity	-12.3846
▁thrive	-12.3846
▁denial	-12.3846
▁renewable	-12.3846
▁transmitter	-12.3846
▁lease	-12.3846
▁robbie	-12.3846
▁handwriting	-12.3847
responsibilities	-12.3847
▁mummy	-12.3847
▁naomi	-12.3847
▁greetings	-12.3847
▁heartbeat	-12.3847
▁intruder	-12.3847
▁conan	-12.3848
▁fda	-12.3849
▁pest	-12.3851
ene	-12.3852
▁fragments	-12.3852
▁hush	-12.3853
▁chewing	-12.3854
▁2001	-12.3856
▁separately	-12.3858
▁cough	-12.3861
▁deleted	-12.3866
▁aimed	-12.3867
▁slam	-12.387
ction	-12.3874
▁springs	-12.3874
▁lookin	-12.3876
▁glove	-12.3878
▁souvenir	-12.3878
▁directed	-12.3883
▁shifts	-12.3891
maru	-12.3895
▁traveler	-12.3896
▁wider	-12.3898
bell	-12.3901
qua	-12.3902
▁andand	-12.3907
▁fin	-12.3908
▁gaze	-12.3913
▁eu	-12.3915
▁contracts	-12.3917
▁researcher	-12.3919
▁clam	-12.392
▁assholes	-12.3922
▁massacre	-12.3923
▁riddle	-12.3923
▁titans	-12.3923
kura	-12.3924
▁disable	-12.3924
▁interpret	-12.3928
▁excessive	-12.3937
▁highlight	-12.3937
▁shogun	-12.3938
▁cafeteria	-12.3938
▁precision	-12.3938
▁departure	-12.3939
▁boundary	-12.3939
▁crate	-12.3939
▁playground	-12.394
▁portland	-12.394
▁viable	-12.394
▁improving	-12.394
▁elsa	-12.3941
▁holidays	-12.3942
▁armies	-12.3942
▁hanna	-12.3942
▁workshop	-12.3942
▁injected	-12.3943
▁yoshino	-12.3944
ino	-12.3946
▁rosa	-12.3947
▁wages	-12.3947
▁pipes	-12.395
▁neil	-12.3952
pers	-12.3953
▁2002	-12.3953
guchi	-12.3955
▁buster	-12.3956
▁chunk	-12.3957
▁atomic	-12.3958
▁forum	-12.3958
▁revived	-12.3962
headed	-12.3964
▁takeda	-12.3969
▁apples	-12.397
▁linker	-12.3976
▁dip	-12.3985
▁caf	-12.3997
▁hy	-12.4
▁candles	-12.4001
chu	-12.4003
▁fooling	-12.4003
▁carly	-12.4005
eyed	-12.4006
▁excuses	-12.4008
nosuke	-12.4011
fr	-12.4015
life	-12.4016
▁dispose	-12.4016
▁accelerate	-12.4016
▁confuse	-12.4017
▁boobs	-12.4019
▁appreciated	-12.4021
▁headlines	-12.4022
▁memo	-12.4025
▁cheerful	-12.4029
▁voyage	-12.4029
▁distinct	-12.4029
▁michiru	-12.4031
▁slug	-12.4032
▁audrey	-12.4032
▁devastating	-12.4032
▁exquisite	-12.4032
▁glimpse	-12.4032
▁mcnamara	-12.4032
▁shanghai	-12.4032
▁obiwan	-12.4032
▁ebola	-12.4032
▁speculation	-12.4032
▁tulip	-12.4032
▁expelled	-12.4032
▁salvation	-12.4032
▁stuart	-12.4032
▁hazel	-12.4032
▁installation	-12.4032
▁noticing	-12.4032
▁cousins	-12.4032
▁sentimental	-12.4033
▁motherinlaw	-12.4033
▁refreshing	-12.4034
▁ipad	-12.4034
▁employed	-12.4036
▁bent	-12.4038
▁dependent	-12.4038
▁mahone	-12.404
▁reek	-12.4041
▁parachute	-12.4042
▁01	-12.4043
▁attempts	-12.4044
▁kur	-12.4048
▁warmth	-12.4048
▁tribes	-12.405
▁hehe	-12.4051
▁kay	-12.4053
▁catches	-12.4054
▁reg	-12.4055
▁condo	-12.4061
▁masked	-12.4066
▁peel	-12.4066
when	-12.4066
▁jews	-12.4069
▁cram	-12.4072
▁obstacles	-12.4073
iya	-12.4073
▁wool	-12.4074
▁uk	-12.4074
▁wakes	-12.4079
▁moe	-12.4086
okay	-12.4086
org	-12.409
atsu	-12.409
▁muslims	-12.4092
▁scans	-12.4092
▁chimpanzees	-12.4094
▁sniff	-12.4095
▁belongings	-12.4097
▁valid	-12.4101
▁pier	-12.4102
▁ranks	-12.4102
▁cooling	-12.4107
▁kiyo	-12.4109
bbing	-12.411
▁indians	-12.4112
▁ropes	-12.4114
▁bossun	-12.4114
▁seniors	-12.4114
▁thrill	-12.4118
ese	-12.4118
▁import	-12.4124
▁diplomat	-12.4125
▁nostalgic	-12.4126
▁demographic	-12.4126
▁inquiry	-12.4126
▁katniss	-12.4126
▁lesbian	-12.4126
▁magnitude	-12.4126
▁mercury	-12.4126
▁southeast	-12.4126
▁sylvia	-12.4126
▁verdict	-12.4126
▁reducing	-12.4126
▁kousuke	-12.4126
▁revelation	-12.4126
▁panama	-12.4126
▁skipper	-12.4127
▁pimp	-12.4127
▁kickass	-12.4127
▁marvelous	-12.4127
▁congo	-12.4128
▁waist	-12.4128
▁presidential	-12.4131
▁constructed	-12.4131
▁oak	-12.4132
▁recruited	-12.4132
▁permanently	-12.4132
▁arabic	-12.4132
21	-12.4139
oli	-12.4139
▁uhuh	-12.4142
▁manaka	-12.4147
▁epic	-12.4148
▁prayed	-12.4148
▁lan	-12.4152
▁globally	-12.4153
▁examined	-12.4157
▁farming	-12.4163
▁sculpture	-12.4167
▁ghoul	-12.4167
▁collector	-12.417
▁hub	-12.4171
kan	-12.4173
▁newton	-12.4174
▁fork	-12.4175
▁challenged	-12.4187
▁rebels	-12.4188
three	-12.4189
▁rie	-12.4191
▁beasts	-12.4192
▁sage	-12.4198
▁sued	-12.4201
card	-12.4201
▁perceive	-12.4206
▁fer	-12.4207
▁disrespect	-12.4209
▁rug	-12.421
itis	-12.4215
▁destined	-12.4221
▁dominant	-12.4221
▁infinity	-12.4221
▁narrator	-12.4221
▁reproduce	-12.4221
▁accusing	-12.4222
▁ghana	-12.4222
▁tendency	-12.4222
▁fax	-12.4222
▁murdering	-12.4222
▁tomatoes	-12.4223
▁claws	-12.4224
▁salesman	-12.4225
▁poorest	-12.4227
▁kip	-12.4231
▁rating	-12.4231
▁jab	-12.4232
▁lined	-12.4234
▁teaches	-12.4236
22	-12.4245
▁bake	-12.4249
ome	-12.4251
▁breaker	-12.4253
▁launching	-12.4257
35	-12.4262
▁athlete	-12.4269
nan	-12.427
▁wil	-12.4284
▁ella	-12.4286
▁tru	-12.4287
▁mio	-12.4287
▁bruises	-12.4288
▁applause	-12.4288
▁loo	-12.429
bird	-12.4293
▁beta	-12.4295
▁specially	-12.4304
▁ryou	-12.4305
▁suppress	-12.4307
jima	-12.431
▁lads	-12.4311
▁ruth	-12.4312
3.	-12.4313
▁iv	-12.4316
▁critic	-12.4316
▁yuriko	-12.4316
person	-12.4317
▁comparing	-12.4318
▁competing	-12.4318
▁craig	-12.4318
▁cylinder	-12.4318
▁indication	-12.4318
▁misfortune	-12.4318
▁primarily	-12.4318
▁wield	-12.4318
▁volker	-12.4318
▁castiel	-12.4318
▁compass	-12.4318
▁prosperity	-12.4318
▁distinction	-12.4318
▁ishida	-12.4318
▁discoveries	-12.4319
▁rover	-12.4319
▁genocide	-12.432
▁haiti	-12.4321
▁scam	-12.4321
▁hiring	-12.4322
▁ireland	-12.4324
▁safest	-12.4324
▁blur	-12.4325
▁dresses	-12.4326
▁snacks	-12.4326
ica	-12.4327
▁delayed	-12.4328
▁brakes	-12.4329
▁junkie	-12.433
▁duelist	-12.433
▁sailing	-12.4332
▁ana	-12.4335
ening	-12.4336
▁archive	-12.4338
▁rogers	-12.4344
▁attacker	-12.4344
▁unite	-12.4344
▁slower	-12.4344
rated	-12.4345
9.	-12.4348
▁fibers	-12.4348
iff	-12.4348
▁ohio	-12.4354
▁premises	-12.4355
▁richards	-12.4356
▁readers	-12.4357
ike	-12.4357
▁seminar	-12.4358
▁kidnapper	-12.4364
▁transaction	-12.4364
minute	-12.4365
▁matthews	-12.4369
▁rein	-12.4371
▁cups	-12.4371
▁lannisters	-12.4372
whispering	-12.4375
iest	-12.4378
▁spells	-12.4386
aa	-12.4388
ev	-12.4388
▁delight	-12.439
yes	-12.4391
▁patents	-12.4391
ral	-12.4397
▁tasted	-12.4398
▁iscandar	-12.4406
▁cherish	-12.4411
▁shields	-12.4411
hr	-12.4412
▁luna	-12.4414
bin	-12.4414
▁jelly	-12.4415
▁antidote	-12.4415
▁cucumber	-12.4415
▁detention	-12.4415
▁ignorant	-12.4415
▁megumi	-12.4415
▁rainforest	-12.4415
▁rubbish	-12.4415
▁navigate	-12.4415
▁observing	-12.4415
▁sultan	-12.4415
▁happiest	-12.4415
▁opposition	-12.4415
▁milady	-12.4415
▁productivity	-12.4415
▁jules	-12.4415
▁cosmic	-12.4415
▁pipeline	-12.4415
▁stasi	-12.4415
▁alaska	-12.4415
▁golem	-12.4416
▁koutakun	-12.4416
▁thou	-12.4417
ito	-12.4417
▁yoga	-12.4418
▁weaknesses	-12.4418
▁disturbed	-12.4422
▁disappointing	-12.4422
▁tate	-12.4423
▁reflected	-12.4423
▁gettin	-12.4423
mingly	-12.4427
▁jae	-12.4429
ole	-12.4434
▁ranch	-12.4435
yl	-12.4438
▁pun	-12.4438
▁talents	-12.444
▁chiaki	-12.4442
dis	-12.4449
▁panels	-12.446
▁carrot	-12.4465
▁41	-12.4466
▁kite	-12.4471
▁abused	-12.4473
▁siege	-12.4473
▁errors	-12.4474
▁motto	-12.4476
▁robb	-12.448
▁neuron	-12.4483
umi	-12.449
'00.	-12.4497
▁smack	-12.4502
pound	-12.4503
▁noone	-12.451
▁hum	-12.4511
▁superhero	-12.4512
▁paradox	-12.4513
▁analyzing	-12.4513
▁mutant	-12.4513
▁narcotics	-12.4513
▁vagina	-12.4513
▁marathon	-12.4513
▁waterfall	-12.4513
▁sherman	-12.4513
▁admission	-12.4513
▁makabe	-12.4513
▁tsunami	-12.4513
▁copied	-12.4514
▁shook	-12.4514
▁'90	-12.4514
▁ark	-12.4515
▁yoshihiko	-12.4516
▁joel	-12.4517
zing	-12.452
▁gauge	-12.452
▁curtains	-12.4522
▁speakers	-12.4526
▁interacting	-12.4528
press	-12.4528
▁transported	-12.453
▁interactions	-12.4531
▁scares	-12.4531
▁offices	-12.4532
▁representing	-12.4532
▁cc	-12.4534
▁glen	-12.4536
▁lem	-12.4536
▁winters	-12.4547
ony	-12.4547
▁corners	-12.4555
▁ufo	-12.4562
▁assumptions	-12.4564
▁hormone	-12.4566
▁buttons	-12.4572
▁tenth	-12.4573
▁mel	-12.4576
▁noises	-12.4576
zer	-12.4584
▁kimi	-12.4595
▁gel	-12.4598
▁oppos	-12.4599
▁cri	-12.4607
▁roast	-12.4607
▁murderers	-12.461
bel	-12.461
▁inventor	-12.4611
▁deception	-12.4612
▁kennedy	-12.4612
▁microsoft	-12.4612
▁participating	-12.4612
▁replacing	-12.4612
▁scroll	-12.4612
▁simplicity	-12.4612
▁summarize	-12.4612
▁unemployed	-12.4612
▁unsolved	-12.4612
▁sixteen	-12.4612
▁steep	-12.4612
▁stabbing	-12.4612
▁womb	-12.4612
▁glance	-12.4612
▁ruling	-12.4612
▁fertilizer	-12.4612
▁stability	-12.4612
▁bruno	-12.4613
▁minimal	-12.4613
▁affordable	-12.4615
▁imagery	-12.4615
▁traps	-12.4616
▁sewer	-12.4618
▁boiling	-12.4618
▁machinery	-12.4619
▁poured	-12.4621
▁hmmm	-12.4622
▁homeroom	-12.4623
▁odor	-12.4625
▁ahem	-12.4625
▁barrels	-12.4625
▁crystals	-12.4626
▁attended	-12.4628
▁expressed	-12.463
▁denying	-12.4632
▁pitcher	-12.4632
▁zen	-12.4633
tsuki	-12.4634
▁tires	-12.4635
▁startup	-12.4642
▁marching	-12.4642
▁nicer	-12.4644
▁admired	-12.4648
▁incentives	-12.4651
▁screening	-12.4654
▁estimates	-12.4659
usan	-12.4662
▁mutation	-12.4667
▁obstacle	-12.4668
▁raft	-12.4676
▁mills	-12.4681
▁guarding	-12.4682
az	-12.4684
▁processed	-12.469
▁yama	-12.4695
qu	-12.4699
▁nemo	-12.47
▁pancakes	-12.4701
▁balloons	-12.4703
human	-12.4703
▁tourist	-12.4706
▁chap	-12.471
mark	-12.471
▁surge	-12.4712
▁alchemy	-12.4712
▁appreciation	-12.4712
▁athletic	-12.4712
▁aubrey	-12.4712
▁essay	-12.4712
▁galileo	-12.4712
▁miriam	-12.4712
▁negotiating	-12.4712
▁pelant	-12.4712
▁rwanda	-12.4712
▁voodoo	-12.4712
▁unnatural	-12.4712
▁furious	-12.4712
▁venus	-12.4712
▁temptation	-12.4712
▁favourite	-12.4712
▁disappointment	-12.4712
▁jonas	-12.4712
▁cement	-12.4713
▁werewolf	-12.4714
▁ledger	-12.4714
▁batman	-12.4715
▁evolving	-12.4716
▁ryuji	-12.4718
▁irene	-12.4721
▁planetary	-12.4723
▁mcgee	-12.4723
▁momo	-12.4723
▁nazis	-12.4723
▁gardens	-12.4729
▁loading	-12.4735
▁arch	-12.4736
town	-12.4739
▁researching	-12.4739
▁moo	-12.4741
▁sayid	-12.4744
▁sac	-12.475
ux	-12.4754
▁himari	-12.4758
▁hormones	-12.4759
ered	-12.476
▁thoughtful	-12.476
▁vs	-12.4763
▁mano	-12.4766
▁flap	-12.4766
▁flaw	-12.4766
▁handcuffs	-12.4769
▁locking	-12.4772
lon	-12.4774
chin	-12.4774
tte	-12.4777
fo	-12.4779
▁losers	-12.478
▁gala	-12.4781
▁attic	-12.4782
▁wat	-12.4789
▁psych	-12.479
▁manufacture	-12.4795
▁astonishing	-12.4812
42	-12.4812
▁triumph	-12.4813
▁berenson	-12.4813
▁easiest	-12.4813
▁energetic	-12.4813
▁feminist	-12.4813
▁pentagon	-12.4813
▁quarrel	-12.4813
▁sierra	-12.4813
▁supplement	-12.4813
▁uganda	-12.4813
▁pharmacy	-12.4813
▁merchant	-12.4813
▁gabby	-12.4813
▁yacht	-12.4813
▁maester	-12.4813
▁satoru	-12.4813
▁minato	-12.4813
▁stephen	-12.4813
▁poisonous	-12.4814
▁norway	-12.4814
▁keith	-12.4815
▁symmetry	-12.4815
▁countryside	-12.4817
▁milo	-12.4818
▁notify	-12.4818
03	-12.4819
▁freshman	-12.4819
▁teme	-12.4821
▁dim	-12.4822
▁randomly	-12.4823
▁shima	-12.4824
▁pakistani	-12.4826
fold	-12.4829
▁sought	-12.4835
▁iraqi	-12.4839
▁format	-12.4841
▁rushing	-12.4841
▁sm	-12.4845
▁withstand	-12.4847
▁tease	-12.4854
wn	-12.4861
▁fuse	-12.4862
▁jew	-12.4864
▁writers	-12.4868
▁rivers	-12.4873
▁incentive	-12.4875
unclear	-12.4876
▁erika	-12.4877
▁ping	-12.4879
bra	-12.489
hey	-12.4897
▁discharge	-12.4899
▁employ	-12.4902
▁grounded	-12.4906
▁accord	-12.4909
▁mourn	-12.4909
▁slash	-12.4909
▁numb	-12.4912
▁kinoshita	-12.4913
▁swift	-12.4913
▁torpedo	-12.4914
▁bas	-12.4914
▁trump	-12.4915
▁autograph	-12.4915
▁chrome	-12.4915
▁clumsy	-12.4915
▁microwave	-12.4915
▁nobunaga	-12.4915
▁targaryen	-12.4915
▁vicinity	-12.4915
▁waving	-12.4915
▁prophet	-12.4915
▁matobo	-12.4915
▁mickey	-12.4915
▁disturbance	-12.4915
▁clinton	-12.4915
▁establishment	-12.4915
▁attraction	-12.4916
▁mitasan	-12.4916
▁allowance	-12.4916
▁dealers	-12.4918
▁onboard	-12.4918
▁doubts	-12.4919
▁intensive	-12.4919
▁considerable	-12.4921
▁rv	-12.4921
▁helena	-12.4922
nn	-12.4922
▁def	-12.4923
▁intercepted	-12.4925
ake	-12.4925
▁fulfilled	-12.4926
▁invaded	-12.4927
▁differ	-12.4927
▁leaking	-12.493
▁kiddo	-12.4931
▁investigators	-12.4931
ugh	-12.4932
▁tasks	-12.4932
▁coup	-12.4933
▁troll	-12.4933
▁assembled	-12.4933
▁tuck	-12.4933
aries	-12.4934
▁monument	-12.4935
cell	-12.4936
▁von	-12.4938
▁goodlooking	-12.4941
▁kouji	-12.4941
▁mammals	-12.4942
▁carson	-12.4942
▁dreadful	-12.4942
▁equals	-12.4944
▁texted	-12.4949
▁hereby	-12.495
▁weirdo	-12.4952
▁mechanisms	-12.4957
akisan	-12.4963
▁locks	-12.4963
▁whispering	-12.4963
ug	-12.4964
▁coordinate	-12.4965
run	-12.4968
▁towers	-12.4968
▁concentrated	-12.497
style	-12.4971
cc	-12.4973
shiro	-12.4976
▁psychologist	-12.498
▁variation	-12.498
▁freed	-12.498
▁detector	-12.4981
▁yer	-12.499
▁occupation	-12.4991
▁perp	-12.4991
▁yorker	-12.4993
▁rangers	-12.4994
▁ape	-12.4997
▁har	-12.4998
▁links	-12.5
▁assess	-12.5002
▁descend	-12.5008
▁rang	-12.5012
▁distinguish	-12.5014
▁dwell	-12.5015
put	-12.5016
ack	-12.5017
▁arson	-12.5018
▁balcony	-12.5018
▁cerebral	-12.5018
▁composition	-12.5018
▁cradle	-12.5018
▁janitor	-12.5018
▁manipulating	-12.5018
▁obesity	-12.5018
▁tobacco	-12.5018
▁footsteps	-12.5018
▁algae	-12.5018
▁hyuk	-12.5018
▁garlic	-12.5018
▁malik	-12.5018
▁miharu	-12.5018
▁preview	-12.5018
▁yukata	-12.5018
▁impatient	-12.5018
▁wallace	-12.5018
▁advances	-12.5018
▁containment	-12.5019
▁heather	-12.5019
▁niki	-12.5019
▁riki	-12.5019
▁entitled	-12.5019
▁personalities	-12.502
▁prevention	-12.502
▁morality	-12.502
▁withdrawal	-12.502
▁2014	-12.502
▁sandwiches	-12.5021
▁housekeeper	-12.5021
▁sarge	-12.5022
▁hydro	-12.5023
▁examiner	-12.5023
▁bled	-12.5025
sir	-12.5026
▁chicks	-12.5027
▁trips	-12.5027
▁ticking	-12.5027
▁expanded	-12.5029
▁tossed	-12.5031
▁regularly	-12.5032
▁timer	-12.5034
▁tightly	-12.5034
▁kondo	-12.504
wise	-12.5044
▁tender	-12.5046
▁loft	-12.5047
▁boyle	-12.5048
▁sonic	-12.5058
▁aha	-12.506
▁caller	-12.5061
▁comms	-12.5062
▁simpler	-12.5063
key	-12.5064
▁nat	-12.5065
▁switching	-12.507
▁religions	-12.5072
ado	-12.5075
bed	-12.5076
▁caution	-12.5079
▁dice	-12.508
win	-12.5081
dollar	-12.5081
▁tubes	-12.5082
▁sn	-12.5084
▁chromosome	-12.5086
▁surgeons	-12.5088
▁prop	-12.5089
▁struggled	-12.5089
▁sar	-12.5089
▁cub	-12.509
▁risked	-12.5094
▁payments	-12.5095
▁instruction	-12.5103
▁motors	-12.5106
▁pledge	-12.5106
▁anticipate	-12.5106
▁shuffle	-12.511
▁dismiss	-12.5117
ologist	-12.5118
sized	-12.5118
▁hijikata	-12.512
▁sawatari	-12.512
▁slut	-12.5122
▁administrator	-12.5122
▁aluminum	-12.5122
▁arizona	-12.5122
▁assailant	-12.5122
▁injustice	-12.5122
▁legislation	-12.5122
▁nuisance	-12.5122
▁psychiatric	-12.5122
▁registration	-12.5122
▁tsukasa	-12.5122
▁tyrion	-12.5122
▁melanie	-12.5122
▁supplier	-12.5122
▁rehabilitation	-12.5122
▁venue	-12.5122
▁higgs	-12.5122
▁armstrong	-12.5122
▁decoration	-12.5122
▁petition	-12.5122
▁urine	-12.5123
▁sanae	-12.5123
▁compassionate	-12.5123
▁iq	-12.5123
▁hq	-12.5123
▁minority	-12.5123
▁depressing	-12.5124
▁kinchan	-12.5124
▁rinchan	-12.5124
▁diverse	-12.5124
▁endangered	-12.5125
▁cmr	-12.5125
▁rna	-12.5126
▁risa	-12.5127
▁smiles	-12.5127
▁difficulties	-12.5128
▁falcon	-12.5132
▁mil	-12.5135
▁interrupted	-12.5136
ochan	-12.5137
▁simone	-12.5151
▁outdoor	-12.5152
▁kana	-12.5154
▁strengthen	-12.5155
▁boxer	-12.5155
▁praised	-12.5157
▁sur	-12.5158
▁repeating	-12.5161
▁depths	-12.5165
▁erotic	-12.5166
▁android	-12.5179
▁dueling	-12.5184
▁operated	-12.5185
▁ap	-12.5186
▁owes	-12.5186
second	-12.5188
▁karin	-12.5189
▁argued	-12.519
▁puff	-12.5192
▁addressed	-12.5193
▁burger	-12.5194
▁circumstance	-12.5195
▁mika	-12.5197
▁gam	-12.5198
▁passports	-12.52
▁dread	-12.52
▁accessed	-12.5202
▁mus	-12.5205
▁shinji	-12.5206
▁cuff	-12.5208
▁shines	-12.5209
▁distribute	-12.5212
▁worms	-12.5213
▁sustain	-12.5216
▁acute	-12.5218
▁uncover	-12.5223
▁frequent	-12.5224
▁fianc	-12.5225
▁okinawa	-12.5225
▁aesthetic	-12.5227
▁categories	-12.5227
▁collateral	-12.5227
▁imperative	-12.5227
▁incompetent	-12.5227
▁klein	-12.5227
▁likelihood	-12.5227
▁philadelphia	-12.5227
▁symphony	-12.5227
▁toothbrush	-12.5227
▁heritage	-12.5227
▁mosque	-12.5227
▁refusing	-12.5227
▁shikamaru	-12.5227
▁bmw	-12.5227
▁jammed	-12.5228
▁tidy	-12.5228
▁snapped	-12.5228
▁broadway	-12.5228
▁stanley	-12.5228
▁contestant	-12.5228
▁fisherman	-12.5228
▁shortcut	-12.5228
▁satoshi	-12.5228
▁carolina	-12.5228
▁timmy	-12.5228
▁immortality	-12.5228
▁au	-12.5228
▁logan	-12.5229
▁pinkman	-12.5231
▁breakdown	-12.5231
▁baton	-12.5231
▁crude	-12.5232
▁adviser	-12.5235
lia	-12.5239
▁strangled	-12.524
▁caster	-12.5241
▁nora	-12.5242
▁louder	-12.5242
▁dope	-12.5251
▁expressions	-12.5256
tani	-12.5262
mann	-12.5262
low	-12.5262
▁translated	-12.5264
▁misses	-12.5267
▁tattoos	-12.5274
▁uhh	-12.5275
▁winners	-12.5278
▁congratulate	-12.5284
bal	-12.5286
▁strand	-12.5292
master	-12.5293
vis	-12.5294
▁juli	-12.5295
▁trends	-12.5302
▁pigeon	-12.5302
▁blossom	-12.5302
04	-12.5306
▁weekly	-12.5308
gue	-12.5309
▁gangs	-12.5311
▁elders	-12.5312
▁spared	-12.5313
▁lust	-12.5314
▁slowing	-12.5315
▁groves	-12.5316
▁exile	-12.5319
▁infect	-12.5323
▁haunt	-12.5324
▁yah	-12.5324
▁detach	-12.5329
▁antarctic	-12.5331
▁casual	-12.5331
▁gaps	-12.5332
▁haruko	-12.5332
ight	-12.5333
▁comp	-12.5333
▁uncertain	-12.5333
▁strategic	-12.5334
▁amsterdam	-12.5334
▁bertram	-12.5334
▁cabbage	-12.5334
▁canadian	-12.5334
▁eileen	-12.5334
▁graffiti	-12.5334
▁humanitarian	-12.5334
▁pedestrian	-12.5334
▁shakespeare	-12.5334
▁sugata	-12.5334
▁theodore	-12.5334
▁translator	-12.5334
▁oodate	-12.5334
▁remarkably	-12.5334
▁entity	-12.5334
▁zealand	-12.5334
▁burial	-12.5334
▁evelyn	-12.5334
▁plaza	-12.5334
▁elena	-12.5334
▁earliest	-12.5334
▁occurring	-12.5334
▁aged	-12.5334
▁opensource	-12.5334
▁factories	-12.5335
▁fluffy	-12.5335
▁haruto	-12.5335
▁lobe	-12.5335
▁stripper	-12.5336
▁instructed	-12.5336
▁overheard	-12.5337
▁becky	-12.5338
▁payback	-12.5338
▁planner	-12.5341
▁arden	-12.5341
▁puzzles	-12.5344
▁sofa	-12.5346
▁eri	-12.5347
▁slate	-12.5349
▁ngos	-12.5351
▁200,000	-12.5352
▁baked	-12.5352
▁caves	-12.5353
▁affecting	-12.5359
▁rolls	-12.536
▁merit	-12.536
▁traded	-12.5361
▁discovering	-12.5362
▁condolences	-12.537
▁bok	-12.537
▁bart	-12.5372
▁eighty	-12.5375
▁buckle	-12.5375
▁hallucinations	-12.5378
▁burner	-12.538
▁180	-12.5382
▁athletes	-12.5392
▁bret	-12.5392
▁ann	-12.5393
▁donate	-12.5397
▁sacrifices	-12.5398
▁coworkers	-12.54
▁errand	-12.5412
▁klingon	-12.5412
▁vector	-12.5412
▁regulation	-12.5413
▁traditions	-12.5418
▁dynamics	-12.5418
▁yeo	-12.5421
▁sigh	-12.5424
▁bal	-12.5428
▁mic	-12.5435
▁autonomous	-12.5439
gl	-12.544
uchi	-12.544
▁describing	-12.5441
▁dynamite	-12.5441
▁glamorous	-12.5441
▁invincible	-12.5441
▁reclaim	-12.5441
▁sedative	-12.5441
▁shampoo	-12.5441
▁javadi	-12.5441
▁unarmed	-12.5441
▁wendy	-12.5441
▁uncertainty	-12.5442
▁douglas	-12.5442
▁lissa	-12.5442
▁stitches	-12.5442
▁awaken	-12.5442
▁terrain	-12.5442
▁detection	-12.5442
▁copyright	-12.5443
▁hugh	-12.5443
▁vase	-12.5443
▁taxation	-12.5444
▁higashida	-12.5444
▁overdose	-12.5447
▁palmer	-12.5448
▁cowardly	-12.5449
▁apartments	-12.5449
▁wishing	-12.5455
01	-12.5455
▁rethink	-12.5457
▁hideous	-12.5459
▁lining	-12.5463
▁photographed	-12.5463
▁canal	-12.5465
▁sweater	-12.5468
▁unh	-12.5471
▁sticky	-12.5476
▁chuo	-12.5481
▁legends	-12.5482
▁outsider	-12.5482
lie	-12.5498
▁conflicts	-12.5499
▁relie	-12.5505
▁seated	-12.5508
▁stat	-12.551
▁whas	-12.551
▁inmates	-12.5512
▁believer	-12.5513
ition	-12.5516
▁copying	-12.5519
▁contribution	-12.5523
▁flights	-12.5524
▁phillip	-12.5524
ened	-12.553
▁hopeful	-12.5534
▁penetrate	-12.5534
▁vend	-12.5535
▁xrays	-12.554
▁vivid	-12.5548
▁azuki	-12.5548
▁arcadia	-12.555
▁bourbon	-12.555
▁centipede	-12.555
▁dimitri	-12.555
▁discreet	-12.555
▁enthusiasm	-12.555
▁humiliation	-12.555
▁infrared	-12.555
▁introducing	-12.555
▁lestrade	-12.555
▁migraine	-12.555
▁optimism	-12.555
▁shohoku	-12.555
▁unlimited	-12.555
▁viktor	-12.555
▁crunch	-12.555
▁dungeon	-12.555
▁gogogo	-12.555
▁neuroscience	-12.555
▁chalk	-12.555
▁cigar	-12.555
▁scumbag	-12.555
▁monica	-12.555
▁underlying	-12.555
▁morphine	-12.555
▁kimono	-12.555
▁attachment	-12.555
▁soutakun	-12.555
▁viking	-12.555
▁haircut	-12.5551
▁organizing	-12.5551
▁jody	-12.5551
▁journalism	-12.5551
▁kagurachan	-12.5551
▁smartphone	-12.5551
▁raccoons	-12.5552
▁coven	-12.5552
▁mizu	-12.5552
▁slack	-12.5553
▁cardboard	-12.5553
▁turing	-12.5554
▁alias	-12.5554
▁haley	-12.5557
▁amusing	-12.5558
▁confronted	-12.5558
body	-12.556
▁glowing	-12.556
▁logs	-12.5561
▁thanking	-12.5568
▁manosan	-12.5571
▁gh	-12.5572
▁clicks	-12.5574
▁forgiven	-12.5584
▁kuro	-12.5586
▁shifting	-12.5591
▁passwords	-12.5592
▁tai	-12.56
▁ger	-12.56
mus	-12.5601
▁fare	-12.5604
aid	-12.5604
500	-12.5608
▁utter	-12.5609
▁tissues	-12.5609
saki	-12.5611
▁destroyer	-12.5612
▁santo	-12.5624
keeper	-12.5624
▁ec	-12.5625
▁fuller	-12.5632
▁bunk	-12.5633
▁seth	-12.5635
▁republican	-12.5637
fly	-12.5638
▁entertain	-12.5644
▁interrogate	-12.5644
▁infiltrate	-12.5644
▁detonate	-12.5645
▁sank	-12.5647
▁costa	-12.5647
▁govern	-12.5648
▁hump	-12.5653
▁headaches	-12.5653
▁predictions	-12.5653
▁insulin	-12.5656
▁theoretical	-12.5658
▁akane	-12.566
▁accompanied	-12.566
▁ammunition	-12.566
▁anesthesia	-12.566
▁hesitation	-12.566
▁irrational	-12.566
▁pittsburgh	-12.566
▁roosevelt	-12.566
▁shapeshifter	-12.566
▁flank	-12.566
▁colonies	-12.566
▁panicked	-12.566
▁banned	-12.566
▁recession	-12.566
▁slightest	-12.5661
▁tipped	-12.5661
▁transferring	-12.5661
▁retina	-12.5662
▁ninth	-12.5662
▁intentionally	-12.5662
▁mustache	-12.5662
van	-12.5663
▁2015	-12.5663
▁mx	-12.5668
▁ahhh	-12.5671
▁jeans	-12.5672
▁decima	-12.5674
▁carved	-12.5674
1,	-12.5678
▁dye	-12.568
▁jade	-12.5681
▁tak	-12.5683
800	-12.5683
▁commands	-12.5689
▁righthand	-12.5691
etic	-12.5693
will	-12.5699
▁fla	-12.5702
▁rum	-12.5705
▁waiter	-12.5706
▁goda	-12.5708
▁quo	-12.5712
▁slime	-12.5717
▁motherfuckers	-12.572
▁metric	-12.572
ash	-12.5729
▁norm	-12.5731
▁amazingly	-12.5732
▁hardy	-12.5737
▁keeper	-12.574
bus	-12.5746
▁smiled	-12.5749
▁favors	-12.5755
▁thorn	-12.5761
▁shells	-12.5765
▁realise	-12.5765
▁pioneer	-12.5767
▁airplanes	-12.5767
▁kaori	-12.5771
▁discretion	-12.5771
▁apologise	-12.5771
▁compliance	-12.5771
▁curriculum	-12.5771
▁evaluate	-12.5771
▁gcpd	-12.5771
▁lobster	-12.5771
▁phosphorus	-12.5771
▁placing	-12.5771
▁significance	-12.5771
▁spencer	-12.5771
▁syringe	-12.5771
▁thirteen	-12.5771
▁watermelon	-12.5771
▁destructive	-12.5771
▁livestock	-12.5771
▁sofia	-12.5771
▁zebra	-12.5771
▁defence	-12.5771
▁hustle	-12.5771
▁rukawa	-12.5771
▁sensing	-12.5771
▁cozy	-12.5771
▁preferred	-12.5772
▁brotherinlaw	-12.5772
▁shibata	-12.5772
▁squadron	-12.5772
▁cuz	-12.5772
▁membership	-12.5772
▁futon	-12.5772
▁chile	-12.5773
▁flattered	-12.5773
▁annoyed	-12.5774
▁hitomi	-12.5774
▁lever	-12.5774
▁nagato	-12.5774
▁towels	-12.5775
▁controller	-12.5776
▁whichever	-12.5777
▁hardship	-12.5778
▁processor	-12.5783
▁complained	-12.5784
▁freezer	-12.5785
▁ali	-12.5786
▁scratched	-12.5788
▁drunken	-12.5789
▁3000	-12.5791
▁98	-12.5794
▁feathers	-12.5795
▁signer	-12.5795
▁yumi	-12.58
▁measurements	-12.5801
▁slope	-12.5802
▁missions	-12.5803
▁donated	-12.5803
▁reserved	-12.5803
▁sucking	-12.5804
▁stocks	-12.5808
▁edges	-12.5808
dale	-12.5809
▁pla	-12.5809
bil	-12.5821
uff	-12.5822
▁slim	-12.5824
▁seals	-12.5825
ically	-12.5826
▁frogs	-12.5826
▁appearing	-12.5826
▁carrots	-12.5826
▁passive	-12.5826
▁giants	-12.5829
▁vp	-12.583
▁loses	-12.5831
▁baron	-12.5838
▁teller	-12.5844
▁bl	-12.5846
▁cuba	-12.5849
bol	-12.5853
ika	-12.5853
dog	-12.5854
▁sentenced	-12.5854
▁backing	-12.5862
▁gangster	-12.5866
▁monk	-12.5866
▁puncture	-12.5868
▁boar	-12.5868
▁intervene	-12.5868
▁illustrate	-12.5868
▁accuse	-12.5868
▁ngo	-12.5868
▁reconstruct	-12.5872
▁screams	-12.5873
▁exits	-12.5877
▁discard	-12.5879
▁ronald	-12.5882
▁cockpit	-12.5883
▁abaddon	-12.5883
▁behaving	-12.5883
▁declaration	-12.5883
▁exboyfriend	-12.5883
▁gunvarrel	-12.5883
▁immigration	-12.5883
▁pandemic	-12.5883
▁ritchie	-12.5883
▁scotland	-12.5883
▁singapore	-12.5883
▁timothy	-12.5883
▁unidentified	-12.5883
▁unpredictable	-12.5883
▁evasion	-12.5883
▁saturn	-12.5883
▁tywin	-12.5883
▁recreate	-12.5883
▁methane	-12.5883
▁railway	-12.5884
▁ellie	-12.5884
▁aisle	-12.5884
▁ferry	-12.5884
▁gamma	-12.5884
▁grabbing	-12.5884
▁bradley	-12.5884
▁acres	-12.5884
▁moonlight	-12.5884
▁deposition	-12.5884
▁inferni	-12.5884
▁genetics	-12.5885
▁navigation	-12.5885
▁trey	-12.5886
▁portable	-12.5886
▁renly	-12.5887
▁fairies	-12.5887
▁grilled	-12.5887
▁homemade	-12.5888
▁sheer	-12.5888
▁gaming	-12.589
▁certainty	-12.589
▁taco	-12.589
▁severely	-12.5891
▁labeled	-12.5891
▁restrain	-12.5893
▁enterprises	-12.5893
▁tyrell	-12.5894
▁violated	-12.5898
▁zones	-12.5899
▁hyeon	-12.5899
▁anticipated	-12.59
▁shun	-12.5905
▁proceeding	-12.5908
▁demonstrated	-12.5913
▁insights	-12.5916
▁easter	-12.5917
ear	-12.592
▁gag	-12.592
▁biologists	-12.5927
▁poorly	-12.5928
▁heist	-12.5928
23	-12.5935
▁tame	-12.5935
▁900	-12.5939
▁experimenting	-12.594
▁backed	-12.5941
rich	-12.5941
ever	-12.5952
yoshi	-12.5953
▁eyebrows	-12.5956
girl	-12.5957
▁relaxing	-12.5957
▁alphabet	-12.596
▁entrepreneur	-12.5961
bone	-12.5963
▁foe	-12.5964
come	-12.5968
▁sixty	-12.5972
▁fumi	-12.5976
▁assassins	-12.5977
▁aka	-12.5978
▁poe	-12.5979
▁diagnostic	-12.598
▁resemble	-12.598
▁calculation	-12.5981
▁frighten	-12.5987
▁polish	-12.5988
fuck	-12.5991
▁debrief	-12.5991
▁spec	-12.5992
▁pets	-12.5994
▁swell	-12.5995
▁bronx	-12.5997
▁endeavor	-12.5997
▁glamour	-12.5997
▁hemisphere	-12.5997
▁incision	-12.5997
▁indigenous	-12.5997
▁intrusion	-12.5997
▁millennium	-12.5997
▁selfdefense	-12.5997
▁solitary	-12.5997
▁teikoku	-12.5997
▁tribute	-12.5997
▁michigan	-12.5997
▁adrenaline	-12.5997
▁governance	-12.5997
▁thailand	-12.5997
▁embarrassment	-12.5997
▁deployment	-12.5997
▁wildlife	-12.5997
▁moose	-12.5998
▁potter	-12.5998
▁spacecraft	-12.5998
▁iceberg	-12.5998
▁analogy	-12.5999
▁underworld	-12.5999
▁incidentally	-12.5999
▁failures	-12.6
▁monamisan	-12.6
▁popularity	-12.6001
▁healthier	-12.6001
▁yearold	-12.6001
▁texture	-12.6002
▁oceanic	-12.6003
▁reconstruction	-12.6004
▁regained	-12.6004
▁unlocked	-12.6005
▁bumped	-12.6006
▁masses	-12.6006
▁typing	-12.6007
aya	-12.6011
▁illegally	-12.6012
▁heavenly	-12.6015
▁irony	-12.6015
▁perceived	-12.6016
ati	-12.6016
▁sherry	-12.6018
▁gibbons	-12.6021
▁doom	-12.6029
▁garrett	-12.6033
inch	-12.6034
▁privately	-12.6036
▁tailed	-12.6037
▁courageous	-12.6042
▁routes	-12.6044
▁provider	-12.6045
igh	-12.6047
▁yuji	-12.6049
ousan	-12.6049
▁cartoons	-12.605
▁guarded	-12.6057
▁optical	-12.6057
▁understandable	-12.6057
stop	-12.6063
▁dart	-12.6064
▁onion	-12.607
any	-12.6073
aging	-12.6073
▁ideals	-12.6074
ima	-12.6088
▁astronaut	-12.6097
▁baba	-12.6097
▁brake	-12.61
▁expectation	-12.6106
▁brew	-12.6107
▁whim	-12.6108
een	-12.6109
▁pur	-12.611
▁overlook	-12.611
▁diarrhea	-12.6111
▁cockroach	-12.6111
▁activation	-12.6112
▁catastrophe	-12.6112
▁gymnastics	-12.6112
▁hobbies	-12.6112
▁incomplete	-12.6112
▁mixture	-12.6112
▁recycling	-12.6112
▁voluntary	-12.6112
▁warfare	-12.6112
▁beverly	-12.6112
▁railroad	-12.6112
▁canopy	-12.6112
▁ecological	-12.6112
▁hayden	-12.6112
▁spice	-12.6112
▁transmitted	-12.6112
▁cancelled	-12.6112
▁exponential	-12.6112
▁documentary	-12.6112
▁plotting	-12.6113
▁sane	-12.6113
▁snowden	-12.6113
▁hightech	-12.6113
▁freighter	-12.6114
▁pasta	-12.6115
▁hayes	-12.6115
▁designated	-12.6115
▁disconnected	-12.6116
▁sandra	-12.6116
▁coop	-12.6117
▁radically	-12.6118
▁elevated	-12.6118
▁accurately	-12.6118
▁resigned	-12.6118
▁dancers	-12.6119
▁slaughtered	-12.612
▁lil	-12.6121
▁saddle	-12.6122
▁linear	-12.6126
▁gg	-12.6131
▁posters	-12.6132
▁ruining	-12.6139
▁functioning	-12.6144
▁stated	-12.6145
cus	-12.6148
▁challenger	-12.6151
▁updated	-12.6153
cast	-12.6153
▁predators	-12.6154
tron	-12.6155
hiko	-12.6164
▁toshi	-12.6165
▁ru	-12.6169
▁metres	-12.6169
▁ei	-12.6169
▁bites	-12.6169
▁lancer	-12.6181
▁lang	-12.6183
ple	-12.6189
▁verb	-12.6198
▁stain	-12.6209
33	-12.6212
▁rivals	-12.6216
▁veteran	-12.6217
▁implement	-12.6217
▁embarrass	-12.6218
▁vein	-12.6221
▁oppose	-12.6222
▁satisfy	-12.6222
▁tickle	-12.6224
▁projection	-12.6225
▁kaede	-12.6228
▁taichi	-12.6228
▁imaginary	-12.6228
▁multiply	-12.6228
▁natasha	-12.6228
▁nutrients	-12.6228
▁staircase	-12.6228
▁tropical	-12.6228
▁kiibou	-12.6228
▁nagamine	-12.6228
▁antonio	-12.6228
▁chancellor	-12.6228
▁konatsu	-12.6228
▁sociopath	-12.6228
▁settling	-12.6228
▁mainframe	-12.6228
▁fuzzy	-12.6229
▁hornet	-12.6229
▁tapped	-12.6229
▁shige	-12.6229
▁jessie	-12.6229
▁raul	-12.6229
▁torpedoes	-12.6229
▁fatty	-12.6231
▁runaway	-12.6232
▁shortage	-12.6232
▁laden	-12.6233
▁cruiser	-12.6235
▁peers	-12.6235
▁jumps	-12.6235
▁theatre	-12.6235
▁nessa	-12.6235
▁moth	-12.6237
▁downloaded	-12.6239
▁temperatures	-12.6243
set	-12.6245
▁chika	-12.6252
▁mitsui	-12.6253
▁choke	-12.6255
▁prevented	-12.6256
▁morph	-12.6256
▁bowling	-12.6256
▁squares	-12.6256
▁gallons	-12.6265
▁beds	-12.6269
rah	-12.6273
▁130	-12.6273
▁101	-12.6275
▁ag	-12.6276
▁suzu	-12.6284
▁smoked	-12.6287
yeah	-12.6288
▁versions	-12.6289
▁mirrors	-12.6295
▁cracks	-12.6296
▁aya	-12.6298
▁mod	-12.6298
bot	-12.6301
▁mae	-12.6306
eal	-12.6312
▁incidents	-12.6327
▁troop	-12.6328
▁wan	-12.6328
▁enhance	-12.633
▁violate	-12.633
▁isolate	-12.633
▁stevens	-12.6332
▁fragment	-12.6333
▁restraint	-12.6334
▁nori	-12.6335
▁technician	-12.6337
▁delusion	-12.6337
▁precaution	-12.6337
▁economist	-12.6338
six	-12.634
▁disconnect	-12.6342
▁enters	-12.6342
▁africans	-12.6343
▁kuchiki	-12.6344
▁extensive	-12.6344
cin	-12.6345
▁excess	-12.6346
▁achilles	-12.6346
▁cathedral	-12.6346
▁generosity	-12.6346
▁kenobi	-12.6346
▁streak	-12.6346
▁wyatt	-12.6346
▁mitchell	-12.6346
▁sensai	-12.6346
▁shirayuki	-12.6346
▁snitch	-12.6346
▁trophy	-12.6346
▁compelled	-12.6346
▁orchid	-12.6346
▁contradiction	-12.6346
▁nanny	-12.6346
▁yukimura	-12.6346
▁stiles	-12.6346
▁binary	-12.6346
▁vomit	-12.6346
▁marx	-12.6347
▁cnn	-12.6347
▁courtroom	-12.6347
▁devastated	-12.6347
log	-12.6348
▁grill	-12.6348
▁1.5	-12.6348
▁bf	-12.6348
▁mapping	-12.6348
▁artwork	-12.6349
▁jewels	-12.6349
▁nee	-12.635
▁mindset	-12.635
▁accountable	-12.6352
▁lynn	-12.6353
▁zo	-12.6353
▁corrupted	-12.6356
▁rays	-12.6358
▁shatter	-12.6359
▁ryota	-12.6359
▁rituals	-12.6359
▁replica	-12.6362
▁perverted	-12.6362
▁nailed	-12.6363
▁parkman	-12.6363
▁panda	-12.6365
▁shaved	-12.6367
▁sinking	-12.6367
▁mixing	-12.637
▁whack	-12.6371
▁seized	-12.6373
▁seller	-12.6373
▁paula	-12.6373
▁mako	-12.6373
▁upgrade	-12.6375
▁enabled	-12.6381
▁universes	-12.6387
▁butch	-12.6389
power	-12.6391
▁comb	-12.6393
▁filmed	-12.6397
▁cheng	-12.64
ograph	-12.64
illa	-12.6402
▁posting	-12.6403
▁heating	-12.6404
▁taku	-12.6406
▁continents	-12.6407
▁nico	-12.6409
▁bam	-12.6417
load	-12.6424
degree	-12.6426
▁sciences	-12.6436
gin	-12.6448
▁dee	-12.6449
▁memorize	-12.6449
▁educate	-12.6449
▁representatives	-12.6451
▁sessions	-12.6454
▁conceal	-12.6454
▁vanish	-12.6456
▁katsu	-12.6458
▁basics	-12.6458
▁divers	-12.6459
▁egyptian	-12.6459
▁ou	-12.6461
▁claw	-12.6463
▁swarm	-12.6463
▁kirisaki	-12.6463
▁ethiopia	-12.6463
▁geographic	-12.6464
▁operatives	-12.6464
▁cabaret	-12.6465
▁childbirth	-12.6465
▁contemporary	-12.6465
▁convoy	-12.6465
▁flashforward	-12.6465
▁gandalf	-12.6465
▁irritating	-12.6465
▁khaleesi	-12.6465
▁massachusetts	-12.6465
▁napoleon	-12.6465
▁spicy	-12.6465
▁captive	-12.6465
▁mandela	-12.6465
▁konoha	-12.6465
▁bookstore	-12.6465
▁duncan	-12.6465
▁stunning	-12.6465
▁tribal	-12.6465
▁infectious	-12.6465
▁surgeries	-12.6465
▁applies	-12.6465
▁priorities	-12.6465
▁segawa	-12.6465
▁reiji	-12.6465
▁tre	-12.6465
▁cruz	-12.6465
▁attendant	-12.6465
▁198	-12.6466
▁superstar	-12.6466
▁vacant	-12.6466
▁janis	-12.6466
▁perez	-12.6466
▁rico	-12.6466
▁advertise	-12.6466
▁kendo	-12.6467
▁acceptance	-12.6467
▁rigged	-12.6468
▁lauda	-12.6468
▁knuckle	-12.6468
▁babysit	-12.6468
▁restroom	-12.6469
▁tailor	-12.6469
▁hideout	-12.647
▁yang	-12.647
▁hooker	-12.647
hel	-12.6471
▁robbing	-12.6472
bie	-12.6472
▁1900	-12.6473
▁newborn	-12.6474
▁purely	-12.6477
▁cling	-12.6477
nin	-12.6478
▁ricky	-12.6479
▁bankers	-12.648
▁receipts	-12.6488
▁similarly	-12.6489
▁demanded	-12.6489
▁maintaining	-12.6492
▁dung	-12.6493
▁casting	-12.6498
stand	-12.6502
nar	-12.6505
▁seti	-12.6505
wo	-12.6508
▁starters	-12.6509
ben	-12.6513
▁rains	-12.6517
▁bliss	-12.6522
▁straighten	-12.6527
▁drip	-12.6528
atory	-12.6528
▁archives	-12.6528
▁asap	-12.6529
have	-12.653
ako	-12.6534
▁vo	-12.6535
▁fuels	-12.6536
▁planting	-12.6537
▁innovations	-12.6538
▁usb	-12.6553
kh	-12.6561
▁tactic	-12.6561
▁accusations	-12.6566
▁syria	-12.6566
stick	-12.6568
▁shan	-12.6574
▁scatter	-12.6575
pri	-12.658
wash	-12.6581
▁surpass	-12.6581
▁austria	-12.6583
▁raccoon	-12.6584
▁tanaka	-12.6584
▁serina	-12.6585
▁afghan	-12.6585
▁aquarium	-12.6585
▁facetoface	-12.6585
▁frequencies	-12.6585
▁ikebukuro	-12.6585
▁leopard	-12.6585
▁miguel	-12.6585
▁parlor	-12.6585
▁sullivan	-12.6585
▁graduating	-12.6585
▁shelves	-12.6585
▁discrimination	-12.6585
▁bulk	-12.6585
▁jihad	-12.6585
▁hilarious	-12.6586
▁truce	-12.6586
▁popcorn	-12.6586
▁jfk	-12.6586
▁mitsuki	-12.6586
▁largescale	-12.6586
▁winston	-12.6587
▁edith	-12.6587
▁chili	-12.6587
▁shaman	-12.6587
▁digest	-12.6588
▁tray	-12.6588
▁carmine	-12.6588
▁bedtime	-12.6589
▁observer	-12.6589
▁cries	-12.6589
▁nickel	-12.659
▁artifacts	-12.659
▁generating	-12.659
▁highend	-12.6591
▁chapel	-12.6594
▁councilman	-12.6594
▁shingo	-12.6595
▁artie	-12.6595
▁addicted	-12.6597
▁actively	-12.6598
▁widely	-12.6598
▁usagi	-12.6599
▁jackass	-12.6599
▁buses	-12.6599
ude	-12.66
▁fang	-12.6601
▁kanzaki	-12.6602
▁8,000	-12.6602
▁revealing	-12.6609
▁opponents	-12.6609
emon	-12.661
▁pms	-12.6612
▁wheeler	-12.6615
▁nodes	-12.6617
▁novels	-12.6618
▁identifying	-12.6623
▁preventing	-12.6624
▁vitals	-12.6626
▁acknowledged	-12.6628
ode	-12.6631
▁nutrition	-12.6635
▁wesen	-12.6637
▁roller	-12.6647
▁gifted	-12.6648
▁prostate	-12.6648
▁populations	-12.665
pon	-12.6652
▁equations	-12.6654
▁dooku	-12.6659
▁faked	-12.666
▁shinichi	-12.6661
▁watts	-12.6665
nee	-12.6666
maybe	-12.6668
▁1,500	-12.6669
▁hol	-12.667
▁raku	-12.667
tric	-12.667
esh	-12.667
▁adams	-12.6675
path	-12.6677
▁awe	-12.6679
▁investments	-12.6683
ctu	-12.6696
▁inflict	-12.6697
▁naga	-12.6697
disciplinary	-12.6702
▁unleash	-12.6703
▁neglect	-12.6703
▁ax	-12.6704
▁akiyama	-12.6705
▁knots	-12.6706
▁patriot	-12.6707
▁stereo	-12.6707
▁blizzard	-12.6707
▁briarcliff	-12.6707
▁cinderella	-12.6707
▁closure	-12.6707
▁fireflies	-12.6707
▁grievous	-12.6707
▁handkerchief	-12.6707
▁hobbes	-12.6707
▁inferior	-12.6707
▁prejudice	-12.6707
▁recognise	-12.6707
▁scarecrow	-12.6707
▁substance	-12.6707
▁surrogate	-12.6707
▁velocity	-12.6707
▁whitaker	-12.6707
▁wilderness	-12.6707
▁console	-12.6707
▁ferris	-12.6707
▁seventeen	-12.6707
▁tolerance	-12.6707
▁tobias	-12.6707
▁payroll	-12.6707
▁liability	-12.6708
▁orientation	-12.6708
▁bidding	-12.6708
▁marketplace	-12.6708
▁radioactive	-12.6708
▁yates	-12.6708
▁foreman	-12.6708
▁thigh	-12.6708
▁acquainted	-12.6708
▁tread	-12.6708
▁mineral	-12.6708
▁trustworthy	-12.6708
▁rotation	-12.6708
▁wright	-12.6708
▁unrelated	-12.6709
▁robber	-12.6709
▁calvin	-12.6709
▁shunin	-12.6709
▁knot	-12.6709
▁ingredient	-12.6709
▁whistling	-12.671
▁hijacked	-12.6711
▁lex	-12.6712
ye	-12.6714
▁curb	-12.6715
▁1800	-12.6717
▁ang	-12.6717
hearted	-12.6718
▁trooper	-12.6719
▁sloan	-12.672
▁marsh	-12.672
▁kisses	-12.6721
▁traits	-12.6725
▁ale	-12.6729
▁conclusions	-12.673
▁sugi	-12.673
▁dil	-12.6735
machi	-12.6736
▁onions	-12.6738
▁robe	-12.6738
▁banging	-12.6741
▁barb	-12.6742
▁wick	-12.6743
▁declined	-12.6748
▁privileged	-12.675
▁pint	-12.6753
agi	-12.6754
▁blaze	-12.6754
▁scanners	-12.6756
▁exchanged	-12.6756
▁slot	-12.6765
▁poems	-12.6768
▁sonar	-12.6772
uji	-12.6776
▁cher	-12.6779
▁mastermind	-12.6781
▁graves	-12.6786
▁bead	-12.6787
▁bert	-12.6793
▁stun	-12.6793
50,000	-12.6794
gon	-12.6796
▁hats	-12.6796
nine	-12.6796
▁gaudi	-12.6799
▁handler	-12.6804
▁loads	-12.6805
▁viewers	-12.6805
▁celebrated	-12.6807
▁gains	-12.681
02	-12.6812
▁kazu	-12.6812
▁ballistics	-12.682
▁scold	-12.6821
rum	-12.6825
ute	-12.6828
▁tal	-12.6828
▁jose	-12.683
▁ethnic	-12.683
▁biodiversity	-12.6831
▁default	-12.6831
▁donnelly	-12.6831
▁inclined	-12.6831
▁inevitably	-12.6831
▁trembling	-12.6831
▁unforgivable	-12.6831
▁unofficial	-12.6831
▁utility	-12.6831
▁extremis	-12.6831
▁wellknown	-12.6831
▁ultrasound	-12.6831
▁architectural	-12.6831
▁mobility	-12.6831
▁chorus	-12.6831
▁tsunade	-12.6831
▁circulation	-12.6831
▁darcy	-12.6831
▁preschool	-12.6831
▁rimmer	-12.6831
▁takumi	-12.6831
▁descent	-12.6831
▁westeros	-12.6831
▁authorization	-12.6831
▁flipped	-12.6831
▁cooperating	-12.6831
▁takano	-12.6832
▁spur	-12.6832
▁yokoshima	-12.6832
▁civilized	-12.6832
▁casing	-12.6832
▁weaver	-12.6833
▁sidewalk	-12.6833
▁splitting	-12.6833
▁slick	-12.6834
▁fsa	-12.6835
▁activist	-12.6835
▁editing	-12.6835
▁crooked	-12.6835
▁scratches	-12.6835
▁scolded	-12.6835
▁skeptical	-12.6836
▁manufacturer	-12.6836
▁bp	-12.6836
▁tina	-12.684
eight	-12.6841
▁evac	-12.6843
▁heated	-12.6846
▁hospitality	-12.6847
▁thankfully	-12.6847
▁decker	-12.6848
▁pulls	-12.6852
▁paste	-12.6853
ological	-12.6854
▁barge	-12.6855
▁sticker	-12.6855
▁ibm	-12.6861
▁naoko	-12.6861
▁mp	-12.6862
using	-12.6863
▁laughs	-12.6866
▁hag	-12.6867
▁likewise	-12.6869
▁commonly	-12.6869
▁ava	-12.6871
eating	-12.6872
jou	-12.6873
▁asuma	-12.6882
▁mathematicians	-12.6883
nam	-12.6883
▁enables	-12.6883
▁comeback	-12.6885
minded	-12.6892
▁trader	-12.6893
▁severed	-12.6896
▁kii	-12.6898
▁seor	-12.6899
▁dre	-12.69
ked	-12.6904
▁responses	-12.6906
▁infections	-12.691
child	-12.6914
▁ache	-12.6917
▁loosen	-12.6919
▁sells	-12.6924
▁obscure	-12.6925
look	-12.6927
▁stabilize	-12.6933
▁diver	-12.6935
▁motivate	-12.694
corn	-12.6944
▁crook	-12.6952
nk	-12.6952
▁suspend	-12.6952
gasps	-12.6952
▁nao	-12.6953
bag	-12.6953
▁pri	-12.6955
▁veil	-12.6955
▁catalog	-12.6956
▁venom	-12.6956
andahalf	-12.6956
▁collaborative	-12.6956
▁completion	-12.6956
▁deficit	-12.6956
▁equity	-12.6956
▁extraordinarily	-12.6956
▁gadget	-12.6956
▁nonetheless	-12.6956
▁probable	-12.6956
▁proposing	-12.6956
▁secrecy	-12.6956
▁sunglasses	-12.6956
▁unfinished	-12.6956
▁bosnia	-12.6956
▁grease	-12.6956
▁helium	-12.6956
▁tokugawa	-12.6956
▁ebay	-12.6956
▁kruger	-12.6956
▁africanamerican	-12.6956
▁athena	-12.6956
▁persist	-12.6956
▁110	-12.6956
▁1984	-12.6956
▁popping	-12.6957
▁kimura	-12.6957
▁felony	-12.6957
▁doorstep	-12.6957
▁profitable	-12.6958
▁1999	-12.6958
▁beginner	-12.6959
▁sammy	-12.696
▁debra	-12.696
▁concealed	-12.696
▁stranded	-12.6961
▁porch	-12.6963
▁speeding	-12.6963
▁offender	-12.6963
▁yelled	-12.6966
▁gram	-12.6966
▁ethics	-12.6967
▁aspiration	-12.6968
▁flown	-12.6969
▁resistant	-12.6972
▁publisher	-12.6973
round	-12.6978
▁accidental	-12.6979
▁concluded	-12.698
▁vows	-12.698
▁usa	-12.6982
far	-12.6986
▁hades	-12.6988
▁911,	-12.6988
▁cracking	-12.6991
▁vera	-12.6991
▁geek	-12.6997
▁defender	-12.7002
▁mandi	-12.7003
▁fruits	-12.7008
▁superpower	-12.7009
lating	-12.701
▁rockets	-12.7012
99	-12.7014
▁chuckles	-12.7015
▁cornered	-12.7016
▁que	-12.7017
▁reserves	-12.7019
▁rina	-12.7023
▁seasons	-12.7026
▁ghouls	-12.7027
▁bothers	-12.7032
school	-12.7038
pped	-12.704
▁kent	-12.704
ase	-12.7041
▁geo	-12.7041
▁builder	-12.7043
▁lookout	-12.7045
▁subordinates	-12.7046
▁wink	-12.705
▁luv	-12.7051
▁ecosystems	-12.7053
▁aaa	-12.7054
▁blu	-12.7057
▁jang	-12.7058
▁sto	-12.7062
▁dia	-12.7064
▁postpone	-12.7067
▁impose	-12.7068
▁devote	-12.7071
▁specialize	-12.7078
▁disarm	-12.7079
▁exceptions	-12.7081
▁hayami	-12.7082
▁asthma	-12.7082
▁baghdad	-12.7082
▁behaviour	-12.7082
▁dopamine	-12.7082
▁lizzie	-12.7082
▁lloyd	-12.7082
▁paralysis	-12.7082
▁prostitution	-12.7082
▁refrain	-12.7082
▁residue	-12.7082
▁glitch	-12.7082
▁nitrogen	-12.7082
▁imitate	-12.7082
▁mainstream	-12.7083
▁edgar	-12.7083
▁tagged	-12.7083
▁expectancy	-12.7083
▁kuroko	-12.7083
▁mardon	-12.7083
▁powell	-12.7083
▁oppa	-12.7083
▁drugged	-12.7083
▁peeta	-12.7084
▁audit	-12.7084
▁globalization	-12.7084
▁theoretically	-12.7085
▁regretted	-12.7085
▁resurrected	-12.7085
▁observers	-12.7085
▁sayin	-12.7086
▁intensity	-12.7087
▁misty	-12.7087
▁bowman	-12.7087
▁2020	-12.7087
▁azusa	-12.709
▁beers	-12.7091
▁delusions	-12.7091
▁underway	-12.7092
▁scholar	-12.7092
▁prostitute	-12.7092
▁beforehand	-12.7092
▁righteous	-12.7093
▁kitten	-12.7093
▁goodnight	-12.7095
▁sincere	-12.7095
▁australian	-12.7099
▁enhanced	-12.7099
▁flashy	-12.71
▁adventures	-12.71
▁peru	-12.7101
sho	-12.7101
▁respects	-12.7109
tail	-12.7109
▁chocolates	-12.7118
▁dunk	-12.7118
▁relieve	-12.7119
▁somalia	-12.7119
▁draws	-12.7122
▁lifting	-12.7122
▁locally	-12.7124
09	-12.7125
wait	-12.7129
brian	-12.713
▁hah	-12.7136
ising	-12.7141
▁roles	-12.7142
▁scouts	-12.7142
▁calmly	-12.7147
▁kar	-12.7148
about	-12.7149
▁tron	-12.715
▁neighborhoods	-12.7151
:30	-12.7152
▁ew	-12.7152
▁clips	-12.7154
▁kasu	-12.7162
▁condom	-12.7178
▁angles	-12.7182
▁surroundings	-12.7187
gas	-12.7188
▁apes	-12.7189
gun	-12.7196
ifies	-12.7198
▁reefs	-12.7203
▁grams	-12.7204
▁mario	-12.7206
▁cobra	-12.7206
▁enlist	-12.7206
▁phenomena	-12.7206
▁cannons	-12.721
▁pilgrim	-12.721
▁abdomen	-12.7211
▁aggression	-12.7211
▁calligraphy	-12.7211
▁emerald	-12.7211
▁entropy	-12.7211
▁gigantic	-12.7211
▁jeopardy	-12.7211
▁leukemia	-12.7211
▁liaison	-12.7211
▁minnesota	-12.7211
▁rhyme	-12.7211
▁segment	-12.7211
▁smuggling	-12.7211
▁uneasy	-12.7211
▁lydia	-12.7211
▁bronze	-12.7211
▁disney	-12.7211
▁wylie	-12.7211
▁cricket	-12.7211
▁maroni	-12.7211
▁buffet	-12.7211
▁stewart	-12.7211
▁fungus	-12.7211
▁exposing	-12.7211
▁reload	-12.7211
▁sideways	-12.7211
▁relic	-12.7211
▁roland	-12.7211
▁colorado	-12.7211
▁ashley	-12.7211
▁crappy	-12.7211
▁spotlight	-12.7211
grunts	-12.7211
▁bugger	-12.7211
▁pip	-12.7211
▁filing	-12.7212
▁considerably	-12.7212
▁delusional	-12.7212
▁cathy	-12.7212
▁bridges	-12.7212
▁testified	-12.7212
▁drums	-12.7213
▁handgun	-12.7213
▁chas	-12.7214
▁spiderman	-12.7215
▁yong	-12.7215
▁overload	-12.7216
▁freeway	-12.7217
▁filmmaker	-12.7217
▁converted	-12.7218
▁saki	-12.7222
▁communist	-12.7223
▁ounce	-12.7224
▁dominated	-12.7224
▁53	-12.7225
▁folded	-12.7226
▁gases	-12.7228
▁onstage	-12.723
▁realised	-12.7234
▁posts	-12.7236
▁warhead	-12.7238
▁transporting	-12.7241
▁physicians	-12.7242
▁paw	-12.7245
▁headline	-12.7245
▁shifted	-12.7246
ame	-12.7247
▁danced	-12.7248
non	-12.7248
▁tele	-12.7251
▁donkey	-12.7254
▁pl	-12.7258
▁grind	-12.7262
▁rabbits	-12.7267
jin	-12.7267
▁tags	-12.7268
▁tumors	-12.7273
uro	-12.7275
▁monitors	-12.728
▁58	-12.7281
ook	-12.7283
▁repairs	-12.7283
ban	-12.7289
▁node	-12.7294
bri	-12.7298
ement	-12.73
table	-12.7301
▁morale	-12.7315
lessness	-12.732
read	-12.7321
▁bulbs	-12.7323
▁acc	-12.7324
▁wildlings	-12.7326
▁fuckers	-12.7327
▁holder	-12.7328
▁allah	-12.733
▁wand	-12.7336
▁hoshino	-12.7339
▁omelet	-12.734
▁slay	-12.734
▁gandhi	-12.734
▁accelerating	-12.734
▁anomaly	-12.734
▁bathtub	-12.734
▁battalion	-12.734
▁bleach	-12.734
▁caribbean	-12.734
▁cavalry	-12.734
▁chopsticks	-12.734
▁consensus	-12.734
▁faculty	-12.734
▁infirmary	-12.734
▁mandarin	-12.734
▁melinda	-12.734
▁santiago	-12.734
▁seatbelt	-12.734
▁snail	-12.734
▁vienna	-12.734
▁jerome	-12.734
▁leslie	-12.734
▁propane	-12.734
▁libby	-12.7341
▁adachi	-12.7341
▁distinctive	-12.7341
▁constantine	-12.7341
▁diana	-12.7341
▁goldfish	-12.7341
▁tuco	-12.7341
▁accountability	-12.7341
▁crest	-12.7342
▁marika	-12.7342
▁sugimurasan	-12.7342
▁motherfucking	-12.7343
▁upsetting	-12.7343
▁nuke	-12.7344
▁sakuragikun	-12.7344
▁continuously	-12.7344
rop	-12.7344
▁tenant	-12.7345
▁profoundly	-12.7347
▁receptor	-12.7349
▁dex	-12.7349
▁stumbled	-12.735
▁realization	-12.7353
▁esp	-12.7353
▁sakes	-12.7356
▁crosses	-12.7357
▁asteroid	-12.7357
▁mechanic	-12.7357
▁infiltrated	-12.7359
huh	-12.7363
▁blooming	-12.7364
▁traumatic	-12.7365
▁transforming	-12.7367
igan	-12.737
▁upstate	-12.7374
hoo	-12.7377
rian	-12.7377
▁disclose	-12.738
▁rhythmic	-12.7381
▁markers	-12.7381
▁bananas	-12.7385
▁needless	-12.7386
▁poo	-12.7386
▁strands	-12.7387
▁signatures	-12.7388
▁limo	-12.7388
▁variations	-12.7389
▁richest	-12.7389
▁occasions	-12.7392
step	-12.7403
▁herald	-12.7403
▁lj	-12.7404
▁gru	-12.7405
▁cables	-12.7408
▁000	-12.7415
cia	-12.7416
▁ichi	-12.7419
▁adds	-12.7422
▁usage	-12.7422
▁simplest	-12.7423
▁spreads	-12.7426
jun	-12.7427
▁guided	-12.743
laughing	-12.7433
▁itchy	-12.7438
bly	-12.7438
▁conditioning	-12.7439
00,000	-12.745
▁generators	-12.7451
▁patron	-12.7452
eb	-12.7459
▁disgust	-12.7462
▁impacts	-12.7462
▁diapers	-12.7464
▁tutor	-12.7466
▁surfaces	-12.7467
pper	-12.7467
▁electro	-12.7469
▁whil	-12.747
kar	-12.7472
▁ralph	-12.7472
▁alchemist	-12.7472
▁anatomy	-12.7472
▁arrogance	-12.7472
▁controversial	-12.7472
▁dauntless	-12.7472
▁envious	-12.7472
▁farragut	-12.7472
▁frodo	-12.7472
▁imminent	-12.7472
▁microbial	-12.7472
▁probation	-12.7472
▁selfdefence	-12.7472
▁subpoena	-12.7472
▁swollen	-12.7472
▁vertigo	-12.7472
▁transcript	-12.7472
▁jeffrey	-12.7472
▁unaware	-12.7472
▁jennings	-12.7472
▁arkham	-12.7472
▁vinci	-12.7472
▁salute	-12.7472
▁bankruptcy	-12.7472
▁gwen	-12.7472
▁tanokurakun	-12.7472
▁dissect	-12.7472
▁kagame	-12.7472
▁mailbox	-12.7473
▁homura	-12.7473
▁alvin	-12.7473
▁gai	-12.7473
▁posture	-12.7473
▁juliette	-12.7473
▁vibe	-12.7473
▁hughes	-12.7473
▁chatting	-12.7473
▁hinami	-12.7473
▁countdown	-12.7474
▁lime	-12.7474
▁maryland	-12.7474
▁bolton	-12.7474
▁fangs	-12.7475
▁colorful	-12.7475
▁headmaster	-12.7476
▁supportive	-12.7476
▁checkpoint	-12.7476
▁wrench	-12.7476
▁thompson	-12.7477
▁awaiting	-12.7477
▁uncovered	-12.7478
▁alcoholic	-12.7478
lee	-12.7478
▁bakery	-12.7479
▁nato	-12.7479
▁horny	-12.7479
▁steering	-12.7481
▁perfection	-12.7482
▁ruthless	-12.7482
▁anzai	-12.7483
▁mayday	-12.7486
his	-12.7488
▁mattered	-12.7489
▁dino	-12.7491
▁accusation	-12.7493
▁ancestor	-12.7494
▁seas	-12.7496
▁delightful	-12.75
▁bandage	-12.7503
lit	-12.7504
▁rambo	-12.7507
▁mishima	-12.7509
▁medicines	-12.751
▁overhead	-12.7515
▁linking	-12.7516
▁lol	-12.7521
▁karate	-12.7524
▁socially	-12.7525
▁seno	-12.7526
dge	-12.7528
▁tourists	-12.753
▁marina	-12.7532
▁gladly	-12.7534
▁tro	-12.7535
▁mmmm	-12.7539
▁donors	-12.7539
lay	-12.7546
gie	-12.7546
▁calories	-12.755
▁charts	-12.7552
▁len	-12.7553
▁grad	-12.7555
▁judged	-12.7556
▁wrists	-12.7564
▁enthusiastic	-12.7564
course	-12.7566
▁thermos	-12.7569
▁pia	-12.7571
game	-12.7573
ew	-12.7577
link	-12.7582
▁noh	-12.7587
▁despise	-12.759
▁raises	-12.7591
▁stefan	-12.7592
▁sighs	-12.7597
block	-12.7602
▁shiraishi	-12.7603
▁sakai	-12.7604
▁gras	-12.7604
▁bash	-12.7604
▁kaya	-12.7605
▁jefferson	-12.7605
▁exhusband	-12.7605
▁georgie	-12.7605
▁uzumaki	-12.7605
▁accuracy	-12.7605
▁administrative	-12.7605
▁automated	-12.7605
▁camouflage	-12.7605
▁cindy	-12.7605
▁concussion	-12.7605
▁consecutive	-12.7605
▁contagious	-12.7605
▁faggot	-12.7605
▁geometry	-12.7605
▁hitandrun	-12.7605
▁detour	-12.7605
▁murray	-12.7605
▁kathy	-12.7605
▁lipstick	-12.7605
▁bloke	-12.7605
▁duration	-12.7606
▁edison	-12.7606
▁napkin	-12.7606
▁attendance	-12.7606
▁jonah	-12.7606
▁shoutmon	-12.7606
▁rewrite	-12.7607
▁1998	-12.7607
▁kiba	-12.7607
▁madara	-12.7607
▁lurking	-12.7607
▁weighs	-12.7608
▁mainland	-12.7609
▁kenchan	-12.7609
▁presenting	-12.7611
▁richie	-12.7612
▁refined	-12.7614
size	-12.7615
▁darkest	-12.7616
▁camps	-12.7619
▁icu	-12.7621
▁sweeping	-12.7622
▁physicists	-12.7625
▁arabia	-12.7626
▁asuna	-12.7627
▁outlaw	-12.7628
▁oyster	-12.7629
▁glacier	-12.7629
ump	-12.763
▁ip	-12.763
▁homer	-12.7631
▁bands	-12.7631
▁grape	-12.7638
▁mach	-12.7638
ali	-12.7642
▁shou	-12.7642
▁ruby	-12.7643
▁teen	-12.7652
▁gall	-12.7655
pop	-12.7659
▁bikes	-12.7665
▁liza	-12.7666
▁interviewing	-12.7676
ule	-12.7678
▁mates	-12.7681
▁shoots	-12.7683
▁awaits	-12.7689
▁telescopes	-12.7689
▁sorted	-12.769
world	-12.7696
▁margin	-12.7699
▁82	-12.7702
▁valued	-12.7711
▁textbooks	-12.7716
▁origins	-12.7719
▁invade	-12.7723
▁thesis	-12.7724
▁disgrace	-12.7725
▁bricks	-12.7728
▁hog	-12.7734
▁bluff	-12.7735
▁monarch	-12.7738
▁cleanse	-12.7739
▁sparta	-12.7739
▁tsubaki	-12.774
▁tweak	-12.774
▁acoustic	-12.774
▁almighty	-12.774
▁buffalo	-12.774
▁claudia	-12.774
▁cushion	-12.774
▁federation	-12.774
▁friction	-12.774
▁fundraiser	-12.774
▁heavier	-12.774
▁hockey	-12.774
▁lorraine	-12.774
▁marshmallow	-12.774
▁membrane	-12.774
▁oxytocin	-12.774
▁pendant	-12.774
▁presumably	-12.774
▁sensitivity	-12.774
▁swept	-12.774
▁parkinson	-12.774
▁sucre	-12.774
▁solemn	-12.774
▁florence	-12.7741
▁vigilance	-12.7741
▁clash	-12.7741
▁supernatural	-12.7741
▁montana	-12.7741
▁fishermen	-12.7741
▁mundt	-12.7741
▁marble	-12.7741
▁crave	-12.7741
▁grandchild	-12.7741
▁decode	-12.7741
▁slipping	-12.7741
▁turf	-12.7741
▁mick	-12.7741
▁altar	-12.7741
▁sinner	-12.7741
▁kirito	-12.7741
▁wretched	-12.7741
▁stakeout	-12.7742
▁kanji	-12.7742
▁batter	-12.7743
▁hangover	-12.7743
▁pep	-12.7744
▁monsignor	-12.7744
▁trespassing	-12.7744
▁legion	-12.7745
▁nakashima	-12.7745
▁lockup	-12.7746
▁stern	-12.7748
▁respectable	-12.7748
▁crater	-12.775
▁viper	-12.7751
▁donations	-12.7751
▁booster	-12.7752
eh	-12.7754
▁strangle	-12.7754
▁cloudy	-12.7756
▁imf	-12.7757
▁mk	-12.7762
▁40,000	-12.7762
▁pont	-12.7762
▁13?	-12.7764
▁caps	-12.7765
achan	-12.7765
▁cycles	-12.7769
▁rewarded	-12.777
▁willingly	-12.7772
▁deserted	-12.7772
▁ramp	-12.7773
▁expressing	-12.7773
▁sao	-12.7776
rry	-12.7776
mmed	-12.7778
ional	-12.7778
page	-12.7781
▁prefectur	-12.7782
▁sol	-12.7783
▁everest	-12.7783
▁evacuated	-12.7784
▁koran	-12.7784
▁stra	-12.7786
▁amateurs	-12.7787
rl	-12.7788
▁parenting	-12.7788
▁ev	-12.78
len	-12.7802
▁biting	-12.7808
cam	-12.7809
iwa	-12.781
bber	-12.7815
▁dante	-12.7817
▁posed	-12.7819
ido	-12.7821
▁reservations	-12.7822
▁goten	-12.7822
▁mow	-12.7822
▁350	-12.7823
▁catastrophic	-12.7828
▁sequences	-12.7834
▁sip	-12.7834
mouth	-12.7835
walk	-12.7835
▁vol	-12.7839
space	-12.7839
uda	-12.785
asu	-12.7854
▁luis	-12.7855
▁eta	-12.7861
▁diagnose	-12.7862
▁condoms	-12.7866
▁59	-12.7868
▁preach	-12.7872
▁stationed	-12.7872
▁competitors	-12.7873
▁activists	-12.7873
▁crisp	-12.7876
▁scrub	-12.7877
▁alharazi	-12.7877
▁beneficial	-12.7877
▁buddhist	-12.7877
▁cosmetic	-12.7877
▁grieving	-12.7877
▁juicy	-12.7877
▁leila	-12.7877
▁propaganda	-12.7877
▁shinjuku	-12.7877
▁undoubtedly	-12.7877
▁ventilation	-12.7877
▁vintage	-12.7877
▁wrestling	-12.7877
▁drought	-12.7877
▁fourteen	-12.7877
▁matsudaira	-12.7877
▁videotape	-12.7877
▁affirmative	-12.7878
▁shortterm	-12.7878
▁cctv	-12.7878
▁detonator	-12.7878
▁kristen	-12.7878
▁apron	-12.7878
▁stripped	-12.7878
▁daughterinlaw	-12.7878
▁logged	-12.7878
▁accomplishment	-12.7878
▁rejection	-12.7878
▁hiroshima	-12.7878
▁eighteen	-12.7878
▁rotting	-12.7878
▁decay	-12.7878
▁swindler	-12.7879
▁shoplifting	-12.7879
▁chord	-12.7879
▁courthouse	-12.788
▁freakin	-12.788
▁maddy	-12.788
▁starboard	-12.788
▁sketches	-12.788
▁mooney	-12.788
▁dual	-12.7881
▁judgement	-12.7881
▁phenomenal	-12.7882
▁rancho	-12.7883
▁demonic	-12.7884
▁hideki	-12.7884
▁implanted	-12.7885
▁coding	-12.7885
▁speeches	-12.7887
▁polo	-12.7887
▁limp	-12.7887
▁recruiting	-12.7888
▁eden	-12.7889
▁regenerate	-12.7889
▁mutou	-12.7889
▁compact	-12.789
▁flute	-12.789
▁burke	-12.7891
▁extracted	-12.7891
▁caliber	-12.7891
▁stretched	-12.7892
▁flooded	-12.7894
dasan	-12.7895
▁sirens	-12.7896
▁containing	-12.7896
▁pumping	-12.7897
▁83	-12.7898
▁cod	-12.7901
▁underestimated	-12.7905
▁initiated	-12.7906
▁harmful	-12.7906
▁sel	-12.7906
onic	-12.7908
▁lego	-12.7909
▁gown	-12.7911
▁characteristic	-12.7911
▁cheering	-12.7912
▁est	-12.7913
▁rb	-12.7917
29	-12.7919
▁openness	-12.7923
▁parameters	-12.7924
yan	-12.7938
▁var	-12.7943
▁hike	-12.7943
▁newest	-12.7944
▁weep	-12.7944
yuu	-12.7951
▁lila	-12.7953
▁butei	-12.7955
spiring	-12.7963
▁bombed	-12.7965
kill	-12.7965
bear	-12.7969
craft	-12.7969
▁employers	-12.7971
▁earthquakes	-12.7973
▁horns	-12.7974
kichi	-12.7976
imi	-12.7976
▁computation	-12.7976
▁matsu	-12.7978
▁yuka	-12.7979
list	-12.798
nick	-12.7982
▁kicks	-12.7987
los	-12.799
▁kl	-12.7994
▁pic	-12.7996
▁euros	-12.7998
ched	-12.7998
▁vouch	-12.7999
▁slippers	-12.8001
▁depart	-12.8006
▁reboot	-12.801
handed	-12.8012
▁pumps	-12.8012
▁refuge	-12.8013
▁otonashi	-12.8014
▁incorrect	-12.8014
▁immense	-12.8014
▁pok	-12.8016
▁advancing	-12.8016
▁alabama	-12.8016
▁anthrax	-12.8016
▁applaud	-12.8016
▁baggage	-12.8016
▁chitanda	-12.8016
▁commerce	-12.8016
▁copenhagen	-12.8016
▁courier	-12.8016
▁decisive	-12.8016
▁heisenberg	-12.8016
▁mayonnaise	-12.8016
▁offspring	-12.8016
▁okaasan	-12.8016
▁resonance	-12.8016
▁squash	-12.8016
▁storytelling	-12.8016
▁sympathize	-12.8016
▁vivien	-12.8016
▁widespread	-12.8016
▁yogurt	-12.8016
▁dialect	-12.8016
▁navarro	-12.8016
▁unseen	-12.8016
▁stairwell	-12.8016
▁hippie	-12.8016
▁shred	-12.8016
▁peasant	-12.8016
▁socket	-12.8017
▁scalpel	-12.8017
▁bulletproof	-12.8017
▁zogo	-12.8017
▁psychotic	-12.8017
▁javier	-12.8017
▁saito	-12.8017
▁brute	-12.8017
▁phony	-12.8017
▁swab	-12.8018
▁advancement	-12.8018
▁ogawa	-12.8018
▁digits	-12.8019
▁bravery	-12.8019
▁mentalist	-12.8019
▁harassing	-12.8019
▁defy	-12.802
▁travelling	-12.802
▁blades	-12.802
▁reina	-12.8021
▁flirting	-12.8021
▁tango	-12.8021
▁collectively	-12.8024
▁punches	-12.8024
▁sae	-12.8024
▁realities	-12.8026
▁publication	-12.8029
▁frey	-12.803
▁centimeters	-12.803
▁hoon	-12.8032
▁documented	-12.8034
▁vile	-12.8041
▁stealth	-12.8042
▁millimeter	-12.8044
▁guardians	-12.8045
▁pits	-12.8049
▁edwards	-12.8051
▁vary	-12.8051
▁postcard	-12.8052
▁preserved	-12.8053
wind	-12.8054
miss	-12.8055
▁cuffs	-12.8058
▁emailed	-12.8067
▁yuko	-12.807
▁tat	-12.8071
▁suggestions	-12.8072
▁ceos	-12.8084
▁optic	-12.8085
▁compounds	-12.8089
▁requirements	-12.8092
▁tetsu	-12.8095
▁viewed	-12.8095
▁alg	-12.8098
▁thr	-12.8101
▁lass	-12.8114
▁hart	-12.8117
▁costumes	-12.8117
▁shim	-12.8117
▁yukio	-12.8117
fro	-12.8118
▁scored	-12.8138
▁jaws	-12.8141
haired	-12.8141
▁addressing	-12.8144
▁empower	-12.8147
▁inspect	-12.8152
▁quad	-12.8152
▁superiors	-12.8152
▁ramon	-12.8153
▁weaken	-12.8154
▁intuitive	-12.8155
▁cone	-12.8156
▁kusaka	-12.8157
▁irregular	-12.8157
▁accustomed	-12.8157
▁anthropologist	-12.8157
▁autistic	-12.8157
▁barricade	-12.8157
▁deceiving	-12.8157
▁ernie	-12.8157
▁feminine	-12.8157
▁indonesia	-12.8157
▁jasmine	-12.8157
▁masamune	-12.8157
▁okumura	-12.8157
▁puppies	-12.8157
▁removal	-12.8157
▁rescuing	-12.8157
▁resilience	-12.8157
▁shibuya	-12.8157
[...]
