{
  "src_word2id": {
    "<pad>": 0,
    "<s>": 1,
    "</s>": 2,
    "<unk>": 3,
    "\u2581": 4,
    "\u306e": 5,
    "?": 6,
    "\u3002": 7,
    "\u306f": 8,
    "\u304c": 9,
    "\u3092": 10,
    "\u306b": 11,
    "!": 12,
    "\u3001": 13,
    "\u3068": 14,
    "\u3067": 15,
    "...": 16,
    "\u3060": 17,
    "\u3088": 18,
    "\u3082": 19,
    "\u304b": 20,
    "\u306a": 21,
    "\u3067\u3059": 22,
    "\u304b\u3089": 23,
    "\u30fb": 24,
    "\u306d": 25,
    "\u3063\u3066": 26,
    "\u300d": 27,
    "\u2581\u3053\u306e": 28,
    "\u3057": 29,
    "\u308f": 30,
    "\u3093\u3060": 31,
    "\u3084": 32,
    "...\u3002": 33,
    "\u2581\u300c": 34,
    "\u308b": 35,
    "\"": 36,
    "\u305f": 37,
    "\u3057\u305f": 38,
    "\u3059\u308b": 39,
    "\u2581\u305d\u306e": 40,
    "\u3057\u3066": 41,
    "\u2581\u3067\u3082": 42,
    "\u2581\u79c1\u306f": 43,
    "\u3055": 44,
    "\u306b\u306f": 45,
    "\u4eba": 46,
    "\u3066": 47,
    "\u306a\u3089": 48,
    "\u2581\"": 49,
    "1": 50,
    "\u2581\u3082\u3046": 51,
    "\u3044": 52,
    "\u3089": 53,
    "\u2581\u305d\u3057\u3066": 54,
    "\u3055\u3093": 55,
    "\u2581\u3053\u308c\u306f": 56,
    "\u2581\u305d\u308c\u306f": 57,
    "\u27a1": 58,
    "\u2581-": 59,
    "\u306a\u3044": 60,
    "~": 61,
    "\u3060\u3063\u305f": 62,
    "\u2581\u3042\u3042": 63,
    "\u307e\u3059": 64,
    "\u306e\u304b": 65,
    "2": 66,
    "\u305e": 67,
    "\u2581\u3042\u306e": 68,
    "\u2581\u4f55": 69,
    "\u2581\u5f7c\u306f": 70,
    "\u30fb\u30fb\u30fb": 71,
    "\u30fc": 72,
    "\u3067\u3082": 73,
    "\u3058\u3083\u306a\u3044": 74,
    ".": 75,
    "\u307e\u3057\u305f": 76,
    "\u307e\u3067": 77,
    "\u306e\u306f": 78,
    "\u2581\u79c1": 79,
    "\u2581\u304a": 80,
    "\u2581\u306f\u3044": 81,
    "\u308a": 82,
    "\u2581\u79c1\u306e": 83,
    "\u2581\u3044\u3084": 84,
    "\u2581\u300a": 85,
    "\u3068\u3044\u3046": 86,
    "\u3044\u308b": 87,
    "\u2581\u79c1\u304c": 88,
    "\u2581\u305d\u3046": 89,
    "\u306a\u3093\u3066": 90,
    "\u3060\u308d": 91,
    "\u2015": 92,
    "\u3051\u3069": 93,
    "\u7684": 94,
    "\u3060\u3088": 95,
    "\u30b9": 96,
    "\u3067\u306f": 97,
    "\u2581\u3060\u304b\u3089": 98,
    "\u3093": 99,
    "\u2581\u4eca": 100,
    "\u2581\u4ffa\u306f": 101,
    "\u3057\u307e\u3059": 102,
    "\u3053\u306e": 103,
    "\u2581\u3053\u308c": 104,
    "\u308d": 105,
    "\u2581\u307e\u3060": 106,
    "\u2581\u4f55\u304b": 107,
    "\u3044\u305f": 108,
    "\u2581\u3061\u3087\u3063\u3068": 109,
    "\u3053\u3068": 110,
    "\u25811": 111,
    "\u306e\u3067\u3059": 112,
    ")": 113,
    "\u25812": 114,
    "\u2581\u3057\u304b\u3057": 115,
    "\u5e74": 116,
    "\u6642": 117,
    "\u3067\u3057\u3087\u3046": 118,
    "3": 119,
    "\u2581\u3042\u306a\u305f\u306f": 120,
    "\u304c\u3042\u308b": 121,
    "\u3067\u3057\u305f": 122,
    "\u3057\u307e\u3057\u305f": 123,
    "\u300c": 124,
    "\u2581\u305d\u308c\u3067": 125,
    "\u3060\u3051": 126,
    "\u3068\u3057\u3066": 127,
    "\u300b": 128,
    "\u3093\u3067\u3059": 129,
    "\u304f": 130,
    "\u2581\u306a\u305c": 131,
    "\u3078": 132,
    "\u2581\u304a\u524d": 133,
    "\u2581\u3042\u3063": 134,
    "\u3060\u308d\u3046": 135,
    "\u2581\u307e\u305f": 136,
    "\u3057\u3066\u308b": 137,
    "\u3088\u308a": 138,
    "\u3063\u305f": 139,
    "\u2581\u541b\u306f": 140,
    "\u3064": 141,
    "\u3059": 142,
    "\u4e8b": 143,
    "\u3067\u3057\u3087": 144,
    "\u2581\u305d\u308c\u304c": 145,
    "\u3068\u304b": 146,
    "\u3055\u308c\u305f": 147,
    "\u2581\u304a\u3044": 148,
    "\u3063": 149,
    "\u2581\u3046\u3093": 150,
    "\u541b": 151,
    "\u2581\u3042": 152,
    "\u306a\u3093\u3060": 153,
    "\u306b\u3082": 154,
    "\u304a": 155,
    "\u3060\u3068": 156,
    "\u2581\u5f7c\u5973\u306f": 157,
    "\u3053\u3068\u3092": 158,
    "\u3067\u3059\u304b": 159,
    "\u2581\u3042\u306a\u305f": 160,
    "\u2581\u3058\u3083\u3042": 161,
    "\u2581\u3060\u304c": 162,
    "\u3044\u307e\u3059": 163,
    "\u2581\u3044\u3044": 164,
    "\u2581\u305d\u3093\u306a": 165,
    "\u305d\u306e": 166,
    "\u3067\u304d\u308b": 167,
    "\u305d\u3046": 168,
    "\u3068\u306f": 169,
    "n": 170,
    "\u3042\u308b": 171,
    "\u3058\u3083": 172,
    "\u2581\u3042\u306a\u305f\u306e": 173,
    "\u3057\u3066\u3044\u308b": 174,
    "\u306b\u3064\u3044\u3066": 175,
    "\u4e00": 176,
    "\u2581\u307f\u3093\u306a": 177,
    "\u2581\u3048\u3048": 178,
    "\u3082\u306e": 179,
    "\u30c3": 180,
    "\u3088\u3046\u306b": 181,
    "\u30c8": 182,
    ":": 183,
    "\u306b\u306a\u308b": 184,
    "\u306a\u304b\u3063\u305f": 185,
    "\u304d": 186,
    "\u2581\u305d\u308c": 187,
    "\u3093\u3060\u3088": 188,
    "]": 189,
    "\u2581\u672c\u5f53\u306b": 190,
    "\u65e5": 191,
    "\u2581[": 192,
    "\u2581\u3069\u3046\u3057\u3066": 193,
    "\u3088\u3046": 194,
    "\u304b\u306a": 195,
    "\u3060\u306a": 196,
    "\u2581\u3082\u3057": 197,
    "\u5b50": 198,
    "\u2581(": 199,
    "\u2581\u3042\u308a\u304c\u3068\u3046": 200,
    "\u3044\u3044": 201,
    "\u3060\u3063\u3066": 202,
    "\u2581\u4ffa": 203,
    "\u2581\u3042\u306a\u305f\u304c": 204,
    "\u5206": 205,
    "\u2581\u3053\u308c\u304c": 206,
    "\u4e2d": 207,
    "\u4f55": 208,
    "\u30c9": 209,
    "\u3081": 210,
    "\u2581\u541b\u306e": 211,
    "\u8005": 212,
    "\u25813": 213,
    "\u7269": 214,
    "\u30af": 215,
    "\u2581\u50d5\u306f": 216,
    "\u30e9": 217,
    "\u306e\u3088": 218,
    "\u3060\u304b\u3089": 219,
    "\u2581\u304a\u524d\u306f": 220,
    "\u304f\u3060\u3055\u3044": 221,
    "\u3061\u3083\u3093": 222,
    "\u2581\u3048\u3063": 223,
    "4": 224,
    "\u2581\u5f7c\u306e": 225,
    "\u3057\u3066\u3044\u307e\u3059": 226,
    "\u30ba": 227,
    "\u3093\u3067\u3059\u304b": 228,
    "\u3053\u3068\u306f": 229,
    "5": 230,
    "\u2581\u4ffa\u306e": 231,
    "\u3044\u3066": 232,
    "\u3067\u3059\u306d": 233,
    "\u2581\u3053\u3093\u306a": 234,
    "\u3070": 235,
    "\u307f": 236,
    "\u2581\u3082\u3063\u3068": 237,
    "\u898b": 238,
    "\u306e\u305f\u3081\u306b": 239,
    "\u2581\u5f7c\u3089\u306f": 240,
    "\u306a\u306e": 241,
    "\u2581\u4ffa\u304c": 242,
    "\u305c": 243,
    "\u8a71": 244,
    "\u30ea\u30fc": 245,
    "\u2581\u3069\u3046": 246,
    "\u4eba\u306e": 247,
    "\u6642\u9593": 248,
    "\u2581\u3042\u308c": 249,
    "\u30b3": 250,
    "\u79c1\u306f": 251,
    "\u4eca": 252,
    "\u2581\u3055\u3042": 253,
    "\u624b": 254,
    "\u7684\u306a": 255,
    "\u2581\u305f\u3060": 256,
    "\u2581\u3064\u307e\u308a": 257,
    "\u2581\u307e\u3042": 258,
    "\u5927": 259,
    "\u3068\u601d\u3046": 260,
    "\u79c1": 261,
    "\u3088\u306d": 262,
    "\u30bf": 263,
    "\u304c\u3042\u308a\u307e\u3059": 264,
    "\u2581\u3053\u3053\u3067": 265,
    "\u2581\u226a": 266,
    "\u524d\u306b": 267,
    "\u2581\u3069\u3093\u306a": 268,
    "\u30ca": 269,
    "\u304f\u308c": 270,
    "\u306d\u3048": 271,
    "\u4e0a": 272,
    "\u2581\u5f7c\u304c": 273,
    "\u3055\u308c\u308b": 274,
    "\u2581\u541b\u304c": 275,
    "\u30fb\u30fb": 276,
    "\u4eba\u304c": 277,
    "\u2581\u81ea\u5206\u306e": 278,
    "\u2581\u4f55\u3067": 279,
    "\u6708": 280,
    "\u2581\u266a": 281,
    "\u308c\u3070": 282,
    "\u2581\u6211\u3005\u306f": 283,
    "\u3046": 284,
    "\u529b": 285,
    "\u30a2": 286,
    "\u30eb": 287,
    "\u4eba\u306f": 288,
    "\u2581\u305d\u308c\u3092": 289,
    "\u3082\u3046": 290,
    "\u2581\u79c1\u305f\u3061\u306f": 291,
    "\u3057\u306a\u3044": 292,
    "\u306a\u3069": 293,
    "\u672c": 294,
    "\u3078\u306e": 295,
    "\u5bb6": 296,
    "\u306a\u3093\u304b": 297,
    "\u3067\u306f\u306a\u3044": 298,
    "\u79c1\u306e": 299,
    "\u307e\u305b\u3093": 300,
    "\u30ea": 301,
    "\u2581\u3088\u304f": 302,
    "\u2581\u3088\u3057": 303,
    "\u2581\u541b": 304,
    "\u3053": 305,
    "\u3068\u304d": 306,
    "\u306e\u3053\u3068": 307,
    "\u3057\u308d": 308,
    "\u2581\u3044\u3064\u3082": 309,
    "\u56de": 310,
    "10": 311,
    "\u305f\u3081\u306b": 312,
    "\u3067\u3059\u3088": 313,
    "\u826f\u3044": 314,
    "\u308f\u306d": 315,
    "\u6027": 316,
    "\u2581\u3042\u308b": 317,
    "\u3042": 318,
    "\u2581\u3068\u3066\u3082": 319,
    "\u2581\u3053\u3053": 320,
    "\u3048": 321,
    "\u6240": 322,
    "\u4f55\u304b": 323,
    "\u304b\u3082\u3057\u308c\u306a\u3044": 324,
    "\u2581\u5f7c": 325,
    "\u7537": 326,
    "\u2581\u306a\u3093\u3067": 327,
    "\u2581\u5927\u4e08\u592b": 328,
    "\u305f\u3044": 329,
    ",": 330,
    "\u30de": 331,
    "\u2581\u79c1\u3082": 332,
    "\u2581\u3048": 333,
    "\u8003\u3048": 334,
    "\u2581\u4ed6\u306e": 335,
    "\u3067\u3042\u308b": 336,
    "\u2581\u304a\u524d\u306e": 337,
    "\u307b\u3069": 338,
    "\u307e": 339,
    "\u2581\u5f7c\u5973": 340,
    "\u30ab": 341,
    "\u306e\u3088\u3046\u306b": 342,
    "\u2581\u4f55\u3082": 343,
    "\u305a": 344,
    "\u305f\u3089": 345,
    "\u2581\u3082\u3061\u308d\u3093": 346,
    "\u2581\u305d\u308c\u306b": 347,
    "\u3088\u3046\u306a": 348,
    "\u3044\u307e\u3057\u305f": 349,
    "\u3053\u3068\u304c": 350,
    "~!": 351,
    "\u2581\u307b\u3089": 352,
    "\u5f8c": 353,
    "\u2581\u3053\u3053\u306b": 354,
    "\u4f1a": 355,
    "\u2581\u65e9\u304f": 356,
    "\u65b9": 357,
    "\u4e8b\u3092": 358,
    "6": 359,
    "\u30f3": 360,
    "\u51fa": 361,
    "\u2581\u3042\u3093\u305f": 362,
    "\u306b\u306a\u3063\u305f": 363,
    "\u5148\u751f": 364,
    "\u4e0b": 365,
    "\u2581\u4eca\u65e5\u306f": 366,
    "\u3044\u306a\u3044": 367,
    "\u2581\u4e00\u7dd2\u306b": 368,
    "\u4e07": 369,
    "\u4e0d": 370,
    "\u3057\u304b": 371,
    "\u69d8": 372,
    "\u5973": 373,
    "\u524d": 374,
    "\u30ed": 375,
    "\u3067\u304d\u306a\u3044": 376,
    "\u3055\u305b\u308b": 377,
    "\u30b8": 378,
    "\u2581\u4f55\u3092": 379,
    "(": 380,
    "-": 381,
    "\u3053\u308c": 382,
    "\u3088\u304f": 383,
    "\u6c34": 384,
    "\u2581\u5927": 385,
    "\u2581\u4eca\u65e5": 386,
    "\u79c1\u304c": 387,
    "\u6c17": 388,
    "\u3084\u308b": 389,
    "\u304b\u3082": 390,
    "\u3064\u306e": 391,
    "\u305d\u308c": 392,
    "\u30ad": 393,
    "\u308f\u3088": 394,
    "\u30de\u30f3": 395,
    "\u3060\u3051\u3060": 396,
    "\u30e0": 397,
    "\u4e86": 398,
    "\u91d1": 399,
    "\u304d\u305f": 400,
    "\u2581\u4eca\u306f": 401,
    "\u2581\u305d\u3046\u3060": 402,
    "\u3066\u3044\u308b": 403,
    "\u2581\u305d\u3053\u3067": 404,
    "\u2581\u65b0\u3057\u3044": 405,
    "\u306b\u3088\u3063\u3066": 406,
    "\u2581\u3067\u306f": 407,
    "\u30aa": 408,
    "\u2581\u540c\u3058": 409,
    "\u3067\u3059\u304c": 410,
    "\u2581\u3053\u308c\u3067": 411,
    "\u3066\u308b": 412,
    "\u2581\u305a\u3063\u3068": 413,
    "\u305b": 414,
    "\u306b\u306a\u3063\u3066": 415,
    "\u307e\u305f": 416,
    "\u5fc3": 417,
    "\u3093\u3067": 418,
    "\u30c0": 419,
    "\u306a\u3055\u3044": 420,
    "\u70b9": 421,
    "\u540d": 422,
    "\u6765": 423,
    "\u2581\u306d\u3048": 424,
    "\u2581\u304a\u524d\u304c": 425,
    "\u2581\u8ab0\u304b": 426,
    "\u308c": 427,
    "\u3060\u305e": 428,
    "\u25815": 429,
    "\u30c7\u30a3": 430,
    "\u9053": 431,
    "\u2581\u9055\u3046": 432,
    "\u306b\u3042\u308b": 433,
    "\u2581\u8ab0\u3082": 434,
    "\u3053\u3068\u3067\u3059": 435,
    "\u30a4": 436,
    "\u2581\u3042\u3041": 437,
    "\u3069\u3046": 438,
    "\u4eba\u9593": 439,
    "\u2581\u3053\u3053\u306f": 440,
    "8": 441,
    "\u307e\u3060": 442,
    "\u306a\u304f": 443,
    "\u2581\u50d5": 444,
    "\u3057\u3066\u305f": 445,
    "\u304c\u3042\u3063\u305f": 446,
    "\u3055\u308c": 447,
    "\u4ed5\u4e8b": 448,
    "\u2581\u3044\u3044\u3048": 449,
    "\u258110": 450,
    "\u2581\u5c11\u3057": 451,
    "\u305d\u3046\u3060": 452,
    "\u30d0": 453,
    "\u5c71": 454,
    "\u5730": 455,
    "\u3051": 456,
    "\u7528": 457,
    "\u3057\u305f\u3044": 458,
    "\u3057\u305f\u3089": 459,
    "\u306f\u306a\u3044": 460,
    "\u304b\u3044": 461,
    "\u307f\u305f\u3044": 462,
    "\u3089\u308c\u308b": 463,
    "\u304b\u3089\u3067\u3059": 464,
    "\u5834\u6240": 465,
    "\u751f": 466,
    "\u4e8b\u306f": 467,
    "\u2581\u8ab0\u304c": 468,
    "\u2581\u50d5\u306e": 469,
    "\u30c1": 470,
    "\u77e5\u3063\u3066\u308b": 471,
    "\u2581\u4f55\u3060": 472,
    "\u2581\u305d\u308c\u304b\u3089": 473,
    "\u8a00\u3063\u305f": 474,
    "\u307e\u3057\u3087\u3046": 475,
    "\u5ea6": 476,
    "\u3089\u308c\u305f": 477,
    "\u3068\u601d\u3044\u307e\u3059": 478,
    "\u30b7": 479,
    "\u30ac": 480,
    "\u2581\u306a\u306b": 481,
    "\u30cb": 482,
    "\u2581\u4f55\u304c": 483,
    "\u2581\u3069\u3046\u3084\u3063\u3066": 484,
    "\u3080": 485,
    "\u6642\u306b": 486,
    "\u4f53": 487,
    "\u2581\u5168\u90e8": 488,
    "\u2581\u30de\u30de": 489,
    "\u2581\u3054": 490,
    "\u554f\u984c": 491,
    "\u2581\u30d1\u30d1": 492,
    "\u30ce": 493,
    "\u76ee": 494,
    "\u3057\u3066\u3044\u305f": 495,
    "\u306e\u3088\u3046\u306a": 496,
    "\u2581\u304d\u3063\u3068": 497,
    "\u306a\u3093\u3067\u3059": 498,
    "\u30b0": 499,
    "\u8a00\u3046": 500,
    "\u3054": 501,
    "\u795e": 502,
    "\u3082\u306e\u3067\u3059": 503,
    "\u3057\u3088\u3046": 504,
    "\u2581\u3059\u3050\u306b": 505,
    "\u30b5": 506,
    "\u304f\u3089\u3044": 507,
    "\u3093\u3060\u308d": 508,
    "\u2581\u3055\u3066": 509,
    "\u884c\u304f": 510,
    "\u2581\u79c1\u306b": 511,
    "\u3059\u308c\u3070": 512,
    "\u306a\u306e\u304b": 513,
    "\u30ec": 514,
    "\u53e3": 515,
    "\u2581\u4e00": 516,
    "\u3053\u3068\u306b": 517,
    "\u3088\u308a\u3082": 518,
    "\u2581\u4ed5\u4e8b": 519,
    "\u2581\u5f7c\u5973\u306e": 520,
    "\u3068\u3053\u308d": 521,
    "\u306a\u306e\u3067\u3059": 522,
    "\u30df": 523,
    "\u30c9\u30eb": 524,
    "\u2581\u50d5\u304c": 525,
    "\u3084\u3063\u305f": 526,
    "\u305d\u308c\u3092": 527,
    "\u5916": 528,
    "\u4e0b\u3055\u3044": 529,
    "\u6b73": 530,
    "\u3093\u3060\u3051\u3069": 531,
    "\u3089\u3057\u3044": 532,
    "\u25814": 533,
    "\u3067\u306f\u306a\u304f": 534,
    "\u30d5": 535,
    "\u672c\u5f53\u306b": 536,
    "\u5316": 537,
    "\u611b": 538,
    "\u308b\u3093\u3060": 539,
    "\u30c6\u30a3": 540,
    "\u3060\u308f": 541,
    "\u884c": 542,
    "\u2581\u3053\u308c\u3092": 543,
    "\u2581\u5f7c\u5973\u304c": 544,
    "\u7740": 545,
    "\u65b0\u3057\u3044": 546,
    "\u9577": 547,
    "\u3053\u3053\u306b": 548,
    "\u5cf6": 549,
    "\u304b\u3057\u3089": 550,
    "\u305f\u3081": 551,
    "7": 552,
    "\u300f": 553,
    "\u4e16\u754c": 554,
    "\u306e\u4e2d\u3067": 555,
    "\u3067\u306f\u3042\u308a\u307e\u305b\u3093": 556,
    "\u2581\u3061\u3083\u3093\u3068": 557,
    "\u2581\u5206\u304b\u3063\u305f": 558,
    "\u9854": 559,
    "\u898b\u3066": 560,
    "\u2581\u5b9f\u306f": 561,
    "\u4f55\u3092": 562,
    "\u2581\u30a2": 563,
    "20": 564,
    "\u3042\u306a\u305f": 565,
    "\u60aa\u3044": 566,
    "\u3068\u4e00\u7dd2\u306b": 567,
    "\u5148": 568,
    "\u901a\u308a": 569,
    "\u3060\u3051\u3069": 570,
    "\u2581\u7686": 571,
    "\u30cd": 572,
    "\u2581\u3084\u3063\u3071\u308a": 573,
    "\u2581\u308f\u304b\u3063\u305f": 574,
    "\u304f\u308b": 575,
    "\u3067\u3057\u3087\u3046\u304b": 576,
    "\u201d": 577,
    "\u2581\u307e\u3055\u304b": 578,
    "\u2581\u5f85\u3063\u3066": 579,
    "\u304c\u306a\u3044": 580,
    "\u3059\u308b\u3068": 581,
    "\u2581\u304a\u9858\u3044": 582,
    "\u2581\u6211": 583,
    "\u95a2\u4fc2": 584,
    "\u3092\u898b\u3066": 585,
    "\u81ea\u5206\u306e": 586,
    "\u306d\u3047": 587,
    "\u30d6": 588,
    "\u2581\u305d\u3046\u304b": 589,
    "\u2581\u3059\u3054\u3044": 590,
    "\u3058\u3083\u306a\u3044\u304b": 591,
    "\u5bb6\u65cf": 592,
    "\u2581\u3059\u307f\u307e\u305b\u3093": 593,
    "\u3057\u3066\u304f\u308c": 594,
    "\u3060\u306d": 595,
    "\u9055\u3046": 596,
    "\u6b32\u3057\u3044": 597,
    "\u5e74\u9593": 598,
    "\u30a8": 599,
    "\u2581\u3069\u3046\u3057\u305f": 600,
    "\u53d6\u308a": 601,
    "\u3042\u306a\u305f\u306e": 602,
    "\u2581\u3042\u308c\u306f": 603,
    "\u3044\u304f": 604,
    "\u77e5\u3089\u306a\u3044": 605,
    "\u3055\u305b\u3066": 606,
    "\u2581\u78ba\u304b\u306b": 607,
    "\u540c\u3058": 608,
    "\u306b\u884c\u304f": 609,
    "\u5834": 610,
    "\u30a6": 611,
    "\u3042\u3063\u305f": 612,
    "\u2581<": 613,
    "\u5927\u304d\u306a": 614,
    "\u2581\u3069\u3046\u305e": 615,
    "\u30d0\u30fc": 616,
    "\u6b7b\u306c": 617,
    "\u3068\u540c\u3058": 618,
    "\u756a": 619,
    "\u97f3": 620,
    "\u7530": 621,
    "\u5168\u3066": 622,
    "\u30c4": 623,
    ">": 624,
    "\u3061": 625,
    "\u2581\u3044\u3048": 626,
    "\u306b\u3044\u308b": 627,
    "\u307f\u305f\u3044\u306a": 628,
    "\u306b\u3068\u3063\u3066": 629,
    "\u4e00\u7dd2\u306b": 630,
    "\u6728": 631,
    "\u6765\u305f": 632,
    "\u5206\u304b\u308b": 633,
    "\u3068\u8a00\u3063\u305f": 634,
    "\u30d7": 635,
    "\u2581\u3042\u3068": 636,
    "\u7684\u306b": 637,
    "\u4eba\u306b": 638,
    "\u2581\u2212": 639,
    "\u662f": 640,
    "\u306f\u305a\u3060": 641,
    "\u307f\u3093\u306a": 642,
    "\u3042\u306e": 643,
    "\u306f\u305a": 644,
    "\u3068\u3082": 645,
    "\u3066\u3044\u307e\u3059": 646,
    "\u2581\u3053\u308c\u304b\u3089": 647,
    "\u3068\u3044\u3046\u3053\u3068\u3067\u3059": 648,
    "\u30bf\u30fc": 649,
    "\u2581\u3054\u3081\u3093\u306a\u3055\u3044": 650,
    "\u2581\u6211\u3005\u306e": 651,
    "\u2581\u826f\u3044": 652,
    "\u90e8": 653,
    "\u6d77": 654,
    "\u2581\u3008": 655,
    "\u6765\u308b": 656,
    "\u306a\u3044\u3068": 657,
    "\u30ea\u30f3": 658,
    "\u3060\u3051\u3067": 659,
    "\u304b\u3063\u305f": 660,
    "\u898b\u305f": 661,
    "\u2581\u3042\u3044\u3064": 662,
    "\u2581\u305d\u3046\u3044\u3046": 663,
    "\u79c1\u306b": 664,
    "\u4ffa": 665,
    "\u307f\u305f\u3044\u306b": 666,
    "\u30e9\u30fc": 667,
    "\u5f62": 668,
    "\u8eca": 669,
    "9": 670,
    "\u8a08\u753b": 671,
    "\u2581\u3054\u3081\u3093": 672,
    "\u306a\u304d\u3083": 673,
    "\u7814\u7a76": 674,
    "\u2581\u307e\u305a": 675,
    "\u5974": 676,
    "\u3009": 677,
    "\u30d3\u30fc": 678,
    "\u30c6": 679,
    "\u6570": 680,
    "\u3061\u3087\u3063\u3068": 681,
    "\u541b\u306e": 682,
    "\u3058": 683,
    "\u308f\u3051": 684,
    "\u304a\u524d": 685,
    "\u306b\u306a\u308a\u307e\u3059": 686,
    "\u306a\u304c\u3089": 687,
    "\u8a00\u3063\u3066": 688,
    "\u304c\u3044\u308b": 689,
    "\u3042\u308a\u307e\u3059": 690,
    "\u53cb\u9054": 691,
    "\u2581\u3058\u3083": 692,
    "\u30c7": 693,
    "\u611f\u3058": 694,
    "\u7121\u3044": 695,
    "\u305d\u3046\u3067\u3059": 696,
    "\u6b7b": 697,
    "s": 698,
    "\u2581\u5bb6\u65cf": 699,
    "\u9ad8": 700,
    "\u2581\u79c1\u3092": 701,
    "\u5f7c\u306f": 702,
    "\u5f7c\u306e": 703,
    "\u8ab0\u304b": 704,
    "\u4eba\u3067": 705,
    "\u9762": 706,
    "\u2581\u305f\u3076\u3093": 707,
    "\u2581\u30b8\u30e7\u30f3": 708,
    "\u2581\u3068\u306b\u304b\u304f": 709,
    "\u2581\u8ab0": 710,
    "\u2581\u898b": 711,
    "\u56fd": 712,
    "\u3053\u3053\u3067": 713,
    "\u5c11\u3057": 714,
    "\u3084\u3063\u3066": 715,
    "\u3092\u4f7f\u3063\u3066": 716,
    "\u3069": 717,
    "\u305a\u3063\u3068": 718,
    "\u4e2d\u306b": 719,
    "\u72b6\u6cc1": 720,
    "\u767a": 721,
    "\u7dda": 722,
    "\u3093\u3058\u3083\u306a\u3044": 723,
    "t": 724,
    "\u30dc": 725,
    "\u2581\u898b\u3066": 726,
    "\u6a5f": 727,
    "\u3093\u3060\u308d\u3046": 728,
    "\u3082\u3063\u3068": 729,
    "\u3063\u3066\u308b": 730,
    "\u3053\u3046": 731,
    "\u308f\u304b\u308b": 732,
    "\u982d": 733,
    "\u7406\u7531": 734,
    "\u2581\u3069\u3046\u3082": 735,
    "\u30d3": 736,
    "\u8eab": 737,
    "\u30b9\u30bf\u30fc": 738,
    "\u6709": 739,
    "\u2581\u5f7c\u3092": 740,
    "\u5c4b": 741,
    "\u306a\u3041": 742,
    "\u2581\u304a\u7236\u3055\u3093": 743,
    "\u30e4": 744,
    "\u6cd5": 745,
    "\u884c\u52d5": 746,
    "\u661f": 747,
    "\u9593": 748,
    "\u4ee5\u4e0a": 749,
    "\u306e\u4e2d\u306b": 750,
    "\u2581\u3046": 751,
    "\u30cb\u30fc": 752,
    "\u51fa\u6765\u308b": 753,
    "\u7d20\u6674\u3089\u3057\u3044": 754,
    "\u884c\u3063\u3066": 755,
    "\u65b9\u304c": 756,
    "\u60c5\u5831": 757,
    "\u5fc5\u8981": 758,
    "\u51fa\u3059": 759,
    "\u5e74\u524d": 760,
    "\u5922": 761,
    "\u8db3": 762,
    "\u2581\u91d1": 763,
    "\u306a\u304f\u3066": 764,
    "\u3092\u6bba\u3057\u305f": 765,
    "\u66f8": 766,
    "\u258120": 767,
    "\u2581\u3059\u3044\u307e\u305b\u3093": 768,
    "\u2581\u5148\u751f": 769,
    "\u3067\u304d\u305f": 770,
    "\u306a\u3051\u308c\u3070": 771,
    "\u3067\u3042\u308a": 772,
    "\u7a7a": 773,
    "\u2581\u3044\u3044\u304b": 774,
    "\u3053\u308c\u306f": 775,
    "\u4ee3": 776,
    "\u6765\u3066": 777,
    "\u601d\u3044": 778,
    "\u2581\u5168\u3066": 779,
    "\u3063\u3068": 780,
    "m": 781,
    "\u6226": 782,
    "\u2581\u3088\u304b\u3063\u305f": 783,
    "\u2581\u79c1\u305f\u3061": 784,
    "\u2581\u6c34": 785,
    "\u3069\u3093\u306a": 786,
    "\u3068\u3066\u3082": 787,
    "\u2581\u81ea\u5206": 788,
    "\u3055\u308c\u3066\u3044\u308b": 789,
    "\u5185": 790,
    "\u305d\u308c\u306f": 791,
    "\u3055\u308c\u3066": 792,
    "\u30c8\u30f3": 793,
    "\u3093\u3058\u3083": 794,
    "\u5f7c": 795,
    "\u5c0f": 796,
    "\u2581\u4f8b\u3048\u3070": 797,
    "\u25816": 798,
    "\u308d\u3046": 799,
    "\u3082\u306a\u3044": 800,
    "e": 801,
    "\u306b\u3088\u308b": 802,
    "\u5168\u90e8": 803,
    "\u30b7\u30fc": 804,
    "\u3067\u304d\u307e\u3059": 805,
    "\u3092\u898b": 806,
    "\u2581\u6b21\u306e": 807,
    "\u2581\u79c1\u305f\u3061\u306e": 808,
    "\u30bd\u30f3": 809,
    "\u30b1": 810,
    "\u30ab\u30fc\u30c9": 811,
    "\u96fb\u8a71": 812,
    "\u2581\u3059\u3079\u3066": 813,
    "\u6211": 814,
    "\u3050\u3089\u3044": 815,
    "\u2581\u624b": 816,
    "\u2581\u3059\u3050": 817,
    "\u2581\u305d\u3093\u306a\u3053\u3068": 818,
    "\u2581\u3042\u306a\u305f\u306b": 819,
    "\u5f7c\u5973": 820,
    "\u306b\u3057\u3066": 821,
    "\u3084\u3064": 822,
    "\u306b\u5bfe\u3057\u3066": 823,
    "\u4ed6\u306e": 824,
    "\u521d\u3081\u3066": 825,
    "\u2581\u3042\u3089": 826,
    "\u591c": 827,
    "\u653b\u6483": 828,
    "\u2581\u3060\u3063\u3066": 829,
    "\u306e\u3053\u3068\u3092": 830,
    "\u2581\u96fb\u8a71": 831,
    "\u3088\u304b\u3063\u305f": 832,
    "\u306a\u3093\u3060\u3088": 833,
    "\u65e9\u304f": 834,
    "\u541b\u306f": 835,
    "\u6d41": 836,
    "\u304b\u3082\u3057\u308c\u307e\u305b\u3093": 837,
    "\u308b\u3068": 838,
    "\u98a8": 839,
    "\u2581\u8ab0\u304b\u304c": 840,
    "\u3067\u3059\u3088\u306d": 841,
    "\u3093\u3067\u3059\u3088": 842,
    "\u3053\u305d": 843,
    "\u2581\u30d0\u30ab": 844,
    "\u2581\u305d": 845,
    "\u2581\u4eca\u307e\u3067": 846,
    "\u82b1": 847,
    "\u2581\u300e": 848,
    "\u5165": 849,
    "\u306e\u8a71": 850,
    "\u4f55\u3082": 851,
    "\u6280\u8853": 852,
    "\u8272": 853,
    "\u2581\u660e\u65e5": 854,
    "\u30b4": 855,
    "~\u3002": 856,
    "\u3042\u308a": 857,
    "\u2581\u3044\u3064": 858,
    "\u5b58\u5728": 859,
    "\u2581\u30de": 860,
    "\u5fc3\u914d": 861,
    "\u3055\u3093\u306f": 862,
    "\u4ffa\u306e": 863,
    "30": 864,
    "\u4e8b\u304c": 865,
    "\u3057\u307e\u3057\u3087\u3046": 866,
    "\u2581\u7d20\u6674\u3089\u3057\u3044": 867,
    "\u3093\u3067\u3057\u3087": 868,
    "\u6751": 869,
    "\u306e\u70ba\u306b": 870,
    "\u306a\u308b": 871,
    "\u308b\u306e": 872,
    "\u2581\u305f\u3060\u306e": 873,
    "\u54c1": 874,
    "\u2581\u4ffa\u3082": 875,
    "\u5149": 876,
    "\u3055\u305b\u305f": 877,
    "\u30e1": 878,
    "\u805e\u3044\u3066": 879,
    "\u751f\u6d3b": 880,
    "\u2581\u7686\u3055\u3093": 881,
    "\u2581\u4eca\u306e": 882,
    "\u2581\u53cb\u9054": 883,
    "\u5ddd": 884,
    "\u539f": 885,
    "\u6d3b\u52d5": 886,
    "\u8ab0": 887,
    "\u4e3b": 888,
    "\u306e\u4e8b": 889,
    "\u305f\u3093\u3060": 890,
    "\u3068\u601d\u3063\u305f": 891,
    "\u3041": 892,
    "\u306e\u306d": 893,
    "\u3063\u3066\u3053\u3068": 894,
    "\u8239": 895,
    "\u2581\u305d\u3053\u306b": 896,
    "\u2581\u3055\u3089\u306b": 897,
    "\u2581\u3069\u3053": 898,
    "\u2581\u5f85\u3066": 899,
    "\u3005": 900,
    "\u3055\u308c\u307e\u3057\u305f": 901,
    "\u77e5\u3063\u3066\u3044\u308b": 902,
    "\u5b50\u4f9b": 903,
    "\u304f\u3093": 904,
    "\u3058\u3083\u3093": 905,
    "\u4e00\u4eba": 906,
    "\u7b11": 907,
    "\u98df": 908,
    "\u3082\u306e\u3092": 909,
    "\u2581\u304a\u524d\u3089": 910,
    "\u306c": 911,
    "\u3057\u305f\u306e": 912,
    "\u2581\u5225\u306e": 913,
    "\u305d\u3093\u306a": 914,
    "\u2581\u306a\u3093\u3060": 915,
    "\u30b7\u30b9\u30c6\u30e0": 916,
    "...\u300b": 917,
    "\u2581\u3053\u3063\u3061": 918,
    "\u72ac": 919,
    "\u5973\u6027": 920,
    "\u2581\u81ea\u5206\u3067": 921,
    "\u2581\u79c1\u306b\u306f": 922,
    "\u3070\u304b\u308a": 923,
    "\u306a\u305c": 924,
    "\u3055\u3048": 925,
    "\u9054": 926,
    "\u5728": 927,
    "\u304c\u5fc5\u8981\u3060": 928,
    "\u306a\u3044\u308f": 929,
    "\u30b2\u30fc\u30e0": 930,
    "\u2581\u6211\u3005\u304c": 931,
    "\u304b\u3089\u306d": 932,
    "\u30e2": 933,
    "\u2581\u79c1\u9054\u306f": 934,
    "\u30b9\u30c8": 935,
    "\u305f\u304f\u306a\u3044": 936,
    "\u65b9\u6cd5": 937,
    "\u2581\u3053\u3046": 938,
    "\u3053\u3093\u306a": 939,
    "\u635c\u67fb\u5b98": 940,
    "\u2581\u541b\u306b": 941,
    "\u5834\u5408": 942,
    "\u2581\u3084\u3081\u308d": 943,
    "\u611f": 944,
    "d": 945,
    "\u3042\u306a\u305f\u306f": 946,
    "\u3055\u3093\u304c": 947,
    "\u884c\u3063\u305f": 948,
    "\u307b\u3057\u3044": 949,
    "\u30ef": 950,
    "\u7f8e": 951,
    "\u306a\u3063\u3066": 952,
    "\u3082\u3093": 953,
    "\u3044\u307e\u305b\u3093": 954,
    "\u4eba\u3092": 955,
    "\u3059\u3079\u3066": 956,
    "\u30b6": 957,
    "\u2581\u79c1\u305f\u3061\u304c": 958,
    "\u3092\u898b\u3064\u3051\u305f": 959,
    "\u304e": 960,
    "\u8981": 961,
    "\u3057\u3066\u304f\u3060\u3055\u3044": 962,
    "\u306a\u308a": 963,
    "\u3092\u6301\u3063\u3066": 964,
    "\u3057\u304b\u306a\u3044": 965,
    "\u5ba4": 966,
    "\u3082\u3089\u3046": 967,
    "\u3057\u3066\u306a\u3044": 968,
    "\u80fd\u529b": 969,
    "\u2581\u3042\u3093\u306a": 970,
    "\u5206\u304b\u3063\u305f": 971,
    "\u4e8c": 972,
    "\u3053\u3068\u3060": 973,
    "\u2581\u3069\u3046\u3057\u305f\u306e": 974,
    "\u3064\u3082\u308a": 975,
    "\u3088\u3046\u3060": 976,
    "\u5f97": 977,
    "\u5b66": 978,
    "\u2581\u3053\u3061\u3089": 979,
    "\u3060\u3057": 980,
    "\u3050": 981,
    "\u91ce": 982,
    "\u5e74\u306b": 983,
    "\u554a": 984,
    "\u304f\u308c\u308b": 985,
    "?\u300d": 986,
    "\u79c1\u3092": 987,
    "\u7d30\u80de": 988,
    "\u2581\u5f7c\u306b": 989,
    "\u2581\u7279\u306b": 990,
    "\u2581\u5c0f": 991,
    "\u2581\u307e\u308b\u3067": 992,
    "\u901a": 993,
    "\u3068\u3053": 994,
    "\u3060\u3068\u601d\u3046": 995,
    "\u30cf": 996,
    "\u306b\u5bfe\u3059\u308b": 997,
    "\u6b7b\u3093\u3060": 998,
    "\u2581\u5b50\u4f9b": 999,
    "\u2581\u304a\u6bcd\u3055\u3093": 1000,
    "\u2581\u7d76\u5bfe": 1001,
    "\u2581\u5f7c\u3089\u306e": 1002,
    "\u3057\u306a\u3044\u3068": 1003,
    "\u3082\u3042\u308b": 1004,
    "\u66f2": 1005,
    "\u5211\u4e8b": 1006,
    "\u3057\u3066\u304d\u305f": 1007,
    "\u548c": 1008,
    "\u7686": 1009,
    "\u304c\u3042\u3063\u3066": 1010,
    "\u591a\u304f\u306e": 1011,
    "\u8a9e": 1012,
    "\u2581\u4e00\u4f53": 1013,
    "\u308c\u308b": 1014,
    "\u670d": 1015,
    "\u3060\u3063\u305f\u3089": 1016,
    "\u306e\u305f\u3081": 1017,
    "\u535a\u58eb": 1018,
    "\u30bd": 1019,
    "\u3053\u3068\u3067": 1020,
    "\u4f60": 1021,
    "\u2581\u306a\u305c\u306a\u3089": 1022,
    "\u2581\u305d\u3093\u306a\u306b": 1023,
    "\u5206\u304b\u3089\u306a\u3044": 1024,
    "\u540d\u524d": 1025,
    "\u50b7": 1026,
    "\u2581\u305d\u308c\u3068\u3082": 1027,
    "\u2581\u3084\u3081\u3066": 1028,
    "a": 1029,
    "\u85ac": 1030,
    "\u5f37\u3044": 1031,
    "\u8005\u306f": 1032,
    "\u3055\u308c\u3066\u308b": 1033,
    "\u77f3": 1034,
    "\u3068\u3057\u3066\u3082": 1035,
    "\u305f\u3061": 1036,
    "c": 1037,
    "\u9aa8": 1038,
    "\u3053\u3068\u3082": 1039,
    "\u3044\u3064\u3082": 1040,
    "\u53cb\u4eba": 1041,
    "\u3093\u3060\u304b\u3089": 1042,
    "\u304b\u3089\u306a": 1043,
    "\u72b6\u614b": 1044,
    "\u3055\u305b": 1045,
    "\u2581\u6700\u8fd1": 1046,
    "\u30d1": 1047,
    "\u8a71\u3057\u305f": 1048,
    "\u30b8\u30e7\u30f3": 1049,
    "\u2581\u4eba\u9593": 1050,
    "\u30e9\u30f3": 1051,
    "\u2015\u2015": 1052,
    "\u547d": 1053,
    "\u2581\u8b66\u5bdf": 1054,
    "\u738b": 1055,
    "\u304b\u3069\u3046\u304b": 1056,
    "\u5f7c\u3092": 1057,
    "\u2581\u304a\u304a": 1058,
    "\u2581\u3082\u3046\u4e00\u5ea6": 1059,
    "\u60c5\u5831\u3092": 1060,
    "\u2581\u6628\u65e5": 1061,
    "\u88c5\u7f6e": 1062,
    "\u3057\u305f\u3093\u3060": 1063,
    "\u7236": 1064,
    "\u2581\u7b2c": 1065,
    "\u3057\u306a\u304b\u3063\u305f": 1066,
    "\u4e5f": 1067,
    "\u3042\u308a\u307e\u305b\u3093": 1068,
    "\u3042\u306a\u305f\u304c": 1069,
    "\u2581\u3042\u308a\u304c\u3068\u3046\u3054\u3056\u3044\u307e\u3059": 1070,
    "\u3092\u6301\u3064": 1071,
    "\u4ffa\u306f": 1072,
    "\u2581\u81ea\u5206\u304c": 1073,
    "\u306b\u884c\u3063\u3066": 1074,
    "\u3053\u308c\u3092": 1075,
    "\u306f\u4f55": 1076,
    "\u3092\u898b\u305f": 1077,
    "\u2581\u3046\u3061\u306e": 1078,
    "\u8abf\u67fb": 1079,
    "\u3068\u601d\u3063\u3066": 1080,
    "\u3092\u3059\u308b": 1081,
    "\u805e\u3044\u305f": 1082,
    "\u2581\u30aa": 1083,
    "\u306b\u306a\u308a": 1084,
    "\u3064\u304f": 1085,
    "\u76f8\u624b": 1086,
    "\u2581\u30b8\u30e3\u30c3\u30af": 1087,
    "\u2581\u5f7c\u3089\u304c": 1088,
    "\u91cf": 1089,
    "\u30ed\u30fc": 1090,
    "\u7121": 1091,
    "\u5f79": 1092,
    "\u6b21": 1093,
    "\u4ed8\u3051": 1094,
    "\u2581\u3042\u30c3": 1095,
    "\u304f\u308c\u305f": 1096,
    "\u3063\u3066\u3044\u308b": 1097,
    "\u2581\u30fc": 1098,
    "\u5c0f\u3055\u306a": 1099,
    "\u8a71\u3059": 1100,
    "\u3059\u308b\u306e\u306f": 1101,
    "\u3057\u3066\u304f\u308c\u308b": 1102,
    "y": 1103,
    "\u793e\u4f1a": 1104,
    "\u4f1a\u793e": 1105,
    "\u5199\u771f": 1106,
    "\u6bcd": 1107,
    "\u6226\u4e89": 1108,
    "\u7a2e": 1109,
    "\u3064\u3051": 1110,
    "\u541b\u304c": 1111,
    "\u308b\u306e\u306f": 1112,
    "\u5225\u306e": 1113,
    "\u6575": 1114,
    "\u306a\u306e\u306b": 1115,
    "\u2581\u5927\u304d\u306a": 1116,
    "\u4ed5\u4e8b\u3092": 1117,
    "\u3066\u3044\u305f": 1118,
    "\u3058\u3083\u306a\u304f\u3066": 1119,
    "\u592a": 1120,
    "\u6b8b": 1121,
    "\u2581\u5168\u7136": 1122,
    "\u3068\u3044\u3046\u306e\u306f": 1123,
    "\u597d": 1124,
    "\u2581\u3053\u308c\u3089\u306e": 1125,
    "\u6620\u753b": 1126,
    "\u30e9\u30a4": 1127,
    "\u5175": 1128,
    "\u306a\u306e\u3088": 1129,
    "\u7d50\u679c": 1130,
    "\u7d44\u7e54": 1131,
    "\u30ac\u30f3": 1132,
    "\u767a\u898b": 1133,
    "\u4eba\u7269": 1134,
    "\u91cc": 1135,
    "\u2581\u305d\u306e\u5f8c": 1136,
    "\u306e\u3042\u308b": 1137,
    "\u6301\u3063\u3066": 1138,
    "\u2581\u30b9": 1139,
    "\u5f15\u304d": 1140,
    "\u5b66\u6821": 1141,
    "\u2581\u30db\u30f3\u30c8\u306b": 1142,
    "\u2581\u73fe\u5728": 1143,
    "\u2581\u60aa\u3044": 1144,
    "\u884c\u304d": 1145,
    "\u3084\u308c": 1146,
    "\u2581\u4e00\u756a": 1147,
    "\u70ba\u306b": 1148,
    "\u4f4d": 1149,
    "\u2581\u591a\u304f\u306e": 1150,
    "\u30d0\u30ab": 1151,
    "\u2581\u5bb6": 1152,
    "\u4e8b\u4ef6": 1153,
    "\u3089\u306a\u3044": 1154,
    "\u3089\u308c\u306a\u3044": 1155,
    "\u30de\u30fc": 1156,
    "\u25817": 1157,
    "\u8a18\u9332": 1158,
    "\u3082\u306e\u3060": 1159,
    "\u4eca\u65e5": 1160,
    "\u2581\u305d\u308a\u3083": 1161,
    "\u2581\u5225\u306b": 1162,
    "\u606f\u5b50": 1163,
    "50": 1164,
    "\u3055\u3093\u306e": 1165,
    "\u30b0\u30eb\u30fc\u30d7": 1166,
    "\u2581\u304b\u306a\u308a": 1167,
    "\u52d5\u7269": 1168,
    "\u2581\u4ed6\u306b": 1169,
    "A": 1170,
    "\u5dde": 1171,
    "\u8840": 1172,
    "\u76ee\u7684": 1173,
    "\u5b89\u5168": 1174,
    "\u51fa\u3057\u3066": 1175,
    "'": 1176,
    "\u59bb": 1177,
    "\u30ab\u30fc": 1178,
    "\u3059\u308b\u3093\u3060": 1179,
    "\u898b\u308b": 1180,
    "\u53f0": 1181,
    "\u2581\u30a2\u30e1\u30ea\u30ab": 1182,
    "\u592b": 1183,
    "\u90e8\u5c4b": 1184,
    "\u3060\u3051\u3067\u3059": 1185,
    "\u75c5\u6c17": 1186,
    "\u2581\u7236\u3055\u3093": 1187,
    "\u5168\u54e1": 1188,
    "\u2581\u305d\u308c\u3068": 1189,
    "\u5104": 1190,
    "\u2581\u3048\u30c3": 1191,
    "\u304c\u3042\u308a": 1192,
    "\u3055\u308c\u3066\u3044\u307e\u3059": 1193,
    "b": 1194,
    "\u2581\u307e\u3063\u305f\u304f": 1195,
    "\u2581\u4e0d": 1196,
    "\u5b87\u5b99": 1197,
    "\u2581\u4ffa\u306b": 1198,
    "\u5473": 1199,
    "S": 1200,
    "\u2581\u30db\u30f3\u30c8": 1201,
    "\u2581\u5974\u306f": 1202,
    "\u81ea\u5206": 1203,
    "\u3059\u304e\u308b": 1204,
    "\u3084\u3063\u3066\u308b": 1205,
    "\u3079": 1206,
    "\u3057\u3066\u3082": 1207,
    "\u2500": 1208,
    "\u5143": 1209,
    "\u30c1\u30fc\u30e0": 1210,
    "\u30bb": 1211,
    "\u2581\u6211\u3005": 1212,
    "\u8b66\u5bdf": 1213,
    "\u2581\u3069\u3053\u306b": 1214,
    "\u9055\u3044": 1215,
    "\u3042\u308a\u304c\u3068\u3046": 1216,
    "\u3068\u306a\u308b": 1217,
    "\u7b49": 1218,
    "\u4e16": 1219,
    "\u2581\u79c1\u9054": 1220,
    "\u2581\u5fc5\u305a": 1221,
    "\u52a9\u3051": 1222,
    "\u5909\u5316": 1223,
    "tel": 1224,
    "\u8ecd": 1225,
    "\u4f8b": 1226,
    "\u6c17\u6301\u3061": 1227,
    "\u2581\u30aa\u30ec\u306f": 1228,
    "\u3052": 1229,
    "\u2581\u307e\u3041": 1230,
    "15": 1231,
    "\u4f5c": 1232,
    "\u304b\u3089\u3060": 1233,
    "\u2581\u6b21\u306f": 1234,
    "\u5927\u4e08\u592b": 1235,
    "\u2581\u3055\u3041": 1236,
    "\u2581\u3042\u3093\u305f\u306f": 1237,
    "\u751f\u7269": 1238,
    "\u306b\u306a\u308a\u307e\u3057\u305f": 1239,
    "\u30ad\u30fc": 1240,
    "\u30ca\u30fc": 1241,
    "\u91ce\u90ce": 1242,
    "\u2581\u7121\u7406": 1243,
    "\u2581\u6700\u5f8c\u306b": 1244,
    "\u7ba1\u7406": 1245,
    "\u58f0": 1246,
    "i": 1247,
    "\u2581\u5206\u304b\u3063\u3066\u308b": 1248,
    "\u5c31": 1249,
    "\u8a00\u3044": 1250,
    "\u50d5": 1251,
    "\u306a\u3042": 1252,
    "\u2581\u5fc3\u914d": 1253,
    "\u4e09": 1254,
    "\u306b\u95a2\u3059\u308b": 1255,
    "\u2581\u805e\u3044\u3066": 1256,
    "\u304d\u307e\u3057\u305f": 1257,
    "\u3057\u307e\u3063\u305f": 1258,
    "\u3092\u4f5c\u308b": 1259,
    "\u306f\u3069\u3046": 1260,
    "\u2581\u266b": 1261,
    "\u5e97": 1262,
    "\u30a4\u30f3": 1263,
    "\u53bb": 1264,
    "\u30e2\u30f3": 1265,
    "\u6a5f\u80fd": 1266,
    "\u4e00\u3064": 1267,
    "\u2581\u5f7c\u5973\u3092": 1268,
    "\u304d\u3066": 1269,
    "\u4ffa\u304c": 1270,
    "\u2581\u30a4": 1271,
    "\u3089\u308c\u3066": 1272,
    "\u2581\u5f7c\u3089": 1273,
    "\u3044\u3084": 1274,
    "\u3057\u3044": 1275,
    "\u30d1\u30fc": 1276,
    "\u3067\u3059\u304b\u3089": 1277,
    "\u306a\u3044\u3088": 1278,
    "\u3059\u308b\u3053\u3068": 1279,
    "\u6642\u306f": 1280,
    "\u2581\u3053\u3053\u304b\u3089": 1281,
    "\u5e74\u306e": 1282,
    "\u25818": 1283,
    "\u624b\u3092": 1284,
    "\u89e3": 1285,
    "\u2581\u3059\u3054\u304f": 1286,
    "\u2581\u975e\u5e38\u306b": 1287,
    "\u304a\u91d1": 1288,
    "\u90fd": 1289,
    "\u2581\u884c\u3051": 1290,
    "\u30a2\u30eb": 1291,
    "C": 1292,
    "\u793e": 1293,
    "\u3073": 1294,
    "\u51fa\u3057": 1295,
    "\u3061\u3083\u3063\u305f": 1296,
    "12": 1297,
    "\u305d\u308c\u304c": 1298,
    "\u2581\u5168\u3066\u306e": 1299,
    "\u3059\u3079\u304d": 1300,
    "\u8cea\u554f": 1301,
    "\u3068\u8a00\u3046": 1302,
    "\u968a": 1303,
    "\u3092\u898b\u308b": 1304,
    "\u30a2\u30a4\u30c7\u30a2": 1305,
    "\u5909": 1306,
    "\u610f\u5473": 1307,
    "\u30d9": 1308,
    "\u2581\u4e09": 1309,
    "\u671d": 1310,
    "\u2581\u3053\u306e\u3088\u3046\u306a": 1311,
    "\u3057\u3066\u3044\u307e\u3057\u305f": 1312,
    "\u7d4c\u9a13": 1313,
    "\u2581\u30aa\u30ec": 1314,
    "\u3053\u3053": 1315,
    "\u2581\u591a\u5206": 1316,
    "\u30d3\u30eb": 1317,
    "\u679a": 1318,
    "\u30ea\u30f3\u30b0": 1319,
    "\u2581\u611b": 1320,
    "\u306f\u3042\u308a\u307e\u305b\u3093": 1321,
    "\u30a2\u30f3": 1322,
    "D": 1323,
    "\u2581\u3084\u3042": 1324,
    "\u74b0\u5883": 1325,
    "\u51fa\u6765\u306a\u3044": 1326,
    "\u3059\u3050": 1327,
    "\u2581\u304a\u9858\u3044\u3057\u307e\u3059": 1328,
    "\u5668": 1329,
    "\u30c0\u30fc": 1330,
    "\u2581\u3053\u3093\u306b\u3061\u306f": 1331,
    "\u2581\u6700\u5f8c\u306e": 1332,
    "\u60aa": 1333,
    "\u4fdd\u8b77": 1334,
    "\u2581\u5168\u54e1": 1335,
    "\u30e4\u30c4": 1336,
    "\u2581\u7537": 1337,
    "\u304b\u304b\u308b": 1338,
    "\u2581\u521d\u3081\u3066": 1339,
    "\u6b4c": 1340,
    "\u8a00\u8449": 1341,
    "\u2581\u305d\u3046\u306d": 1342,
    "\u75c5": 1343,
    "\u90e8\u5206": 1344,
    "\u306a\u3057": 1345,
    "\u6e96\u5099": 1346,
    "\u3082\u3044\u3044": 1347,
    "\u2581\u3072\u3069\u3044": 1348,
    "\u306e\u65b9\u304c": 1349,
    "100": 1350,
    "\u2581\u305d\u308c\u3067\u3082": 1351,
    "M": 1352,
    "\u5831\u544a": 1353,
    "\u2581\u6d77": 1354,
    "\u5f01\u8b77\u58eb": 1355,
    "\u2581\u77e5\u3063\u3066\u308b": 1356,
    "\u2581\u8eca": 1357,
    "\u2581\u30a2\u30f3\u30bf": 1358,
    "\u9078\u629e": 1359,
    "\u3055\u307e": 1360,
    "\u308b\u304b": 1361,
    "\u2581\u5b9f\u969b": 1362,
    "\u898b\u3048\u308b": 1363,
    "\u4eba\u305f\u3061": 1364,
    "\u826f\u304f": 1365,
    "\u30de\u30de": 1366,
    "\u8ab0\u3082": 1367,
    "\u79d2": 1368,
    "\u2581\u3082\u3046\u5c11\u3057": 1369,
    "\u30c7\u30b6\u30a4\u30f3": 1370,
    "\u9650\u308a": 1371,
    "\u2581\u4e16\u754c": 1372,
    "\u9283": 1373,
    "\u5c40": 1374,
    "\u306b\u3059\u308b": 1375,
    "\u65b9\u304c\u3044\u3044": 1376,
    "\u8aac\u660e": 1377,
    "\u2581\u4eca\u5ea6\u306f": 1378,
    "\u3082\u306e\u306f": 1379,
    "\u30d2": 1380,
    "\u99ac": 1381,
    "\u601d\u3046": 1382,
    "\u3059\u3050\u306b": 1383,
    "\u30ac\u30fc": 1384,
    "\u2581\u30ab": 1385,
    "\u76f8": 1386,
    "\u306b\u3088\u308a": 1387,
    "\u2581\u7d50\u5a5a": 1388,
    "\u3058\u3083\u306a\u304b\u3063\u305f": 1389,
    "\u6bcd\u89aa": 1390,
    "\u308b\u306e\u304b": 1391,
    "\u8fbc\u3080": 1392,
    "\u541b\u306b": 1393,
    "\u2581\u305d\u3046\u3060\u306a": 1394,
    "\u9580": 1395,
    "\u4e8b\u6545": 1396,
    "\u2581\u6700\u3082": 1397,
    "\u2581\u7d76\u5bfe\u306b": 1398,
    "\u306e\u9593": 1399,
    "\u3093\u3060\u305e": 1400,
    "\u3044\u3063\u305f": 1401,
    "r": 1402,
    "\u3084\u308d\u3046": 1403,
    "\u3069\u3046\u3057\u3066": 1404,
    "\u2581\u5927\u4e08\u592b\u3060": 1405,
    "\u5929": 1406,
    "\u4ef2\u9593": 1407,
    "\u76f4": 1408,
    "\u2581\u3053\u3044\u3064": 1409,
    "\u5973\u306e\u5b50": 1410,
    "\u2581\u5927\u4e08\u592b\u304b": 1411,
    "\u3088\u3046\u3067\u3059": 1412,
    "\u2581\u5168\u304f": 1413,
    "\u2581\u30c7": 1414,
    "\u3093\u306e": 1415,
    "\u958b\u767a": 1416,
    "\u306f\u3044": 1417,
    "\u529b\u3092": 1418,
    "\u308b\u308f": 1419,
    "\u9031\u9593": 1420,
    "\u2581\u30a8": 1421,
    "\u305d": 1422,
    "\u2581\u884c\u304f\u305e": 1423,
    "\u7d42\u308f\u308a": 1424,
    "\u5371\u967a": 1425,
    "\u4e2d\u306e": 1426,
    "\u5b9f\u9a13": 1427,
    "\u305f\u3061\u306f": 1428,
    "\u30c3\u30af": 1429,
    "\u2581\u65b0": 1430,
    "\u76ee\u306b": 1431,
    "\u3059\u308b\u305f\u3081\u306b": 1432,
    "\u2581\u305d\u3053": 1433,
    "\u3063\u3066\u3044\u3046": 1434,
    "\u5e0c\u671b": 1435,
    "\u3089\u308c": 1436,
    "\u3063\u305f\u3089": 1437,
    "\u7f6a": 1438,
    "o": 1439,
    "\u30d7\u30ed\u30b0\u30e9\u30e0": 1440,
    "\u30dd": 1441,
    "\u30d7\u30ed\u30b8\u30a7\u30af\u30c8": 1442,
    "\u30c7\u30fc\u30bf": 1443,
    "\u2581\u5618": 1444,
    "\u7bb1": 1445,
    "\u3042\u3093\u305f": 1446,
    "\u2581\u304a\u305d\u3089\u304f": 1447,
    "\u8a71\u3092": 1448,
    "\u9803": 1449,
    "\u7121\u7406": 1450,
    "\u2581\u6700\u521d\u306e": 1451,
    "\u30c6\u30ec\u30d3": 1452,
    "\u3059\u308b\u306e": 1453,
    "\u2581\u3053": 1454,
    "\u8a33": 1455,
    "\u826f\u304b\u3063\u305f": 1456,
    "\u2581\u304a\u306f\u3088\u3046": 1457,
    "\u4e0a\u306e": 1458,
    "\u91cd": 1459,
    "\u2581\u306a\u3042": 1460,
    "\u2581\u4e2d": 1461,
    "\u2581\u3061\u3087\u3063\u3068\u5f85\u3063\u3066": 1462,
    "\u306f\u3042\u308b": 1463,
    "\u578b": 1464,
    "\u6599\u7406": 1465,
    "\u307e\u307e": 1466,
    "\u2581\u6bce\u65e5": 1467,
    "l": 1468,
    "\u2581\u201c": 1469,
    "\u4f01\u696d": 1470,
    "\u2581\u5922": 1471,
    "\u2581\u4f55\u306e": 1472,
    "\u7d04\u675f": 1473,
    "\u6c17\u5206": 1474,
    "\u3066\u304f\u308c": 1475,
    "\u5c45": 1476,
    "\u3044\u304b": 1477,
    "\u6210": 1478,
    "\u81ea\u7531": 1479,
    "\u9ce5": 1480,
    "\u2581\u306a\u3093\u304b": 1481,
    "\u30ec\u30f3": 1482,
    "\u306f\u307e\u3060": 1483,
    "\u258130": 1484,
    "\u904b\u52d5": 1485,
    "\u2581\u3042\u306a\u305f\u3092": 1486,
    "\u6700\u3082": 1487,
    "\u2581\u3057\u304b\u3082": 1488,
    "\u2581\u5730\u7403": 1489,
    "\u7537\u6027": 1490,
    "\u2581\u3084\u3063\u3068": 1491,
    "\u597d\u304d": 1492,
    "\u59cb\u3081\u305f": 1493,
    "\u805e\u304f": 1494,
    "\u25819": 1495,
    "\u2581\u30b5": 1496,
    "\u7d44": 1497,
    "\u308b\u305e": 1498,
    "\u5168\u3066\u306e": 1499,
    "\u898b\u3064\u3051\u305f": 1500,
    "\u30d9\u30eb": 1501,
    "\u2581\u4eca\u591c": 1502,
    "\u2581\u4f55\u3060\u3088": 1503,
    "\u90fd\u5e02": 1504,
    "\u7236\u89aa": 1505,
    "\u3076": 1506,
    "\u5408\u3044": 1507,
    "\u306b\u884c\u3063\u305f": 1508,
    "\u2581\u524d": 1509,
    "\u53f7": 1510,
    "\u5730\u7403": 1511,
    "\u4e00\u756a": 1512,
    "\u2581\u3044\u307e": 1513,
    "\u516c": 1514,
    "\u57ce": 1515,
    "k": 1516,
    "\u3078\u3068": 1517,
    "\u304b\u306d": 1518,
    "\u307f\u305f\u3044\u3060": 1519,
    "\u306a\u304f\u306a\u308b": 1520,
    "\u304c\u3042\u308c\u3070": 1521,
    "\u79c1\u305f\u3061\u306f": 1522,
    "\u308f\u304b\u3063\u305f": 1523,
    "11": 1524,
    "\u518d": 1525,
    "\u2581\u884c\u3053\u3046": 1526,
    "\u52d5\u304d": 1527,
    "\u2581\u77e5\u3089\u306a\u3044": 1528,
    "\u50d5\u306f": 1529,
    "\u80fd": 1530,
    "\u30e2\u30c7\u30eb": 1531,
    "\u8857": 1532,
    "\u30b3\u30f3": 1533,
    "\u65bd\u8a2d": 1534,
    "\u79d1\u5b66": 1535,
    "\u3057\u305f\u308a": 1536,
    "\u2581\u2015": 1537,
    "\u6bba\u4eba": 1538,
    "\u5186": 1539,
    "\u306e\u3067\u3057\u3087\u3046\u304b": 1540,
    "\u3082\u3089\u3063\u305f": 1541,
    "\u30b8\u30fc": 1542,
    "\u635c\u67fb": 1543,
    "\u2581\u7d50\u5c40": 1544,
    "\u307e\u3059\u304b": 1545,
    "\u5343": 1546,
    "\u8003\u3048\u3066": 1547,
    "\u5144\u5f1f": 1548,
    "\u5f7c\u5973\u306f": 1549,
    "\u5b9a": 1550,
    "\u2581\u306a\u308b\u307b\u3069": 1551,
    "\u3044\u306a\u304b\u3063\u305f": 1552,
    "\u3093\u3060\u306a": 1553,
    "\u904e": 1554,
    "\u306e\u4e00\u90e8": 1555,
    "\u30b7\u30e5": 1556,
    "\u5a18": 1557,
    "\u305d\u3057\u3066": 1558,
    "\u304a\u524d\u306e": 1559,
    "\u500b": 1560,
    "\u304c\u3042\u308a\u307e\u3057\u305f": 1561,
    "\u306f\u7121\u3044": 1562,
    "\u2581\u9ad8": 1563,
    "\u71b1": 1564,
    "\u2581\u304a\u91d1": 1565,
    "\u308f\u304b\u3089\u306a\u3044": 1566,
    "\u2581\u6b7b\u3093\u3060": 1567,
    "\u65b0": 1568,
    "\u3060\u3051\u3067\u306a\u304f": 1569,
    "\u78ba\u8a8d": 1570,
    "\u9593\u306b": 1571,
    "\u53cd\u5fdc": 1572,
    "\u2581\u4eca\u3059\u3050": 1573,
    "\u306a\u306e\u3067": 1574,
    "T": 1575,
    "\u65c5": 1576,
    "\u2581\u30af\u30ea\u30b9": 1577,
    "\u6587": 1578,
    "\u305a\u306b": 1579,
    "\u3044\u3063\u3066": 1580,
    "\u2581\u4f55\u3067\u3082": 1581,
    "\u30d1\u30d1": 1582,
    "\u3088\u306a": 1583,
    "\u306f\u3069\u3053": 1584,
    "\u3068\u304d\u306b": 1585,
    "x": 1586,
    "\u73fe\u5b9f": 1587,
    "\u2581\u308f\u304b\u3063\u3066\u308b": 1588,
    "\u5207\u308c": 1589,
    "\u4f5c\u54c1": 1590,
    "\u8fbc\u3093\u3067": 1591,
    "\u5165\u308a": 1592,
    "\u5e2d": 1593,
    "\u2581\u4ffa\u3092": 1594,
    "\u304a\u9858\u3044": 1595,
    "\u8a00": 1596,
    "\u306a\u3044\u304b": 1597,
    "\u307e\u305b\u3093\u3067\u3057\u305f": 1598,
    "\u30d5\u30a1\u30f3": 1599,
    "\u2581\u3069\u306e": 1600,
    "\u2581\u672c": 1601,
    "\u6301\u3061": 1602,
    "\u2581\u3069": 1603,
    "\u6642\u4ee3": 1604,
    "\u6307": 1605,
    "\u3093\u3067\u3059\u3051\u3069": 1606,
    "\u2581\u5f7c\u5973\u306b": 1607,
    "\u30c9\u30e9\u30b4\u30f3": 1608,
    "\u2581\u30af\u30bd": 1609,
    "\u306b\u3088\u308b\u3068": 1610,
    "\u2581\u5916": 1611,
    "\u706b": 1612,
    "\u6765\u306a\u3044": 1613,
    "B": 1614,
    "\u306e\u65b9": 1615,
    "\u306e\u4e2d": 1616,
    "\u52b9\u679c": 1617,
    "\u308b\u3053\u3068": 1618,
    "\u30ae": 1619,
    "\u2581\u5931\u793c": 1620,
    "\u3088\u3044": 1621,
    "\u5207\u308a": 1622,
    "\u5f7c\u304c": 1623,
    "\u591a\u304f": 1624,
    "\u6765\u3044": 1625,
    "\u2581\u305d\u308c\u3058\u3083": 1626,
    "\u3053\u3068\u304c\u3042\u308b": 1627,
    "\u30c3\u30c8": 1628,
    "\u307c": 1629,
    "\u3042\u308c": 1630,
    "\u91cd\u8981": 1631,
    "\u2581\u308f\u304b\u3089\u306a\u3044": 1632,
    "\u6cbb": 1633,
    "\u6211\u3005\u306e": 1634,
    "\u5e73": 1635,
    "\u2581\u304a\u524d\u306b": 1636,
    "\u4eba\u751f": 1637,
    "\u2581\u3042\u3093\u305f\u306e": 1638,
    "\u306f\u3069\u3053\u3060": 1639,
    "\u3059\u308b\u306a": 1640,
    "\u2581\u6bcd\u3055\u3093": 1641,
    "\u6b63\u3057\u3044": 1642,
    "\u5e74\u524d\u306b": 1643,
    "\u2581\u5c0f\u3055\u306a": 1644,
    "\u2581\u5b9f\u969b\u306b": 1645,
    "\u6a4b": 1646,
    "\u5f85\u3063\u3066": 1647,
    "\u8fbc\u307f": 1648,
    "\u904e\u304e": 1649,
    "\u305f\u306e": 1650,
    "\u6bbf": 1651,
    "\u306e\u4e8b\u3092": 1652,
    "\u305f\u3060": 1653,
    "\u2581\u541b\u3092": 1654,
    "\u3055\u308c\u307e\u3059": 1655,
    "\u5927\u304d\u3044": 1656,
    "\u3066\u305f": 1657,
    "\u4e2d\u3067": 1658,
    "\u7537\u304c": 1659,
    "\u59cb\u3081": 1660,
    "\u8b66\u5b98": 1661,
    "\u3068\u3044\u3046\u3053\u3068": 1662,
    "\u4eba\u3005": 1663,
    "\u5427": 1664,
    "\u62c5\u5f53": 1665,
    "\u50d5\u306e": 1666,
    "\u7b54\u3048": 1667,
    "\u30c8\u30e9": 1668,
    "\u3059\u3054\u3044": 1669,
    "\u2581\u4f55\u6545": 1670,
    "\u3057\u306a\u3044\u3067": 1671,
    "\u3061\u3083\u3046": 1672,
    "\u8ee2": 1673,
    "\u8a00\u3044\u307e\u3057\u305f": 1674,
    "\u6bba\u3057\u305f": 1675,
    "\u2581\u5fc3": 1676,
    "\u4e8c\u4eba": 1677,
    "\u6b63": 1678,
    "\u6642\u9593\u3092": 1679,
    "\u3079\u304d": 1680,
    "\u8868": 1681,
    "\u304c\u3044\u3044": 1682,
    "\u6559\u80b2": 1683,
    "\u7269\u8a9e": 1684,
    "\u4eba\u3060": 1685,
    "\u2581\u3084\u3063\u305f": 1686,
    "\u306e\u3067\u3059\u304c": 1687,
    "\u3042\u3068": 1688,
    "\u306b\u304a\u3044\u3066": 1689,
    "\u2581\u30e9": 1690,
    "\u547d\u4ee4": 1691,
    "\u2581\u3042\u306e\u5b50": 1692,
    "\u7a74": 1693,
    "\u308b\u306a": 1694,
    "\u72af\u7f6a": 1695,
    "\u3092\u3057\u305f": 1696,
    "\u70ba": 1697,
    "\u3058\u3083\u306a\u3044\u3067\u3059\u304b": 1698,
    "\u5bb6\u306b": 1699,
    "\u304b\u3051\u3066": 1700,
    "\u4e88\u5b9a": 1701,
    "\u5fc5\u8981\u304c\u3042\u308b": 1702,
    "\u2581\u672c\u5f53": 1703,
    "\u7269\u3092": 1704,
    "\u4ef6": 1705,
    "\u2581\u305d\u308c\u3082": 1706,
    "\u2581\u4e86\u89e3": 1707,
    "\u5b50\u3055\u3093": 1708,
    "\u2581\u5973": 1709,
    "\u306a\u304f\u3066\u3082": 1710,
    "\u3053\u3053\u306b\u3044\u308b": 1711,
    "\u968e": 1712,
    "\u3067\u304d\u307e\u305b\u3093": 1713,
    "\u2581\u5c11\u306a\u304f\u3068\u3082": 1714,
    "\u3069\u3046\u3084\u3063\u3066": 1715,
    "\u8089": 1716,
    "\u8a3c\u62e0": 1717,
    "\u2581\u3055\u3063\u304d": 1718,
    "\u30b8\u30e5": 1719,
    "\u2581.": 1720,
    "\u2581\u3042\u305f\u3057": 1721,
    "\u304c\u7121\u3044": 1722,
    "\u5f71": 1723,
    "\u2581\u5b66\u6821": 1724,
    "\u2581\u3060\u3063\u305f\u3089": 1725,
    "\u2581\u795e": 1726,
    "\u307e\u3059\u3088": 1727,
    "\u306a\u3093\u3067\u3059\u304b": 1728,
    "\u2581\u9854": 1729,
    "\u5e30\u308b": 1730,
    "E": 1731,
    "\u56e3": 1732,
    "\u30b5\u30f3": 1733,
    "\u2581--": 1734,
    "\u30a8\u30cd\u30eb\u30ae\u30fc": 1735,
    "\u5224\u65ad": 1736,
    "\u72af": 1737,
    "\u5ba2": 1738,
    "\u51fa\u3057\u305f": 1739,
    "\u7d50\u5a5a": 1740,
    "\u2581\u591c": 1741,
    "\u3072": 1742,
    "\u2581\u3060\u3051\u3069": 1743,
    "\u2581\u5143": 1744,
    "\u305d\u3046\u306a": 1745,
    "\u2581\u5c71": 1746,
    "\u2581\u771f": 1747,
    "\u304d\u307e\u3059": 1748,
    "\u91cd\u8981\u306a": 1749,
    "\u2581\u3044\u3064\u304b": 1750,
    "\u5f7c\u5973\u306e": 1751,
    "\u6ce2": 1752,
    "\u306f\u3082\u3046": 1753,
    "\u2581\u52a9\u3051\u3066": 1754,
    "\u8005\u304c": 1755,
    "\u7406\u7531\u306f": 1756,
    "\u304b\u3051": 1757,
    "\u3066\u3082": 1758,
    "\u8a00\u3048": 1759,
    "\u5f0f": 1760,
    "\u306a\u3044\u3067": 1761,
    "\u534a": 1762,
    "\u306b\u6765\u305f": 1763,
    "\u3061\u3083": 1764,
    "\u304c\u6b32\u3057\u3044": 1765,
    "\u9b5a": 1766,
    "\u3082\u3042\u308a\u307e\u3059": 1767,
    "\u7591\u554f": 1768,
    "\u98db\u3073": 1769,
    "\u5c11\u5973": 1770,
    "\u884c\u3051": 1771,
    "\u2581\u30ea": 1772,
    "\u2581\u3069\u3046\u304b": 1773,
    "\u306a\u3063\u305f": 1774,
    "\u5148\u306b": 1775,
    "\u69d8\u306b": 1776,
    "\u6211\u3005\u306f": 1777,
    "\u6df1\u3044": 1778,
    "\u3053\u3068\u306b\u306a\u308b": 1779,
    "\u2581\u624b\u3092": 1780,
    "\u2581\u5143\u6c17": 1781,
    "\u3092\u4f7f\u3046": 1782,
    "\u4efb\u52d9": 1783,
    "\u53d6\u5f15": 1784,
    "\u5f3e": 1785,
    "\u756a\u53f7": 1786,
    "\u2581\u305d\u308c\u3060\u3051": 1787,
    "\u2581\u3082\u3057\u304b\u3057\u3066": 1788,
    "\u2581\u3042\u306a\u305f\u3082": 1789,
    "\u30e1\u30fc\u30eb": 1790,
    "\u3057\u307e\u305b\u3093": 1791,
    "\u672a\u6765": 1792,
    "\u591a": 1793,
    "\u6cbb\u7642": 1794,
    "\u30b5\u30fc": 1795,
    "\u96e3\u3057\u3044": 1796,
    "\u2581\u3042\u30fc": 1797,
    "\u54e1": 1798,
    "\u306f\u3057\u306a\u3044": 1799,
    "\u306f\u305a\u3067\u3059": 1800,
    "\u3053\u3068\u304c\u3067\u304d\u308b": 1801,
    "\u6700\u521d\u306e": 1802,
    "\u81ea\u5206\u3067": 1803,
    "\u2581\u4ffa\u305f\u3061": 1804,
    "\u2581\u3053\u308c\u4ee5\u4e0a": 1805,
    "\u306e\u305b\u3044\u3067": 1806,
    "\u3060\u3063\u305f\u3093\u3060": 1807,
    "\u306a\u3044\u306e": 1808,
    "\u7406\u89e3": 1809,
    "\u9ad8\u3044": 1810,
    "\u306e\u306a\u3044": 1811,
    "\u30a8\u30eb": 1812,
    "\u3068\u3057\u305f\u3089": 1813,
    "\u4f7f\u3046": 1814,
    "\u5927\u7d71\u9818": 1815,
    "\u30ec\u30a4": 1816,
    "\u5165\u308c": 1817,
    "\u6839": 1818,
    "\u533b\u8005": 1819,
    "\u4e8b\u306b": 1820,
    "\u30ed\u30f3": 1821,
    "\u6226\u3044": 1822,
    "\u2581\u307b\u3068\u3093\u3069": 1823,
    "\u5931": 1824,
    "\u7f8e\u3057\u3044": 1825,
    "\u8853": 1826,
    "\u2581\u50d5\u3082": 1827,
    "\u306e\u304b\u306a": 1828,
    "\u306a\u3088": 1829,
    "\u5b98": 1830,
    "\u2581\u884c\u3063\u3066": 1831,
    "\u30ea\u30a2": 1832,
    "\u3092\u6bba\u3059": 1833,
    "\u30ed\u30dc\u30c3\u30c8": 1834,
    "\u884c\u304b\u306a\u3044": 1835,
    "\u3044\u308b\u306e\u304b": 1836,
    "\u8133": 1837,
    "\u4eba\u3068": 1838,
    "\u2581\u3072": 1839,
    "\u2581\u304a\u524d\u3082": 1840,
    "\u2581\u89aa": 1841,
    "\u76ee\u3092": 1842,
    "\u571f\u5730": 1843,
    "\u8c37": 1844,
    "\u884c\u3053\u3046": 1845,
    "\u6a5f\u4f1a": 1846,
    "\u7acb\u3061": 1847,
    "\u30ad\u30ed": 1848,
    "\u30bf\u30f3": 1849,
    "\u2581\u6c17": 1850,
    "\u773c": 1851,
    "\u306b\u304a\u3051\u308b": 1852,
    "\u5e02\u5834": 1853,
    "\u306e\u3053\u3068\u306f": 1854,
    "\u5354\u529b": 1855,
    "\u3044\u305f\u3089": 1856,
    "\u30dd\u30a4\u30f3\u30c8": 1857,
    "\u6210\u529f": 1858,
    "\u2581\u3042\u307e\u308a": 1859,
    "\u79fb\u52d5": 1860,
    "\u6761\u4ef6": 1861,
    "\u30e2\u30f3\u30b9\u30bf\u30fc": 1862,
    "\u30b7\u30e3": 1863,
    "\u308a\u307e\u3059": 1864,
    "\u2581\u4eca\u65e5\u306e": 1865,
    "\u7d9a\u3051\u308b": 1866,
    "\u2581\u3053\u3046\u3044\u3046": 1867,
    "\u4f7f\u3044": 1868,
    "\u3063\u3066\u8a00\u3063\u305f": 1869,
    "\u3053\u3063\u3061": 1870,
    "\u5408\u3046": 1871,
    "\u2581\u3069\u3046\u3059\u308b": 1872,
    "\u2581\u3059\u3079\u3066\u306e": 1873,
    "\u2581\u5168": 1874,
    "\u75c5\u9662": 1875,
    "\u30d0\u30f3": 1876,
    "\u500d": 1877,
    "\u3068\u5171\u306b": 1878,
    "\u5206\u306e": 1879,
    "\u4e07\u30c9\u30eb": 1880,
    "\u308f\u3051\u3058\u3083\u306a\u3044": 1881,
    "\u8a71\u3057\u3066": 1882,
    "\u2581\u982d": 1883,
    "\u75db": 1884,
    "\u653e": 1885,
    "\u60d1\u661f": 1886,
    "\u5f8c\u306b": 1887,
    "\u2581\u5f8c\u3067": 1888,
    "\u671f": 1889,
    "\u2581\u305d\u308d\u305d\u308d": 1890,
    "\u72af\u4eba": 1891,
    "\u2581\u8133": 1892,
    "\u89e3\u6c7a": 1893,
    "\u30bb\u30f3\u30bf\u30fc": 1894,
    "\u7acb": 1895,
    "\u56f3": 1896,
    "\u304c\u5fc5\u8981": 1897,
    "\u5bb6\u306e": 1898,
    "\u2581\u540d\u524d\u306f": 1899,
    "\u30cb\u30e5\u30fc\u30b9": 1900,
    "\u969c\u5bb3": 1901,
    "\u9023\u4e2d": 1902,
    "\u304c\u3042\u308b\u306e": 1903,
    "\u30ea\u30b9\u30c8": 1904,
    "\u305f\u3061\u304c": 1905,
    "L": 1906,
    "g": 1907,
    "\u2581FBI": 1908,
    "\u77e5": 1909,
    "\u30de\u30a4\u30eb": 1910,
    "\u3084\u308a": 1911,
    "\u2581\u6bcd": 1912,
    "\u30a2\u30e1\u30ea\u30ab": 1913,
    "\u2581\u9283": 1914,
    "\u2581\u79c1\u3068": 1915,
    "\u73fe\u5728": 1916,
    "\u8a18\u61b6": 1917,
    "\u5c3e": 1918,
    "\u7d04": 1919,
    "\u6700\u5f8c\u306e": 1920,
    "\u5206\u6790": 1921,
    "\u4f1a\u8b70": 1922,
    "\u3042\u306a\u305f\u306b": 1923,
    "\u2581\u3053\u3053\u306e": 1924,
    "\u30d3\u30c7\u30aa": 1925,
    "\u305b\u308b": 1926,
    "\u6587\u5316": 1927,
    "19": 1928,
    "\u3047": 1929,
    "\u3059\u308b\u304b": 1930,
    "\u30c6\u30b9\u30c8": 1931,
    "h": 1932,
    "\u5834\u6240\u306b": 1933,
    "\u754c": 1934,
    "\u77ac\u9593": 1935,
    "\u5c11\u5e74": 1936,
    "\u5f7c\u3089\u306f": 1937,
    "\u30df\u30fc": 1938,
    "tv": 1939,
    "\u2581\u53f3": 1940,
    "\u610f\u8b58": 1941,
    "\u3067\u304d": 1942,
    "\u660e": 1943,
    "\u2581\u30c0\u30e1": 1944,
    "\u30ed\u30c3\u30af": 1945,
    "\u305f\u308a": 1946,
    "\u2581\u307e": 1947,
    "\u65e5\u306b": 1948,
    "\u2581\u8a00\u3063\u3066": 1949,
    "\u975e\u5e38\u306b": 1950,
    "\u52d5": 1951,
    "\u3064\u304d": 1952,
    "\u3092\u5b88\u308b": 1953,
    "\u2581\u304a\u3063": 1954,
    "\u767d": 1955,
    "\u3068\u601d\u3063\u3066\u305f": 1956,
    "\u2581\u4ef2\u9593": 1957,
    "\u306a\u304f\u306a\u3063\u305f": 1958,
    "\u2581\u4e0b": 1959,
    "\u2581100": 1960,
    "\u2581\u8003\u3048": 1961,
    "\u301c": 1962,
    "\u5f7c\u306b": 1963,
    "\u307f\u3066": 1964,
    "\u7d4c\u6e08": 1965,
    "\u2581\u30cf": 1966,
    "\u4f55\u304c": 1967,
    "\u60a3\u8005": 1968,
    "\u305f\u3081\u306e": 1969,
    "\u5143\u6c17": 1970,
    "p": 1971,
    "\u2581\u4eca\u671d": 1972,
    "\u3053\u3068\u304c\u3067\u304d\u307e\u3059": 1973,
    "\u7523": 1974,
    "\u89aa": 1975,
    "f": 1976,
    "\u30b5\u30fc\u30d3\u30b9": 1977,
    "\u30f6\u6708": 1978,
    "\u2581\u3042\u3093\u305f\u304c": 1979,
    "\u3088\u3046\u3068": 1980,
    "\u2581\u3061\u3087\u3046\u3069": 1981,
    "\u5148\u8f29": 1982,
    "\u306a\u3093\u3067": 1983,
    "\u2581\u72ac": 1984,
    "\u3060\u305c": 1985,
    "\u305d\u3053\u306b": 1986,
    "\u2581\u606f\u5b50": 1987,
    "\u3057\u3066\u307e\u3059": 1988,
    "\u3064\u304b": 1989,
    "\u69cb\u9020": 1990,
    "\u226b": 1991,
    "\u8b70\u8ad6": 1992,
    "\u597d\u304d\u306a": 1993,
    "\u2581\u305d\u308c\u3067\u306f": 1994,
    "\u3092\u6301\u3063\u3066\u3044\u308b": 1995,
    "\u2581\u5927\u7d71\u9818": 1996,
    "\u6bdb": 1997,
    "\u6bba\u3059": 1998,
    "\u3092\u53d6\u308a": 1999,
    "\u5bdd": 2000,
    "\u3057\u305f\u306e\u306f": 2001,
    "\u76e3\u8996": 2002,
    "\u898b\u3048\u306a\u3044": 2003,
    "\u5206\u304b\u3063\u3066\u308b": 2004,
    "\u2581\u30d0\u30fc": 2005,
    "\u51fa\u6765": 2006,
    "\u3057\u307e\u3046": 2007,
    "\u5de5\u5834": 2008,
    "\u6bba": 2009,
    "\u3082\u3057": 2010,
    "\u7247": 2011,
    "\u2581\u5206\u304b\u3089\u306a\u3044": 2012,
    "\u691c\u67fb": 2013,
    "\u8003\u3048\u308b": 2014,
    "\u30a8\u30f3": 2015,
    "\u2581\u307e\u305a\u306f": 2016,
    "\u2581\u30dc\u30b9": 2017,
    "\u3058\u3083\u306a\u3044\u308f": 2018,
    "\u7a7a\u9593": 2019,
    "\u6e21": 2020,
    "\u8a13\u7df4": 2021,
    "\u4e8b\u3060": 2022,
    "\u53ef\u80fd": 2023,
    "\u2581\u5f53\u7136": 2024,
    "\u771f": 2025,
    "\u4eba\u3082": 2026,
    "\u611f\u899a": 2027,
    "\u9003\u3052": 2028,
    "\u2581\u30ed": 2029,
    "\u8fbc\u3093\u3060": 2030,
    "\u4fa1\u5024": 2031,
    "\u5175\u58eb": 2032,
    "\u2581\u3057\u3063\u304b\u308a": 2033,
    "\u8a66": 2034,
    "\u2581\u5de6": 2035,
    "\u308c\u305f": 2036,
    "\u79d8\u5bc6": 2037,
    "\u2581\u3067\u3059\u304b\u3089": 2038,
    "\u30d1\u30f3": 2039,
    "\u3093\u3067\u3059\u306d": 2040,
    "\u624d": 2041,
    "\u4f1a\u3063\u305f": 2042,
    "\u2581\u3082\u3046\u3044\u3044": 2043,
    "\u3092\u3057\u3066": 2044,
    "\u2581\u5b87\u5b99": 2045,
    "\u2581\u3053\u3061\u3089\u306f": 2046,
    "\u3082\u306e\u304c": 2047,
    "\u30e9\u30f3\u30c9": 2048,
    "\u50cd\u304d": 2049,
    "\u307e\u3057\u3066": 2050,
    "\u307b\u3046\u304c": 2051,
    "\u2581\u30b5\u30e9": 2052,
    "\u5acc\u3044": 2053,
    "\u2581\u305d\u3046\u3088": 2054,
    "\u9762\u767d\u3044": 2055,
    "\u2581\u30c0\u30e1\u3060": 2056,
    "\u2581\u306f\u3041": 2057,
    "\u4f7f\u3063\u3066": 2058,
    "\u97f3\u697d": 2059,
    "\u3069\u3046\u305e": 2060,
    "\u3057\u3066\u3044\u306a\u3044": 2061,
    "\u30d1\u30fc\u30c6\u30a3\u30fc": 2062,
    "\u7279": 2063,
    "\u306e\u3067\u3057\u3087\u3046": 2064,
    "\u884c\u70ba": 2065,
    "\u2581\u76ee": 2066,
    "\u5618": 2067,
    "\u4f5c\u308a": 2068,
    "\u5931\u6557": 2069,
    "\u306b\u3044\u305f": 2070,
    "\u8981\u6c42": 2071,
    "\u5e30\u3063\u3066": 2072,
    "\u6587\u5b57": 2073,
    "\u6a5f\u68b0": 2074,
    "\u6016\u3044": 2075,
    "\u51e6\u7406": 2076,
    "\u68ee": 2077,
    "\u30c1\u30e3": 2078,
    "\u6c17\u306b": 2079,
    "\u533b\u7642": 2080,
    "\u30e9\u30a4\u30c8": 2081,
    "\u30c1\u30a7\u30c3\u30af": 2082,
    "\u2581\u3042\u3044\u3064\u306f": 2083,
    "\u2581\u4e8c": 2084,
    "\u6ca2": 2085,
    "\u6c7a\u5b9a": 2086,
    "\u7a0b": 2087,
    "\u4e0a\u306b": 2088,
    "\u6c0f": 2089,
    "\u2581\u30df": 2090,
    "\u89b3": 2091,
    "\u59cb\u3081\u308b": 2092,
    "\u5f1f": 2093,
    "\u2581\u306d\u3047": 2094,
    "\u3057\u306a\u3055\u3044": 2095,
    "\u90aa\u9b54": 2096,
    "\u8cea": 2097,
    "\u958b\u59cb": 2098,
    "\u2581\u6bcd\u89aa": 2099,
    "\u2581\u6b21\u306b": 2100,
    "\u2581\u307e\u3055\u306b": 2101,
    "\u3069\u3082": 2102,
    "\u306b\u623b\u308b": 2103,
    "\u3044\u308c\u3070": 2104,
    "\u6c7a\u3081\u305f": 2105,
    "\u2581\u305d\u3063\u3061": 2106,
    "\u793e\u9577": 2107,
    "\u4f7f\u7528": 2108,
    "\u2581\u5973\u6027": 2109,
    "\u6240\u306b": 2110,
    "\u30b7\u30e7\u30fc": 2111,
    "\u3092\u898b\u3064\u3051\u308b": 2112,
    "\u30dc\u30fc\u30eb": 2113,
    "\u5f7c\u5973\u3092": 2114,
    "\u2581\u3044\u3044\u304b\u3089": 2115,
    "\u308c\u3070\u3044\u3044": 2116,
    "\u3059\u308b\u308f": 2117,
    "\u306a\u3044\u3093\u3060": 2118,
    "\u4ee5\u6765": 2119,
    "\u3057\u3066\u304f\u308c\u305f": 2120,
    "\u5f71\u97ff": 2121,
    "\u8005\u306e": 2122,
    "\u653f\u5e9c": 2123,
    "\u3055\u3093\u306b": 2124,
    "\u2581\u3044\u3063\u305f\u3044": 2125,
    "\u899a\u3048": 2126,
    "\u53cb": 2127,
    "\u6a29": 2128,
    "\u2581\u3044\u3044\u3088": 2129,
    "\u2581\u53d6\u308a": 2130,
    "\u2581\u3082\u3046\u3059\u3050": 2131,
    "\u5974\u3089": 2132,
    "\u9023\u7d61": 2133,
    "\u258115": 2134,
    "0": 2135,
    "\u2581\u533b\u8005": 2136,
    "\u4e38": 2137,
    "\u7cfb": 2138,
    "\u6253\u3061": 2139,
    "\u6df1\u304f": 2140,
    "\u3089\u308c\u307e\u3059": 2141,
    "\u2581\u3068\u3053\u308d\u3067": 2142,
    "\u751f\u307e\u308c": 2143,
    "\u2581\u4eba\u9593\u306e": 2144,
    "\u2581\u6642\u9593": 2145,
    "\u2581\u3059\u307e\u306a\u3044": 2146,
    "\u2581\u3042\u3089\u3086\u308b": 2147,
    "P": 2148,
    "\u2581\u7f8e": 2149,
    "\u30d5\u30a7": 2150,
    "\u79c1\u305f\u3061": 2151,
    "\u2581\u3042\u306e\u4eba": 2152,
    "\u8a3c\u8a00": 2153,
    "\u697d": 2154,
    "\u2581\u3053\u3053\u304c": 2155,
    "200": 2156,
    "\u2581\u53cb\u4eba": 2157,
    "\u2581\u3053\u3093\u306a\u3053\u3068": 2158,
    "\u2581\u4ffa\u305f\u3061\u306f": 2159,
    "\u2581\u30b5\u30e0": 2160,
    "\u30cd\u30c3\u30c8\u30ef\u30fc\u30af": 2161,
    "\u3089\u3093": 2162,
    "\u2581\u5199\u771f": 2163,
    "\u2581\u3042\u308b\u3044\u306f": 2164,
    "\u5408": 2165,
    "\u5230": 2166,
    "\u3053\u3068\u306f\u306a\u3044": 2167,
    "\u3042\u3063\u3066": 2168,
    "13": 2169,
    "\u5074": 2170,
    "\u2581\u3069\u3053\u3067": 2171,
    "\u2581\u30b3": 2172,
    "\u611f\u60c5": 2173,
    "\u58eb": 2174,
    "\u6bba\u5bb3": 2175,
    "\u2581\u7a81\u7136": 2176,
    "\u2581\u75c5\u9662": 2177,
    "\u3044\u3044\u304b": 2178,
    "\u751f\u304d": 2179,
    "\u2581\u4e00\u4eba": 2180,
    "\u30ea\u30b9": 2181,
    "\u2581\u4e00\u5ea6": 2182,
    "\u63d0\u6848": 2183,
    "\u2581\u5197\u8ac7": 2184,
    "\u30ec\u30d9\u30eb": 2185,
    "\u90e8\u5c4b\u306b": 2186,
    "\u304c\u5fc5\u8981\u3067\u3059": 2187,
    "\u2581\u3046\u3063": 2188,
    "\u2581\u601d\u3044": 2189,
    "\u8868\u73fe": 2190,
    "\u30d7\u30ed": 2191,
    "\u660e\u65e5": 2192,
    "\u2581\u3054\u3081\u3093\u306d": 2193,
    "\u30d3\u30f3": 2194,
    "\u624b\u6bb5": 2195,
    "\u2581\u30d0": 2196,
    "\u3061\u3087\u3046\u3060\u3044": 2197,
    "\u7d19": 2198,
    "\u5144": 2199,
    "\u2581\u3042\u3063\u305f": 2200,
    "\u65ad": 2201,
    "\u4ed6": 2202,
    "\u4f5c\u3063\u305f": 2203,
    "\u5411": 2204,
    "\u2581\u5965\u3055\u3093": 2205,
    "\u541b\u3092": 2206,
    "\u2581\u8a71": 2207,
    "\u89d2": 2208,
    "\u2581\u30d4\u30fc\u30bf\u30fc": 2209,
    "\u6559\u3048\u3066": 2210,
    "\u77e5\u3063\u305f": 2211,
    "\u2581\u306a\u3093": 2212,
    "\u3084\u3089": 2213,
    "\u4e57\u308a": 2214,
    "\u3068\u601d\u3063\u3066\u308b": 2215,
    "\u77e5\u308b": 2216,
    "\u306e\u4ed5\u4e8b": 2217,
    "\u6b62\u3081": 2218,
    "\u307b\u3068\u3093\u3069": 2219,
    "\u4f5c\u6226": 2220,
    "\u30df\u30b9": 2221,
    "\u81ea\u7136": 2222,
    "\u3092\u6301\u3063\u3066\u308b": 2223,
    "\u7834\u58ca": 2224,
    "\u7686\u3055\u3093": 2225,
    "\u2581fbi": 2226,
    "\u7b2c": 2227,
    "\u88ab": 2228,
    "\u306a\u3051\u308c\u3070\u306a\u3089\u306a\u3044": 2229,
    "\u60f3": 2230,
    "\u7406\u8ad6": 2231,
    "\u2581\u304f\u305d": 2232,
    "\u7b4b": 2233,
    "\u3059\u304e": 2234,
    "\u2581\u983c\u3080": 2235,
    "\u30da": 2236,
    "\u2581\u3057\u3070\u3089\u304f": 2237,
    "\u30c6\u30f3": 2238,
    "\u2581\u305d\u308c\u3063\u3066": 2239,
    "\u5f37\u304f": 2240,
    "\u2581\u305d\u3046\u3044\u3046\u3053\u3068": 2241,
    "\u30b2": 2242,
    "\u2581\u305d\u306e\u6642": 2243,
    "\u3042\u306a\u305f\u3092": 2244,
    "\u30b8\u30e3": 2245,
    "\u2581\u5f8c": 2246,
    "\u59ff": 2247,
    "\u2581\u3088\u308a": 2248,
    "\u6700\u8fd1": 2249,
    "u": 2250,
    "K": 2251,
    "\u2581\u3082\u3057\u3082\u3057": 2252,
    "\u2581200": 2253,
    "\u2581\u3053\u3044\u3064\u306f": 2254,
    "\u30eb\u30fc\u30eb": 2255,
    "\u5e2b": 2256,
    "\u4fe1\u983c": 2257,
    "\u306e\u305f\u3081\u306e": 2258,
    "\u65b9\u6cd5\u3092": 2259,
    "\u30c0\u30e1": 2260,
    "\u2581\u884c\u304f": 2261,
    "\u904a\u3073": 2262,
    "\u306e\u304a": 2263,
    "\u2581\u8840": 2264,
    "\u2581\u304a\u307e\u3048": 2265,
    "\u4ffa\u306b": 2266,
    "\u3053\u3044": 2267,
    "\u3042\u308a\u307e\u3057\u305f": 2268,
    "\u2581\u308f\u305f\u3057": 2269,
    "\u5229": 2270,
    "\u30d1\u30bf\u30fc\u30f3": 2271,
    "\u751f\u5f92": 2272,
    "\u72b6": 2273,
    "\u2581\u30b2\u30fc\u30e0": 2274,
    "\u306e\u5f8c": 2275,
    "\u3058\u3083\u306d\u3048": 2276,
    "\u6c17\u304c": 2277,
    "\u5341\u5206": 2278,
    "\u3044\u308b\u306e": 2279,
    "\u2581\u3084\u3063\u3066": 2280,
    "\u30aa\u30ec": 2281,
    "\u305d\u3053": 2282,
    "\u671b\u307f": 2283,
    "\u2581\u306f\u3042": 2284,
    "\u3066\u304f\u3060\u3055\u3044": 2285,
    "\u732b": 2286,
    "\u304b\u308c": 2287,
    "\u6301\u3063\u3066\u308b": 2288,
    "\u9854\u3092": 2289,
    "\u5065\u5eb7": 2290,
    "\u3093\u306a": 2291,
    "\u611f\u3058\u308b": 2292,
    "\u9aea": 2293,
    "\u5375": 2294,
    "\u2581\u5b8c\u5168\u306b": 2295,
    "\u2581\u3059\u3067\u306b": 2296,
    "\u306a\u3089\u3070": 2297,
    "G": 2298,
    "\u5730\u56f3": 2299,
    "\u6295\u8cc7": 2300,
    "\u2581\u5149": 2301,
    "\u30b8\u30f3": 2302,
    "\u308f\u3051\u3067\u3059": 2303,
    "\u2581\u7236": 2304,
    "\u7387": 2305,
    "\u306e\u606f\u5b50": 2306,
    "\u3093\u3067\u3057\u3087\u3046": 2307,
    "\u2581\u3069\u3046\u3044\u3046\u3053\u3068": 2308,
    "\u2581\u6025\u3044\u3067": 2309,
    "\u4f5c\u3063\u3066": 2310,
    "\u96c6\u56e3": 2311,
    "\u623b\u308b": 2312,
    "\u3057\u3066\u308b\u306e": 2313,
    "\u6c11": 2314,
    "\u2581\u3042\u305d\u3053": 2315,
    "\u306e\u529b": 2316,
    "\u258119": 2317,
    "\u5165\u3063\u3066": 2318,
    "\u5272": 2319,
    "\u2581\u305d\u308c\u306a\u3089": 2320,
    "\u2581\u4eca\u304b\u3089": 2321,
    "\u524d\u306e": 2322,
    "\u3061\u3083\u3093\u3068": 2323,
    "\u2581\u554f\u984c": 2324,
    "\u79c1\u305f\u3061\u306e": 2325,
    "\u9053\u3092": 2326,
    "\u888b": 2327,
    "\u8a66\u9a13": 2328,
    "\u4f5c\u696d": 2329,
    "\u6570\u5b57": 2330,
    "\u3053\u308c\u304c": 2331,
    "\u753a": 2332,
    "\u5024": 2333,
    "\u2581\u51fa": 2334,
    "40": 2335,
    "\u6559\u3048": 2336,
    "\u306b\u6765\u3066": 2337,
    "\u30fc\u3063": 2338,
    "\u2581\u7d04\u675f": 2339,
    "\u7d9a\u3051": 2340,
    "\u308c\u306a\u3044": 2341,
    "\u3093\u3067\u3059\u304c": 2342,
    "\u5dee": 2343,
    "\u2581\u7d50\u69cb": 2344,
    "\u5e30": 2345,
    "\u3044\u3063\u3071\u3044": 2346,
    "\u30af\u30bd": 2347,
    "\u4eba\u9054": 2348,
    "\u2581\u843d\u3061\u7740\u3044\u3066": 2349,
    "\u2581\u305d\u3093\u306a\u306e": 2350,
    "\u30d6\u30eb": 2351,
    "\u307e\u3067\u306f": 2352,
    "\u305f\u304b\u3063\u305f": 2353,
    "\u6700\u9ad8": 2354,
    "\u306e\u524d\u3067": 2355,
    "\u6050\u6016": 2356,
    "\u6bba\u3057": 2357,
    "\u2581\u4ed6": 2358,
    "\u4f55\u3067\u3082": 2359,
    "\u632f\u308a": 2360,
    "\u7fbd": 2361,
    "\u2581\u5927\u5909": 2362,
    "\u258112": 2363,
    "\u2581\u8ab0\u3060": 2364,
    "\u4eba\u751f\u3092": 2365,
    "\u4e88\u6e2c": 2366,
    "\u2581\u3044\u3084\u3044\u3084": 2367,
    "\u5730\u57df": 2368,
    "\u306e\u540d\u524d": 2369,
    "\u2581\u4ffa\u9054": 2370,
    "\u2581\u30a2\u30f3": 2371,
    "\u898b\u3048": 2372,
    "\u958b": 2373,
    "\u304b\u3088": 2374,
    "\u4e0a\u3067": 2375,
    "\u3092\u898b\u3064\u3051": 2376,
    "\u30e1\u30f3": 2377,
    "\u59b9": 2378,
    "\u8cc7\u91d1": 2379,
    "\u2581\u3075": 2380,
    "\u30d5\u30a3": 2381,
    "\u5ea7": 2382,
    "\u52c9\u5f37": 2383,
    "\u30cc": 2384,
    "\u6700\u5927\u306e": 2385,
    "\u5b9f\u969b\u306b": 2386,
    "\u30aa\u30f3": 2387,
    "\u96c6": 2388,
    "\u8cac\u4efb": 2389,
    "\u2581\u305d\u306e\u307e\u307e": 2390,
    "\u2581\u72af\u4eba": 2391,
    "\u2581\u81ea\u7136": 2392,
    "\u2581\u540d\u524d": 2393,
    "\u2581\u6700\u521d\u306b": 2394,
    "\u2581\u3048\u3047": 2395,
    "\u30a2\u30fc": 2396,
    "\u53d6\u3063\u3066": 2397,
    "\u3060\u308d\u3046\u306a": 2398,
    "\u304f\u308c\u3066": 2399,
    "\u5b9f": 2400,
    "\u8a31\u53ef": 2401,
    "\u3066\u304d\u305f": 2402,
    "\u30b5\u30a4\u30c8": 2403,
    "\u30c7\u30f3": 2404,
    "\u2581\u8ab0\u306b\u3082": 2405,
    "\u629c\u3051": 2406,
    "\u3042\u3042": 2407,
    "\u307e\u308a": 2408,
    "\u56de\u5fa9": 2409,
    "\u601d\u3044\u51fa": 2410,
    "\u6b21\u306e": 2411,
    "\u2581\u30a6": 2412,
    "\u6559\u6388": 2413,
    "\u4ee5\u4e0a\u306e": 2414,
    "\u2581A": 2415,
    "\u7acb\u3063\u3066": 2416,
    "\u266a": 2417,
    "\u8155": 2418,
    "\u2581\u6b21": 2419,
    "\u30a2\u30c3\u30d7": 2420,
    "\u2581\u6575": 2421,
    "\u6b66\u5668": 2422,
    "\u2581\u3046\u307e\u304f": 2423,
    "\u610f": 2424,
    "\u539f\u56e0": 2425,
    "\u2581\u6b7b\u306c": 2426,
    "\u30a4\u30e1\u30fc\u30b8": 2427,
    "\u306a\u3044\u3088\u3046\u306b": 2428,
    "\u30d0\u30e9": 2429,
    "\u30d4": 2430,
    "\u30ad\u30f3": 2431,
    "\u4f4f\u6240": 2432,
    "\u2581\u3044\u304f\u3089": 2433,
    "\u8a00\u3063\u3066\u308b": 2434,
    "\u63a2": 2435,
    "\u3056": 2436,
    "\u2581\u3042\u306a\u305f\u3068": 2437,
    "\u3057\u3066\u308b\u3093\u3060": 2438,
    "\u2581\u3088\u308d\u3057\u304f": 2439,
    "\u2581\u9023\u7d61": 2440,
    "\u77e5\u3089\u305b": 2441,
    "\u4ed8\u304d": 2442,
    "\u306e\u304b\u3057\u3089": 2443,
    "\u6e80\u8db3": 2444,
    "\u3082\u3089\u3063\u3066": 2445,
    "\u30d0\u30b9": 2446,
    "\u30db": 2447,
    "\u4e8b\u3082": 2448,
    "\u306b\u3064\u3044\u3066\u306f": 2449,
    "\u2581\u60c5\u5831": 2450,
    "\u3060\u3068\u601d\u3044\u307e\u3059": 2451,
    "\u2581\u671d": 2452,
    "\u6b69\u3044\u3066": 2453,
    "\u30da\u30f3": 2454,
    "\u66f8\u304d": 2455,
    "\u2581\u8cb4\u69d8": 2456,
    "\u2581\u30a2\u30eb": 2457,
    "\u3079\u304d\u3060": 2458,
    "\u4efb": 2459,
    "\u2581\u3048\u3063\u3068": 2460,
    "\u77e5\u8b58": 2461,
    "\u7389": 2462,
    "\u907a\u4f1d\u5b50": 2463,
    "\u304f\u308c\u306a\u3044\u304b": 2464,
    "\u2581\u304a\u304b\u3057\u3044": 2465,
    "\u2014": 2466,
    "\u30a2\u30d1\u30fc\u30c8": 2467,
    "\u3042\u3052\u308b": 2468,
    "\u5473\u65b9": 2469,
    "\u2581\u65e5\u672c": 2470,
    "\u9006": 2471,
    "\u2581\u4ffa\u9054\u306f": 2472,
    "\u9577\u3044": 2473,
    "\u2581\u3044\u308d\u3044\u308d": 2474,
    "\u8bf4": 2475,
    "\u30b6\u30fc": 2476,
    "\u306e\u9593\u306b": 2477,
    "\u3082\u306e\u3067": 2478,
    "\u6620\u50cf": 2479,
    "\u5236\u5fa1": 2480,
    "\u2581\u3042\u3063\u3061": 2481,
    "\u51fa\u305b": 2482,
    "\u8a8d\u8b58": 2483,
    "\u2581\u672c\u5f53\u306e": 2484,
    "\u2581\u3053\u3053\u306b\u3044\u308b": 2485,
    "\u2581\u3069\u3046\u3044\u3046": 2486,
    "\u5acc": 2487,
    "\u8003\u3048\u3066\u308b": 2488,
    "\u4f7f\u3048\u308b": 2489,
    "\u771f\u5b9f": 2490,
    "\u2581\u2014": 2491,
    "\u7537\u3060": 2492,
    "\u4eba\u3068\u3082": 2493,
    "\u4e95": 2494,
    "\u2581\u3069\u3046\u3060": 2495,
    "\u2581\u3053\u306e\u5b50": 2496,
    "\u9054\u306f": 2497,
    "\u2581\u304a\u3046": 2498,
    "\u5317": 2499,
    "\u30d1\u30ef\u30fc": 2500,
    "\u58c1": 2501,
    "\u5f31": 2502,
    "\u2581\u904e\u53bb": 2503,
    "\u2581\u4e0a": 2504,
    "\u2581\u8857": 2505,
    "\u5200": 2506,
    "\u306e\u305b\u3044": 2507,
    "\u30af\u30e9\u30d6": 2508,
    "\u304a\u524d\u306f": 2509,
    "\u5e78\u305b": 2510,
    "\u2581\u541b\u3068": 2511,
    "\u2581\u305f\u3063\u305f": 2512,
    "\u3068\u8a00\u3063\u3066": 2513,
    "\u2581\u6c7a\u3057\u3066": 2514,
    "\u308b\u3088": 2515,
    "\u5927\u5b66": 2516,
    "\u5efa\u7269": 2517,
    "\u2581\u767d": 2518,
    "\u65e9\u3044": 2519,
    "\u884c\u304d\u307e\u3059": 2520,
    "\u4fe1\u53f7": 2521,
    "\u2581\u79c1\u9054\u306e": 2522,
    "\u2581\u8a00\u3063\u305f": 2523,
    "\u9001\u308a": 2524,
    "\u8349": 2525,
    "\u2581\u6628\u591c": 2526,
    "\u3092\u77e5\u3063\u3066\u308b": 2527,
    "\u7269\u8cea": 2528,
    "\u2581\u30b7": 2529,
    "\u3064\u3082\u308a\u3060": 2530,
    "\u57fa\u5730": 2531,
    "\u3064\u3051\u3066": 2532,
    "\u639b\u3051": 2533,
    "z": 2534,
    "\u2581\u5206\u304b\u308b": 2535,
    "\u2581\u266c": 2536,
    "\u652f\u63f4": 2537,
    "\u2581\u6570": 2538,
    "\u3092\u5931\u3063\u305f": 2539,
    "\u3055\u3093\u3068": 2540,
    "\u3067\u3082\u306a\u3044": 2541,
    "\u30ce\u30fc": 2542,
    "\u6bce\u65e5": 2543,
    "R": 2544,
    "\u3067\u306d": 2545,
    "\u6271\u3044": 2546,
    "\u7530\u3055\u3093": 2547,
    "\u5417": 2548,
    "18": 2549,
    "\u3057\u3088\u3046\u3068": 2550,
    "\u30bf\u30a4\u30d7": 2551,
    "\u7834": 2552,
    "\u2581\u30ec": 2553,
    "\u3057\u305f\u306e\u3067\u3059": 2554,
    "\u3060\u3063\u305f\u306e": 2555,
    "\u2581\u72af\u4eba\u306f": 2556,
    "\u8a3c\u660e": 2557,
    "\u306a\u3044\u306e\u304b": 2558,
    "\u672c\u5f53": 2559,
    "\u2581\u30a6\u30bd": 2560,
    "\u5357": 2561,
    "\u4eba\u9593\u304c": 2562,
    "\u96fb": 2563,
    "\u7cbe\u795e": 2564,
    "\u2581\u7236\u89aa": 2565,
    "\u3068\u3044\u3063\u305f": 2566,
    "\u3060\u308d\u3046\u304c": 2567,
    "\u98f2\u307f": 2568,
    "\u8a18\u4e8b": 2569,
    "\u8003\u3048\u305f": 2570,
    "\u5f85\u3061": 2571,
    "\u5229\u7528": 2572,
    "\u2581\u4ee5\u524d": 2573,
    "\u3068\u3053\u308d\u3067": 2574,
    "\u30ab\u30f3": 2575,
    "\u2581\u304a\u4e92\u3044": 2576,
    "\u805e\u304d\u305f\u3044": 2577,
    "\u30e1\u30fc\u30c8\u30eb": 2578,
    "\u3075": 2579,
    "\u30d5\u30a1": 2580,
    "\u304c\u60aa\u3044": 2581,
    "\u98df\u3079": 2582,
    "\u91d1\u3092": 2583,
    "\u2581\u53e3": 2584,
    "\u30ab\u30e1\u30e9": 2585,
    "\u30af\u30e9": 2586,
    "\u2581\u793e\u9577": 2587,
    "\u50cf": 2588,
    "\u75c7": 2589,
    "\u5c45\u308b": 2590,
    "\u2581\u8239": 2591,
    "\u8fd4": 2592,
    "\u5bae": 2593,
    "\u30bc": 2594,
    "\u2581\u30cf\u30a4": 2595,
    "\u540c": 2596,
    "N": 2597,
    "\u4ea4\u63db": 2598,
    "\u5e02": 2599,
    "\u3064\u3044\u305f": 2600,
    "\u2581\u59b9": 2601,
    "\u306b\u3042\u3063\u305f": 2602,
    "\u8a00\u308f\u306a\u3044": 2603,
    "\u751f\u547d": 2604,
    "\u30af\u30b9": 2605,
    "\u73ed": 2606,
    "\u2581\u304b\u308f\u3044\u3044": 2607,
    "\u2581\u7a7a": 2608,
    "\u30ad\u30f3\u30b0": 2609,
    "\u2581\u75db\u3044": 2610,
    "\u2581\u3042\u308a\u304c\u3068\u3046\u3054\u3056\u3044\u307e\u3057\u305f": 2611,
    "\u9999": 2612,
    "\u7528\u306e": 2613,
    "\u2581\u8d64": 2614,
    "\u2581\u3086\u3063\u304f\u308a": 2615,
    "\u2581\u898b\u305f": 2616,
    "\u4f1a\u8a71": 2617,
    "\u2581\u8d85": 2618,
    "\u3082\u306a\u304f": 2619,
    "\u2581\u843d\u3061\u7740\u3051": 2620,
    "\u697d\u3057\u3044": 2621,
    "\u30ad\u30b9": 2622,
    "\u6a5f\u95a2": 2623,
    "\u672a": 2624,
    "\u3081\u308b": 2625,
    "\u904e\u53bb": 2626,
    "\u2581\u3044\u3064\u3067\u3082": 2627,
    "\u4eba\u53e3": 2628,
    "\u2581\u6bba\u4eba": 2629,
    "\u52d5\u304f": 2630,
    "\u624b\u8853": 2631,
    "\u52dd\u5229": 2632,
    "\u2581\u3053\u3093\u306a\u306b": 2633,
    "\u2581\u6025\u306b": 2634,
    "O": 2635,
    "\u306e\u554f\u984c": 2636,
    "\u7528\u610f": 2637,
    "\u306e\u540d\u524d\u306f": 2638,
    "\u98df\u3079\u3066": 2639,
    "\u6b7b\u306b": 2640,
    "\u6559": 2641,
    "\u306e\u5bb6": 2642,
    "\u2581\u3055\u3059\u304c": 2643,
    "\u8ab0\u304c": 2644,
    "\u2581\u9ed2": 2645,
    "\u2581\u6728": 2646,
    "\u30ef\u30f3": 2647,
    "\u30fc\u30f3": 2648,
    "\u30d5\u30a1\u30a4\u30eb": 2649,
    "\u2581\u90e8\u5c4b": 2650,
    "\u66f8\u3044\u3066": 2651,
    "\u2581\u30cb\u30e5\u30fc\u30e8\u30fc\u30af": 2652,
    "\u306b\u5165\u308b": 2653,
    "\u8b70\u54e1": 2654,
    "\u30a6\u30a3": 2655,
    "\u3081\u3066": 2656,
    "\u5927\u4e08\u592b\u3060": 2657,
    "\u5927\u4eba": 2658,
    "\u4fbf": 2659,
    "\u30ec\u30b9": 2660,
    "\u9b54\u6cd5": 2661,
    "\u3064\u3044\u3066": 2662,
    "\u2581\u9762\u767d\u3044": 2663,
    "90": 2664,
    "\u9078\u624b": 2665,
    "\u53f3": 2666,
    "\u9593\u9055\u3044": 2667,
    "\u53e4\u3044": 2668,
    "\u2581\u305d\u3057\u305f\u3089": 2669,
    "\u5229\u76ca": 2670,
    "\u5206\u304b\u308a\u307e\u305b\u3093": 2671,
    "\u3072\u3069\u3044": 2672,
    "\u624d\u80fd": 2673,
    "\u30ec\u30fc": 2674,
    "\u2581\u6016\u3044": 2675,
    "\u7406": 2676,
    "\u606f": 2677,
    "\u2581\u4f55\u3068\u304b": 2678,
    "\u547d\u3092": 2679,
    "\u6ca1": 2680,
    "\u2581\u6301\u3063\u3066": 2681,
    "\u3042\u305f\u308a": 2682,
    "\u00b7": 2683,
    "\u2581\u3093": 2684,
    "\u7d75": 2685,
    "\u3057\u305f\u304f\u306a\u3044": 2686,
    "\u2581\u6614": 2687,
    "\u30c6\u30a3\u30fc": 2688,
    "\u2581\u5f1f": 2689,
    "\u306e\u3055": 2690,
    "\u90e8\u968a": 2691,
    "\u306a\u3093": 2692,
    "\u30d4\u30fc": 2693,
    "\u81ea": 2694,
    "\u8ab0\u304b\u304c": 2695,
    "\u696d": 2696,
    "\u2581\u5f01\u8b77\u58eb": 2697,
    "\u30c1\u30e3\u30f3\u30b9": 2698,
    "\u3092\u6301\u3061": 2699,
    "\u306b\u95a2\u3057\u3066": 2700,
    "\u306e\u5199\u771f": 2701,
    "\u30bb\u30c3\u30c8": 2702,
    "\u5165\u3063\u305f": 2703,
    "\u2581\u30df\u30b9\u30bf\u30fc": 2704,
    "\u3067\u304d\u306a\u304b\u3063\u305f": 2705,
    "\u30de\u30a4\u30af": 2706,
    "\u635c\u7d22": 2707,
    "\u8a55\u4fa1": 2708,
    "\u2581\u5411\u3053\u3046": 2709,
    "\u8001": 2710,
    "\u604b": 2711,
    "\u652f\u914d": 2712,
    "\u81ea\u8eab": 2713,
    "\u9ed2": 2714,
    "\u2581\u305f\u304f\u3055\u3093": 2715,
    "\u63a5": 2716,
    "\u5f53": 2717,
    "\u30eb\u30fc": 2718,
    "\u306b\u898b\u3048\u308b": 2719,
    "\u9032\u3081": 2720,
    "\u66ae\u3089\u3057": 2721,
    "\u2581\u30b8\u30a7\u30fc\u30f3": 2722,
    "\u30b3\u30fc\u30c9": 2723,
    "\u2581\u4e16\u754c\u306e": 2724,
    "\u2581\u6b7b": 2725,
    "\u751f\u304d\u308b": 2726,
    "\u7acb\u3066": 2727,
    "\u304c\u3042\u308b\u3093\u3060": 2728,
    "\u5f85\u3066": 2729,
    "\u81ea\u5df1": 2730,
    "re": 2731,
    "\u6211\u3005": 2732,
    "\u4f4f": 2733,
    "\u2581\u30ec\u30c3\u30c9": 2734,
    "\u51fa\u8eab": 2735,
    "\u2581\u3053\u308c\u3082": 2736,
    "\u305f\u304f\u3055\u3093": 2737,
    "\u2581\u5148\u8f29": 2738,
    "\u2581\u3069\u3046\u305b": 2739,
    "\u95a2\u5fc3": 2740,
    "\u30cd\u30c3\u30c8": 2741,
    "\u306b\u306a\u308a\u305f\u3044": 2742,
    "\u540c\u69d8": 2743,
    "\u30ac\u30b9": 2744,
    "\u6848": 2745,
    "\u2581I": 2746,
    "\u9053\u5177": 2747,
    "\u8a00\u3063\u3066\u305f": 2748,
    "\u53d6\u308b": 2749,
    "\u76ee\u6a19": 2750,
    "\u2212": 2751,
    "\u30d5\u30a3\u30fc\u30eb\u30c9": 2752,
    "\u69d8\u5b50": 2753,
    "\u5b88": 2754,
    "\u3092\u901a\u3057\u3066": 2755,
    "\u53e4": 2756,
    "\u2581\u541b\u3082": 2757,
    "\u6e90": 2758,
    "\u306b\u5411\u304b\u3063\u3066": 2759,
    "\u3063\u3051": 2760,
    "\u624b\u306b": 2761,
    "\u3059\u3089": 2762,
    "\u8449": 2763,
    "\u4e8b\u5b9f": 2764,
    "\u96e8": 2765,
    "\u56fd\u306e": 2766,
    "\u7121\u304b\u3063\u305f": 2767,
    "\u713c\u304d": 2768,
    "\u307f\u308b": 2769,
    "\u969b": 2770,
    "\u66f8\u3044\u305f": 2771,
    "\u53d6": 2772,
    "\u2581\u547d": 2773,
    "\u60c5": 2774,
    "\u306b\u623b\u3063\u3066": 2775,
    "\u4f55\u3060": 2776,
    "\u5bfe": 2777,
    "\u3084\u308a\u65b9": 2778,
    "\u2581\u307b": 2779,
    "\u3093\u306e\u304b": 2780,
    "\u2581\u3053\u308c\u307e\u3067": 2781,
    "\u306e\u624b": 2782,
    "\u6d88\u3048": 2783,
    "\u2581\u30d2": 2784,
    "\u5e73\u548c": 2785,
    "\u65c5\u884c": 2786,
    "\u6625": 2787,
    "\u30c7\u30a3\u30fc": 2788,
    "\u7aef": 2789,
    "\u6c7a\u3081": 2790,
    "\u2581\u30de\u30a4\u30af": 2791,
    "\u2581\u308f\u304b\u308b": 2792,
    "\u5168": 2793,
    "\u4fe1": 2794,
    "\u96e2\u308c\u3066": 2795,
    "\u4e71": 2796,
    "\u2581\u6226\u4e89": 2797,
    "\u5642": 2798,
    "\u2581\u305d\u3093\u306a\u4e8b": 2799,
    "\u2581\u5206\u304b\u308a\u307e\u3057\u305f": 2800,
    "\u8907\u96d1\u306a": 2801,
    "\u3092\u63a2\u3059": 2802,
    "\u30e9\u30dc": 2803,
    "\u30b9\u30d1\u30a4": 2804,
    "\u552f\u4e00\u306e": 2805,
    "\u3057\u3066\u3084\u308b": 2806,
    "\u2581\u8a00\u3044": 2807,
    "\u2581\u30b3\u30fc\u30d2\u30fc": 2808,
    "\u866b": 2809,
    "\u5909\u308f\u3063\u305f": 2810,
    "\u898b\u3066\u308b": 2811,
    "\u2581\u5a18": 2812,
    "\u2581\u3055\u3063\u3055\u3068": 2813,
    "\u4e00\u676f": 2814,
    "\u2581\u5bb6\u306b": 2815,
    "\u4e16\u4ee3": 2816,
    "\u2581\u5909\u306a": 2817,
    "\u30d6\u30ea": 2818,
    "\u2581\u554f\u984c\u306f": 2819,
    "\u4e00\u4eba\u3067": 2820,
    "\u30b8\u30e3\u30fc": 2821,
    "\u304a\u308a": 2822,
    "\u590f": 2823,
    "\u306a\u3093\u3060\u304b\u3089": 2824,
    "\u306e\u3067\u3059\u304b": 2825,
    "\u5927\u304d\u304f": 2826,
    "\u2581\u30b8\u30e3": 2827,
    "\u3046\u3061\u306b": 2828,
    "\u623b\u3063\u305f": 2829,
    "\u8def": 2830,
    "\u2581\u30b8\u30e7\u30fc": 2831,
    "\u8a71\u3057": 2832,
    "\u2581\u30dc\u30af": 2833,
    "\u2581\u73fe\u5b9f": 2834,
    "\u305f\u304f": 2835,
    "\u9577\u304f": 2836,
    "\u2581M": 2837,
    "\u5f15": 2838,
    "\u306e\u4e0a\u306b": 2839,
    "\u3092\u53d6\u3063\u3066": 2840,
    "\u2581\u5e38\u306b": 2841,
    "\u30f4\u30a3": 2842,
    "\u2581\u8d64\u3061\u3083\u3093": 2843,
    "\u305f\u306e\u304b": 2844,
    "\u3060\u3088\u306d": 2845,
    "\u2581\u305d\u3053\u307e\u3067": 2846,
    "\u7d76\u5bfe": 2847,
    "\u3072\u3068\u3064": 2848,
    "\u304f\u3066": 2849,
    "\u2581\u793e\u4f1a": 2850,
    "\u3044\u3046": 2851,
    "\u6559\u5e2b": 2852,
    "\u3044\u308b\u306e\u3067\u3059": 2853,
    "\u306e\u4e16\u754c": 2854,
    "\u98db\u884c\u6a5f": 2855,
    "\u671f\u5f85": 2856,
    "\u5f37": 2857,
    "\u7570": 2858,
    "\u9650\u754c": 2859,
    "\u904b\u547d": 2860,
    "\u7f70": 2861,
    "\u6d88\u3048\u305f": 2862,
    "\u307e\u305a": 2863,
    "\u3057\u305f\u306e\u304b": 2864,
    "\u30e2\u30ce": 2865,
    "\u305f\u308f": 2866,
    "\u2581\u52a9\u3051": 2867,
    "\u6700\u9ad8\u306e": 2868,
    "\u6975": 2869,
    "\u2581\u3053\u3053\u307e\u3067": 2870,
    "\u30c0\u30f3": 2871,
    "\u2581\u78ba\u304b": 2872,
    "\u2581\u5973\u306e\u5b50": 2873,
    "\u8077": 2874,
    "\u6b6f": 2875,
    "\u5fc3\u3092": 2876,
    "\u767a\u8868": 2877,
    "\u2581\u8a3c\u62e0": 2878,
    "\u2581\u6211\u304c": 2879,
    "\u8ab2\u984c": 2880,
    "\u4e8b\u60c5": 2881,
    "\u5fc5\u8981\u304c\u3042\u308a\u307e\u3059": 2882,
    "\u5909\u308f\u308b": 2883,
    "\u66f8\u985e": 2884,
    "\u3058\u3083\u306a\u304f": 2885,
    "\u51fa\u3066": 2886,
    "\u2581\u5f7c\u3068": 2887,
    "\u2581\u30d1": 2888,
    "\u307e\u3067\u306b": 2889,
    "\u901a\u4fe1": 2890,
    "\u5b66\u751f": 2891,
    "\u683c\u597d": 2892,
    "\u2581\u3053\u306e\u307e\u307e": 2893,
    "\u50cd\u304f": 2894,
    "\u5fcd": 2895,
    "\u4f53\u9a13": 2896,
    "\u79c1\u305f\u3061\u304c": 2897,
    "DNA": 2898,
    "\u5e02\u6c11": 2899,
    "\u3051\u308c\u3069": 2900,
    "\u306e\u3053\u3068\u3067\u3059": 2901,
    "\u30c1\u30e3\u30fc": 2902,
    "\u30b7\u30f3": 2903,
    "\u9003\u3052\u305f": 2904,
    "\u2581\u30c1\u30e3": 2905,
    "\u3063\u3066\u3044\u307e\u3059": 2906,
    "\u793a": 2907,
    "\u4eba\u985e": 2908,
    "\u7ba1": 2909,
    "\u2581\u5144": 2910,
    "\u306e\u9854": 2911,
    "\u9280\u884c": 2912,
    "\u7206\u767a": 2913,
    "\u6d3e": 2914,
    "\u5185\u5bb9": 2915,
    "\u30b8\u30e3\u30c3\u30af": 2916,
    "\u5b89\u5fc3": 2917,
    "\u60f3\u50cf": 2918,
    "\u4e4b": 2919,
    "\u2581\u643a\u5e2f": 2920,
    "\u30cf\u30f3": 2921,
    "\u2581\u306a\u304b\u306a\u304b": 2922,
    "\u2581\u3044\u3044\u305e": 2923,
    "\u306e\u90e8\u5c4b": 2924,
    "\u3060\u304b\u3089\u306a": 2925,
    "\u3044\u3044\u306e\u304b": 2926,
    "\u30c3\u30c9": 2927,
    "\u2581\u30aa\u30fc": 2928,
    "\u2581\u30ed\u30fc": 2929,
    "\u258118": 2930,
    "\u30da\u30fc\u30b8": 2931,
    "\u7acb\u5834": 2932,
    "\u30c1\u30c3\u30d7": 2933,
    "\u2581\u609f\u7a7a": 2934,
    "\u98df\u3079\u308b": 2935,
    "\u2581\u4fe1\u3058\u3089\u308c\u306a\u3044": 2936,
    "\u2581\u5148": 2937,
    "\u5e30\u308a": 2938,
    "\u9032": 2939,
    "\u30af\u30e9\u30b9": 2940,
    "\u601d\u3063\u305f": 2941,
    "\u3044\u308b\u304b": 2942,
    "\u95a2\u9023": 2943,
    "\u3042\u3052": 2944,
    "\u3059\u3079\u3066\u306e": 2945,
    "\u305d\u308c\u3067": 2946,
    "\u305d\u3093\u306a\u306b": 2947,
    "\u2581\u4eca\u56de\u306f": 2948,
    "\u53c2": 2949,
    "\u306b\u306a\u308c\u308b": 2950,
    "\u306b\u306a\u308b\u3068": 2951,
    "I": 2952,
    "\u2581\u306f\u3063\u304d\u308a": 2953,
    "\u65b9\u6cd5\u306f": 2954,
    "\u2581\u3044\u3044\u308f": 2955,
    "\u51fa\u308b": 2956,
    "\u5834\u6240\u3092": 2957,
    "/": 2958,
    "\u4ffa\u3092": 2959,
    "\u2581\u7121": 2960,
    "\u308b\u3088\u3046\u306b": 2961,
    "\u306f\u3069\u3046\u3060": 2962,
    "\u3044\u308b\u3093\u3060": 2963,
    "\u2581\u660e\u3089\u304b\u306b": 2964,
    "\u6a39": 2965,
    "\u6bba\u3055\u308c\u308b": 2966,
    "\u2581\u51fa\u3066": 2967,
    "\u59cb\u3081\u3066": 2968,
    "\u6563": 2969,
    "\u805e\u304d": 2970,
    "\u9ad8\u304f": 2971,
    "\u8eab\u4f53": 2972,
    "\u970a": 2973,
    "\u60aa\u304f": 2974,
    "\u3084\u308a\u305f\u3044": 2975,
    "\u3044\u308b\u3068": 2976,
    "\u4ef2": 2977,
    "\u30d0\u30c3\u30af": 2978,
    "\u82e5\u3044": 2979,
    "\u505c\u6b62": 2980,
    "\u6d41\u308c": 2981,
    "\u7b11\u3044": 2982,
    "\u5409": 2983,
    "\u5927\u5909": 2984,
    "\u6614": 2985,
    "\u6765\u307e\u3057\u305f": 2986,
    "\u30b7\u30a2": 2987,
    "\u300e": 2988,
    "\u2581\u30bf": 2989,
    "\u306b\u5165\u3063\u3066": 2990,
    "\u914d": 2991,
    "\u3053\u3061\u3089": 2992,
    "\u811a": 2993,
    "\u3061\u3083\u3063\u3066": 2994,
    "X": 2995,
    "\u77e5\u3063\u3066": 2996,
    "\u4ed6\u306b": 2997,
    "\u5207": 2998,
    "\u8fd4\u3059": 2999,
    "\u304d\u3063\u3068": 3000,
    "\u2581\u305d\u3053\u304b\u3089": 3001,
    "\u5411\u3051": 3002,
    "\u3092\u53d6\u308b": 3003,
    "\u77e5\u3089\u306a\u304b\u3063\u305f": 3004,
    "\u2581\u8272\u3005": 3005,
    "\u2581\u30c9\u30a2": 3006,
    "\u3063\u3066\u3044\u305f": 3007,
    "\u6bd2": 3008,
    "\u2581\u52dd\u624b\u306b": 3009,
    "\u8d85": 3010,
    "\u5c06\u6765": 3011,
    "\u2581\u8a00\u3046": 3012,
    "\u3086": 3013,
    "\u306f\u3068\u3066\u3082": 3014,
    "\u591a\u3044": 3015,
    "\u50d5\u304c": 3016,
    "\u2581\u4eba\u751f": 3017,
    "\u9032\u5316": 3018,
    "\u30e9\u30b9": 3019,
    "\u9996": 3020,
    "\u30b3\u30f3\u30d4\u30e5\u30fc\u30bf": 3021,
    "\u6025": 3022,
    "\u2581\u3061\u3087": 3023,
    "\u6642\u671f": 3024,
    "\u8cbb": 3025,
    "\u306a\u304b\u3063\u305f\u3089": 3026,
    "\u8a00\u3046\u306a": 3027,
    "\u5834\u6240\u306f": 3028,
    "\u2581\u30aa\u30ec\u306e": 3029,
    "\u2581\u9003\u3052": 3030,
    "H": 3031,
    "\u3060\u3051\u304c": 3032,
    "\u2581\u898b\u3064\u3051\u305f": 3033,
    "\u6642\u9593\u306f": 3034,
    "\u5f7c\u3089": 3035,
    "\u6211\u3005\u304c": 3036,
    "\u3054\u3068": 3037,
    "\u2581\u60aa": 3038,
    "\u53d7\u3051": 3039,
    "\u30cf\u30a4": 3040,
    "\u2581\u30af": 3041,
    "\u308b\u3079\u304d": 3042,
    "\u672c\u5f53\u306e": 3043,
    "\u3051\u3069\u306d": 3044,
    "\u4eba\u9593\u306e": 3045,
    "\u533a": 3046,
    "\u52dd\u3064": 3047,
    "\u8ad6": 3048,
    "\u2581\u3046\u30fc\u3093": 3049,
    "\u3058\u3083\u306a\u3044\u306e": 3050,
    "\u7a81\u304d": 3051,
    "\u8cb7\u3063\u305f": 3052,
    "25": 3053,
    "\u3092\u4e0e\u3048\u308b": 3054,
    "\u3063\u3066\u4e8b": 3055,
    "\u58f2\u308a": 3056,
    "\u30c3\u30d7": 3057,
    "\u2581\u30d3\u30eb": 3058,
    "\u2581\u69d8\u3005\u306a": 3059,
    "\u308c\u3066": 3060,
    "\u751f\u7523": 3061,
    "\u5206\u3067": 3062,
    "\u88fd\u54c1": 3063,
    "\u2581\u30b8\u30a7": 3064,
    "\u3067\u3082\u3042\u308b": 3065,
    "\u6838": 3066,
    "\u7570\u306a\u308b": 3067,
    "\u52dd\u3061": 3068,
    "\u3069\u3053": 3069,
    "\u897f": 3070,
    "\u5e83": 3071,
    "\u306a\u3044\u304b\u3089": 3072,
    "\u3092\u5909\u3048\u308b": 3073,
    "\u8fd1\u3044": 3074,
    "\u2581\u672c\u5f53\u306f": 3075,
    "\u30b3\u30f3\u30c8\u30ed\u30fc\u30eb": 3076,
    "\u306f\u3053\u306e": 3077,
    "\u2581\u305f\u3068\u3048": 3078,
    "\u2581\u6700\u9ad8": 3079,
    "\u8266": 3080,
    "\u6700\u5f8c": 3081,
    "\u6311\u6226": 3082,
    "\u5dee\u3057": 3083,
    "\u2581\u6620\u753b": 3084,
    "\u4e0b\u306b": 3085,
    "\u2581\u306a\u3093\u3068": 3086,
    "\u8a00\u3048\u3070": 3087,
    "\u708e": 3088,
    "\u2581\u5317": 3089,
    "\u53c2\u52a0": 3090,
    "\u52dd\u8ca0": 3091,
    "\u5168\u4f53": 3092,
    "\u53ef": 3093,
    "\u3092\u53d7\u3051\u305f": 3094,
    "\u3068\u306f\u9055\u3046": 3095,
    "\u306e\u3082\u306e": 3096,
    "\u2581\u79c1\u9054\u304c": 3097,
    "\u2581\u5165\u3063\u3066": 3098,
    "\u6b7b\u4ea1": 3099,
    "\u6bba\u3055\u308c\u305f": 3100,
    "dna": 3101,
    "\u2581\u3084\u306f\u308a": 3102,
    "\u306b\u3057\u305f": 3103,
    "\u2581\u30a2\u30fc": 3104,
    "?\u300b": 3105,
    "\u306b\u306a\u3089\u306a\u3044": 3106,
    "\u9152": 3107,
    "\u3057\u305f\u3053\u3068": 3108,
    "\u3082\u7121\u3044": 3109,
    "\u8a71\u305b": 3110,
    "\u308a\u307e\u3057\u305f": 3111,
    "\u6c17\u3065\u3044\u305f": 3112,
    "\u5bfe\u5fdc": 3113,
    "\u610f\u898b": 3114,
    "\u5927\u52e2": 3115,
    "\u5371\u967a\u306a": 3116,
    "\u305b\u3044": 3117,
    "\u6642\u306e": 3118,
    "\u77e2": 3119,
    "\u30c7\u30fc\u30c8": 3120,
    "\u5b9f\u73fe": 3121,
    "\u306e\u524d\u306b": 3122,
    "\u2581\u4f60": 3123,
    "\u62bc\u3057": 3124,
    "\u2581\u4e00\u4eba\u3067": 3125,
    "\u306e\u4ef6": 3126,
    "\u6c37": 3127,
    "\u753b\u50cf": 3128,
    "\u5f31\u3044": 3129,
    "\u672b": 3130,
    "\u3044\u305f\u3093\u3060": 3131,
    "\u4fc2": 3132,
    "\u5c0f\u3055\u3044": 3133,
    "\u2581\u3084\u3041": 3134,
    "\u2581\u3069\u3046\u3057\u3088\u3046": 3135,
    "\u306d\u3048\u3088": 3136,
    "\u2581\u5b50\u4f9b\u305f\u3061": 3137,
    "\u88ab\u5bb3\u8005": 3138,
    "\u2581\u3046\u308f": 3139,
    "\u2581\u635c\u67fb": 3140,
    "\u6280": 3141,
    "\u3092\u53d7\u3051": 3142,
    "\u3059\u308b\u4e8b": 3143,
    "\u5b50\u3069\u3082": 3144,
    "\u304c\u898b\u3048\u308b": 3145,
    "\u2581\u597d\u304d\u306a": 3146,
    "\u2581\u68ee": 3147,
    "\u4ffa\u305f\u3061": 3148,
    "\u5de6": 3149,
    "\u843d": 3150,
    "\u305f\u306e\u306f": 3151,
    "\u3067\u3044\u3044": 3152,
    "\u5834\u6240\u3067": 3153,
    "\u30d3\u30b8\u30cd\u30b9": 3154,
    "\u2581\u3053\u3046\u3057\u3066": 3155,
    "\u5b89": 3156,
    "\u2581\u6025\u3052": 3157,
    "\u983c\u3093\u3060": 3158,
    "\u751f\u304d\u3066": 3159,
    "\u3053\u308d": 3160,
    "\u4e8b\u3067\u3059": 3161,
    "\u6298": 3162,
    "\u2581\u4ffa\u306b\u306f": 3163,
    "\u7fa9": 3164,
    "\u8a2d\u8a08": 3165,
    "\u5b8c\u4e86": 3166,
    "\u2581\u305d\u3063\u304b": 3167,
    "\u30c3\u30b7\u30e5": 3168,
    "\u304c\u6765\u308b": 3169,
    "\u902e\u6355": 3170,
    "\u81ea\u5206\u304c": 3171,
    "\u3060\u3063\u305f\u304b\u3089": 3172,
    "\u306f\u3044\u306a\u3044": 3173,
    "\u2581\u304b\u3064\u3066": 3174,
    "\u2581\u4eca\u5ea6": 3175,
    "\u65b9\u5411": 3176,
    "\u65b9\u306f": 3177,
    "\u7c21\u5358\u306b": 3178,
    "\u2581\u82b1": 3179,
    "\u6642\u306b\u306f": 3180,
    "\u5462": 3181,
    "\u516c\u958b": 3182,
    "\u78ba\u4fe1": 3183,
    "\u3068\u304d\u306f": 3184,
    "\u3078\u3093": 3185,
    "\u2581\u6bba\u3059": 3186,
    "\u4e00\u4f53": 3187,
    "\u3082\u3089\u3048\u308b": 3188,
    "\u2581\u3084\u3081": 3189,
    "\u2581\u4ed6\u306b\u3082": 3190,
    "\u3070\u3063\u304b\u308a": 3191,
    "\u30c6\u30fc\u30d7": 3192,
    "\u7121\u3057": 3193,
    "\u2581\u3084\u3063\u3071": 3194,
    "\u306b\u6765\u308b": 3195,
    "\u5230\u7740": 3196,
    "\u30d6\u30e9": 3197,
    "\u258150": 3198,
    "\u3067\u3057\u3087\u3046\u306d": 3199,
    "\u65e5\u9593": 3200,
    "\u643a\u5e2f": 3201,
    "\u2581S": 3202,
    "\u3059\u308b\u3053\u3068\u3067": 3203,
    "\u984d": 3204,
    "\u53d7": 3205,
    "\u30d0\u30c3\u30b0": 3206,
    "\u5897": 3207,
    "\u756a\u7d44": 3208,
    "\u305f\u304b": 3209,
    "\u52d5\u304b": 3210,
    "\u81ed\u3044": 3211,
    "\u3092\u6301\u3063\u305f": 3212,
    "\u534a\u5206": 3213,
    "\u2581\u6642\u3005": 3214,
    "\u30e1\u30c3\u30bb\u30fc\u30b8": 3215,
    "\u3063\u3066\u4f55": 3216,
    "\u304a\u524d\u304c": 3217,
    "\u52aa\u529b": 3218,
    "\u2581\u4e8b\u6545": 3219,
    "\u304a\u304b\u3057\u3044": 3220,
    "\u904b\u8ee2": 3221,
    "\u8105\u5a01": 3222,
    "\u5e74\u524d\u306e": 3223,
    "\u98df\u4e8b": 3224,
    "\u2581\u30cf\u30a1": 3225,
    "\u4e0d\u5b89": 3226,
    "\u3082\u540c\u3058": 3227,
    "\u2581\u307b\u3093\u3068": 3228,
    "\u30d5\u30a1\u30fc": 3229,
    "\u2581\u6700\u9ad8\u306e": 3230,
    "\u4e16\u754c\u306e": 3231,
    "\u4e00\u5ea6": 3232,
    "\u3072\u3068\u308a": 3233,
    "\u3063\u3066\u306e\u306f": 3234,
    "\u65e9": 3235,
    "\u304a\u3044": 3236,
    "\u3048\u3048": 3237,
    "\u666e\u901a": 3238,
    "\u8003\u3048\u65b9": 3239,
    "\u6642\u9593\u304c": 3240,
    "\u2581\u3042\u306a\u305f\u306b\u306f": 3241,
    "\u9001\u3063\u3066": 3242,
    "\u2581\u30de\u30a4\u30b1\u30eb": 3243,
    "\u533b\u5e2b": 3244,
    "\u306e\u6642": 3245,
    "\u30c7\u30fc\u30bf\u3092": 3246,
    "\u4e21\u89aa": 3247,
    "\u98db\u884c": 3248,
    "\u2581\u304a\u524d\u3092": 3249,
    "\u5225": 3250,
    "\u5168\u304f": 3251,
    "\u77e5\u3063\u3066\u305f": 3252,
    "\u501f\u308a": 3253,
    "\u2581\u30d8\u30a4": 3254,
    "\u5ead": 3255,
    "\u2581\u9ed9\u3063\u3066": 3256,
    "\u8fd1": 3257,
    "\u2581\u30d7\u30ed": 3258,
    "\u7537\u306f": 3259,
    "\u5f7c\u5973\u304c": 3260,
    "\u30d4\u30f3": 3261,
    "\u7d42\u308f\u308b": 3262,
    "\u306e\u304a\u304b\u3052\u3067": 3263,
    "\u2581\u30c0": 3264,
    "\u8033": 3265,
    "\u2581\u897f": 3266,
    "\u2581\u4e8c\u5ea6\u3068": 3267,
    "\u2581\u50d5\u306b": 3268,
    "\u2581\u89aa\u7236": 3269,
    "\u2581\u601d\u3046": 3270,
    "\u5f8c\u3067": 3271,
    "\u98f2\u3080": 3272,
    "\u9280": 3273,
    "\u51fa\u767a": 3274,
    "\u8d64\u3061\u3083\u3093": 3275,
    "\u2581\u3042\u3068\u306f": 3276,
    "\u4ffa\u9054": 3277,
    "\u623b\u3063\u3066\u304f\u308b": 3278,
    "\u4fe1\u7528": 3279,
    "\u306a\u308a\u307e\u3059": 3280,
    "\u5263": 3281,
    "\u6700\u521d\u306b": 3282,
    "\u5f7c\u5973\u306b": 3283,
    "\u4f9d\u983c": 3284,
    "\u3082\u3061\u308d\u3093": 3285,
    "\u3092\u63a2\u3057": 3286,
    "\u306e\u307f": 3287,
    "\u2581\u3044\u3044\u3084": 3288,
    "\u2581\u3042\u3044\u3064\u3089": 3289,
    "\u5b50\u4f9b\u305f\u3061": 3290,
    "\u2581\u706b": 3291,
    "\u9858\u3044": 3292,
    "\u85e4": 3293,
    "\u2581\u653b\u6483": 3294,
    "\u64ae\u5f71": 3295,
    "\u30d8": 3296,
    "\u3044\u308b\u306e\u306f": 3297,
    "\u2581\u4f53": 3298,
    "\u5217": 3299,
    "\u306a\u3044\u305e": 3300,
    "\u611b\u3059\u308b": 3301,
    "\u30c9\u30fc": 3302,
    "\u30b0\u30eb": 3303,
    "\u306a\u3093\u3060\u3051\u3069": 3304,
    "\u2581\u30d9\u30f3": 3305,
    "\u3069\u304a\u308a": 3306,
    "\u64cd\u4f5c": 3307,
    "\u3059\u308b\u306e\u3067\u3059": 3308,
    "\u8d77\u3053": 3309,
    "\u3057\u305f\u6642": 3310,
    "\u3093\u3060\u3063\u3066": 3311,
    "\u2581\u30b5\u30f3": 3312,
    "\u30b8\u30a7": 3313,
    "\u6307\u793a": 3314,
    "\u306b\u306a\u3063\u3066\u308b": 3315,
    "\u63d0\u4f9b": 3316,
    "\u4e0a\u304c\u3063\u3066": 3317,
    "\u65b9\u6cd5\u3067": 3318,
    "\u2581\u30ec\u30d9\u30eb": 3319,
    "\u601d": 3320,
    "\u8a00\u3048\u308b": 3321,
    "\u306b\u5165\u3063\u305f": 3322,
    "70": 3323,
    "\u983c\u3080": 3324,
    "\u304c\u6765\u305f": 3325,
    "\u2581\u307c\u304f": 3326,
    "\u30c7\u30b9": 3327,
    "\u602a\u7269": 3328,
    "\u547c\u3073": 3329,
    "\u30b7\u30e3\u30c4": 3330,
    "\u2581\u7236\u306f": 3331,
    "\u304a\u7236\u3055\u3093": 3332,
    "\u3093\u3067\u3059\u3088\u306d": 3333,
    "\u3088\u3046\u3060\u306a": 3334,
    "\u904e\u304e\u308b": 3335,
    "\u2581\u5211\u4e8b": 3336,
    "F": 3337,
    "\u305d\u3046\u3044\u3046": 3338,
    "\u4f4d\u7f6e": 3339,
    "\u8ced\u3051": 3340,
    "\u30c8\u30fc": 3341,
    "\u9375": 3342,
    "\u3046\u307e\u304f": 3343,
    "\u30f4\u30a1": 3344,
    "\u96f2": 3345,
    "\u306f\u79c1": 3346,
    "\u7d76": 3347,
    "\u2581\u8db3": 3348,
    "\u7363": 3349,
    "\u30b5\u30a4\u30f3": 3350,
    "17": 3351,
    "\u5973\u6027\u304c": 3352,
    "\u3046\u3093": 3353,
    "\u306e\u7814\u7a76": 3354,
    "\u6301\u3063\u3066\u3044\u308b": 3355,
    "\u2581\u6e96\u5099": 3356,
    "\u3044\u3044\u3088": 3357,
    "\u767a\u660e": 3358,
    "\u5d0e": 3359,
    "\u6b8b\u3063\u3066": 3360,
    "\u5b88\u308b": 3361,
    "\u2581\u30ca\u30eb\u30c8": 3362,
    "\u51fa\u6765\u305f": 3363,
    "\u306e\u58f0": 3364,
    "\u30c6\u30af\u30ce\u30ed\u30b8\u30fc": 3365,
    "\u53ef\u80fd\u306a": 3366,
    "\u2581\u3064\u3044\u306b": 3367,
    "\u2581\u4e2d\u56fd": 3368,
    "\u3063\u3061\u3083\u3046": 3369,
    "\u5909\u308f\u308a": 3370,
    "\u8ddd\u96e2": 3371,
    "\u3066\u3044\u307e\u3057\u305f": 3372,
    "\u7279\u5225": 3373,
    "\u7981\u6b62": 3374,
    "\u4f11\u307f": 3375,
    "\u985e": 3376,
    "\u5f7c\u3089\u306e": 3377,
    "\u3092\u4f5c\u3063\u305f": 3378,
    "\u53cd\u5bfe": 3379,
    "\u3044\u3064": 3380,
    "--": 3381,
    "\u5951\u7d04": 3382,
    "\u2581\u5371\u967a": 3383,
    "\u96e3": 3384,
    "\u304a\u304f": 3385,
    "\u57cb\u3081": 3386,
    "\u2581\u3044\u3044\u306d": 3387,
    "\u30c6\u30ed": 3388,
    "\u2581\u30a6\u30a9\u30eb\u30bf\u30fc": 3389,
    "\u9cf4": 3390,
    "\u2581\u30ab\u30e1\u30e9": 3391,
    "\u3068\u3067\u3082": 3392,
    "\u2581\u4eca\u591c\u306f": 3393,
    "\u72af\u7f6a\u8005": 3394,
    "\u9632": 3395,
    "\u306e\u8a71\u3092": 3396,
    "j": 3397,
    "\u2581\u5fc5\u8981": 3398,
    "\u2581\u304a\u3044\u3057\u3044": 3399,
    "\u2581\u672a\u6765": 3400,
    "\u305f\u304f\u3066": 3401,
    "\u96e2": 3402,
    "\u7d42\u4e86": 3403,
    "\u307b": 3404,
    "\u8179": 3405,
    "\u3088\u3046\u306b\u306a\u308a\u307e\u3057\u305f": 3406,
    "\u624b\u7d19": 3407,
    "\u51fa\u4f1a\u3063\u305f": 3408,
    "\u304f\u305b\u306b": 3409,
    "\u30d1\u30fc\u30c8\u30ca\u30fc": 3410,
    "\u8a08\u7b97": 3411,
    "\u8a00\u3063\u3066\u304f\u308c": 3412,
    "\u30db\u30fc\u30eb": 3413,
    "\u672c\u90e8": 3414,
    "\u2581\u305d\u3046\u3058\u3083\u306a\u3044": 3415,
    "\u3089\u308c\u307e\u3057\u305f": 3416,
    "\u30a6\u30a4\u30eb\u30b9": 3417,
    "\u82e5\u8005": 3418,
    "\u5e8a": 3419,
    "\u305b\u3088": 3420,
    "\u5206\u5b50": 3421,
    "\u7d20": 3422,
    "\u3092\u4f5c\u3063\u3066": 3423,
    "\u9774": 3424,
    "\u2581\u9ed9\u308c": 3425,
    "\u2581\u4e8b\u4ef6": 3426,
    "\u4ed8\u3044\u3066": 3427,
    "\u2581\u75c5\u6c17": 3428,
    "\u2581\u306f\u3063": 3429,
    "\u2581\u805e\u3044\u3066\u304f\u308c": 3430,
    "\u2581\u98a8": 3431,
    "\u8ecd\u968a": 3432,
    "\u2581\u305d\u3046\u3067\u3059": 3433,
    "\u2581\u4eca\u5f8c": 3434,
    "\u2581C": 3435,
    "\u6bb5\u968e": 3436,
    "\u6771": 3437,
    "\u2581\u5148\u306b": 3438,
    "\u5c64": 3439,
    "\u2581\u30d5\u30e9\u30f3\u30af": 3440,
    "\u2581\u672c\u7269\u306e": 3441,
    "\u2581\u826f\u304f": 3442,
    "\u5370": 3443,
    "\u5ea7\u3063\u3066": 3444,
    "\u2581\u305b\u3063\u304b\u304f": 3445,
    "\u30a2\u30ea": 3446,
    "\u6ce8\u610f": 3447,
    "\u9055\u3063\u305f": 3448,
    "16": 3449,
    "\u5177\u5408": 3450,
    "\u4f7f\u3063\u305f": 3451,
    "\u9b54": 3452,
    "\u56de\u308a": 3453,
    "\u30c9\u30f3": 3454,
    "\u82f1\u96c4": 3455,
    "\u58f2": 3456,
    "\u2581\u3069\u3063\u3061": 3457,
    "\u2581\u65b0\u305f\u306a": 3458,
    "\u6e08\u307f": 3459,
    "\u2581\u66f4\u306b": 3460,
    "\u7f72": 3461,
    "\u88cf": 3462,
    "\u3092\u4f5c\u308a": 3463,
    "\u30c0\u30e1\u3060": 3464,
    "\u304b\u304b\u3063\u3066": 3465,
    "\u2581\u4f55\u5ea6\u3082": 3466,
    "\u2581\u3069\u308c\u3060\u3051": 3467,
    "\u8d70": 3468,
    "\u2581\u666e\u901a": 3469,
    "\u5973\u738b": 3470,
    "\u2581\u541b\u305f\u3061": 3471,
    "\u2581\u82e5\u3044": 3472,
    "\u30a2\u30a4": 3473,
    "\u3057\u306a\u3051\u308c\u3070": 3474,
    "\u4f53\u3092": 3475,
    "\u7802": 3476,
    "\u614b\u5ea6": 3477,
    "\u3092\u5f15\u304d": 3478,
    "\u9020": 3479,
    "\u5236": 3480,
    "\u307f\u306a": 3481,
    "\u5909\u66f4": 3482,
    "\u2581\u305d\u3046\u3060\u3088": 3483,
    "\u4e00\u65e5": 3484,
    "\u2581\u304a\u524d\u305f\u3061": 3485,
    "\u308f\u3088\u306d": 3486,
    "\u751f\u304d\u3066\u308b": 3487,
    "\u7206\u5f3e": 3488,
    "\u6226\u3046": 3489,
    "\u2581\u541b\u306b\u306f": 3490,
    "\u795e\u7d4c": 3491,
    "\u2581\u30de\u30b8": 3492,
    "\u79c1\u3082": 3493,
    "\u30c9\u30a2": 3494,
    "\u4e3b\u5f35": 3495,
    "\u529b\u304c": 3496,
    "\u2581\u5927\u4e08\u592b\u3088": 3497,
    "\u2581\u5ea7\u3063\u3066": 3498,
    "\u4e5d": 3499,
    "\u30c8\u30ea": 3500,
    "\u2581\u3042\u308a\u307e\u305b\u3093": 3501,
    "\u8ab2": 3502,
    "\u306e\u4e8b\u306f": 3503,
    "\u2581\u6b63": 3504,
    "\u5c45\u305f": 3505,
    "\u2581\u3046\u308b\u3055\u3044": 3506,
    "\u6b7b\u3093\u3067": 3507,
    "\u306e\u3046\u3061": 3508,
    "\u4fee\u7406": 3509,
    "\u306b\u4e57\u3063\u3066": 3510,
    "\u2581\u3069\u3046\u3057\u3066\u3082": 3511,
    "\u2581\u6559\u3048\u3066": 3512,
    "\u60aa\u9b54": 3513,
    "\u6b8b\u308a": 3514,
    "\u2581\u305d\u3046\u3067\u3059\u304b": 3515,
    "\u3066\u304f\u308c\u308b": 3516,
    "\u9054\u304c": 3517,
    "\u62db\u5f85": 3518,
    "\u559c\u3073": 3519,
    "\u2581\u4e00\u3064": 3520,
    "\u30bc\u30ed": 3521,
    "\u2581\u5acc": 3522,
    "\u306b\u9055\u3044\u306a\u3044": 3523,
    "\u8cde": 3524,
    "\u3068\u3044\u3046\u4e8b": 3525,
    "\u4ed5": 3526,
    "\u4e2d\u3060": 3527,
    "\u304c\u6b7b\u3093\u3060": 3528,
    "\u76f8\u8ac7": 3529,
    "\u9055\u53cd": 3530,
    "\u308b\u305f\u3081\u306b": 3531,
    "\u4eba\u5f62": 3532,
    "\u3042\u3052\u3066": 3533,
    "\u2581\u306a\u3063": 3534,
    "\u2581\u30ec\u30a4": 3535,
    "\u9b42": 3536,
    "\u3066\u3057\u307e\u3046": 3537,
    "\u8da3\u5473": 3538,
    "\u304b\u308c\u305f": 3539,
    "\u8d77": 3540,
    "\u2581\u601d\u3063\u305f": 3541,
    "\u2581\u4f55\u3066": 3542,
    "\u53d6\u3063\u305f": 3543,
    "\u2581\u79d1\u5b66": 3544,
    "\u3092\u4e0e\u3048": 3545,
    "\u304a\u6bcd\u3055\u3093": 3546,
    "\u3048\u308b": 3547,
    "\u601d\u8003": 3548,
    "\u2581\u6b7b\u4f53": 3549,
    "\u2581\u305d\u3053\u306e": 3550,
    "\u904b": 3551,
    "\u306b\u3068\u3063\u3066\u306f": 3552,
    "\u30bf\u30a4\u30e0": 3553,
    "\u306e\u7537": 3554,
    "\u5e74\u5f8c": 3555,
    "\u2581\u8b66\u5b98": 3556,
    "\u30d2\u30fc\u30ed\u30fc": 3557,
    "\u76f4\u63a5": 3558,
    "\u2581\u3072\u3068\u3064": 3559,
    "\u5175\u5668": 3560,
    "\u307b\u3046\u304c\u3044\u3044": 3561,
    "\u2581\u30ad\u30df": 3562,
    "\u2581\u60aa\u9b54": 3563,
    "\u306a\u304f\u306a\u3063\u3066": 3564,
    "\u89e3\u653e": 3565,
    "\u3059\u308b\u306e\u304b": 3566,
    "\u3051\u308c\u3070": 3567,
    "\u3092\u4f7f\u3063\u305f": 3568,
    "\u2581\u3053\u3053\u306b\u306f": 3569,
    "\u2581\u305d\u306e\u901a\u308a": 3570,
    "\u6e80": 3571,
    "\u2581\u5974\u3089\u306f": 3572,
    "\u308f\u304b\u3063\u3066\u308b": 3573,
    "\u2581\u306a\u3093\u3068\u304b": 3574,
    "\u4eba\u3005\u304c": 3575,
    "\u2581\u56fd": 3576,
    "60": 3577,
    "\u2581\u30c6\u30ec\u30d3": 3578,
    "\u304a\u3046": 3579,
    "\u6d88": 3580,
    "\u30d7\u30e9": 3581,
    "\u3093\u3060\u3088\u306d": 3582,
    "\u2581\u3069\u3053\u304b": 3583,
    "\u6b73\u306e": 3584,
    "\u5fd8\u308c": 3585,
    "\u306e\u4e0a": 3586,
    "\u2581\u30df\u30b9": 3587,
    "\u5bb9\u7591\u8005": 3588,
    "\u5206\u91ce": 3589,
    "\u5d50": 3590,
    "\u2581\u3069\u3046\u3084\u3089": 3591,
    "\u8005\u306b": 3592,
    "\u2581\u30b8\u30e0": 3593,
    "\u4e3b\u7fa9": 3594,
    "\u6821": 3595,
    "\u306e\u4e2d\u306e": 3596,
    "\u2581\u7d04": 3597,
    "\u5f97\u610f": 3598,
    "\u3060\u3051\u3088": 3599,
    "\u2581\u826f\u304b\u3063\u305f": 3600,
    "\u30df\u30f3": 3601,
    "\u5b8c\u6210": 3602,
    "\u2581\u30db": 3603,
    "\u601d\u3063\u3066": 3604,
    "\u2581\u8cb4\u65b9": 3605,
    "\u3044\u3051": 3606,
    "\u2581\u30de\u30b8\u3067": 3607,
    "\u5929\u4f7f": 3608,
    "\u6e29": 3609,
    "\u2581\u771f\u5b9f": 3610,
    "\u3055\u305b\u306a\u3044": 3611,
    "\u2581\u30c9": 3612,
    "\u2581\u6771\u4eac": 3613,
    "\u8a00\u8a9e": 3614,
    "\u8b0e": 3615,
    "\u843d\u3061": 3616,
    "\u99c5": 3617,
    "\u4e8b\u52d9\u6240": 3618,
    "\u3068\u547c\u3070\u308c\u308b": 3619,
    "\u30b9\u30bf": 3620,
    "\u75db\u307f": 3621,
    "\u69d8\u306a": 3622,
    "\u3051\u308b": 3623,
    "\u2581\u7c21\u5358\u306b": 3624,
    "\u2581\u805e\u3044\u305f": 3625,
    "\u30c8\u30e9\u30c3\u30af": 3626,
    "\u7f6e\u3044\u3066": 3627,
    "\u3069\u3053\u306b": 3628,
    "\u611f\u67d3": 3629,
    "\u601d\u3044\u307e\u3059": 3630,
    "\u2581\u9811\u5f35\u3063\u3066": 3631,
    "\u89b3\u5bdf": 3632,
    "\u4e0d\u53ef\u80fd": 3633,
    "\u4f1d\u3048": 3634,
    "\u8ffd\u8de1": 3635,
    "\u7d9a\u304f": 3636,
    "\u306e\u53cb\u4eba": 3637,
    "\u7279\u5225\u306a": 3638,
    "\u4e16\u754c\u3092": 3639,
    "\u4ee3\u308f\u308a\u306b": 3640,
    "\u6e21\u3059": 3641,
    "\u6a19\u7684": 3642,
    "\u306f\u4f55\u3060": 3643,
    "\u2581\u624b\u8853": 3644,
    "\u306e\u591c": 3645,
    "\u306b\u306a\u3063\u305f\u3089": 3646,
    "\u63f4\u52a9": 3647,
    "it": 3648,
    "\u3063\u3061\u3083\u3063\u305f": 3649,
    "\u4f1a\u3046": 3650,
    "\u2581\u3046\u3061": 3651,
    "\u2581\u6700\u521d\u306f": 3652,
    "\u2581\u4e3b": 3653,
    "\u65e5\u672c": 3654,
    "\u7a7a\u6e2f": 3655,
    "\u3068\u601d\u3044\u307e\u3057\u305f": 3656,
    "\u3084\u304c\u3063\u305f": 3657,
    "\u805e\u3051": 3658,
    "\u7d50": 3659,
    "\u99ac\u9e7f": 3660,
    "\u3059\u3054\u304f": 3661,
    "\u6b69\u304f": 3662,
    "\u51fa\u3066\u304f\u308b": 3663,
    "\u56f0\u96e3": 3664,
    "\u2581\u3069\u3053\u3060": 3665,
    "\u30de\u30b7\u30f3": 3666,
    "\u751f\u304d\u3066\u3044\u308b": 3667,
    "\u52d5\u6a5f": 3668,
    "\u2581\u30aa\u30ec\u304c": 3669,
    "\u3042\u3093\u306a": 3670,
    "\u79d1\u5b66\u8005": 3671,
    "\u6b69": 3672,
    "\u307e\u3057": 3673,
    "\u623b\u3063\u3066": 3674,
    "\u3053\u308c\u304b\u3089": 3675,
    "\u4ee5\u524d": 3676,
    "\u308a\u3083": 3677,
    "\u4eca\u307e\u3067": 3678,
    "\u79d1": 3679,
    "\u2581\u30a2\u30a4\u30c4": 3680,
    "\u98df\u3044": 3681,
    "\u2581\u30ac": 3682,
    "\u3058\u3083\u3042\u308a\u307e\u305b\u3093": 3683,
    "\u2581\u5bdd": 3684,
    "\u518d\u751f": 3685,
    "\u2581\u30a2\u30a4": 3686,
    "\u964d": 3687,
    "\u30ac\u30ad": 3688,
    "\u975e": 3689,
    "\u5909\u308f\u3063\u3066": 3690,
    "\u76f8\u624b\u306b": 3691,
    "\u2581\u307b\u3093\u3068\u306b": 3692,
    "\u3092\u884c\u3046": 3693,
    "\u7c73": 3694,
    "\u30c8\u30e9\u30d6\u30eb": 3695,
    "\u77e5\u308a": 3696,
    "\u63a2\u3057": 3697,
    "\u3057\u3083": 3698,
    "\u2581\u3053\u308a\u3083": 3699,
    "\u30e9\u30a4\u30f3": 3700,
    "\u77e5\u308a\u5408\u3044": 3701,
    "\u770b": 3702,
    "\u9014\u4e2d": 3703,
    "\u2581\u81ea\u6bba": 3704,
    "\u2581\u30cf\u30cf\u30cf": 3705,
    "\u3082\u306e\u306b": 3706,
    "\u96a0": 3707,
    "\u884c\u304b\u306a\u3044\u3068": 3708,
    "\u5948": 3709,
    "\u6301\u3064": 3710,
    "\u2581\u305d\u3046\u3059\u308c\u3070": 3711,
    "\u9662": 3712,
    "\u4ec0\u4e48": 3713,
    "\u91dd": 3714,
    "\u3093\u3060\u306d": 3715,
    "\u9769\u547d": 3716,
    "\u3044\u304d\u307e\u3059": 3717,
    "\u304c\u3067\u304d\u308b": 3718,
    "\u30fc\u30eb": 3719,
    "\u2581\u304a\u306f\u3088\u3046\u3054\u3056\u3044\u307e\u3059": 3720,
    "\u4e0a\u6607": 3721,
    "\u8a00\u3048\u306a\u3044": 3722,
    "\u3057\u3066\u3044\u308b\u306e\u3067\u3059": 3723,
    "\u308b\u304b\u3089": 3724,
    "\u30a6\u30c3\u30c9": 3725,
    "\u5974\u3060": 3726,
    "\u884c\u304d\u305f\u3044": 3727,
    "\u5341": 3728,
    "\u5185\u306b": 3729,
    "\u51fa\u6765\u4e8b": 3730,
    "\u307e\u3044": 3731,
    "\u2581\u305d\u308c\u3088\u308a": 3732,
    "\u30b1\u30fc\u30b9": 3733,
    "\u30d1\u30fc\u30c6\u30a3": 3734,
    "\u3057\u3066\u3044\u3066": 3735,
    "\u30eb\u30fc\u30c8": 3736,
    "\u30c1\u30e5\u30fc": 3737,
    "\u5b9f\u884c": 3738,
    "\u3063\u305f\u308a": 3739,
    "\u304b\u304b\u3063\u305f": 3740,
    "\u30cb\u30f3\u30b0": 3741,
    "\u5bdd\u308b": 3742,
    "\u5fc5\u8981\u306f\u306a\u3044": 3743,
    "\u2581\u8aac\u660e": 3744,
    "\u3060\u3081": 3745,
    "\u8cb7\u3044": 3746,
    "\u5546\u54c1": 3747,
    "\u8aac\u660e\u3059\u308b": 3748,
    "\u3058\u3083\u3042": 3749,
    "\u3068\u3053\u308d\u306b": 3750,
    "\u6b8b\u308b": 3751,
    "\u6255\u3046": 3752,
    "\u2581\u79d8\u5bc6": 3753,
    "\u9060\u3044": 3754,
    "\u9032\u3080": 3755,
    "\u2581\u3042\u306a\u305f\u9054": 3756,
    "\u304a\u308b": 3757,
    "\u30bb\u30f3\u30c8": 3758,
    "\u306a\u3053\u3068": 3759,
    "\u3088\u3046\u306b\u306a\u3063\u305f": 3760,
    "\u8a66\u307f": 3761,
    "\u52dd": 3762,
    "\u2581\u3053\u3089": 3763,
    "\u8d77\u3053\u308b": 3764,
    "\u8a3c": 3765,
    "500": 3766,
    "\u30ab\u30eb": 3767,
    "\u3057\u3066\u304d\u307e\u3057\u305f": 3768,
    "\u899a\u3048\u3066\u308b": 3769,
    "\u3057\u306a\u304c\u3089": 3770,
    "\u5927\u4e8b\u306a": 3771,
    "\u6ca2\u5c71": 3772,
    "\u2581\u6050\u3089\u304f": 3773,
    "\u9023\u308c": 3774,
    "\u8981\u7d20": 3775,
    "\u6226\u58eb": 3776,
    "\u9078\u629e\u80a2": 3777,
    "\u30ea\u30fc\u30c0\u30fc": 3778,
    "\u88c1\u5224": 3779,
    "\u8131": 3780,
    "\u52a9": 3781,
    "\u9032\u6b69": 3782,
    "\u5ff5": 3783,
    "\u3058\u3083\u306d\u3048\u304b": 3784,
    "\u304c\u591a\u3044": 3785,
    "\u30a4\u30f3\u30c9": 3786,
    "\u2581\u8ab0\u3082\u304c": 3787,
    "\u6669": 3788,
    "\u6f14\u594f": 3789,
    "\u3092\u898b\u3064\u3051\u3066": 3790,
    "\u7a93": 3791,
    "\u3068\u79c1\u306f": 3792,
    "\u3042\u307e\u308a": 3793,
    "\u2581\u666e\u901a\u306e": 3794,
    "\u3092\u77e5\u3063\u3066\u3044\u308b": 3795,
    "\u8eca\u3092": 3796,
    "\u304c\u597d\u304d": 3797,
    "\u3066\u3057\u307e\u3063\u305f": 3798,
    "\u6a2a": 3799,
    "\u8a00\u8449\u3092": 3800,
    "\u2581\u304a\u3044\u304a\u3044": 3801,
    "\u4e2d\u592e": 3802,
    "\u2581\u30d8": 3803,
    "\u81ea\u6bba": 3804,
    "\u2581\u9375": 3805,
    "\u5f53\u305f\u308a": 3806,
    "\u884c\u3051\u308b": 3807,
    "\u2581\u304a\u59c9\u3061\u3083\u3093": 3808,
    "\u3060\u3063\u305f\u308f": 3809,
    "\u30ef\u30a4": 3810,
    "\u2581D": 3811,
    "\u30aa\u30fc": 3812,
    "\u8abf": 3813,
    "\u2581\u6b66\u5668": 3814,
    "\u306e\u4e00\u3064": 3815,
    "\u2581\u59bb": 3816,
    "\u3063\u3066\u305f": 3817,
    "\u2581\u5fc5\u8981\u306a": 3818,
    "\u3042\u3044\u3064": 3819,
    "\u2581\u30a4\u30f3\u30c9": 3820,
    "\u307f\u308d": 3821,
    "\u8aad\u307f": 3822,
    "\u6b7b\u3093\u3067\u308b": 3823,
    "\u2581\u3061\u3087\u3063": 3824,
    "\u5927\u5207": 3825,
    "\u6d99": 3826,
    "\u968a\u9577": 3827,
    "\u7814\u7a76\u6240": 3828,
    "\u5408\u3063\u3066": 3829,
    "ar": 3830,
    "\u3068\u306a\u308a": 3831,
    "\u306f\u4f55\u3082": 3832,
    "\u6ce5\u68d2": 3833,
    "\u2581\u592a\u967d": 3834,
    "\u62cd\u624b": 3835,
    "\u6ce8\u6587": 3836,
    "\u901f\u5ea6": 3837,
    "\u30be": 3838,
    "\u4e16\u7d00": 3839,
    "\u5b66\u7fd2": 3840,
    "\u8a00\u3046\u3068": 3841,
    "\u3059\u308b\u3088": 3842,
    "\u5b8c\u5168\u306b": 3843,
    "\u2581\u305d\u3046\u305d\u3046": 3844,
    "\u5c11": 3845,
    "\u30d9\u30f3": 3846,
    "\u30b3\u30fc\u30d2\u30fc": 3847,
    "\u4e2d\u56fd": 3848,
    "\u2581\u53e4\u3044": 3849,
    "\u540c\u50da": 3850,
    "\u2581\u85ac": 3851,
    "\u4f55\u3067": 3852,
    "\u540c\u58eb": 3853,
    "\u9031": 3854,
    "\u3057\u306a\u304d\u3083": 3855,
    "24": 3856,
    "\u4e8c\u3064": 3857,
    "\u30dc\u30f3": 3858,
    "\u65b9\u3092": 3859,
    "\u30ed\u30b9": 3860,
    "\u3068\u4e00\u7dd2": 3861,
    "\u2581\u3067\u304d\u308b": 3862,
    "\u2581\u30ce\u30fc": 3863,
    "\u2581\u5343": 3864,
    "\u751f\u307e\u308c\u305f": 3865,
    "\u2581\u653f\u5e9c": 3866,
    "\u5802": 3867,
    "\u2581\u5f8c\u308d": 3868,
    "\u5207\u308b": 3869,
    "\u8d77\u304d": 3870,
    "\u307e\u305b": 3871,
    "\u623b\u3063\u3066\u304d\u305f": 3872,
    "\u5efa\u8a2d": 3873,
    "\u306e\u305b\u3044\u3060": 3874,
    "\u793e\u54e1": 3875,
    "\u306f\u79c1\u306e": 3876,
    "\u2581\u73fe\u5834": 3877,
    "\u307e\u308b": 3878,
    "\u5009\u5eab": 3879,
    "\u30ea\u30c3\u30af": 3880,
    "\u2581\u97f3\u697d": 3881,
    "\u8fd4\u3057\u3066": 3882,
    "\u30de\u30fc\u30af": 3883,
    "\u30bd\u30fc": 3884,
    "\u3082\u3042\u308a\u307e\u305b\u3093": 3885,
    "\u2581T": 3886,
    "\u30b1\u30fc\u30ad": 3887,
    "\u30e8": 3888,
    "\u5e74\u4ee3": 3889,
    "\u5b57": 3890,
    "\u5371\u6a5f": 3891,
    "\u5742": 3892,
    "\u30ab\u30b9": 3893,
    "\u2581\u6765\u308b": 3894,
    "14": 3895,
    "\u8d8a": 3896,
    "\u2581\u6c17\u304c": 3897,
    "\u6253": 3898,
    "\u30de\u30eb": 3899,
    "\u624b\u306b\u5165\u308c\u305f": 3900,
    "\u884c\u52d5\u3092": 3901,
    "\u306e\u307b\u3046": 3902,
    "\u2581\u30c6\u30e1\u30a8": 3903,
    "\u3068\u8a00\u3044\u307e\u3057\u305f": 3904,
    "\u306e\u4ef2\u9593": 3905,
    "\u5e74\u9f62": 3906,
    "\u72c2": 3907,
    "\u3063\u304b": 3908,
    "\u2581\u30d5\u30a3\u30f3\u30c1": 3909,
    "\u306e\u6570": 3910,
    "\u4f53\u306e": 3911,
    "\u2581\u6b63\u76f4": 3912,
    "\u30db\u30fc": 3913,
    "\u77e5\u308a\u307e\u305b\u3093": 3914,
    "\u2581\u5b9f": 3915,
    "\u3092\u5f97\u308b": 3916,
    "\u30b3\u30d4\u30fc": 3917,
    "\u304c\u9055\u3046": 3918,
    "\u516c\u5712": 3919,
    "\u2581\u533b\u7642": 3920,
    "\u306e\u7d50\u679c": 3921,
    "\u63a5\u89e6": 3922,
    "\u4ee5\u4e0a\u306b": 3923,
    "\u8cc7\u6599": 3924,
    "\u5727": 3925,
    "\u305d\u3093\u306a\u3053\u3068": 3926,
    "\u671b\u3080": 3927,
    "\u304c\u8981\u308b": 3928,
    "\u2581\u5b50\u3069\u3082": 3929,
    "\u3067\u304d\u3066": 3930,
    "\u9000": 3931,
    "\u3044\u3044\u308f": 3932,
    "\u304b\u3068": 3933,
    "\u2581\u308f\u304b\u308a\u307e\u3057\u305f": 3934,
    "\u2581\u5931\u793c\u3057\u307e\u3059": 3935,
    "\u3093\u3058\u3083\u306a\u3044\u304b": 3936,
    "\u59ff\u3092": 3937,
    "\u30b9\u30ad\u30fc": 3938,
    "\u304f\u306a\u3044": 3939,
    "\u8e0f\u307f": 3940,
    "\u2581\u88cf": 3941,
    "\u843d\u3061\u305f": 3942,
    "\u5974\u306f": 3943,
    "\u547c\u3093\u3067": 3944,
    "\u2581\u4f55\u3060\u3063\u3066": 3945,
    "\u3065": 3946,
    "\u3051\u3093": 3947,
    "\u3084\u308c\u308b": 3948,
    "\u2581\u5b89\u5168": 3949,
    "\u5352\u696d": 3950,
    "\u6295\u7968": 3951,
    "\u5f85\u3063\u3066\u308b": 3952,
    "\u7a0b\u5ea6": 3953,
    "\u306e\u3053\u3068\u3060": 3954,
    "\u2581\u30aa\u30ea\u30d0\u30fc": 3955,
    "\u3058\u3083\u306a\u3044\u3088": 3956,
    "\u540d\u306f": 3957,
    "\u523b": 3958,
    "\u6383\u9664": 3959,
    "\u3055\u308c\u3066\u3044\u305f": 3960,
    "\u4ea4": 3961,
    "\u3084\u308b\u3088": 3962,
    "\u3067\u3055\u3048": 3963,
    "\u96fb\u6c17": 3964,
    "\u3092\u63a2\u3057\u3066": 3965,
    "\u72a0\u7272": 3966,
    "\u2581\u8ab0\u3067\u3082": 3967,
    "\u3053\u308c\u3067": 3968,
    "\u2581\u30e1": 3969,
    "\u8208\u5473": 3970,
    "\u3042\u308a\u307e\u305b\u3093\u3067\u3057\u305f": 3971,
    "\u2581\u52d5\u7269": 3972,
    "\u53ce": 3973,
    "\u6559\u3048\u308b": 3974,
    "\u3057\u3061\u3083\u3063\u305f": 3975,
    "\u8b77": 3976,
    "\u306e\u3088\u3046\u3060": 3977,
    "\u2581\u3046\u308f\u3063": 3978,
    "\u5171": 3979,
    "\u2581\u9759\u304b\u306b": 3980,
    "\u8a08": 3981,
    "\u2581\u3044\u304d\u306a\u308a": 3982,
    "\u306e\u4e0b": 3983,
    "\u3069\u3046\u3057\u305f": 3984,
    "\u2581\u3061\u3087\u3063\u3068\u5f85\u3066": 3985,
    "\u2581\u738b": 3986,
    "\u6a29\u5229": 3987,
    "\u306a\u3051\u308c\u3070\u306a\u308a\u307e\u305b\u3093": 3988,
    "\u304b\u3089\u3055": 3989,
    "\u5d29\u58ca": 3990,
    "\u306f\u8ab0": 3991,
    "\u9003\u3052\u308b": 3992,
    "\u2581\u697d\u3057\u3044": 3993,
    "\u30a8\u30f3\u30b8\u30f3": 3994,
    "\u7121\u7406\u3060": 3995,
    "\u30d1\u30fc\u30bb\u30f3\u30c8": 3996,
    "\u2581\u305d\u3046\u3044\u3048\u3070": 3997,
    "\u30c9\u30ec\u30b9": 3998,
    "\u2581\u518d": 3999,
    "\u3044\u305f\u3044": 4000,
    "\u7b97": 4001,
    "\u3067\u304d\u308c\u3070": 4002,
    "\u90a3": 4003,
    "\u3044\u3066\u3082": 4004,
    "\u4e2d\u6b62": 4005,
    "\u2581\u907a\u4f53": 4006,
    "\u2581\u4fe1\u3058\u3066": 4007,
    "\u2581\u601d\u3063\u3066": 4008,
    "\u2581\u30de\u30eb": 4009,
    "\u6226\u7565": 4010,
    "\u8a71\u984c": 4011,
    "\u59c9": 4012,
    "\u304b\u306a\u308a": 4013,
    "\u306b\u4f1a\u3063\u305f": 4014,
    "\u306f\u305d\u306e": 4015,
    "\u6210\u9577": 4016,
    "45": 4017,
    "\u3057\u304f": 4018,
    "\u2581\u3072\u3068": 4019,
    "\u5927\u597d\u304d": 4020,
    "\u3068\u304a\u308a": 4021,
    "\u5c06\u8ecd": 4022,
    "\u80f8": 4023,
    "\u30cf\u30fc\u30c8": 4024,
    "\u5bc6": 4025,
    "\u306e\u307e\u307e": 4026,
    "\u5bdd\u3066": 4027,
    "\u2581\u7c73\u56fd": 4028,
    "\u76e3\u7763": 4029,
    "\u7cf8": 4030,
    "\u75c7\u72b6": 4031,
    "\u3093\u3058\u3083\u306a\u3044\u306e": 4032,
    "\u82e6\u52b4": 4033,
    "\u2581\u6765\u305f": 4034,
    "\u3092\u5909\u3048": 4035,
    "\u2581\u751f\u304d\u3066": 4036,
    "\u983c\u3093\u3067": 4037,
    "\u4e73": 4038,
    "\u6238": 4039,
    "\u4f9b\u7d66": 4040,
    "\u79c1\u9054": 4041,
    "\u96a0\u308c": 4042,
    "\u2581\u5927\u5b66": 4043,
    "\u6551": 4044,
    "\u6d3b": 4045,
    "\u9a5a\u304d": 4046,
    "\u4eba\u3005\u306b": 4047,
    "\u77e5\u308a\u305f\u3044": 4048,
    "\u99c4\u76ee": 4049,
    "\u304a\u8a71": 4050,
    "\u2581\u88ab\u5bb3\u8005": 4051,
    "\u4fe1\u3058\u308b": 4052,
    "\u753b": 4053,
    "\u5f88": 4054,
    "\u3043": 4055,
    "\u6687": 4056,
    "\u2581\u90aa\u9b54": 4057,
    "\u2581\u308f\u3056\u308f\u3056": 4058,
    "\u304a\u307e\u3048": 4059,
    "\u2581\u6625": 4060,
    "\u8aac\u5f97": 4061,
    "\u767a\u5c55": 4062,
    "\u4e00\u81f4": 4063,
    "\u2581\u8ab0\u306b": 4064,
    "\u5411\u304d": 4065,
    "\u2581\u3044\u3044\u306a": 4066,
    "\u3070\u3044\u3044": 4067,
    "\u3067\u3042\u3063\u305f": 4068,
    "\u30d0\u30f3\u30c9": 4069,
    "\u4fdd": 4070,
    "\u7d9a\u304d": 4071,
    "\u4f55\u304b\u3092": 4072,
    "\u76d7\u3093\u3060": 4073,
    "\u2581\u3064\u3044\u3066": 4074,
    "\u30d9\u30a4": 4075,
    "\u2581\u4e8b\u5b9f": 4076,
    "\u2581\u795e\u69d8": 4077,
    "\u2581\u8155": 4078,
    "\u2581\u5f15\u304d": 4079,
    "\u3084\u3059\u3044": 4080,
    "\u30c9\u30e9": 4081,
    "\u2581\u3088\u3046\u3053\u305d": 4082,
    "\u6249": 4083,
    "\u96ea": 4084,
    "\u7d42\u308f\u308a\u3060": 4085,
    "\u7fd2": 4086,
    "\u2581\u30c8\u30e0": 4087,
    "\u6b21\u7b2c": 4088,
    "\u7dcf": 4089,
    "\u982d\u306b": 4090,
    "\u7e01": 4091,
    "\u5165\u308c\u3066": 4092,
    "\u3049": 4093,
    "\u898f\u6a21": 4094,
    "\u306a\u3044\u3057": 4095,
    "\u904a\u3093\u3067": 4096,
    "\u2581\u4e8c\u4eba": 4097,
    "\u73fe\u8c61": 4098,
    "\u3069\u3046\u3059\u308b": 4099,
    "\u304c\u3042\u308b\u3068": 4100,
    "\u3055\u306a\u3044": 4101,
    "\u8d70\u308a": 4102,
    "\u2581\u8b66\u5bdf\u306b": 4103,
    "\u8fd1\u304f": 4104,
    "\u3063\u3059": 4105,
    "\u7b11\u9854": 4106,
    "\u7d9a\u3051\u3066": 4107,
    "\u2581\u5e73\u6c17": 4108,
    "\u30dc\u30b9": 4109,
    "\u304a\u91d1\u3092": 4110,
    "\u5358\u7d14": 4111,
    "\u30f4": 4112,
    "\u53bb\u308b": 4113,
    "\u5206\u3051": 4114,
    "\u2581\u9752": 4115,
    "\u2581\u3053\u3063\u3061\u3060": 4116,
    "\u6df1": 4117,
    "\u307e\u305b\u3093\u304b": 4118,
    "\u4e8b\u696d": 4119,
    "\u5168\u7136": 4120,
    "\u306e\u547d": 4121,
    "\u2581\u305d\u3046\u3060\u306d": 4122,
    "\u30e1\u30b9": 4123,
    "\u2581\u4f8b\u306e": 4124,
    "\u306b\u884c\u3053\u3046": 4125,
    "\u5c02\u9580": 4126,
    "\u653f\u6cbb": 4127,
    "\u690d\u7269": 4128,
    "\u8d70\u3063\u3066": 4129,
    "\u8005\u3060": 4130,
    "\u98f2\u3093\u3067": 4131,
    "\u2581\u3084\u308b": 4132,
    "\u30bf\u30a4": 4133,
    "\u30c3\u30af\u30b9": 4134,
    "\u5bfe\u8c61": 4135,
    "\u6700\u5f8c\u306b": 4136,
    "\u2581\u541b\u9054": 4137,
    "\u2581\u6025": 4138,
    "\u3067\u3059\u3051\u3069": 4139,
    "\u898b\u3089\u308c\u308b": 4140,
    "\u697d\u3057\u307f": 4141,
    "\u59cb\u3081\u307e\u3057\u305f": 4142,
    "\u2581\u3044\u306a\u3044": 4143,
    "\u72b6\u6cc1\u3092": 4144,
    "\u8a71\u3060": 4145,
    "\u308f\u304b\u308a\u307e\u305b\u3093": 4146,
    "\u2581\u96fb\u6c17": 4147,
    "\u540c\u610f": 4148,
    "\u2581\u304f\u3063": 4149,
    "\u4eba\u6c17": 4150,
    "\u30b0\u30e9": 4151,
    "\u4e0d\u8db3": 4152,
    "\u2581\u3069\u3061\u3089": 4153,
    "\u901f\u304f": 4154,
    "\u81f3": 4155,
    "\u7df4\u7fd2": 4156,
    "\u8fba": 4157,
    "\u9ad8\u6821": 4158,
    "\u307f\u305f": 4159,
    "\u8996": 4160,
    "\u50d5\u306b": 4161,
    "\u30c0\u30f3\u30b9": 4162,
    "\u4e0a\u624b": 4163,
    "\u2581\u90e8\u9577": 4164,
    "\u2581\u30d9": 4165,
    "\u30dc\u30fc": 4166,
    "\u6ce8\u76ee": 4167,
    "\u2581\u4eba\u3005\u306f": 4168,
    "\u2581\u3068\u308a\u3042\u3048\u305a": 4169,
    "\u2581\u7b54\u3048": 4170,
    "\u5b09\u3057\u3044": 4171,
    "\u3092\u3057\u3066\u3044\u308b": 4172,
    "\u30c3\u30c1": 4173,
    "\u3092\u4f7f\u3044": 4174,
    "\u673a": 4175,
    "\u3060\u3088\u306a": 4176,
    "\u306e\u304b\u3044": 4177,
    "\u7a81\u7136": 4178,
    "\u3054\u3081\u3093": 4179,
    "\u305b\u3093": 4180,
    "~!!": 4181,
    "\u9b3c": 4182,
    "\u2581B": 4183,
    "\u56f0\u308b": 4184,
    "\u304f\u306a\u308b": 4185,
    "\u3068\u306a\u3063\u305f": 4186,
    "\u6765\u305f\u306e": 4187,
    "\u3089\u306a\u304b\u3063\u305f": 4188,
    "\u725b": 4189,
    "\u5ca9": 4190,
    "\u306f\u5168\u3066": 4191,
    "\u52c7\u6c17": 4192,
    "\u2581\u81ea\u5206\u3092": 4193,
    "\u30d0\u30eb": 4194,
    "\u5fd9\u3057\u3044": 4195,
    "\u2581\u30a4\u30f3\u30bf\u30fc\u30cd\u30c3\u30c8": 4196,
    "\u30a4\u30e4": 4197,
    "\u3055\u305b\u3066\u304f\u308c": 4198,
    "\u2581\u3084\u3060": 4199,
    "\u304f\u308c\u306a\u3044": 4200,
    "\u5264": 4201,
    "\u30d0\u30a4": 4202,
    "\u9055\u3044\u307e\u3059": 4203,
    "\u2581\u6771": 4204,
    "\u2581\u96e3\u3057\u3044": 4205,
    "\u907f\u96e3": 4206,
    "\u59cb\u307e\u308a": 4207,
    "\u2581\u5f7c\u3089\u306b": 4208,
    "\u30c7\u30eb": 4209,
    "\u2581\u305d\u308c\u307e\u3067": 4210,
    "\u2581\u78ba\u8a8d": 4211,
    "\u30d6\u30ed\u30c3\u30af": 4212,
    "\u6d88\u3048\u3066": 4213,
    "\u5bbf": 4214,
    "\u30e9\u30e0": 4215,
    "\u30b5\u30f3\u30d7\u30eb": 4216,
    "\u305f\u3061\u306e": 4217,
    "\u2581\u3046\u307e\u3044": 4218,
    "\u2581\u3069\u3046\u3044\u3046\u3053\u3068\u3060": 4219,
    "\u4f59": 4220,
    "\u77e5\u3063\u3066\u3044\u307e\u3059": 4221,
    "\u2581\u3042\u308c\u304c": 4222,
    "\u8a69": 4223,
    "\u30d7\u30ec\u30bc\u30f3\u30c8": 4224,
    "\u3063\u3061\u3083": 4225,
    "\u3054\u5b58\u77e5": 4226,
    "\u6765\u3066\u304f\u308c": 4227,
    "\u30c3\u30c4": 4228,
    "\u2581\u3053\u3053\u3067\u306f": 4229,
    "\u4f1a\u793e\u306e": 4230,
    "\u30a1": 4231,
    "\u3060\u3051\u306e": 4232,
    "\u8a71\u306f": 4233,
    "\u2581\u4ffa\u3068": 4234,
    "\u306b\u4f1a\u3046": 4235,
    "\u2581\u3060\u3081": 4236,
    "\u76ee\u306e": 4237,
    "\u571f": 4238,
    "\u2581\u5357": 4239,
    "\u306a\u304f\u3066\u3044\u3044": 4240,
    "\u308b\u306e\u3088": 4241,
    "\u3092\u52a9\u3051\u308b": 4242,
    "\u2581\u5e30\u3063\u3066": 4243,
    "\u30b3\u30f3\u30d4\u30e5\u30fc\u30bf\u30fc": 4244,
    "\u6c7a\u307e\u308a": 4245,
    "\u3068\u3046": 4246,
    "\u524d\u304b\u3089": 4247,
    "\u53ef\u80fd\u6027": 4248,
    "\u2581\u304a\u3081\u3067\u3068\u3046": 4249,
    "\u305d\u3046\u3060\u306a": 4250,
    "\u6c17\u3065\u3044\u3066": 4251,
    "\u2581\u3069\u306e\u3088\u3046\u306b": 4252,
    "\u8ffd\u3044": 4253,
    "\u3042\u3089\u3086\u308b": 4254,
    "\u4eba\u3005\u3092": 4255,
    "\u592a\u967d": 4256,
    "\u8fbc\u3081": 4257,
    "\u3068\u3044\u3046\u3082\u306e": 4258,
    "\u4ee5\u5916\u306e": 4259,
    "\u8a70\u3081": 4260,
    "\u62b5\u6297": 4261,
    "\u8b66\u5099": 4262,
    "\u7d50\u8ad6": 4263,
    "\u2581\u8a18\u61b6": 4264,
    "\u3060\u304b\u3089\u3067\u3059": 4265,
    "\u306f\u3044\u3064\u3082": 4266,
    "\u96a3": 4267,
    "\u7a2e\u985e\u306e": 4268,
    "\u6628\u65e5": 4269,
    "\u5009": 4270,
    "\u96d1\u8a8c": 4271,
    "\u540d\u8a89": 4272,
    "\u3044\u3067": 4273,
    "\u3060\u3051\u306f": 4274,
    "\u2581\u3053\u3063\u3061\u306f": 4275,
    "\u2581\u5c06\u6765": 4276,
    "\u3060\u3051\u3058\u3083\u306a\u3044": 4277,
    "\u6559\u4f1a": 4278,
    "\u7b56": 4279,
    "\u305b\u3066": 4280,
    "\u5730\u7344": 4281,
    "\u2581\u6bba\u3057\u305f": 4282,
    "\u5371\u967a\u3060": 4283,
    "\u7121\u7dda": 4284,
    "w": 4285,
    "\u305d\u3046\u3088": 4286,
    "\u2581\u5927\u4eba": 4287,
    "\u306e\u65e5": 4288,
    "\u30b5\u30a4\u30ba": 4289,
    "\u8a3a\u65ad": 4290,
    "\u30b3\u30fc": 4291,
    "\u306b\u3064\u3044\u3066\u306e": 4292,
    "\u2581\u5211\u52d9\u6240": 4293,
    "\u5211\u52d9\u6240": 4294,
    "\u6b69\u304d": 4295,
    "\u3057\u305f\u304b": 4296,
    "\u554f\u984c\u3092": 4297,
    "\u3044\u308d": 4298,
    "\u691c\u4e8b": 4299,
    "\u2581\u5e30\u308b": 4300,
    "\u88fd\u9020": 4301,
    "\u2581\u65e2\u306b": 4302,
    "\u3092\u6551\u3046": 4303,
    "\u30bf\u30fc\u30f3": 4304,
    "\u2581\u305d\u308c\u3058\u3083\u3042": 4305,
    "\u305f\u306e\u306b": 4306,
    "\u2581\u306f\u3044\u306f\u3044": 4307,
    "\u9752": 4308,
    "\u901f": 4309,
    "\u77e5\u3063\u3066\u3044\u305f": 4310,
    "\u306e\u4e00\u4eba": 4311,
    "\u2581\u8ab0\u304b\u306b": 4312,
    "\u8cb4\u65b9": 4313,
    "\u30d5\u30a9\u30fc": 4314,
    "\u4e8b\u304c\u3042\u308b": 4315,
    "\u85ac\u3092": 4316,
    "\u5929\u624d": 4317,
    "\u6559\u5ba4": 4318,
    "\u2581\u76f4\u63a5": 4319,
    "\u304a\u524d\u3092": 4320,
    "\u8f9b\u3044": 4321,
    "\u65e5\u3005": 4322,
    "\u30c8\u30eb": 4323,
    "\u9b54\u5973": 4324,
    "\u702c": 4325,
    "\u7269\u3060": 4326,
    "\u4f1d": 4327,
    "\u2581'": 4328,
    "\u4e57": 4329,
    "\u2581\u3042\u306e\u6642": 4330,
    "\u3063\u307d\u3044": 4331,
    "\u3053\u3044\u3064": 4332,
    "\u8005\u3092": 4333,
    "\u305d\u306e\u3082\u306e": 4334,
    "\u899a\u3048\u3066\u3044\u308b": 4335,
    "\u2581\u304a\u8336": 4336,
    "\u9078": 4337,
    "\u3067\u3042\u308b\u3053\u3068": 4338,
    "\u604b\u4eba": 4339,
    "\u2581\u5974\u306e": 4340,
    "\u5efa\u7bc9": 4341,
    "\u89aa\u53cb": 4342,
    "\u6620": 4343,
    "\u5e30\u3063\u305f": 4344,
    "\u3059\u308b\u306e\u306b": 4345,
    "\u533b": 4346,
    "\u8f2a": 4347,
    "\u5b9d": 4348,
    "\u7d42": 4349,
    "\u653e\u9001": 4350,
    "\u30c7\u30fc": 4351,
    "\u2581\u3044\u305a\u308c": 4352,
    "\u52a0": 4353,
    "\u9001": 4354,
    "\u3067\u304d\u308b\u304b": 4355,
    "\u77e5\u3089\u3093": 4356,
    "\u5b58\u5728\u3059\u308b": 4357,
    "\u554f\u984c\u306f": 4358,
    "\u2581\u3053\u3093\u306a\u306e": 4359,
    "\u6539\u5584": 4360,
    "\u304b\u3051\u305f": 4361,
    "\u2581\u672c\u6c17\u3067": 4362,
    "\u2581R": 4363,
    "\u8a00\u3044\u305f\u3044": 4364,
    "\u8c46": 4365,
    "\u8b66\u544a": 4366,
    "\u30ef\u30fc": 4367,
    "\u56fd\u5bb6": 4368,
    "\u5f53\u7136": 4369,
    "\u2581\u4eba\u985e": 4370,
    "\u8cc7\u6e90": 4371,
    "V": 4372,
    "\u2581OK": 4373,
    "\u2581\u4f1a\u793e": 4374,
    "\u696d\u8005": 4375,
    "\u683c": 4376,
    "\u30b7\u30e3\u30fc": 4377,
    "\u2581\u597d\u304d": 4378,
    "\u3058\u3083\u7121\u3044": 4379,
    "\u5207\u3063\u3066": 4380,
    "\u306e\u5a18": 4381,
    "\u2581\u305f\u304f\u3055\u3093\u306e": 4382,
    "\u898b\u3048\u3066": 4383,
    "\u8863": 4384,
    "\u30ad\u30e3": 4385,
    "\u306f\u4eca": 4386,
    "\u2581\u3053\u308c\u3063\u3066": 4387,
    "\u7d42\u308f\u3063\u3066": 4388,
    "\u5e74\u3082": 4389,
    "\u306e\u4e0b\u306b": 4390,
    "\u5426\u5b9a": 4391,
    "\u306e\u5b50": 4392,
    "\u4f1d\u3048\u308b": 4393,
    "\u7269\u306f": 4394,
    "\u5bfe\u7b56": 4395,
    "\u306e\u306a\u3089": 4396,
    "\u3068\u547c\u3076": 4397,
    "\u6483\u305f\u308c\u305f": 4398,
    "\u5f85\u3064": 4399,
    "\u6255\u3063\u3066": 4400,
    "\u304a\u308a\u307e\u3059": 4401,
    "\u547c\u3076": 4402,
    "\u2581\u306a\u306e\u306b": 4403,
    "\u611f\u3058\u305f": 4404,
    "\u4f5c\u308b": 4405,
    "\u2581\u8cb4\u65b9\u306f": 4406,
    "\u592b\u5a66": 4407,
    "\u8a73\u7d30": 4408,
    "\u2581\u305d\u3044\u3064\u306f": 4409,
    "\u2581\u3059\u308b\u3068": 4410,
    "\u3053\u3068\u304c\u3042\u308a\u307e\u3059": 4411,
    "\u8db3\u3092": 4412,
    "\u3092\u5931\u3046": 4413,
    "\u2581\u5927\u4e08\u592b\u3067\u3059": 4414,
    "\u983c\u307f": 4415,
    "\u3057\u3066\u4e0b\u3055\u3044": 4416,
    "\u9031\u672b": 4417,
    "\u3059\u304e\u3066": 4418,
    "\u91cd\u3044": 4419,
    "\u8ca0\u3051": 4420,
    "\u3063\u3053": 4421,
    "\u5931\u793c": 4422,
    "\u5f37\u3055": 4423,
    "\u4eca\u591c": 4424,
    "\u677f": 4425,
    "\u2581\u30ed\u30dc\u30c3\u30c8": 4426,
    "\u3063\u3066\u3044\u3046\u304b": 4427,
    "\u4fb5\u5165": 4428,
    "\u2581\u58c1": 4429,
    "\u2581\u7f8e\u3057\u3044": 4430,
    "\u30c7\u30a4": 4431,
    "\u5316\u5b66": 4432,
    "\u2581\u30bd": 4433,
    "\u5bfe\u51e6": 4434,
    "\u5feb": 4435,
    "\u30a4\u30fc": 4436,
    "\u4f86": 4437,
    "\u2581\u305d\u3046\u306a\u306e": 4438,
    "\u2581\u3053\u306e\u7537": 4439,
    "\u2581\u3053\u306e\u4eba": 4440,
    "\u3082\u306e\u3067\u3057\u305f": 4441,
    "\u5b50\u304c": 4442,
    "\u306f\u3044\u3051\u306a\u3044": 4443,
    "\u767a\u5c04": 4444,
    "\u2581\u3078\u3048": 4445,
    "\u2581\u4e00\u4f53\u4f55": 4446,
    "\u2581\u30c1\u30fc\u30e0": 4447,
    "\u5909\u308f\u3089\u306a\u3044": 4448,
    "\u2581\u5e0c\u671b": 4449,
    "\u6c17\u3092": 4450,
    "\u8cb7\u3063\u3066": 4451,
    "\u3059\u308b\u3053\u3068\u306f": 4452,
    "\u2581\u7814\u7a76": 4453,
    "\u7d42\u308f\u3063\u305f": 4454,
    "\u3084\u3063\u3066\u304f\u308c": 4455,
    "\u3057\u3066\u3044\u308b\u306e": 4456,
    "\u767e": 4457,
    "\u2581\u80f8": 4458,
    "\u2581\u81ea\u7531": 4459,
    "\u5e38": 4460,
    "\u544a\u767d": 4461,
    "\u5f53\u3066": 4462,
    "\u4ea4\u6e09": 4463,
    "\u305f\u304b\u3089": 4464,
    "\u66b4\u529b": 4465,
    "\u2581\u8cea\u554f": 4466,
    "\u30bb\u30f3": 4467,
    "=": 4468,
    "\u7570\u5e38": 4469,
    "\u2581\u5929": 4470,
    "\u3057\u307e\u3063\u3066": 4471,
    "\u8fd4\u305b": 4472,
    "\u30b3\u30df\u30e5\u30cb\u30c6\u30a3": 4473,
    "\u592b\u4eba": 4474,
    "\u5927\u4f1a": 4475,
    "\u2581\u30ad\u30e3": 4476,
    "\u30d1\u30a4": 4477,
    "\u30ac\u30e9\u30b9": 4478,
    "\u304a\u3051": 4479,
    "\u627f\u77e5": 4480,
    "\u30a6\u30a7\u30a4": 4481,
    "\u53cd": 4482,
    "\u624b\u3067": 4483,
    "in": 4484,
    "\u8cea\u554f\u3092": 4485,
    "\u805e\u3053\u3048\u308b": 4486,
    "\u305f\u3093\u3067\u3059": 4487,
    "\u304a\u9858\u3044\u3057\u307e\u3059": 4488,
    "\u9996\u3092": 4489,
    "\u2581\u98df\u3079": 4490,
    "\u6b63\u3057\u304b\u3063\u305f": 4491,
    "\u767a\u751f": 4492,
    "\u81ea\u5206\u3092": 4493,
    "\u3092\u9023\u308c\u3066": 4494,
    "\u611b\u3057\u3066\u308b": 4495,
    "\u2581\u30c7\u30fc\u30bf": 4496,
    "\u95a2\u4fc2\u306a\u3044": 4497,
    "\u7523\u696d": 4498,
    "\u5c0f\u5c4b": 4499,
    "\u4ed8": 4500,
    "\u3092\u983c\u3080": 4501,
    "\u306e\u65b9\u306f": 4502,
    "\u95c7": 4503,
    "\u2581\u30d6\u30e9\u30c3\u30af": 4504,
    "\u826f": 4505,
    "\u7537\u306e": 4506,
    "\u30d1\u30b9": 4507,
    "\u8a00\u308f\u306a\u304b\u3063\u305f": 4508,
    "\u3092\u53d7\u3051\u308b": 4509,
    "\u2581\u7537\u6027": 4510,
    "\u307e\u3057\u3087": 4511,
    "\u2581\u610f\u5473": 4512,
    "\u2581\u3069\u3063\u304b": 4513,
    "\u2581\u50d5\u3089\u306f": 4514,
    "\u4e2d\u3067\u3059": 4515,
    "\u7537\u306e\u5b50": 4516,
    "\u63a5\u7d9a": 4517,
    "\u2581\u304d\u307f": 4518,
    "\u6b74\u53f2": 4519,
    "\u2581\u6b63\u7fa9": 4520,
    "\u4e00\u6b69": 4521,
    "\u2581\u308f\u305f\u3057\u306f": 4522,
    "\u2581\u304a\u308c": 4523,
    "\u5f79\u306b\u7acb\u3064": 4524,
    "\u6483\u3064": 4525,
    "\u5bb6\u5ead": 4526,
    "\u3092\u898b\u308b\u3068": 4527,
    "\u2581\u5065\u5eb7": 4528,
    "\u2581\u30de\u30fc\u30af": 4529,
    "\u3082\u3089\u3044\u305f\u3044": 4530,
    "\u30dd\u30f3\u30c9": 4531,
    "\u69d8\u3005\u306a": 4532,
    "\u2581\u307f\u306a\u3055\u3093": 4533,
    "\u306e\u3067\u306f\u306a\u304f": 4534,
    "\u8a18": 4535,
    "\u821e": 4536,
    "\u30b4\u30fc": 4537,
    "\u898b\u3064\u304b\u308b": 4538,
    "\u2581\u5974\u3089": 4539,
    "\u3057\u3066\u6b32\u3057\u3044": 4540,
    "\u5bcc": 4541,
    "\u7121\u99c4": 4542,
    "\u4e88\u7d04": 4543,
    "\u5897\u52a0": 4544,
    "\u2581\u3069\u3046\u3057\u305f\u3093\u3060": 4545,
    "\u3042\u3052\u305f": 4546,
    "\u8ce2\u3044": 4547,
    "\u2581\u3046\u3046\u3093": 4548,
    "\u2581\u30ab\u30fc": 4549,
    "\u5408\u308f\u305b": 4550,
    "\u6b20": 4551,
    "\u2581\u732b": 4552,
    "\u6483\u3061": 4553,
    "\u885d\u7a81": 4554,
    "\u3060\u3063\u305f\u306e\u304b": 4555,
    "\u3067\u3057\u305f\u304c": 4556,
    "\u6bb5": 4557,
    "\u5fc5\u8981\u3060": 4558,
    "\u5e78\u904b": 4559,
    "\u843d\u3061\u3066": 4560,
    "\u2581\u30c8\u30a4\u30ec": 4561,
    "\u30a4\u30eb": 4562,
    "\u4fdd\u8a3c": 4563,
    "\u2581\u3042\u306a\u305f\u65b9": 4564,
    "\u3064\u3051\u308b": 4565,
    "\u305f\u3093": 4566,
    "\u3089\u305b\u3066": 4567,
    "\u2581\u5730\u7344": 4568,
    "\u4eca\u306f": 4569,
    "\u3059\u308b\u3088\u3046\u306b": 4570,
    "\u3044\u305f\u3057\u307e\u3059": 4571,
    "\u6642\u8a08": 4572,
    "\u5e73\u5747": 4573,
    "\u2581\u3084\u308a": 4574,
    "\u2581\u4e16\u754c\u4e2d\u306e": 4575,
    "\u3084\u3081\u3066": 4576,
    "\u6cd5\u5f8b": 4577,
    "\u6b21\u5143": 4578,
    "\u91e3\u308a": 4579,
    "\u306b\u306a\u3063\u3066\u3044\u308b": 4580,
    "\u2581\u3064\u3044": 4581,
    "\u8ca0": 4582,
    "\u62e1\u5927": 4583,
    "\u2581\u753a": 4584,
    "\u5bfa": 4585,
    "\u3060\u3063\u3051": 4586,
    "\u3063\u3066\u8a00\u3046": 4587,
    "\u3069\u3046\u3082": 4588,
    "\u2581\u305d\u306e\u3046\u3061": 4589,
    "\u2581\u3053\u306e\u91ce\u90ce": 4590,
    "\u59eb": 4591,
    "\u3068\u601d\u3046\u3051\u3069": 4592,
    "\u4ed5\u4e8b\u306b": 4593,
    "\u306e\u60c5\u5831": 4594,
    "\u8907\u96d1": 4595,
    "\u89aa\u7236": 4596,
    "\u73fe\u5834": 4597,
    "\u821e\u53f0": 4598,
    "\u3084\u3081\u308d": 4599,
    "\u3078\u884c\u304f": 4600,
    "\u5831\u544a\u66f8": 4601,
    "\u8c5a": 4602,
    "\u5fc3\u81d3": 4603,
    "\u5f93": 4604,
    "\u7406\u60f3": 4605,
    "\u305b\u306a\u3044": 4606,
    "\u500b\u4eba": 4607,
    "\u88fd": 4608,
    "\u6295\u3052": 4609,
    "\u7d4c\u55b6": 4610,
    "\u30d5\u30eb": 4611,
    "\u8a18\u8005": 4612,
    "\u30c0\u30e0": 4613,
    "\u2581\u3068\u3063\u3066\u3082": 4614,
    "\u30f3\u30c8": 4615,
    "\u90e8\u9577": 4616,
    "\u4e16\u754c\u306b": 4617,
    "\u3060\u304b\u3089\u306d": 4618,
    "\u2581\u30ed\u30f3\u30c9\u30f3": 4619,
    "\u5171\u6709": 4620,
    "\u2581\u3069\u3046\u3067\u3082\u3044\u3044": 4621,
    "\u2581\u3053\u3046\u3057\u305f": 4622,
    "\u691c\u7d22": 4623,
    "\u6c7a": 4624,
    "\u2581\u5341\u5206": 4625,
    "\u30c1\u30e7": 4626,
    "\u2581\u30dc": 4627,
    "\u2581\u8a71\u3057\u3066": 4628,
    "\u3089\u308c\u3066\u3044\u308b": 4629,
    "\u3068\u3068\u3082\u306b": 4630,
    "\u8feb": 4631,
    "\u5712": 4632,
    "\u5b66\u6821\u306b": 4633,
    "\u2581\u307f\u3093\u306a\u3067": 4634,
    "\u81ea\u5206\u305f\u3061": 4635,
    "\u3066\u306a\u3044": 4636,
    "\u6708\u306b": 4637,
    "\u56db": 4638,
    "\u2581\u30e2": 4639,
    "\u2581\u7533\u3057\u8a33\u3042\u308a\u307e\u305b\u3093": 4640,
    "\u6240\u6709": 4641,
    "\u2581\u751f": 4642,
    "\u4fe1\u3058": 4643,
    "\u5974\u96b7": 4644,
    "\u3060\u308d\u3046\u304b": 4645,
    "\u3042\u308b\u304b": 4646,
    "&": 4647,
    "\u52d8\u9055\u3044": 4648,
    "\u30e6": 4649,
    "\u4f53\u306b": 4650,
    "\u8a87\u308a": 4651,
    "\u4e88\u60f3": 4652,
    "\u5965\u3055\u3093": 4653,
    "\u308b\u306e\u306b": 4654,
    "\u7559": 4655,
    "er": 4656,
    "\u2581\u305d\u3082\u305d\u3082": 4657,
    "\u3044\u307e\u305b\u3093\u3067\u3057\u305f": 4658,
    "\u2581\u60f3\u50cf": 4659,
    "\u2581\u30d8\u30f3\u30ea\u30fc": 4660,
    "\u4eba\u3005\u306f": 4661,
    "\u30a4\u30b9": 4662,
    "\u7acb\u3064": 4663,
    "\u2581\u30d5\u30c3": 4664,
    "\u6cb9": 4665,
    "v": 4666,
    "\u2581\u3042\u308a\u304c\u3068": 4667,
    "\u3057\u305f\u308f": 4668,
    "\u30c0\u30a6\u30f3": 4669,
    "\u2581\u30eb\u30fc": 4670,
    "\u306e\u53cb\u9054": 4671,
    "\u52dd\u3063\u305f": 4672,
    "\u30bb\u30c3\u30af\u30b9": 4673,
    "\u63a8\u6e2c": 4674,
    "\u2581\u5f7c\u306b\u306f": 4675,
    "\u5e3d\u5b50": 4676,
    "\u2581\u5371\u306a\u3044": 4677,
    "\u6255\u3044": 4678,
    "\u7a7a\u6c17": 4679,
    "\u652f\u3048": 4680,
    "\u5fa1": 4681,
    "\u30b3\u30b9\u30c8": 4682,
    "\u2581\u7686\u304c": 4683,
    "\u2581\u30c1\u30e3\u30fc\u30ea\u30fc": 4684,
    "\u4ee5\u5916": 4685,
    "\u2581\u3048\u3048\u3068": 4686,
    "\u5b66\u8005": 4687,
    "\u30c6\u30fc\u30d6\u30eb": 4688,
    "\u6761": 4689,
    "\u304b\u3082\u3057\u308c\u3093": 4690,
    "\u8d64": 4691,
    "\u82e6": 4692,
    "\u5f97\u308b": 4693,
    "\u2581\u3048\u30fc": 4694,
    "\u5973\u6027\u306f": 4695,
    "\u6df7\u4e71": 4696,
    "\u8a71\u305d\u3046": 4697,
    "\u751f\u304d\u7269": 4698,
    "\u3059\u308b\u306b\u306f": 4699,
    "\u8d77\u304d\u305f": 4700,
    "\u3058\u3083\u306a\u3044\u3093\u3060": 4701,
    "\u2581\u3042\u306a\u305f\u305f\u3061": 4702,
    "\u3093\u3084": 4703,
    "\u2581\u4eca\u3067\u306f": 4704,
    "\u8a00\u308f\u306a\u3044\u3067": 4705,
    "\u30ef\u30af\u30c1\u30f3": 4706,
    "\u308f\u304b\u308a\u307e\u3059": 4707,
    "\u308f\u3051\u306a\u3044": 4708,
    "\u3092\u611f\u3058\u308b": 4709,
    "\u601d\u3063\u3066\u308b": 4710,
    "\u3081\u305f": 4711,
    "\u623b": 4712,
    "al": 4713,
    "\u5730\u533a": 4714,
    "\u98db\u3093\u3067": 4715,
    "\u305f\u3044\u306e": 4716,
    "\u2581\u305d\u3044\u3064": 4717,
    "\u7740\u9678": 4718,
    "\u554f\u984c\u304c": 4719,
    "\u306a\u3057\u3067": 4720,
    "\u2581\u5927\u4e08\u592b\u3067\u3059\u304b": 4721,
    "\u7591\u3044": 4722,
    "\u5869": 4723,
    "\u2581\u9577\u3044": 4724,
    "\u30e1\u30f3\u30d0\u30fc": 4725,
    "\u2581\u604b": 4726,
    "\u30ec\u30c3\u30c9": 4727,
    "\u2581\u9283\u3092": 4728,
    "\u30c9\u30e9\u30a4\u30d6": 4729,
    "\u2581\u5fc3\u81d3": 4730,
    "\u4f4e": 4731,
    "\u805e\u3044\u3066\u308b": 4732,
    "\u30d6\u30fc": 4733,
    "\u5168\u3066\u3092": 4734,
    "\u2581\u30da": 4735,
    "\u751f\u6d3b\u3092": 4736,
    "\u5206\u304b\u3063\u3066": 4737,
    "\u2581\u3059\u307e\u3093": 4738,
    "\u3064\u3082\u308a\u306f\u306a\u3044": 4739,
    "\u83dc": 4740,
    "\u304c\u4e00\u756a": 4741,
    "\u8584": 4742,
    "\u30b7\u30b9\u30c6\u30e0\u3092": 4743,
    "\u53e3\u3092": 4744,
    "\u3063\u3066\u3044\u3046\u306e": 4745,
    "\u533b\u5b66": 4746,
    "\u2581\u4f55\u306a\u306e": 4747,
    "\u30c3\u30ad\u30fc": 4748,
    "\u306e\u97f3": 4749,
    "\u77ed": 4750,
    "\u30cb\u30c3\u30af": 4751,
    "\u990c": 4752,
    "\u2581\u50d5\u3092": 4753,
    "\u6bba\u4eba\u4e8b\u4ef6": 4754,
    "\u5e2f": 4755,
    "\u5199": 4756,
    "\u2581\u5e78\u305b": 4757,
    "\u2581\u9003\u3052\u308b": 4758,
    "\u3053\u3068\u306f\u3067\u304d\u306a\u3044": 4759,
    "\u884c\u304b\u306a\u304d\u3083": 4760,
    "\u2581\u9a5a\u3044\u305f": 4761,
    "\u30a2\u30a6\u30c8": 4762,
    "\u76ae": 4763,
    "\u30ea\u30fc\u30c9": 4764,
    "\u308b\u306e\u3067\u3059": 4765,
    "\u30b2\u30fc\u30c8": 4766,
    "\u2581\u5974": 4767,
    "\u6599": 4768,
    "\u7406\u7531\u3092": 4769,
    "\u2581\u5f7c\u3089\u3092": 4770,
    "\u4ecb": 4771,
    "\u75db\u3044": 4772,
    "\u2581\u77e5\u3063\u3066": 4773,
    "\u30b9\u30bf\u30fc\u30c8": 4774,
    "\u3044\u304b\u306a\u3044": 4775,
    "\u30ed\u30fc\u30c9": 4776,
    "\u5fd7": 4777,
    "\u5f15\u3063": 4778,
    "\u30b5\u30e0": 4779,
    "\u8336": 4780,
    "\u30e8\u30f3": 4781,
    "\u2581\u99c4\u76ee": 4782,
    "\u7121\u304f": 4783,
    "\u7720": 4784,
    "\u6b62\u3081\u3066": 4785,
    "\u3053\u306e\u3088\u3046\u306a": 4786,
    "\u512a\u308c\u305f": 4787,
    "\u30c6\u30fc\u30de": 4788,
    "\u304c\u3042\u308b\u304b\u3089": 4789,
    "\u6b32\u3057\u3044\u306e": 4790,
    "\u6b7b\u4f53": 4791,
    "\u676f": 4792,
    "\u306e\u6e96\u5099": 4793,
    "\u8535": 4794,
    "\u5ac1": 4795,
    "\u5fd8\u308c\u3066": 4796,
    "\u5076\u7136": 4797,
    "\u2581\u304a\u5144\u3061\u3083\u3093": 4798,
    "\u6368\u3066": 4799,
    "\u30b9\u30c6\u30fc\u30b8": 4800,
    "\u3055\u3089\u306b": 4801,
    "\u2581\u30e6": 4802,
    "\u8131\u51fa": 4803,
    "\u2581\u5915\u98df": 4804,
    "\u304c\u51fa\u308b": 4805,
    "\u2581b": 4806,
    "\u2581\u8179": 4807,
    "\u3042\u308b\u306e": 4808,
    "\u30ca\u30a4\u30c8": 4809,
    "\u306a\u3089\u306a\u3044": 4810,
    "\u7159": 4811,
    "\u72fc": 4812,
    "\u2581\u50d5\u305f\u3061": 4813,
    "\u2581\u5b50\u4f9b\u9054": 4814,
    "\u2581\u9577": 4815,
    "\u307e\u3059\u306d": 4816,
    "\u2581\u3053\u306e\u524d": 4817,
    "\u2581\u6765\u3066": 4818,
    "\u901a\u308a\u306b": 4819,
    "\u2581\u98df\u4e8b": 4820,
    "\u4f1a\u3048\u308b": 4821,
    "\u6545\u90f7": 4822,
    "\u9818\u57df": 4823,
    "\u2581\u30b8\u30e7": 4824,
    "\u640d": 4825,
    "\u2581\u5f7c\u5973\u3068": 4826,
    "\u30b3\u30fc\u30c8": 4827,
    "\u4e0a\u3052": 4828,
    "\u2581\u518d\u3073": 4829,
    "\u2581\u7dca\u6025": 4830,
    "\u304b\u3082\u306a": 4831,
    "\u6e56": 4832,
    "\u8ca9\u58f2": 4833,
    "\u6982\u5ff5": 4834,
    "\u2581\u9055\u3044\u307e\u3059": 4835,
    "\u308b\u3088\u3046\u306a": 4836,
    "\u306b\u306a\u308c": 4837,
    "\u554f": 4838,
    "\u2581\u7406\u89e3": 4839,
    "\u2581\u305d\u308c\u4ee5\u4e0a": 4840,
    "\u5927\u4f50": 4841,
    "\u5148\u751f\u304c": 4842,
    "\u2581\u30bb": 4843,
    "\u2581\u4eca\u56de\u306e": 4844,
    "\u904e\u3054\u3059": 4845,
    "\u304c\u3042\u308a\u307e\u305b\u3093": 4846,
    "00": 4847,
    "\u306e\u69d8\u5b50": 4848,
    "\u2581\u590f": 4849,
    "\u50cd\u3044\u3066": 4850,
    "\u7206\u7834": 4851,
    "\u30ea\u30b9\u30af": 4852,
    "\u898b\u3064\u304b\u3063\u305f": 4853,
    "\u767b\u9332": 4854,
    "\u4eba\u9593\u306f": 4855,
    "\u30e1\u30c7\u30a3\u30a2": 4856,
    "\u518d\u3073": 4857,
    "\u3082\u3093\u3060": 4858,
    "\u2581\u30e1\u30fc\u30eb": 4859,
    "\u3060\u306a\u3093\u3066": 4860,
    "\u805e\u304d\u307e\u3057\u305f": 4861,
    "\u2581\u71b1": 4862,
    "\u5f7c\u3089\u304c": 4863,
    "\u8a71\u3057\u305f\u3044": 4864,
    "\u6d88\u3048\u308b": 4865,
    "\u30b9\u30fc\u30c4": 4866,
    "\u6050\u308d\u3057\u3044": 4867,
    "\u2581\u3082\u3057\u304b\u3057\u305f\u3089": 4868,
    "\u8aad\u3093\u3060": 4869,
    "\u3068\u601d\u3063\u3066\u3044\u308b": 4870,
    "\u3059\u308b\u307e\u3067": 4871,
    "\u30d7\u30ed\u30bb\u30b9": 4872,
    "\u2581\u305d\u3046\u3060\u3063\u305f": 4873,
    "\u2581\u30c7\u30fc\u30c8": 4874,
    "\u306a\u3093\u3067\u3059\u3088": 4875,
    "\u4f55\u3092\u3057\u3066\u3044\u308b": 4876,
    "\u90e8\u54c1": 4877,
    "\u3061\u3087\u3046\u3069": 4878,
    "\u2581\u30c0\u30cb\u30fc": 4879,
    "\u5cb8": 4880,
    "\u3068\u540c\u3058\u3088\u3046\u306b": 4881,
    "\u6613": 4882,
    "\u3068\u3057\u3066\u306f": 4883,
    "\u307e\u3063\u305f": 4884,
    "\u6240\u3067": 4885,
    "\u6642\u304b\u3089": 4886,
    "\u306e\u3053\u3068\u3067": 4887,
    "\u3057\u306a\u3051\u308c\u3070\u306a\u3089\u306a\u3044": 4888,
    "\u2581\u3053\u308c\u3089": 4889,
    "\u6697\u3044": 4890,
    "\u2581\u30a6\u30a3\u30eb": 4891,
    "\u2581\u5f85\u3063\u3066\u304f\u308c": 4892,
    "\u305d\u308c\u306b": 4893,
    "\u671f\u9593": 4894,
    "\u3044\u305f\u306e": 4895,
    "\u5b9f\u969b": 4896,
    "\u96fb\u8a71\u3057\u3066": 4897,
    "\u2581\u4e45\u3057\u3076\u308a": 4898,
    "\u2581\u3053\u3093\u306a\u4e8b": 4899,
    "\u7684\u3067": 4900,
    "\u91d1\u5c5e": 4901,
    "\u796d": 4902,
    "\u305f\u3061\u306b": 4903,
    "\u2581\u306a\u3093\u3060\u3088": 4904,
    "\u2581\u3053\u306e\u3088\u3046\u306b": 4905,
    "\u3089\u3057\u304f": 4906,
    "\u6050\u308c": 4907,
    "\u2581\u9811\u5f35\u308c": 4908,
    "\u5236\u5ea6": 4909,
    "\u884c\u304f\u305e": 4910,
    "\u6b63\u7fa9": 4911,
    "\u306b\u306a\u308c\u3070": 4912,
    "\u2581\u3080\u3057\u308d": 4913,
    "\u30b1\u30a4": 4914,
    "\u3042\u3063": 4915,
    "\u2581\u7d42\u308f\u3063\u305f": 4916,
    "\u3084\u3063\u3066\u305f": 4917,
    "\u5185\u3067": 4918,
    "\u30ad\u30e5": 4919,
    "\u5ba4\u306b": 4920,
    "\u306a\u3044\u3051\u3069": 4921,
    "\u4e8b\u4ef6\u306e": 4922,
    "\u30af\u30a4\u30fc\u30f3": 4923,
    "\u307f\u307e\u3057\u3087\u3046": 4924,
    "\u5185\u306e": 4925,
    "\u7f6e\u304d": 4926,
    "\u95a2\u4e0e": 4927,
    "\u4e0d\u6b63": 4928,
    "\u7bc4\u56f2": 4929,
    "\u5171\u540c": 4930,
    "\u96c6\u307e\u3063\u3066": 4931,
    "\u30ed\u30fc\u30ba": 4932,
    "\u2581\u305f\u3060\u3044\u307e": 4933,
    "\u7d66": 4934,
    "\u3064\u306a\u304c\u308a": 4935,
    "\u98df\u3079\u305f": 4936,
    "\u80a9": 4937,
    "\u2581\u4f55\u3088": 4938,
    "\u2581\u6c17\u3092\u3064\u3051\u3066": 4939,
    "\u3092\u5f97\u305f": 4940,
    "\u2581\u30b3\u30f3": 4941,
    "\u904e\u304e\u305f": 4942,
    "\u9670": 4943,
    "\u3092\u898b\u308d": 4944,
    "\u2581\u4eca\u56de": 4945,
    "\u9001\u3063\u305f": 4946,
    "\u2581\u6bce\u5e74": 4947,
    "\u30a4\u30f3\u30bf\u30d3\u30e5\u30fc": 4948,
    "\u5206\u304b\u308a\u307e\u3059": 4949,
    "\u30cb\u30a2": 4950,
    "\u306a\u306e\u306f": 4951,
    "on": 4952,
    "\u5f62\u3067": 4953,
    "\u2581\u91cd\u8981\u306a": 4954,
    "\u304a\u3044\u3066": 4955,
    "\u8aac": 4956,
    "\u2581\u6b63\u3057\u3044": 4957,
    "\u2581\u5974\u304c": 4958,
    "\u2581\u7121\u99c4": 4959,
    "\u30b1\u30c4": 4960,
    "\u2581\u540c\u6642\u306b": 4961,
    "\u2581\u8a08\u753b": 4962,
    "\u6012\u308a": 4963,
    "\u81ea\u4fe1": 4964,
    "\u805e\u3044\u3066\u304f\u308c": 4965,
    "\u308b\u4e8b": 4966,
    "\u3092\u6b62\u3081\u308b": 4967,
    "\u2581\u30a2\u30a2": 4968,
    "\u2581\u30b8\u30e7\u30fc\u30b8": 4969,
    "\u98ef": 4970,
    "\u9032\u3093\u3067": 4971,
    "\u8fd8": 4972,
    "\u2581\u305a\u3044\u3076\u3093": 4973,
    "\u2581\u305d\u306e\u305f\u3081\u306b": 4974,
    "\u793e\u306e": 4975,
    "\u4e0a\u3052\u3066": 4976,
    "\u5f93\u696d\u54e1": 4977,
    "\u53ef\u611b\u3044": 4978,
    "\u30a6\u30a3\u30f3": 4979,
    "\u898b\u3066\u3044\u308b": 4980,
    "\u5104\u30c9\u30eb": 4981,
    "\u2581\u521d": 4982,
    "\u306e\u3088\u3046\u306a\u3082\u306e": 4983,
    "\u5947\u5999\u306a": 4984,
    "\u5915\u98df": 4985,
    "\u2581\u96e8": 4986,
    "\u2581\u5909": 4987,
    "\u308d\u3046\u3068": 4988,
    "\u30d9\u30c3\u30c9": 4989,
    "\u2581\u751f\u5f92": 4990,
    "\u505a": 4991,
    "\u8abf\u3079\u308b": 4992,
    "\u2581\u884c\u304d\u307e\u3057\u3087\u3046": 4993,
    "\u2581\u3042\u3093\u307e\u308a": 4994,
    "\u3055\u3042": 4995,
    "\u5468": 4996,
    "\u6c17\u306b\u3057\u306a\u3044": 4997,
    "\u2581\u30b3\u30f3\u30d4\u30e5\u30fc\u30bf": 4998,
    "\u7b2c\u4e00": 4999,
    "id": 5000,
    "\u2581E": 5001,
    "\u4eac": 5002,
    "\u4e94": 5003,
    "\u7956\u7236": 5004,
    "\u4e16\u8a71": 5005,
    "\u5197\u8ac7": 5006,
    "\u9244": 5007,
    "\u3063\u3066\u3070": 5008,
    "\u4f1a\u5834": 5009,
    "\u2581\u3054\u4e3b\u4eba": 5010,
    "\u5275": 5011,
    "\u6765\u3066\u308b": 5012,
    "\u305d\u3046\u3060\u3063\u305f": 5013,
    "\u304c\u3044\u305f": 5014,
    "\u8d08\u308a\u7269": 5015,
    "\u653f\u7b56": 5016,
    "\u8ab0\u3060": 5017,
    "\u53e3\u306b": 5018,
    "\u3084\u3081": 5019,
    "\u2581\u4e00\u751f": 5020,
    "\u56e3\u4f53": 5021,
    "\u51b7": 5022,
    "\u5302\u3044": 5023,
    "\u2581\u8003\u3048\u3066": 5024,
    "\u2581\u516c": 5025,
    "\u2581\u5f37\u3044": 5026,
    "\u2581\u305d\u3053\u306f": 5027,
    "\u4f1a\u3044\u305f\u3044": 5028,
    "\u30a2\u30d5\u30ea\u30ab": 5029,
    "\u30d7\u30e9\u30f3": 5030,
    "\u30ac\u30a4": 5031,
    "800": 5032,
    "\u7a2e\u985e": 5033,
    "\u6563\u6b69": 5034,
    "\u3053\u3068\u306b\u306a\u308a\u307e\u3059": 5035,
    "\u2581\u6614\u306e": 5036,
    "\u2581\u6b8b\u5ff5\u306a\u304c\u3089": 5037,
    "\u8d77\u3053\u308a": 5038,
    "\u30b9\u30bf\u30c3\u30d5": 5039,
    "\u6551\u3044": 5040,
    "\u7cde": 5041,
    "\u9280\u6cb3": 5042,
    "\u2581\u305d\u3046\u3067\u3059\u306d": 5043,
    "\u306a\u3069\u306e": 5044,
    "\u306e\u751f\u6d3b": 5045,
    "\u898b\u65b9": 5046,
    "\u2581\u90a3": 5047,
    "\u306f\u9055\u3046": 5048,
    "\u5909\u306a": 5049,
    "\u30ad\u30df": 5050,
    "\u5e78\u798f": 5051,
    "\u7d66\u6599": 5052,
    "\u4e0d\u662f": 5053,
    "\u258111": 5054,
    "\u3082\u3044\u308b": 5055,
    "\u624b\u4f1d\u3044": 5056,
    "\u30c1\u30f3": 5057,
    "\u306e\u70ba": 5058,
    "\u8ffd": 5059,
    "\u90e8\u306e": 5060,
    "\u2581\u79c1\u306b\u3068\u3063\u3066": 5061,
    "\u2581\u5e73": 5062,
    "\u68d2": 5063,
    "\u8a00\u3063\u305f\u306e": 5064,
    "\u7802\u6f20": 5065,
    "\u547c\u5438": 5066,
    "\u2581\u307e\u305a\u3044": 5067,
    "\u306e\u307b\u3046\u304c": 5068,
    "\u7fa4": 5069,
    "\u30e1\u30c3\u30bb\u30fc\u30b8\u3092": 5070,
    "\u6848\u5185": 5071,
    "\u5fa9\u6d3b": 5072,
    "\u266b": 5073,
    "\u5927\u5207\u306a": 5074,
    "\u3059\u307f\u307e\u305b\u3093": 5075,
    "\u2581\u3053\u306e\u5199\u771f": 5076,
    "\u6700": 5077,
    "\u4e8c\u3064\u306e": 5078,
    "\u4ee3\u308f\u308a": 5079,
    "\u2581\u8d77\u304d\u3066": 5080,
    "\u696d\u754c": 5081,
    "\u258140": 5082,
    "\u3067\u306f\u306a\u304b\u3063\u305f": 5083,
    "\u6750\u6599": 5084,
    "\u2581\u6a2a": 5085,
    "\u6c7a\u3057\u3066": 5086,
    "\u8abf\u3079\u3066": 5087,
    "\u305a\u3064": 5088,
    "is": 5089,
    "\u2581\u30d5\u30d5\u30d5": 5090,
    "\u904b\u8ee2\u624b": 5091,
    "\u8cbb\u7528": 5092,
    "\u7248": 5093,
    "\u77ed\u3044": 5094,
    "\u3092\u4fe1\u3058\u308b": 5095,
    "\u5f85\u6a5f": 5096,
    "\u304a\u3044\u3067": 5097,
    "\u2581\u899a\u3048\u3066\u308b": 5098,
    "\u305f\u306e\u3067\u3059": 5099,
    "\u3060\u3051\u3067\u3082": 5100,
    "\u306e\u4eba\u751f": 5101,
    "\u308f\u306a\u3044": 5102,
    "\u2581\u5b6b": 5103,
    "\u2581\u9593\u9055\u3044\u306a\u3044": 5104,
    "\u2581\u3060\u3081\u3060": 5105,
    "\u6bd4\u3079": 5106,
    "\u79fb": 5107,
    "\u6c5a": 5108,
    "\u304b\u3059": 5109,
    "\u597d\u304d\u3060": 5110,
    "\u8a00\u3063\u3066\u3044\u308b": 5111,
    "\u6307\u63ee": 5112,
    "\u2581\u6c37": 5113,
    "\u2581\u5076\u7136": 5114,
    "\u643a\u5e2f\u96fb\u8a71": 5115,
    "\u2581\u5b9f\u306b": 5116,
    "\u30ab\u30e9": 5117,
    "\u30a6\u30a3\u30eb\u30b9": 5118,
    "\u3057\u305f\u4e8b": 5119,
    "\u2581\u6cbb\u7642": 5120,
    "\u2581\u7279\u5225": 5121,
    "\u30da\u30c3\u30c8": 5122,
    "\u3092\u6bba\u3057\u3066": 5123,
    "\u306e\u8a00\u8449": 5124,
    "\u2581\u30cf\u30fc": 5125,
    "\u65b0\u805e": 5126,
    "\u521d": 5127,
    "\u6c17\u304c\u3059\u308b": 5128,
    "\u8abf\u3079\u305f": 5129,
    "\u306a\u3044\u3068\u3044\u3051\u306a\u3044": 5130,
    "\u30dc\u30fc\u30c8": 5131,
    "\u3069\u3046\u3060": 5132,
    "\u9283\u3092": 5133,
    "\u30c1\u30a7": 5134,
    "\u5fc3\u306b": 5135,
    "\u8a71\u3055\u306a\u3044": 5136,
    "\ue4c6": 5137,
    "\u3060\u3063\u305f\u306e\u3067\u3059": 5138,
    "\u2581\u611b\u3057\u3066\u308b": 5139,
    "\u56da\u4eba": 5140,
    "\u4f5c\u5bb6": 5141,
    "\u3092\u3064\u3051\u3066": 5142,
    "\u9014\u4e2d\u3067": 5143,
    "\u8efd": 5144,
    "\u30b9\u30d4\u30fc\u30c9": 5145,
    "\u7406\u7531\u304c": 5146,
    "\u3093\u3060\u304c": 5147,
    "\u5893": 5148,
    "\u53bb\u3063\u305f": 5149,
    "\u884c\u3051\u306a\u3044": 5150,
    "\u7c21\u5358": 5151,
    "\u3059\u308c\u3070\u3044\u3044": 5152,
    "\u2581\u30ed\u30b7\u30a2": 5153,
    "\u7cbe": 5154,
    "\u5c0b\u554f": 5155,
    "\u8208\u5473\u6df1\u3044": 5156,
    "\u6700\u60aa": 5157,
    "\u8a8d\u3081\u308b": 5158,
    "\u305f\u304f\u306a\u304b\u3063\u305f": 5159,
    "\u30b3\u30fc\u30eb": 5160,
    "\u305d\u3053\u3067": 5161,
    "\u5e38\u306b": 5162,
    "\u4ea4\u901a": 5163,
    "km": 5164,
    "\u91d1\u5eab": 5165,
    "\u81ea\u3089": 5166,
    "\u3082\u3089\u304a\u3046": 5167,
    "\u306e\u6642\u9593": 5168,
    "400": 5169,
    "\u3044\u3044\u3051\u3069": 5170,
    "\u5fc5\u8981\u306a": 5171,
    "\u8cb8\u3057": 5172,
    "\u30db\u30fc\u30e0": 5173,
    "\u30ea\u30fc\u30f3": 5174,
    "\u2581\u5144\u8cb4": 5175,
    "\u2581\u30aa\u30fc\u30b1\u30fc": 5176,
    "\u2581\u98db\u884c\u6a5f": 5177,
    "\u9078\u3093\u3060": 5178,
    "\u3068\u601d\u3063\u3066\u3044\u305f": 5179,
    "\u4f4e\u3044": 5180,
    "\u306f\u6b7b\u3093\u3060": 5181,
    "\u90e8\u4e0b": 5182,
    "\u3093\u306a\u3089": 5183,
    "\u8a00\u3044\u65b9": 5184,
    "\u2581\u3069\u3053\u3078": 5185,
    "\u5de8\u4eba": 5186,
    "\u306f\u8ab0\u3060": 5187,
    "\u5439\u304d": 5188,
    "\u3044\u3051\u306a\u3044": 5189,
    "\u76d7": 5190,
    "\u73fe\u308c\u305f": 5191,
    "\u3079\u304d\u3060\u3063\u305f": 5192,
    "\u8a00\u308f": 5193,
    "\u6b63\u5e38": 5194,
    "\u30ab\u30fc\u30c9\u3092": 5195,
    "\u2581\u3069\u3046\u3044\u3046\u610f\u5473": 5196,
    "\u3060\u3089\u3051": 5197,
    "\u5b89\u5b9a": 5198,
    "\u305b\u305a": 5199,
    "\u7701": 5200,
    "\u4fe1\u3058\u3066\u308b": 5201,
    "\u306f\u3058\u3081": 5202,
    "\u4f59\u88d5": 5203,
    "\u5f37\u529b\u306a": 5204,
    "\u66ff\u3048": 5205,
    "\u60c5\u5831\u306f": 5206,
    "\u3092\u7f6e\u3044\u3066": 5207,
    "\u5c11\u306a\u3044": 5208,
    "\u54b2": 5209,
    "FBI": 5210,
    "\u65d7": 5211,
    "\u304a\u524d\u306b": 5212,
    "\u2581\u9996": 5213,
    "es": 5214,
    "\u304b\u4f55\u304b": 5215,
    "\u2581\u77e5\u3089\u306a\u304b\u3063\u305f": 5216,
    "\u5199\u771f\u3092": 5217,
    "\u5f35": 5218,
    "\u78ba\u4fdd": 5219,
    "\u9664": 5220,
    "\u3092\u63a2\u3057\u3066\u308b": 5221,
    "\u6a29\u529b": 5222,
    "\u307e\u3042": 5223,
    "\u3060\u3063\u305f\u306a": 5224,
    "\u88ab\u5bb3": 5225,
    "\u2581\u50d5\u3089": 5226,
    "\u7236\u3055\u3093": 5227,
    "\u795d": 5228,
    "\u8abf\u3079": 5229,
    "\u2581\u30e4": 5230,
    "\u30a4\u30ab": 5231,
    "\u73fe": 5232,
    "\u2581\u3059\u3070\u3089\u3057\u3044": 5233,
    "\u884c\u304f\u308f": 5234,
    "\u51fa\u53e3": 5235,
    "\u9663": 5236,
    "\u30a4\u30d9\u30f3\u30c8": 5237,
    "\u2581\u30b8\u30a7\u30a4": 5238,
    "\u3093\u3058\u3083\u306d\u3048": 5239,
    "\u3054\u3068\u306b": 5240,
    "\u8a71\u3057\u3066\u308b": 5241,
    "\u8a71\u305b\u308b": 5242,
    "\u3092\u51fa\u3057\u3066": 5243,
    "300": 5244,
    "\u306a\u3044\u3067\u3057\u3087\u3046": 5245,
    "\u3064\u3044\u3066\u308b": 5246,
    "\u6065": 5247,
    "\u89e3\u6c7a\u7b56": 5248,
    "\u306e\u8a71\u306f": 5249,
    "\u691c\u8a0e": 5250,
    "\u307e\u3059\u304c": 5251,
    "\u5fc5\u305a": 5252,
    "\u8208\u596e": 5253,
    "\u2581\u50d5\u306b\u306f": 5254,
    "\u2581\u30d3\u30fc\u30eb": 5255,
    "\u72a0\u7272\u8005": 5256,
    "\u2581\u99ac": 5257,
    "\u308f\u304b\u3063\u3066": 5258,
    "\u4e0a\u304c\u308a": 5259,
    "\u2581\u5f53\u6642": 5260,
    "\u816b\u760d": 5261,
    "\u9806\u8abf": 5262,
    "\u610f\u5fd7": 5263,
    "\u60c5\u71b1": 5264,
    "\u304f\u306a\u3063\u305f": 5265,
    "\u30b7\u30a7": 5266,
    "\u3066\u304f\u308c\u305f": 5267,
    "\u8fc7": 5268,
    "\u6bcd\u3055\u3093": 5269,
    "\u307e\u3057\u3087\u3046\u304b": 5270,
    "\u2581\u30af\u30ea\u30b9\u30de\u30b9": 5271,
    "\u306e\u534a\u5206": 5272,
    "\u7403": 5273,
    "\u52a9\u3051\u3066": 5274,
    "\u968e\u6bb5": 5275,
    "\u30db\u30c6\u30eb": 5276,
    "\u9023\u90a6": 5277,
    "\u9177\u3044": 5278,
    "\u2581\u6700\u521d\u304b\u3089": 5279,
    "\u4e00\u5207": 5280,
    "\u80cc": 5281,
    "\u307e\u308c": 5282,
    "\u7f6e": 5283,
    "\u2581\u5bb9\u7591\u8005": 5284,
    "23": 5285,
    "\u2581\u30d1\u30d1\u306f": 5286,
    "\u306a\u304f\u3061\u3083": 5287,
    "\u76f4\u3059": 5288,
    "\u306e\u8eca": 5289,
    "\u30d0\u30a4\u30aa": 5290,
    "\u2581\u3042\u308b\u65e5": 5291,
    "\u899a\u609f": 5292,
    "\u541b\u3068": 5293,
    "\u4eba\u304c\u3044\u308b": 5294,
    "\u3092\u77e5\u308b": 5295,
    "ra": 5296,
    "\u610f\u56f3": 5297,
    "\u3092\u3082\u3063\u3066": 5298,
    "\u795e\u69d8": 5299,
    "\u2581\u81ea\u5df1": 5300,
    "\u523a\u6fc0": 5301,
    "\u7a4d": 5302,
    "\u3069\u3061\u3089": 5303,
    "\u306e\u304b\u3082": 5304,
    "\u6c7a\u65ad": 5305,
    "\u65b0\u305f\u306a": 5306,
    "\u30db\u30f3": 5307,
    "\u5b88\u3063\u3066": 5308,
    "\u8a08\u753b\u3092": 5309,
    "\u30f4\u30a1\u30fc": 5310,
    "\u2581\u7a93": 5311,
    "\u2581\u3067\u304d\u306a\u3044": 5312,
    "\u306e\u5834\u5408": 5313,
    "\u2581\u9006": 5314,
    "\u9023\u7d9a": 5315,
    "\u6210\u7e3e": 5316,
    "\u62f7\u554f": 5317,
    "\u624b\u4f1d\u3046": 5318,
    "\u30ca\u30a4": 5319,
    "\u4e07\u4eba": 5320,
    "U": 5321,
    "\u3092\u51fa\u3059": 5322,
    "\u2581\u3069\u308c\u304f\u3089\u3044": 5323,
    "\u3092\u653b\u6483": 5324,
    "\u2581\u751f\u304d\u3066\u308b": 5325,
    "\u2581\u52a9\u3051\u3066\u304f\u308c": 5326,
    "\u5c06": 5327,
    "\u5831\u916c": 5328,
    "\u4eba\u3067\u3059": 5329,
    "\u7d50\u69cb": 5330,
    "\u3054\u89a7": 5331,
    "\u2581\u307b\u307c": 5332,
    "\u56fa": 5333,
    "\u5e74\u751f": 5334,
    "\u2581\u5354\u529b": 5335,
    "\u2581\u30d5": 5336,
    "\u2581\u3069\u3046\u3059\u308c\u3070": 5337,
    "\u83cc": 5338,
    "\u628a": 5339,
    "\u9589\u9396": 5340,
    "\u2581\u6765\u3044": 5341,
    "\u2581\u6700\u4f4e": 5342,
    "\u30c4\u30fc\u30eb": 5343,
    "\u2581\u9152": 5344,
    "\u8de1": 5345,
    "\u4e0e\u3048": 5346,
    "\u306a\u308a\u307e\u3057\u305f": 5347,
    "\u2581\u30de\u30fc": 5348,
    "\u30c1\u30b1\u30c3\u30c8": 5349,
    "\u8ad6\u6587": 5350,
    "\u5c55\u958b": 5351,
    "\u306e\u7236\u89aa": 5352,
    "\u5bc4": 5353,
    "\u2581\u3069\u3093\u306a\u306b": 5354,
    "\u2581\u30c0\u30f3": 5355,
    "\u5730\u65b9": 5356,
    "\u2581\u82f1\u8a9e": 5357,
    "\u597d\u307f": 5358,
    "\u2581\u77e5\u308b": 5359,
    "\u4e0d\u80fd": 5360,
    "\u30d6\u30ec": 5361,
    "\u5e30\u308d\u3046": 5362,
    "\u2501": 5363,
    "\u4f59\u8a08": 5364,
    "\u3053\u3068\u3067\u3057\u3087\u3046": 5365,
    "\u2581\u7d42\u308f\u308a": 5366,
    "\u5049\u5927\u306a": 5367,
    "\u3057\u305f\u3068\u304d": 5368,
    "\u898b\u305f\u3044": 5369,
    "\u6559\u3048\u3066\u304f\u308c\u305f": 5370,
    "an": 5371,
    "\u982d\u3092": 5372,
    "\u4e00\u822c": 5373,
    "\u30de\u30b9\u30bf\u30fc": 5374,
    "\u3063\u3066\u3053\u3068\u306f": 5375,
    "\u30c1\u30e5": 5376,
    "\u3084\u3089\u308c\u305f": 5377,
    "\u4fe1\u3058\u306a\u3044": 5378,
    "\u2581\u58f0": 5379,
    "\u8abf\u6574": 5380,
    "\u660e\u3089\u304b": 5381,
    "\u2581\u30a2\u30d5\u30ea\u30ab": 5382,
    "\u5831\u9053": 5383,
    "\u2581\u30be\u30f3\u30d3": 5384,
    "\u30b8\u30e7": 5385,
    "\u306b\u79fb": 5386,
    "\u5974\u304c": 5387,
    "\u306b\u3042\u308a\u307e\u3059": 5388,
    "\u3053\u308c\u3089\u306e": 5389,
    "\u30b7\u30e5\u30fc": 5390,
    "\u4f0f\u305b": 5391,
    "\u5168\u54e1\u304c": 5392,
    "\u51fa\u3066\u304d\u305f": 5393,
    "\u8eab\u3092": 5394,
    "\u5f37\u76d7": 5395,
    "\u2581\u8b66\u5bdf\u306f": 5396,
    "\u5bb3": 5397,
    "\u3054\u3081\u3093\u306a\u3055\u3044": 5398,
    "\u964d\u308a\u3066": 5399,
    "\u6559\u3048\u3066\u304f\u308c": 5400,
    "\u2581\u30a8\u30cd\u30eb\u30ae\u30fc": 5401,
    "\u30ea\u30f3\u30af": 5402,
    "\u8cb7\u3046": 5403,
    "\u2581\u9280\u884c": 5404,
    "\u7136": 5405,
    "\u306f\u305a\u3088": 5406,
    "\u5c4a\u3051": 5407,
    "\u5c5e": 5408,
    "\u3060\u308d\u3046\u3068": 5409,
    "\u81ea\u52d5\u8eca": 5410,
    "\u2581\u4e21\u89aa": 5411,
    "\u3055\u3093\u3082": 5412,
    "\u30cb\u30e5\u30fc\u30e8\u30fc\u30af": 5413,
    "\u2581\u898b\u305b\u3066": 5414,
    "\u4f55\u3068\u304b": 5415,
    "\u3067\u3042\u308b\u3068": 5416,
    "\u57fa\u6e96": 5417,
    "\u8f38\u9001": 5418,
    "\u3084\u304c\u3063\u3066": 5419,
    "80": 5420,
    "\u6c7a\u3081\u3066": 5421,
    "\u8986": 5422,
    "\u9045\u308c": 5423,
    "\u67c4": 5424,
    "\u30d0\u30ec": 5425,
    "\u4e0d\u6e80": 5426,
    "\u964d\u308a": 5427,
    "\u3068\u3044\u3044": 5428,
    "\u2581\u6bba\u3055\u308c\u305f": 5429,
    "\u6e1b": 5430,
    "\u2581\u30cf\u30f3": 5431,
    "\u3089\u305b": 5432,
    "\u306a\u304d\u3083\u3044\u3051\u306a\u3044": 5433,
    "\u2581\u3042\u305d\u3053\u306b": 5434,
    "\u2581\u6050\u6016": 5435,
    "\u2581\u7206\u5f3e": 5436,
    "\u30a2\u30f3\u30c9": 5437,
    "\u2581\u4e21\u65b9": 5438,
    "\u258117": 5439,
    "\u30c8\u30ea\u30c3\u30af": 5440,
    "\u30bf\u30a4\u30df\u30f3\u30b0": 5441,
    "\u2581\u307f\u3093\u306a\u304c": 5442,
    "\u2581\u305d\u306e\u524d\u306b": 5443,
    "\u6483\u3063\u305f": 5444,
    "\u56de\u3063\u3066": 5445,
    "\u30b3\u30fc\u30b9": 5446,
    "\u9a12\u304e": 5447,
    "\u5fc3\u306e": 5448,
    "\u2581\u5c11\u5e74": 5449,
    "\u5fc3\u304c": 5450,
    "\u6210\u679c": 5451,
    "\u7e70\u308a\u8fd4\u3057": 5452,
    "\u2581\u30b0": 5453,
    "\u96a0\u308c\u3066": 5454,
    "\u2581\u81ea\u5206\u81ea\u8eab": 5455,
    "\u30de\u30b8\u30c3\u30af": 5456,
    "\u2581\u5927\u5909\u306a": 5457,
    "\u2581\u304a\u3063\u3068": 5458,
    "\u2581\u30cf\u30ed\u30eb\u30c9": 5459,
    "\u3092\u9078\u3076": 5460,
    "\u624b\u914d": 5461,
    "\u2581\u30de\u30de\u306f": 5462,
    "sa": 5463,
    "\u30a2\u30e1\u30ea\u30ab\u4eba": 5464,
    "\u6c17\u4ed8\u3044\u305f": 5465,
    "\u2581\u610f\u8b58": 5466,
    "\u884c\u304b": 5467,
    "\u516d": 5468,
    "\u2581\u304a\u524d\u306b\u306f": 5469,
    "\u65cf": 5470,
    "\u6027\u306e": 5471,
    "\u89e6": 5472,
    "\u306a\u3055\u3044\u3088": 5473,
    "\u52d9": 5474,
    "\u30c8\u30ec": 5475,
    "\u3057\u307e\u3044\u307e\u3059": 5476,
    "\u7269\u304c": 5477,
    "\u771f\u4f3c": 5478,
    "\u9019": 5479,
    "\u7a0e": 5480,
    "\u2581\u3053\u308c\u3089\u306f": 5481,
    "\u6642\u9593\u3060": 5482,
    "\u9762\u5012": 5483,
    "\u30b9\u30ad\u30e3\u30f3": 5484,
    "\u30db\u30c3": 5485,
    "\u8105\u8feb": 5486,
    "\u3068\u3057\u305f": 5487,
    "\u5c0f\u8aac": 5488,
    "\u2581\u3069\u3046\u601d\u3046": 5489,
    "\u3068\u3053\u308d\u3060": 5490,
    "\u2581\u6751": 5491,
    "\u3063\u3066\u3070\u3088": 5492,
    "\u3068\u3057\u3066\u306e": 5493,
    "\u640d\u50b7": 5494,
    "\u4f55\u4eba\u304b": 5495,
    "\u88c5": 5496,
    "\u2581\u30b3\u30f3\u30d4\u30e5\u30fc\u30bf\u30fc": 5497,
    "\u2581\u304a\u524d\u9054": 5498,
    "\u2581\u4e16\u754c\u4e2d": 5499,
    "\u30bb\u30eb": 5500,
    "\u4e0d\u8981": 5501,
    "\u30ab\u30c3\u30c8": 5502,
    "\u8aa4\u89e3": 5503,
    "22": 5504,
    "\u2581\u7b2c\u4e00": 5505,
    "\u2581\u547d\u4ee4": 5506,
    "\u3067\u3054\u3056\u3044\u307e\u3059": 5507,
    "\u2581\u53ef\u611b\u3044": 5508,
    "\u2581\u5931\u6557": 5509,
    "\u2581\u6628\u65e5\u306e": 5510,
    "\u306b\u3057\u3088\u3046": 5511,
    "\u990a": 5512,
    "\u306e\u5927": 5513,
    "\u4fe1\u3058\u3089\u308c\u306a\u3044": 5514,
    "\u2581\u7d20\u6575\u306a": 5515,
    "\u4f11": 5516,
    "\u3092\u78ba\u8a8d": 5517,
    "\u30cf\u30fc": 5518,
    "\u512a\u3057\u3044": 5519,
    "\u30a4\u30f3\u30bf\u30fc\u30cd\u30c3\u30c8": 5520,
    "\u3069\u306e": 5521,
    "\u4fe1\u3058\u3066": 5522,
    "\u306b\u4f55\u304b": 5523,
    "\u5dfb\u304d": 5524,
    "\u3065\u3051": 5525,
    "\u60aa\u5922": 5526,
    "\u2581\u3084\u3081\u3066\u304f\u308c": 5527,
    "\u2581\u6210\u529f": 5528,
    "\u307f\u305f\u3044\u306d": 5529,
    "\u2581\u8abf\u67fb": 5530,
    "\u2581\u4e00\u65b9": 5531,
    "\u914d\u7f6e": 5532,
    "\u8a00\u3046\u306e": 5533,
    "\u5927\u5b66\u306e": 5534,
    "\u8a66\u5408": 5535,
    "\u901a\u5831": 5536,
    "\u5bf9": 5537,
    "\u2581\u91cd": 5538,
    "fbi": 5539,
    "\u5973\u304c": 5540,
    "\u2581\u4eca\u3084": 5541,
    "\u904a": 5542,
    "\u767a\u52d5": 5543,
    "\u4e00\u7dd2": 5544,
    "\u30de\u30a4": 5545,
    "\u3088\u3046\u306b\u306a\u308b": 5546,
    "\u2581\u30ca": 5547,
    "\u6905\u5b50": 5548,
    "\u6cb3": 5549,
    "\u2581\u8d64\u3044": 5550,
    "\u8d77\u304d\u308b": 5551,
    "\u2581\u3069\u3093\u3069\u3093": 5552,
    "\u5012": 5553,
    "\u5e78\u305b\u306a": 5554,
    "\u6c17\u306e\u6bd2": 5555,
    "\u64cd": 5556,
    "\u2581\u305d\u306e\u5b50": 5557,
    "\u2581\u5206\u304b\u3063\u3066": 5558,
    "\u7d44\u307f": 5559,
    "\u88dc": 5560,
    "\u2581\u904b": 5561,
    "\u82e6\u3057\u307f": 5562,
    "\u6c17\u6301": 5563,
    "\u2581\u5144\u5f1f": 5564,
    "\u2581\u7279\u5225\u306a": 5565,
    "\u2581\u6b74\u53f2": 5566,
    "\u2581\u72af\u7f6a": 5567,
    "\u60b2\u5287": 5568,
    "\u2581\u30cb\u30c3\u30af": 5569,
    "\u2581\u30ad\u30e0": 5570,
    "\u306a\u3044\u308f\u3088": 5571,
    "\u3063\u3066\u3044\u3046\u306e\u306f": 5572,
    "\u8170": 5573,
    "\u30ae\u30fc": 5574,
    "\u6b66\u88c5": 5575,
    "\u2581\u965b\u4e0b": 5576,
    "\u3068\u306a\u308a\u307e\u3059": 5577,
    "\u30c8\u30a4\u30ec": 5578,
    "\u2581\u3044\u3064\u304b\u3089": 5579,
    "\u671b": 5580,
    "\u2581\u672c\u6c17": 5581,
    "\u3057\u3055": 5582,
    "\u7f8a": 5583,
    "\u8aaa": 5584,
    "\u2581\u305d\u306e\u7d50\u679c": 5585,
    "\u306e\u610f\u5473": 5586,
    "\u9054\u6210": 5587,
    "\u2581\u6559\u3048\u3066\u304f\u308c": 5588,
    "\u306d\u30fc": 5589,
    "\u2581\u3042\u306e\u7537": 5590,
    "\u3067\u3042\u308c\u3070": 5591,
    "\u7d1a": 5592,
    "\u3055\u305b\u308d": 5593,
    "\u3057\u305f\u3093\u3067\u3059": 5594,
    "\u30b0\u30e9\u30d5": 5595,
    "\u98df\u6599": 5596,
    "\u546a\u3044": 5597,
    "\u304b\u3093": 5598,
    "\u30b1\u30f3": 5599,
    "\u51fa\u4f1a\u3044": 5600,
    "\u898b\u305b\u3066": 5601,
    "\u5fd8\u308c\u305f": 5602,
    "\u30a2\u30fc\u30c8": 5603,
    "\u79fb\u690d": 5604,
    "\u2581\u590f\u76ee": 5605,
    "\u3051\u3066": 5606,
    "\u305f\u3060\u306e": 5607,
    "\u8a00\u308f\u308c\u3066": 5608,
    "\u3061\u3083\u3093\u306f": 5609,
    "\u7121\u8996": 5610,
    "\u3044\u3044\u3093\u3060": 5611,
    "\u5c45\u306a\u3044": 5612,
    "\u2581\u3068\u3093\u3067\u3082\u306a\u3044": 5613,
    "\u5074\u306b": 5614,
    "\u2581\u3053\u3063\u3061\u306b": 5615,
    "\u3092\u9078\u3093\u3060": 5616,
    "\u2581\u30d0\u30b9": 5617,
    "\u3057\u3066\u305f\u306e": 5618,
    "\u9001\u308b": 5619,
    "\u5b66\u3093\u3060": 5620,
    "\u3076\u308a": 5621,
    "\u3060\u3063\u305f\u3088": 5622,
    "\u3060\u3063\u305f\u306e\u306b": 5623,
    "\u2581\u4f55\u3067\u3082\u306a\u3044": 5624,
    "\u305f\u306e\u3088": 5625,
    "\u6d88\u8cbb": 5626,
    "\u3069\u306e\u3088\u3046\u306b": 5627,
    "35": 5628,
    "\u6319\u3052": 5629,
    "\u75c5\u9662\u306b": 5630,
    "\u9078\u6319": 5631,
    "\u2581\u3042\u306e\u5973": 5632,
    "\u2581\u30e8": 5633,
    "\u2581\u6c17\u306b": 5634,
    "\u629c\u304d": 5635,
    "\u7db2": 5636,
    "\u3068\u8a00\u3063\u3066\u308b": 5637,
    "\u2581\u5148\u307b\u3069": 5638,
    "\u8a34\u3048": 5639,
    "\u2581\u559c\u3093\u3067": 5640,
    "\u2581\u3055\u3063\u304d\u306e": 5641,
    "\u2581\u30aa\u30ec\u305f\u3061": 5642,
    "\u53e3\u5ea7": 5643,
    "\u2581DNA": 5644,
    "\u2581\u3053\u3053\u3092": 5645,
    "\u2581\u5fc3\u914d\u3059\u308b\u306a": 5646,
    "\u2581\u305f\u3060\u3057": 5647,
    "\u2581\u305c\u3072": 5648,
    "\u4e2d\u5fc3": 5649,
    "\u30a6\u30f3": 5650,
    "\u305f\u3044\u3093\u3060": 5651,
    "\u9727": 5652,
    "\u3042\u305f\u3057": 5653,
    "\u2581\u5927\u4e8b\u306a": 5654,
    "\u30d2\u30c8": 5655,
    "\u2581\u305f\u3068\u3048\u3070": 5656,
    "\u5e95": 5657,
    "\u78ba\u7387": 5658,
    "\u2581\u4ed6\u4eba": 5659,
    "\u4f11\u6687": 5660,
    "\u660e\u3089\u304b\u306b": 5661,
    "\u6c7a\u307e\u3063\u305f": 5662,
    "\u30ea\u30fc\u30b9": 5663,
    "\u2581\u5404": 5664,
    "\u3067\u304d\u308b\u3053\u3068": 5665,
    "\u4ed8\u3051\u308b": 5666,
    "\u5854": 5667,
    "\u30a6\u30bd": 5668,
    "\u5e1d\u56fd": 5669,
    "\u9084": 5670,
    "\u6c7a\u3081\u308b": 5671,
    "\u2581\u3044\u3051": 5672,
    "\u2581\u8cac\u4efb": 5673,
    "\u99d0\u8eca\u5834": 5674,
    "\u8b70\u4f1a": 5675,
    "\u5339": 5676,
    "\u2581\u534a": 5677,
    "\u6ce8": 5678,
    "\u3057\u306a": 5679,
    "\u8a00\u3046\u3053\u3068": 5680,
    "\u305f\u307e\u3048": 5681,
    "\u4f11\u3093\u3067": 5682,
    "\u306b\u9023\u7d61": 5683,
    "\u7d30": 5684,
    "\u7a81": 5685,
    "\u3057\u3066\u3057\u307e\u3063\u305f": 5686,
    "\u2581\u4f55\u304c\u3042\u3063\u305f": 5687,
    "\u60c5\u5831\u304c": 5688,
    "\u59cb\u307e\u3063\u305f": 5689,
    "\u9593\u9055\u3063\u3066": 5690,
    "\u2581\u65e9": 5691,
    "\u96fb\u5b50": 5692,
    "\u306e\u6b7b": 5693,
    "\u307b\u3069\u306e": 5694,
    "\u30c7\u30e5": 5695,
    "\u898b\u3064\u3051\u3066": 5696,
    "\u3057\u3088\u3046\u3068\u3057\u305f": 5697,
    "\u96d1": 5698,
    "\u554f\u984c\u306b": 5699,
    "\u2581\u611f\u8b1d": 5700,
    "\u306b\u306a\u3063\u3066\u3044\u307e\u3059": 5701,
    "\u5f53\u6642": 5702,
    "\u3089\u308c\u3066\u308b": 5703,
    "\u2581\u4eba\u306f": 5704,
    "\u9023\u308c\u3066\u884c\u304f": 5705,
    "\u306b\u3088\u308c\u3070": 5706,
    "\u52b4\u50cd": 5707,
    "\u30ab\u30ea": 5708,
    "\u2581\u3088\u308d\u3057\u304f\u304a\u9858\u3044\u3057\u307e\u3059": 5709,
    "\u767d\u4eba": 5710,
    "\u8eca\u304c": 5711,
    "\u30c3\u30b5": 5712,
    "\u30d8\u30eb": 5713,
    "\u306e\u6bcd\u89aa": 5714,
    "\u2581\u77e5\u3063\u3066\u3044\u308b": 5715,
    "\u2581\u65b0\u805e": 5716,
    "\u3066\u3044\u304f": 5717,
    "\u66ae\u3089\u3059": 5718,
    "\u306b\u3057\u308d": 5719,
    "\u602a\u6211": 5720,
    "\u97f3\u3092": 5721,
    "\u5c0a\u656c": 5722,
    "at": 5723,
    "\u30ce\u30fc\u30c8": 5724,
    "\u7af6\u4e89": 5725,
    "\u97f3\u304c": 5726,
    "\u2581\u3069\u3053\u304b\u3089": 5727,
    "\u58f0\u3092": 5728,
    "\u4e88\u7b97": 5729,
    "\u5f35\u308a": 5730,
    "\u305f\u3063\u3066": 5731,
    "\u78ba\u304b\u306b": 5732,
    "\u2581\u898b\u308b": 5733,
    "\u2581\u8ab0\u306e": 5734,
    "\u2581\u3042\u3093\u305f\u306b": 5735,
    "\u4ee3\u8868": 5736,
    "\u5927\u5909\u306a": 5737,
    "\u2581\u3088\u3046\u3084\u304f": 5738,
    "\u9a5a\u304f\u3079\u304d": 5739,
    "\u63a2\u3059": 5740,
    "\u2581\u30d4": 5741,
    "\u8272\u3005": 5742,
    "\u3064\u307e\u308a": 5743,
    "\u306f\u672c\u5f53\u306b": 5744,
    "\u2581\u307b\u3093\u306e": 5745,
    "\u2581\u304a\u5b22\u3055\u3093": 5746,
    "\u30df\u30eb\u30af": 5747,
    "\u2581\u5e02\u6c11": 5748,
    "\u7d44\u307f\u5408\u308f\u305b": 5749,
    "\u2581\u30d3\u30c7\u30aa": 5750,
    "\u7fa9\u52d9": 5751,
    "\u2581\u541b\u3089": 5752,
    "\u2581\u751f\u547d": 5753,
    "\u601d\u3063\u3066\u3044\u308b": 5754,
    "\u2581\u552f\u4e00\u306e": 5755,
    "\u7d20\u6575\u306a": 5756,
    "\u2581\u9055\u3046\u3088": 5757,
    "\u30f4\u30a1\u30f3": 5758,
    "\u2581\u3042\u306e\u306d": 5759,
    "\u2581\u3044\u304b\u306b": 5760,
    "\u30c0\u30a4": 5761,
    "\u9928": 5762,
    "\u308f\u3051\u3060": 5763,
    "\u66f8\u3044\u3066\u3042\u308b": 5764,
    "\u82f1": 5765,
    "\u3068\u3053\u308d\u3067\u3059": 5766,
    "\u8b72": 5767,
    "\u62d8\u675f": 5768,
    "\u5bc4\u4ed8": 5769,
    "\u30de\u30cd": 5770,
    "\u2581\u3042\u306e\u5b50\u306f": 5771,
    "\u3044\u3053\u3046": 5772,
    "\u2581\u4ffa\u3089": 5773,
    "\u2581\u4eba\u3092": 5774,
    "\u2581\u30d0\u30f3": 5775,
    "\u304d\u305f\u306e": 5776,
    "\u77e5\u3063\u3066\u308b\u306e": 5777,
    "\u2581ok": 5778,
    "\u2581\u7121\u4e8b": 5779,
    "\u8e74": 5780,
    "\u2581\u6559\u80b2": 5781,
    "\u2581\u662f": 5782,
    "\u2581\u3053\u3061\u3089\u306e": 5783,
    "\u8a2d\u5b9a": 5784,
    "\u51e6\u5206": 5785,
    "\u306a\u3093\u3060\u308d\u3046": 5786,
    "\u2581\u9ce5": 5787,
    "\u3057\u3066\u3044\u304f": 5788,
    "\u7537\u306b": 5789,
    "\u30b9\u30d4\u30fc\u30ab": 5790,
    "\u7c21\u5358\u306a": 5791,
    "\u9ebb\u85ac": 5792,
    "\u30ca\u30f3\u30d0\u30fc": 5793,
    "\u2581\u4eba\u306e": 5794,
    "\u30d3\u30fc\u30eb": 5795,
    "\u8cc7\u683c": 5796,
    "\u3092\u8abf\u3079\u3066": 5797,
    "\u2581\u30d0\u30ab\u306a": 5798,
    "\u30fc\u30ba": 5799,
    "\u3089\u308c\u306a\u304b\u3063\u305f": 5800,
    "\u2581\u3053\u3044\u3064\u3089": 5801,
    "\u30b7\u30fc\u30f3": 5802,
    "\u5de3": 5803,
    "\u6b63\u6c17": 5804,
    "\u9178": 5805,
    "\u66b4": 5806,
    "\u305f\u3063\u305f": 5807,
    "\u306b\u5165\u308c\u3066": 5808,
    "\u59d4\u54e1\u4f1a": 5809,
    "\u3059\u308b\u306e\u304c": 5810,
    "\u5f37\u5236": 5811,
    "\u30ed\u30a6": 5812,
    "\u30c3\u30ab\u30fc": 5813,
    "\u4e0a\u304c\u308b": 5814,
    "\u5165\u9662": 5815,
    "\u652f\u6255\u3044": 5816,
    "\u2581dna": 5817,
    "\u898b\u3064\u304b\u3089\u306a\u3044": 5818,
    "\u72d9\u3044": 5819,
    "\u4eca\u65e5\u306f": 5820,
    "\u82b8\u8853": 5821,
    "\u6642\u9593\u3067": 5822,
    "\u30be\u30f3\u30d3": 5823,
    "\u78ba\u304b\u3081": 5824,
    "\u5bb6\u3067": 5825,
    "\u808c": 5826,
    "\u6c5a\u67d3": 5827,
    "\u30d1\u30a4\u30ed\u30c3\u30c8": 5828,
    "\u30b4\u30fc\u30eb": 5829,
    "\u2581\u3053\u306e\u8857": 5830,
    "\u3063\u3066\u8a00\u3063\u3066\u305f": 5831,
    "\u826f\u304f\u306a\u3044": 5832,
    "\u3059\u304e\u305f": 5833,
    "\u6b32": 5834,
    "\u51fa\u305f": 5835,
    "\u30c8\u30ed": 5836,
    "\u624b\u304c\u304b\u308a": 5837,
    "\u5192\u967a": 5838,
    "\u5984\u60f3": 5839,
    "\u30ec\u30c3\u30c8": 5840,
    "\u7684\u8bdd": 5841,
    "\u96fb\u8a71\u3092": 5842,
    "\u6709\u540d\u306a": 5843,
    "\u2581\u5f85\u3066\u3088": 5844,
    "\u3092\u53d7\u3051\u3066": 5845,
    "\u7f60": 5846,
    "\u4e8b\u306b\u306a\u308b": 5847,
    "\u3044\u304f\u3064\u304b": 5848,
    "\u8ca7\u56f0": 5849,
    "\u6765\u3066\u304f\u308c\u305f": 5850,
    "\u5371\u306a\u3044": 5851,
    "\u3067\u306a\u304f": 5852,
    "\u306a\u3082\u306e": 5853,
    "\u2581\u88ab\u5bb3\u8005\u306e": 5854,
    "\u306a\u304b\u3063\u305f\u306e": 5855,
    "\u306e\u539f\u56e0": 5856,
    "\u30eb\u30fc\u30e0": 5857,
    "\u81ea\u4f53": 5858,
    "\u90e8\u9580": 5859,
    "\u8d70\u308b": 5860,
    "\u2581\u3061\u306a\u307f\u306b": 5861,
    "\u2581\u30b5\u30fc": 5862,
    "\u5947\u8de1": 5863,
    "\u5b8c\u5168": 5864,
    "\u30b7\u30eb": 5865,
    "\u2581\u4f55\u51e6": 5866,
    "\u2581\u3044\u308d\u3093\u306a": 5867,
    "\u3057\u307e\u3044": 5868,
    "\u3082\u3089\u3044": 5869,
    "\u4f7f\u3048": 5870,
    "\u2581\u304a\u3049": 5871,
    "\u30c8\u30a5": 5872,
    "\u2581\u306a\u308b": 5873,
    "\u2581\u4ffa\u305f\u3061\u306e": 5874,
    "\u3048\u3066": 5875,
    "\u7070": 5876,
    "\u3059\u308b\u3088\u3046": 5877,
    "\u4eca\u306e": 5878,
    "\u304b\u3082\u3057\u308c\u307e\u305b\u3093\u304c": 5879,
    "\u7bc0": 5880,
    "\u30c0\u30e1\u30fc\u30b8": 5881,
    "\u2581\u53d7\u3051\u5165\u308c": 5882,
    "\u8003\u3048\u3066\u3044\u308b": 5883,
    "\u672c\u306e": 5884,
    "\u2581\u53d6\u5f15": 5885,
    "\u885b\u661f": 5886,
    "\u4eba\u3005\u306e": 5887,
    "\u2581\u5b50\u4f9b\u306e": 5888,
    "\u82f1\u8a9e": 5889,
    "\u3059\u308b\u304b\u3089": 5890,
    "\u2581\u76f4": 5891,
    "\u3064\u3082\u308a\u3060\u3063\u305f": 5892,
    "\u2581\u5ddd": 5893,
    "\u30d7\u30ea": 5894,
    "\u30cb\u30b9": 5895,
    "\u4f4f\u3080": 5896,
    "\u81ea\u8eab\u306e": 5897,
    "\u3067\u304d\u308b\u3088\u3046\u306b": 5898,
    "\u6797": 5899,
    "\u5165\u308b": 5900,
    "\u4e45": 5901,
    "\u6765\u307e\u3059": 5902,
    "\u3057\u3066\u3057\u307e\u3046": 5903,
    "\u3064\u306f": 5904,
    "\u76ee\u304c": 5905,
    "\u2581\u3082\u3046\u3061\u3087\u3063\u3068": 5906,
    "\u3055\u308c\u306a\u3044": 5907,
    "\u2581\u30b7\u30e7\u30fc": 5908,
    "\u306b\u306a\u308b\u306e": 5909,
    "\u2581\u7206\u767a": 5910,
    "\u529b\u306f": 5911,
    "\u5275\u9020": 5912,
    "\u73fe\u308c": 5913,
    "\u2581\u30ac\u30f3": 5914,
    "\u76ee\u306f": 5915,
    "\u2581\u30dd\u30fc\u30eb": 5916,
    "\u5ca1": 5917,
    "\u610f\u5916": 5918,
    "\u3044\u307e\u3059\u304b": 5919,
    "\u8005\u305f\u3061": 5920,
    "\u3057\u305f\u304b\u3063\u305f": 5921,
    "\u50d5\u3089": 5922,
    "\u306a\u3044\u3067\u304f\u308c": 5923,
    "\u2581\u672a": 5924,
    "\u2581\u30c8\u30e9\u30c3\u30af": 5925,
    "\u2581\u96ea": 5926,
    "\u7832": 5927,
    "\u52a0\u901f": 5928,
    "\u516b": 5929,
    "\u5834\u6240\u3060": 5930,
    "\u3044\u3089\u306a\u3044": 5931,
    "\u5408\u3063\u305f": 5932,
    "\u8108": 5933,
    "\u308b\u3093\u3067\u3059": 5934,
    "\u2581\u7acb\u3061": 5935,
    "\u3057\u3066\u3044\u307e\u305b\u3093": 5936,
    "\u30b5\u30a4": 5937,
    "\u307e\u3063\u3066": 5938,
    "\u8d64\u3044": 5939,
    "\u52a9\u304b\u308b": 5940,
    "\u6b63\u3057\u304f": 5941,
    "\u2581\u52d5\u304f\u306a": 5942,
    "\u6226\u3063\u3066": 5943,
    "\u8a00\u3044\u307e\u3059": 5944,
    "\u3063\u3071": 5945,
    "\u6642\u4ee3\u306b": 5946,
    "\u2581\u3044\u3063\u3071\u3044": 5947,
    "\u30c6\u30ec": 5948,
    "\u8a95\u751f": 5949,
    "\u6b32\u3057\u304b\u3063\u305f": 5950,
    "\u308b\u3053\u3068\u306f": 5951,
    "\u30c8\u30e9\u30c3\u30d7": 5952,
    "\u6709\u7f6a": 5953,
    "\u8d77\u304d\u3066": 5954,
    "\u30a2\u30cb": 5955,
    "\u8eca\u306b": 5956,
    "\u3089\u308c\u3066\u3044\u307e\u3059": 5957,
    "\u4e36": 5958,
    "\u4ee4\u72b6": 5959,
    "\u305f\u6642": 5960,
    "\u3060\u3068\u601d\u3063\u305f": 5961,
    "\u2581O": 5962,
    "\u2581\u30a2\u30c0\u30e0": 5963,
    "\u5b50\u306f": 5964,
    "\u306f\u7121\u7406\u3060": 5965,
    "\u306e\u5922": 5966,
    "\u2581\u77f3": 5967,
    "\u898b\u3064\u3051\u308b": 5968,
    "\u308b\u307e\u3067": 5969,
    "\u30cf\u30a6\u30b9": 5970,
    "\u2581\u30a4\u30e4": 5971,
    "\u3084\u3064\u3060": 5972,
    "\u2581\u30a2\u30e9\u30f3": 5973,
    "\u4e0b\u306e": 5974,
    "\u3059\u308b\u305e": 5975,
    "\u6bba\u3057\u5c4b": 5976,
    "\u2581\u30d3\u30b8\u30cd\u30b9": 5977,
    "\u6148\u60b2": 5978,
    "\u30b8\u30e7\u30fc": 5979,
    "\u8ffd\u52a0": 5980,
    "\u2581\u6bcd\u306f": 5981,
    "\u3068\u601d\u3046\u304b": 5982,
    "\u2581\u30a4\u30f3": 5983,
    "\u30e1\u30e2": 5984,
    "\u30f3\u30ba": 5985,
    "\u2581\u308f\u3057": 5986,
    "\u30b5\u30e9": 5987,
    "\u306b\u884c\u304d": 5988,
    "\u2581\u3053\u306e\u5bb6": 5989,
    "\u51fa\u8840": 5990,
    "\u3084\u3063\u3066\u304d\u305f": 5991,
    "\u2581\u3044\u3051\u306a\u3044": 5992,
    "\u3053\u305d\u304c": 5993,
    "\u2581\u4e8c\u4eba\u3068\u3082": 5994,
    "\u3069\u308c\u3060\u3051": 5995,
    "\u3089\u305b\u308b": 5996,
    "\u8f9e\u3081": 5997,
    "\u7ffc": 5998,
    "\u2581\u3084\u3063\u3066\u307f": 5999,
    "\u2581\u76e3\u8996": 6000,
    "\u7814\u7a76\u5ba4": 6001,
    "\u58f0\u304c": 6002,
    "\u306e\u4eba\u304c": 6003,
    "\u71c3\u3048": 6004,
    "\u822a\u7a7a": 6005,
    "\u2581c": 6006,
    "\u5bb6\u3092": 6007,
    "\u2581\u6709": 6008,
    "\u4ee5\u5916\u306f": 6009,
    "\u2581\u3042\u306a\u305f\u306f\u79c1": 6010,
    "\u2581\u307e\u3060\u307e\u3060": 6011,
    "\u8ca1\u7523": 6012,
    "\u5e74\u3067": 6013,
    "\u3059\u308b\u305f\u3081": 6014,
    "\u540d\u524d\u3092": 6015,
    "\u3064\u3082\u308a\u304b": 6016,
    "\u305d\u306e\u307e\u307e": 6017,
    "\u2581\u30c9\u30af\u30bf\u30fc": 6018,
    "\u6210\u529f\u3057\u305f": 6019,
    "\u308d\u3088": 6020,
    "\u3092\u898b\u305b\u3066": 6021,
    "\u3084\u308d": 6022,
    "\u805e\u304b\u305b\u3066": 6023,
    "\u306e\u3088\u3046\u3067\u3059": 6024,
    "\u3092\u3064\u3051": 6025,
    "\u306a\u3044\u3060\u308d\u3046": 6026,
    "\u2581\u4eca\u65e5\u3082": 6027,
    "\u304b\u3063\u3066": 6028,
    "\u30d5\u30a1\u30a4": 6029,
    "\u5929\u6c17": 6030,
    "\u9f3b": 6031,
    "\u3005\u3068": 6032,
    "\u30d9\u30b9\u30c8": 6033,
    "\u30e9\u30a4\u30d5": 6034,
    "\u73fe\u5834\u306b": 6035,
    "\u96fb\u529b": 6036,
    "\u96e3\u3057\u304f": 6037,
    "\u8aad\u3093\u3067": 6038,
    "\u9a5a\u304f": 6039,
    "\u51ac": 6040,
    "\u30de\u30b7": 6041,
    "\u306e\u6b74\u53f2": 6042,
    "\u3059\u308b\u3053\u3068\u304c": 6043,
    "\u8a2a\u554f": 6044,
    "\u9867\u5ba2": 6045,
    "\u7d20\u6750": 6046,
    "\u5236\u9650": 6047,
    "\u2581P": 6048,
    "\u4f4f\u6c11": 6049,
    "\u2581\u6b8b\u308a": 6050,
    "\u9023\u308c\u3066": 6051,
    "\u3044\u3044\u3067\u3059\u304b": 6052,
    "\u304f\u308c\u3088": 6053,
    "\u2581\u30a2\u30e1\u30ea\u30ab\u306e": 6054,
    "\u30ca\u30e0": 6055,
    "\u611b\u60c5": 6056,
    "\u2581\u3069\u3046\u304b\u3057\u305f": 6057,
    "\u50b7\u3064\u3051": 6058,
    "\u4f55\u5ea6\u3082": 6059,
    "ID": 6060,
    "\u8eca\u306e": 6061,
    "\u30d8\u30f3": 6062,
    "\u4f1d\u3048\u3066": 6063,
    "\u5224\u4e8b": 6064,
    "\u76e4": 6065,
    "TED": 6066,
    "\u7e4b\u304c\u308a": 6067,
    "\u2581\u5927\u4e08\u592b\u3060\u3088": 6068,
    "\u96c6\u307e\u308a": 6069,
    "\u30a3": 6070,
    "\u3092\u6301\u3063\u3066\u3044\u307e\u3059": 6071,
    "\u308b\u3082\u306e": 6072,
    "\u30cb\u30e3": 6073,
    "\u3067\u3042\u308d\u3046": 6074,
    "\u2581\u3042\u306e\u65e5": 6075,
    "\u306e\u4e0b\u3067": 6076,
    "\u6c34\u3092": 6077,
    "\u30dd\u30f3": 6078,
    "\u4eba\u9593\u3060": 6079,
    "\u5e03": 6080,
    "\u2581\u958b\u3051": 6081,
    "\u98db\u3076": 6082,
    "\u3057\u305f\u3044\u306e": 6083,
    "\u2581\u4f55\u3057\u3066\u308b": 6084,
    "\u5468\u8fba": 6085,
    "\u2581\u6b6f": 6086,
    "\u898f\u5247": 6087,
    "\u30d5\u30a9\u30fc\u30c9": 6088,
    "\u2581\u5148\u9031": 6089,
    "\u51fa\u306a\u3044": 6090,
    "\u3064\u304b\u306a\u3044": 6091,
    "\u30d5\u30ea": 6092,
    "\u2581\u5b8c\u74a7": 6093,
    "\u2581\u305d\u306e\u3088\u3046\u306a": 6094,
    "\u258116": 6095,
    "\u66f8\u304f": 6096,
    "\u56de\u53ce": 6097,
    "\u306e\u672c": 6098,
    "\u8266\u968a": 6099,
    "\u8077\u54e1": 6100,
    "\u30a2\u30ea\u30d0\u30a4": 6101,
    "\u901f\u3044": 6102,
    "\u2581\u9ad8\u6821": 6103,
    "\u2581\u697d\u3057\u307f": 6104,
    "\u30ea\u30aa": 6105,
    "\u4e2d\u6bd2": 6106,
    "\u3088\u3046\u306d": 6107,
    "\u3092\u77e5\u3089\u306a\u3044": 6108,
    "\u756a\u76ee\u306e": 6109,
    "\u2581\u7121\u7406\u3060": 6110,
    "\u5c04": 6111,
    "\u59cb\u3081\u3088\u3046": 6112,
    "\u7968": 6113,
    "\u5bc4\u305b": 6114,
    "\u5f97\u305f": 6115,
    "\u4fa1\u683c": 6116,
    "\u2581\u6642\u9593\u304c": 6117,
    "\u3057\u304b\u3063\u305f": 6118,
    "\u30ad\u30e3\u30f3\u30d7": 6119,
    "\u2581\u3053\u306e\u4e16\u754c": 6120,
    "\u2581\u306a\u3093\u3066\u3053\u3068": 6121,
    "\u3061\u3083\u3093\u304c": 6122,
    "\u3045": 6123,
    "\u53d6\u308c": 6124,
    "\u3066\u3084\u308b": 6125,
    "\u2581\u30a6\u30c1": 6126,
    "\u2581\u305d\u3046\u3084\u3063\u3066": 6127,
    "\u7e54": 6128,
    "\u685c": 6129,
    "\u2581\u305d\u306e\u4eba": 6130,
    "\u610f\u601d": 6131,
    "\u95a2": 6132,
    "\u5b8c\u74a7": 6133,
    "\u3092\u5207\u308a": 6134,
    "\u2581\u9b54\u6cd5": 6135,
    "\u30a6\u30a9\u30eb": 6136,
    "\u2581\u30d0\u30ea\u30fc": 6137,
    "\u610f\u5473\u304c": 6138,
    "\u7167": 6139,
    "\u3067\u306a\u3044": 6140,
    "\u2581\u306a\u3041": 6141,
    "\u30af\u30ec": 6142,
    "\u8ab0\u3067\u3082": 6143,
    "\u2581\u524d\u306b": 6144,
    "\u885d\u6483": 6145,
    "\u2581\u76f8\u624b": 6146,
    "\u30c3\u30b0": 6147,
    "\u6016\u304b\u3063\u305f": 6148,
    "\u5909\u614b": 6149,
    "\u30ae\u30e3": 6150,
    "\u7f6a\u3092": 6151,
    "\u4f1d\u8aac": 6152,
    "\u9023\u7d61\u3092": 6153,
    "\u2581\u81ea\u3089": 6154,
    "\u3086\u3063\u304f\u308a": 6155,
    "\u2581\u6bd2": 6156,
    "\u305d\u3070": 6157,
    "\u2581\u52c9\u5f37": 6158,
    "\u71c3\u6599": 6159,
    "\u53b3\u3057\u3044": 6160,
    "\u2581\u304a\u3084\u3059\u307f": 6161,
    "\u4fee": 6162,
    "\u2581\u90fd\u5e02": 6163,
    "\u4eba\u9593\u306b": 6164,
    "\u7279\u8a31": 6165,
    "\u30d0\u30a4\u30af": 6166,
    "\u60b2\u3057\u307f": 6167,
    "\u79c1\u9054\u306f": 6168,
    "\u5de8\u5927\u306a": 6169,
    "\u306e\u9803": 6170,
    "\u2581\u898b\u3064\u3051": 6171,
    "\u3046\u3061": 6172,
    "Y": 6173,
    "\u764c": 6174,
    "\u904e\u3054\u3057\u305f": 6175,
    "\u7279\u5b9a": 6176,
    "\u4ed5\u4e8b\u304c": 6177,
    "\u2581\u30cf\u30c3": 6178,
    "\u56f3\u66f8\u9928": 6179,
    "\u2581\u3082\u3046\u4e00\u3064": 6180,
    "\u2581\u30de\u30ea\u30a2": 6181,
    "\u308f\u305f\u3057": 6182,
    "ted": 6183,
    "\u72e9\u308a": 6184,
    "\u2581\u76ee\u6a19": 6185,
    "\u884c\u3046": 6186,
    "\u8cac\u4efb\u3092": 6187,
    "\u52e2": 6188,
    "\u306b\u5165\u308c": 6189,
    "\u3063\u3066\u8a00\u3063\u3066": 6190,
    "\u8d77\u3053\u3063\u305f": 6191,
    "\u5206\u304b\u3063\u3066\u306a\u3044": 6192,
    "\u4f1a\u793e\u3092": 6193,
    "\u304d\u3063\u304b\u3051": 6194,
    "\u7551": 6195,
    "\u6709\u540d": 6196,
    "\u304c\u3044\u3066": 6197,
    "\u53ea": 6198,
    "\u2581\u76ee\u7684": 6199,
    "\u79c1\u9054\u306e": 6200,
    "\u559c\u3093\u3067": 6201,
    "\u2581\u6301\u3061": 6202,
    "\u2581\u305d\u306e\u65e5": 6203,
    "\u304b\u3064": 6204,
    "\u6d3b\u52d5\u3092": 6205,
    "\u3069\u3046\u3057\u305f\u306e": 6206,
    "\u8db3\u308a\u306a\u3044": 6207,
    "\u2581\u304a\u524d\u3068": 6208,
    "\u2581\u3060\u308c": 6209,
    "\u3055\u308c\u3066\u305f": 6210,
    "\u899a\u3048\u3066": 6211,
    "\u30d2\u30e5\u30fc": 6212,
    "\u3057\u3066\u304f\u308b": 6213,
    "\u7c73\u56fd": 6214,
    "\u30d6\u30b9": 6215,
    "\u2581\u8239\u9577": 6216,
    "\u554f\u984c\u304c\u3042\u308b": 6217,
    "\u30f4\u30a7": 6218,
    "\u5165\u308c\u308b": 6219,
    "\u5f7c\u6c0f": 6220,
    "\u2581\u96e2\u5a5a": 6221,
    "\u2581\u795e\u306e": 6222,
    "\u4f1a\u3063\u3066": 6223,
    "\u2581\u30ad\u30df\u306f": 6224,
    "\u8eab\u306b": 6225,
    "\u3057\u3066\u305f\u3093\u3060": 6226,
    "\u30d6\u30e9\u30c3\u30af": 6227,
    "\u601d\u308f\u306a\u3044": 6228,
    "\u30ec\u30fc\u30b9": 6229,
    "\u2581\u8a18\u9332": 6230,
    "\u3089\u305a": 6231,
    "\u3088\u3046\u3068\u3057\u305f": 6232,
    "\u2581\u5efa\u7269": 6233,
    "\u8a17": 6234,
    "\u8b66\u6212": 6235,
    "ing": 6236,
    "\u805e\u3044\u3066\u306a\u3044": 6237,
    "\u2581\u9ebb\u85ac": 6238,
    "\u306a\u3093\u3067\u3059\u3051\u3069": 6239,
    "\u30c0\u30a4\u30e4": 6240,
    "\u63cf\u3044\u3066": 6241,
    "\u89e3\u660e": 6242,
    "\u2581\u3088\u304f\u3084\u3063\u305f": 6243,
    "\u2581\u5c11\u3057\u306f": 6244,
    "\u3063\u3061": 6245,
    "\u30d1\u30fc\u30af": 6246,
    "\u9060": 6247,
    "\u95d8": 6248,
    "\u30a8\u30fc\u30b8\u30a7\u30f3\u30c8": 6249,
    "\u305d\u308c\u305e\u308c": 6250,
    "\u89e3\u9664": 6251,
    "\u7b4b\u8089": 6252,
    "\u6587\u660e": 6253,
    "\u306e\u524d": 6254,
    "\u3059\u308b\u3053\u3068\u304c\u3067\u304d\u307e\u3059": 6255,
    "\u2581\u4e00\u8b77": 6256,
    "\u2581\u304a\u8a71": 6257,
    "\u672d": 6258,
    "\u7279\u5fb4": 6259,
    "\u8fd1\u6240": 6260,
    "\u50d5\u3092": 6261,
    "\u6765\u305f\u3093\u3060": 6262,
    "\u2581\u6a5f\u68b0": 6263,
    "\u306e\u9375": 6264,
    "\u2581\u4eca\u3067\u3082": 6265,
    "\u682a": 6266,
    "\u4fdd\u967a": 6267,
    "\u2581\u30b9\u30d4\u30fc\u30c9": 6268,
    "\u7530\u820e": 6269,
    "\u6226\u95d8": 6270,
    "\u306a\u3044\u3093\u3067\u3059": 6271,
    "\u30a6\u30eb": 6272,
    "\u30d0\u30e9\u30f3\u30b9": 6273,
    "\u3057\u308d\u3088": 6274,
    "\u56fd\u5185": 6275,
    "\u884c\u304f\u306e": 6276,
    "\u2581\u30d5\u30a3": 6277,
    "\u3053\u308c\u307e\u3067": 6278,
    "\u3075\u3046": 6279,
    "\u306e\u3046": 6280,
    "\u2581\u53e4": 6281,
    "\u3084\u308a\u307e\u3059": 6282,
    "\u2581\u305d\u3053\u306b\u306f": 6283,
    "\u697d\u3057\u304f": 6284,
    "\u2581\u6bba\u3057": 6285,
    "\u90fd\u5408": 6286,
    "\u3084\u3064\u306f": 6287,
    "\u7dad\u6301": 6288,
    "\u30af\u30bf\u30fc": 6289,
    "\u7537\u3068": 6290,
    "\u2581\u3059\u3052\u3048": 6291,
    "\u2581\u3069\u306e\u304f\u3089\u3044": 6292,
    "\u6012\u3063\u3066\u308b": 6293,
    "\u306e\u52b9\u679c": 6294,
    "\u3059\u308b\u3064\u3082\u308a": 6295,
    "\u8b1d\u308b": 6296,
    "\u2581\u6b7b\u3093\u3067": 6297,
    "\u6570\u5e74": 6298,
    "\u3044\u3066\u304f\u308c": 6299,
    "\u7981": 6300,
    "\u9396": 6301,
    "\u53d6\u6750": 6302,
    "\u98a8\u90aa": 6303,
    "\u5171\u306b": 6304,
    "\u7686\u3055\u3093\u306b": 6305,
    "\u4f55\u6545": 6306,
    "\u6027\u3092": 6307,
    "\u8a71\u304c": 6308,
    "\u4fa1\u5024\u304c\u3042\u308b": 6309,
    "\u306f\u3044\u3044": 6310,
    "\u6df7": 6311,
    "\u304c\u5fc5\u8981\u306a\u306e": 6312,
    "\u304b\u3089\u6765\u305f": 6313,
    "\u2581\u3061\u3087\u3063\u3068\u3057\u305f": 6314,
    "\u307b\u3046": 6315,
    "\u307f\u305f\u3044\u3067": 6316,
    "\u30aa\u30da": 6317,
    "\u969b\u306b": 6318,
    "\u30b9\u30bf\u30fc\u30af": 6319,
    "\u7518": 6320,
    "\u8a71\u3057\u3066\u304f\u308c": 6321,
    "\u30e9\u30f3\u30c1": 6322,
    "\u4ed6\u4eba": 6323,
    "\u5b50\u3061\u3083\u3093": 6324,
    "\u307f\u307e\u3059": 6325,
    "\u30f3\u30b0": 6326,
    "\u306a\u3044\u3060\u308d": 6327,
    "\u2581\u3044\u3044\u3067\u3059\u304b": 6328,
    "\u30ab\u30c3\u30d7": 6329,
    "\u306b\u5165\u308a": 6330,
    "\u3063\u304d\u308a": 6331,
    "\u5b89\u5168\u3060": 6332,
    "\u30c8\u30fc\u30af": 6333,
    "\u305d\u3046\u304b": 6334,
    "\u52dd\u624b\u306b": 6335,
    "\u8ecd\u306e": 6336,
    "\u2581\u3042\u3042\u3063": 6337,
    "\u5e83\u3044": 6338,
    "\u30af\u30ed": 6339,
    "\u2581\u305d\u308c\u3067\u3044\u3044": 6340,
    "\u90e8\u5c4b\u3067": 6341,
    "\u2581\u30d9\u30c3\u30c9": 6342,
    "\u5b58\u5728\u3057\u306a\u3044": 6343,
    "\u59a8\u5bb3": 6344,
    "\u5996\u602a": 6345,
    "\u30c9\u30a2\u3092\u958b\u3051": 6346,
    "\u3044\u304d": 6347,
    "\u305d\u3046\u306d": 6348,
    "\u6d41\u884c": 6349,
    "\u304a\u8a71\u3057": 6350,
    "\u2581\u3082\u3057\u304f\u306f": 6351,
    "\u3066\u3044\u306a\u3044": 6352,
    "\u306e\u5bb6\u306b": 6353,
    "\u2581\u99ac\u9e7f": 6354,
    "\u3044\u305f\u306e\u3067\u3059": 6355,
    "\u73fe\u308c\u308b": 6356,
    "\u3092\u6483\u3063\u305f": 6357,
    "\u7537\u5b50": 6358,
    "\u4f1a\u3044": 6359,
    "\u30a4\u30d6": 6360,
    "\u30c3\u3068": 6361,
    "\u2581\u5b50\u4f9b\u304c": 6362,
    "\u2581\u3060\u3044\u305f\u3044": 6363,
    "\u30ac\u30eb": 6364,
    "\u2581\u304a\u3058\u3055\u3093": 6365,
    "\u2581\u4f46\u662f": 6366,
    "\u3061\u307e\u3063\u305f": 6367,
    "\u2581\u8eca\u306e": 6368,
    "\u2581\u4ed6\u306e\u4eba": 6369,
    "\u4e00\u65cf": 6370,
    "\u5b9d\u77f3": 6371,
    "\u52a9\u624b": 6372,
    "\u753b\u9762": 6373,
    "\u5c4b\u6839": 6374,
    "\u5211\u52d9\u6240\u306b": 6375,
    "\u3053\u3068\u306f\u3042\u308a\u307e\u305b\u3093": 6376,
    "\u2581\u9593\u9055\u3044": 6377,
    "\u306b\u5c45\u308b": 6378,
    "\u6c38\u9060": 6379,
    "\u2581\u9003\u3052\u308d": 6380,
    "\u306f\u975e\u5e38\u306b": 6381,
    "\u53ef\u80fd\u6027\u304c\u3042\u308b": 6382,
    "\u4ed5\u4e8b\u3060": 6383,
    "\u5225\u306b": 6384,
    "\u2581\u4f55\u3067\u3059\u304b": 6385,
    "\u884c\u304f\u3088": 6386,
    "\u2581\u6599\u7406": 6387,
    "\u5931\u6557\u3057\u305f": 6388,
    "\u5e83\u544a": 6389,
    "\u8eca\u306f": 6390,
    "\u904b\u3073": 6391,
    "\u4f7f\u547d": 6392,
    "\u5236\u670d": 6393,
    "\u2581\u30d1\u30fc\u30c6\u30a3\u30fc": 6394,
    "\u306a\u306e\u3060": 6395,
    "\u3068\u306a\u3063\u3066": 6396,
    "\u2581\u30a4\u30ae\u30ea\u30b9": 6397,
    "\u706f": 6398,
    "\u3057\u3063\u304b\u308a": 6399,
    "\u738b\u5b50": 6400,
    "\u2581\u6559\u4f1a": 6401,
    "\u7de0\u3081": 6402,
    "\u6bd4": 6403,
    "\u7e2e": 6404,
    "\u6027\u683c": 6405,
    "\u30a4\u30a4": 6406,
    "\u8ab0\u306b\u3082": 6407,
    "\u2581\u3053\u306e\u753a": 6408,
    "\u9759": 6409,
    "\u5206\u304b\u3089\u3093": 6410,
    "\u9003\u3052\u3066": 6411,
    "\u305b\u305f": 6412,
    "\u660e\u767d": 6413,
    "\u5927\u597d\u304d\u306a": 6414,
    "\u5b66\u3073": 6415,
    "\u304b\u5206\u304b\u3089\u306a\u3044": 6416,
    "\u5893\u5730": 6417,
    "\u2581\u65ad": 6418,
    "\u3093\u3067\u3057\u3087\u3046\u304b": 6419,
    "\u5408\u683c": 6420,
    "\u89b3\u6e2c": 6421,
    "\u9aa8\u6298": 6422,
    "\u2581\u91ce": 6423,
    "\u88c5\u5099": 6424,
    "\u306e\u3068\u304d": 6425,
    "\u5fc5\u8981\u306a\u3044": 6426,
    "\u9023": 6427,
    "\u30c9\u30ed": 6428,
    "\u6b8b\u3063\u305f": 6429,
    "\u58ca": 6430,
    "\u30d6\u30ed\u30b0": 6431,
    "\u30ca\u30f3": 6432,
    "\u306e\u8840": 6433,
    "\u3063\u3066\u3055": 6434,
    "\u2581\u6cd5\u5f8b": 6435,
    "\u96e2\u308c\u305f": 6436,
    "\u30c8\u30c3\u30d7": 6437,
    "\u9811\u5f35\u3063\u3066": 6438,
    "\u2581\u30d5\u30a1": 6439,
    "\u722a": 6440,
    "\u2581\u9b5a": 6441,
    "\u8fb2\u5834": 6442,
    "\u98f2\u307f\u7269": 6443,
    "\u2581\u5185": 6444,
    "\u5584": 6445,
    "\u628a\u63e1": 6446,
    "\u5287": 6447,
    "\u3063\u3066\u3084\u3064": 6448,
    "\u6574": 6449,
    "\u2581\u8208\u5473\u6df1\u3044": 6450,
    "\u6280\u8853\u3092": 6451,
    "\u306e\u4e8b\u4ef6": 6452,
    "\u975e\u96e3": 6453,
    "\u4f1a\u9577": 6454,
    "\u7af9": 6455,
    "\u3064\u307e": 6456,
    "\u3092\u547c\u3073": 6457,
    "\u3079\u304d\u3067\u3059": 6458,
    "\u8a00\u3063\u3066\u306a\u3044": 6459,
    "\u3064\u76ee\u306e": 6460,
    "\u2581\u30b7\u30f3": 6461,
    "\u30c7\u30b6\u30a4\u30ca\u30fc": 6462,
    "\u6c57": 6463,
    "\u8a34\u8a1f": 6464,
    "\u30c7\u30e5\u30a8\u30eb": 6465,
    "\u3066\u4e0b\u3055\u3044": 6466,
    "\u305f\u308b": 6467,
    "\u306d\u3070": 6468,
    "\u2581\u6226\u3044": 6469,
    "\u4f53\u306f": 6470,
    "\u2581\u3042\u3044\u3064\u304c": 6471,
    "\u2581\u4fe1\u3058": 6472,
    "\u2581\u304a\u307e\u3048\u306f": 6473,
    "\u3068\u601d\u3046\u3088": 6474,
    "\u3057\u3066\u307b\u3057\u3044": 6475,
    "\u3053\u3053\u304b\u3089": 6476,
    "\u2581\u4f55\u304b\u3042\u3063\u305f": 6477,
    "\u30a6\u30a7\u30d6": 6478,
    "\u3082\u3089\u3048": 6479,
    "\u3092\u6bba\u3057": 6480,
    "\u30b2\u30a4": 6481,
    "\u307f\u308b\u3068": 6482,
    "\u884c\u304f\u3093\u3060": 6483,
    "\u3082\u3046\u4e00\u5ea6": 6484,
    "\u6c17\u6301\u3061\u306f": 6485,
    "\u4e0a\u53f8": 6486,
    "\u306e\u59ff": 6487,
    "\u5bdd\u3066\u308b": 6488,
    "\u3092\u8cb7\u3046": 6489,
    "\u9003": 6490,
    "\u2581\u4eba\u3005\u304c": 6491,
    "27": 6492,
    "\u3092\u3082\u305f\u3089\u3059": 6493,
    "\u3092\u805e\u3044\u3066": 6494,
    "\u540c\u6642\u306b": 6495,
    "\u8352": 6496,
    "\u5546": 6497,
    "\u2581\u30d1\u30f3": 6498,
    "\u5e30\u3063\u3066\u304d\u305f": 6499,
    "\u3067\u3057\u305f\u304b": 6500,
    "\u30d3\u30fc\u30c1": 6501,
    "\u9650": 6502,
    "\u8a73\u3057\u3044": 6503,
    "\u3092\u547c\u3093\u3067": 6504,
    "\u3044\u3044\u306e": 6505,
    "\u2581\u4fe1\u983c": 6506,
    "\u2581\u3069\u3053\u306b\u3044\u308b": 6507,
    "\u4e8b\u3067": 6508,
    "\u305d\u3046\u3068": 6509,
    "\u52d5\u3044\u3066": 6510,
    "\u9023\u7d61\u3059\u308b": 6511,
    "\u308b\u305f\u3081": 6512,
    "\u3044\u3089": 6513,
    "\u2581\u8eab\u4f53": 6514,
    "\u2581\u3044\u304f\u3064\u304b": 6515,
    "\u2581\u7b54\u3048\u306f": 6516,
    "\u4f3c": 6517,
    "\u3092\u901a\u3058\u3066": 6518,
    "\u2581\u307e\u305f\u306f": 6519,
    "\u5b50\u4f9b\u9054": 6520,
    "\u5de8\u5927": 6521,
    "\u258124": 6522,
    "\u8996\u899a": 6523,
    "\u2581\u30af\u30bd\u30c3": 6524,
    "\u6bba\u3055\u308c": 6525,
    "\u7533\u3057": 6526,
    "\u2581\u305d\u3046\u306a\u3093\u3060": 6527,
    "\u30bd\u30d5\u30c8": 6528,
    "\u2986": 6529,
    "\u72b6\u614b\u3067": 6530,
    "\u3068\u3059\u308b": 6531,
    "\u30c1\u30e7\u30a6": 6532,
    "\u30a2\u30a4\u30c7\u30a3\u30a2": 6533,
    "\u8868\u60c5": 6534,
    "\u8cc7\u7523": 6535,
    "\u8abf\u5b50": 6536,
    "\u3053\u3093\u306a\u306b": 6537,
    "\u901a\u3063\u3066": 6538,
    "\u767a\u4fe1": 6539,
    "\u6700\u521d": 6540,
    "\u2581\u597d": 6541,
    "\u30b0\u30ea\u30fc\u30f3": 6542,
    "\u60aa\u304f\u306a\u3044": 6543,
    "\u68da": 6544,
    "\u30df\u30b5\u30a4\u30eb": 6545,
    "\u8a00\u308f\u308c": 6546,
    "\u2581\u3042\u3093": 6547,
    "\u306b\u5bfe\u3057": 6548,
    "\u4e57\u308c": 6549,
    "\u5b66\u3076": 6550,
    "\u3092\u8d77\u3053\u3059": 6551,
    "\u3054\u3089\u3093": 6552,
    "\u6551\u51fa": 6553,
    "\u30af\u30ed\u30b9": 6554,
    "\u3060\u3063\u305f\u3093\u3067\u3059": 6555,
    "\u2581\u6765": 6556,
    "\u6642\u9593\u3082": 6557,
    "\u56de\u308b": 6558,
    "\u6ce8\u5c04": 6559,
    "\u2581\u308f\u304b\u3063\u3066": 6560,
    "\u6700\u5584": 6561,
    "\u2581\u3082\u306f\u3084": 6562,
    "\u30ec\u30b9\u30c8\u30e9\u30f3": 6563,
    "\u30aa\u30d5\u30a3\u30b9": 6564,
    "\u2581\u3053\u3046\u3044\u3063\u305f": 6565,
    "\u2581\u5358\u306a\u308b": 6566,
    "\u91cd\u8981\u306a\u306e\u306f": 6567,
    "\u6642\u70b9\u3067": 6568,
    "\u9045\u3044": 6569,
    "\u2581\u3044\u3064\u307e\u3067": 6570,
    "\u2581\u30aa\u30e9": 6571,
    "\u2581\u8a00\u3063\u3066\u305f": 6572,
    "\u96c4": 6573,
    "\u9f8d": 6574,
    "\u2581\u30d5\u30e9\u30f3\u30b9": 6575,
    "\u2581\u306d\u3063": 6576,
    "\u304a\u3058\u3055\u3093": 6577,
    "\u4ed5\u639b\u3051": 6578,
    "\u2581\u4f1a\u9577": 6579,
    "\u306a\u304d\u3083\u306a\u3089\u306a\u3044": 6580,
    "\u2581\u653f\u6cbb": 6581,
    "\u767a\u8a00": 6582,
    "\u5e73\u6c17": 6583,
    "\u3060\u3068\u601d\u3063\u3066": 6584,
    "\u30c9\u30e9\u30de": 6585,
    "\u30b9\u30da\u30fc\u30b9": 6586,
    "\u2581\u30e1\u30a4": 6587,
    "\u57fa\u672c": 6588,
    "\u8a00\u8449\u306f": 6589,
    "\u2581\u95a2\u4fc2\u306a\u3044": 6590,
    "\u307f\u3088\u3046": 6591,
    "\u3044\u308b\u308f": 6592,
    "\u5fa9\u8b90": 6593,
    "\u2581\u5f53": 6594,
    "\u2581\u305d\u308c\u305e\u308c": 6595,
    "\u4e0d\u5e78": 6596,
    "\u4e0e": 6597,
    "\u8056": 6598,
    "\u30b9\u30c6": 6599,
    "\u7ae0": 6600,
    "\u679d": 6601,
    "\u98df\u3079\u7269": 6602,
    "\u2581\u5730\u4e0b": 6603,
    "\u3063\u3059\u304b": 6604,
    "\u6697": 6605,
    "\u5fc5\u8981\u306a\u306e\u306f": 6606,
    "\u2581\u609f\u98ef": 6607,
    "\u2581\u30d6\u30fc\u30b9": 6608,
    "\u79c1\u306b\u306f": 6609,
    "\u4fe1\u3058\u3066\u3044\u308b": 6610,
    "\u30b3\u30eb": 6611,
    "\u2581\u9593\u9055\u3044\u306a\u304f": 6612,
    "\u672c\u3092": 6613,
    "\u8155\u3092": 6614,
    "\u307e\u3057\u305f\u304b": 6615,
    "\u30b2\u30f3": 6616,
    "\u4e8b\u614b": 6617,
    "\u30b8\u30e3\u30f3\u30d7": 6618,
    "\u3092\u304b\u3051\u3066": 6619,
    "\u7dd1": 6620,
    "\u2581\u79c1\u306e\u3053\u3068": 6621,
    "\u4e0a\u624b\u304f": 6622,
    "\u2581\u66b4\u529b": 6623,
    "\u3060\u3063\u305f\u304b": 6624,
    "\u304a\u3063\u3057\u3083": 6625,
    "\u2581\u3070\u304b": 6626,
    "\u306e\u305b\u3044\u3058\u3083\u306a\u3044": 6627,
    "\u2581\u3054\u5b58\u3058": 6628,
    "\u307e\u3055\u306b": 6629,
    "600": 6630,
    "\u6ce5": 6631,
    "\u30d4\u30a2\u30ce": 6632,
    "\u30af\u30ea\u30b9": 6633,
    "\u2581\u975e": 6634,
    "\u3060\u3081\u3060": 6635,
[...]
