<unk>	0
<s>	0
</s>	0
▁	-2.35854
の	-3.72178
?	-3.88404
。	-4.06175
は	-4.14005
が	-4.29401
を	-4.3438
に	-4.42649
!	-4.64422
と	-4.93184
で	-4.94933
、	-4.9878
だ	-5.0369
...	-5.12799
よ	-5.19592
か	-5.27715
も	-5.31357
な	-5.35027
から	-5.50036
です	-5.52682
・	-5.79865
ね	-5.85952
って	-5.8758
し	-6.1055
▁この	-6.1286
」	-6.17472
わ	-6.17974
る	-6.19684
んだ	-6.23718
や	-6.24573
した	-6.31839
た	-6.32773
する	-6.37054
...。	-6.38458
して	-6.3947
▁「	-6.42126
さ	-6.46843
"	-6.49953
▁その	-6.50283
▁私は	-6.57318
て	-6.58981
い	-6.59585
▁でも	-6.60229
ら	-6.62654
人	-6.67725
には	-6.72347
なら	-6.72836
ない	-6.76948
1	-6.84495
▁"	-6.87918
▁もう	-6.88182
ます	-6.88904
さん	-6.9199
▁そして	-6.95388
だった	-6.96421
▁これは	-6.96759
▁それは	-6.97951
▁お	-6.99104
ー	-6.99411
➡	-7.00056
▁-	-7.0038
▁何	-7.01725
~	-7.0323
り	-7.04301
のか	-7.05958
ぞ	-7.06801
▁ああ	-7.07398
2	-7.08099
▁あの	-7.09303
でも	-7.09317
じゃない	-7.09468
ました	-7.09515
ス	-7.1004
.	-7.10736
▁そう	-7.14507
く	-7.16043
まで	-7.17234
▁彼は	-7.18071
・・・	-7.19377
▁私の	-7.22044
▁私	-7.24543
ろ	-7.24887
的	-7.25111
ん	-7.25594
▁はい	-7.26329
けど	-7.26785
いる	-7.2691
のは	-7.27174
します	-7.27665
という	-7.28838
った	-7.29086
いた	-7.29596
では	-7.30528
こと	-7.30797
▁いや	-7.31537
だよ	-7.32281
▁《	-7.32499
▁私が	-7.33739
だろ	-7.34004
▁今	-7.3412
なんて	-7.34726
お	-7.35707
―	-7.36515
この	-7.3926
ト	-7.39287
▁これ	-7.3992
年	-7.39921
でしょう	-7.40606
しました	-7.41255
時	-7.42173
す	-7.42541
▁何か	-7.43379
▁俺は	-7.44384
▁だから	-7.44717
ッ	-7.4546
のです	-7.45527
だけ	-7.46178
▁まだ	-7.47427
事	-7.47737
)	-7.48156
へ	-7.48273
▁ちょっと	-7.48571
でした	-7.49082
▁1	-7.49302
がある	-7.49514
ク	-7.49666
してる	-7.49809
います	-7.51588
3	-7.52044
「	-7.52199
▁2	-7.52692
▁しかし	-7.53262
つ	-7.54192
なかった	-7.54451
▁あなたは	-7.55036
▁なぜ	-7.57531
き	-7.57878
日	-7.57988
》	-7.58448
っ	-7.59035
できる	-7.59504
として	-7.5956
された	-7.60048
んです	-7.60846
▁それで	-7.61531
より	-7.61561
だろう	-7.62194
▁また	-7.62237
そう	-7.62293
▁お前	-7.63753
でしょ	-7.64301
▁あっ	-7.64344
▁それが	-7.65539
ド	-7.65549
なんだ	-7.65962
▁いい	-7.66087
している	-7.66117
だと	-7.66423
いい	-7.66584
一	-7.66622
▁君は	-7.66925
ことを	-7.6717
ある	-7.68274
とか	-7.68379
ですか	-7.69807
▁あ	-7.70251
じゃ	-7.70429
その	-7.70538
み	-7.70981
君	-7.7164
▁うん	-7.71904
にも	-7.71953
▁おい	-7.72738
子	-7.7279
分	-7.73222
とは	-7.73435
について	-7.74612
▁そんな	-7.75073
▁じゃあ	-7.75088
ラ	-7.76123
め	-7.76125
▁彼女は	-7.76282
になる	-7.76388
▁あなたの	-7.77055
物	-7.77369
もの	-7.77652
何	-7.78113
者	-7.78258
いて	-7.78455
n	-7.78817
▁だが	-7.79356
リー	-7.80226
ば	-7.80532
ナ	-7.80717
▁それ	-7.81544
かな	-7.8166
▁あなた	-7.82391
ちゃん	-7.8297
ズ	-7.84678
んだよ	-7.85009
ように	-7.85349
う	-7.8572
▁ええ	-7.86136
:	-7.86367
▁みんな	-7.86502
よう	-7.86962
だって	-7.88336
▁どうして	-7.88696
ア	-7.89959
]	-7.89981
中	-7.89994
▁本当に	-7.9
ル	-7.90065
だな	-7.90932
▁もし	-7.91053
リ	-7.91765
的な	-7.92085
▁[	-7.92231
タ	-7.92696
▁(	-7.94054
今	-7.94829
▁これが	-7.9523
▁俺	-7.95947
手	-7.96257
んですか	-7.96358
だから	-7.9637
▁ありがとう	-7.96431
コ	-7.96773
▁あなたが	-7.97181
時間	-7.97189
ください	-7.97329
▁君の	-7.97794
5	-7.99589
大	-8.00103
見	-8.00694
▁僕は	-8.01682
人の	-8.02581
と思う	-8.0275
ことは	-8.02852
なの	-8.02868
しています	-8.0288
前に	-8.03511
こ	-8.03894
いない	-8.04497
▁3	-8.04902
▁どう	-8.04972
▁お前は	-8.05005
4	-8.052
▁彼の	-8.05245
▁俺の	-8.06042
マ	-8.06064
本	-8.0639
話	-8.06989
ねえ	-8.07559
ま	-8.08577
力	-8.08842
▁こんな	-8.08868
▁えっ	-8.0911
ぜ	-8.09154
ロ	-8.09266
ム	-8.09823
出	-8.09912
しろ	-8.10053
上	-8.10368
回	-8.10491
のために	-8.10706
のよ	-8.11406
人は	-8.1152
ですね	-8.11566
良い	-8.11759
やる	-8.11788
よね	-8.1211
▁もっと	-8.12447
え	-8.128
れば	-8.1328
キ	-8.13758
▁彼らは	-8.13957
後	-8.14104
家	-8.14159
される	-8.14186
あ	-8.14219
月	-8.14246
▁俺が	-8.14397
私の	-8.14571
カ	-8.14851
考え	-8.16341
▁あれ	-8.1655
前	-8.16802
ン	-8.17085
所	-8.17558
何か	-8.1756
性	-8.17623
私	-8.17787
▁ただ	-8.18435
私は	-8.18491
があります	-8.18499
不	-8.1873
とき	-8.18959
くれ	-8.19259
しない	-8.19413
▁さあ	-8.19645
ブ	-8.1989
人が	-8.20101
▁まあ	-8.20322
できない	-8.21325
ません	-8.21922
▁自分の	-8.22345
▁つまり	-8.22538
ダ	-8.22653
▁ここで	-8.22719
ディ	-8.22741
方	-8.2329
ではない	-8.23577
▁どんな	-8.2359
しか	-8.24268
マン	-8.2442
もう	-8.24535
れ	-8.24556
のこと	-8.24713
ジ	-8.25066
▁≪	-8.25102
▁何で	-8.25209
6	-8.25262
など	-8.25313
オ	-8.25567
道	-8.26111
気	-8.26596
になった	-8.2665
いました	-8.27174
▁彼が	-8.272
てる	-8.27494
▁よく	-8.27915
への	-8.28257
・・	-8.286
▁君が	-8.28634
▁それを	-8.2865
ほど	-8.29001
バ	-8.29003
会	-8.29053
イ	-8.29522
なんか	-8.30105
▁♪	-8.30117
▁我々は	-8.30438
サ	-8.30603
ですよ	-8.30687
▁私たちは	-8.30791
たい	-8.30836
チ	-8.31114
たら	-8.31365
られる	-8.31694
▁いつも	-8.32012
になって	-8.32387
下	-8.32535
ために	-8.32578
のように	-8.3266
▁ある	-8.33436
▁よし	-8.34118
ず	-8.34324
ことが	-8.3451
どう	-8.34564
▁とても	-8.34667
様	-8.34681
む	-8.35072
わね	-8.35174
シ	-8.35248
用	-8.35778
かもしれない	-8.35901
グ	-8.35905
事を	-8.35959
点	-8.35994
▁ここ	-8.36015
体	-8.36173
ミ	-8.36757
▁ここに	-8.36766
万	-8.36907
10	-8.36967
せ	-8.37133
水	-8.37472
▁なんで	-8.37828
け	-8.37996
目	-8.38087
名	-8.38534
男	-8.38616
▁大	-8.38726
エ	-8.38757
んで	-8.38909
▁お前の	-8.39058
ている	-8.3912
来	-8.39173
▁それに	-8.39538
▁何を	-8.3973
▁大丈夫	-8.39849
私が	-8.40198
先生	-8.40207
である	-8.40394
られた	-8.40418
フ	-8.40434
先	-8.40491
金	-8.4079
▁何も	-8.41454
▁もちろん	-8.42118
,	-8.42482
ような	-8.42792
ノ	-8.4309
生	-8.43106
心	-8.43332
了	-8.43496
▁私も	-8.43794
▁え	-8.44056
ち	-8.44444
ウ	-8.44761
▁君	-8.44855
したい	-8.44885
▁他の	-8.44929
なさい	-8.44992
-	-8.45055
▁ア	-8.45163
だけだ	-8.45401
よく	-8.45724
され	-8.45951
ニ	-8.46011
レ	-8.46481
女	-8.46983
ですが	-8.47214
~!	-8.4737
ご	-8.47442
8	-8.4759
きた	-8.47717
▁早く	-8.47747
▁ほら	-8.48314
があった	-8.4844
地	-8.48833
ツ	-8.48842
させる	-8.48935
(	-8.48975
▁一緒に	-8.49173
場所	-8.49455
わよ	-8.49774
してた	-8.49992
ネ	-8.50279
山	-8.50413
かも	-8.50713
長	-8.50807
それ	-8.51082
▁今日は	-8.5109
▁今日	-8.51102
関係	-8.5197
問題	-8.52622
▁少し	-8.53176
まだ	-8.53218
▁彼	-8.53229
つの	-8.53233
ゴ	-8.53471
ところ	-8.53861
行	-8.54052
によって	-8.54634
そうだ	-8.54747
ガ	-8.54978
▁あんた	-8.5504
▁そうだ	-8.55173
▁これで	-8.55238
言う	-8.55413
るんだ	-8.55466
▁彼女	-8.55883
これ	-8.5613
仕事	-8.56444
国	-8.5659
7	-8.57097
▁誰か	-8.57113
▁今は	-8.57198
数	-8.57294
ティ	-8.57467
着	-8.57658
▁新しい	-8.57723
ここに	-8.57877
なく	-8.58022
ましょう	-8.58086
▁そこで	-8.58094
▁ご	-8.58685
していた	-8.58695
▁一	-8.58754
バー	-8.58933
▁同じ	-8.5894
度	-8.58986
取り	-8.58986
事は	-8.59008
やった	-8.59165
行く	-8.59329
にある	-8.59352
ラー	-8.59387
▁ずっと	-8.5942
歳	-8.59547
ニー	-8.59559
通り	-8.59581
口	-8.59667
はない	-8.5993
▁なに	-8.60051
知ってる	-8.60099
したら	-8.60166
是	-8.60362
的に	-8.609
からです	-8.609
時に	-8.60962
感じ	-8.61206
内	-8.6141
▁誰も	-8.61616
部	-8.61637
また	-8.61791
▁5	-8.61802
プ	-8.62436
だぞ	-8.62491
ビ	-8.63033
▁お前が	-8.63049
言った	-8.63076
言って	-8.63225
▁何が	-8.63449
やって	-8.63771
見て	-8.64017
かい	-8.64121
なんです	-8.64141
しよう	-8.64257
みたい	-8.64286
化	-8.64365
▁ここは	-8.64899
▁では	-8.65112
ことです	-8.6512
神	-8.65799
▁あぁ	-8.65888
下さい	-8.6614
▁僕	-8.66164
▁違う	-8.66303
▁僕の	-8.66465
▁皆	-8.66531
すると	-8.66561
田	-8.66586
女性	-8.66657
ドル	-8.67125
▁ねえ	-8.67474
s	-8.67722
世界	-8.67912
無い	-8.67942
人間	-8.68087
スト	-8.68204
外	-8.68395
▁いいえ	-8.68554
ことに	-8.6866
愛	-8.68799
▁誰が	-8.69045
戦	-8.69124
シー	-8.69435
▁10	-8.6983
法	-8.70039
テ	-8.70082
機	-8.70245
音	-8.70273
なのか	-8.70278
m	-8.70591
死ぬ	-8.7064
ってる	-8.70841
それを	-8.70885
させて	-8.7114
悪い	-8.71248
を見て	-8.71367
e	-8.714
技術	-8.71491
▁それから	-8.71854
▁どうやって	-8.71913
知らない	-8.72075
島	-8.72182
んだけど	-8.72352
高	-8.72395
リン	-8.72503
▁彼女の	-8.7257
来た	-8.72962
達	-8.72971
傷	-8.73288
▁ママ	-8.73463
に行く	-8.73501
家族	-8.73642
星	-8.7386
面	-8.73952
のような	-8.73959
ケ	-8.73979
と思います	-8.74041
あなた	-8.7423
発	-8.7425
してくれ	-8.74286
▁私に	-8.74409
入	-8.74509
くらい	-8.7461
何を	-8.74637
場	-8.74677
らしい	-8.74916
計画	-8.74919
出来る	-8.74951
有	-8.74992
▁何だ	-8.75099
▁すぐに	-8.75312
欲しい	-8.75485
顔	-8.75617
デ	-8.75678
ものです	-8.75724
▁パパ	-8.75736
ながら	-8.75872
学	-8.75943
だけど	-8.75991
と言った	-8.76163
システム	-8.76452
▁きっと	-8.76478
でしょうか	-8.76522
々	-8.76648
あの	-8.7667
なのです	-8.76723
あります	-8.76815
すれば	-8.76872
んだろ	-8.76894
▁全部	-8.76942
ため	-8.77199
t	-8.77212
子供	-8.77217
線	-8.77378
▁仕事	-8.77397
▁我	-8.77746
だわ	-8.77823
あった	-8.77911
俺	-8.77937
くる	-8.78055
▁さて	-8.78271
よりも	-8.78376
奴	-8.78409
来る	-8.78623
ています	-8.78995
自分の	-8.79089
電話	-8.7909
光	-8.79366
▁分かった	-8.79393
の中で	-8.79621
年間	-8.79781
ではなく	-8.79818
ないと	-8.79839
▁これを	-8.79878
こう	-8.80007
ではありません	-8.80219
ター	-8.80247
がいる	-8.80276
行動	-8.8062
ラン	-8.80788
大きな	-8.80853
川	-8.80868
通	-8.8111
9	-8.81131
▁僕が	-8.81322
と同じ	-8.81356
分かる	-8.81439
代	-8.81457
はず	-8.81574
かった	-8.81699
なきゃ	-8.81712
なくて	-8.81816
▁お願い	-8.81926
間	-8.82226
いく	-8.82334
なぁ	-8.82536
メ	-8.8254
理由	-8.82564
じ	-8.82579
がない	-8.82587
▁ちゃんと	-8.82705
足	-8.82745
新しい	-8.82833
るの	-8.83089
だね	-8.83096
▁彼女が	-8.83428
ビー	-8.83517
もっと	-8.83602
にいる	-8.83618
本当に	-8.83631
海	-8.83663
小	-8.83699
▁わかった	-8.83894
木	-8.83931
全て	-8.84058
んじゃない	-8.84071
全部	-8.84228
わけ	-8.84479
違う	-8.84599
中に	-8.84789
番	-8.8507
▁すごい	-8.85099
▁待って	-8.85148
形	-8.85174
ロー	-8.85477
20	-8.85556
にとって	-8.85703
状況	-8.8586
』	-8.85876
在	-8.85894
▁ごめん	-8.86171
空	-8.86203
何も	-8.86231
ねぇ	-8.86233
▁4	-8.86355
ザ	-8.86385
されて	-8.86784
モ	-8.86798
夜	-8.86901
行って	-8.86922
あなたの	-8.87079
かしら	-8.87079
a	-8.8716
を見	-8.87241
じゃないか	-8.87277
▁そうか	-8.87301
店	-8.87417
▁実は	-8.87547
同じ	-8.87641
ボ	-8.87762
と一緒に	-8.87832
聞いて	-8.87847
組織	-8.87944
来て	-8.87993
少し	-8.88463
流	-8.88586
はずだ	-8.8874
ばかり	-8.88781
ット	-8.88838
▁やっぱり	-8.88846
▁あれは	-8.88922
見た	-8.89075
頭	-8.89212
っと	-8.8923
ック	-8.89258
”	-8.89297
▁まさか	-8.89613
村	-8.89813
ないわ	-8.89988
つく	-8.90013
話す	-8.90219
ろう	-8.90255
君の	-8.9043
人に	-8.90567
ソン	-8.90671
屋	-8.90758
ほしい	-8.90865
出す	-8.91203
とも	-8.91232
状態	-8.91234
書	-8.9142
▁すみません	-8.91621
▁マ	-8.9174
ということです	-8.91754
みたいな	-8.92225
▁見て	-8.9225
やつ	-8.9237
▁どうした	-8.92723
カー	-8.9277
トン	-8.93002
そうです	-8.93051
主	-8.93063
私に	-8.93103
夢	-8.93239
船	-8.93304
ちょっと	-8.93412
品	-8.93459
人を	-8.93482
▁確かに	-8.93568
野	-8.93577
にして	-8.93615
ヤ	-8.93828
身	-8.9393
要	-8.93931
なければ	-8.93964
車	-8.94033
研究	-8.94327
▁私を	-8.94367
▁<	-8.94498
スター	-8.94817
ずっと	-8.94864
c	-8.95088
必要	-8.951
▁あと	-8.95137
声	-8.95201
▁どうぞ	-8.95261
彼の	-8.95338
わかる	-8.95617
存在	-8.95665
あり	-8.95677
▁金	-8.9591
を使って	-8.95961
と思った	-8.96088
死	-8.96176
>	-8.96279
▁これから	-8.96303
▁見	-8.96361
量	-8.96441
なる	-8.96514
夫	-8.9656
▁お父さん	-8.96575
心配	-8.96615
博士	-8.96664
元	-8.9674
我	-8.96756
色	-8.96789
調査	-8.96867
彼は	-8.97136
▁いえ	-8.97144
一緒に	-8.97157
ど	-8.97169
変化	-8.97369
だけで	-8.9749
ると	-8.97717
もない	-8.97756
▁全て	-8.97803
こそ	-8.97857
みんな	-8.98022
生活	-8.98164
他の	-8.98249
r	-8.98303
いません	-8.9835
▁家族	-8.9839
思い	-8.98604
とこ	-8.99001
▁こちら	-8.99069
▁−	-8.991
▁我々の	-8.99241
答え	-8.99403
ぐ	-8.99461
▁水	-8.99619
役	-8.99632
好	-8.99688
行った	-8.99732
好き	-8.99743
俺の	-8.99793
花	-8.99821
以上	-8.99957
▁良い	-8.99963
▁そういう	-9.00029
▁彼を	-9.00203
事が	-9.00204
▁手	-9.00234
▁こっち	-9.00249
▁ごめんなさい	-9.0033
▁誰	-9.00351
パ	-9.00399
▁私たち	-9.00505
食	-9.00545
ライ	-9.00714
▁〈	-9.00722
れる	-9.0079
意味	-9.0093
になります	-9.01049
みたいに	-9.01083
皆	-9.01197
ワ	-9.01231
の中に	-9.01392
かもしれません	-9.01425
イン	-9.01445
ソ	-9.01544
▁そ	-9.01659
方が	-9.01684
お前	-9.01948
一人	-9.02004
ぎ	-9.02112
ベ	-9.02192
名前	-9.02205
きました	-9.02207
無	-9.02493
▁今の	-9.02557
ここで	-9.02637
▁あいつ	-9.02652
軍	-9.02707
〉	-9.02714
得	-9.02762
▁まず	-9.02775
ぶ	-9.0285
っている	-9.03133
石	-9.0344
セ	-9.03534
▁そんなこと	-9.03629
友達	-9.03769
それは	-9.03831
たんだ	-9.03895
できた	-9.03967
事件	-9.03988
人で	-9.03998
たくない	-9.04002
▁お母さん	-9.04094
ここ	-9.04101
されている	-9.04157
早く	-9.04308
頃	-9.04657
▁どうも	-9.04776
できます	-9.04834
薬	-9.04879
しましょう	-9.04953
室	-9.05106
▁20	-9.05125
▁すいません	-9.05196
誰か	-9.052
ぬ	-9.05213
のことを	-9.05243
彼女	-9.05284
▁たぶん	-9.05593
台	-9.05843
▁とにかく	-9.05901
ロン	-9.06021
結果	-9.06102
を持って	-9.06196
原	-9.06221
ハ	-9.06274
員	-9.06292
仕事を	-9.06329
▁ジョン	-9.06426
情報	-9.06517
んじゃ	-9.06541
d	-9.06552
とても	-9.06705
i	-9.06718
出来ない	-9.06785
を殺した	-9.06842
んだろう	-9.06946
▁う	-9.06947
罪	-9.07048
なんだよ	-9.07278
年前	-9.07285
チーム	-9.07559
であり	-9.07683
止め	-9.07883
天	-9.07996
死んだ	-9.08042
マー	-9.08098
ナー	-9.08307
風	-9.08308
経験	-9.08432
私を	-9.0857
報告	-9.08681
居	-9.08698
カード	-9.08821
▁バカ	-9.08916
素晴らしい	-9.09301
レン	-9.09477
の話	-9.09544
らない	-9.09573
放	-9.09573
ヤツ	-9.09973
ぐらい	-9.10018
話した	-9.10036
▁あら	-9.10069
説明	-9.10098
これは	-9.10188
考えて	-9.10202
られない	-9.10302
相手	-9.10327
そ	-9.10336
骨	-9.10343
▁最近	-9.10562
▁じゃ	-9.1064
▁電話	-9.10653
助け	-9.10839
味	-9.10854
感	-9.10886
二	-9.10924
▁世界	-9.11212
▁先生	-9.11291
▁明日	-9.11499
行き	-9.11635
質問	-9.11662
どんな	-9.11865
o	-9.11951
君は	-9.11992
いった	-9.12062
笑	-9.12097
初めて	-9.12243
知っている	-9.12267
入れ	-9.12531
なって	-9.12646
▁次の	-9.12769
美	-9.12788
▁私たちの	-9.12893
人生	-9.13095
よかった	-9.13269
つもり	-9.13392
出した	-9.13398
▁あなたに	-9.13428
▁すぐ	-9.13443
▁いいか	-9.13462
血	-9.13484
ものを	-9.1349
年に	-9.13492
▁皆さん	-9.13607
太	-9.13608
▁よかった	-9.13619
l	-9.13639
学校	-9.13699
したの	-9.13748
くん	-9.13781
聞いた	-9.13803
彼	-9.13866
作	-9.1387
と言う	-9.13918
▁例えば	-9.13983
友人	-9.1404
び	-9.14067
すべて	-9.14199
母	-9.14294
y	-9.14343
去	-9.14475
による	-9.14618
▁不	-9.14662
ぁ	-9.14664
父	-9.15012
▁すべて	-9.15041
ポ	-9.15068
さんは	-9.15101
解	-9.15146
を見た	-9.15149
▁そこに	-9.15206
▁いつ	-9.15444
▁エ	-9.15526
言い	-9.15543
攻撃	-9.15661
に対して	-9.15685
考える	-9.15726
言葉	-9.15837
させた	-9.15887
くれる	-9.16056
悪	-9.16076
▁6	-9.16094
方法	-9.161
しかない	-9.16109
強い	-9.16211
させ	-9.16283
んですよ	-9.1632
引き	-9.16461
誰	-9.16476
ベル	-9.16482
p	-9.16528
敵	-9.16678
るのは	-9.16762
映画	-9.16796
h	-9.16861
こんな	-9.16899
語	-9.16976
▁自分で	-9.17036
場合	-9.17179
しい	-9.17189
ですよね	-9.17404
してください	-9.17408
犬	-9.17429
▁誰かが	-9.17489
つけ	-9.1762
くれた	-9.17634
同	-9.17721
聞く	-9.17758
者は	-9.17836
写真	-9.17844
ようだ	-9.17959
A	-9.17964
▁自分	-9.18101
種	-9.18101
の事	-9.18119
能力	-9.18188
があって	-9.18293
~。	-9.18305
歌	-9.18385
分かった	-9.1841
S	-9.18479
▁今まで	-9.18539
就	-9.18567
f	-9.18637
▁『	-9.18638
持って	-9.18824
ガー	-9.18905
30	-9.18938
ことも	-9.191
記録	-9.19115
▁小	-9.19121
目的	-9.19173
▁だって	-9.19449
リスト	-9.19508
b	-9.19725
大丈夫	-9.19751
u	-9.19783
出して	-9.19796
残	-9.19928
弾	-9.19934
ゲーム	-9.19935
になり	-9.19985
なし	-9.20031
さえ	-9.2005
曲	-9.20057
キー	-9.20225
▁どこ	-9.20342
んでしょ	-9.20557
の為に	-9.20718
そんな	-9.20756
のある	-9.20791
べ	-9.20938
は何	-9.21016
和	-9.21086
もん	-9.21095
▁あんな	-9.21134
▁オ	-9.21145
されました	-9.21352
命	-9.21367
▁ただの	-9.21377
▁俺も	-9.21389
▁素晴らしい	-9.21426
▁警察	-9.21435
ギ	-9.21437
▁ホント	-9.21528
等	-9.21557
動	-9.21619
環境	-9.21635
活動	-9.21696
ことだ	-9.21786
仲間	-9.21814
次	-9.21898
のね	-9.22179
なり	-9.22189
▁別の	-9.22289
ること	-9.22386
▁知ってる	-9.22413
▁心	-9.22419
開発	-9.22487
人物	-9.22487
してない	-9.22591
さんが	-9.2265
服	-9.22663
反応	-9.22672
一つ	-9.22815
るか	-9.22846
妻	-9.22864
アン	-9.22913
しまった	-9.22961
ってこと	-9.23065
を見つけた	-9.23079
▁友達	-9.23267
式	-9.23324
▁ス	-9.23344
▁さらに	-9.23382
▁待て	-9.2353
かどうか	-9.23579
モン	-9.2358
シュ	-9.23646
立	-9.23656
器	-9.23664
たち	-9.23761
したんだ	-9.23783
捜査官	-9.2402
じゃん	-9.24129
としても	-9.24166
半	-9.24203
会社	-9.24316
バカ	-9.24325
▁お前ら	-9.24465
社会	-9.24547
げ	-9.24568
あんた	-9.24581
アル	-9.24626
だと思う	-9.24728
なぜ	-9.24782
多くの	-9.24802
見える	-9.24879
彼を	-9.2491
g	-9.25044
▁悪い	-9.25078
C	-9.25155
からね	-9.25183
▁息子	-9.25203
▁こう	-9.25236
▁新	-9.25249
...》	-9.25326
られ	-9.25404
君が	-9.25451
▁君に	-9.25514
してきた	-9.25533
▁私には	-9.25693
付け	-9.25822
を持つ	-9.2591
エル	-9.25958
型	-9.26059
が必要だ	-9.26256
刑事	-9.26293
もらう	-9.26299
▁我々が	-9.26408
▁イ	-9.2641
你	-9.26417
思う	-9.26462
小さな	-9.26527
部分	-9.26558
新	-9.26583
モンスター	-9.26614
▁私達は	-9.26647
装置	-9.26648
ジュ	-9.26751
あなたは	-9.26834
戦争	-9.26994
今日	-9.27142
てくれ	-9.27146
をする	-9.2721
理解	-9.27271
野郎	-9.27291
?」	-9.27302
と思って	-9.27325
取引	-9.27355
細胞	-9.27382
僕	-9.27486
んだから	-9.2757
▁彼に	-9.27597
いつも	-9.27658
▁やめろ	-9.27794
情報を	-9.27867
アー	-9.27939
王	-9.27947
三	-9.2804
もいい	-9.28067
ていた	-9.28262
▁俺に	-9.28268
ダー	-9.28366
為	-9.28451
だし	-9.28486
ガン	-9.28593
動き	-9.28631
られて	-9.28697
▁一体	-9.28772
さんの	-9.2882
▁私たちが	-9.28896
分からない	-9.29062
気分	-9.29147
k	-9.29172
ものだ	-9.29223
すべき	-9.29242
するのは	-9.29286
ヒ	-9.29309
生き	-9.29484
▁その後	-9.29595
デザイン	-9.29619
位	-9.29729
▁かなり	-9.29909
▁我々	-9.3003
里	-9.30037
ありません	-9.3007
やってる	-9.30092
に行って	-9.3011
されてる	-9.30151
発見	-9.30179
▁彼らの	-9.30257
▁絶対	-9.30294
▁なんだ	-9.30438
重	-9.3046
明	-9.30529
息子	-9.30583
▁どうしたの	-9.30589
しないと	-9.30647
街	-9.30679
警察	-9.3071
なのよ	-9.30711
肉	-9.30764
カン	-9.3078
予定	-9.30808
だったら	-9.30892
管理	-9.30893
例	-9.30986
啊	-9.31105
に対する	-9.31256
目に	-9.31258
件	-9.31273
違い	-9.31277
旅	-9.31314
もある	-9.31316
近	-9.31388
話を	-9.314
手を	-9.31408
料理	-9.3141
▁三	-9.31448
世	-9.31457
▁そりゃ	-9.31553
▁まるで	-9.31584
隊	-9.31595
病	-9.31734
▁サ	-9.31791
タイ	-9.31825
ぼ	-9.31836
はどう	-9.31964
リア	-9.32221
ちゃった	-9.32325
▁特に	-9.32327
▁多くの	-9.32496
これを	-9.32587
ジョン	-9.32621
ダメ	-9.32632
してくれる	-9.32655
気持ち	-9.32811
直	-9.32861
ないよ	-9.32904
▁一番	-9.32918
込んで	-9.3305
変	-9.33093
▁他に	-9.33139
つき	-9.33252
実験	-9.33328
▁家	-9.33338
の中	-9.33347
安全	-9.33403
物語	-9.33408
対	-9.33433
保護	-9.33469
捜査	-9.33527
▁なぜなら	-9.33612
全員	-9.33645
火	-9.33655
質	-9.33658
訳	-9.33715
からな	-9.33815
立て	-9.33917
リング	-9.33928
局	-9.3399
社	-9.34032
─	-9.34122
移動	-9.34146
つか	-9.34162
年の	-9.34232
病気	-9.34259
D	-9.3427
▁それとも	-9.3433
見つけた	-9.34349
戦い	-9.34386
のため	-9.34413
▁第	-9.34566
▁元気	-9.34628
企業	-9.34629
じゃなくて	-9.34743
也	-9.34769
わかった	-9.34923
ひ	-9.34952
兵	-9.34997
テスト	-9.34998
ことで	-9.3505
席	-9.35066
グループ	-9.3511
▁子供	-9.35113
切り	-9.35121
ますか	-9.35149
込む	-9.35309
転	-9.35312
きて	-9.35336
平	-9.35388
成	-9.35448
▁アメリカ	-9.35539
▁おお	-9.35557
しなかった	-9.35573
都	-9.35636
出し	-9.35638
魚	-9.35648
枚	-9.35711
終わり	-9.35715
▁そんなに	-9.35723
T	-9.35727
――	-9.35752
あなたが	-9.35755
ありがとう	-9.35813
ジー	-9.3589
能	-9.36011
秒	-9.36097
▁神	-9.3612
朝	-9.36131
客	-9.36138
るのか	-9.36189
番号	-9.36221
城	-9.36222
息	-9.36232
50	-9.36275
▁無理	-9.3632
連れて	-9.36336
▁別に	-9.36373
表	-9.36431
▁もう一度	-9.36476
官	-9.36512
▁やめて	-9.3653
俺は	-9.36636
絵	-9.3664
▁大きな	-9.36712
▁自分が	-9.36713
ずに	-9.36766
患者	-9.36784
別の	-9.36994
相	-9.37045
ゆ	-9.37095
機能	-9.37104
為に	-9.37242
▁さっき	-9.3725
トラ	-9.37263
するんだ	-9.37316
一番	-9.37365
治療	-9.37434
▁車	-9.37445
▁ありがとうございます	-9.37477
▁聞いて	-9.37527
▁結婚	-9.37563
感情	-9.37583
▁昨日	-9.37706
事だ	-9.37712
持ち	-9.37723
解決	-9.37788
るわ	-9.37901
見えない	-9.3798
なのに	-9.38025
すぎる	-9.38094
真	-9.38253
▁彼らが	-9.3827
州	-9.38322
失	-9.38452
ないで	-9.38459
動物	-9.38492
▁うちの	-9.38564
データ	-9.38608
週間	-9.38614
ミー	-9.38622
▁分かってる	-9.38745
▁ジャック	-9.38765
B	-9.38897
込み	-9.38966
15	-9.38983
▁あッ	-9.38991
時間を	-9.39023
人たち	-9.39252
▁初めて	-9.39277
からだ	-9.39333
二人	-9.39472
強く	-9.39583
いるの	-9.39744
宇宙	-9.3976
多く	-9.3984
作った	-9.39874
ドラゴン	-9.39956
▁ミ	-9.39984
▁嘘	-9.40038
自由	-9.40087
▁彼ら	-9.40214
理	-9.40218
すること	-9.40293
切れ	-9.40324
▁カ	-9.4033
親	-9.40342
において	-9.40397
▁どこに	-9.40448
箱	-9.40466
▁彼女を	-9.40564
合	-9.4061
言	-9.40682
というのは	-9.40731
未来	-9.40747
▁おまえ	-9.40779
サー	-9.40824
指	-9.4084
▁実際	-9.40842
正	-9.40846
▁これらの	-9.40895
号	-9.40896
ちゃ	-9.40934
があり	-9.41023
となる	-9.41046
▁ホントに	-9.41091
パー	-9.41102
メール	-9.41153
▁全然	-9.41168
▁朝	-9.41176
術	-9.41177
▁こいつ	-9.41248
▁やった	-9.41295
ニュース	-9.41352
見る	-9.41454
プログラム	-9.41465
▁人間	-9.41523
を作る	-9.41779
定	-9.41791
▁アンタ	-9.41802
話し	-9.41838
弱	-9.41865
力を	-9.41878
11	-9.41994
銃	-9.42023
責任	-9.42095
そうな	-9.42333
熱	-9.42352
始めた	-9.42374
正しい	-9.42384
倍	-9.42429
▁高	-9.42438
かけ	-9.42512
M	-9.42514
▁まったく	-9.42556
作品	-9.42619
タン	-9.42653
▁現在	-9.42673
観	-9.42747
▁心配	-9.42784
魂	-9.428
部屋	-9.42828
されています	-9.42831
俺が	-9.42839
コン	-9.42844
E	-9.4297
続けて	-9.43154
▁知らない	-9.43172
しても	-9.43199
やれ	-9.43236
▁非常に	-9.43248
▁私達	-9.43274
生物	-9.43274
ということ	-9.43286
しません	-9.43286
聞き	-9.43364
'	-9.43397
約束	-9.43397
意	-9.43506
お願い	-9.43515
気が	-9.43544
向	-9.4365
はある	-9.43812
かけて	-9.44043
ですから	-9.44066
破壊	-9.44069
だけです	-9.44086
ビン	-9.44098
▁もう少し	-9.44125
藤	-9.44144
経済	-9.44153
るぞ	-9.44189
氏	-9.44486
準備	-9.4457
▁どうする	-9.4465
馬	-9.44655
時は	-9.44669
の方	-9.44675
▁今夜	-9.4495
理由は	-9.44954
▁リ	-9.44969
▁すごく	-9.45022
ったら	-9.45063
▁父さん	-9.45074
▁7	-9.45126
かね	-9.45138
来い	-9.45175
産	-9.45191
億	-9.452
▁それと	-9.45228
▁えッ	-9.45273
別	-9.45308
▁レ	-9.45337
政府	-9.45364
ッド	-9.45456
▁オレは	-9.45635
にする	-9.45784
ないか	-9.45926
使用	-9.45977
レベル	-9.4605
ブラ	-9.46071
待って	-9.46088
任務	-9.46104
を見る	-9.46171
進	-9.46179
たちは	-9.4633
良かった	-9.46409
▁奴は	-9.46427
殺人	-9.4652
プロジェクト	-9.46544
▁愛	-9.46565
すぐ	-9.46566
会った	-9.46567
▁女	-9.46577
娘	-9.46621
利用	-9.46638
tel	-9.46681
▁あんたは	-9.46689
もらった	-9.46694
▁わかってる	-9.46794
たの	-9.46894
▁本	-9.4692
▁デ	-9.46939
さま	-9.46955
の間	-9.46999
▁ハ	-9.47007
出て	-9.47029
▁次は	-9.47071
集	-9.47133
▁まぁ	-9.47199
になりました	-9.47256
▁お金	-9.47266
が必要	-9.47281
なあ	-9.47442
▁さぁ	-9.47542
▁ここから	-9.47544
目を	-9.47611
▁大丈夫だ	-9.47649
組	-9.47825
していました	-9.47857
あれ	-9.47873
成長	-9.47886
飛び	-9.47899
都市	-9.4792
▁海	-9.47931
キス	-9.47942
に行った	-9.47956
高い	-9.47967
ようです	-9.47993
殺	-9.48022
確認	-9.48158
君に	-9.48221
始め	-9.48239
町	-9.48297
それが	-9.48332
▁必ず	-9.4834
後に	-9.48355
取	-9.48384
▁9	-9.48414
に関する	-9.48418
幸せ	-9.48433
千	-9.48445
穴	-9.4845
立ち	-9.4853
▁今度は	-9.48619
門	-9.48753
▁あの子	-9.48773
まま	-9.48802
いや	-9.48819
▁8	-9.48831
▁♫	-9.48914
▁最後に	-9.48924
中の	-9.49014
追い	-9.49065
いう	-9.49083
▁前	-9.49105
少女	-9.4928
するために	-9.49298
やろう	-9.49346
じゃなかった	-9.49362
男性	-9.49407
建物	-9.49413
重要	-9.49465
誰も	-9.49495
▁どういう	-9.49497
▁ラ	-9.49596
は無い	-9.49607
よい	-9.49615
12	-9.49637
帰る	-9.49646
証拠	-9.49654
系	-9.49701
ビル	-9.49726
戻る	-9.49774
文	-9.49841
特	-9.4985
いか	-9.49929
ものは	-9.49974
続ける	-9.50133
ないの	-9.50141
作戦	-9.50145
利	-9.50215
忘れ	-9.50235
許可	-9.50238
▁昔	-9.50239
▁学校	-9.5027
知	-9.50291
あげ	-9.50323
嫌い	-9.50417
▁外	-9.50464
入り	-9.50469
ついて	-9.50491
ただ	-9.50527
効果	-9.50532
はありません	-9.50542
▁中	-9.50573
家に	-9.50727
使う	-9.50731
っていう	-9.50732
危険	-9.50772
検査	-9.50786
酒	-9.50797
上の	-9.51086
運命	-9.51196
により	-9.51259
▁それだけ	-9.51263
いって	-9.51285
▁行け	-9.51403
何だ	-9.51436
▁全ての	-9.51436
白	-9.51488
無理	-9.51507
▁あなたを	-9.51567
▁このような	-9.51746
いなかった	-9.51812
尾	-9.51871
▁大丈夫か	-9.51882
多	-9.51903
波	-9.5193
丸	-9.51957
かかる	-9.51965
きます	-9.51971
▁多分	-9.51974
コード	-9.52058
間に	-9.52202
人々	-9.52227
出る	-9.52288
▁やあ	-9.52385
過	-9.52411
時代	-9.52454
L	-9.52459
言え	-9.52468
▁夜	-9.52602
てた	-9.52676
▁全員	-9.52691
アイデア	-9.52691
公	-9.52724
行こう	-9.5273
▁こんにちは	-9.52783
学生	-9.52806
率	-9.52806
瞬間	-9.52863
信	-9.52917
リック	-9.52971
▁何の	-9.52999
ワン	-9.53022
教	-9.53029
最後の	-9.53093
ザー	-9.53132
なん	-9.53237
治	-9.53254
前の	-9.533
テレビ	-9.53355
再	-9.53372
金を	-9.53382
100	-9.53422
弁護士	-9.53503
お金	-9.53573
ゼ	-9.53592
コー	-9.53601
ここにいる	-9.53607
すぐに	-9.53614
の仕事	-9.53691
どうして	-9.53771
N	-9.53867
重要な	-9.53875
女の子	-9.53977
▁それでも	-9.53998
キング	-9.54027
判断	-9.54107
ママ	-9.54131
▁バ	-9.54136
落	-9.54188
支援	-9.54208
の方が	-9.54263
のでしょうか	-9.54277
ペ	-9.54278
良く	-9.54355
好きな	-9.54411
▁元	-9.54476
限り	-9.5448
を取り	-9.54482
みて	-9.54542
どこ	-9.54583
▁そうね	-9.54632
なくなる	-9.54669
▁ひどい	-9.54698
兄弟	-9.5471
論	-9.54769
▁お願いします	-9.54778
子さん	-9.54808
選択	-9.54848
虫	-9.54896
教授	-9.54898
根	-9.54898
を殺す	-9.54904
谷	-9.54965
彼が	-9.54966
れた	-9.55032
シャ	-9.55092
父親	-9.55126
ります	-9.55138
人達	-9.55145
ネット	-9.55145
犯人	-9.55198
▁アー	-9.55206
ジン	-9.55242
ッシュ	-9.55259
事故	-9.55279
者が	-9.55283
フェ	-9.55285
▁あたし	-9.55303
っちゃ	-9.55357
命令	-9.55389
耳	-9.55418
めて	-9.55435
遊び	-9.55458
▁全く	-9.55513
▁敵	-9.55573
に来た	-9.55629
者の	-9.55652
▁最後の	-9.55659
橋	-9.5566
ガス	-9.55719
渡	-9.5573
込んだ	-9.55733
分かってる	-9.55767
▁オレ	-9.55819
片	-9.55837
▁一人	-9.55888
をして	-9.55901
物を	-9.5592
があれば	-9.56059
紙	-9.56074
昔	-9.56101
壁	-9.56114
自分	-9.56168
程	-9.56169
母親	-9.56172
O	-9.56213
逃げ	-9.56325
したり	-9.56327
ホ	-9.56331
▁わからない	-9.56428
ますよ	-9.56446
価値	-9.56486
んだぞ	-9.5651
モデル	-9.56512
お前の	-9.56524
んの	-9.56525
▁男	-9.56527
をした	-9.56558
▁俺を	-9.56571
あと	-9.56589
ぇ	-9.56595
警官	-9.56626
▁失礼	-9.56632
ヴィ	-9.56679
士	-9.56787
使って	-9.56888
れない	-9.56889
▁どうか	-9.56893
殿	-9.56943
はまだ	-9.56967
13	-9.57008
はどこ	-9.57058
▁ロ	-9.57165
なんですか	-9.57176
エネルギー	-9.57283
希望	-9.57353
妹	-9.5737
くて	-9.57387
ビデオ	-9.5742
チャンス	-9.57433
▁最も	-9.57462
ダン	-9.57472
するの	-9.57493
▁バー	-9.57498
x	-9.57506
▁そうだな	-9.57507
使い	-9.5753
ませんでした	-9.5754
るべき	-9.57557
取って	-9.57611
▁君を	-9.57655
成功	-9.57798
ルール	-9.57849
合い	-9.57859
個	-9.5786
殺した	-9.57891
▁わたし	-9.57935
期待	-9.57964
方がいい	-9.57976
▁行くぞ	-9.58102
▁本当	-9.5811
▁あんたの	-9.58154
▁最初の	-9.58185
ピー	-9.58201
出せ	-9.58204
ちゃう	-9.58242
▁夢	-9.58297
こい	-9.58331
ざ	-9.5834
ても	-9.58357
僕の	-9.58401
▁絶対に	-9.58428
弟	-9.58438
サン	-9.58528
▁結局	-9.58534
連絡	-9.586
団	-9.58649
訓練	-9.58701
死に	-9.58703
パパ	-9.58788
▁おそらく	-9.5882
精神	-9.58855
全ての	-9.58886
▁真	-9.58942
地球	-9.59026
もらって	-9.59041
実	-9.59046
家の	-9.59083
▁ひ	-9.59102
角	-9.59181
想	-9.59201
鳥	-9.59292
中で	-9.59331
はい	-9.59359
全	-9.59373
たり	-9.59383
▁ー	-9.59422
やら	-9.59435
科学	-9.59566
▁ちょっと待って	-9.5959
▁おはよう	-9.59598
事に	-9.59603
▁なん	-9.59627
過ぎ	-9.5967
へと	-9.59686
側	-9.59687
みろ	-9.59709
あって	-9.59748
▁手を	-9.59749
▁“	-9.5977
用意	-9.59813
ときに	-9.59837
まして	-9.59876
犯	-9.59893
があるの	-9.59894
意識	-9.59894
出来	-9.59921
って言った	-9.59925
何が	-9.59958
強	-9.59962
よな	-9.59991
追跡	-9.60078
▁目	-9.60108
▁毎日	-9.60122
彼女は	-9.60143
▁何だよ	-9.60145
もあります	-9.60168
最も	-9.60197
運動	-9.60244
起	-9.60266
難しい	-9.60293
なので	-9.60318
ことがある	-9.60367
教え	-9.60407
▁地球	-9.60423
▁あまり	-9.60426
行為	-9.60449
▁しかも	-9.60452
▁何故	-9.60452
▁なあ	-9.60456
▁助けて	-9.60519
振り	-9.60533
じゃないですか	-9.60581
言ってる	-9.60584
男が	-9.60596
円	-9.60617
アナ	-9.60655
るな	-9.60699
▁彼女に	-9.60702
▁やっと	-9.60776
人だ	-9.6082
病院	-9.60855
影	-9.60916
ないんだ	-9.61034
カル	-9.61055
べき	-9.61057
0	-9.61073
みたいだ	-9.6118
脳	-9.61187
寝	-9.61221
現実	-9.61257
▁気	-9.61293
私たちは	-9.613
断	-9.61301
期	-9.61324
はどこだ	-9.61333
結婚	-9.6136
僕は	-9.61363
v	-9.61443
ゲ	-9.61476
資金	-9.61566
オレ	-9.6163
▁30	-9.6164
▁ダメ	-9.61726
増	-9.61747
▁行こう	-9.61774
▁了解	-9.61782
万ドル	-9.61785
▁あそこ	-9.61786
たく	-9.61806
犯罪	-9.61896
剣	-9.62011
なくても	-9.62015
するな	-9.6207
っています	-9.62187
▁こ	-9.62263
▁脳	-9.62277
施設	-9.62284
遺伝子	-9.62307
パン	-9.62312
階	-9.62325
平和	-9.62463
作業	-9.62512
ふ	-9.6255
そして	-9.62656
だったんだ	-9.62748
図	-9.62826
パワー	-9.62849
ルー	-9.62879
進化	-9.62889
▁ど	-9.6297
落ち	-9.62971
エン	-9.62995
年前に	-9.63001
のせいで	-9.6302
ボール	-9.63047
界	-9.63082
しないで	-9.63289
最	-9.63322
▁なるほど	-9.63329
▁いま	-9.63377
がありました	-9.63412
プロ	-9.63438
早い	-9.63457
はもう	-9.63474
信用	-9.63478
様に	-9.63508
話して	-9.63525
破	-9.63559
▁クリス	-9.6369
▁こういう	-9.63712
H	-9.6374
だけでなく	-9.63778
わからない	-9.63897
彼女の	-9.63902
いたら	-9.64007
必要がある	-9.64042
せる	-9.641
担当	-9.64104
がいい	-9.64119
▁全	-9.64154
キン	-9.64198
約	-9.64209
我々の	-9.64212
▁どの	-9.64284
▁お前に	-9.64365
▁なんか	-9.64407
会議	-9.64407
くれて	-9.64435
書き	-9.6445
▁今すぐ	-9.64475
▁出	-9.64511
▁クソ	-9.64566
できません	-9.64628
乗り	-9.64677
▁うまく	-9.64732
晩	-9.64756
を見つける	-9.6483
あげる	-9.64941
はしない	-9.65042
到	-9.65048
たかった	-9.65066
▁あー	-9.65096
の一部	-9.65115
全体	-9.65125
ファン	-9.65137
元気	-9.6514
続け	-9.65141
地域	-9.65201
▁山	-9.6524
先に	-9.65281
▁コ	-9.65353
行かない	-9.65367
レイ	-9.65373
▁死んだ	-9.65476
押し	-9.65629
可能	-9.65685
機会	-9.65685
によると	-9.65702
んですけど	-9.65703
の事を	-9.65783
ようと	-9.65784
美しい	-9.65852
思い出	-9.65911
打	-9.65933
来ない	-9.65981
行け	-9.6608
▁行って	-9.66084
▁それじゃ	-9.66101
クラブ	-9.66143
望み	-9.66177
▁俺たち	-9.66225
見え	-9.66437
人と	-9.66488
食べて	-9.66506
ランド	-9.66507
リーダー	-9.66511
スパイ	-9.66615
十分	-9.66716
いるのか	-9.66783
▁そこ	-9.66795
忘れて	-9.66861
気に	-9.66902
配	-9.66925
するか	-9.66942
大きく	-9.67027
証明	-9.6707
バン	-9.67109
▁無	-9.67116
腕	-9.67132
▁小さな	-9.67148
したのは	-9.67209
どうやって	-9.67232
ならば	-9.67318
んだな	-9.67343
やり	-9.67357
されます	-9.67365
返	-9.67367
▁助け	-9.67443
▁母さん	-9.67444
症	-9.67462
結	-9.67479
▁見た	-9.67481
▁何でも	-9.67533
こっち	-9.6757
過去	-9.67578
たちが	-9.6761
すごい	-9.67672
離	-9.67693
▁あの人	-9.67721
師	-9.67831
生きる	-9.67835
疑問	-9.67872
▁親	-9.67874
▁妻	-9.67883
ディー	-9.67892
私たち	-9.67967
▁父親	-9.67996
首	-9.68027
P	-9.68037
言いました	-9.68041
大きい	-9.68108
▁実際に	-9.68142
していない	-9.6816
ことになる	-9.68209
自身	-9.68221
自然	-9.68228
でき	-9.68371
嘘	-9.68392
60	-9.68416
沢山	-9.68441
▁上	-9.68507
教育	-9.68546
毛	-9.68558
るよ	-9.68563
クラス	-9.68599
▁思い	-9.68659
吧	-9.68713
バイ	-9.68785
自分で	-9.68807
相談	-9.68822
殺害	-9.68825
のかな	-9.68888
少年	-9.6889
状	-9.68899
奴ら	-9.68903
職	-9.68999
▁血	-9.69047
I	-9.69056
しようと	-9.69105
田さん	-9.69257
ロック	-9.69294
▁仲間	-9.69366
調べ	-9.69391
キロ	-9.69406
退	-9.6943
んですね	-9.69432
帰り	-9.69484
w	-9.69495
のですが	-9.69517
深い	-9.69536
▁しっかり	-9.69617
▁アン	-9.69716
失敗	-9.69717
危険な	-9.69765
運転	-9.6984
開	-9.69855
入った	-9.69868
チャ	-9.69897
▁それも	-9.69994
19	-9.70093
チャー	-9.70148
ればいい	-9.70161
▁ま	-9.7019
▁後	-9.70195
売	-9.70197
決め	-9.7025
処理	-9.70262
▁アル	-9.7027
ジャ	-9.70318
▁―	-9.7034
R	-9.70344
▁顔	-9.70389
毒	-9.70426
障害	-9.70467
合う	-9.7051
▁少なくとも	-9.70583
カメラ	-9.70622
市	-9.70628
考えた	-9.7063
恐れ	-9.70651
教師	-9.70684
部下	-9.70688
場所に	-9.70707
手段	-9.70708
聞け	-9.70745
マイル	-9.70815
うちに	-9.70816
契約	-9.70823
▁約束	-9.70837
▁ふ	-9.70841
隣	-9.70924
交	-9.71028
要求	-9.71072
食べ	-9.71083
25	-9.7109
記憶	-9.71102
座って	-9.71209
携帯	-9.71231
の問題	-9.71236
▁その時	-9.71335
▁言って	-9.71366
大統領	-9.71392
▁母親	-9.71461
任	-9.71511
▁すべての	-9.71588
髪	-9.71589
帰って	-9.71633
市場	-9.71642
持ってる	-9.71682
にいた	-9.71698
はずです	-9.71716
▁あなたも	-9.71746
任せ	-9.7178
お父さん	-9.71807
我々は	-9.71921
難	-9.71936
を見つけ	-9.71937
連れ	-9.71976
皆さん	-9.72015
▁美	-9.7207
痛	-9.72081
才	-9.72097
デン	-9.72107
歩いて	-9.72112
噂	-9.72131
▁いろいろ	-9.72135
ひとつ	-9.72147
邪魔	-9.72196
▁ジョー	-9.72209
なった	-9.72209
ヶ月	-9.72209
反対	-9.72215
▁いつか	-9.72281
努力	-9.72296
そこに	-9.72365
ピ	-9.72388
ドン	-9.72402
テン	-9.72409
▁どっち	-9.72416
非常に	-9.72417
教えて	-9.72428
▁ヒ	-9.72465
切	-9.72512
そこ	-9.72528
▁だったら	-9.72551
殺す	-9.72646
クラ	-9.72667
決めた	-9.72734
座	-9.72758
▁もしかして	-9.72796
長く	-9.72849
練習	-9.72875
反	-9.72947
科学者	-9.73021
自	-9.73056
知識	-9.73124
める	-9.73229
電	-9.73233
民	-9.73233
ガキ	-9.73249
権	-9.73308
協力	-9.73317
怖い	-9.7337
なくなった	-9.73393
える	-9.73481
と思ってる	-9.73514
第	-9.73549
作り	-9.73549
なければならない	-9.73603
最初の	-9.73607
指示	-9.73625
チェック	-9.73637
が欲しい	-9.73659
あなたに	-9.73666
オン	-9.73694
▁--	-9.73728
受け	-9.73779
▁冗談	-9.7378
決定	-9.7379
楽	-9.73793
手に	-9.73801
クス	-9.73801
君を	-9.73857
監視	-9.7386
待ち	-9.73862
姿	-9.73871
▁僕も	-9.73884
何でも	-9.73927
▁ダメだ	-9.73939
神経	-9.73973
権利	-9.74
が無い	-9.7403
羽	-9.74031
▁今日の	-9.74036
彼に	-9.74073
テロ	-9.74073
医者	-9.74096
らん	-9.74141
つもりだ	-9.742
時間は	-9.74228
してるの	-9.74305
ショー	-9.74428
ほ	-9.74447
てください	-9.74473
を守る	-9.74475
姉	-9.74479
▁これ以上	-9.74491
▁200	-9.74572
▁そんな事	-9.7459
リス	-9.74599
▁19	-9.74614
ロボット	-9.74621
保	-9.74623
さんに	-9.74654
▁頭	-9.74662
▁以前	-9.74708
500	-9.74716
通信	-9.74727
立って	-9.74732
所に	-9.74745
としたら	-9.7475
▁だけど	-9.74752
旅行	-9.74769
▁二	-9.74771
▁ほ	-9.74826
飲んで	-9.74872
触れ	-9.74892
▁私と	-9.74929
兵士	-9.74974
を使う	-9.7498
分の	-9.75031
端	-9.75075
のことは	-9.75181
いれば	-9.75238
部屋に	-9.75251
沢	-9.75397
▁考え	-9.75422
友	-9.75522
▁お前も	-9.75589
影響	-9.75592
りました	-9.75638
他	-9.75646
▁本当の	-9.75667
差	-9.75709
ほとんど	-9.75717
してます	-9.75736
時には	-9.75754
彼女を	-9.75787
ブル	-9.75809
抜け	-9.75817
▁好き	-9.75837
人も	-9.75858
接	-9.75935
変わった	-9.75959
日に	-9.75966
▁ボク	-9.76005
土地	-9.76062
知らせ	-9.7608
アメリカ	-9.76127
休み	-9.7616
圧	-9.76224
▁一つ	-9.76247
ファイル	-9.76255
▁ここの	-9.76274
しまう	-9.76287
生徒	-9.76314
▁下	-9.76317
素	-9.76354
可能性	-9.76392
話は	-9.76446
眼	-9.76493
における	-9.76502
を知ってる	-9.76569
どうぞ	-9.76618
ども	-9.76637
▁日本	-9.76719
▁よろしく	-9.76726
ポイント	-9.76754
のお	-9.76777
でもない	-9.76821
現	-9.76895
条件	-9.76931
だぜ	-9.77003
するわ	-9.77014
▁ほとんど	-9.77029
記事	-9.77105
ファ	-9.77197
原因	-9.77287
▁キミ	-9.77298
アップ	-9.77339
わけじゃない	-9.7736
事実	-9.77365
望	-9.77476
音楽	-9.77495
クソ	-9.77564
もし	-9.77595
まり	-9.77598
ものが	-9.77613
いるんだ	-9.77683
向け	-9.7769
悪かった	-9.77708
本当	-9.7771
わかって	-9.77726
五	-9.77789
たくさん	-9.77829
書いて	-9.7786
惑星	-9.77912
距離	-9.77966
▁時間	-9.77969
現在	-9.78011
が悪い	-9.78043
と共に	-9.78121
医療	-9.7813
▁そろそろ	-9.78256
同様	-9.78265
脱	-9.7827
彼らは	-9.7829
思	-9.78313
センター	-9.78325
ロス	-9.78333
▁話	-9.78349
▁たった	-9.78374
埋め	-9.78384
▁分からない	-9.784
われ	-9.78456
の世界	-9.78473
べきだ	-9.78513
▁問題	-9.7853
▁右	-9.78541
当	-9.78555
▁名前は	-9.78566
▁そうよ	-9.78627
してくれた	-9.78693
南	-9.78774
フィ	-9.78799
なこと	-9.7883
機関	-9.78891
会って	-9.78919
付き	-9.78938
▁あんたが	-9.78966
▁そっち	-9.78997
生まれた	-9.79012
▁大統領	-9.79014
タイプ	-9.79045
▁後で	-9.79051
文化	-9.79087
ペン	-9.7909
▁FBI	-9.79093
分析	-9.79106
あなたを	-9.79112
連中	-9.79199
ウィ	-9.79201
ヌ	-9.79249
▁どこで	-9.79303
▁左	-9.79331
葉	-9.79357
じゃないわ	-9.79366
異	-9.79379
▁死ぬ	-9.7938
られます	-9.79423
▁取り	-9.79467
なよ	-9.79476
殺し	-9.79593
つけて	-9.79625
遠く	-9.79642
探し	-9.7967
道を	-9.79671
tv	-9.79675
製	-9.79679
開始	-9.7972
てきた	-9.79765
上に	-9.79781
も同じ	-9.79816
を持っている	-9.79835
▁犬	-9.7988
殺された	-9.79885
▁白	-9.79905
深	-9.7995
秘密	-9.79968
▁オー	-9.80013
恋	-9.80013
セル	-9.8007
ホー	-9.8007
▁ねぇ	-9.80074
額	-9.80103
の後	-9.80193
▁ハイ	-9.80198
打ち	-9.80211
不安	-9.80215
▁A	-9.80229
運	-9.80329
▁数	-9.8036
以上の	-9.80402
事も	-9.80403
知った	-9.805
宮	-9.80519
先輩	-9.80634
黒	-9.80648
ことができる	-9.8065
食べる	-9.80685
業	-9.80774
▁人間の	-9.80814
▁今朝	-9.80878
なんで	-9.80951
〜	-9.80956
科	-9.8096
信頼	-9.81034
んな	-9.81071
レス	-9.81107
▁準備	-9.81119
▁もういい	-9.81125
玉	-9.8115
▁昨夜	-9.81159
路	-9.81163
証言	-9.81251
買って	-9.81262
サイン	-9.81302
総	-9.81312
試	-9.81337
注目	-9.81383
参加	-9.81404
サービス	-9.81425
▁サラ	-9.81435
おり	-9.81437
の名前は	-9.8148
入って	-9.81494
感じる	-9.81527
飲み	-9.8156
▁100	-9.81566
▁赤	-9.81593
テクノロジー	-9.81601
ハン	-9.81604
ックス	-9.81672
銀行	-9.81722
ニア	-9.81737
感染	-9.81747
▁それでは	-9.81759
K	-9.81772
飲む	-9.81788
始める	-9.81795
を持ち	-9.81814
▁ウ	-9.81842
▁ちょうど	-9.81848
▁おっ	-9.81866
構造	-9.81874
回復	-9.81884
40	-9.81938
▁君たち	-9.81941
言われた	-9.81958
≫	-9.81962
議論	-9.81965
▁ボス	-9.81991
アリ	-9.82018
始めて	-9.82074
▁しばらく	-9.82176
▁あった	-9.8225
言ってた	-9.82257
代わりに	-9.82287
作って	-9.82297
最高	-9.82409
工場	-9.82679
被	-9.82683
G	-9.82694
に来て	-9.82707
天使	-9.8272
▁何とか	-9.82723
カス	-9.82726
参	-9.82736
井	-9.82742
▁大変	-9.82775
起こ	-9.82781
▁逃げ	-9.82793
兄	-9.82795
ップ	-9.8282
おく	-9.82954
いいか	-9.83048
空間	-9.83057
医師	-9.83153
分かります	-9.83185
筋	-9.8323
電話を	-9.83239
送	-9.83243
▁まずは	-9.83245
と思ってた	-9.83335
出来た	-9.83337
感覚	-9.83338
▁シ	-9.83398
北	-9.83423
パーティー	-9.83435
書いた	-9.83466
▁ゆっくり	-9.83487
▁宇宙	-9.83507
殺される	-9.83595
知り合い	-9.83613
背	-9.83615
っちゃった	-9.83645
面白い	-9.83648
▁わかる	-9.8368
生まれ	-9.83722
▁長	-9.83738
ハイ	-9.83751
▁友人	-9.83752
防	-9.83763
逃げた	-9.8378
▁銃	-9.83788
いるか	-9.83854
一日	-9.83858
勉強	-9.83867
▁あらゆる	-9.83869
働き	-9.83883
ための	-9.83898
ミス	-9.83926
▁当然	-9.8393
機械	-9.83936
z	-9.83976
▁このまま	-9.83984
森	-9.84028
っていた	-9.84031
捨て	-9.84039
▁うち	-9.84046
▁やって	-9.84093
▁病院	-9.84112
聞きたい	-9.84178
▁はぁ	-9.84186
ついた	-9.84281
知る	-9.84328
ほうが	-9.8434
ゼロ	-9.84349
▁あいつは	-9.84368
顔を	-9.84505
▁こちらは	-9.84583
まい	-9.84627
送り	-9.84629
夏	-9.84654
しなさい	-9.84673
隊長	-9.84674
動く	-9.84736
健康	-9.84776
でね	-9.84782
かよ	-9.84785
給	-9.84787
文字	-9.8479
▁母	-9.84815
十	-9.84816
長い	-9.84858
ナイフ	-9.84925
すぎ	-9.84978
だと思います	-9.85069
獣	-9.85078
認識	-9.85092
社長	-9.85097
に戻る	-9.85114
▁二人	-9.85159
示	-9.85195
▁行く	-9.85228
嫌	-9.85254
逆	-9.85264
▁持って	-9.85292
袋	-9.85348
案	-9.85415
▁どういうこと	-9.85431
说	-9.85467
警告	-9.85469
ジャー	-9.85509
▁これまで	-9.85674
▁もうすぐ	-9.85678
▁一度	-9.85723
理論	-9.85725
▁マー	-9.85743
▁ですから	-9.85812
メン	-9.85844
真実	-9.85849
を作って	-9.85888
ウイルス	-9.85938
▁次に	-9.85991
▁政府	-9.86001
俺に	-9.86011
▁俺たちは	-9.86054
車を	-9.86092
できて	-9.86156
帰	-9.86198
ライト	-9.86207
メートル	-9.86222
注意	-9.86237
以来	-9.86318
が好き	-9.86321
従	-9.86329
▁まさに	-9.86377
わけです	-9.86405
▁街	-9.8644
フィールド	-9.86503
ないのか	-9.86526
多い	-9.86543
大量	-9.86618
▁落ち着け	-9.8663
200	-9.86656
無かった	-9.86657
値	-9.86663
呼び	-9.86667
ちゃんと	-9.86692
▁いったい	-9.86777
誰が	-9.86803
世界を	-9.86876
▁うわ	-9.86879
わない	-9.8688
関連	-9.86899
待て	-9.86901
狂	-9.86917
消え	-9.86922
の名前	-9.86987
跡	-9.87013
あまり	-9.87043
▁うっ	-9.87053
奪	-9.87057
発表	-9.87076
守	-9.87091
のための	-9.87098
んのか	-9.87146
投資	-9.8715
住	-9.87191
意見	-9.8721
害	-9.87212
限	-9.87226
深く	-9.87247
のでしょう	-9.87341
加	-9.87344
▁わし	-9.87451
差し	-9.87485
立場	-9.87487
男は	-9.87489
売り	-9.87497
▁すまない	-9.8753
のない	-9.87552
▁ここが	-9.87599
明日	-9.87616
猫	-9.87627
だったの	-9.87671
かれ	-9.87673
東	-9.87676
の写真	-9.87687
のもの	-9.87702
14	-9.8772
ネットワーク	-9.87747
探	-9.87748
ことができます	-9.87767
人々が	-9.87774
▁黙って	-9.87802
▁いいから	-9.87832
▁医者	-9.87865
リスク	-9.8788
命を	-9.87881
ホテル	-9.87895
覚え	-9.87914
▁光	-9.87989
しく	-9.88002
っか	-9.8805
▁あるいは	-9.88057
▁アイツ	-9.88088
▁出て	-9.88121
▁写真	-9.88182
待ってる	-9.88219
提案	-9.88228
▁言い	-9.88236
▁ところで	-9.88263
▁15	-9.8828
くせに	-9.88435
戦う	-9.88469
を持ってる	-9.88473
▁グ	-9.88486
表現	-9.88526
頼む	-9.88531
これが	-9.8857
が来る	-9.88609
遠	-9.88609
内容	-9.88626
▁突然	-9.88636
怒り	-9.88645
達は	-9.88649
▁サム	-9.88653
▁足	-9.88659
ジェ	-9.88675
が必要です	-9.88694
の力	-9.88701
牛	-9.88706
ちょうだい	-9.8871
▁頼む	-9.88762
▁いいよ	-9.88844
もなく	-9.88848
▁こんなこと	-9.88855
▁木	-9.88857
▁ごめんね	-9.88869
メッセージ	-9.8887
▁空	-9.88936
ことはない	-9.88965
便	-9.89021
人生を	-9.89096
割	-9.891
してるんだ	-9.89174
願い	-9.89215
方法を	-9.89239
▁ピーター	-9.8928
卵	-9.89293
生きて	-9.89297
方向	-9.89298
最近	-9.89306
▁君と	-9.89321
バス	-9.89323
終わる	-9.89339
したこと	-9.89342
居る	-9.89366
樹	-9.89391
の息子	-9.89459
りゃ	-9.89481
満	-9.89527
時期	-9.89527
に入って	-9.89596
については	-9.89676
のせい	-9.89682
ーっ	-9.89688
自信	-9.89715
聞こえる	-9.89808
造	-9.89833
▁ド	-9.89847
掃除	-9.8988
暮らし	-9.89929
罰	-9.89977
被害者	-9.9004
▁fbi	-9.90125
▁人生	-9.90167
才能	-9.90185
▁くそ	-9.90264
班	-9.90273
▁そういうこと	-9.90286
▁それって	-9.9037
マイ	-9.90373
ないように	-9.90391
▁急いで	-9.90417
香	-9.90426
▁超	-9.90481
の手	-9.90549
ってた	-9.90573
紹介	-9.90616
▁最高	-9.90637
▁ヘ	-9.90648
▁もしもし	-9.90658
とおり	-9.90698
突き	-9.90716
お母さん	-9.90733
撮影	-9.90746
▁こいつは	-9.90749
散	-9.90752
会う	-9.90844
視	-9.9086
密	-9.90908
▁ハー	-9.90926
聖	-9.90927
覚えて	-9.90962
私たちの	-9.91087
早	-9.91101
といった	-9.91114
マシン	-9.91125
ケイ	-9.91133
調	-9.91148
パターン	-9.91183
しゃ	-9.91194
▁殺人	-9.91198
類	-9.91253
ありました	-9.91257
▁ジェーン	-9.91285
▁ジャ	-9.91343
大人	-9.91369
来ました	-9.91418
たのか	-9.91421
言わない	-9.91445
大事	-9.91491
▁あなたと	-9.91513
▁はあ	-9.91515
▁奥さん	-9.91604
▁ホ	-9.91632
U	-9.91661
計算	-9.91664
制御	-9.91679
超	-9.91718
パートナー	-9.91765
映像	-9.91826
倒	-9.91861
したのです	-9.91873
バラ	-9.91895
次の	-9.91899
▁いくら	-9.91974
▁言った	-9.91978
ティー	-9.92
▁より	-9.92087
▁連絡	-9.92104
地図	-9.92107
固	-9.92116
不可能	-9.92161
留	-9.92167
ール	-9.92178
大学	-9.92209
義	-9.92237
未	-9.92288
情	-9.92306
までは	-9.92344
大好き	-9.92391
の家	-9.92403
▁分かる	-9.92407
じゃねえ	-9.92413
の前で	-9.92414
調べて	-9.92453
みた	-9.92459
嬉しい	-9.92569
仲	-9.92569
集団	-9.92575
▁自然	-9.92583
魔法	-9.92598
んでしょう	-9.9261
セット	-9.92613
▁それなら	-9.92625
考えてる	-9.92645
シン	-9.92669
極	-9.92676
画像	-9.92685
悪く	-9.92688
▁今から	-9.92713
わかります	-9.92716
乱	-9.92726
源	-9.92769
体験	-9.92769
いっぱい	-9.92776
けどね	-9.92793
像	-9.92829
ノー	-9.92929
遊	-9.9295
死亡	-9.92984
もらえる	-9.92999
急	-9.93012
▁口	-9.93044
試験	-9.93068
確信	-9.93071
▁黒	-9.93091
数字	-9.93114
恐怖	-9.93136
炎	-9.9317
知って	-9.9319
知ってた	-9.93194
伝え	-9.93197
安心	-9.93202
▁名前	-9.93215
無し	-9.9322
モー	-9.93397
将軍	-9.93449
横	-9.93595
せい	-9.93655
草	-9.93664
異常	-9.93679
医	-9.93751
▁そいつ	-9.93768
上で	-9.93775
▁普通	-9.93778
さんと	-9.938
作る	-9.93864
派	-9.93891
飛行機	-9.93919
生きている	-9.93922
ブリ	-9.93926
の上に	-9.93944
のかしら	-9.93946
▁他	-9.93964
▁完全に	-9.93972
楽しい	-9.94038
終わった	-9.94038
るように	-9.94059
▁落ち着いて	-9.94115
って何	-9.94121
うまく	-9.94132
無視	-9.94179
評価	-9.9419
交換	-9.94191
最大の	-9.94195
とう	-9.94221
魔女	-9.94259
偉大な	-9.94274
手紙	-9.94281
ヘ	-9.94285
国の	-9.94322
没	-9.94336
提供	-9.9434
▁結構	-9.94343
▁すでに	-9.94355
レー	-9.94359
歯	-9.94365
予測	-9.94395
スーツ	-9.9441
近い	-9.94466
大丈夫だ	-9.94475
▁いやいや	-9.94497
刀	-9.94497
と言って	-9.94616
れて	-9.94617
言語	-9.94618
ああ	-9.94631
実際に	-9.94632
▁えぇ	-9.94636
▁女性	-9.94689
の間に	-9.94718
ar	-9.94723
目標	-9.94732
男だ	-9.94774
もので	-9.94785
同僚	-9.94806
お前は	-9.94851
人類	-9.94858
んですが	-9.94869
▁最初に	-9.94901
ーン	-9.9492
試合	-9.94924
▁誰だ	-9.94964
受	-9.9501
▁ゲーム	-9.95138
折	-9.95154
▁死	-9.95156
があるんだ	-9.9517
▁私達の	-9.95172
▁悪	-9.95195
j	-9.95218
▁先	-9.95232
なかったら	-9.95237
消	-9.95253
▁いいわ	-9.95372
バレ	-9.95373
歩	-9.95373
♪	-9.95376
土	-9.95394
▁社会	-9.95406
俺たち	-9.95407
▁聞いた	-9.95418
エンジン	-9.95436
見せ	-9.9545
▁船	-9.95579
言える	-9.95629
▁そのまま	-9.95646
貴方	-9.95665
ドア	-9.95682
サイト	-9.95753
左	-9.95814
卒業	-9.95822
盗	-9.95846
位置	-9.9586
▁ミスター	-9.95886
最後	-9.95895
▁奴ら	-9.95897
事務所	-9.959
物質	-9.95913
だろうな	-9.95949
▁12	-9.96009
たか	-9.9601
すら	-9.96025
無線	-9.96067
空気	-9.961
▁中国	-9.96156
▁I	-9.96164
費	-9.96177
いるのは	-9.96191
▁どうだ	-9.96253
▁そんなの	-9.96284
お金を	-9.96358
ダメだ	-9.96366
危機	-9.96372
▁ここにいる	-9.96379
道具	-9.96381
年代	-9.96401
—	-9.96411
崎	-9.9642
イメージ	-9.96468
指紋	-9.9647
はいない	-9.96504
住所	-9.96514
ヨ	-9.96523
方法は	-9.96557
プレゼント	-9.96589
キャ	-9.96615
勇気	-9.96638
▁はっきり	-9.96653
掛け	-9.96705
▁S	-9.96709
F	-9.96717
列	-9.96719
▁誰にも	-9.96743
ところで	-9.96747
できなかった	-9.96748
80	-9.96795
18	-9.96829
満足	-9.96853
念	-9.96871
▁あいつら	-9.96872
引	-9.96935
越	-9.96943
吉	-9.96993
忙しい	-9.97015
シア	-9.97031
使える	-9.97033
▁犯人は	-9.97034
米	-9.97072
るために	-9.97091
▁俺達は	-9.97117
▁過去	-9.97169
借り	-9.97172
男の子	-9.97204
古	-9.97205
簡単	-9.97261
家で	-9.97264
▁えっと	-9.97285
▁貴様	-9.97287
アパート	-9.97351
▁そうだよ	-9.97359
家庭	-9.97387
味方	-9.97418
場所を	-9.97418
知り	-9.97424
したのか	-9.97458
古い	-9.97489
ゴー	-9.97517
議員	-9.97525
▁この子	-9.97567
速	-9.97623
岩	-9.97627
なかったの	-9.97645
一緒	-9.97709
想像	-9.9773
そんなに	-9.97771
人とも	-9.97841
出来事	-9.97842
人間が	-9.97843
しまって	-9.97843
デート	-9.97884
▁ウソ	-9.97963
▁あっち	-9.97963
ければ	-9.98011
▁プロ	-9.98036
の話を	-9.98216
負け	-9.98217
鳴	-9.9823
読み	-9.98254
出た	-9.98375
名は	-9.98398
頼	-9.98462
▁ヘイ	-9.98473
投げ	-9.98495
ダンス	-9.98512
いるのです	-9.98583
行方不明	-9.98586
行きます	-9.98613
武器	-9.98631
フラ	-9.98652
毎日	-9.98668
停	-9.98683
亡くなった	-9.98695
春	-9.98842
▁—	-9.98858
会社の	-9.98872
▁俺達	-9.98901
歳の	-9.98928
▁情報	-9.98999
▁テレビ	-9.99016
▁決して	-9.9902
基地	-9.99026
▁オレの	-9.99093
望む	-9.99104
忍	-9.99117
末	-9.99204
▁♬	-9.99241
▁事件	-9.99264
くれないか	-9.9927
を失った	-9.99289
▁おう	-9.99308
裏	-9.99383
看	-9.99397
生命	-9.99419
ないから	-9.99422
届け	-9.99483
▁おかしい	-9.99488
はこの	-9.99538
層	-9.99546
公園	-9.99569
混乱	-9.9962
スタ	-9.99634
渡す	-9.9965
残って	-9.99718
なります	-9.99764
ごと	-9.9978
痛み	-9.99794
扱い	-9.9983
信号	-9.99833
合って	-9.99833
ならない	-9.99845
心を	-9.99858
ビジネス	-9.99891
吗	-9.9993
右	-9.99932
おかしい	-9.99945
分かって	-9.9996
冬	-9.99982
ボス	-10.0004
ポー	-10.0013
着いた	-10.0013
銀	-10.0014
赤	-10.0014
ニュー	-10.0015
かなり	-10.0019
に戻って	-10.0021
▁犯人	-10.0024
▁頑張って	-10.0025
恋人	-10.0028
捜索	-10.0031
低	-10.0031
爆発	-10.0034
血液	-10.0034
セックス	-10.0035
ケーキ	-10.0042
▁ニューヨーク	-10.0044
植物	-10.0045
ファイ	-10.0045
▁面白い	-10.0045
だろうが	-10.0047
▁父	-10.0048
いると	-10.0051
▁秘密	-10.0052
の部屋	-10.0059
本当の	-10.0064
/	-10.0064
焼き	-10.0068
にあった	-10.0069
連	-10.0069
迷	-10.007
すべての	-10.007
っていうか	-10.0073
世紀	-10.0077
▁国	-10.0078
みる	-10.008
ける	-10.0081
不明	-10.0083
を与える	-10.0085
してやる	-10.0087
艦	-10.0088
こちら	-10.0094
ワイン	-10.0095
西	-10.0102
居場所	-10.0102
カードを	-10.0103
具合	-10.0109
大変	-10.0116
肩	-10.0119
思って	-10.012
言葉を	-10.0121
を取って	-10.0124
てしまう	-10.0128
那	-10.013
どうする	-10.0133
装	-10.0133
の数	-10.0138
愛する	-10.0143
時の	-10.0144
辺	-10.0145
予想	-10.0146
務	-10.0155
▁花	-10.0162
言えば	-10.0164
安	-10.0166
それで	-10.0174
らず	-10.0174
取る	-10.0175
証	-10.0176
見つかった	-10.0178
▁お前たち	-10.0183
お願いします	-10.0183
だよね	-10.0185
▁社長	-10.0188
の時	-10.0192
▁かわいい	-10.0194
トップ	-10.0195
区	-10.0195
這	-10.0195
呼吸	-10.0196
うん	-10.0198
人口	-10.0202
に入った	-10.0202
▁次	-10.0205
腹	-10.021
ソー	-10.0211
▁タ	-10.0214
老	-10.0218
スタン	-10.0218
J	-10.0218
▁両親	-10.0222
霊	-10.0224
▁パ	-10.0225
X	-10.0229
勝利	-10.023
返す	-10.0236
簡単に	-10.0243
▁いつでも	-10.0245
頭に	-10.0245
▁やめ	-10.0249
ボート	-10.0249
礼	-10.025
停止	-10.0252
▁家に	-10.0253
習	-10.0254
▁さすが	-10.0254
魔	-10.0255
笑い	-10.026
制	-10.0261
▁お互い	-10.0261
おう	-10.0261
▁ここまで	-10.027
ターン	-10.0271
間違い	-10.0271
ひどい	-10.0272
手術	-10.0273
脱出	-10.0274
同意	-10.0279
▁急に	-10.0287
中だ	-10.0292
交渉	-10.0296
誤解	-10.0297
▁M	-10.03
したくない	-10.0303
▁その通り	-10.0303
▁北	-10.0304
になれる	-10.0315
見えた	-10.0316
ント	-10.0323
鉄	-10.0328
▁教えて	-10.033
分け	-10.0334
会話	-10.0335
▁ありがとうございました	-10.0336
選手	-10.0339
設計	-10.034
誰かが	-10.0342
変わって	-10.0342
▁確か	-10.0344
▁あなた達	-10.0344
▁そしたら	-10.0347
--	-10.0347
絶対	-10.0347
様子	-10.0348
四	-10.0353
90	-10.036
ませんか	-10.0363
に見える	-10.0366
たわ	-10.0366
やめて	-10.0366
分かりません	-10.0367
完成	-10.0367
用の	-10.0368
働いて	-10.0371
ねえよ	-10.0371
ワー	-10.0373
ページ	-10.0375
ブー	-10.0376
利益	-10.0378
re	-10.0379
上げ	-10.0381
って事	-10.0383
ちゃって	-10.0384
を受け	-10.0384
▁レッド	-10.0388
▁警官	-10.0388
ニング	-10.039
▁こんなに	-10.039
待つ	-10.0392
いたんだ	-10.0394
あたり	-10.0398
▁変な	-10.0405
思った	-10.0407
までに	-10.0408
·	-10.0408
▁分かって	-10.041
ッカー	-10.0411
もらえ	-10.0413
マイク	-10.0414
逮捕	-10.0414
▁ハァ	-10.0415
選択肢	-10.042
仕	-10.0422
▁痛い	-10.0422
▁現実	-10.0429
市民	-10.0429
ライン	-10.0435
際	-10.0444
部隊	-10.0454
を引き	-10.0455
の顔	-10.0456
自己	-10.046
する事	-10.0463
保険	-10.0465
俺を	-10.0467
▁カー	-10.0469
人間の	-10.0472
百	-10.0483
体の	-10.0484
程度	-10.0485
▁考えて	-10.0485
はとても	-10.0493
−	-10.0496
になりたい	-10.0497
に関して	-10.0497
▁どちら	-10.0503
ピン	-10.051
▁ベ	-10.051
呢	-10.0511
近くに	-10.0515
大切	-10.0517
トー	-10.0517
モノ	-10.0523
親友	-10.0526
副	-10.0528
宿	-10.0532
▁理解	-10.0533
進め	-10.0534
雨	-10.0535
ないぞ	-10.0541
どこに	-10.0542
▁ヤ	-10.0543
解放	-10.0544
なんだから	-10.0552
格	-10.0557
は私	-10.0559
▁チャ	-10.0559
滅	-10.0562
出身	-10.0564
▁静かに	-10.0569
ファー	-10.057
になると	-10.0571
▁どうせ	-10.0574
▁彼と	-10.0575
関心	-10.0575
名前を	-10.0576
かけた	-10.0577
でいい	-10.0578
に入る	-10.0579
対応	-10.058
支配	-10.058
▁モ	-10.0581
▁ロー	-10.0586
▁怖い	-10.0588
場所で	-10.0588
離れて	-10.0591
戻った	-10.0592
異なる	-10.0593
完全に	-10.0595
▁見つけた	-10.06
負	-10.0605
▁娘	-10.0609
▁妹	-10.0609
実現	-10.0611
に向かって	-10.0611
規模	-10.0617
▁弁護士	-10.0618
オフィス	-10.0618
▁赤ちゃん	-10.0619
▁誰に	-10.0619
るから	-10.0619
▁君も	-10.0621
苦労	-10.0626
入る	-10.0628
複雑	-10.0629
▁戦争	-10.0633
赤ちゃん	-10.0633
を通して	-10.0634
▁ダ	-10.0634
▁これも	-10.0636
場所は	-10.0641
院	-10.0641
いいのか	-10.0643
に来る	-10.0644
可	-10.0647
っけ	-10.0648
強盗	-10.0649
▁信じられない	-10.0649
体を	-10.0656
▁キャ	-10.0658
レストラン	-10.066
▁我が	-10.0667
大切な	-10.0674
▁先輩	-10.0681
だけが	-10.0681
共	-10.0684
関	-10.0684
コール	-10.0688
一人で	-10.069
之	-10.0692
▁問題は	-10.0697
戻	-10.0704
唯一の	-10.0711
言ってくれ	-10.0711
族	-10.0713
を探す	-10.0719
ったり	-10.0721
させない	-10.0721
おい	-10.0721
ラボ	-10.0723
ひとり	-10.0726
最高の	-10.0729
広	-10.0729
▁ナルト	-10.0731
校	-10.0734
課	-10.0736
一般	-10.0736
賞	-10.0737
温	-10.0739
世代	-10.074
这	-10.074
▁お前を	-10.0744
時間が	-10.0746
一杯	-10.0748
▁好きな	-10.0754
▁さっさと	-10.0756
▁分かりました	-10.0757
日間	-10.076
コントロール	-10.0765
ッキー	-10.0765
得意	-10.0768
シャー	-10.0768
っちゃう	-10.077
万人	-10.0771
切る	-10.0774
まず	-10.0775
庭	-10.0777
見てる	-10.0781
ありませんでした	-10.0782
でもある	-10.0782
外で	-10.0783
▁マイク	-10.0785
創	-10.0788
同士	-10.079
オー	-10.0792
事態	-10.0793
▁世界の	-10.0795
▁コーヒー	-10.08
禁止	-10.0801
返して	-10.0803
時計	-10.0804
複雑な	-10.0808
▁どこか	-10.0809
した時	-10.081
▁女の子	-10.0814
▁ジェ	-10.0814
にならない	-10.0818
▁映画	-10.082
下に	-10.0824
持つ	-10.0824
やり方	-10.0826
主張	-10.0826
んじゃないか	-10.0831
剤	-10.0836
するのです	-10.0837
食料	-10.0837
世界で	-10.084
▁サン	-10.0844
▁そこまで	-10.0844
管	-10.0847
算	-10.0847
松	-10.0847
▁ジョ	-10.0848
▁部屋	-10.085
▁常に	-10.0854
両親	-10.0858
ないし	-10.0859
ハー	-10.0866
ドー	-10.0868
賢い	-10.0869
限界	-10.0872
我々	-10.088
印	-10.0883
が来た	-10.0884
避け	-10.0884
だからな	-10.0885
▁彼らに	-10.0886
一度	-10.0887
▁弟	-10.089
乗	-10.089
私たちが	-10.0891
ヴァ	-10.0894
僕が	-10.0896
DNA	-10.0896
▁携帯	-10.0897
実行	-10.0901
じゃなく	-10.0902
プラ	-10.0904
専門	-10.0905
ミン	-10.0906
戻って	-10.0907
方は	-10.0909
事情	-10.091
ケン	-10.0914
消えた	-10.0923
あげて	-10.0925
事です	-10.0927
▁そこから	-10.0928
課題	-10.0931
▁ちょ	-10.0933
酷い	-10.0935
フォー	-10.0938
のですか	-10.094
書類	-10.0941
置いて	-10.0944
のことです	-10.0949
ジャック	-10.0952
▁向こう	-10.0952
やめ	-10.0953
▁愛してる	-10.0954
▁嫌	-10.0954
格好	-10.0956
バック	-10.096
▁マジ	-10.0961
ときは	-10.0965
税	-10.0965
者に	-10.0969
伝えて	-10.0969
収	-10.097
なくなって	-10.0973
字	-10.0973
犠牲者	-10.0974
▁来た	-10.0975
ロイ	-10.0979
大事な	-10.0983
じゃねえか	-10.0989
けれど	-10.0991
終	-10.0999
▁兄	-10.0999
発生	-10.1
伝える	-10.1002
を探し	-10.1003
無く	-10.1006
近く	-10.1008
奥さん	-10.1008
▁メ	-10.101
▁たくさん	-10.1015
バッグ	-10.1019
スキー	-10.1031
いいわ	-10.1036
核	-10.1037
奴隷	-10.1038
内部	-10.1045
んですよね	-10.1048
普通	-10.1054
ませ	-10.106
▁説明	-10.1062
臭い	-10.1063
どおり	-10.1064
ウィン	-10.1066
仕事は	-10.107
えて	-10.107
守る	-10.1073
るのよ	-10.1074
やすい	-10.1078
護	-10.1082
技	-10.1084
たのは	-10.1085
にした	-10.1087
働く	-10.1089
付いて	-10.1091
ていました	-10.1092
▁18	-10.1097
▁色々	-10.1099
▁なかなか	-10.1099
することで	-10.11
っつ	-10.11
変わる	-10.1104
▁火	-10.1106
▁レイ	-10.1108
矢	-10.1111
デュエル	-10.1112
自由に	-10.1113
宗教	-10.1123
を受けた	-10.1126
ゲイ	-10.1128
車に	-10.113
言うな	-10.1131
の為	-10.1133
チップ	-10.1138
▁命	-10.1139
降	-10.1141
▁今回は	-10.1142
撃	-10.1146
豚	-10.1147
グル	-10.1153
いいよ	-10.1155
じゃないの	-10.1155
身体	-10.1156
▁悟空	-10.1156
怪我	-10.116
優しい	-10.116
必要があります	-10.1162
▁いいぞ	-10.1166
手伝って	-10.1168
ボー	-10.1169
彼女が	-10.1171
の男	-10.1173
若い	-10.1174
▁クロ	-10.1177
居た	-10.1184
『	-10.1186
▁ソ	-10.119
ブルー	-10.1191
チェ	-10.1191
介	-10.1193
だろうか	-10.1195
馬鹿	-10.1207
▁何て	-10.1213
外に	-10.1217
知らなかった	-10.1218
きっと	-10.122
忘れた	-10.1221
かかって	-10.1225
将来	-10.123
省	-10.1232
ラス	-10.1236
▁引き	-10.1237
読んで	-10.124
見えて	-10.124
我々が	-10.1241
やりたい	-10.1242
いつ	-10.1243
他に	-10.1245
だったから	-10.1245
わけない	-10.1248
無事	-10.1251
彼女に	-10.1253
▁入って	-10.1257
コンピュータ	-10.1259
脅	-10.126
最終	-10.1261
思います	-10.1264
の上	-10.1268
事件の	-10.1268
皮	-10.1269
遅い	-10.1269
戦闘	-10.127
▁食べ	-10.127
巨大な	-10.1276
誘拐	-10.1282
トリ	-10.1284
にとっては	-10.1285
存在する	-10.1285
全てを	-10.1287
脚	-10.1288
目が	-10.1289
死体	-10.1291
飯	-10.1294
奇跡	-10.1295
御	-10.1296
を得る	-10.13
分で	-10.1301
呼んで	-10.1302
になったら	-10.1305
聴	-10.1309
当て	-10.1311
▁本当は	-10.1314
を取る	-10.1316
ワイ	-10.132
後ろに	-10.1322
向こう	-10.1323
然	-10.1326
姿を	-10.1328
てくれる	-10.1328
眠	-10.133
するのか	-10.133
ごく	-10.1333
化学	-10.1343
▁うーん	-10.1345
▁ドア	-10.1346
▁なんと	-10.1352
メディア	-10.1353
納得	-10.1354
帯	-10.1354
七	-10.1356
発明	-10.136
しかった	-10.1361
アイ	-10.1368
瀬	-10.1369
非	-10.137
彼らの	-10.137
流れ	-10.1371
学校に	-10.1371
づけ	-10.1372
▁思った	-10.1386
問題は	-10.1387
クロ	-10.1387
▁勝手に	-10.1387
救	-10.1388
も無い	-10.1389
知りたい	-10.1389
追	-10.1391
対象	-10.1394
を探して	-10.1399
裁判	-10.1402
芸術	-10.1408
くなる	-10.1408
年前の	-10.1409
病院に	-10.141
づ	-10.1411
はどうだ	-10.1411
パイ	-10.1413
▁明らかに	-10.1415
▁セ	-10.1418
er	-10.1418
勝つ	-10.1423
自分が	-10.1424
デス	-10.1426
署	-10.1429
▁ハハハ	-10.143
衛星	-10.1445
簡単な	-10.1445
製品	-10.1452
若者	-10.1453
▁危険	-10.1453
買った	-10.1455
▁こうして	-10.1457
クリ	-10.1457
一部	-10.1457
するよ	-10.1463
あんな	-10.1465
生産	-10.1465
▁やはり	-10.147
スー	-10.1471
園	-10.1475
高く	-10.1475
氷	-10.1475
▁証拠	-10.1477
ぉ	-10.1477
▁かつて	-10.1478
達が	-10.1479
アメリカ人	-10.148
▁気が	-10.1481
什么	-10.1481
勝ち	-10.1482
ァ	-10.1488
dna	-10.149
巻き	-10.149
共に	-10.1492
いで	-10.1495
でしょうね	-10.1496
賭け	-10.1498
思え	-10.1498
工	-10.1499
▁銃を	-10.15
ほうがいい	-10.1501
?》	-10.1501
チュー	-10.1502
力が	-10.1503
挑戦	-10.1507
▁ルー	-10.1513
▁たとえ	-10.1514
▁様々な	-10.1514
絶	-10.1517
▁你	-10.152
残る	-10.1525
の前に	-10.1527
パス	-10.1527
なんだけど	-10.1527
お前が	-10.153
あいつ	-10.1534
▁西	-10.1538
興味	-10.1539
にしろ	-10.1542
勝負	-10.1544
奈	-10.1544
砂	-10.1545
話せ	-10.155
とは違う	-10.1551
▁そっか	-10.1555
▁早	-10.1555
▁私達が	-10.1556
買い	-10.1556
駅	-10.1557
演奏	-10.1557
幸運	-10.1558
なきゃいけない	-10.1559
小さい	-10.1559
られました	-10.1561
たくて	-10.1561
▁そうです	-10.1567
乳	-10.157
グラ	-10.157
家を	-10.157
姫	-10.1573
をしている	-10.1576
突	-10.1584
縁	-10.1584
必要はない	-10.1585
世界の	-10.1585
わずか	-10.1587
集中	-10.1588
迫	-10.1589
坂	-10.1593
わかりません	-10.1594
以前	-10.1595
還	-10.1595
気づいた	-10.1596
浮	-10.1596
変更	-10.1597
素敵	-10.1599
方を	-10.1602
子ども	-10.1602
▁ベン	-10.1603
女王	-10.1603
が見える	-10.1604
至	-10.1604
大勢	-10.1607
戸	-10.1607
個人	-10.1614
脅威	-10.1621
結婚式	-10.1622
▁急	-10.1623
軽	-10.1624
さない	-10.1631
▁ビル	-10.1631
キャンプ	-10.1636
どうした	-10.1639
金持ち	-10.1639
▁D	-10.1641
触	-10.1643
係	-10.1644
女性が	-10.1646
思ってた	-10.1649
一体	-10.165
の命	-10.1651
▁やぁ	-10.1652
ベン	-10.1652
フリー	-10.1652
起こった	-10.1653
だけの	-10.1654
弱い	-10.1654
が死んだ	-10.1657
いたい	-10.1658
ステ	-10.1658
欠	-10.1663
積	-10.1667
▁それより	-10.1668
部の	-10.1669
ボン	-10.1674
▁俺には	-10.1675
少	-10.1682
の夜	-10.1683
鍵	-10.1683
常	-10.1684
くない	-10.1688
乗って	-10.1688
の件	-10.1689
主義	-10.1689
▁きみ	-10.1691
へん	-10.1694
みな	-10.1696
起きた	-10.1697
復讐	-10.1698
勝	-10.1699
▁どうしよう	-10.17
全く	-10.1705
何をした	-10.171
考え方	-10.1713
知っています	-10.1714
養	-10.1718
完了	-10.172
医学	-10.172
者だ	-10.1722
▁急げ	-10.1728
認め	-10.1736
▁テメエ	-10.1736
▁ノー	-10.1741
ころ	-10.1744
容	-10.1746
闘	-10.1747
たま	-10.1754
佐	-10.1759
志	-10.176
を作った	-10.1761
チョ	-10.1762
実際	-10.1764
公開	-10.1765
▁子供たち	-10.1767
約束した	-10.1771
問	-10.1771
週	-10.1771
▁千	-10.1771
テープ	-10.1773
せて	-10.1773
ええ	-10.1775
革命	-10.1776
▁一人で	-10.1779
▁やっぱ	-10.1781
ばっかり	-10.1781
子供たち	-10.1783
続き	-10.1784
頼んだ	-10.1793
可能な	-10.1794
込め	-10.1798
▁寝	-10.1798
食事	-10.18
データを	-10.1802
まる	-10.1803
警部	-10.1804
隠し	-10.1804
ユー	-10.1804
当たり	-10.1806
番組	-10.1807
上手	-10.1807
セン	-10.1808
んだって	-10.181
を持った	-10.1812
たんです	-10.1813
歩き	-10.1814
死んで	-10.1814
トロ	-10.1816
上がって	-10.1816
起こる	-10.1816
▁他にも	-10.1817
笑顔	-10.1818
帰れ	-10.1818
到着	-10.182
最後に	-10.1821
▁先に	-10.1822
んだよね	-10.1822
痛い	-10.1823
を見ろ	-10.1824
を与え	-10.1827
方法で	-10.1829
▁必要	-10.1829
助	-10.183
イル	-10.183
替え	-10.1831
▁森	-10.1832
言うと	-10.1833
犯罪者	-10.1835
▁東	-10.184
▁普通の	-10.184
爆弾	-10.1841
なしで	-10.1842
半分	-10.1844
▁人類	-10.1845
▁時々	-10.1851
▁あなたには	-10.1851
俺達	-10.1851
必ず	-10.1852
▁事故	-10.1857
奥	-10.1858
のまま	-10.1859
そう思う	-10.186
手が	-10.186
必要ない	-10.1862
▁ほんと	-10.1868
取った	-10.187
▁僕に	-10.1872
ゴミ	-10.1874
少ない	-10.1879
は何だ	-10.1881
もちろん	-10.1884
動か	-10.1884
飛行	-10.1888
ナン	-10.1891
セント	-10.1895
接触	-10.1896
▁思って	-10.1896
進んで	-10.1897
いけ	-10.19
デー	-10.19
バル	-10.1902
ユ	-10.1904
ばいい	-10.1904
▁アイ	-10.1906
のおかげで	-10.1913
ってのは	-10.1913
▁科学	-10.1916
▁マイケル	-10.1917
残念	-10.1922
かれた	-10.1924
▁あとは	-10.1925
▁警察に	-10.1925
▁ついに	-10.1926
の研究	-10.1926
めた	-10.1929
過ぎる	-10.1931
祭	-10.1934
トル	-10.1938
の仲間	-10.1938
笑って	-10.1942
不思議	-10.1945
ヨーロッパ	-10.1945
領域	-10.1945
知っていた	-10.1949
を変える	-10.195
記	-10.1951
検	-10.1952
戻ってくる	-10.1952
ようになった	-10.1956
楽しみ	-10.1956
依頼	-10.1956
ウン	-10.1957
だらけ	-10.196
天才	-10.1962
▁最高の	-10.1969
かかった	-10.197
16	-10.1973
出発	-10.1973
17	-10.1976
は何も	-10.1977
最初に	-10.1981
させてくれ	-10.1982
▁どこにいる	-10.1984
▁二度と	-10.1986
おる	-10.1986
▁ここには	-10.1988
違います	-10.1989
▁病気	-10.199
が要る	-10.1993
国民	-10.1995
見つかる	-10.1999
ッツ	-10.2003
そういう	-10.2003
寝る	-10.2008
操作	-10.2012
後で	-10.2017
グリーン	-10.2018
ようだな	-10.2024
中央	-10.2025
教えてくれ	-10.2026
前から	-10.2026
ッチ	-10.2031
観察	-10.2033
▁親父	-10.2035
雪	-10.2037
兵器	-10.204
を変え	-10.2041
▁いいや	-10.2042
別れ	-10.2047
at	-10.2048
上げて	-10.2051
を知っている	-10.2051
▁あなた方	-10.2055
▁今度	-10.2055
遊んで	-10.2063
70	-10.2068
起き	-10.2069
奴だ	-10.2072
始めました	-10.2073
▁50	-10.2073
いたの	-10.2078
テーブル	-10.2078
特別	-10.2078
怪物	-10.2082
お見せ	-10.2085
シャツ	-10.2087
だけよ	-10.2088
出会った	-10.2089
蔵	-10.2091
撃ち	-10.2092
使え	-10.2093
▁父は	-10.2095
になってる	-10.2095
▁実	-10.2097
▁カメラ	-10.2103
彼ら	-10.2103
精	-10.2107
▁殺す	-10.2114
▁フランク	-10.2118
ご飯	-10.2118
雲	-10.2118
マーク	-10.2119
要素	-10.212
しょう	-10.2122
の友人	-10.2124
▁おいおい	-10.2128
払う	-10.2129
を作り	-10.213
▁ぼく	-10.213
児	-10.2131
九	-10.2132
わよね	-10.2134
次第	-10.2136
ぶっ	-10.2137
▁安全	-10.2137
デル	-10.2138
エイ	-10.2145
▁本物の	-10.2146
イー	-10.2155
▁自分を	-10.2156
怒って	-10.2157
否定	-10.2159
持っている	-10.2162
上がり	-10.2163
手に入れた	-10.2164
じゃありません	-10.2166
貴	-10.2169
▁B	-10.2172
抵抗	-10.2172
人気	-10.2174
食べた	-10.2177
ただの	-10.2178
料	-10.2179
写真を	-10.2181
▁C	-10.2182
のことだ	-10.2183
のようだ	-10.2184
▁言う	-10.219
靴	-10.2191
ができる	-10.2195
立つ	-10.2199
▁良かった	-10.2202
▁ガ	-10.2207
けて	-10.2207
世話	-10.2216
▁今夜は	-10.2216
▁正	-10.2218
会える	-10.2221
変わり	-10.2221
者を	-10.2223
ベイ	-10.2227
ナイト	-10.2228
しなければ	-10.2229
ロウ	-10.2232
以外	-10.2233
世界に	-10.2234
▁ウォルター	-10.2235
帰った	-10.2235
▁ク	-10.2237
避難	-10.2239
終了	-10.2242
デイ	-10.2242
居ない	-10.2243
刻	-10.2244
現れ	-10.2245
▁思う	-10.2247
送って	-10.2248
減	-10.2249
▁せっかく	-10.2253
ようになりました	-10.2254
本部	-10.2258
▁くっ	-10.226
ろよ	-10.2261
抜き	-10.2261
ネズミ	-10.2267
規則	-10.2267
選挙	-10.2267
に乗って	-10.2268
▁後ろ	-10.2269
心臓	-10.2271
を止め	-10.2272
▁自殺	-10.2273
▁主	-10.2277
▁おいしい	-10.2278
寝て	-10.2286
▁奴	-10.2287
分子	-10.2287
当たり前	-10.2292
を使い	-10.2295
軍隊	-10.2297
▁黙れ	-10.2298
ホール	-10.2299
陽	-10.2307
選	-10.2312
床	-10.2315
段階	-10.2317
▁今後	-10.2318
問題を	-10.2322
水を	-10.2322
心の	-10.2323
隠	-10.2325
▁幸せ	-10.2325
そうと	-10.2325
違った	-10.2326
私も	-10.2326
▁君には	-10.2326
のうち	-10.233
の一つ	-10.2335
英雄	-10.2335
したか	-10.2336
悪くない	-10.2336
▁捜査	-10.2342
走	-10.2346
▁はっ	-10.2347
監督	-10.2349
厳しい	-10.235
言わないで	-10.2351
しているのです	-10.2352
使った	-10.2352
止める	-10.2353
▁いいね	-10.2353
済み	-10.2355
調子	-10.236
残り	-10.236
▁俺と	-10.2361
いても	-10.2361
いらない	-10.2361
せよ	-10.2362
狼	-10.2363
ライアン	-10.2363
加え	-10.2364
たちの	-10.2366
容疑者	-10.2373
茶	-10.2373
背中	-10.2374
の事は	-10.2375
詰め	-10.238
▁更に	-10.238
口を	-10.2381
▁聞いてくれ	-10.2381
▁コイツ	-10.2386
クター	-10.2389
悪魔	-10.2391
態度	-10.2392
ヒト	-10.2392
しまいます	-10.2393
とでも	-10.2396
生きてる	-10.2397
いかない	-10.2401
の中の	-10.2402
▁やってみ	-10.2403
望んで	-10.2403
鏡	-10.2403
富	-10.2404
手がかり	-10.2404
消えて	-10.2404
▁そうじゃない	-10.2405
▁新たな	-10.2406
があると	-10.2407
子供を	-10.2408
射	-10.2409
▁天	-10.241
▁そこの	-10.2411
細	-10.2412
共同	-10.2412
▁どれだけ	-10.2418
張	-10.2419
45	-10.2422
▁何度も	-10.2423
説得	-10.2427
▁奴らは	-10.2429
▁刑事	-10.243
挙げ	-10.243
▁邪魔	-10.243
であれば	-10.243
ルート	-10.2431
为	-10.2431
荒	-10.2432
V	-10.2435
薬を	-10.2437
は私の	-10.2439
▁貴方	-10.2443
寺	-10.2445
▁南	-10.2446
計	-10.2447
苦	-10.2448
▁無事	-10.2453
▁風	-10.2457
▁この人	-10.2458
有名な	-10.2459
癌	-10.2459
▁攻撃	-10.246
決断	-10.246
▁大丈夫です	-10.246
▁未来	-10.2461
を使った	-10.2462
直接	-10.2468
相手に	-10.2469
▁ユ	-10.2473
▁無駄	-10.2473
見たい	-10.2473
修理	-10.2474
▁若い	-10.2476
キュ	-10.2476
ブロック	-10.2478
出血	-10.2481
のせいだ	-10.2483
招待	-10.2487
喜び	-10.2488
に違いない	-10.2493
▁うるさい	-10.2496
していて	-10.2499
興味深い	-10.2499
連邦	-10.2501
回り	-10.2502
ゾ	-10.2505
▁どうしても	-10.2505
案内	-10.2506
黙って	-10.251
▁そうですか	-10.251
になれ	-10.2513
違反	-10.2515
▁大丈夫よ	-10.2515
時間だ	-10.2516
▁良く	-10.252
タイム	-10.2522
趣味	-10.2529
活	-10.2531
だったわ	-10.2531
年後	-10.2534
良	-10.2538
▁生きて	-10.2541
▁マジで	-10.2542
人形	-10.2542
ごめん	-10.2543
思考	-10.2543
汚	-10.2549
悲しい	-10.2553
本物	-10.2555
赤ん坊	-10.2557
ヒーロー	-10.2558
道路	-10.256
まれ	-10.2562
安定	-10.2564
てしまった	-10.2565
メキシコ	-10.2571
詳細	-10.2571
探偵	-10.2571
事業	-10.2574
体が	-10.2575
▁オレたち	-10.2575
内に	-10.2577
を行う	-10.258
燃料	-10.2585
▁ペ	-10.259
なければなりません	-10.259
ウェイ	-10.259
▁どこだ	-10.2592
雇	-10.2596
▁再	-10.2597
代表	-10.26
ろうと	-10.2601
わかってる	-10.2602
段	-10.2603
球	-10.2603
ジョ	-10.2604
撃つ	-10.2608
ステージ	-10.2613
子が	-10.2613
トラック	-10.2614
自殺	-10.2614
はその	-10.2615
▁どうしたんだ	-10.2621
まし	-10.2623
話が	-10.2624
▁腹	-10.2625
嵐	-10.2627
ここへ	-10.2627
に会った	-10.2627
階段	-10.2628
進歩	-10.2628
王子	-10.2629
メッセージを	-10.2632
▁なんとか	-10.2634
の声	-10.2635
楽しんで	-10.2635
▁どうやら	-10.2637
分野	-10.2639
という事	-10.2639
▁ありがと	-10.2639
いら	-10.2642
▁春	-10.2646
▁医療	-10.2647
除	-10.2649
向き	-10.2652
インド	-10.2655
很	-10.2655
特別な	-10.2655
▁悪魔	-10.2657
▁ミス	-10.2657
▁自	-10.2658
離れ	-10.2661
上司	-10.2662
は今	-10.2664
余	-10.2665
▁最初は	-10.2669
これから	-10.267
▁自由	-10.2671
指輪	-10.2671
事がある	-10.2673
ダイ	-10.2676
著	-10.2677
▁太陽	-10.2682
相当	-10.2685
男の	-10.2689
優	-10.2689
▁ジム	-10.2691
払って	-10.2693
▁王	-10.2703
のみ	-10.2706
目の	-10.2707
アクセス	-10.2711
建設	-10.2715
去った	-10.2716
今まで	-10.2717
▁簡単に	-10.272
と呼ばれる	-10.272
画	-10.2721
マル	-10.2724
出てくる	-10.2726
▁東京	-10.2728
▁やり	-10.2728
偽	-10.2729
続く	-10.273
▁d	-10.2733
▁オレが	-10.2736
堂	-10.2738
慣れ	-10.2738
すごく	-10.2743
サル	-10.2744
標的	-10.2746
数学	-10.2751
は誰	-10.2752
謎	-10.2755
ご存知	-10.2755
足を	-10.2758
が多い	-10.2763
部長	-10.2765
日本	-10.2767
久	-10.2769
涙	-10.2769
援助	-10.2769
と思いました	-10.2773
暴力	-10.2774
▁マル	-10.2775
勢	-10.2776
忘れる	-10.278
様な	-10.2783
最初	-10.2783
空港	-10.2786
困難	-10.2792
ジャン	-10.2794
やがった	-10.2796
成果	-10.2802
▁レベル	-10.2803
るのに	-10.2804
されていた	-10.2805
つかない	-10.2806
歩く	-10.2809
スターク	-10.2812
手で	-10.2813
▁ありません	-10.2813
来たの	-10.282
なもの	-10.2821
聞きました	-10.2824
動機	-10.2824
通りに	-10.2825
来てる	-10.2828
下がって	-10.2831
返事	-10.2833
操	-10.2835
しながら	-10.2835
▁なっ	-10.2836
と私は	-10.284
▁古い	-10.2845
再生	-10.2846
つける	-10.2847
ペット	-10.2848
じゃないよ	-10.2849
伝	-10.2855
▁チーム	-10.2857
▁ほんとに	-10.2858
▁あの男	-10.2859
理想	-10.2859
▁座って	-10.2862
いてくれ	-10.2862
人々に	-10.2865
▁必要な	-10.2865
ヴ	-10.2871
分からん	-10.2871
▁正直	-10.2872
食い	-10.2873
を連れて	-10.2875
輪	-10.2876
取れ	-10.2877
維持	-10.2881
▁今年	-10.2882
不足	-10.2884
特徴	-10.2885
▁おはようございます	-10.2885
トラブル	-10.2886
してきました	-10.2886
何かを	-10.289
吹	-10.2891
▁こりゃ	-10.2892
じゃあ	-10.2897
っこ	-10.29
やるよ	-10.2902
バイト	-10.2905
it	-10.2906
覚えてる	-10.2911
迷惑	-10.2911
と一緒	-10.2914
匹	-10.2915
言われて	-10.2916
物は	-10.2918
泣き	-10.2923
信じ	-10.2927
デジタル	-10.2928
▁個人	-10.2929
サイ	-10.2934
しなきゃ	-10.2936
人々を	-10.2937
ところに	-10.2937
スピード	-10.2938
▁そうすれば	-10.2939
or	-10.2939
針	-10.294
飛んで	-10.2942
走り	-10.2943
となり	-10.2947
▁当時	-10.2947
暇	-10.2948
になるの	-10.2948
行くよ	-10.2948
行かないと	-10.295
焼	-10.2954
途中	-10.2956
自身の	-10.2956
行きたい	-10.2957
行動を	-10.2957
上昇	-10.296
in	-10.2961
見事	-10.2963
ウッド	-10.2969
林	-10.297
を助ける	-10.297
放送	-10.2975
んだね	-10.298
▁本気	-10.2981
するつもり	-10.2981
なのは	-10.2985
パーティ	-10.2993
の人生	-10.2994
ケース	-10.2994
しまいました	-10.2995
考えている	-10.2995
ドレス	-10.3001
糸	-10.3001
▁意味	-10.3003
られている	-10.3007
けん	-10.3007
照	-10.3008
いきます	-10.301
映	-10.3011
気を	-10.3014
窓	-10.3015
▁音楽	-10.3016
自分を	-10.3017
00	-10.3017
商品	-10.3017
▁約	-10.3018
ものに	-10.3018
言えない	-10.3019
女子	-10.3022
▁ついて	-10.3023
の日	-10.3025
遠い	-10.3031
あらゆる	-10.3033
進む	-10.3036
鬼	-10.3043
我慢	-10.3046
毎	-10.3047
盛	-10.3047
ドラ	-10.3048
混	-10.3053
が違う	-10.3054
知らん	-10.3057
ホーム	-10.306
ナイ	-10.306
▁真実	-10.3062
胸	-10.3063
▁こら	-10.3064
試み	-10.3072
▁手術	-10.3074
肺	-10.3075
学者	-10.3078
▁死体	-10.308
快	-10.3081
▁薬	-10.3082
1000	-10.3083
らしく	-10.3083
相手は	-10.3086
▁那	-10.3086
したかった	-10.3088
お話	-10.3089
風呂	-10.309
送る	-10.309
戦士	-10.3093
るのです	-10.3095
止	-10.3095
どのように	-10.3096
たちに	-10.3096
対処	-10.3102
することは	-10.3104
殺せ	-10.3105
持	-10.3107
したわ	-10.3107
▁恐らく	-10.3111
第一	-10.3113
▁申し訳ありません	-10.3114
ルド	-10.3118
机	-10.3119
現場	-10.3123
▁ひとつ	-10.3126
隠して	-10.3129
育て	-10.313
警備	-10.3132
つま	-10.3132
症状	-10.3133
助けて	-10.3133
on	-10.3134
ウォーカー	-10.3134
お話し	-10.3135
誕生日	-10.3135
▁ちょっ	-10.3136
▁何なの	-10.3138
そんなこと	-10.3139
の下	-10.314
短	-10.3142
言うこと	-10.3144
▁誰もが	-10.3147
決	-10.3151
凄い	-10.3152
宝	-10.3159
合わせ	-10.3161
中国	-10.3163
似	-10.3163
コーヒー	-10.3164
せない	-10.3165
片付け	-10.3166
地上	-10.3175
を受けて	-10.3177
倉	-10.3178
24	-10.318
欲しかった	-10.318
以上に	-10.3186
油	-10.319
具	-10.3192
豆	-10.3193
らせて	-10.3193
▁フ	-10.3196
拡大	-10.3196
速度	-10.3199
▁お姉ちゃん	-10.32
産業	-10.3201
▁何だって	-10.3202
言わなかった	-10.3202
▁会社	-10.3203
勝った	-10.3208
死んでる	-10.3209
研究所	-10.321
人質	-10.3211
そうだな	-10.3221
話したい	-10.3222
検事	-10.3223
泥棒	-10.3223
現象	-10.3224
直す	-10.3227
青	-10.3227
属	-10.3228
拍手	-10.323
を見つけて	-10.3232
もありません	-10.3232
▁鍵	-10.3232
注文	-10.3234
▁裏	-10.3236
改善	-10.3238
くなった	-10.3241
学習	-10.3243
行ける	-10.3243
▁ハン	-10.3252
女性は	-10.3256
撃て	-10.3256
状況を	-10.3257
落ちて	-10.3258
清	-10.3259
行か	-10.3259
▁気に	-10.3259
▁T	-10.3261
▁覚えてる	-10.3264
説明する	-10.3265
向いて	-10.3266
何で	-10.3268
僕に	-10.3272
青い	-10.3275
初め	-10.3277
登	-10.3281
気になる	-10.3283
高校	-10.3283
バンド	-10.3284
だよな	-10.3286
▁そうそう	-10.3288
金庫	-10.3289
寄せ	-10.3294
ということは	-10.3296
たん	-10.3301
周	-10.3301
咲	-10.3308
何をしている	-10.3312
▁残り	-10.3313
倉庫	-10.3314
▁いずれ	-10.3315
ra	-10.3319
たいの	-10.332
二つ	-10.3323
▁インド	-10.3323
タル	-10.3326
社員	-10.3327
これで	-10.3336
善	-10.3337
レット	-10.3338
不要	-10.3338
▁楽しい	-10.3339
らなかった	-10.3339
イス	-10.3343
どうなった	-10.3345
しているの	-10.3346
ラム	-10.3348
戻ってきた	-10.335
並	-10.335
体に	-10.3351
言わ	-10.3355
板	-10.3358
來	-10.3359
▁知って	-10.336
損	-10.3361
のほう	-10.3363
降り	-10.3364
と言いました	-10.3369
▁気をつけて	-10.3369
だけじゃない	-10.3374
シェ	-10.3375
落ちた	-10.3376
逃げる	-10.3378
終え	-10.3382
墓	-10.3384
知りません	-10.3384
雑	-10.3389
罠	-10.3389
年齢	-10.3392
電気	-10.3394
年も	-10.3396
▁子ども	-10.3397
支	-10.3397
▁首	-10.34
あるの	-10.341
アレ	-10.3412
カイ	-10.3412
コピー	-10.3417
▁青	-10.3418
▁フィンチ	-10.3419
資料	-10.342
するのに	-10.3421
is	-10.3422
▁ヨ	-10.3423
ダウン	-10.3424
だめ	-10.3425
▁大人	-10.3427
あきらめ	-10.3431
冗談	-10.3431
期間	-10.3435
声を	-10.3437
あるか	-10.344
しちゃった	-10.3443
はいつも	-10.3444
室に	-10.3446
テロリスト	-10.3452
踏み	-10.3456
切って	-10.3456
お前を	-10.3459
奴は	-10.3459
舞	-10.346
▁帰って	-10.3463
パソコン	-10.3466
投票	-10.3466
ニス	-10.3468
▁失礼します	-10.3469
来てくれ	-10.3471
信じてる	-10.3473
覚えてない	-10.3478
でさえ	-10.348
離れた	-10.348
たから	-10.3481
▁そうだね	-10.3482
黒い	-10.3484
楽しかった	-10.3484
最悪の	-10.3484
車で	-10.3484
▁大学	-10.3484
犠牲	-10.3486
入れて	-10.349
正確に	-10.3491
太陽	-10.3493
保安官	-10.3497
やれる	-10.3497
▁有	-10.3497
▁オリバー	-10.3499
既に	-10.3504
写	-10.3506
▁うわっ	-10.3509
一致	-10.351
国家	-10.3511
へ行く	-10.3512
▁信じて	-10.3514
を確認	-10.3514
無理だ	-10.3519
▁世界中の	-10.352
責め	-10.3521
▁ちょっと待て	-10.3521
移	-10.3522
できれば	-10.3525
初	-10.3527
孤独	-10.3528
違法	-10.3528
る事	-10.3529
おまえ	-10.353
▁いきなり	-10.3531
▁コン	-10.3531
崩壊	-10.3531
次元	-10.3533
アフリカ	-10.354
連れて行く	-10.3541
たくなかった	-10.3541
まった	-10.3542
▁そういえば	-10.3543
分かんない	-10.3543
パーセント	-10.3544
かす	-10.3544
政治	-10.3545
▁フッ	-10.3546
闇	-10.355
▁誰でも	-10.355
殺して	-10.3557
何年も	-10.3562
▁ボ	-10.3563
の父親	-10.3563
説	-10.3564
中止	-10.3566
ちょ	-10.3568
っていうの	-10.357
ローズ	-10.3573
に行こう	-10.3573
幽霊	-10.3574
銀河	-10.3574
戦略	-10.3575
願	-10.3577
話題	-10.3582
明らか	-10.3582
id	-10.3585
サイズ	-10.3586
策	-10.3587
▁もう一つ	-10.3594
まって	-10.3596
信じる	-10.36
法律	-10.3602
学んだ	-10.3605
隠れ	-10.3605
喧嘩	-10.3605
後ろ	-10.3611
て下さい	-10.3612
絶対に	-10.3619
首を	-10.3619
償	-10.3619
クイーン	-10.3621
供給	-10.3621
の下に	-10.3623
▁わかりました	-10.3626
して欲しい	-10.3626
んじゃねえ	-10.3627
頼んで	-10.3627
▁事実	-10.3628
学ぶ	-10.3631
▁長い	-10.3633
招	-10.3635
みると	-10.3636
ナンバー	-10.3638
▁今回の	-10.3639
▁米国	-10.3639
▁断	-10.3641
お友達	-10.3644
驚き	-10.3647
であった	-10.3648
ぃ	-10.3652
▁横	-10.3657
将	-10.366
しさ	-10.3665
奇妙な	-10.3666
人々は	-10.3668
発展	-10.3668
スク	-10.3669
▁生	-10.367
駄目	-10.3672
▁ここを	-10.3676
▁わざわざ	-10.3677
マシ	-10.3681
長い間	-10.3683
義務	-10.3684
全然	-10.3685
創造	-10.3685
話だ	-10.3689
▁ひと	-10.3691
付けて	-10.3693
▁熱	-10.3693
記者	-10.3693
レッド	-10.3696
菜	-10.3697
つぶ	-10.3699
ハート	-10.37
▁想像	-10.3703
するように	-10.3705
休	-10.3706
洗	-10.371
扉	-10.3713
っす	-10.3714
▁ようこそ	-10.3716
現れる	-10.3716
するため	-10.3716
▁データ	-10.3719
言っている	-10.372
~!!	-10.3723
覚	-10.3724
ご覧	-10.3733
一歩	-10.3736
置き	-10.3737
して下さい	-10.3741
単純	-10.3742
できるか	-10.3743
級	-10.3743
猿	-10.3746
▁変	-10.3746
盗んだ	-10.3747
我ら	-10.3749
からさ	-10.3755
メル	-10.3756
主人	-10.3757
昼	-10.3757
電子	-10.3758
ところです	-10.3759
さあ	-10.3761
▁確認	-10.3762
感謝する	-10.3763
▁大事な	-10.3764
サム	-10.3766
すればいい	-10.3768
するには	-10.3768
証人	-10.3768
興奮	-10.3771
突然	-10.3774
▁神様	-10.3775
仕事に	-10.3777
を求めて	-10.3777
▁例の	-10.3778
衣	-10.378
巻	-10.3781
以下	-10.3781
話がある	-10.3786
▁とりあえず	-10.3794
スポーツ	-10.3794
燃え	-10.3796
ドロ	-10.3798
というもの	-10.38
傷つけ	-10.3801
狙い	-10.3801
微	-10.3801
▁記憶	-10.3802
がありません	-10.3804
を受ける	-10.3804
んじゃないの	-10.3807
▁胸	-10.3807
もんだ	-10.3814
の結果	-10.3816
なくていい	-10.3816
▁ダン	-10.3816
どうかな	-10.382
イヤ	-10.3821
▁トム	-10.3824
自転車	-10.3825
▁君達	-10.3826
問題が	-10.3828
走って	-10.3829
ではないか	-10.383
▁動物	-10.383
思い出した	-10.3836
メス	-10.3836
汚い	-10.3843
コート	-10.3844
の場合	-10.3845
だからです	-10.3845
か月	-10.3847
荷物	-10.3847
面倒	-10.3848
建て	-10.3849
教える	-10.3849
やす	-10.3852
悪いこと	-10.3853
マスク	-10.3855
挨拶	-10.3859
お待ち	-10.3866
かん	-10.3866
間違って	-10.3867
▁遺体	-10.3868
業者	-10.3868
寒い	-10.387
遺体	-10.3872
登場	-10.3875
話してくれ	-10.3877
ずつ	-10.3877
▁平気	-10.3878
続いて	-10.3879
たのに	-10.3879
ですけど	-10.388
見られる	-10.3882
▁奴の	-10.3883
▁誰かに	-10.3883
激	-10.3885
速く	-10.3886
糞	-10.3889
▁あれが	-10.389
となった	-10.3892
コンピューター	-10.3893
どうなってる	-10.3897
ますね	-10.3899
ポン	-10.39
無実	-10.39
違って	-10.3901
▁b	-10.3902
あれば	-10.3903
てくれた	-10.3903
煙	-10.3904
歓迎	-10.3905
であること	-10.3907
困る	-10.3911
経営	-10.3916
種類の	-10.3917
だけは	-10.3918
るような	-10.3919
応援	-10.3921
賛成	-10.3921
サンプル	-10.3922
六	-10.3925
▁それまで	-10.3927
▁現場	-10.3927
殺され	-10.3929
ギャ	-10.3929
終わりだ	-10.3932
▁信じ	-10.3932
▁こっちだ	-10.3934
	-10.3937
教会	-10.3941
▁電気	-10.3947
▁武器	-10.3947
詩	-10.3948
アス	-10.3948
暴	-10.3949
そうよ	-10.3949
性を	-10.395
るんです	-10.3953
ビア	-10.3953
昨日	-10.3954
▁ここでは	-10.3954
▁子供達	-10.3956
分かっている	-10.3956
▁どういうことだ	-10.3956
トゥ	-10.3959
を知る	-10.3961
浮気	-10.3962
▁いいな	-10.3962
▁インターネット	-10.3963
目は	-10.3964
の準備	-10.3966
生活を	-10.3967
地獄	-10.3968
福	-10.3969
は全て	-10.3969
範囲	-10.3969
トレ	-10.397
決まり	-10.397
石油	-10.3971
せん	-10.3976
▁やだ	-10.3977
危険だ	-10.3979
どこかに	-10.3981
▁うまい	-10.3985
通って	-10.3986
ダム	-10.3993
▁あの時	-10.3993
切った	-10.3994
刑務所	-10.3996
去る	-10.3996
うち	-10.3996
人工	-10.3998
育	-10.3999
郎	-10.4001
気づいて	-10.4002
戻り	-10.4007
暗	-10.4009
嫌だ	-10.401
ザン	-10.401
みます	-10.4012
先生は	-10.4015
の娘	-10.4018
▁人々は	-10.4018
子供達	-10.4019
結論	-10.402
上手く	-10.4023
の大	-10.4025
なさいよ	-10.4028
▁来る	-10.4028
▁アフリカ	-10.4029
かける	-10.4031
団体	-10.4032
▁おめでとう	-10.4033
雑誌	-10.4035
名誉	-10.4035
▁みなさん	-10.4035
帽子	-10.4036
権力	-10.4036
覚えている	-10.4036
プール	-10.4038
に参加	-10.4039
▁殺した	-10.4043
列車	-10.4043
怒	-10.4044
▁何があった	-10.4046
ラジオ	-10.4047
言ってない	-10.4048
5%	-10.4048
犯行	-10.4052
al	-10.4055
社会的	-10.4057
変える	-10.4058
▁ブラック	-10.4058
らせ	-10.406
始まり	-10.4061
▁質問	-10.4062
平均	-10.4063
过	-10.4066
近づいて	-10.4067
詳しく	-10.4067
ショック	-10.4069
以外の	-10.407
継	-10.4073
▁だめ	-10.4075
を殺して	-10.4076
研究室	-10.4077
物だ	-10.4077
▁R	-10.4077
▁そうなの	-10.4077
引っ	-10.4082
菌	-10.4083
▁重	-10.4084
自宅	-10.4085
十分な	-10.4086
診断	-10.4088
欲しいの	-10.4088
を頼む	-10.4088
中です	-10.4088
ないけど	-10.4089
逃	-10.409
▁部長	-10.409
だったのか	-10.4091
▁土	-10.4093
こいつ	-10.4094
を救う	-10.4097
んや	-10.4098
珍しい	-10.41
▁それじゃあ	-10.41
製造	-10.41
言い方	-10.4103
▁たくさんの	-10.4104
愛してる	-10.4109
くれない	-10.4109
ヘル	-10.4111
▁彼女と	-10.4111
てない	-10.4114
恥	-10.4114
支持	-10.4116
野球	-10.4117
ないでしょう	-10.4119
秋	-10.4119
欲	-10.412
▁はいはい	-10.4121
私達	-10.4129
▁シャ	-10.4133
▁研究	-10.4134
21	-10.4136
ゲート	-10.4138
教室	-10.4139
そのもの	-10.4142
▁こっちは	-10.4143
▁恋	-10.4145
のかい	-10.4145
おります	-10.4146
辛い	-10.4147
材	-10.4148
▁将来	-10.4155
フォード	-10.4155
▁男性	-10.4155
▁来て	-10.4155
▁去年	-10.4156
岡	-10.4159
日々	-10.416
察	-10.416
っぽい	-10.416
商	-10.4162
ことになります	-10.4165
建築	-10.417
当然	-10.4174
のようなもの	-10.4174
先生が	-10.4175
▁どこへ	-10.4176
le	-10.4179
オープン	-10.4181
してたの	-10.4182
すぎて	-10.4186
の言葉	-10.4187
▁刑務所	-10.4188
聞こえた	-10.4194
フル	-10.4196
入院	-10.42
▁お茶	-10.4202
不是	-10.4203
の死	-10.4205
可愛い	-10.4207
▁答え	-10.4207
についての	-10.4209
条	-10.4212
置	-10.4213
の情報	-10.4213
鼻	-10.4213
じゃないんだ	-10.4217
▁ジョージ	-10.4217
組み	-10.4217
の名	-10.4219
られなかった	-10.4221
不幸	-10.4222
イエス	-10.4223
▁メール	-10.4223
亡	-10.4229
失礼	-10.4233
資源	-10.4235
ストレス	-10.4235
終わって	-10.4235
どけ	-10.424
▁直接	-10.424
お店	-10.4242
電話して	-10.4243
アウト	-10.4246
電話する	-10.4247
いろ	-10.4248
都合	-10.425
気の毒	-10.4252
▁貴方は	-10.4253
上げる	-10.4256
今夜	-10.4257
やってくれ	-10.4259
立派な	-10.426
回って	-10.426
持ってきた	-10.4262
許	-10.4262
織	-10.4264
つながり	-10.4265
週末	-10.4266
合わせて	-10.4266
っち	-10.4267
外に出	-10.4267
カット	-10.4268
銃を	-10.4269
▁おれ	-10.427
と呼ぶ	-10.4278
岸	-10.4278
甘い	-10.4278
▁OK	-10.4279
江	-10.4281
第二	-10.4281
対策	-10.4282
って言う	-10.4283
すでに	-10.4286
▁本気で	-10.4287
救い	-10.4288
所で	-10.4289
物が	-10.429
歴史	-10.4292
館	-10.4294
健	-10.4296
的で	-10.4297
夫婦	-10.4298
緊張	-10.43
▁十分	-10.4301
注	-10.4303
聞いてくれ	-10.4303
▁心臓	-10.4303
中心	-10.4304
▁僕を	-10.4304
呼ぶ	-10.4308
目撃	-10.4314
▁何処	-10.4319
るもの	-10.4324
特定の	-10.4325
▁これって	-10.4327
じゃ無い	-10.4328
撃たれた	-10.433
返せ	-10.4331
基本	-10.4333
ンズ	-10.4336
社の	-10.4337
があるから	-10.4337
▁町	-10.434
様の	-10.434
調べた	-10.4341
▁どのように	-10.4342
なんですよ	-10.4343
頭を	-10.4344
間違ってる	-10.4345
やっている	-10.4346
疑	-10.4346
群	-10.4352
はいけない	-10.4353
夢を	-10.4361
ものでした	-10.4363
握	-10.4364
棒	-10.4364
衝突	-10.4365
頼み	-10.4366
▁へえ	-10.4366
発射	-10.4367
強さ	-10.4367
底	-10.4373
暮らして	-10.4375
ことがあります	-10.4378
重い	-10.4379
▁いろんな	-10.438
イカ	-10.4384
▁'	-10.4387
だっけ	-10.4389
変わらない	-10.4391
そば	-10.4395
言いたい	-10.4397
▁彼らを	-10.4397
ありますか	-10.4397
販売	-10.4398
を感じる	-10.4399
告白	-10.4399
ッカ	-10.4399
ますが	-10.44
だからね	-10.4406
性の	-10.4407
プラン	-10.4407
共有	-10.4411
手助け	-10.4412
▁腕	-10.4412
無駄	-10.4414
=	-10.4415
ッグ	-10.4415
飛ぶ	-10.4416
ひどく	-10.4416
の一人	-10.4416
ウソ	-10.4418
音を	-10.4418
できました	-10.4419
我们	-10.442
縛	-10.4421
▁皆が	-10.4423
様々な	-10.4423
コミュニティ	-10.4423
の意味	-10.4424
つけた	-10.4425
になっている	-10.4427
800	-10.4428
ないわよ	-10.4428
▁こうした	-10.4429
ガラス	-10.4429
ましょうか	-10.4431
デュ	-10.4431
承知	-10.4432
▁こんなの	-10.4433
ポケット	-10.4433
変な	-10.4433
を見ると	-10.4434
ケー	-10.4434
▁この男	-10.4436
もいる	-10.4437
▁難しい	-10.4438
思い出す	-10.4439
すべてを	-10.444
大会	-10.4442
▁そいつは	-10.4442
の友達	-10.4446
するまで	-10.4449
正しかった	-10.4451
代わり	-10.4451
ふう	-10.4452
▁イヤ	-10.4463
▁僕らは	-10.4464
小屋	-10.4465
いませんでした	-10.4465
まとめ	-10.4466
身を	-10.4475
に会いに	-10.4476
たのです	-10.4477
▁そのうち	-10.4478
接続	-10.4484
単純な	-10.4487
▁健康	-10.449
▁既に	-10.4491
得る	-10.4493
京	-10.4495
▁どっか	-10.4497
のではなく	-10.4498
を失う	-10.4498
役に立つ	-10.45
ましょ	-10.45
言われ	-10.4501
現金	-10.4502
あげた	-10.4509
ヴィン	-10.4509
▁すっ	-10.4509
らす	-10.451
優秀な	-10.451
それに	-10.4512
華	-10.4517
保証	-10.4517
▁ロボット	-10.4519
▁一体何	-10.4521
場合は	-10.4521
ポンド	-10.4522
▁だれ	-10.4523
親父	-10.4524
やめろ	-10.4524
起こり	-10.4525
夫人	-10.4528
▁見せて	-10.453
羊	-10.4534
予約	-10.4534
オンライン	-10.4535
増加	-10.4535
新聞	-10.4537
▁ううん	-10.454
恥ずかしい	-10.4543
だったんです	-10.4544
マックス	-10.455
恩	-10.4551
尊敬	-10.4551
過ぎた	-10.4556
遅く	-10.4556
校長	-10.4559
に会う	-10.4559
そうだった	-10.456
を置いて	-10.4561
周り	-10.4562
質問を	-10.4563
隠れて	-10.4566
と思うけど	-10.4568
▁正義	-10.4572
殺人事件	-10.4573
もらい	-10.458
驚く	-10.4581
▁希望	-10.4584
伺	-10.4585
借金	-10.4586
▁こっちに	-10.4587
▁上手く	-10.4588
付	-10.4589
釣り	-10.459
劇	-10.4592
▁こんな事	-10.4593
▁話して	-10.4593
感じた	-10.4595
どうも	-10.4598
必要だ	-10.4598
仕事だ	-10.4598
気を付け	-10.4599
縮	-10.4601
るだけ	-10.4602
▁大丈夫ですか	-10.4602
易	-10.4602
▁私はあなた	-10.4602
いたします	-10.4603
ターゲット	-10.4603
▁持ち	-10.4603
好きだ	-10.4604
ちゃんは	-10.4606
ゲー	-10.4607
es	-10.4611
▁毒	-10.4613
▁これら	-10.4613
したいの	-10.4614
演	-10.4615
君と	-10.4615
▁見ろ	-10.4616
弁	-10.4619
奴が	-10.4619
報告書	-10.4621
舞台	-10.4621
フォ	-10.4621
の方は	-10.4622
意図	-10.4622
▁わたしは	-10.4624
▁この野郎	-10.4624
諸君	-10.4626
が一番	-10.4628
比較	-10.4628
▁なのに	-10.4629
おけ	-10.4632
もらいたい	-10.4633
塔	-10.4637
▁あなたたち	-10.4638
▁トイレ	-10.464
内で	-10.4642
張り	-10.4644
残念だ	-10.4644
侵入	-10.4644
学校で	-10.4645
は違う	-10.4646
とともに	-10.4647
▁ほんの	-10.4652
河	-10.4652
リオ	-10.4653
文句	-10.4654
検索	-10.4654
通報	-10.4656
自分たち	-10.4659
ちまった	-10.4659
院長	-10.4663
▁公	-10.4665
の様子	-10.4666
月に	-10.4667
▁ウィル	-10.4668
▁地獄	-10.4671
した事	-10.4671
▁すまん	-10.4672
酸素	-10.4672
慎重	-10.4672
シュー	-10.4673
ダメよ	-10.4676
ホッ	-10.4682
潰	-10.4682
所有	-10.4682
渡した	-10.4682
最終的に	-10.4684
娘が	-10.4685
消費	-10.4688
ナル	-10.4688
&	-10.4689
陣	-10.4689
勘違い	-10.469
やらない	-10.469
何をしてる	-10.4692
▁美しい	-10.4693
▁とっても	-10.4694
▁被害者	-10.4698
に入れ	-10.47
不能	-10.4701
誇り	-10.4702
▁みんなで	-10.4703
必要な	-10.4705
指揮	-10.4705
▁ロンドン	-10.4705
仕組み	-10.4709
▁どうでもいい	-10.4709
▁そもそも	-10.4711
心に	-10.4713
るんですか	-10.4713
決める	-10.4713
出会い	-10.4715
頑張って	-10.4717
▁パン	-10.4718
▁彼には	-10.4722
認める	-10.4722
戻れ	-10.4723
行きましょう	-10.4724
場に	-10.4726
覆	-10.4727
▁えー	-10.4731
トリック	-10.4733
時から	-10.4736
▁帰る	-10.4737
柄	-10.4737
▁立ち	-10.4738
でしたが	-10.4738
関係ない	-10.4739
推測	-10.4741
知らず	-10.4742
誰だ	-10.4742
▁バカな	-10.4742
内の	-10.4743
▁ヘンリー	-10.4744
彼らが	-10.4745
適	-10.4746
▁猫	-10.4751
▁第一	-10.4752
ヴァー	-10.4754
地方	-10.4757
ヨン	-10.4758
るため	-10.4758
拒否	-10.4759
いいかな	-10.4759
ことはできない	-10.476
今は	-10.4761
おいて	-10.4763
唯一	-10.4767
の音	-10.4767
したとき	-10.4769
時間がない	-10.477
が必要なの	-10.477
コスト	-10.4772
匂い	-10.4773
かもしれん	-10.4775
民主主義	-10.4776
詳しい	-10.4776
▁壁	-10.4776
強制	-10.4779
▁ええと	-10.4779
▁マーク	-10.478
すり	-10.4782
生き物	-10.4787
思ってる	-10.4787
わからん	-10.479
話そう	-10.479
▁意識	-10.479
沈	-10.479
ノート	-10.4793
ワクチン	-10.4794
▁ピ	-10.4794
みましょう	-10.4795
構わない	-10.4797
▁チャーリー	-10.4798
静	-10.4798
このような	-10.4799
払い	-10.4799
襲	-10.4799
いけない	-10.4804
支え	-10.4805
ほどの	-10.4806
シル	-10.4809
食べ物	-10.4809
地区	-10.481
着陸	-10.4813
生まれて	-10.4814
になっています	-10.4817
▁今では	-10.4819
ドライブ	-10.4819
つもりはない	-10.4821
のことで	-10.4822
▁危ない	-10.4822
ープ	-10.4823
いける	-10.4827
壊	-10.4828
塩	-10.4828
だなんて	-10.4829
感謝します	-10.4831
がいた	-10.4832
さんも	-10.4835
親切	-10.4836
バイオ	-10.4842
ハル	-10.4843
チーズ	-10.4844
人間は	-10.4845
束	-10.4845
専門家	-10.4847
薄	-10.485
言うの	-10.4851
確かめ	-10.4852
チン	-10.4861
人々の	-10.4861
偶然	-10.4862
行くの	-10.4862
ベッド	-10.4865
綺麗	-10.4865
みよう	-10.4865
側に	-10.4865
と思っている	-10.4867
泣いて	-10.4867
完璧	-10.4869
恐	-10.4873
喜	-10.4873
an	-10.4874
▁このように	-10.4875
▁失敗	-10.4877
着く	-10.4881
▁そうだった	-10.4882
餌	-10.4882
としては	-10.4882
たった	-10.4885
さらに	-10.4887
麻	-10.4891
オペ	-10.4893
好み	-10.4897
凍	-10.4898
政策	-10.4899
ようとした	-10.4901
いいけど	-10.4904
墓地	-10.4906
▁この世界	-10.4907
聞いてる	-10.4912
だったか	-10.4912
伊	-10.4917
疑い	-10.4917
配置	-10.492
何とか	-10.492
寄	-10.4921
▁つい	-10.4923
司	-10.4924
したんです	-10.4925
子は	-10.4926
やってた	-10.4926
スタート	-10.4927
人です	-10.4928
ないでくれ	-10.4929
カリ	-10.493
競争	-10.4935
システムを	-10.4936
優れた	-10.4936
テーマ	-10.4938
しなければならない	-10.4941
修	-10.4941
杯	-10.4941
計画を	-10.4943
労働	-10.4944
▁酒	-10.4944
ヘリ	-10.4946
▁何かあった	-10.4948
嫁	-10.4948
スは	-10.4949
灯	-10.4953
かわいそう	-10.4953
▁むしろ	-10.4955
▁その人	-10.4955
問題に	-10.4958
▁生徒	-10.496
▁驚いた	-10.4961
どうだ	-10.4961
再び	-10.4962
ニック	-10.4962
ブレ	-10.4966
捨てた	-10.4967
呼んだ	-10.4968
ぅ	-10.4968
いいのよ	-10.4969
であると	-10.497
腰	-10.497
▁もしかしたら	-10.4971
を得た	-10.4971
済む	-10.4972
▁E	-10.4973
▁お兄ちゃん	-10.4978
待っている	-10.4979
恋愛	-10.4982
それら	-10.4983
脳の	-10.4983
恐ろしい	-10.4983
▁完璧	-10.4984
リード	-10.4985
只	-10.4986
飲んだ	-10.4988
故郷	-10.4988
の仕業	-10.4988
おばさん	-10.4991
なくちゃ	-10.4992
理由を	-10.4992
ニャ	-10.4993
罪を	-10.4993
ちょうど	-10.4998
あっ	-10.5004
行かなきゃ	-10.5004
湖	-10.5006
普段	-10.5006
概念	-10.5006
一瞬	-10.5006
貸し	-10.5011
グレー	-10.5015
場で	-10.5016
口に	-10.5017
▁銀行	-10.502
裁	-10.502
▁重要な	-10.5021
納	-10.5021
トーク	-10.5023
過ごす	-10.5024
爆破	-10.5025
大佐	-10.5025
ーズ	-10.5027
正直	-10.5027
仕方ない	-10.5029
行くぞ	-10.5034
待	-10.5036
メンバー	-10.5037
▁運	-10.5037
▁孫	-10.5039
▁最低	-10.5039
フリ	-10.5039
登録	-10.5042
遅刻	-10.5042
▁ただいま	-10.5045
ついてる	-10.5048
▁僕たち	-10.5048
話してる	-10.5049
形で	-10.5049
▁夕食	-10.5051
正義	-10.5052
殺人犯	-10.5053
伏せ	-10.5059
▁それ以上	-10.5059
安全な	-10.506
▁自分自身	-10.5061
▁駄目	-10.5063
▁これだけ	-10.5065
▁初	-10.5066
▁夏	-10.5066
▁ロシア	-10.5066
りません	-10.5067
午前	-10.5069
住民	-10.507
▁緊急	-10.5071
貸	-10.5073
▁四	-10.5073
▁この前	-10.5075
完璧な	-10.5078
乗り越え	-10.5078
プロセス	-10.5079
sa	-10.5079
▁キム	-10.5084
部品	-10.5085
▁イン	-10.5086
子どもたち	-10.5086
▁再び	-10.5091
▁バン	-10.5091
と同じように	-10.5091
かもな	-10.5092
比	-10.5095
カリフォルニア	-10.5096
べきだった	-10.5099
が出る	-10.5099
▁正しい	-10.5107
暗い	-10.511
鹿	-10.5113
情報は	-10.5114
肌	-10.5114
消える	-10.5115
合った	-10.5116
▁ダニー	-10.512
思わない	-10.5121
見ている	-10.5121
的には	-10.5121
▁飛行機	-10.5121
ボタン	-10.5121
集め	-10.5122
父上	-10.5122
ではなかった	-10.5123
金属	-10.5123
▁待ってくれ	-10.5125
▁そのために	-10.5126
見せて	-10.5127
なりました	-10.5127
称	-10.5127
▁クリスマス	-10.513
るまで	-10.5135
制度	-10.5137
楽しく	-10.514
因	-10.514
診	-10.5142
ジョー	-10.5142
てやる	-10.5145
酸	-10.5146
調べる	-10.5151
中毒	-10.5152
▁一方	-10.5153
になれば	-10.5156
▁久しぶり	-10.5157
理由が	-10.5162
買い物	-10.5164
▁頑張れ	-10.5166
戦って	-10.5167
関与	-10.5169
ルーム	-10.517
陰	-10.5171
代理	-10.5173
ロード	-10.5174
覚悟	-10.5179
置く	-10.5179
夕食	-10.5179
たいんだ	-10.5181
集まって	-10.5183
好きだった	-10.5183
ライフ	-10.5184
▁ビデオ	-10.5186
始末	-10.5187
視覚	-10.5187
▁そこは	-10.5188
政治家	-10.5191
をつけ	-10.5191
投	-10.5192
頭の	-10.5194
▁何の話	-10.5196
ギー	-10.5197
ホント	-10.5198
房	-10.5198
に出	-10.52
マネ	-10.5201
明らかに	-10.5202
特に	-10.5203
会い	-10.5204
退屈	-10.5205
インタビュー	-10.5205
▁平	-10.5207
ホン	-10.5211
働いてる	-10.5212
不正	-10.5215
▁昔の	-10.5216
向かい	-10.5217
ケツ	-10.5218
お前に	-10.522
体は	-10.522
ることは	-10.5223
裸	-10.5223
▁残念ながら	-10.5224
騒ぎ	-10.5228
身元	-10.5229
目撃者	-10.5232
小さく	-10.5234
られてる	-10.5236
たのよ	-10.524
気に入った	-10.5241
そこで	-10.5241
ようになる	-10.5241
▁毎年	-10.5242
教えた	-10.5243
定義	-10.5243
▁奴が	-10.5243
尽く	-10.5245
ちゃんが	-10.5247
だったのです	-10.5248
ェ	-10.5251
二つの	-10.5253
だったな	-10.5254
甘	-10.5254
何が起きた	-10.5255
どこにいる	-10.5257
私たちに	-10.5259
巨人	-10.526
従業員	-10.526
間違った	-10.5263
会長	-10.5264
色々	-10.5265
札	-10.5265
▁チェ	-10.5266
億ドル	-10.5268
は死んだ	-10.5268
英国	-10.5269
キミ	-10.527
裂	-10.527
冷	-10.527
つもりだった	-10.527
種の	-10.5271
のほうが	-10.5271
▁ずいぶん	-10.5274
吹き	-10.5276
▁アア	-10.5276
做	-10.5278
貧困	-10.5278
すみません	-10.528
▁誰の	-10.5282
報	-10.5282
▁どこから	-10.5287
情報が	-10.5289
▁違います	-10.529
を追って	-10.529
踏	-10.529
気がする	-10.529
捜し	-10.529
▁逃げる	-10.5293
ったんだ	-10.5295
ないだろう	-10.5296
としての	-10.5297
祖父	-10.5299
▁あんまり	-10.5303
▁同時に	-10.5303
自体	-10.5304
▁各	-10.5305
気にしない	-10.5306
会場	-10.5308
▁サイ	-10.531
ないんです	-10.5311
▁食事	-10.5312
節	-10.5314
まあ	-10.5315
贈り物	-10.5315
あるのか	-10.5316
♫	-10.5318
会いたい	-10.5323
の車	-10.5327
荷	-10.5331
だけでも	-10.5333
耐え	-10.5334
寂しい	-10.5334
祖母	-10.5339
散歩	-10.5341
グレ	-10.5341
▁氷	-10.5342
▁そのとおり	-10.5344
死者	-10.5346
一度も	-10.5349
还	-10.5349
送った	-10.5349
ガイ	-10.5349
ダメージ	-10.5352
信じられない	-10.5352
▁ご主人	-10.5352
スタッフ	-10.5352
ヴォ	-10.5356
▁この写真	-10.5356
▁バス	-10.5357
の人が	-10.5362
▁周り	-10.5362
サンタ	-10.5364
携帯電話	-10.5364
なんだって	-10.5369
人がいる	-10.5369
だと思った	-10.537
幸福	-10.5371
手伝い	-10.5371
給料	-10.5372
▁未	-10.5373
▁何よ	-10.5375
っぱ	-10.5376
おいで	-10.5377
ニューヨーク	-10.538
となって	-10.5382
いますか	-10.5384
ございます	-10.5386
プリ	-10.5387
▁逆	-10.5388
悟	-10.5388
見方	-10.5389
▁一生	-10.5389
砂漠	-10.5389
すんだ	-10.5391
とした	-10.5392
いいんだ	-10.5393
ないといけない	-10.5395
薬物	-10.5399
父さん	-10.5399
飲め	-10.5399
聞かせて	-10.54
▁ファ	-10.5401
本人	-10.5402
運転手	-10.5403
▁開け	-10.5404
きたの	-10.5406
どういう	-10.5409
▁何してる	-10.5412
▁雨	-10.5413
正しく	-10.5413
連絡を	-10.5413
冷たい	-10.5414
独り	-10.5415
業界	-10.5415
と思っていた	-10.5415
復活	-10.5416
築	-10.5417
▁コンピュータ	-10.5418
粉	-10.5422
ウス	-10.5424
又	-10.5427
といって	-10.5427
に連絡	-10.5428
晴	-10.5428
材料	-10.5428
▁今回	-10.5428
女は	-10.543
▁私にとって	-10.5431
言ったの	-10.5431
子ちゃん	-10.5431
▁通常	-10.5432
費用	-10.5433
育った	-10.5435
版	-10.544
▁両	-10.5442
▁可愛い	-10.5442
▁ご覧	-10.5443
読んだ	-10.5445
短い	-10.5446
待機	-10.5447
▁強	-10.5447
貸して	-10.5448
どのような	-10.5453
▁本日	-10.5454
の効果	-10.5454
自ら	-10.5456
締め	-10.5457
▁いくつか	-10.5459
潜	-10.5459
個人的な	-10.546
はじめ	-10.546
▁非	-10.5463
旦那	-10.5464
比べ	-10.5464
▁デート	-10.5465
ありえない	-10.5465
砲	-10.5467
途中で	-10.5467
だったよ	-10.5467
▁フフフ	-10.547
種類	-10.5471
▁そうですね	-10.5474
▁ある日	-10.5476
終わらせ	-10.5481
いくつか	-10.5482
▁若	-10.5482
カラ	-10.5484
真っ	-10.5486
患者の	-10.5488
ウィルス	-10.5488
回収	-10.5489
などの	-10.5491
ーション	-10.5495
ていく	-10.5495
▁だめだ	-10.5496
を信じる	-10.5498
正解	-10.55
幻	-10.5501
囚人	-10.5502
のう	-10.5502
▁歯	-10.5503
FBI	-10.5504
居て	-10.5504
▁P	-10.5505
っきり	-10.5506
現代	-10.5508
km	-10.5509
ってば	-10.5509
完全	-10.5509
ダーク	-10.5509
は誰だ	-10.5509
すんな	-10.551
つい	-10.5512
言ってるの	-10.5512
▁間違いない	-10.5516
行くわ	-10.5516
農	-10.552
▁パパは	-10.552
尋問	-10.5521
はずよ	-10.5523
母さん	-10.5524
作家	-10.5525
よろしく	-10.5526
諦め	-10.5526
決して	-10.5526
話さない	-10.5527
市長	-10.5528
れてる	-10.5528
責任を	-10.5531
▁エネルギー	-10.5532
もらおう	-10.5533
▁起きて	-10.5534
▁子供の	-10.5535
の半分	-10.5538
400	-10.5539
リーン	-10.5539
甲	-10.5539
低い	-10.554
イタリア	-10.554
にあります	-10.554
要請	-10.554
することが	-10.5541
渡し	-10.5544
長官	-10.5545
乗れ	-10.5546
逃げて	-10.5548
の事件	-10.5548
を信じて	-10.5549
ディング	-10.5549
た時	-10.5552
っすか	-10.5554
▁オーケー	-10.556
ないだろ	-10.556
女が	-10.556
▁偶然	-10.5561
屋根	-10.5561
▁ジェイ	-10.5562
職場	-10.5562
をつけて	-10.5563
300	-10.5567
付き合って	-10.5567
正常	-10.5568
んでしょうか	-10.5568
▁彼等	-10.557
渡して	-10.5572
子を	-10.5573
できること	-10.5575
担	-10.5575
が起きた	-10.5575
補	-10.5575
禁	-10.5576
ホワイト	-10.5577
網	-10.5577
余裕	-10.5577
解決策	-10.5578
強力な	-10.5581
▁知る	-10.5582
▁見つけ	-10.5583
若	-10.5583
表面	-10.5586
▁爆弾	-10.5587
▁すると	-10.5588
ィ	-10.559
を攻撃	-10.5591
▁戻って	-10.5591
残ってる	-10.5594
らせる	-10.5594
株	-10.5594
休憩	-10.5596
旗	-10.5596
▁実に	-10.5596
▁兄貴	-10.5599
効	-10.56
▁特別	-10.5601
▁僕には	-10.5602
チュ	-10.5602
死ね	-10.5606
ディア	-10.5606
決めて	-10.5609
被害	-10.5609
ぶり	-10.561
行けない	-10.5611
▁歴史	-10.5612
▁どうなる	-10.5613
を調べ	-10.5614
龍	-10.5615
祝	-10.5615
真ん中	-10.5616
選んだ	-10.5617
子供が	-10.5618
するよう	-10.5618
何時	-10.5619
者たち	-10.5619
▁安	-10.562
チョウ	-10.562
▁どういう意味	-10.5621
神様	-10.5623
から来た	-10.5624
するのが	-10.5628
常に	-10.5628
交通	-10.5629
▁指	-10.5629
言う事	-10.5629
▁まずい	-10.5633
抜	-10.5634
イベント	-10.5634
を見せて	-10.5635
誤	-10.5636
ダル	-10.5637
やろ	-10.5638
音が	-10.564
順	-10.564
ごとに	-10.5643
▁時間が	-10.5647
を探してる	-10.5648
にでも	-10.5648
どちら	-10.5649
せず	-10.565
行う	-10.5651
新たな	-10.5651
してしまった	-10.5651
にしよう	-10.5652
▁行きましょう	-10.5653
検討	-10.5653
出口	-10.5658
するもの	-10.5659
待った	-10.566
何百	-10.5663
これらの	-10.5664
騙	-10.5665
んなら	-10.5665
話せる	-10.5667
腫瘍	-10.5672
順調	-10.5673
意志	-10.5674
▁フン	-10.5674
情熱	-10.5674
現れた	-10.5676
死を	-10.5679
結構	-10.5681
を止める	-10.5683
辺り	-10.5684
辞	-10.5684
を出す	-10.5685
教えてくれた	-10.5687
に行き	-10.5691
託	-10.5692
刺激	-10.5692
に移	-10.5695
広い	-10.5696
▁すばらしい	-10.5697
おき	-10.5698
を出して	-10.5701
▁少年	-10.5703
ほん	-10.5703
23	-10.5706
紀	-10.5709
杉	-10.5711
知れ	-10.5711
マーフィー	-10.5714
▁最初から	-10.5715
▁高校	-10.5715
▁昨日の	-10.5716
の本	-10.5718
一切	-10.5718
年生	-10.5719
おいた	-10.572
他人	-10.5722
ワトソン	-10.573
麻薬	-10.5737
お互い	-10.5737
▁知らなかった	-10.574
しろよ	-10.574
やられた	-10.5742
▁ビール	-10.5744
スコ	-10.5747
連続	-10.5749
拷問	-10.5749
成績	-10.5749
手伝う	-10.5749
るのが	-10.5753
離れる	-10.5754
▁馬鹿	-10.5755
▁なんだよ	-10.5756
マスター	-10.5756
いま	-10.576
▁治療	-10.576
最悪	-10.576
済んだ	-10.5762
フィン	-10.5763
▁協力	-10.5766
報酬	-10.5769
ギャング	-10.5769
把握	-10.5769
▁40	-10.5769
守って	-10.5769
▁命令	-10.577
か何か	-10.5775
どれ	-10.5776
▁ママは	-10.5779
軍の	-10.578
ごめんなさい	-10.578
車が	-10.5784
把	-10.5788
妄想	-10.5788
閉鎖	-10.5788
備え	-10.5789
時代に	-10.579
ツール	-10.5795
▁終わった	-10.5798
の生活	-10.5799
メント	-10.58
▁お前達	-10.58
もう一人	-10.5804
天国	-10.5804
事件を	-10.5806
帰ろう	-10.5807
誠	-10.5807
リンク	-10.5807
神の	-10.5808
展開	-10.5808
論文	-10.5809
チケット	-10.581
どうなるか	-10.581
与え	-10.5812
▁どうすれば	-10.5818
竹	-10.582
▁ほぼ	-10.5821
境	-10.5821
番目の	-10.5822
題	-10.5825
▁どれくらい	-10.5825
語り	-10.5826
ソフト	-10.5827
━	-10.5827
▁みんなが	-10.5827
余計	-10.5827
全員が	-10.5828
車の	-10.5829
僕を	-10.5829
▁教えてくれ	-10.5832
刑務所に	-10.5837
出てきた	-10.5838
おかしな	-10.5839
られています	-10.5841
現場に	-10.5841
開けて	-10.5842
st	-10.5843
ってことは	-10.5843
確実に	-10.5846
述べ	-10.5846
調整	-10.5847
ハウス	-10.5847
グラス	-10.5848
▁容疑者	-10.5851
結び	-10.5852
報道	-10.5852
マス	-10.5855
何人か	-10.5855
亜	-10.5858
声が	-10.5863
▁英語	-10.5864
気をつけ	-10.5865
皮膚	-10.5866
見てた	-10.5868
液	-10.5869
いてる	-10.587
大学の	-10.5871
シティ	-10.5873
▁被害者の	-10.5875
議会	-10.5876
▁楽しみ	-10.5882
八	-10.5884
ねば	-10.5886
失敗した	-10.5886
どの	-10.5887
何人	-10.5888
▁興味	-10.5888
機密	-10.5888
恵	-10.5889
患者さん	-10.5889
フロ	-10.5891
▁これらは	-10.5892
▁犯罪	-10.5892
自動車	-10.5893
始まる	-10.5894
繰り返し	-10.5894
飛ば	-10.5896
マッ	-10.5897
の動き	-10.5898
▁多	-10.5898
悪夢	-10.59
▁ビジネス	-10.5902
▁新聞	-10.5903
22	-10.5904
▁警察は	-10.5904
基準	-10.5905
輸送	-10.5905
出来て	-10.5906
みたいね	-10.5907
真実を	-10.5908
本の	-10.5909
入手	-10.5911
お会い	-10.5918
ことでしょう	-10.5918
▁雪	-10.5919
信じて	-10.5919
してほしい	-10.592
▁お前には	-10.592
みました	-10.5921
ング	-10.5921
アンド	-10.5922
あまりにも	-10.5924
眺め	-10.5926
スコット	-10.5926
をもって	-10.5926
機器	-10.5927
不満	-10.5928
▁どんなに	-10.5929
描いて	-10.5931
怪しい	-10.5931
汚れ	-10.5932
▁直	-10.5932
基本的に	-10.5932
▁ゾンビ	-10.5934
忘れてた	-10.5935
は本当に	-10.5936
▁助けてくれ	-10.5939
付ける	-10.5941
▁生きてる	-10.5941
数日	-10.5943
▁窓	-10.5944
厚	-10.5944
買う	-10.5945
タイミング	-10.5945
スキャン	-10.5945
かない	-10.5946
35	-10.5946
を呼び	-10.5947
男に	-10.5949
娘さん	-10.5953
行けば	-10.5955
▁自己	-10.5955
パク	-10.5957
の頃	-10.5957
感動	-10.5959
クレ	-10.5959
どこかで	-10.5961
ティス	-10.5962
していく	-10.5964
を選ぶ	-10.5974
インターネット	-10.5974
マジック	-10.5978
だろうと	-10.598
撃った	-10.5982
遅れ	-10.5982
▁生命	-10.5983
気付いた	-10.5987
手配	-10.5987
▁この件	-10.5989
知ってます	-10.5989
降りて	-10.5989
▁11	-10.599
▁おっと	-10.5992
▁その前に	-10.5992
▁ハロルド	-10.5993
fbi	-10.5993
バトル	-10.5994
目覚め	-10.5995
ウォル	-10.5995
▁殺された	-10.5997
ro	-10.5997
▁先ほど	-10.5998
スイッチ	-10.6001
両	-10.6001
おっしゃ	-10.6001
クト	-10.6003
意思	-10.6004
▁僕ら	-10.6005
与	-10.6005
ウル	-10.6007
残した	-10.6012
付けた	-10.6014
▁その子	-10.6015
▁両方	-10.6018
戻す	-10.602
▁てめえ	-10.6023
脅迫	-10.6024
って言ってた	-10.6024
ところだ	-10.6027
小説	-10.6029
来てくれた	-10.6029
血を	-10.6032
に入り	-10.6033
られません	-10.6034
ねー	-10.6036
▁妊娠	-10.6036
孫	-10.6038
▁あんたに	-10.6039
真似	-10.6042
ip	-10.6045
▁あの女	-10.6045
ってばよ	-10.6046
されてた	-10.6048
▁やめてくれ	-10.6048
やがって	-10.605
を切り	-10.6051
我々を	-10.6051
▁市民	-10.6056
トイレ	-10.606
回目	-10.6062
奇	-10.6062
陥	-10.6062
させろ	-10.6063
すっかり	-10.6063
▁世界中	-10.6063
▁ぜひ	-10.6064
たって	-10.6067
すぎた	-10.6067
でございます	-10.6067
▁神の	-10.6068
テレ	-10.6069
▁あそこに	-10.6069
▁17	-10.6073
信じない	-10.6073
脈	-10.6075
損傷	-10.6078
航	-10.6078
見つけて	-10.6082
对	-10.6083
▁今や	-10.6083
近所	-10.6086
航空	-10.6087
海岸	-10.6087
閉め	-10.6087
ローマ	-10.609
結婚する	-10.6092
発動	-10.6095
▁当	-10.6097
▁俺たちの	-10.6098
本を	-10.6099
▁L	-10.6101
▁受け入れ	-10.6102
小僧	-10.6105
▁素敵な	-10.6105
出せる	-10.6105
負けた	-10.6108
サラ	-10.6109
▁どう思う	-10.611
▁恐怖	-10.611
でなく	-10.6112
椅子	-10.6115
困った	-10.6116
結婚して	-10.6117
テー	-10.6118
場所だ	-10.6119
山さん	-10.6119
▁麻薬	-10.6122
コース	-10.6123
シロ	-10.6123
苦しみ	-10.6123
悲劇	-10.6124
を聞いて	-10.6125
できるように	-10.6125
課長	-10.6126
止めて	-10.6128
申し	-10.6128
々と	-10.6128
気持	-10.6129
▁唯一の	-10.6131
▁離婚	-10.6131
イラ	-10.6132
活動を	-10.6132
を調べて	-10.6139
▁ガン	-10.6139
に居る	-10.6139
ってくれ	-10.614
干	-10.6141
なんでも	-10.6142
装備	-10.6143
▁コンピューター	-10.6144
確保	-10.6145
武装	-10.6145
っていうのは	-10.6145
を選んだ	-10.6149
のかも	-10.6149
に入れて	-10.6152
▁大変な	-10.6153
疲れ	-10.6153
▁どんどん	-10.6154
だったのに	-10.616
ディス	-10.6163
說	-10.6163
となります	-10.6165
の母親	-10.6165
▁いつから	-10.6165
ヴェ	-10.6167
互いに	-10.6168
イラク	-10.6168
リース	-10.6168
いますが	-10.617
▁やつら	-10.6171
2000	-10.6172
訴え	-10.6172
今度	-10.6172
していません	-10.6174
起きる	-10.6176
あたし	-10.6176
探して	-10.6177
ブラック	-10.6178
心が	-10.6179
達成	-10.6179
▁ハッ	-10.618
▁強い	-10.6182
どこにある	-10.6183
▁よろしくお願いします	-10.6184
非難	-10.6186
▁馬	-10.619
▁その結果	-10.6194
呪い	-10.6197
広げ	-10.6198
▁赤い	-10.6199
▁面倒	-10.6199
Y	-10.62
するぞ	-10.62
▁陛下	-10.6204
移植	-10.6204
依頼人	-10.6207
謝	-10.621
ッサ	-10.6215
▁爆発	-10.6216
時代の	-10.622
を殺し	-10.6221
抗	-10.6221
ゴル	-10.6223
火星	-10.6226
▁アダム	-10.6232
部屋で	-10.6234
▁とんでもない	-10.6234
漫画	-10.6235
でもいい	-10.6236
許して	-10.6236
力は	-10.6238
人間に	-10.6239
▁ニック	-10.6239
▁夏目	-10.624
▁俺ら	-10.6244
バーグ	-10.6249
当時	-10.6249
押さえ	-10.6249
爆	-10.6251
せた	-10.6252
アート	-10.6253
口座	-10.6256
▁心配するな	-10.6256
が入って	-10.6257
間の	-10.6258
セイ	-10.6259
▁特別な	-10.6262
迎え	-10.6263
伴	-10.6263
わけだ	-10.6264
嗎	-10.6264
霧	-10.6264
決まった	-10.6264
▁殺し	-10.6265
いくら	-10.6267
死の	-10.6267
会社を	-10.6268
ロケット	-10.6269
確率	-10.627
▁たとえば	-10.627
ピザ	-10.6272
話を聞いて	-10.6272
▁何でもない	-10.6273
しようとした	-10.6274
思っている	-10.6277
ッター	-10.628
▁武	-10.628
見えます	-10.6282
の話は	-10.6283
いいですか	-10.6284
泉	-10.6284
ベー	-10.6286
帝国	-10.6287
グラフ	-10.6288
上がる	-10.6288
だと思って	-10.6288
危	-10.6289
るなら	-10.629
年以上	-10.6291
車は	-10.6293
▁ただし	-10.6295
してたんだ	-10.6296
駐車場	-10.6298
と思うか	-10.6299
大変だ	-10.6302
以外に	-10.6303
いろいろ	-10.6304
と言ってる	-10.6307
世界中	-10.6307
英語	-10.6307
つまり	-10.6308
休んで	-10.6309
ホームズ	-10.631
こんな風に	-10.631
に何か	-10.631
▁知っている	-10.6312
行い	-10.6313
開け	-10.6314
ませんよ	-10.632
ガル	-10.632
男と	-10.6321
の言うとおり	-10.6323
嘘つき	-10.6323
といい	-10.6325
運んで	-10.6325
革新	-10.6325
エー	-10.6325
逃れ	-10.6327
▁動くな	-10.633
なんだろう	-10.633
こんなに	-10.633
休暇	-10.633
によれば	-10.6331
▁喜んで	-10.6333
捨てる	-10.6336
してしまう	-10.6337
一言	-10.6339
ますから	-10.634
地元	-10.634
塗	-10.6343
暮らす	-10.6345
頼り	-10.6346
かせ	-10.6346
貧しい	-10.6346
スタイル	-10.6347
まずい	-10.6348
構成	-10.6349
疲れた	-10.6351
警備員	-10.6353
されない	-10.6356
熱い	-10.6356
▁都市	-10.6356
ヒル	-10.6358
ッと	-10.6358
技術を	-10.6363
たまえ	-10.6364
予算	-10.6366
▁国家	-10.6368
何があった	-10.6369
トリー	-10.637
普通の	-10.6371
必死	-10.6374
年で	-10.6374
ウェ	-10.6375
を求め	-10.6376
始まった	-10.6377
改	-10.6377
そうする	-10.6379
判	-10.638
黒人	-10.6383
▁君ら	-10.6385
の家に	-10.6385
▁子供が	-10.6387
えば	-10.6388
お気に入り	-10.6389
の夢	-10.6389
大変な	-10.6389
探す	-10.6389
ってきた	-10.6391
ミルク	-10.6393
ビール	-10.6395
▁さっきの	-10.6399
組み合わせ	-10.64
▁ようやく	-10.6401
▁DNA	-10.6404
▁違うよ	-10.6405
ゴール	-10.6405
応答	-10.6407
周囲	-10.6407
成り	-10.6408
有効	-10.641
▁この街	-10.641
▁感謝	-10.6412
こそが	-10.6413
どれほど	-10.6415
ヴァン	-10.6415
もんね	-10.6416
どうか	-10.6416
ゾンビ	-10.6418
の通り	-10.6418
素敵な	-10.6422
いること	-10.6423
採	-10.6424
譲	-10.6427
拘束	-10.6428
解剖	-10.6428
優しく	-10.6429
老人	-10.643
寄付	-10.643
驚くべき	-10.643
書いてある	-10.6431
るだろう	-10.6434
時間で	-10.6435
名を	-10.6439
急いで	-10.6441
▁お嬢さん	-10.6442
蹴	-10.6442
フレ	-10.6443
▁あの子は	-10.6443
▁いかに	-10.6443
私達の	-10.6445
してくる	-10.6447
芸	-10.6447
設定	-10.6449
遺	-10.6451
処分	-10.6453
完全な	-10.6453
▁終わり	-10.6455
▁知りたい	-10.6455
コロ	-10.6456
を持っています	-10.6458
刺	-10.6458
スピーカ	-10.646
来たんだ	-10.646
▁あのね	-10.6461
含まれ	-10.6463
▁ベッド	-10.6465
の裏	-10.6467
幸せな	-10.6469
資格	-10.6469
気に入って	-10.6469
まん	-10.6469
白人	-10.647
なりません	-10.647
今日は	-10.647
クルー	-10.6471
始めます	-10.6472
止まって	-10.6475
船長	-10.6478
巣	-10.6479
シーン	-10.648
▁来い	-10.6481
委員会	-10.6481
▁アラン	-10.6485
由	-10.6485
回る	-10.6487
▁ここから出	-10.6488
可能性は	-10.649
▁地下	-10.6492
起きて	-10.6494
正気	-10.6494
▁こいつら	-10.6495
良くない	-10.6496
見つけ	-10.6496
ヘン	-10.6497
いこう	-10.6497
的话	-10.6501
ハード	-10.6502
ビッグ	-10.6503
見つからない	-10.6504
中身	-10.6504
乗せ	-10.6506
▁兄弟	-10.6508
吸い	-10.6508
んぞ	-10.6509
汚染	-10.6511
危ない	-10.6511
パイロット	-10.6511
ted	-10.6515
▁成功	-10.6516
僕ら	-10.6519
プレイ	-10.6521
するべき	-10.6522
下の	-10.6524
多数	-10.6524
▁あの日	-10.6524
することができます	-10.6528
まとも	-10.6528
▁ok	-10.6529
わり	-10.6529
やがる	-10.653
は非常に	-10.653
駆け	-10.653
冒険	-10.6531
愛し	-10.6531
装置を	-10.6535
に興味	-10.6537
方に	-10.6538
ルズ	-10.6539
▁待てよ	-10.654
が来て	-10.654
してくれて	-10.654
部門	-10.6544
しまい	-10.6546
つらい	-10.6548
瞳	-10.6552
ここにある	-10.6552
泊	-10.6554
を知らない	-10.6555
確かに	-10.6557
事になる	-10.6558
▁その日	-10.656
走れ	-10.6563
くなって	-10.6563
ベス	-10.6566
▁話を	-10.6568
▁ちなみに	-10.6573
ラル	-10.6574
陸	-10.6577
▁こちらの	-10.6578
赤い	-10.658
キレイ	-10.6581
あるんだ	-10.6582
▁フィ	-10.6585
灰	-10.6588
▁おぉ	-10.6589
なのだ	-10.659
の歴史	-10.659
過ぎて	-10.659
支払い	-10.6592
備	-10.6592
旧	-10.6593
聞か	-10.6594
走る	-10.6594
家族は	-10.6596
目で	-10.6596
会社に	-10.6598
随分	-10.6599
先生に	-10.6604
▁お前と	-10.6605
閉じ	-10.6605
事で	-10.6611
タマ	-10.6613
は無理だ	-10.6613
オス	-10.6614
財布	-10.6615
と思うよ	-10.6616
▁もうちょっと	-10.6616
人殺し	-10.662
いられる	-10.662
見つける	-10.662
成功した	-10.6621
にしても	-10.6623
海外	-10.6624
▁いけ	-10.6626
の下で	-10.6627
そうね	-10.6627
つもりか	-10.663
よろしい	-10.6632
どれだけ	-10.6634
ベラ	-10.6634
そのまま	-10.6635
る前に	-10.6636
いたのは	-10.6637
の血	-10.6638
頂け	-10.6639
追って	-10.6639
まえ	-10.6641
するなら	-10.6641
受けて	-10.6642
来ます	-10.6643
いたのです	-10.6643
▁dna	-10.6643
はっきり	-10.6645
意外	-10.6648
るよう	-10.665
やめる	-10.665
厳	-10.6652
▁何言って	-10.6655
▁母は	-10.6656
純	-10.6657
會	-10.6657
助かる	-10.6659
扱う	-10.6659
辛	-10.6659
▁勉強	-10.6661
有罪	-10.6662
イヤー	-10.6664
英	-10.6666
誕生	-10.6668
問題がある	-10.667
勝手に	-10.667
▁楽	-10.667
腕を	-10.6673
ヒュー	-10.6674
▁見る	-10.6675
▁教育	-10.6676
言われる	-10.6676
▁G	-10.6677
丶	-10.6678
令状	-10.6679
不思議な	-10.6679
という意味	-10.6681
足り	-10.6684
行くんだ	-10.6684
か分からない	-10.6686
▁まだまだ	-10.6686
▁ポール	-10.6687
メー	-10.6689
整	-10.6689
庫	-10.6691
を発動	-10.6692
かもしれませんが	-10.6693
加速	-10.6693
婚	-10.6695
出ない	-10.6698
滑	-10.6699
癒	-10.6699
に戻れ	-10.6699
慈悲	-10.6699
追加	-10.6701
殺し屋	-10.6702
▁暴力	-10.6704
▁鳥	-10.6705
やってきた	-10.6706
妊娠	-10.6706
どこか	-10.6708
更	-10.671
▁聞いてる	-10.6711
何度も	-10.6711
べきです	-10.6712
メモ	-10.6714
入れる	-10.6715
数年	-10.6716
TED	-10.6718
練	-10.672
誌	-10.672
刃	-10.6721
翼	-10.6721
責任者	-10.6722
言います	-10.6725
際に	-10.6725
どうしたの	-10.6726
撮	-10.6728
問題だ	-10.6729
ディーン	-10.6731
朝食	-10.6733
住む	-10.6733
チー	-10.6735
セー	-10.6736
思いやり	-10.6737
▁この町	-10.6739
レイン	-10.6742
アフガニスタン	-10.6742
湾	-10.6742
▁僕達	-10.6742
凶器	-10.6742
財産	-10.6743
トラップ	-10.6743
▁政治	-10.6745
を食べ	-10.6747
以外は	-10.6747
ボックス	-10.6748
が分かる	-10.6748
わかっている	-10.675
ポリ	-10.675
たちを	-10.6751
人間だ	-10.6752
が出て	-10.6754
▁二人とも	-10.6756
ブス	-10.6756
男を	-10.6756
▁今日も	-10.6761
付か	-10.6763
バウアー	-10.6763
閣下	-10.6764
難しく	-10.6769
▁サー	-10.677
やつだ	-10.6771
▁アメリカの	-10.6771
ing	-10.6772
の原因	-10.6774
▁トラック	-10.6774
ここから	-10.6777
600	-10.6779
▁16	-10.678
▁今でも	-10.678
幕	-10.6781
着て	-10.6782
続けた	-10.6783
訪問	-10.6785
顧客	-10.6785
素材	-10.6785
制限	-10.6786
電力	-10.6786
シェル	-10.6788
アニ	-10.679
幸せに	-10.679
南極	-10.6791
▁答えは	-10.6793
腐	-10.6794
愛情	-10.6795
何処に	-10.6798
ID	-10.6799
ができた	-10.6799
ナム	-10.6803
ベスト	-10.6805
盤	-10.6806
メイ	-10.6807
繋がり	-10.6807
▁よくやった	-10.6807
なかったんだ	-10.6808
集まり	-10.6808
▁ドクター	-10.6811
▁清	-10.6812
無料	-10.6813
▁逮捕	-10.6815
分から	-10.6816
地下	-10.6816
布	-10.6821
天気	-10.6821
いたのか	-10.6821
以	-10.6823
私達は	-10.6823
始めよう	-10.6825
であろう	-10.6825
誰でも	-10.6825
ネル	-10.6826
しま	-10.6826
クビ	-10.6827
阻止	-10.6828
痕跡	-10.6828
政府は	-10.6828
周辺	-10.6828
就是	-10.6829
▁大丈夫だよ	-10.683
▁ちょっとした	-10.6832
ゆっくり	-10.6832
▁あなたは私	-10.6833
▁他人	-10.6834
通じ	-10.6836
▁きれい	-10.684
艦隊	-10.6841
▁飲み	-10.6844
を聞いた	-10.6844
刑	-10.6848
虚	-10.6849
考慮	-10.6849
アリバイ	-10.6851
職員	-10.6852
即	-10.6853
オフ	-10.6859
したもの	-10.6859
ありがとうございました	-10.6859
包	-10.6859
▁先週	-10.6862
▁いっぱい	-10.6862
▁古	-10.6864
▁どうかした	-10.6865
叫	-10.6867
▁c	-10.6869
票	-10.687
▁この家	-10.687
そっくり	-10.6872
速い	-10.6872
わたし	-10.6874
▁そのような	-10.6875
しているのは	-10.6875
のようです	-10.6877
ピンク	-10.6877
▁スピード	-10.6877
価格	-10.6878
イブ	-10.6879
は無理	-10.6883
血が	-10.6887
桜	-10.6887
響	-10.6888
▁頭を	-10.6892
枝	-10.6892
そうか	-10.6895
辞め	-10.6896
▁なんてこと	-10.6896
大好きな	-10.6898
金融	-10.6899
▁痛み	-10.69
ノン	-10.6903
をかけて	-10.6903
コル	-10.6903
つかま	-10.6906
▁いけない	-10.6909
▁そこには	-10.6909
ないでしょ	-10.691
喜んで	-10.6913
衝撃	-10.6914
議	-10.6915
怖かった	-10.6915
彼氏	-10.6915
変態	-10.6916
わせる	-10.6917
伝説	-10.6917
私と	-10.6918
ブロディ	-10.6919
▁そうやって	-10.6922
特定	-10.6922
ってさ	-10.6926
ようね	-10.6927
米国	-10.6927
▁クソッ	-10.6934
章	-10.6935
臭	-10.6935
色の	-10.6936
釈放	-10.6936
特許	-10.6936
学園	-10.6938
グリ	-10.6938
する必要がある	-10.6942
▁おやすみ	-10.6943
公式	-10.6944
悲しみ	-10.6944
耳に	-10.6945
バイク	-10.6946
嘘を	-10.6948
悪化	-10.6948
んと	-10.6954
の姿	-10.6954
それぞれ	-10.6956
図書館	-10.6957
お兄さん	-10.6957
粒子	-10.696
ソウル	-10.6962
しき	-10.6965
狩り	-10.6965
ものと	-10.6967
▁バリー	-10.6967
ないのです	-10.697
気持ちは	-10.6971
有名	-10.6976
これまで	-10.6977
蜂	-10.6979
畑	-10.6979
きっかけ	-10.6979
十分に	-10.6979
購入	-10.6979
▁O	-10.6983
やめた	-10.6983
彼らを	-10.6987
判事	-10.6989
せば	-10.6991
って言って	-10.6994
過ごした	-10.6996
喉	-10.7001
井さん	-10.7001
傾向	-10.7001
▁父が	-10.7002
喋	-10.7003
接近	-10.7003
怒ってる	-10.7003
ロール	-10.7004
信じてくれ	-10.7006
役割	-10.7006
ていない	-10.7009
mo	-10.7009
域	-10.7011
一方で	-10.7012
大丈夫です	-10.7012
苦手	-10.7013
州の	-10.7017
昨年	-10.7017
かつ	-10.7017
▁ショー	-10.7017
いただけ	-10.702
ホット	-10.7021
免	-10.7021
足りない	-10.7021
警戒	-10.7023
書く	-10.7025
外れ	-10.7026
皆さんに	-10.7026
クリスマス	-10.7027
を起こす	-10.7027
何故	-10.7029
分かってない	-10.7031
ほう	-10.7031
いき	-10.7033
を始めた	-10.7033
如	-10.7034
っぽ	-10.7034
▁正直に	-10.7036
時間も	-10.7037
ダイヤ	-10.704
身に	-10.704
解明	-10.7042
力で	-10.7043
やつは	-10.7043
▁死んで	-10.7044
エージェント	-10.7045
解除	-10.7046
▁髪	-10.7046
筋肉	-10.7047
座り	-10.7048
文明	-10.7048
大気	-10.7048
▁一護	-10.7049
開いて	-10.7049
公共	-10.705
かと思った	-10.7052
失う	-10.7052
▁それでいい	-10.7054
売った	-10.7055
を上げ	-10.7056
なんですけど	-10.7057
数年前	-10.7058
▁マリア	-10.7066
田舎	-10.7068
になったの	-10.7069
観客	-10.707
分か	-10.707
バランス	-10.7071
させます	-10.7072
つ目の	-10.7074
アジア	-10.7074
果	-10.7074
その他	-10.7075
眠り	-10.7078
るし	-10.7078
言い訳	-10.708
と思い	-10.7082
▁この部屋	-10.7082
ョ	-10.7087
武器を	-10.709
レース	-10.7091
▁もはや	-10.7095
パーク	-10.7097
撃って	-10.7101
状態で	-10.7104
あい	-10.7105
▁すげえ	-10.7107
びっくり	-10.7108
ことはありません	-10.7108
鎖	-10.711
硬	-10.7111
作れる	-10.7111
et	-10.7111
風邪	-10.7111
取材	-10.7112
私には	-10.7112
▁車の	-10.7113
リップ	-10.7113
問題です	-10.7114
つは	-10.7114
▁監視	-10.7116
何も知らない	-10.7117
でない	-10.7117
電話で	-10.7118
チャン	-10.7119
みたいで	-10.7121
ってわけ	-10.7121
可能性がある	-10.7122
いるわ	-10.7124
la	-10.7126
▁この世	-10.7129
同時に	-10.713
ビス	-10.713
病院で	-10.7132
▁サスケ	-10.7134
▁鼻	-10.7135
何が起こった	-10.7135
ショ	-10.7135
やります	-10.7137
▁法律	-10.7138
▁どれ	-10.7138
アイス	-10.7139
最大	-10.714
▁そうなんだ	-10.7141
国内	-10.7141
クイン	-10.7144
▁無理だ	-10.7144
カップ	-10.7144
証拠を	-10.7144
もあった	-10.7145
▁どのくらい	-10.7146
▁シン	-10.7147
しっかり	-10.7148
ランチ	-10.7148
しな	-10.7149
一族	-10.7151
の鍵	-10.7152
▁自ら	-10.7155
坊	-10.7155
洗い	-10.7155
妨害	-10.7155
妖怪	-10.7155
得た	-10.7156
を呼んで	-10.7157
運ぶ	-10.716
謝る	-10.7162
▁頭が	-10.7165
価値がある	-10.7168
存在しない	-10.717
▁お腹	-10.7171
ディン	-10.7171
▁ああっ	-10.7171
妙な	-10.7172
を助け	-10.7174
してて	-10.7176
ドアを開け	-10.7177
で一番	-10.7177
▁但是	-10.7177
統計	-10.7177
残った	-10.7184
と思っています	-10.7185
を撃った	-10.7187
▁だいたい	-10.7188
▁もしくは	-10.7191
試してみ	-10.7191
▁自分に	-10.7192
永遠	-10.7194
▁キミは	-10.7196
あるわ	-10.7196
変え	-10.7197
を見せ	-10.7199
▁どこに行く	-10.7199
▁ウチ	-10.7199
宝石	-10.7201
壁に	-10.7203
男子	-10.7204
画面	-10.7204
▁他の人	-10.7205
助手	-10.7208
▁あいつが	-10.7208
誰にも	-10.7209
▁船長	-10.721
ここに来る	-10.7211
泣く	-10.7212
例を	-10.7214
流行	-10.7214
▁ブース	-10.7218
ているのです	-10.7221
圏	-10.7222
広告	-10.7222
法廷	-10.7223
を通じて	-10.7223
吐	-10.7225
るなんて	-10.7226
たる	-10.7227
運び	-10.7227
収集	-10.7227
使命	-10.7229
平等	-10.7229
のせいじゃない	-10.7229
してるのか	-10.723
▁あん	-10.7231
るわよ	-10.7231
適切な	-10.7233
載	-10.7234
助ける	-10.7236
▁戦い	-10.7237
▁何ですか	-10.7239
欲し	-10.7242
27	-10.7245
▁少しは	-10.7246
警察に	-10.7247
合わ	-10.7248
▁ロック	-10.7248
もう一度	-10.7249
性格	-10.725
デッキ	-10.725
▁こういった	-10.725
くれてありがとう	-10.725
▁頼むよ	-10.7251
言葉は	-10.7251
▁魔法	-10.7252
▁信頼	-10.7253
いるんです	-10.7258
嫌いだ	-10.7258
骨折	-10.7264
のデータ	-10.7264
学び	-10.7266
観測	-10.7267
合格	-10.7268
を買う	-10.727
▁機械	-10.727
ウェル	-10.7272
をしていた	-10.7273
▁逃げろ	-10.7274
要らない	-10.7274
▁おじさん	-10.7275
返し	-10.7276
の話だ	-10.7278
知ら	-10.7279
時間に	-10.7279
▁いいですか	-10.7282
安全だ	-10.7286
知ってるの	-10.7287
ことはできません	-10.7288
▁八	-10.7289
爪	-10.7289
訊	-10.7289
チャールズ	-10.729
信じている	-10.729
ましたか	-10.7292
っちまった	-10.7293
ゼル	-10.7296
ブログ	-10.7297
をもたらす	-10.7299
農場	-10.73
なきゃならない	-10.7302
ラッキー	-10.7302
掛けて	-10.7307
聞いてない	-10.7307
飲み物	-10.7309
遅れて	-10.7311
制服	-10.7311
デザイナー	-10.7312
汗	-10.7312
訴訟	-10.7312
連絡する	-10.7312
ムリ	-10.7313
できん	-10.7314
を変えた	-10.7317
ってやつ	-10.7321
狂った	-10.7321
吸	-10.7322
イイ	-10.7323
▁言ってた	-10.7323
▁イギリス	-10.7323
方法が	-10.7324
▁目標	-10.7329
尻	-10.733
することを	-10.7333
貢献	-10.7334
ウェブ	-10.7338
寝てる	-10.7338
けた	-10.7341
週間前	-10.7341
いい子	-10.7341
上がった	-10.7344
帰ってきた	-10.7345
巨大	-10.7348
する前に	-10.7348
▁奴を	-10.7348
明白	-10.7348
後悔	-10.7351
抱	-10.7352
来たら	-10.7353
戻らない	-10.7355
▁悟飯	-10.7357
に戻り	-10.7358
司法	-10.7359
別に	-10.7361
▁教会	-10.7363
ぶち	-10.7363
重要なのは	-10.7363
▁みんなに	-10.7366
スティーブ	-10.7367
▁W	-10.737
ビーチ	-10.7371
途	-10.7375
理解し	-10.7375
もらえない	-10.7378
点は	-10.7378
歴	-10.7379
くれよ	-10.738
開き	-10.738
やる気	-10.7382
認	-10.7382
おじさん	-10.7389
こんな事	-10.7391
捕まえた	-10.7392
動け	-10.7392
を迎え	-10.7392
象	-10.7393
捉え	-10.7397
ためです	-10.7397
聞いたこと	-10.7398
召喚	-10.7399
▁オラ	-10.7399
使	-10.7401
希	-10.7402
▁知ってた	-10.7402
いかん	-10.7402
Z	-10.7402
⦆	-10.7402
アイディア	-10.7404
付き合い	-10.7404
表情	-10.7404
資産	-10.7404
自分自身	-10.7408
落とした	-10.7409
発信	-10.7415
見せる	-10.7416
平気	-10.742
王国	-10.7421
▁お話	-10.7423
作れ	-10.7424
構築	-10.7424
棚	-10.7425
ミサイル	-10.7425
印象	-10.7425
変えて	-10.7426
きれいな	-10.7429
をもたらし	-10.7432
に対し	-10.7433
ごらん	-10.7436
意味が	-10.7438
▁闇	-10.7441
▁パーティー	-10.7441
▁間違い	-10.7443
ウェイン	-10.7445
だめだ	-10.7446
ないこと	-10.7447
注射	-10.7447
軸	-10.7448
▁または	-10.7449
最善	-10.7449
まさに	-10.7449
法則	-10.7449
見たこと	-10.7451
寒	-10.7452
しちゃ	-10.7453
に行け	-10.7454
まない	-10.746
済	-10.7464
衛	-10.7464
▁あとで	-10.7465
時点で	-10.7467
頭の中	-10.7467
略	-10.7468
寄り	-10.7469
遅	-10.747
雄	-10.7471
救出	-10.7471
私の人生	-10.7472
あら	-10.7473
総理	-10.7473
発言	-10.7477
はあなた	-10.7481
スペース	-10.7482
必要なのは	-10.7483
▁どこまで	-10.7487
いえ	-10.7488
▁ねっ	-10.7489
ma	-10.7489
ドゥ	-10.7489
暗闇	-10.749
動いて	-10.749
ましい	-10.7491
になるでしょう	-10.7494
軌道	-10.7497
ドラマ	-10.7498
▁24	-10.75
黙	-10.7502
役目	-10.7505
2,3	-10.7507
に住む	-10.7509
▁いつまで	-10.7509
仕掛け	-10.7511
▁警備	-10.7512
前は	-10.7512
下げ	-10.7513
▁単なる	-10.7514
を手に	-10.7516
そこにいる	-10.7518
えた	-10.7518
してもらう	-10.7519
ジャンプ	-10.752
関係者	-10.7522
緊急	-10.7522
バリ	-10.7528
ゲン	-10.753
を呼ぶ	-10.753
まじ	-10.7532
秘	-10.7532
過程	-10.7535
記念	-10.7535
▁F	-10.7537
泥	-10.7539
どう思う	-10.754
ようなものです	-10.7541
ピアノ	-10.7542
妙	-10.7542
撮った	-10.7544
▁身体	-10.7544
いいわね	-10.7545
▁父の	-10.7545
話してた	-10.7548
ーッ	-10.755
はどこに	-10.7551
▁エリ	-10.7552
▁おなか	-10.7553
見ろ	-10.7555
しており	-10.7556
やん	-10.7557
クロス	-10.7558
メイン	-10.7558
▁子供は	-10.7558
らい	-10.756
永	-10.7562
競	-10.7562
臨	-10.7562
どこで	-10.7563
容易	-10.7563
何やってる	-10.7564
優先	-10.7566
指導者	-10.7566
ny	-10.7567
▁間違いなく	-10.7567
▁ママが	-10.7568
一方	-10.757
テル	-10.757
の大きさ	-10.757
んでる	-10.7573
なのね	-10.7574
したのよ	-10.7577
おしまい	-10.7578
▁ハンク	-10.7578
を得て	-10.7582
▁おまえは	-10.7583
指導	-10.7585
容疑	-10.7586
絆	-10.7586
かというと	-10.7586
があるわ	-10.759
ドーム	-10.759
自動	-10.7591
と言ってた	-10.7593
▁ご存じ	-10.7594
各	-10.7594
▁何やってんだ	-10.7595
を集めて	-10.7595
▁この国	-10.7597
肉体	-10.76
▁それぞれの	-10.7601
緑	-10.7601
▁何だと	-10.7602
得られる	-10.7604
ょ	-10.7606
▁止めて	-10.7607
祈り	-10.7608
▁警察が	-10.7609
を教えて	-10.761
経	-10.7612
関わって	-10.7612
▁私はこの	-10.7614
▁裁判	-10.7616
を示す	-10.7616
タス	-10.7619
でしたか	-10.762
国で	-10.7622
▁十	-10.7622
を買って	-10.7626
王様	-10.7626
盗み	-10.7627
頭が	-10.7628
フィー	-10.7628
▁関係ない	-10.7629
何千	-10.7631
来るの	-10.7632
丘	-10.7632
▁さよなら	-10.7633
▁うれしい	-10.7633
ロシア	-10.7634
▁一応	-10.7634
を追い	-10.7634
やるんだ	-10.7634
ジム	-10.7636
ジョーンズ	-10.7637
説明して	-10.7639
の形	-10.7641
▁そのため	-10.7642
生存	-10.7642
カム	-10.7643
▁ばか	-10.7643
▁私のこと	-10.7644
姉さん	-10.7646
に来たの	-10.7647
なれ	-10.7648
多少	-10.7649
人たちは	-10.765
どっち	-10.7651
態	-10.7652
似て	-10.7653
しちゃって	-10.7653
▁♪♪「	-10.7656
筈	-10.7657
録音	-10.7657
姉妹	-10.7658
地震	-10.7659
聞かない	-10.7661
主任	-10.7664
くら	-10.7664
▁フランス	-10.7666
言わせ	-10.7666
にくい	-10.7668
することです	-10.7669
どこへ行く	-10.7675
港	-10.7675
裁判所	-10.7675
の皆さん	-10.7676
売れ	-10.7679
描いた	-10.768
ドラッグ	-10.768
▁半分	-10.7682
巡	-10.7683
▁そんなことは	-10.7687
ないなら	-10.7688
▁スーパー	-10.7688
▁それぞれ	-10.7689
願って	-10.769
授業	-10.7691
守り	-10.7691
ないでください	-10.7695
▁約束する	-10.7696
敗	-10.7701
騎士	-10.7703
修復	-10.7703
信念	-10.7704
人たちが	-10.7706
▁きちんと	-10.771
ゲームを	-10.7711
踊り	-10.7712
わかり	-10.7712
非常	-10.7713
ブラン	-10.7714
よくない	-10.7718
番目	-10.772
▁今も	-10.772
始まって	-10.772
と言います	-10.7721
▁申し訳ない	-10.7723
争い	-10.7724
メアリー	-10.7726
ゴン	-10.7727
権限	-10.7727
苦しい	-10.7728
解析	-10.7728
▁⦅	-10.7729
ナス	-10.7729
両方	-10.7731
電車	-10.7731
最低	-10.7731
独	-10.7731
うまくいく	-10.7733
ボク	-10.7733
▁アレックス	-10.7736
昨	-10.7736
優勝	-10.7737
▁会長	-10.774
心当たり	-10.774
▁なぜだ	-10.7741
ためには	-10.7741
▁おばあちゃん	-10.7741
関係を	-10.7742
ジェームズ	-10.775
膝	-10.775
ヵ月	-10.775
起動	-10.775
誰よりも	-10.775
それだけ	-10.7752
しょ	-10.7753
いいから	-10.7755
▁興味深い	-10.7755
到達	-10.7755
落ちる	-10.7757
を守って	-10.7759
ローン	-10.7765
▁メイ	-10.7766
まったく	-10.7767
争	-10.7767
犠牲に	-10.7769
電源	-10.7773
ミッション	-10.7773
防衛	-10.7774
ワールド	-10.7774
メガネ	-10.7774
寄って	-10.7775
落とし	-10.7778
はここ	-10.7779
をしています	-10.7782
...➡	-10.7782
告げ	-10.7782
▁何もかも	-10.7783
▁真実を	-10.7784
すか	-10.7786
▁靴	-10.7786
寝た	-10.7789
でなければ	-10.779
ミング	-10.779
ここまで	-10.7792
特殊召喚	-10.7792
クール	-10.7797
99	-10.7797
塞	-10.7797
▁マスター	-10.7798
割り	-10.78
▁皆さんに	-10.78
かわいい	-10.7805
騒	-10.7808
▁置いて	-10.781
連中は	-10.7812
導	-10.7812
たけど	-10.7812
何て	-10.7812
ブライ	-10.7813
夕	-10.7814
度に	-10.7815
暗号	-10.7817
ムダ	-10.7817
ルス	-10.7819
クマ	-10.7821
救助	-10.7821
を投げ	-10.7823
▁そちら	-10.7824
収入	-10.7824
下手	-10.7825
▁ダニエル	-10.7826
▁問題ない	-10.7827
君たち	-10.7828
マジ	-10.7832
▁恐ろしい	-10.7832
▁貴方の	-10.7832
ティング	-10.7833
▁なんの	-10.7833
チャンスを	-10.7835
を集め	-10.7837
ラリー	-10.7837
▁うちは	-10.7838
していること	-10.7841
▁ワシントン	-10.7842
憎	-10.7843
勤務	-10.7845
動揺	-10.7845
裏切	-10.7847
▁TED	-10.7848
ったのは	-10.7848
わけではありません	-10.7849
出て行け	-10.785
レーション	-10.785
仲良く	-10.785
▁小さい	-10.785
ーん	-10.7851
電池	-10.7853
▁御	-10.7854
ふり	-10.7854
ことにしました	-10.7857
分間	-10.7858
セキュリティ	-10.7859
話し合い	-10.786
わせ	-10.7862
いただき	-10.7862
▁その通りだ	-10.7864
レーン	-10.7865
貧	-10.7867
詐欺	-10.7867
兆	-10.7868
▁さようなら	-10.7868
捕らえ	-10.7868
悲し	-10.7868
話をする	-10.7868
奴等	-10.787
エリア	-10.787
一生懸命	-10.7871
出さない	-10.7873
忘れない	-10.7873
▁駄目だ	-10.7875
回転	-10.7875
誰もいない	-10.788
の上で	-10.788
▁V	-10.7883
▁カール	-10.7883
さないと	-10.7888
典	-10.789
道は	-10.7891
仏	-10.7892
かも知れない	-10.7892
任せろ	-10.7893
閉	-10.7893
シカゴ	-10.7894
▁国際	-10.7894
▁フィル	-10.7895
の中には	-10.7895
何なの	-10.7896
ソール	-10.7897
の様に	-10.7898
候補	-10.7899
っちゃって	-10.79
▁‐	-10.79
万円	-10.7903
提出	-10.791
クリス	-10.7911
何処	-10.7912
熟	-10.7914
攻撃を	-10.7915
グローバル	-10.7916
盗まれた	-10.7916
上げた	-10.7917
▁大体	-10.7918
日常	-10.792
イラン	-10.792
気持ちを	-10.7921
通過	-10.7921
W	-10.7922
に関しては	-10.7924
構	-10.7925
ブン	-10.7927
会え	-10.7927
最高だ	-10.793
解決する	-10.7933
▁どうすればいい	-10.7933
▁お客さん	-10.7934
かもね	-10.7938
相棒	-10.7939
国境	-10.794
封印	-10.794
企画	-10.794
保存	-10.794
▁せめて	-10.7941
運営	-10.7941
保管	-10.7941
▁違うわ	-10.7941
は皆	-10.7943
執	-10.7944
ch	-10.7946
▁彼も	-10.7946
人だった	-10.7947
を着て	-10.7948
って言うの	-10.7949
したいと思います	-10.795
と話した	-10.795
こんな感じ	-10.7951
送信	-10.7951
載って	-10.7952
を取った	-10.7953
ジェダイ	-10.7954
離婚	-10.7954
失った	-10.7957
ハッピー	-10.796
似た	-10.796
言うんだ	-10.7961
労	-10.7963
しかし	-10.7964
▁相変わらず	-10.7964
スカイ	-10.7964
センサー	-10.7965
注意を	-10.7966
軍曹	-10.7967
時も	-10.7968
が必要なんだ	-10.7969
リアン	-10.7972
優秀	-10.7974
野さん	-10.7975
やつら	-10.7977
温度	-10.7977
ストラ	-10.7979
地点	-10.798
▁ドイツ	-10.7981
▁いいんだ	-10.7981
クソ野郎	-10.7983
彼らに	-10.7984
▁世の中	-10.7986
うる	-10.7987
一定	-10.7987
涼	-10.7988
何かある	-10.7988
できるのです	-10.7988
うんざり	-10.7988
自慢	-10.7989
伝言	-10.7989
▁300	-10.7991
▁携帯電話	-10.7993
慣れて	-10.7996
合わない	-10.7996
此	-10.7996
重大な	-10.7999
宅	-10.8003
ようなこと	-10.8004
絵を	-10.8004
▁兄さん	-10.8005
度と	-10.8008
ウォー	-10.8009
▁遊星	-10.8012
宿題	-10.8013
最中	-10.8015
換え	-10.8015
弾丸	-10.8016
家は	-10.8016
別れた	-10.8017
があったら	-10.8018
▁子供の頃	-10.8021
外科医	-10.8023
第三	-10.8025
▁人々が	-10.8025
いただきます	-10.8029
▁199	-10.8031
請	-10.8035
落とす	-10.8036
嫉妬	-10.8036
翔	-10.8036
;	-10.8036
其	-10.8036
殆ど	-10.8036
くだらない	-10.8037
ユニット	-10.8037
の脳	-10.8039
謝罪	-10.804
描く	-10.8041
太郎	-10.8044
かれて	-10.8044
おきます	-10.8045
処	-10.8046
▁どこ行く	-10.8046
の間で	-10.8049
イチ	-10.805
▁わざと	-10.8052
ベリー	-10.8056
巻き込まれ	-10.8056
与える	-10.8058
ビジョン	-10.8058
▁いくつかの	-10.8058
庁	-10.806
なお	-10.8061
キャプテン	-10.8061
▁シャーロック	-10.8061
オリビア	-10.8061
測定	-10.8061
トンネル	-10.8062
作られた	-10.8066
レル	-10.8068
▁本当だ	-10.8068
▁こっちへ	-10.8068
大陸	-10.807
ここに居る	-10.8075
池	-10.8076
家族に	-10.8081
言ったら	-10.8083
と呼ばれ	-10.8084
エイリアン	-10.8085
さず	-10.8088
洋	-10.809
▁なにか	-10.8093
達に	-10.8093
幸い	-10.8097
入れた	-10.8098
ことでした	-10.81
ベルト	-10.8101
迎えに	-10.8101
誰かに	-10.8105
驚いた	-10.8109
浸	-10.8109
講演	-10.811
▁タクシー	-10.811
ジェイコブ	-10.8111
りする	-10.8114
独立	-10.8116
結果を	-10.8117
一生	-10.8118
が好きだ	-10.8119
▁おいで	-10.812
踊	-10.8123
テイ	-10.8129
▁どうだった	-10.813
出産	-10.8132
を送って	-10.8132
▁何なんだ	-10.8137
言ったこと	-10.8145
十分だ	-10.8145
火事	-10.8147
チョコ	-10.815
する気	-10.8151
ることができる	-10.8151
▁エディ	-10.8152
▁この事件	-10.8153
静かに	-10.8154
談	-10.8156
ブランド	-10.8158
沼	-10.8158
絶望	-10.8159
▁単に	-10.8159
仮	-10.8159
んすか	-10.8161
誇	-10.8162
聞こえない	-10.8167
の力を	-10.8167
に会って	-10.8168
ことになった	-10.8173
▁そのとき	-10.8175
することに	-10.8176
雷	-10.8178
人間を	-10.8179
▁明日の	-10.8179
▁ところが	-10.8181
を盗んだ	-10.8183
エレベーター	-10.8184
シカ	-10.8185
つながって	-10.8185
世界中で	-10.8185
貴重な	-10.8186
工学	-10.8188
を知って	-10.8189
届く	-10.8189
直して	-10.8192
ってことだ	-10.8193
に戻った	-10.8194
軍事	-10.8194
▁マリ	-10.8195
高校生	-10.8196
ギル	-10.8196
に向かう	-10.8196
手遅れ	-10.8196
クル	-10.8197
ケア	-10.8202
ふざけ	-10.8202
するための	-10.8202
出来なかった	-10.8203
動画	-10.8205
▁アホ	-10.8205
人目	-10.8207
キュー	-10.8207
賀	-10.8207
象徴	-10.8208
うちの	-10.8208
気になって	-10.8208
▁後悔	-10.8208
どうにか	-10.8209
少々	-10.8211
▁CIA	-10.8212
救急	-10.8213
監視カメラ	-10.822
しておく	-10.8221
考えてた	-10.8223
しそう	-10.8223
手紙を	-10.8224
を送る	-10.8225
を確保	-10.823
▁これからは	-10.8232
司令官	-10.8233
襲撃	-10.8233
美人	-10.8234
に感謝	-10.8234
の記憶	-10.8235
と言えば	-10.8236
体重	-10.824
▁キャリー	-10.824
なかったから	-10.8241
生涯	-10.8242
真剣に	-10.8243
がわかる	-10.825
と聞いた	-10.8251
惑	-10.8254
▁ボブ	-10.8255
廃	-10.8256
アフリカの	-10.8257
吾	-10.8257
腸	-10.8257
蛇	-10.8257
あり得ない	-10.8257
吸収	-10.8257
苦痛	-10.8258
ショット	-10.8258
負傷	-10.826
開いた	-10.8261
大臣	-10.8261
だけなの	-10.8268
消し	-10.8273
同じような	-10.8273
そんなことを	-10.8273
協力して	-10.8275
未来を	-10.8275
▁わかったよ	-10.8275
見ると	-10.8276
▁現在の	-10.8277
us	-10.8278
熊	-10.8282
ここに来た	-10.8282
稼ぎ	-10.8282
修正	-10.8283
来てくれて	-10.8287
チャクラ	-10.8288
▁この間	-10.829
リバー	-10.8292
回路	-10.8292
もしない	-10.8294
誓い	-10.8294
▁じゃあね	-10.8294
は確か	-10.8295
▁クレア	-10.8296
焦	-10.8299
▁ケンカ	-10.83
ドイツ	-10.8302
だれ	-10.8302
に向けて	-10.8302
回も	-10.8302
▁食べ物	-10.8303
どうするつもり	-10.8303
カタ	-10.8304
to	-10.8305
幅	-10.8306
癖	-10.8307
絶滅	-10.8307
ありがたい	-10.8307
▁ったく	-10.8308
わかりました	-10.8309
▁トミー	-10.8309
の価値	-10.8309
を変えて	-10.8311
cm	-10.8312
伝統	-10.8314
配達	-10.8316
が原因	-10.8316
ジェン	-10.8317
たびに	-10.8321
狩	-10.8323
殺してやる	-10.8325
斬	-10.8326
却	-10.8328
勤め	-10.8328
なんですが	-10.833
見てくれ	-10.833
拭	-10.8332
かえ	-10.8332
ブラジル	-10.8332
を愛してる	-10.8334
てくる	-10.8335
演じ	-10.8337
ナンバーズ	-10.8338
▁信じる	-10.834
重要です	-10.8344
基本的な	-10.8346
▁まっ	-10.8348
んだろうな	-10.8349
同じことを	-10.8351
カネ	-10.8358
を利用して	-10.8359
▁気をつけろ	-10.8361
の言う通り	-10.8363
過ち	-10.8364
食う	-10.8365
編	-10.8367
いつでも	-10.8367
かれる	-10.8367
受け入れ	-10.8369
の時代	-10.8371
ことができた	-10.8373
一本	-10.8374
▁先日	-10.8375
▁奥様	-10.8377
▁自分は	-10.8378
を与えた	-10.8378
ネタ	-10.8378
に出て	-10.8381
柱	-10.8382
哦	-10.8382
怎么	-10.8382
▁エド	-10.8384
を召喚	-10.8386
が高い	-10.8388
幼	-10.8391
▁覚悟	-10.8393
▁あした	-10.8395
▁アンナ	-10.8396
無いわ	-10.8397
読む	-10.8397
▁人々の	-10.84
どういうこと	-10.84
▁そんなことない	-10.8403
の命令	-10.8404
死神	-10.8404
▁この辺	-10.8405
アドバイス	-10.8407
キッチン	-10.8407
依存	-10.8407
ランス	-10.8407
単語	-10.8408
何らかの	-10.8408
ばっか	-10.8408
およそ	-10.841
思われ	-10.8411
カップル	-10.8411
リュ	-10.8414
減少	-10.8414
たいと	-10.8415
32	-10.8416
自分達	-10.8419
可能です	-10.8422
決まって	-10.8423
スケ	-10.8423
捕まえて	-10.8424
▁ここに来た	-10.8424
だと思ってる	-10.8425
と結婚	-10.8427
嫌な	-10.8428
リル	-10.8428
てきました	-10.843
占め	-10.8431
皿	-10.8432
化け物	-10.8432
美味しい	-10.8433
▁ted	-10.8433
必要が	-10.8442
もらいます	-10.8442
▁今のところ	-10.8446
多くの人	-10.8446
▁んっ	-10.8449
をかけ	-10.845
▁そうだろ	-10.8453
よこせ	-10.8458
父は	-10.8459
奇妙	-10.8459
海賊	-10.846
確認して	-10.8461
キャリア	-10.8466
ボーイ	-10.8466
溢れ	-10.8467
▁くそっ	-10.8469
▁大した	-10.847
掘り	-10.847
われる	-10.8471
果て	-10.8473
センス	-10.8475
屋上	-10.8477
笑う	-10.8478
方向に	-10.8478
▁彼氏	-10.848
肝	-10.8482
付く	-10.8482
桃	-10.8482
儀式	-10.8483
気はない	-10.8483
だけではなく	-10.8483
信仰	-10.8483
商売	-10.8485
人だけ	-10.8485
取り組み	-10.8487
▁あのさ	-10.8488
んのよ	-10.849
見てない	-10.8492
せずに	-10.8493
手札	-10.8495
▁うそ	-10.8495
ハム	-10.8496
エレ	-10.8496
死なせ	-10.8501
領	-10.8504
▁嫌な	-10.8505
そんな事	-10.8506
ときには	-10.8507
浴び	-10.8508
何者だ	-10.8509
▁授業	-10.8509
こともある	-10.8509
って感じ	-10.851
▁相棒	-10.851
を読んで	-10.851
カシ	-10.8512
とけ	-10.8513
可能性を	-10.8515
局長	-10.8518
人には	-10.8519
使わない	-10.852
考えていた	-10.852
するような	-10.8523
ルイス	-10.8523
を待つ	-10.8526
▁マク	-10.8526
から離れ	-10.8527
みたいだな	-10.8528
一週間	-10.8528
▁心配ない	-10.8529
ソース	-10.8529
お礼	-10.853
問い	-10.8531
屈	-10.8532
后	-10.8533
塊	-10.8533
操縦	-10.8533
整理	-10.8534
きています	-10.8534
選べ	-10.8535
もいない	-10.8536
▁パリ	-10.8538
新しく	-10.854
楽しそう	-10.854
聴いて	-10.8542
のところに	-10.8543
控え	-10.8543
th	-10.8544
パンチ	-10.8545
証拠は	-10.8548
やること	-10.8549
勇敢	-10.855
理解できない	-10.8551
安い	-10.8556
ンダー	-10.8556
直ぐ	-10.8558
スピーチ	-10.8559
▁貴女	-10.856
を作りました	-10.856
関わり	-10.856
生き残る	-10.8561
ネーム	-10.8562
するという	-10.8562
制作	-10.8562
フード	-10.8564
か知ってる	-10.8564
やっと	-10.8565
繰り返す	-10.8566
だけさ	-10.8566
に会いたい	-10.8566
屋さん	-10.8566
▁思ってる	-10.8569
可能性が	-10.857
と言い	-10.8572
ミリ	-10.8573
フー	-10.8573
いたんです	-10.8574
着替え	-10.8575
ピッ	-10.8576
来いよ	-10.8579
ネス	-10.8579
ドゥー	-10.8582
待ってて	-10.8582
我的	-10.8583
勘	-10.8583
▁☎	-10.8583
見張って	-10.8584
講	-10.8584
舌	-10.8584
贈	-10.8584
根拠	-10.8585
起訴	-10.8585
の王	-10.8587
まるで	-10.8588
▁最後まで	-10.8588
と同じだ	-10.8592
落ち着いて	-10.8594
に使う	-10.86
るつもり	-10.8601
いいぞ	-10.8601
復	-10.8604
付いた	-10.8605
ジーン	-10.8607
洗濯	-10.861
チョコレート	-10.861
エイミー	-10.8612
en	-10.8615
と呼んで	-10.8618
まく	-10.8619
待ってた	-10.8621
るんだよ	-10.8621
におい	-10.8622
おかしく	-10.8623
郷	-10.8625
数え	-10.8625
▁なんだか	-10.8626
こういう	-10.8626
過ごして	-10.8627
鍵を	-10.8628
歌って	-10.8628
▁パパが	-10.8632
は関係ない	-10.8633
表示	-10.8635
▁女性の	-10.8635
するだろう	-10.8635
竜	-10.8635
野菜	-10.8638
お姉さん	-10.8641
を提供	-10.8641
抜いて	-10.8642
支払	-10.8642
効率	-10.8643
▁もしも	-10.8645
署名	-10.8646
▁タバコ	-10.8647
リカ	-10.8654
例え	-10.8654
▁私にも	-10.8654
感謝	-10.8654
リオン	-10.8655
科学的	-10.8657
死因	-10.8657
政	-10.8657
クレイ	-10.8658
こうと	-10.866
伸び	-10.8662
展示	-10.8662
しているのか	-10.8663
能力を	-10.8663
▁悪いけど	-10.8665
正面	-10.8666
意見を	-10.8666
集合	-10.8666
スパー	-10.8669
渡り	-10.8669
▁何だか	-10.8671
の一員	-10.8672
いつか	-10.8673
動かない	-10.8675
ハリー	-10.8675
んじゃないですか	-10.8677
の色	-10.8678
▁我々に	-10.8679
すばらしい	-10.868
ティン	-10.8683
ノック	-10.8687
ゲノム	-10.8687
剥	-10.8687
卿	-10.8687
目の前	-10.8687
最新	-10.8689
やってみ	-10.8689
風に	-10.869
っすよ	-10.8694
ゅ	-10.8694
言いたいこと	-10.8695
さぁ	-10.8695
りして	-10.8696
▁前回	-10.8696
が出た	-10.8697
の目的は	-10.8698
オル	-10.8698
より良い	-10.8698
聞かれ	-10.8702
存	-10.8703
答えて	-10.8703
はならない	-10.8707
▁ほかの	-10.8707
けどな	-10.8709
▁来週	-10.8709
を手に入れた	-10.8712
あげよう	-10.8712
を必要とし	-10.8716
臓器	-10.8718
駆	-10.8721
じゃないのか	-10.8721
信号を	-10.8726
の秘密	-10.8726
預け	-10.8726
ハンター	-10.8727
けどさ	-10.873
民間	-10.8731
ヤン	-10.8731
背後	-10.8733
ラブ	-10.8736
▁永遠に	-10.8739
エンジニア	-10.8739
細菌	-10.874
を失って	-10.874
抜く	-10.875
ガード	-10.8752
と違う	-10.8753
ならん	-10.8753
で見た	-10.8755
▁それほど	-10.8756
ed	-10.8759
んだよな	-10.8762
▁あのう	-10.8763
▁ほとんどの	-10.8763
敬	-10.8764
仰	-10.8765
トッド	-10.8765
関係がある	-10.8765
大金	-10.8766
測	-10.877
ステキ	-10.8771
探してる	-10.8773
あの子	-10.8774
ロンドン	-10.8775
壊れた	-10.8776
撮って	-10.8776
ri	-10.8778
発見された	-10.8782
やすく	-10.8784
の誕生日	-10.8785
計画は	-10.8789
きり	-10.8789
▁カーター	-10.8791
失踪	-10.8791
虐待	-10.8791
▁何があったの	-10.8792
許さない	-10.8794
体制	-10.8794
去って	-10.8795
お世話	-10.8798
願う	-10.8798
▁俺たちが	-10.8799
彼と	-10.88
の記録	-10.8802
コナー	-10.8802
語る	-10.8804
が好きなの	-10.881
前進	-10.881
いている	-10.8811
受けた	-10.8814
なんとか	-10.8815
有難う	-10.8818
スライド	-10.8818
クズ	-10.8819
▁遠慮	-10.8819
喜ぶ	-10.8819
を書いて	-10.882
co	-10.8821
であれ	-10.8821
お祝い	-10.8822
▁いくぞ	-10.8824
はいつ	-10.8825
たいなら	-10.8826
との関係	-10.8826
アメリカの	-10.8827
カ月	-10.8829
▁ケガ	-10.8831
▁救急車	-10.8832
自身が	-10.8832
様だ	-10.8835
うまい	-10.8836
元に戻	-10.8837
だけでは	-10.8837
▁ほう	-10.8838
兄ちゃん	-10.884
いじめ	-10.884
載せ	-10.8841
あちこち	-10.8844
▁こうやって	-10.8845
判明	-10.8845
帰ってくる	-10.8845
したいんだ	-10.8849
様は	-10.8849
白い	-10.8851
48	-10.8853
女房	-10.8853
に住んで	-10.8854
調査を	-10.8858
動作	-10.8858
終わ	-10.886
自分に	-10.8862
パリ	-10.8866
知的	-10.8868
ギリシャ	-10.887
追いかけ	-10.887
ソフトウェア	-10.887
警報	-10.887
ようなもの	-10.887
値段	-10.8871
解読	-10.8871
確認した	-10.8872
pc	-10.8874
体内	-10.8874
ある種の	-10.8874
番だ	-10.888
者です	-10.8881
簡単だ	-10.8882
捕	-10.8882
何が起こって	-10.8884
入り口	-10.8887
言ったんだ	-10.8887
▁残りの	-10.8889
パンツ	-10.8889
が始まる	-10.8889
過ごし	-10.889
に手を	-10.8892
女だ	-10.8893
▁この場所	-10.8894
ことがない	-10.8895
カワイイ	-10.8897
▁世界は	-10.8897
看護師	-10.8897
ワル	-10.8901
▁見つける	-10.8901
怖	-10.8902
▁白い	-10.8905
に乗り	-10.8907
を求める	-10.8907
ジェット	-10.8913
我が	-10.8914
考えろ	-10.8915
ありがとうございます	-10.8917
なりそう	-10.8918
言わせて	-10.8918
魅力的	-10.892
ブロ	-10.8921
のやり方	-10.8922
嬢	-10.8922
▁ウチの	-10.8922
解け	-10.8923
飾	-10.8923
皮肉	-10.8925
ごろ	-10.8927
結婚した	-10.8928
捕まった	-10.8932
デモ	-10.8932
个	-10.8932
ボストン	-10.8933
捕まえ	-10.8934
▁人間は	-10.8935
▁ジュリア	-10.8936
ストン	-10.8937
マリ	-10.8937
店長	-10.8938
のためだ	-10.894
そう言う	-10.8942
何者か	-10.8944
認めて	-10.8946
娘は	-10.8947
ヒット	-10.8947
おきたい	-10.8947
逮捕する	-10.8947
瓶	-10.8948
そう言った	-10.8949
実は	-10.8949
se	-10.895
警察官	-10.895
▁キャロル	-10.895
潜入	-10.8952
▁うわぁ	-10.8952
サイド	-10.8953
呼び出し	-10.8955
心配して	-10.8958
いいんです	-10.896
質問は	-10.8961
歳の時	-10.8965
盗んで	-10.8965
▁後は	-10.8967
突き止め	-10.8969
が殺された	-10.897
挙	-10.897
ロット	-10.897
遭	-10.8975
様が	-10.8975
レイチェル	-10.8976
堅	-10.8976
詞	-10.8976
派遣	-10.8977
滞在	-10.8977
のを見た	-10.8978
隠した	-10.8979
を開け	-10.898
ゴメン	-10.8982
に乗る	-10.8982
ピア	-10.8983
▁乾杯	-10.8984
▁わかったわ	-10.8985
眠って	-10.8987
歌を	-10.8987
の名前を	-10.8993
フェル	-10.8994
ないのに	-10.8995
みたら	-10.8995
まれて	-10.8995
個の	-10.8996
と思いますが	-10.8996
令	-10.8998
ジュン	-10.9
鈴	-10.9001
となりました	-10.9002
ドアを	-10.9003
評判	-10.9003
援護	-10.9003
ミラー	-10.9003
お父様	-10.9003
するなんて	-10.9005
叩	-10.9006
気をつけて	-10.9006
さないで	-10.9008
分らない	-10.9008
見かけ	-10.9008
▁おじいちゃん	-10.901
▁午後	-10.9013
作用	-10.9016
というか	-10.9016
答	-10.9019
食って	-10.902
は常に	-10.902
キャラ	-10.9026
香り	-10.9027
の木	-10.9028
▁ヤツら	-10.9029
収穫	-10.9029
往	-10.9029
いくつかの	-10.9031
込まれ	-10.9032
コーチ	-10.9032
シャワー	-10.9035
娘を	-10.9039
んだぜ	-10.9039
言っても	-10.904
▁cia	-10.9041
されていない	-10.9041
クレー	-10.9042
スカ	-10.9042
治療法	-10.9045
誰なの	-10.9049
▁何してるの	-10.9051
オブ	-10.9051
▁どこの	-10.9052
いいな	-10.9053
嘘をついて	-10.9054
as	-10.906
▁アーサー	-10.906
合成	-10.906
の位置	-10.9061
車両	-10.9063
視点	-10.9064
シス	-10.9064
は同じ	-10.9065
は全く	-10.9065
キャン	-10.907
そうなる	-10.9071
▁トニー	-10.9072
▁ジェシー	-10.9072
いくつ	-10.9073
ことじゃない	-10.9074
29	-10.9074
立った	-10.9075
群れ	-10.9076
コム	-10.9076
昇	-10.9077
痕	-10.9077
何の用	-10.9079
▁もっとも	-10.908
恐れる	-10.9082
▁何もない	-10.9083
印刷	-10.9083
排除	-10.9083
隠してる	-10.9084
えない	-10.9087
を理解する	-10.9088
つ目は	-10.9088
どれくらい	-10.9089
繋がって	-10.909
▁ほかに	-10.909
手法	-10.9096
農業	-10.9096
してるわ	-10.9101
といえば	-10.9105
ヶ月前	-10.9105
突っ	-10.9106
負ける	-10.9109
ところを	-10.9109
沙	-10.911
100%	-10.9111
時まで	-10.9111
現状	-10.9112
の底	-10.9113
ベイビー	-10.9113
突入	-10.9114
光を	-10.9118
史上	-10.9119
と言うの	-10.912
活用	-10.9121
▁心配しないで	-10.9121
双子	-10.9125
ちゃダメ	-10.9125
しゃべ	-10.9126
みたいです	-10.9127
を買い	-10.9129
捜	-10.9129
持ってない	-10.9131
研究者	-10.9132
うな	-10.9133
払え	-10.9133
施	-10.9135
潮	-10.9137
セクシー	-10.9137
▁たまたま	-10.9137
以降	-10.9138
の代わりに	-10.9141
28	-10.9143
我々に	-10.9145
なれる	-10.9145
島さん	-10.9148
国々	-10.9151
を調べる	-10.9152
見られます	-10.9152
大丈夫か	-10.9153
進み	-10.9154
国際	-10.9155
書かれて	-10.9157
▁皆さんの	-10.9158
億人	-10.9158
威	-10.9162
▁逃げて	-10.9163
ta	-10.9163
もんな	-10.9163
思いを	-10.9164
描き	-10.9165
ゴードン	-10.9166
ゲル	-10.9167
的なもの	-10.917
ヘッド	-10.9175
くれました	-10.9175
ーい	-10.9177
認められ	-10.9178
没有	-10.9179
店に	-10.9181
何者	-10.9183
もう少し	-10.9184
いなくなった	-10.9185
受け取った	-10.9186
トム	-10.9187
当たる	-10.9188
じゃねぇ	-10.9189
クモ	-10.9189
チャンピオン	-10.9191
▁いよいよ	-10.9191
撤退	-10.9192
▁いいかい	-10.9193
下で	-10.9196
なっている	-10.9197
家族を	-10.9198
▁その間	-10.92
叩き	-10.92
するでしょう	-10.92
の映像	-10.9202
出てる	-10.9202
相手を	-10.9204
直感	-10.9204
に集中	-10.9206
一回	-10.9211
▁地元の	-10.9217
思える	-10.9218
津	-10.9218
セリフ	-10.9219
人生で	-10.9219
次は	-10.922
那个	-10.9221
現地	-10.9225
フェア	-10.9227
話している	-10.923
カフェ	-10.923
望んだ	-10.9232
キッド	-10.9232
驚か	-10.9235
しばらく	-10.9236
アリス	-10.9237
が起こる	-10.9238
26	-10.9242
磨	-10.9242
▁いらっしゃい	-10.9243
取り引き	-10.9245
重要なこと	-10.9245
傍	-10.9246
▁うるせえ	-10.9246
解釈	-10.9246
フェイ	-10.9248
ブラッド	-10.9249
告	-10.9249
お伝え	-10.925
▁これからも	-10.9251
ハッキング	-10.9252
やれば	-10.9255
エア	-10.9255
li	-10.9256
聞こえ	-10.9258
戻ら	-10.9259
んでいる	-10.9261
けば	-10.9263
ここに居	-10.9263
近くの	-10.9266
植え	-10.9267
▁世間	-10.9268
仕方	-10.9268
ネー	-10.9268
戦場	-10.9273
遇	-10.9273
気候変動	-10.9273
玄関	-10.9273
ジュース	-10.9274
殺さない	-10.9275
叫び	-10.9275
▁よーし	-10.9276
欲しくない	-10.9278
国連	-10.9279
メイド	-10.9279
かっこいい	-10.9279
電話番号	-10.9282
まっすぐ	-10.9282
▁皆さんが	-10.9284
緒	-10.9288
ロープ	-10.9288
隠す	-10.9288
きたんだ	-10.9294
微生物	-10.9298
兄貴	-10.9298
わせて	-10.9299
連れてきた	-10.9299
无	-10.9299
ハッ	-10.93
紅	-10.9301
適当	-10.9302
▁パトリック	-10.9302
教えてください	-10.9303
遊ぶ	-10.9304
▁何をする	-10.9306
になるわ	-10.9306
理由がある	-10.9307
おもしろい	-10.9308
掘	-10.9311
▁真の	-10.9313
溶け	-10.9314
リアル	-10.9316
ことができました	-10.9316
重力	-10.9319
使えない	-10.9321
折り	-10.9325
中学	-10.9326
すべきだ	-10.9327
置いた	-10.9327
▁ちっ	-10.9328
她	-10.9328
トーマス	-10.9329
期待して	-10.933
▁私だって	-10.9332
ケル	-10.9333
かもしれないけど	-10.9335
えっ	-10.9335
クリア	-10.9336
方が良い	-10.9342
を開けて	-10.9342
▁ロバート	-10.9343
含	-10.9344
出来ません	-10.9344
どうでもいい	-10.9347
可以	-10.935
許す	-10.9351
起こって	-10.9351
狂ってる	-10.9352
チキン	-10.9354
障	-10.9355
壊れて	-10.9355
すなわち	-10.9356
基礎	-10.9356
止まる	-10.9357
秘書	-10.9358
採用	-10.936
勝てる	-10.9362
殺さ	-10.9363
の様な	-10.9364
ウォール	-10.9365
▁相手の	-10.937
ビット	-10.937
どうだい	-10.9373
設	-10.9374
▁古代	-10.9377
ヨー	-10.9378
▁極めて	-10.938
と思われる	-10.9382
遣	-10.9383
を狙って	-10.9383
胃	-10.9384
へようこそ	-10.9384
時間の	-10.9384
を入れて	-10.9384
アマンダ	-10.9384
復帰	-10.9384
営業	-10.9384
確実	-10.9385
応用	-10.9386
近づけ	-10.9386
の多くは	-10.9387
聖書	-10.9388
船を	-10.9388
ぽ	-10.9391
を破壊し	-10.9391
部屋を	-10.9391
公表	-10.9392
センチ	-10.9392
してみる	-10.9395
駄目だ	-10.9395
と思うわ	-10.9396
▁息子さん	-10.94
一年	-10.9401
▁ここだ	-10.9401
150	-10.9402
さっき	-10.9402
ハラ	-10.9402
ベース	-10.9403
心理	-10.9404
消して	-10.9404
氏は	-10.9404
▁リサ	-10.9407
呼べ	-10.9409
勤	-10.9409
寝室	-10.9409
アラ	-10.9409
浅	-10.9409
台無し	-10.941
の所に	-10.941
研	-10.9411
毎晩	-10.9413
結構です	-10.9414
役立つ	-10.9414
メリ	-10.9414
出来ます	-10.9415
用心	-10.9416
再現	-10.9417
全国	-10.9418
▁助かった	-10.9418
オリ	-10.942
ではないのです	-10.942
ることができます	-10.9421
店で	-10.9424
パラ	-10.9429
未知	-10.9433
歳で	-10.9434
する必要があります	-10.9434
ブルース	-10.9435
ライブ	-10.9437
▁そういうの	-10.9438
否	-10.9438
▁彼は私	-10.9439
を見てる	-10.944
マット	-10.944
気にする	-10.9441
ボード	-10.9441
いいね	-10.9443
数千	-10.9443
内側	-10.9443
はどうした	-10.9444
話せない	-10.9445
永遠に	-10.9447
事務	-10.9447
だとしたら	-10.9449
壊れ	-10.9449
政治的	-10.9454
重要だ	-10.9456
▁どういう意味だ	-10.9457
助けが必要	-10.9458
乗る	-10.9459
おうと	-10.946
コレ	-10.9461
漏れ	-10.9461
ように見える	-10.9464
興	-10.9466
仮説	-10.9468
進展	-10.9468
見解	-10.9468
を見ている	-10.9472
パート	-10.9473
話をして	-10.9475
に任せて	-10.9476
▁ショーン	-10.9479
意味で	-10.9479
虐殺	-10.948
ちがう	-10.948
と話す	-10.9481
を送り	-10.9482
手伝ってくれ	-10.9484
▁だからこそ	-10.9484
座れ	-10.9485
サッカー	-10.9487
に必要な	-10.9488
と思わない	-10.9489
夜に	-10.9489
ケガ	-10.949
何してる	-10.9492
▁お客様	-10.9495
だけだよ	-10.9495
プラスチック	-10.9495
リラックス	-10.9495
シーズン	-10.9495
畜生	-10.9496
ペンギン	-10.9496
効果的	-10.9496
おもちゃ	-10.9497
必要とする	-10.9498
単に	-10.9499
聞こえて	-10.9499
二度と	-10.95
ぼく	-10.95
ってことか	-10.9502
▁地球の	-10.9503
▁止まれ	-10.9506
理由で	-10.9507
見てきた	-10.9508
サイモン	-10.9509
無罪	-10.9509
勇	-10.9509
囲	-10.9509
会社は	-10.9509
日前	-10.9514
るんじゃない	-10.9515
▁こっちの	-10.9515
地に	-10.9521
己	-10.9522
隅	-10.9523
柳	-10.9523
ストーリー	-10.9523
分かり	-10.9523
激しい	-10.9525
衣装	-10.9526
引いて	-10.9528
精神的	-10.9531
の中心	-10.9534
マウス	-10.9536
コフ	-10.9539
だけじゃ	-10.9541
でもあります	-10.9542
ってしまった	-10.9546
ハッカー	-10.9548
什麼	-10.9552
緩	-10.9552
这样	-10.9552
を与えて	-10.9552
ばかりだ	-10.9553
編集長	-10.9553
▁ビリー	-10.9556
ストーン	-10.9557
フラッシュ	-10.9558
しなければなりません	-10.9558
▁おかげで	-10.9559
エス	-10.9559
用事	-10.956
深刻な	-10.9564
the	-10.9565
不安定	-10.9566
▁ワシ	-10.9569
欲しいんだ	-10.9569
分かりました	-10.957
手続き	-10.9574
ようですね	-10.9576
乾	-10.958
出て行く	-10.958
パスワード	-10.958
▁他には	-10.9581
だもん	-10.9582
明かり	-10.9586
裏切り者	-10.9587
町の	-10.9587
泣	-10.959
行かせ	-10.9591
会社が	-10.9592
壊す	-10.9593
教えてくれる	-10.9593
物体	-10.9593
例です	-10.9595
見てください	-10.9598
やったんだ	-10.9599
買え	-10.9599
を発見	-10.9602
人じゃない	-10.9603
カレー	-10.9604
ここに来て	-10.9605
女に	-10.9608
承認	-10.9608
栄養	-10.9608
映像を	-10.9608
大半	-10.9609
▁へぇ	-10.961
に関わる	-10.9612
るなよ	-10.9612
込まれた	-10.9613
動脈	-10.9615
価	-10.9622
気か	-10.9623
構え	-10.9626
おこう	-10.9628
真是	-10.9629
行ってくる	-10.9629
故	-10.9632
を取り戻す	-10.9635
だろうね	-10.9638
中尉	-10.9638
事実を	-10.9638
はずだった	-10.9642
アルファ	-10.9642
作動	-10.9643
向かって	-10.9643
の正体	-10.9646
理解できる	-10.9646
開く	-10.9649
の匂い	-10.9649
▁次回	-10.965
no	-10.965
経って	-10.9652
ないのよ	-10.9652
▁何のこと	-10.9653
患者が	-10.9653
たとき	-10.9655
思わなかった	-10.9656
渡る	-10.9656
ca	-10.9659
どころか	-10.9664
奏	-10.9665
凛	-10.9665
とっくに	-10.9665
砂糖	-10.9665
と申します	-10.9666
生まれる	-10.9667
億円	-10.9668
気付いて	-10.9668
▁そうして	-10.9669
に居た	-10.967
は別	-10.967
死刑	-10.9671
▁お待たせ	-10.9673
があるのか	-10.9673
止めた	-10.9674
呪文	-10.9674
遺伝	-10.9676
んじゃないかな	-10.9677
っていました	-10.968
ずる	-10.9681
するのを	-10.9684
に電話して	-10.9684
こともできます	-10.9685
千万	-10.9685
テッド	-10.9686
ということを	-10.9688
デルタ	-10.9689
向上	-10.9689
化する	-10.969
眠れ	-10.9691
から聞いた	-10.9693
バカな	-10.9694
グラム	-10.9695
カナダ	-10.9695
設置	-10.9695
並べ	-10.9696
mi	-10.9697
みなさん	-10.9697
▁今週	-10.9698
で最も	-10.9698
に従って	-10.9699
“	-10.9699
から連絡	-10.9702
文字通り	-10.9702
に出る	-10.9702
さい	-10.9705
帳	-10.9707
怒る	-10.9712
史	-10.9712
があるんです	-10.9713
▁お願いだ	-10.9714
プス	-10.9717
逮捕された	-10.9718
浜	-10.9722
塚	-10.9722
妖精	-10.9723
見せた	-10.9723
採取	-10.9723
▁神は	-10.9727
フィート	-10.973
サメ	-10.9732
なんでしょう	-10.9733
安全な場所	-10.9733
暑い	-10.9734
そうですね	-10.9736
近づく	-10.9737
集会	-10.9738
▁あんなに	-10.974
もんか	-10.974
るかも	-10.9741
狙われ	-10.9742
に従う	-10.9743
他にも	-10.9746
島に	-10.9746
ジェーン	-10.9747
攻	-10.9748
応え	-10.9748
貫	-10.9749
透	-10.975
があるのです	-10.975
ホテルの	-10.9751
こんばんは	-10.9751
博物館	-10.9751
住んでる	-10.9753
幸	-10.9754
やれよ	-10.9755
出しました	-10.9756
申し上げ	-10.9756
亡くなって	-10.9757
▁ええっ	-10.9759
とは思えない	-10.976
の違い	-10.976
軽い	-10.976
当局	-10.9761
無限	-10.9762
あそこ	-10.9763
見られ	-10.9763
待ってろ	-10.9763
スキル	-10.9766
例外	-10.9767
が必要な	-10.9769
酔って	-10.9769
暗殺	-10.9773
ラウンド	-10.9777
ランプ	-10.9777
かつて	-10.9778
留め	-10.9778
できたら	-10.9779
ことができ	-10.9782
切断	-10.9782
んじゃないのか	-10.9784
▁リチャード	-10.9784
シャン	-10.9785
性的	-10.9786
服を	-10.9787
ドリ	-10.9787
置け	-10.9788
三人	-10.979
地域の	-10.979
血管	-10.9791
仕え	-10.9792
はるかに	-10.9793
▁私から	-10.9796
君も	-10.9797
思えない	-10.9799
と思ったら	-10.9803
実に	-10.9804
スーパー	-10.9804
党	-10.9805
研究を	-10.9807
デラ	-10.9807
秘密を	-10.9809
トロン	-10.981
共感	-10.9811
同情	-10.9812
模様	-10.9813
頼まれた	-10.9813
こんなことを	-10.9817
レーザー	-10.9821
する方法	-10.9823
▁どうしたらいい	-10.9828
の件で	-10.9829
どこへ	-10.9832
光栄です	-10.9833
▁明日は	-10.9833
した後	-10.9834
りたい	-10.9836
让	-10.9838
▁勿論	-10.9838
取り組む	-10.9839
ゾーン	-10.984
仲間が	-10.984
フェンス	-10.9842
ログ	-10.9842
くそ	-10.9845
はあるか	-10.9847
の影響	-10.9847
を食べる	-10.9849
質問に答え	-10.985
常識	-10.9852
思っていた	-10.9855
▁皆さんは	-10.9855
働いている	-10.9857
ようになります	-10.986
住んでいる	-10.9865
益	-10.9866
仕事で	-10.9867
〟	-10.9867
売って	-10.9867
示す	-10.9868
きなさい	-10.9869
大尉	-10.9869
ゴルフ	-10.9869
恨み	-10.987
起こっている	-10.9874
大規模な	-10.9875
間違いない	-10.9876
大丈夫なの	-10.9877
なんだろ	-10.9877
年後に	-10.9879
の攻撃力	-10.988
外出	-10.988
誰もが	-10.9883
みたいなもの	-10.9884
▁あんたも	-10.9885
してんの	-10.9888
化した	-10.9888
歌う	-10.9891
わけには	-10.9897
会わせ	-10.9897
▁待ってください	-10.9898
レイプ	-10.9905
たくさんの	-10.9908
バター	-10.9909
一つだけ	-10.991
▁アレク	-10.9912
ニューロン	-10.9912
共通	-10.9913
食べたい	-10.9914
入ります	-10.9915
させてください	-10.9915
パニック	-10.9916
桜木	-10.9917
なったら	-10.9918
話です	-10.992
延	-10.992
どうするんだ	-10.9925
イスラエル	-10.9925
オーストラリア	-10.9925
木ノ葉	-10.9925
匿名	-10.9926
わかんない	-10.9926
なかったのか	-10.9928
叔父	-10.9928
起きてる	-10.9932
エネルギーを	-10.9934
欠け	-10.9935
も一緒に	-10.9936
あるもの	-10.9937
性質	-10.994
拍	-10.9941
▁できるだけ	-10.9943
ブタ	-10.9944
答える	-10.9946
捜して	-10.9946
言ってるんだ	-10.9947
では無い	-10.9947
海に	-10.995
室で	-10.9952
カギ	-10.9952
であっても	-10.9953
宗	-10.9954
実験を	-10.9954
ふさわしい	-10.9955
ドライバー	-10.9955
習慣	-10.9955
这个	-10.9955
▁いいかげん	-10.9955
婚約	-10.9956
られたら	-10.9956
▁どこにも	-10.996
無関係	-10.9961
ケット	-10.9961
手掛かり	-10.9961
ロボ	-10.9962
もまた	-10.9963
シング	-10.9966
言えます	-10.9967
災	-10.9969
ニン	-10.9971
見捨て	-10.9973
知ってるのか	-10.9974
殺人者	-10.9974
▁何度	-10.9977
国王	-10.9981
割れ	-10.9982
面接	-10.9984
コミュニケーション	-10.9984
成し遂げ	-10.9984
親戚	-10.9984
に戻	-10.9985
GPS	-10.9985
快適	-10.9985
パイプ	-10.9992
つつ	-10.9992
▁お願いだから	-10.9995
地位	-10.9995
ジェリー	-10.9997
がないと	-11.0002
▁あのとき	-11.0003
俺も	-11.0004
ur	-11.0006
武	-11.0007
お別れ	-11.0009
ゃ	-11.0009
un	-11.0011
人もいる	-11.0011
辞めた	-11.0012
封鎖	-11.0014
隔離	-11.0014
側の	-11.0014
森林	-11.0018
ほか	-11.0019
はどうする	-11.002
タウン	-11.0022
を覚えてる	-11.0022
方々	-11.0023
ないんですか	-11.0024
尾行	-11.0025
▁よせ	-11.0026
技術者	-11.0027
すまない	-11.0031
ほら	-11.0031
サーバー	-11.0031
火を	-11.0031
を殺せ	-11.0033
レスター	-11.0037
進行	-11.0037
家に帰る	-11.0038
晴れ	-11.0041
証明する	-11.0042
▁俺達の	-11.0042
冷蔵庫	-11.0043
緑の	-11.0045
スキ	-11.0045
▁頼むから	-11.0047
の中から	-11.005
気づく	-11.0052
を助けて	-11.0053
発見した	-11.0055
のメンバー	-11.0057
のうちに	-11.0057
とっても	-11.0057
が見えます	-11.0059
弱点	-11.0064
嫌われ	-11.0065
抑え	-11.0065
世紀の	-11.0067
マラ	-11.007
使い方	-11.0071
受ける	-11.0071
けない	-11.0072
いわゆる	-11.0073
吸血鬼	-11.0073
鑑識	-11.0073
デレク	-11.0073
お手伝い	-11.0073
▁もともと	-11.0073
麻酔	-11.0074
見つかって	-11.0074
職業	-11.0075
一晩中	-11.0076
女と	-11.0077
▁お帰り	-11.0077
伝えた	-11.0078
クライ	-11.0079
やめなさい	-11.008
生物学	-11.0082
レア	-11.0083
を追う	-11.0084
事はない	-11.0085
どうなる	-11.0085
しちゃう	-11.0088
ション	-11.0089
原子	-11.0089
われた	-11.0091
を破壊する	-11.0092
時刻	-11.0092
答えを	-11.0092
難い	-11.0092
マク	-11.0093
が居る	-11.0097
を始める	-11.0098
がなければ	-11.0102
gps	-11.0102
サンフランシスコ	-11.0102
バッテリー	-11.0102
請求	-11.0103
缶	-11.0103
告発	-11.0103
つだけ	-11.0104
エラ	-11.0108
数週間	-11.0109
75	-11.0113
触る	-11.0113
入らない	-11.0115
幾	-11.0115
た方がいい	-11.0116
こんなこと	-11.0116
聞かせ	-11.0116
妻と	-11.0117
死なない	-11.0118
しなくて	-11.012
あう	-11.0122
を読み	-11.0123
▁いいだろう	-11.0126
不可	-11.0128
▁実際には	-11.0128
生じ	-11.0129
変だ	-11.0129
小学校	-11.0129
全体の	-11.013
▁この子は	-11.0131
適応	-11.0133
ぴったり	-11.0133
止まった	-11.0133
バラバラ	-11.0134
ネルソン	-11.0134
就職	-11.0136
スラ	-11.0137
廊下	-11.0137
されたら	-11.0138
雇用	-11.0139
でないと	-11.014
戻ってきて	-11.0141
ヒント	-11.0142
苦しんで	-11.0142
を捕まえる	-11.0151
クッキー	-11.0154
やるから	-11.0155
可愛	-11.0155
受信	-11.0156
▁リズボン	-11.0157
本気	-11.0157
ることで	-11.0158
芸術家	-11.0159
荷物を	-11.0159
プライバシー	-11.0162
彩	-11.0162
滝	-11.0162
滴	-11.0162
洞窟	-11.0162
児童	-11.0162
宣言	-11.0162
伝えてくれ	-11.0163
▁ジミー	-11.0163
内緒	-11.0164
助言	-11.0164
振る	-11.0165
気持ちが	-11.0165
やるぞ	-11.0167
言ったように	-11.0171
一緒だった	-11.0175
出ろ	-11.0175
好きじゃない	-11.0177
アプリ	-11.0177
ねえんだよ	-11.0177
いいですね	-11.0178
書け	-11.0178
を見つけました	-11.0179
選ぶ	-11.018
▁君たちは	-11.0181
▁実際は	-11.0182
ブリー	-11.0182
悔	-11.0183
気づき	-11.0183
ってくれる	-11.0184
ビビ	-11.0185
らぬ	-11.0186
経済的	-11.0189
入学	-11.0189
昼食	-11.019
脇	-11.0192
见	-11.0192
に置いて	-11.0192
タダ	-11.0193
合図	-11.0196
原理	-11.0198
にとっても	-11.02
を発見した	-11.02
悩み	-11.0201
似てる	-11.0203
焼け	-11.0204
かせて	-11.0208
ようで	-11.0209
祈る	-11.021
百万	-11.0211
れている	-11.0212
開ける	-11.0218
婦人	-11.0222
蟲	-11.0222
慈善	-11.0222
遺産	-11.0224
出かけ	-11.0227
を捜して	-11.0227
タンク	-11.0228
行ってくれ	-11.0229
は無かった	-11.023
スティン	-11.023
いいんだよ	-11.0236
らどうだ	-11.0237
積み	-11.0238
授	-11.0242
出番	-11.0246
▁犯人が	-11.0249
喰	-11.025
モア	-11.025
らっしゃい	-11.0251
うれしい	-11.0252
陛下	-11.0252
犯した	-11.0252
鈍	-11.0253
クリーム	-11.0253
当たって	-11.0253
ッコ	-11.0254
なってきた	-11.0254
受け取って	-11.0256
ネコ	-11.0257
暴行	-11.0257
帰宅	-11.0258
シップ	-11.026
手錠	-11.0261
分後に	-11.0264
という言葉	-11.0269
させること	-11.0271
りん	-11.0272
大きさ	-11.0274
レム	-11.0275
チェン	-11.0281
があるなら	-11.0281
レポート	-11.0282
何百万	-11.0283
研修	-11.0283
ウェブサイト	-11.0284
知恵	-11.0284
乗せて	-11.0284
出席	-11.0285
の方に	-11.0286
人格	-11.0289
5000	-11.0289
一日中	-11.0289
と話して	-11.0289
をつける	-11.0289
つまらない	-11.029
▁わしは	-11.0293
▁奴らが	-11.0293
賞金	-11.0293
こうなる	-11.0294
ようになって	-11.0295
▁調子は	-11.0298
逃亡	-11.0303
▁どうもありがとう	-11.0304
単	-11.0305
たくさんある	-11.0311
頭痛	-11.0313
恐竜	-11.0314
ウィリアム	-11.0314
トランク	-11.0314
急に	-11.0315
発砲	-11.0316
の準備を	-11.0319
ロビー	-11.0319
出版	-11.032
音声	-11.032
低下	-11.0323
どなた	-11.0324
ですからね	-11.0326
▁ヤツは	-11.0326
留守	-11.0327
宇宙船	-11.0332
持ってきて	-11.0332
捜査を	-11.0333
だったのよ	-11.0333
と違って	-11.0336
愚かな	-11.034
忙	-11.034
見ない	-11.0341
圧力	-11.0342
バード	-11.0343
籍	-11.0344
乗客	-11.0344
ウィル	-11.0344
ヘイ	-11.0345
中にいる	-11.0345
指令	-11.0346
導入	-11.0346
▁ジェイソン	-11.0346
執行	-11.0348
みれば	-11.0348
心配する	-11.0351
っちゃん	-11.0351
向かった	-11.0352
砕	-11.0353
▁未来の	-11.0355
売る	-11.0355
▁それか	-11.0355
どこでも	-11.0356
引っ越し	-11.0356
魅力	-11.0356
行ってた	-11.0359
溶	-11.0359
▁この先	-11.0361
ウィー	-11.0361
女を	-11.0361
▁これまでの	-11.0366
冷静	-11.0367
入ってる	-11.0371
かわからない	-11.0372
筆	-11.0374
嗅	-11.0374
嘆	-11.0374
カウンター	-11.0374
	-11.0374
ウサギ	-11.0374
済まない	-11.0375
食糧	-11.0375
の流れ	-11.0375
ものがある	-11.0375
キリ	-11.0376
から出て	-11.0376
電波	-11.0377
▁それこそ	-11.0378
申し出	-11.0379
入力	-11.038
コウ	-11.038
とすれば	-11.038
無意味	-11.0381
本能	-11.0382
たれ	-11.0383
ってしまう	-11.0386
桐	-11.0388
ゅう	-11.0389
しませんでした	-11.0389
良くなる	-11.039
ゆえ	-11.039
こう言いました	-11.0395
黄色	-11.0396
プリン	-11.04
折れ	-11.04
ビュー	-11.0401
ヶ	-11.0402
フリン	-11.0402
PC	-11.0402
出してくれ	-11.0403
实	-11.0405
皇帝	-11.0405
処刑	-11.0405
de	-11.0405
▁過去の	-11.0406
何より	-11.0407
殺されて	-11.0408
お茶	-11.0409
ない限り	-11.041
回し	-11.0413
▁マリー	-11.0415
おかげ	-11.0419
プレ	-11.0421
務め	-11.0422
見逃	-11.0424
いきました	-11.0425
始めましょう	-11.0425
スープ	-11.0426
▁娘の	-11.0428
タワー	-11.0428
するのよ	-11.0431
マーティン	-11.0431
を受け入れ	-11.0431
かかり	-11.0432
濡れ	-11.0433
HIV	-11.0436
ボランティア	-11.0436
浦	-11.0436
忠告	-11.0436
護衛	-11.0436
を知りたい	-11.0438
訪れ	-11.0441
年寄り	-11.0444
▁エレン	-11.0445
壁を	-11.0446
国に	-11.0447
大学で	-11.0452
しましょうか	-11.0453
文書	-11.0455
する為に	-11.0455
確かな	-11.0456
三つ	-11.0457
言おうと	-11.0457
取り上げ	-11.046
でもありません	-11.0463
建	-11.0466
タンパク質	-11.0467
旋	-11.0467
秩序	-11.0467
オレンジ	-11.0467
ポール	-11.0468
落ち着く	-11.0468
誓う	-11.0469
モーガン	-11.047
選ばれた	-11.0471
開放	-11.0471
艦長	-11.0472
ボル	-11.0475
いけば	-11.0475
▁そして今	-11.0475
プル	-11.048
食べない	-11.048
オール	-11.048
ならなかった	-11.0481
母ちゃん	-11.0481
私達に	-11.0482
になること	-11.0484
ハメ	-11.0485
ヒー	-11.0485
らないで	-11.0486
ガラ	-11.0487
知性	-11.0489
患者は	-11.0489
を送った	-11.0491
馬鹿な	-11.0492
を押し	-11.0492
てます	-11.0495
膜	-11.0497
知らせる	-11.0498
幻覚	-11.0498
友情	-11.0499
引退	-11.0499
アメリカで	-11.0502
直後	-11.0503
▁黒崎	-11.0504
飛	-11.0505
次に	-11.0507
の高い	-11.0508
とはいえ	-11.0508
川さん	-11.0511
るところ	-11.0513
▁僕と	-11.0513
に値する	-11.0514
やっつけ	-11.0514
れません	-11.0521
行われ	-11.0522
したことは	-11.0523
たいと思います	-11.0524
Q	-11.0529
此処	-11.0529
ティア	-11.053
言うことを	-11.0531
にゃ	-11.0531
ドクター	-11.0533
やがれ	-11.0534
フラン	-11.0536
会いたかった	-11.0537
神父	-11.0537
ズボン	-11.0539
ひと	-11.054
フライ	-11.054
振	-11.0542
▁それらの	-11.0545
悩んで	-11.0546
主義者	-11.0548
ということだ	-11.0548
なくてもいい	-11.0549
スン	-11.055
を愛して	-11.0551
ic	-11.0551
なかったのです	-11.0551
もありました	-11.0552
王の	-11.0553
▁人類の	-11.0553
サイバー	-11.0554
酔	-11.0554
敷	-11.0554
▁おかえり	-11.0558
届	-11.0559
いちばん	-11.056
削減	-11.056
逃走	-11.0561
すこと	-11.0562
▁いったい何	-11.0562
というわけ	-11.0563
▁そこを	-11.0563
秒で	-11.0565
時半	-11.0565
追い詰め	-11.057
▁わあ	-11.0571
言葉が	-11.0573
トゥー	-11.0573
不可能だ	-11.0574
間違えた	-11.0575
労働者	-11.0576
最適	-11.0579
高級	-11.0579
年代に	-11.0579
なりたい	-11.0582
▁すべてが	-11.0583
ュ	-11.0584
ファック	-11.0589
ツー	-11.0589
現れて	-11.059
疾患	-11.059
秀	-11.0591
殻	-11.0591
阿	-11.0591
エロ	-11.0592
眼鏡	-11.0592
メーカー	-11.0593
くり	-11.0595
持たない	-11.0595
券	-11.0596
に影響	-11.0597
地下鉄	-11.0599
そいつ	-11.0601
食品	-11.0601
広がって	-11.0612
▁二人の	-11.0614
を書く	-11.0615
環境に	-11.0616
▁ぼくは	-11.0619
トレー	-11.062
有り	-11.0621
请	-11.0622
抱いて	-11.0623
放棄	-11.0623
ことない	-11.0626
理解する	-11.0626
ドラゴンボール	-11.0626
地帯	-11.0628
崩れ	-11.0628
使われる	-11.0628
取れる	-11.0628
光栄	-11.063
コア	-11.0631
変革	-11.0631
追いかけて	-11.0631
ォ	-11.0632
半年	-11.0633
おいしい	-11.0633
たび	-11.0633
襲われた	-11.0633
されてない	-11.0634
訳じゃない	-11.0634
ぶら	-11.0634
ok	-11.0634
北部	-11.0635
一発	-11.0636
作成	-11.0643
睡眠	-11.0645
使わ	-11.0645
じゃないぞ	-11.0647
惚れ	-11.0648
マイクロ	-11.0649
見つめ	-11.0651
クション	-11.0652
気味	-11.0652
▁その上	-11.0653
削	-11.0653
心配してる	-11.0653
されていました	-11.0654
探検	-11.0655
あふれ	-11.0656
退院	-11.0656
についても	-11.0656
見た事	-11.0656
を守るために	-11.0657
▁彼女には	-11.0659
▁どうしたら	-11.0659
ゆく	-11.066
を買った	-11.0661
静か	-11.0666
男女	-11.067
身分	-11.0671
払った	-11.0674
に近い	-11.0676
リュー	-11.0678
▁人生の	-11.0681
チームは	-11.0681
ブリッジ	-11.0681
くださ	-11.0682
いただきたい	-11.0682
皇	-11.0682
援	-11.0684
ショップ	-11.0684
博	-11.0685
ドッグ	-11.0685
劣	-11.0685
自閉症	-11.0685
雰囲気	-11.0685
置き去りに	-11.0686
何を言ってる	-11.0687
マンション	-11.0688
充分	-11.0689
▁誰と	-11.069
刺し	-11.069
子供に	-11.0691
ケンカ	-11.0691
場所です	-11.0691
▁シスター	-11.0692
を書き	-11.0694
ていて	-11.0694
獲物	-11.07
女性に	-11.0702
僕たち	-11.0702
コツ	-11.0703
それらを	-11.0703
ねえな	-11.0704
求め	-11.0705
移動する	-11.0711
色々な	-11.0715
葬	-11.0716
エリザベス	-11.0717
懐	-11.0717
多様性	-11.0717
住宅	-11.0718
節約	-11.0718
統合	-11.0719
▁もちろんです	-11.0721
バッ	-11.0722
いただいて	-11.0723
無効	-11.0725
溺れ	-11.073
であろうと	-11.073
探してた	-11.0731
することができる	-11.0731
ほぼ	-11.0734
▁犯人の	-11.0734
ペース	-11.0735
見ても	-11.0736
▁やめてよ	-11.0736
ようとする	-11.0741
その通り	-11.0743
じっと	-11.0743
死な	-11.0743
を起こした	-11.0746
あるから	-11.0746
見ていた	-11.0747
呪	-11.0748
まらない	-11.0749
言っていた	-11.0751
いじ	-11.0751
花火	-11.0752
発達	-11.0752
ミル	-11.0754
戻せ	-11.0754
行こうぜ	-11.0755
ミュ	-11.0756
インター	-11.0756
諦める	-11.0757
ギター	-11.0759
ゥ	-11.076
になるんだ	-11.0761
▁貴方が	-11.0761
そろ	-11.0763
残して	-11.0766
急ぎ	-11.0768
が見つかった	-11.0769
だと思ってた	-11.0773
▁母が	-11.0773
オーバー	-11.0777
▁今晩	-11.0777
エンド	-11.0779
テス	-11.078
ヴァンパイア	-11.0781
鶏	-11.0781
追求	-11.0781
演技	-11.0781
▁しょうがない	-11.0781
完	-11.0782
揚げ	-11.0783
立ち上げ	-11.0783
攻め	-11.0783
いいじゃん	-11.0786
と思われ	-11.0786
間違っている	-11.0786
お仕事	-11.0787
お分かり	-11.0788
アイデアを	-11.0789
▁そんなもの	-11.079
お前ら	-11.0791
再開	-11.0791
ことある	-11.0792
いなくて	-11.0792
信じています	-11.0792
床に	-11.0794
行きなさい	-11.0794
hiv	-11.0796
つもりです	-11.0798
情け	-11.08
べきか	-11.0802
問題ない	-11.0803
私達が	-11.0804
その後	-11.0806
▁どれも	-11.0807
出かける	-11.0808
をつけた	-11.081
徳	-11.081
アンタ	-11.0811
▁もう大丈夫	-11.0812
死体を	-11.0812
ラニスター	-11.0813
頂戴	-11.0813
肝臓	-11.0813
墜落	-11.0813
投与	-11.0813
やり方で	-11.0815
を開く	-11.0817
から電話	-11.0818
を傷つける	-11.0819
の奥	-11.0821
飢え	-11.0821
▁状況は	-11.0826
基	-11.0828
▁どっちが	-11.083
グレイ	-11.083
アドレス	-11.083
チビ	-11.0835
以内	-11.0835
ヤツが	-11.0837
何もない	-11.084
残念です	-11.0841
殴った	-11.0842
▁んん	-11.0843
きゃ	-11.0845
お母様	-11.0845
数時間	-11.0845
固定	-11.0847
社会の	-11.0849
▁僕たちは	-11.085
大事なこと	-11.085
色んな	-11.085
れます	-11.0855
ヤマ	-11.0858
ブラウン	-11.0858
作り上げ	-11.0859
ことが出来る	-11.0863
▁コラ	-11.0863
右側	-11.0864
カバー	-11.0865
▁うむ	-11.0869
クローン	-11.0869
いただく	-11.087
学んで	-11.0871
蘇	-11.0875
頑張る	-11.0877
の始まり	-11.0877
批判	-11.0877
すまなかった	-11.0877
葬儀	-11.0877
がっかり	-11.0878
を残して	-11.0878
救える	-11.0879
許し	-11.0879
▁いい加減	-11.0881
船に	-11.0882
考えました	-11.0883
▁起きろ	-11.0884
話しかけ	-11.0888
わかってない	-11.0889
生息	-11.0893
左側	-11.0893
経験を	-11.0893
スミス	-11.0893
場面	-11.0894
と考える	-11.0894
▁お互いに	-11.0897
▁攻撃力	-11.0903
CA	-11.0903
本物の	-11.0906
財	-11.0907
東京	-11.0908
来なかった	-11.0908
パキスタン	-11.0909
標準	-11.0909
予備	-11.0909
つながる	-11.091
韓国	-11.091
安全保障	-11.091
ソル	-11.0911
データベース	-11.0914
の事で	-11.0915
ギン	-11.0919
改め	-11.0919
もあり	-11.092
引き受け	-11.0924
は何ですか	-11.0926
審	-11.0927
求めて	-11.0929
真面目	-11.0929
破滅	-11.093
ツイ	-11.0932
多分	-11.0934
捨てて	-11.0937
を見てください	-11.0938
許してくれ	-11.0938
を紹介	-11.094
アルゴリズム	-11.0941
好奇心	-11.0941
辿	-11.0941
テキサス	-11.0941
大使館	-11.0942
祝福	-11.0942
もらえますか	-11.0946
モニター	-11.0947
抜ける	-11.095
んだもん	-11.0951
▁ボクは	-11.0952
変えた	-11.0953
住んで	-11.0954
近くで	-11.0955
殺してない	-11.0956
降りる	-11.0958
言えよ	-11.0959
間違え	-11.0959
1.	-11.0959
いち	-11.0963
急ぐ	-11.0964
正確な	-11.0964
チョー	-11.0965
暖	-11.0969
を探している	-11.097
美しく	-11.0971
営	-11.0972
シート	-11.0972
am	-11.0973
賄	-11.0974
楽しむ	-11.0974
継続	-11.0974
▁やばい	-11.0974
見つけられる	-11.0975
戦った	-11.0976
しようか	-11.0977
しかいない	-11.0978
分解	-11.0979
打つ	-11.0981
いられない	-11.0983
んなよ	-11.0984
▁お父さんが	-11.0985
▁あんたら	-11.0985
知らねえ	-11.0986
36	-11.0988
地域で	-11.0989
の授業	-11.0989
ナノ	-11.099
捕まえる	-11.0993
しなくていい	-11.0995
現場で	-11.0996
▁被害者は	-11.0997
ミット	-11.0998
ねえぞ	-11.1
モル	-11.1002
を持っていた	-11.1003
が言ってた	-11.1004
ことができない	-11.1004
el	-11.1005
ジェイ	-11.1005
エジプト	-11.1006
デバイス	-11.1007
▁ピッコロ	-11.1007
免疫	-11.1007
炭素	-11.1007
済ませ	-11.1007
残酷	-11.1007
に入れる	-11.1009
シールド	-11.101
見当	-11.1011
叔父さん	-11.1012
NY	-11.1012
ボウ	-11.1014
へ行って	-11.1015
尽き	-11.1016
まとめて	-11.1018
人数	-11.1021
神々	-11.1023
▁我々には	-11.1026
▁こん	-11.103
ようとしている	-11.1031
おかげで	-11.1033
越え	-11.1034
知られて	-11.1036
面で	-11.1036
薫	-11.1039
故障	-11.1039
および	-11.1041
捕ま	-11.1046
▁どこが	-11.1047
ますよね	-11.1047
明確	-11.1048
怖くない	-11.1048
会おう	-11.105
おそらく	-11.105
こともあります	-11.1054
結局	-11.1054
大家	-11.1055
▁普通に	-11.1056
ものよ	-11.1057
いいのに	-11.1057
コーン	-11.1059
所得	-11.1062
ウチ	-11.1066
▁うう	-11.1066
行こうか	-11.1067
息子を	-11.1068
食べよう	-11.107
と考えています	-11.1071
莉	-11.1072
1,000	-11.1072
を捕まえ	-11.1077
続けろ	-11.1079
海洋	-11.1079
疑わ	-11.1081
が起きる	-11.1086
バリー	-11.1087
スペイン	-11.1088
タラ	-11.1088
下がれ	-11.109
言ってました	-11.1094
ワーク	-11.1094
金額	-11.1095
黄	-11.1096
脅し	-11.1096
仙	-11.1098
賢	-11.1099
47	-11.1099
チームが	-11.1101
戦え	-11.1101
揺	-11.1101
生き延び	-11.1102
機会を	-11.1104
▁キサマ	-11.1105
アプローチ	-11.1105
県	-11.1105
芝居	-11.1106
止まり	-11.1106
言っておく	-11.1107
パズル	-11.1107
する時	-11.1108
想定	-11.1109
を調べた	-11.111
強化	-11.111
間もなく	-11.1113
ライオン	-11.1113
閉じ込められ	-11.1114
時間がかかる	-11.1114
吸って	-11.1114
に行きたい	-11.1116
テラ	-11.1124
祭り	-11.1128
いったい	-11.1129
たいのか	-11.1131
▁昨日は	-11.1131
たかったの	-11.1133
▁気にしないで	-11.1133
日後	-11.1136
筈だ	-11.1136
坊や	-11.1137
于	-11.1138
羅	-11.1138
マスコミ	-11.1138
猛	-11.1138
監禁	-11.1138
予防	-11.1138
処置	-11.1138
不動産	-11.1139
デブ	-11.1141
成立	-11.1144
いらっしゃる	-11.1145
大変だった	-11.1147
導く	-11.1149
賢く	-11.1149
少しずつ	-11.115
初の	-11.1151
ノア	-11.1154
チェス	-11.1155
食え	-11.1156
ベット	-11.1157
分る	-11.1161
使ってる	-11.1161
工作	-11.1162
やったら	-11.1165
律	-11.1167
待っていた	-11.1167
▁逆に	-11.1167
一枚	-11.1168
スピ	-11.1168
午後	-11.1169
隔	-11.117
妖	-11.1171
持続	-11.1171
而	-11.1171
ベジータ	-11.1171
湯	-11.1171
ストリート	-11.1171
陰謀	-11.1171
立てる	-11.1171
規制	-11.1171
鳴ら	-11.1171
信頼できる	-11.1172
便利	-11.1174
▁悪いが	-11.1175
事項	-11.1175
要因	-11.1177
ロイド	-11.118
▁そっちは	-11.118
言ってんの	-11.1181
首相	-11.1183
を殺そうと	-11.1186
のひとつ	-11.1191
男性が	-11.1193
外部	-11.1196
ッタ	-11.1196
飛び降り	-11.1198
かせる	-11.12
認知	-11.1202
ジョーク	-11.1203
▁その男	-11.1204
片方	-11.1204
郵便	-11.1204
参考	-11.1205
扱って	-11.1205
怒らせ	-11.1205
帰還	-11.1206
▁やがて	-11.1207
サンド	-11.1207
いよう	-11.1207
サポート	-11.1209
ということで	-11.121
スペ	-11.1216
モス	-11.1221
想像力	-11.1222
野生	-11.1223
感謝してる	-11.1229
交わ	-11.123
及	-11.1234
といいます	-11.1237
改革	-11.1238
相互	-11.1238
既	-11.1239
勝手	-11.1239
退職	-11.124
取り組んで	-11.1245
々しい	-11.1246
が変わった	-11.1246
背景	-11.1248
全力	-11.1248
だったけど	-11.1249
毎週	-11.1249
起こす	-11.1252
スティ	-11.1252
側面	-11.1253
▁そういう事	-11.1258
出ました	-11.1259
▁こういうの	-11.1265
外国	-11.1268
村さん	-11.1268
グッド	-11.1269
尋ねた	-11.127
傾	-11.127
めちゃくちゃ	-11.1271
噴	-11.1271
膨大な	-11.1271
▁ゾーイ	-11.1271
巡査	-11.1271
シンプル	-11.1271
ハーバード	-11.1275
▁フフッ	-11.1276
っぺ	-11.1276
▁そうさ	-11.1279
張って	-11.1281
▁しっかりしろ	-11.1283
キット	-11.1284
失望	-11.1285
思い出せ	-11.1285
▁ルーク	-11.1288
してました	-11.129
やってない	-11.129
ナチ	-11.1294
文学	-11.1294
バット	-11.1298
してるんです	-11.1299
は決して	-11.13
やったこと	-11.1301
その時	-11.1301
なくなります	-11.1304
概	-11.1304
の中でも	-11.1304
イノベーション	-11.1305
乃	-11.1305
被験者	-11.1305
侮辱	-11.1305
▁エミリー	-11.1305
タグ	-11.1306
回避	-11.1307
▁分かったよ	-11.1308
新人	-11.1308
熱心	-11.1308
▁何にも	-11.1309
下り	-11.131
騙され	-11.131
記録を	-11.1311
美さん	-11.1313
ラット	-11.1313
怖がって	-11.1314
関係ある	-11.1314
疑う	-11.1317
広く	-11.1321
▁そこが	-11.1322
▁これには	-11.1327
かかります	-11.1329
って言ってる	-11.1329
出そうと	-11.1329
誘い	-11.1334
推	-11.1335
似ている	-11.1335
になるまで	-11.1338
时	-11.1338
▁ほっと	-11.1339
嘘をついた	-11.1339
フン	-11.1343
憧れ	-11.1344
たっぷり	-11.1344
マイケル	-11.1345
左右	-11.1346
通る	-11.1347
ねえだろ	-11.135
0.	-11.1351
してあげる	-11.1352
約束を	-11.1352
致	-11.1353
モード	-11.1354
準備を	-11.1355
あぁ	-11.1358
拾	-11.1358
▁いつまでも	-11.1365
数百	-11.1366
離す	-11.1368
クラン	-11.137
電話に出	-11.137
週間後	-11.1371
牙	-11.1372
サマリア人	-11.1372
死ぬまで	-11.1372
アニメ	-11.1373
を倒す	-11.1377
盛り	-11.1377
▁聞こえるか	-11.1379
▁前にも	-11.1379
じいさん	-11.138
ありませんか	-11.138
勧め	-11.138
やってるんだ	-11.1381
警部補	-11.1384
足跡	-11.1384
電話した	-11.1385
me	-11.1386
分類	-11.1387
の世界に	-11.1387
広め	-11.1388
▁なんだと	-11.1388
見ました	-11.1389
と言える	-11.1391
▁こちらへ	-11.1392
込	-11.1392
言いたいのは	-11.1395
の話です	-11.1396
イギリス	-11.1398
使われて	-11.1398
確認する	-11.1401
▁たまに	-11.1402
▁これじゃ	-11.1403
ジル	-11.1403
並んで	-11.1404
ボイ	-11.1405
影響を与え	-11.1405
发	-11.1406
及び	-11.1407
もらえませんか	-11.1407
ここにいた	-11.1408
死んだら	-11.1408
広がり	-11.1414
証拠が	-11.1414
込まれて	-11.1416
▁所以	-11.1416
絞	-11.1417
地下室	-11.1417
終わったら	-11.1421
覚えています	-11.1422
と同じくらい	-11.1423
勝手な	-11.1427
行きました	-11.1428
どき	-11.1428
IS	-11.1433
タフ	-11.1436
ハチ	-11.1436
ハエ	-11.144
時々	-11.1441
ステップ	-11.1441
反射	-11.1441
対抗	-11.1441
運ばれ	-11.1442
郊外	-11.1442
を止めて	-11.1442
大抵	-11.1444
▁ありゃ	-11.1446
▁自らの	-11.1446
を信じ	-11.1447
ドウ	-11.1449
人種	-11.145
▁今日から	-11.1451
形成	-11.1452
反対側	-11.1453
求める	-11.1454
ol	-11.1457
来るんだ	-11.1458
の存在を	-11.146
ポル	-11.1461
終わらせる	-11.1463
辞める	-11.1464
景色	-11.1465
会えた	-11.147
▁アタシ	-11.1474
イライラ	-11.1475
直ちに	-11.1475
ことができるのです	-11.1475
光景	-11.1475
映って	-11.1476
を奪う	-11.1476
話すこと	-11.1477
目の前に	-11.1478
▁こいつが	-11.1479
残っている	-11.1479
こういうこと	-11.148
手に入る	-11.1484
▁たまには	-11.1488
に立ち	-11.1489
ドリー	-11.149
代目	-11.149
▁今度の	-11.1491
手順	-11.1492
を守れ	-11.1492
の所へ	-11.1494
▁いかが	-11.1494
go	-11.1494
lo	-11.1498
させようと	-11.15
回して	-11.15
cia	-11.1502
消す	-11.1503
噛み	-11.1504
些	-11.1507
飾り	-11.1508
豪	-11.1508
ガソリン	-11.1508
転換	-11.1509
世界一	-11.1509
検証	-11.1509
配列	-11.151
遅かった	-11.1511
バッジ	-11.1511
階級	-11.1512
しております	-11.1512
共通点	-11.1513
いてください	-11.1515
頂	-11.1516
無用	-11.1517
夏休み	-11.1518
マグ	-11.152
応じ	-11.1522
人として	-11.1522
いい人	-11.1523
を使えば	-11.1524
ミニ	-11.1524
ことについて	-11.1526
▁彼女も	-11.1526
▁それ以外	-11.1527
▁わたしが	-11.1528
生き方	-11.153
払わ	-11.1535
うまくいって	-11.1536
愚か	-11.1537
思いました	-11.1541
そうじゃない	-11.1541
に住んでる	-11.1542
倒れ	-11.1542
泡	-11.1543
座標	-11.1543
▁遊馬	-11.1543
呼ばれて	-11.1544
度目	-11.1544
くそったれ	-11.1544
ちょい	-11.1547
立派	-11.1547
であって	-11.1547
来なさい	-11.155
まわり	-11.1554
戻ります	-11.1556
添	-11.1559
衆	-11.1561
オーナー	-11.1562
こない	-11.1563
持ってた	-11.1563
儲け	-11.1563
協力する	-11.1565
生存者	-11.157
これ以上	-11.157
700	-11.1571
ぴ	-11.1572
季節	-11.1577
▁自分たちの	-11.1578
損失	-11.1579
飲	-11.1579
一連の	-11.1582
と戦う	-11.1583
▁そしてこの	-11.1585
ィー	-11.1585
メニュー	-11.1586
不審	-11.1588
見せてくれ	-11.1592
▁オイ	-11.1593
ダメです	-11.1594
▁分った	-11.1594
タリ	-11.1595
爆弾を	-11.1595
手術を	-11.1595
キム	-11.1596
に向かってる	-11.1601
を傷つけ	-11.1601
頂き	-11.1605
はどうだった	-11.1606
一緒だ	-11.1606
問題なの	-11.1607
夢中	-11.1607
意味がある	-11.1608
舎	-11.161
することも	-11.161
こっそり	-11.1612
克服	-11.1612
オーバーレイ	-11.1612
ケーブル	-11.1613
▁カイル	-11.1616
借りた	-11.1616
出します	-11.1617
らせた	-11.1618
公平	-11.1618
連行	-11.1618
となると	-11.1619
してもいい	-11.1621
勝て	-11.1621
できますか	-11.1622
隠れ家	-11.1622
必要です	-11.1623
外科	-11.1626
知ってるわ	-11.1629
▁何てこと	-11.1629
ないんだよ	-11.163
襲われ	-11.163
你的	-11.163
何が起こる	-11.1631
確か	-11.1631
ダブル	-11.1634
▁やっ	-11.1641
▁刑事さん	-11.1643
面会	-11.1645
モテ	-11.1646
栗	-11.1646
CBI	-11.1646
侍	-11.1646
紳士	-11.1646
ワード	-11.1647
当然だ	-11.1648
そっち	-11.1649
行っている	-11.1649
率直	-11.1651
防御	-11.1652
つら	-11.1653
ショウ	-11.1653
大したこと	-11.1653
ようとして	-11.1654
たちと	-11.1656
方法がある	-11.1657
ペル	-11.1661
合わせる	-11.1662
思いついた	-11.1663
そこまで	-11.1664
つめ	-11.1664
りしない	-11.1667
変身	-11.1668
拳	-11.1668
政権	-11.1669
なんでしょ	-11.167
▁なぜ私	-11.1671
闘い	-11.1671
が死んで	-11.1671
眠る	-11.1672
企	-11.1673
貰った	-11.1673
コイン	-11.1675
ミア	-11.1675
わけではない	-11.1676
則	-11.1678
开	-11.1681
挟	-11.1681
を起こして	-11.1682
▁ローレル	-11.1682
解雇	-11.1684
行ったら	-11.1685
▁カレン	-11.1686
単なる	-11.1687
しようとしている	-11.1688
ow	-11.1689
減って	-11.1692
に送り	-11.1692
すんの	-11.1693
トレイ	-11.1695
戻ろう	-11.1695
届いた	-11.1697
豊か	-11.1697
事故で	-11.1698
命じ	-11.1699
なってる	-11.1704
変えられる	-11.1704
他の人	-11.1706
着け	-11.1706
空き	-11.1713
国立	-11.1714
なんじゃ	-11.1715
を奪った	-11.1716
弓	-11.1716
探索	-11.1716
精神科医	-11.1717
娘に	-11.172
▁放して	-11.1721
専用	-11.1721
信じられ	-11.1722
生きた	-11.1723
行き先	-11.1723
お待ちください	-11.1724
何があったか	-11.1724
まさか	-11.1725
アホ	-11.1726
フランス	-11.1729
の件は	-11.1732
狙撃	-11.1732
会話を	-11.1735
死んでいる	-11.1736
去り	-11.1739
オフィスに	-11.174
ござ	-11.1741
今朝	-11.1742
ちゃいけない	-11.1744
提	-11.1744
ぺ	-11.1746
ピーター	-11.1747
ケリー	-11.1748
鉱	-11.1749
カメ	-11.175
样	-11.175
ことなく	-11.175
偽物	-11.175
▁何これ	-11.1751
聞こう	-11.1755
行ってる	-11.1756
聞こえます	-11.1758
ハハ	-11.1758
お嬢さん	-11.1762
あげたい	-11.1767
言われました	-11.1769
吐き	-11.177
▁俺達が	-11.1772
しようとする	-11.1776
漁	-11.1776
を出た	-11.1778
はどうでしょう	-11.1779
読	-11.1779
リンゴ	-11.1783
▁この問題	-11.1786
親子	-11.1786
沖	-11.1786
綱	-11.1787
に基づいて	-11.1787
ストーカー	-11.1787
捕虜	-11.1787
偵察	-11.1787
予言	-11.1791
大胆	-11.1792
▁当時の	-11.1793
bo	-11.1795
コメント	-11.1797
お昼	-11.1799
見てみましょう	-11.18
最悪だ	-11.18
特殊	-11.1801
狭い	-11.1802
日記	-11.1802
▁本当か	-11.1805
手間	-11.1805
渡せ	-11.1807
起きている	-11.1809
が有る	-11.1809
美術	-11.1811
知られ	-11.1811
バーン	-11.1815
ウェン	-11.1816
スさん	-11.1816
ウム	-11.1816
見せろ	-11.1817
抗議	-11.1822
引っ張	-11.1823
ニカ	-11.1825
タイヤ	-11.1826
真剣	-11.1826
の専門家	-11.1827
▁他人の	-11.1829
は必要ない	-11.1832
んねえ	-11.1836
はどうなる	-11.1838
並み	-11.184
じゃないけど	-11.1841
落として	-11.1843
あて	-11.1843
原さん	-11.1844
もらいました	-11.1844
を救った	-11.1847
イズ	-11.1854
▁何それ	-11.1856
スイーツ	-11.1857
ニキータ	-11.1857
宣伝	-11.1857
牧師	-11.1858
くれれば	-11.1858
同盟	-11.1858
続	-11.1859
押す	-11.1861
結合	-11.1861
ことにした	-11.1861
寿命	-11.1862
きょう	-11.1862
お見せしましょう	-11.1862
▁たいした	-11.1862
勢い	-11.1864
直し	-11.1866
試し	-11.1869
組み立て	-11.1877
[	-11.1879
言葉で	-11.1882
どのくらい	-11.1883
注意して	-11.1883
▁オレに	-11.1884
させるため	-11.1885
地面に	-11.1889
の居場所を	-11.1893
インフルエンザ	-11.1893
フロリダ	-11.1893
頑張った	-11.1893
投稿	-11.1893
▁よっしゃ	-11.1893
ボルト	-11.1893
少佐	-11.1894
税金	-11.1897
合意	-11.1898
経路	-11.19
出さ	-11.1901
角度	-11.1906
共通の	-11.1907
▁あの夜	-11.1908
を読む	-11.1909
発作	-11.1909
合ってる	-11.191
諸国	-11.191
するとき	-11.1913
狭	-11.1913
られていた	-11.1916
であることを	-11.1916
▁じっとして	-11.1916
通常	-11.1922
偏	-11.1925
祈って	-11.1927
で働く	-11.1927
麦	-11.1929
懐かしい	-11.1929
プライド	-11.1929
脱獄	-11.1929
履歴	-11.1929
叶え	-11.193
農家	-11.193
誰なんだ	-11.193
言うなよ	-11.1931
見なかった	-11.1932
繋	-11.1933
家に帰って	-11.1934
幹	-11.1935
階に	-11.1935
千人	-11.1936
壊した	-11.1937
なっちゃって	-11.1937
フォン	-11.1937
▁ふん	-11.1938
と同様に	-11.1939
カメラを	-11.1943
ライダー	-11.1946
物事を	-11.1947
かかってる	-11.1948
お楽しみ	-11.1949
欲しく	-11.1949
ないよう	-11.1949
んじゃねえよ	-11.1951
ポート	-11.1952
そんな風に	-11.1953
待たせ	-11.1953
数値	-11.1954
を見れば	-11.1957
暗く	-11.1957
与えた	-11.1958
たぶん	-11.1958
と言われた	-11.196
させたい	-11.1961
日本語	-11.1961
バート	-11.1962
野朗	-11.1965
まどか	-11.1965
▁こっちも	-11.1967
トマト	-11.1968
誠実	-11.197
方針	-11.197
▁よかったら	-11.1971
▁何やってんの	-11.1971
を見ました	-11.1972
体調	-11.1973
ねばならない	-11.1975
持っていた	-11.1975
を守り	-11.1977
拳銃	-11.1978
▁僕らの	-11.198
偉	-11.198
劇場	-11.1981
液体	-11.1985
暑	-11.1986
ディナー	-11.1987
やらせて	-11.1989
排	-11.1989
厄介な	-11.199
必要なもの	-11.199
記憶を	-11.1997
じいちゃん	-11.1998
高速	-11.1999
連絡して	-11.2
苦しむ	-11.2
誘惑	-11.2001
需要	-11.2001
設備	-11.2001
判決	-11.2001
あちら	-11.2001
屋敷	-11.2002
出張	-11.2003
互い	-11.2005
をとって	-11.2008
雨宮	-11.201
という事です	-11.2015
分かれ	-11.2016
民族	-11.2021
抱き	-11.2026
初期	-11.2026
つつある	-11.2028
パック	-11.203
くれたら	-11.2034
▁僕らが	-11.2034
▁どうしたんですか	-11.2036
バクテリア	-11.2037
売春婦	-11.2037
翻訳	-11.2037
クジラ	-11.2037
に乗った	-11.2037
苦しめ	-11.2037
経験した	-11.2037
申し訳ない	-11.2038
ここで何してる	-11.2039
種族	-11.204
読め	-11.204
だったので	-11.204
mr	-11.204
▁ああいう	-11.2041
倒れた	-11.2042
を襲った	-11.2042
くれるか	-11.2042
を打ち	-11.2043
ッシー	-11.2045
どこにいた	-11.2047
▁何のために	-11.2047
厄介	-11.2048
生成	-11.2048
ーブ	-11.2049
同学	-11.2051
私のせい	-11.2053
一気に	-11.2054
働いた	-11.2054
っ子	-11.2056
設立	-11.2056
名字	-11.2057
カレ	-11.2063
連れて行け	-11.2063
んど	-11.2065
リズム	-11.2071
ストロ	-11.2072
保障	-11.2072
te	-11.2072
漂	-11.2073
潤	-11.2073
おとなしく	-11.2073
師匠	-11.2073
単位	-11.2074
独身	-11.2076
発電	-11.2076
転送	-11.2076
は何でしょう	-11.2077
OK	-11.2081
座る	-11.2081
は終わりだ	-11.2082
と言っている	-11.2084
は終わった	-11.2086
ものだと	-11.2087
出入り	-11.2088
▁いっ	-11.2091
▁私は彼	-11.2092
もう一つ	-11.2093
一時的	-11.2093
を感じて	-11.2096
出て行って	-11.2097
貨	-11.2101
狙って	-11.2103
謝り	-11.2105
まれた	-11.2105
露	-11.2109
但	-11.2109
プライベート	-11.2109
生態系	-11.2109
逸	-11.2109
目を覚ま	-11.2109
美術館	-11.2109
結末	-11.2111
目を向け	-11.2113
増えて	-11.2114
掴	-11.2119
輝く	-11.2119
捨てろ	-11.2119
マンガ	-11.212
持ってくる	-11.2123
耐えられ	-11.2123
われて	-11.2124
高度	-11.2124
くさい	-11.2125
如何	-11.2126
高校の	-11.2127
何を考えて	-11.2128
来てください	-11.2129
を手に入れ	-11.213
ジョージ	-11.2132
目指す	-11.2133
選択を	-11.2134
▁やめてください	-11.2134
ことによって	-11.2137
カウント	-11.2137
と話を	-11.2139
リム	-11.2142
ハンニバル	-11.2146
プレーヤー	-11.2146
兆候	-11.2146
明るい	-11.2146
知ってるだろ	-11.2147
放射線	-11.2147
心理学	-11.2148
ha	-11.2149
ボトル	-11.2152
ウォ	-11.2161
辞めて	-11.2163
有る	-11.2164
不快	-11.2164
者として	-11.2164
の巣	-11.2165
たりしない	-11.2166
崩	-11.2167
驚いて	-11.2167
▁行くわよ	-11.2167
待た	-11.2171
ハリ	-11.2172
今すぐ	-11.2174
来ている	-11.2177
融資	-11.2177
ぷ	-11.2182
にもかかわらず	-11.2182
封じ	-11.2183
派手	-11.2184
あくまで	-11.2184
詰	-11.2184
継ぎ	-11.2185
を動かす	-11.2185
になるのです	-11.2186
を起こし	-11.219
いねえ	-11.219
を上げて	-11.2195
勇敢な	-11.2195
調達	-11.2195
物理	-11.2196
何もしない	-11.2198
軽く	-11.2198
どんどん	-11.2199
さんのこと	-11.2201
者達	-11.2202
流れて	-11.2203
を超える	-11.2203
換	-11.2204
さえも	-11.2205
ゴールド	-11.2206
たいんです	-11.2206
真相	-11.2206
見れば	-11.2206
話せば	-11.2207
更に	-11.2207
恵まれ	-11.2209
ぼう	-11.2212
ヤー	-11.2212
▁それらは	-11.2215
歩け	-11.2215
東大	-11.2216
かと思って	-11.2217
ウォリアー	-11.2219
サンドイッチ	-11.2219
找	-11.2219
軒	-11.2219
大げさ	-11.2219
伝えたい	-11.2221
あるはずだ	-11.2222
タイトル	-11.2222
以前に	-11.2222
叫んで	-11.2222
も知らない	-11.2223
を考えると	-11.2223
▁これを見て	-11.2224
を失い	-11.2226
に過ぎない	-11.2227
ay	-11.2228
を選んで	-11.2228
オタク	-11.2228
住み	-11.2229
楽器	-11.2229
を呼んだ	-11.2229
言うなら	-11.223
ad	-11.2231
ウィルソン	-11.2233
準備はいい	-11.2237
タバコ	-11.224
しようとしてる	-11.224
コネ	-11.224
▁この状況	-11.2241
大学に	-11.2242
全体を	-11.2245
問題を解決	-11.2248
増える	-11.2248
サイコ	-11.2248
役割を	-11.2249
行かせて	-11.2251
若く	-11.2251
暁	-11.2256
郡	-11.2256
スイス	-11.2256
きれ	-11.2257
嘘をつく	-11.2259
増え	-11.2259
何があっても	-11.226
を特定	-11.226
一体何	-11.2261
を呼べ	-11.2261
撮り	-11.2262
スティック	-11.2265
死後	-11.2265
囲まれ	-11.2267
と思いますか	-11.2272
然と	-11.2276
知らせて	-11.2276
というものです	-11.2277
決心	-11.2277
これら	-11.2281
生体	-11.2283
ヌー	-11.2284
▁チッ	-11.2284
を生み出し	-11.2286
豊かな	-11.2287
日曜	-11.2288
巧	-11.2288
話しましょう	-11.2289
リッチ	-11.229
现	-11.2292
果たし	-11.2292
葬式	-11.2292
感じて	-11.2293
彦	-11.2293
凵	-11.2293
マラリア	-11.2294
沈黙	-11.2294
はやめて	-11.2295
ドロイド	-11.2296
いかがですか	-11.2296
を隠す	-11.2296
たのね	-11.2296
何て言った	-11.2297
お尻	-11.2298
ベッドに	-11.2298
▁過去に	-11.2299
を見てみましょう	-11.2301
混ぜ	-11.2301
和解	-11.2301
65	-11.2301
言っちゃ	-11.2305
ホル	-11.2308
年の間	-11.2309
を入れる	-11.231
ティム	-11.231
修行	-11.2311
私の仕事	-11.2315
下着	-11.2318
信じた	-11.2319
安く	-11.2325
そこら	-11.2327
→	-11.233
穂	-11.233
粗	-11.233
耕	-11.233
鋼	-11.233
麻痺	-11.233
容赦	-11.233
ホワイトハウス	-11.2331
3000	-11.2334
ちまう	-11.2334
来てくれる	-11.2335
下げて	-11.2335
跳	-11.2339
言えばいい	-11.2341
げる	-11.2342
▁早くしろ	-11.2342
スクリーン	-11.2345
定め	-11.2348
連中が	-11.2354
をかける	-11.2361
真的	-11.2363
冠	-11.2364
濃	-11.2365
助けてくれ	-11.2366
望遠鏡	-11.2367
槍	-11.2367
ジャーナリスト	-11.2367
共和国	-11.2367
吊	-11.2367
小野寺	-11.2367
クーパー	-11.2368
髪の毛	-11.2368
顔して	-11.2368
男の人	-11.2369
ビショップ	-11.2369
同然	-11.2371
一晩	-11.2372
レベルで	-11.2373
買	-11.2374
▁リリー	-11.2374
誘って	-11.2381
分離	-11.2382
捜す	-11.2382
を高め	-11.2384
分野で	-11.2386
良し	-11.2392
帰らない	-11.2396
吹き飛ば	-11.2398
できることは	-11.2399
考	-11.2399
結びつけ	-11.2399
▁そしてその	-11.24
大丈夫よ	-11.2402
タコ	-11.2404
ご紹介	-11.2404
数ヶ月	-11.2405
さっぱり	-11.2405
トレーニング	-11.2405
診察	-11.2406
なにか	-11.2406
ギュマン	-11.2406
▁早速	-11.2406
みてください	-11.2411
直せ	-11.2415
タオル	-11.2417
差別	-11.2418
何かあった	-11.2419
レクター	-11.2419
▁もう一回	-11.242
なんかじゃない	-11.242
毎年	-11.2421
しなくても	-11.2423
どうするか	-11.2423
んじ	-11.2423
交流	-11.2424
か分かる	-11.2424
んだったら	-11.2425
アンナ	-11.2425
▁ちょっとだけ	-11.2426
姉ちゃん	-11.243
違	-11.2437
▁ナイス	-11.244
呼んでる	-11.2441
冊	-11.2443
梅	-11.2443
パスポート	-11.2443
マイナス	-11.2443
改造	-11.2443
倒せ	-11.2444
したものです	-11.2445
ハンド	-11.2446
大声	-11.2446
の中にある	-11.2449
神秘	-11.2451
よろしいですか	-11.2451
疑って	-11.2456
会えない	-11.2459
を探せ	-11.2461
食物	-11.2462
夜中	-11.2462
ir	-11.2462
まね	-11.2462
ひとりで	-11.2469
アレン	-11.2471
を待ってる	-11.2474
を撃つ	-11.2474
求	-11.2476
sh	-11.2478
▁うわー	-11.248
Google	-11.248
ファッション	-11.248
昇進	-11.2481
賢明	-11.2482
付近	-11.2482
へ行った	-11.2483
心臓発作	-11.2483
素早く	-11.2485
ごう	-11.2486
困	-11.2487
物理的	-11.2489
きれいに	-11.2489
▁いいんじゃない	-11.2491
ようとしてる	-11.2491
裁判官	-11.2492
▁相手が	-11.2493
▁こないだ	-11.2493
▁あんた達	-11.2501
動かせ	-11.2501
移行	-11.2503
二度	-11.2503
キシ	-11.2503
最強の	-11.2504
大嫌い	-11.2504
手に入れ	-11.2505
殴り	-11.2506
を含め	-11.2506
誘	-11.2507
隊員	-11.2511
撃たれ	-11.2511
イルカ	-11.2513
生命体	-11.2514
はいらない	-11.2515
▁本来	-11.2515
具体的に	-11.2518
崖	-11.2518
湿	-11.2518
跟	-11.2518
现在	-11.252
安全に	-11.252
至急	-11.252
お宅	-11.2521
繋がる	-11.2522
シム	-11.2523
戻して	-11.2524
▁まあまあ	-11.2524
少数	-11.2524
いたので	-11.2525
言われても	-11.2525
凄く	-11.2528
ご存じ	-11.2528
しないわ	-11.2528
やっぱり	-11.2529
天井	-11.2531
事じゃない	-11.2532
hr	-11.2533
が始まった	-11.2533
カッコ	-11.2533
祈	-11.2534
裏切り	-11.2535
ヘビ	-11.2535
確かめる	-11.2538
できるのか	-11.2541
に来たんだ	-11.2542
▁さすがに	-11.2547
合え	-11.255
ロッカー	-11.2554
▁これこそ	-11.2555
吃	-11.2556
云	-11.2556
を除いて	-11.2557
祖先	-11.2557
徹底的に	-11.2557
を見せる	-11.2558
事件に	-11.2558
何十	-11.2558
励	-11.2558
翌日	-11.2561
ハウ	-11.2562
タトゥー	-11.2563
力がある	-11.2564
を示し	-11.2564
ピング	-11.2565
判った	-11.2571
しかありません	-11.2572
ピカ	-11.2575
アド	-11.2576
おめでとうございます	-11.2576
ライバル	-11.2586
ヤク	-11.2586
署長	-11.2586
動いた	-11.259
ダース	-11.2591
ストップ	-11.2593
裕	-11.2594
膨	-11.2594
アーティスト	-11.2594
懸念	-11.2595
が変わる	-11.2596
実施	-11.2597
反乱	-11.2597
静流	-11.2597
クビに	-11.26
始まります	-11.26
出て行った	-11.2601
▁お待たせしました	-11.2602
▁どうしました	-11.2603
スロー	-11.2605
預	-11.261
当たった	-11.2612
でもなく	-11.2613
レーター	-11.2615
沢さん	-11.2619
おっ	-11.2619
許せ	-11.262
失われ	-11.2622
人もいます	-11.2622
38	-11.2623
聞いている	-11.2626
使っている	-11.2626
たまま	-11.2626
うつ	-11.263
潔	-11.263
ガム	-11.2631
境界	-11.2632
▁なんてこった	-11.2633
綿	-11.2633
腐敗	-11.2633
の持ち主	-11.2634
忠実	-11.2635
分からないけど	-11.2636
の世話を	-11.2637
ざる	-11.2639
ウェルズ	-11.264
美しさ	-11.264
必ずしも	-11.2641
千ドル	-11.2642
与えられた	-11.2647
唯一の方法	-11.2652
女の子が	-11.2654
を捧げ	-11.2655
ホテルに	-11.2656
ミナ	-11.2656
もなし	-11.2657
だからさ	-11.2658
クロー	-11.2658
抱え	-11.2658
充電	-11.2659
ツアー	-11.2659
向かっている	-11.266
会えて嬉しい	-11.2664
は何もない	-11.2664
打って	-11.2665
を抑え	-11.2666
いなければ	-11.2666
▁お二人	-11.2666
戻ったら	-11.2666
せろ	-11.2667
父ちゃん	-11.2668
試した	-11.2669
洗って	-11.267
リグスビー	-11.2671
二酸化炭素	-11.2671
アンダーソン	-11.2671
知道	-11.2671
探査	-11.2672
わけにはいかない	-11.2672
▁同じように	-11.2672
突破	-11.2673
▁ますます	-11.2674
やりました	-11.2674
助けてくれる	-11.2674
分からなかった	-11.2675
イスラム	-11.2676
経過	-11.2678
暗号化	-11.2679
スティー	-11.2679
インフラ	-11.268
従来	-11.268
を超えて	-11.268
気づきました	-11.2683
一緒にいた	-11.2683
全身	-11.2688
▁それ以来	-11.2688
ガール	-11.2691
出現	-11.2696
丁	-11.2697
めば	-11.2699
ご家族	-11.2702
ご主人	-11.2703
応	-11.2704
働いていた	-11.2708
監	-11.2708
孝	-11.271
兼	-11.271
コカイン	-11.271
マズイ	-11.271
わけじゃ	-11.2711
倍に	-11.2712
じゃないわよ	-11.2713
▁マギー	-11.2713
改良	-11.2713
▁今度こそ	-11.2714
救う	-11.2714
可是	-11.2716
考えてみてください	-11.2717
青年	-11.2718
製作	-11.2721
患者に	-11.2721
お守り	-11.2722
降伏	-11.2724
呼んでくれ	-11.2727
やって来た	-11.2727
選んで	-11.273
占い	-11.2732
が消えた	-11.2735
一般的な	-11.2736
モール	-11.2736
言葉です	-11.2737
錠	-11.2737
見つけました	-11.2739
頃には	-11.274
CIA	-11.2741
お礼を	-11.2742
止められない	-11.2742
人材	-11.2743
働いてた	-11.2744
ビックリ	-11.2744
受け取る	-11.2746
ないですか	-11.2748
ジオ	-11.2748
送れ	-11.2748
隻	-11.2748
実践	-11.2748
オッケー	-11.2748
受験	-11.2748
告訴	-11.2749
かまわない	-11.2749
かぎり	-11.275
グローブ	-11.2752
再会	-11.2754
奪われ	-11.2754
ことになりました	-11.2754
緊急事態	-11.2755
▁私はただ	-11.2755
カッ	-11.2764
しないでください	-11.2765
徒	-11.2766
▁どいて	-11.2768
▁いらっしゃいませ	-11.277
スクール	-11.2773
神話	-11.2775
ネイ	-11.2783
説教	-11.2783
捕まって	-11.2783
挑	-11.2784
昨夜	-11.2786
聞かれた	-11.2786
開発した	-11.2787
沙汰	-11.2787
ビジター	-11.2787
教訓	-11.2787
▁要するに	-11.2788
基盤	-11.2788
ダウンロード	-11.2788
中に入って	-11.2789
保持	-11.2789
する気だ	-11.2789
▁グレース	-11.279
マーシャル	-11.279
間違いなく	-11.279
話をした	-11.2792
順番	-11.2792
にアクセス	-11.2792
真夜中	-11.2793
33	-11.2794
思ってない	-11.2795
▁あなたなら	-11.2796
夕方	-11.2796
モリ	-11.2796
が入ってる	-11.2796
お陰	-11.2799
みせる	-11.2801
兄さん	-11.2805
何をする	-11.2814
んだっけ	-11.2815
隣人	-11.2817
到着した	-11.2822
怖く	-11.2822
やろうか	-11.2823
世の中	-11.2825
已经	-11.2826
少なくとも	-11.2828
ホロウ	-11.2831
余地	-11.2832
が好きなんだ	-11.2835
提示	-11.2836
醜い	-11.2837
働け	-11.2837
ものだった	-11.2838
手伝え	-11.2838
編集	-11.2838
被告	-11.2839
特性	-11.2844
が必要だった	-11.2844
自体が	-11.2844
迫って	-11.2846
手首	-11.2846
を生み出す	-11.2847
よぉ	-11.2848
アディ	-11.2849
モリー	-11.285
号室	-11.2857
ドレ	-11.2858
たければ	-11.2858
地球上	-11.2858
od	-11.2858
お菓子	-11.286
チーフ	-11.2863
q	-11.2865
ジュリエット	-11.2866
チンパンジー	-11.2866
娼婦	-11.2866
ガールフレンド	-11.2866
誘導	-11.2866
アンドリュー	-11.2866
になるぞ	-11.2866
講義	-11.2866
負担	-11.2867
ホルモン	-11.2867
偽装	-11.2867
クラウス	-11.2867
姿勢	-11.287
入れない	-11.2871
確	-11.2871
気候	-11.2871
が増え	-11.2872
抜けて	-11.2873
描	-11.2878
出せない	-11.2878
▁こちらこそ	-11.2879
▁ダグ	-11.288
手に入れる	-11.2883
話しました	-11.2883
お話しします	-11.2884
連れてって	-11.2886
▁そんなもん	-11.2887
マッチ	-11.2892
というのか	-11.2894
ドキ	-11.2894
してみた	-11.2897
分ってる	-11.2897
助けようと	-11.2899
生きてた	-11.2901
私にとって	-11.2901
▁ほれ	-11.2902
蚊	-11.2905
ジェームス	-11.2905
競技	-11.2906
できるのは	-11.2906
出された	-11.2906
兵隊	-11.2906
原則	-11.2906
▁来年	-11.2907
決意	-11.2907
▁198	-11.2908
救命	-11.2908
▁いつの間に	-11.291
襲って	-11.291
を食べて	-11.2911
wi	-11.2917
効く	-11.2922
セス	-11.2922
▁そうじゃなくて	-11.2924
▁これでいい	-11.2924
見えません	-11.2927
しやがって	-11.2928
疲れて	-11.2928
検出	-11.2929
を見たら	-11.2933
流し	-11.2935
アイツ	-11.2935
音楽を	-11.2935
ロジャー	-11.2937
倒れて	-11.2938
▁この男は	-11.2938
査	-11.2942
加減	-11.2943
諜報	-11.2943
鷹	-11.2945
遭遇	-11.2945
経歴	-11.2945
スタジオ	-11.2945
リンカーン	-11.2946
揺れ	-11.2948
決勝	-11.295
ウイ	-11.2952
限定	-11.2953
銃撃	-11.2957
久しぶり	-11.2957
レンジャー	-11.296
教えろ	-11.296
目覚めた	-11.2961
で会おう	-11.2961
好きな人	-11.2965
南部	-11.2966
貼	-11.2973
双	-11.2973
新たに	-11.2974
向かう	-11.2974
帝	-11.2977
平気だ	-11.2977
キル	-11.2978
プレゼン	-11.2978
づく	-11.2979
引き上げ	-11.298
沒	-11.2981
それについて	-11.2983
切れる	-11.2983
しすぎ	-11.2984
粘	-11.2984
摩	-11.2984
検察	-11.2984
紛争	-11.2984
貧乏	-11.2984
申請	-11.2984
を防ぐ	-11.2985
射撃	-11.2985
文章	-11.2986
考えない	-11.2986
から離れて	-11.2986
激しく	-11.2987
割合	-11.2988
有利	-11.299
震え	-11.2991
みせ	-11.2994
責	-11.2995
感じている	-11.2995
犯人を	-11.3
目で見	-11.3
ピース	-11.3001
▁放せ	-11.3001
冷や	-11.3001
カエル	-11.3002
同行	-11.3004
どういう意味	-11.3011
あったら	-11.3019
ようになり	-11.3022
▁俺だって	-11.3023
況	-11.3023
矛盾	-11.3024
警視	-11.3024
飽き	-11.3025
ウエスト	-11.3026
キャメロン	-11.3026
▁カラム	-11.3028
追放	-11.3028
家賃	-11.3029
替わ	-11.303
コーナー	-11.3031
ラーメン	-11.3032
素人	-11.3033
通話	-11.3033
唯	-11.3036
言いたかった	-11.304
お呼び	-11.304
はいけません	-11.3042
別々	-11.3046
42	-11.3046
頑張り	-11.3046
対立	-11.3048
知りたく	-11.3049
ふっ	-11.3049
に侵入	-11.3052
来れば	-11.3053
頭部	-11.3053
の仕方	-11.3055
ライフル	-11.3057
ルイ	-11.3059
一緒に行く	-11.3063
考えられる	-11.3063
デイビッド	-11.3064
从	-11.3064
對	-11.3064
憎しみ	-11.3064
▁つうか	-11.3064
▁とっとと	-11.3065
指摘	-11.3065
ヤバい	-11.3065
たちも	-11.3065
箇所	-11.3065
振動	-11.3065
風景	-11.3066
宮殿	-11.3067
ハンサム	-11.307
を消す	-11.307
引き出し	-11.3071
影響力	-11.3073
▁バカ野郎	-11.3073
自白	-11.3076
何とも	-11.3077
読ま	-11.3078
▁じゃぁ	-11.3078
▁彼女たち	-11.3078
目指して	-11.3079
導き	-11.308
そこにある	-11.308
本名	-11.3081
訪ねて	-11.3082
信じられる	-11.3084
▁気分が	-11.3084
統	-11.3085
スリー	-11.3086
着いて	-11.3087
ばれ	-11.3089
なんだぞ	-11.309
読める	-11.309
エサ	-11.3091
見たら	-11.3096
きてくれ	-11.3096
ッパー	-11.3096
▁私たちも	-11.3096
起こした	-11.3097
こう言う	-11.3097
美味	-11.3099
もいいですか	-11.3099
用意して	-11.3099
エビ	-11.31
ドール	-11.3101
間抜け	-11.3101
出てきて	-11.3102
はずがない	-11.3103
婚約者	-11.3104
エミ	-11.3104
典型的な	-11.3104
别	-11.3104
抗生物質	-11.3104
▁♪♪~	-11.3105
王妃	-11.3105
極秘	-11.3105
捕え	-11.3105
スケール	-11.3105
▁マジかよ	-11.3107
区別	-11.3108
黄金	-11.3109
▁何が言いたい	-11.3109
焦点	-11.3109
所有者	-11.3109
▁でも私は	-11.3109
シャトル	-11.3111
▁君なら	-11.3111
を手に入れる	-11.3111
支払う	-11.3111
王女	-11.3112
血痕	-11.3112
いきましょう	-11.3113
助けてくれた	-11.3114
って誰	-11.3115
戦術	-11.3116
ゾウ	-11.3117
西洋	-11.3118
物理学	-11.312
話がしたい	-11.312
食事を	-11.3122
身長	-11.3126
▁これは私の	-11.3128
許せない	-11.3133
必要があった	-11.3134
フォース	-11.3135
解き	-11.3138
一匹	-11.314
じゃねえよ	-11.3142
句	-11.3144
google	-11.3145
啓	-11.3145
智	-11.3145
クラーク	-11.3145
裕福	-11.3145
が起き	-11.3145
融合	-11.3145
副作用	-11.3145
爆撃	-11.3145
変換	-11.3146
貰う	-11.3148
事例	-11.3148
興味がある	-11.3148
日曜日	-11.3149
をとる	-11.3149
ことのない	-11.3149
ことなんて	-11.315
ボロ	-11.3151
を示しています	-11.3152
モンロー	-11.3153
燃やし	-11.3154
引け	-11.3156
ヤツら	-11.3156
大いに	-11.3157
▁よく聞け	-11.3158
重さ	-11.3159
この子	-11.316
言おう	-11.3161
火影	-11.3162
破壊された	-11.3163
きれい	-11.3166
ないもの	-11.3167
どんなもの	-11.3168
▁正確には	-11.3173
路上	-11.3173
死んでた	-11.3176
欲しいもの	-11.3178
いいえ	-11.3179
ジョナ	-11.3183
事ができる	-11.3183
芝	-11.3184
コンサルタント	-11.3185
貝	-11.3185
フィフス	-11.3185
やめよう	-11.3186
動力	-11.3186
ヘンリー	-11.3186
▁オレも	-11.3188
忍び	-11.3189
そっと	-11.3191
所持	-11.3193
可能だ	-11.3193
グランド	-11.3194
ロビン	-11.3194
是非	-11.3196
お話を	-11.32
シャル	-11.3201
▁結果は	-11.3204
テント	-11.3205
都会	-11.3206
添え	-11.3207
ユダヤ人	-11.3208
警	-11.3209
を切って	-11.3209
毎回	-11.3209
隠れる	-11.3211
にはならない	-11.3212
を引く	-11.3216
を守るため	-11.3218
▁フフ	-11.322
思い出せない	-11.3222
させました	-11.3222
暮れ	-11.3224
委	-11.3225
37	-11.3225
峰	-11.3226
亀	-11.3226
ボーイフレンド	-11.3226
▁初めまして	-11.3226
チャンネル	-11.3226
プレイヤー	-11.3226
を決める	-11.3226
推理	-11.3227
詐欺師	-11.3227
2、3	-11.3227
消滅	-11.3227
エドワード	-11.3227
ハッキリ	-11.3228
んでしょうね	-11.3229
通った	-11.3235
複数	-11.3238
900	-11.3238
チル	-11.3243
押	-11.3252
建築家	-11.3254
が知りたい	-11.3255
引用	-11.3258
強力	-11.3259
バルブ	-11.3261
終わってない	-11.3261
履	-11.3264
ワープ	-11.3265
im	-11.3265
が生まれる	-11.3266
浪	-11.3266
盾	-11.3266
幼稚園	-11.3267
杖	-11.3267
鍋	-11.3267
※	-11.3267
卓	-11.3267
侵略	-11.3267
活躍	-11.3267
ハリウッド	-11.3267
使われた	-11.3268
埋葬	-11.3269
止めてくれ	-11.3269
脱いで	-11.3269
終わりました	-11.3271
つきあって	-11.3272
を捕まえた	-11.3273
獲得	-11.3276
段階で	-11.3277
初日	-11.3279
無力	-11.328
噛	-11.328
感じます	-11.3285
▁桜子	-11.3287
▁アク	-11.3288
コミュニティー	-11.3289
を感じた	-11.3291
だろうけど	-11.3291
街で	-11.3292
掛ける	-11.3293
抽出	-11.3293
脳に	-11.3296
盛り上が	-11.3296
が足りない	-11.3297
悪人	-11.3297
貴様	-11.3297
私達を	-11.3299
まもなく	-11.3299
フランク	-11.3301
見せかけ	-11.3304
暴れ	-11.3305
遥	-11.3307
#	-11.3307
芽	-11.3307
模倣	-11.3308
拘留	-11.3308
礼儀	-11.3308
不可欠	-11.3308
摂取	-11.3308
区域	-11.3308
海軍	-11.3311
▁うぅ	-11.3311
航海	-11.3311
極めて	-11.3312
代わって	-11.3312
ほんの少し	-11.3314
所属	-11.3315
▁それだけだ	-11.3319
初期の	-11.3323
どころ	-11.3324
遅れる	-11.3324
集めて	-11.3324
プレート	-11.3326
複製	-11.3329
特殊な	-11.3331
セラ	-11.3331
っとる	-11.3333
ドナー	-11.3334
見たのは	-11.3334
分かっています	-11.3335
台所	-11.3337
シマ	-11.3337
ラップ	-11.3337
を教える	-11.3337
問題じゃない	-11.334
が起きて	-11.3341
外へ	-11.3345
生きていた	-11.3346
ゼン	-11.3348
梨	-11.3349
丿	-11.3349
グーグル	-11.3349
原稿	-11.3349
単独	-11.3349
業務	-11.3351
諸	-11.3351
カツ	-11.3352
os	-11.3352
TV	-11.3353
訪れる	-11.3359
してくれました	-11.336
▁クッ	-11.3362
必要はありません	-11.3363
磁	-11.3367
っとけ	-11.337
お返し	-11.337
どこに行った	-11.3373
呼ばれた	-11.3375
慢	-11.3378
コブ	-11.3379
組んで	-11.338
が現れた	-11.3381
年半	-11.3382
キャンディ	-11.3384
合わせた	-11.339
蓮	-11.339
▁森山先生	-11.339
柴	-11.339
▁ともかく	-11.339
審査	-11.339
買収	-11.339
の効果発動	-11.3391
▁ヤマト	-11.3391
▁サンキュー	-11.3391
モンド	-11.3391
財団	-11.3391
嬉しいよ	-11.3392
▁いやいやいや	-11.3393
気に入らない	-11.3393
クリック	-11.3394
押して	-11.3398
バレー	-11.3399
休め	-11.3401
を助けた	-11.3407
どこから来た	-11.3408
実家	-11.3408
▁先月	-11.3411
リコ	-11.3411
カート	-11.3411
▁ハハハハ	-11.3412
レーダー	-11.3415
キック	-11.3418
持て	-11.3418
銃弾	-11.3421
▁それなのに	-11.3422
するなよ	-11.3424
カラス	-11.3425
した方がいい	-11.343
拒	-11.3431
0,000	-11.3431
▁ひょっとして	-11.3431
垣	-11.3431
戯	-11.3431
鶴	-11.3431
▁ゆうべ	-11.3432
時間の無駄	-11.3432
悩ま	-11.3432
ブレイク	-11.3433
適用	-11.3437
説明します	-11.3439
レディ	-11.344
ことになって	-11.344
に至る	-11.3443
ようでした	-11.3444
対話	-11.3447
速さ	-11.3448
踊って	-11.3449
大物	-11.345
聞いてた	-11.3451
によるもの	-11.3452
お知らせ	-11.3453
ハンマー	-11.3453
日目	-11.3457
人権	-11.346
ai	-11.346
リントン	-11.3461
活性化	-11.3461
フライト	-11.3463
胸に	-11.3464
候	-11.3464
試す	-11.3465
っちまう	-11.3468
尊	-11.3472
してるのよ	-11.3472
やり遂げ	-11.3473
オリジナル	-11.3473
听	-11.3473
寮	-11.3473
放課後	-11.3473
▁イーサン	-11.3473
過ごせ	-11.3473
pa	-11.3474
目に遭	-11.3475
ホームレス	-11.3475
丁度	-11.3476
潜在	-11.3476
パネル	-11.3477
行きましょ	-11.3479
大部分	-11.3479
しなくちゃ	-11.3484
が得られ	-11.3484
クリスタル	-11.3485
神聖な	-11.3485
瞬	-11.3489
アルコール	-11.3491
日付	-11.3491
こともない	-11.3493
どの位	-11.3496
気に入る	-11.3498
を始めました	-11.3501
レックス	-11.3501
について話し	-11.3505
賊	-11.351
誠人	-11.351
▁その理由	-11.3511
聞いたら	-11.3511
ho	-11.3512
回答	-11.3512
望んでいる	-11.3515
虎	-11.3515
征服	-11.3516
フィル	-11.3517
片づけ	-11.3517
ペイ	-11.3518
義理	-11.3518
総合	-11.3519
利き	-11.3521
きてる	-11.3523
介入	-11.3523
▁銀さん	-11.3524
動いてる	-11.3524
発想	-11.3524
乗っ	-11.3525
費やし	-11.3527
時間以内に	-11.3527
集めた	-11.3528
2'	-11.3529
ベルリン	-11.353
認めた	-11.353
日前に	-11.3532
本気で	-11.3532
▁私たちには	-11.3534
ヤバイ	-11.3536
掛かる	-11.3539
合流	-11.3541
▁気にするな	-11.3541
ロング	-11.3542
触って	-11.3542
気付く	-11.3544
乾杯	-11.3544
ゲイル	-11.3545
を抱えて	-11.3546
▁分かったわ	-11.3546
なくなり	-11.3547
言った通り	-11.3548
▁お疲れ	-11.3549
アマ	-11.355
料金	-11.355
模	-11.355
雇われ	-11.3553
巨	-11.3554
▁どちらか	-11.3555
けれども	-11.3556
大型	-11.3557
キャンペーン	-11.3557
ダイエット	-11.3557
虹	-11.3557
引きずり	-11.3557
パーカー	-11.3558
▁ふざけんな	-11.3558
先祖	-11.3558
作られ	-11.3559
あるけど	-11.356
排出	-11.3565
ベティ	-11.3567
切ら	-11.3567
オイル	-11.3567
メラ	-11.3574
を売る	-11.3575
形式	-11.3575
にせよ	-11.3578
微妙	-11.3578
打ち上げ	-11.358
IP	-11.3581
明け	-11.3581
と話したい	-11.3582
ドック	-11.3582
買わ	-11.3585
名付け	-11.3588
ジャマ	-11.359
ウェア	-11.3591
透明	-11.3592
助かった	-11.3594
人を殺した	-11.3595
尋ねる	-11.3595
イヴ	-11.3595
誰なのか	-11.3596
コーラ	-11.3597
中東	-11.3597
シリーズ	-11.3599
面白く	-11.3602
ジャケット	-11.3603
いないわ	-11.3603
ファースト	-11.3605
了解	-11.3608
チャーリー	-11.361
ことがあって	-11.3611
駐車	-11.3613
▁何かあったら	-11.3613
致します	-11.3618
お持ち	-11.362
んち	-11.362
守りたい	-11.362
大地	-11.362
同一	-11.3621
中佐	-11.3622
お聞き	-11.3623
引く	-11.3623
なかったんです	-11.3625
のそばに	-11.3626
じき	-11.3628
伝統的	-11.3629
見たくない	-11.3632
マップ	-11.3634
を殺そうとした	-11.3635
まれる	-11.3635
させられる	-11.3638
▁ニコ	-11.3639
シリア	-11.364
オリンピック	-11.3642
动	-11.3642
煮	-11.3642
免許	-11.3642
お断り	-11.3642
コンビニ	-11.3643
仮定	-11.3643
偽造	-11.3643
期限	-11.3645
連合	-11.3645
を受けました	-11.3645
言ってみろ	-11.3646
前向き	-11.3647
トニー	-11.3647
ドローン	-11.3647
断片	-11.3649
kg	-11.3649
向かってる	-11.3649
できてる	-11.3652
do	-11.3653
避けて	-11.3655
正体を	-11.3658
間違ってた	-11.3658
長期	-11.3659
診て	-11.366
と同時に	-11.3661
と考えた	-11.3661
バージョン	-11.3663
されてます	-11.3666
最後まで	-11.3667
ウエ	-11.3672
たほうがいい	-11.3672
ミサ	-11.3673
独自の	-11.3682
忍者	-11.3682
療法	-11.3682
おめでとう	-11.3682
キャロル	-11.3683
究	-11.3683
このまま	-11.3684
してやれ	-11.3684
ミツバチ	-11.3684
周波数	-11.3684
繊維	-11.3684
耳を傾け	-11.3684
▁だいぶ	-11.3684
合理的	-11.3684
職人	-11.3684
衝動	-11.3684
清掃	-11.3684
タクシー	-11.3685
鑑定	-11.3685
異議	-11.3685
ジャングル	-11.3685
更新	-11.3686
じゃないのよ	-11.3688
チェーン	-11.369
を取り戻	-11.3693
いただけますか	-11.3695
ポスター	-11.3696
良いこと	-11.3696
愛している	-11.3699
信用できない	-11.37
プラス	-11.37
もうすぐ	-11.3701
▁直ぐに	-11.3704
尽	-11.3706
鋭	-11.371
敵に	-11.3714
尋ねて	-11.372
▁そりゃあ	-11.3721
探している	-11.3723
捕まる	-11.3723
関わる	-11.3725
上院議員	-11.3727
唇	-11.3727
傘	-11.3727
茂	-11.3727
蛍	-11.3727
起業家	-11.3727
干渉	-11.3727
しとく	-11.3727
▁このままじゃ	-11.3727
分だけ	-11.3728
▁ここを出	-11.373
ほしかった	-11.373
ワシントン	-11.373
部族	-11.3731
只是	-11.3731
シドニー	-11.3732
除外	-11.3733
大使	-11.3733
すいません	-11.3734
貨物	-11.3735
静かな	-11.3735
▁言っただろ	-11.3739
広がる	-11.3739
エリート	-11.3744
になるだろう	-11.3745
全く同じ	-11.3745
なくなりました	-11.3745
ステーション	-11.3748
哀れな	-11.3749
怖くて	-11.375
痛く	-11.375
中継	-11.375
ボケ	-11.3751
昼間	-11.3756
水素	-11.3756
お腹	-11.3756
を見たい	-11.3758
握り	-11.3759
ございま	-11.376
なくてはならない	-11.3765
ローラ	-11.3767
育ち	-11.3767
貸してくれ	-11.3768
を持て	-11.3769
婆	-11.377
リハビリ	-11.377
裡	-11.377
昆虫	-11.377
発揮	-11.377
戻ってこ	-11.377
江戸	-11.3771
相続	-11.3771
似合う	-11.3772
生き残った	-11.3772
遺体を	-11.3772
チャンスだ	-11.3775
ヴィー	-11.3777
垂	-11.3778
覗	-11.378
だけではありません	-11.3781
価値観	-11.3781
たかったんだ	-11.3781
SA	-11.3782
無しで	-11.3782
らう	-11.3783
ワット	-11.3784
マック	-11.3785
消せ	-11.3785
崎さん	-11.3786
決まってる	-11.3787
何もしてない	-11.3788
狂って	-11.3791
借りて	-11.3791
有機	-11.3793
ことだけ	-11.3794
無事だ	-11.3796
会った時	-11.3796
見かけた	-11.3798
効率的	-11.3803
ec	-11.3803
金曜	-11.381
知ったら	-11.3811
惜し	-11.3813
かも知れません	-11.3813
推進	-11.3814
受賞	-11.3815
ブツ	-11.3815
照明	-11.3816
▁このカードは	-11.3816
調理	-11.3816
一流	-11.3817
届ける	-11.3818
抜いた	-11.3819
▁こんなもの	-11.382
飼	-11.3822
ご用	-11.3822
飛ばす	-11.3823
臆病者	-11.3826
話を聞く	-11.3827
出所	-11.383
輝	-11.3831
楽しんでる	-11.3832
仕上げ	-11.3832
繰り返	-11.3833
回す	-11.3833
おじ	-11.3835
適切	-11.3835
我が国	-11.3836
に変え	-11.3838
ラッシュ	-11.3843
キリスト	-11.3844
訪ね	-11.3845
▁仮に	-11.3848
を望んでる	-11.3848
数分	-11.3848
CM	-11.3848
鍛え	-11.3849
と思われます	-11.3849
選ばれ	-11.385
くじ	-11.385
二階	-11.3853
▁幸運を	-11.3853
近寄	-11.3853
を奪い	-11.3854
リッパー	-11.3855
コロンビア	-11.3856
マンハッタン	-11.3856
啦	-11.3856
徐々に	-11.3856
か知りたい	-11.3857
へ行け	-11.3858
参加する	-11.3861
構いません	-11.3862
▁えーと	-11.3864
降下	-11.3867
伝達	-11.3867
そこにいた	-11.3869
マルセル	-11.3871
まかせ	-11.3872
道徳	-11.3872
記念日	-11.3874
うるさい	-11.3874
言えません	-11.3878
▁俺のこと	-11.388
気づかなかった	-11.3881
声明	-11.3881
正確	-11.3881
を読んだ	-11.3882
最も重要な	-11.3883
外交	-11.3884
生かして	-11.3884
慰め	-11.3886
すぎだ	-11.3888
给	-11.389
送金	-11.3891
サウ	-11.3891
来るぞ	-11.3892
ab	-11.3892
機嫌	-11.3892
心地	-11.3898
いるのよ	-11.3899
頭蓋骨	-11.39
ウェスト	-11.39
を入れた	-11.39
▁クリリン	-11.39
欠陥	-11.39
霊圧	-11.3902
塗り	-11.3904
生徒会長	-11.3905
外す	-11.3905
酷	-11.3908
を開いて	-11.3909
きれない	-11.3909
続けている	-11.391
しに来た	-11.391
に行きました	-11.3912
とは何か	-11.3912
北極	-11.3913
を利用する	-11.3914
違うんだ	-11.3914
答えろ	-11.3915
分けて	-11.3918
には関係ない	-11.3918
右手	-11.3918
偉い	-11.392
▁また明日	-11.3923
君達	-11.3923
ところだった	-11.3924
ダイア	-11.3925
いいでしょう	-11.3926
の写真です	-11.3926
を救って	-11.3926
イング	-11.3931
LA	-11.3933
紛れ	-11.3935
取られた	-11.3935
いるぞ	-11.3938
好了	-11.3939
シェフ	-11.3943
▁cbi	-11.3943
NSA	-11.3944
タク	-11.3945
したくて	-11.3945
頂いて	-11.3946
カニ	-11.3946
ユーザー	-11.3946
微笑	-11.3948
悪党	-11.3948
パル	-11.3949
▁・「	-11.3949
対処する	-11.3952
されること	-11.3954
負う	-11.3958
▁もう二度と	-11.396
識	-11.3962
ヤード	-11.3963
▁いやぁ	-11.3964
困ってる	-11.3965
スペル	-11.3967
キモ	-11.3971
申	-11.3973
無意識	-11.3973
▁もっと早く	-11.3976
というより	-11.3976
出会う	-11.3976
っすね	-11.3977
長生き	-11.3979
銃を持って	-11.398
と会う	-11.398
▁いつだって	-11.3982
用語	-11.3983
方法です	-11.3984
し続ける	-11.3985
軍人	-11.3986
一下	-11.3986
ベンジャミン	-11.3987
NASA	-11.3987
イライアス	-11.3987
▁ターンエンド	-11.3987
おっさん	-11.3987
聴衆	-11.3988
わせた	-11.3988
不倫	-11.3988
スコフィールド	-11.3988
拠点	-11.3989
知らぬ	-11.3989
▁いえいえ	-11.399
疲れてる	-11.3991
を借りて	-11.3992
カバン	-11.3995
▁離せ	-11.3996
行われた	-11.4003
学びました	-11.4004
ちまえ	-11.401
デカ	-11.4012
みたいなもん	-11.4016
ドラム	-11.4016
時間後に	-11.4017
スパ	-11.4018
きちんと	-11.4018
アーチャー	-11.402
逃げ出した	-11.4022
▁どちらも	-11.4028
アダム	-11.4028
送ってくれ	-11.4028
▁この仕事	-11.4029
炭	-11.4029
迷子	-11.4031
拡張	-11.4031
▁バイバイ	-11.4032
柔らか	-11.4032
しないように	-11.4032
ジャクソン	-11.4034
使われ	-11.4036
移民	-11.4036
ズル	-11.4039
企んで	-11.4041
信用できる	-11.4051
きたら	-11.4051
化学物質	-11.4052
せてくれ	-11.4053
逃げよう	-11.4058
▁ある意味	-11.406
▁何なんだよ	-11.406
もあるし	-11.4061
小便	-11.4063
窓から	-11.4065
協	-11.4066
展	-11.407
しといて	-11.4072
睡	-11.4075
遁	-11.4075
ガレージ	-11.4075
オヤジ	-11.4075
ゴリラ	-11.4075
推薦	-11.4076
コレクション	-11.4076
削除	-11.4076
立っている	-11.4076
稼ぐ	-11.4077
流れる	-11.4078
叫ぶ	-11.4078
悪い事	-11.4082
海兵隊	-11.4082
殺人鬼	-11.4083
明るく	-11.4084
魅力的な	-11.4084
切り替え	-11.4086
分かってた	-11.4087
誤り	-11.4091
工事	-11.4092
死にたい	-11.4097
やり直し	-11.4099
▁それにしても	-11.4104
木さん	-11.4105
31	-11.4105
▁より多くの	-11.4107
イナ	-11.4107
さなきゃ	-11.4107
命を救った	-11.4108
▁現代の	-11.4113
間違いだ	-11.4113
次第だ	-11.4115
こんにちは	-11.4116
司令	-11.4116
死人	-11.4117
明か	-11.4117
責任がある	-11.4118
なければならなかった	-11.4118
聞いてください	-11.4118
起きたこと	-11.4118
旦	-11.4119
丈	-11.412
紫	-11.412
脂肪	-11.412
遍	-11.412
お嬢様	-11.412
なるべく	-11.412
最悪な	-11.412
盗聴	-11.4121
シンプルな	-11.4121
▁ハハッ	-11.4122
立ってる	-11.4124
放出	-11.4126
法案	-11.4128
うえ	-11.4128
暴動	-11.4128
交代	-11.4128
まぁ	-11.4128
あるいは	-11.4129
殴って	-11.4132
夜明け	-11.4133
上手い	-11.4133
過程で	-11.4134
▁多くの人が	-11.4135
デール	-11.4136
してみましょう	-11.4137
ビッチ	-11.4137
付いてる	-11.4137
不良	-11.4141
たくはない	-11.4144
たくさんあります	-11.4145
ピク	-11.4147
みたいですね	-11.4148
▁念のため	-11.415
見られた	-11.4151
難民	-11.4154
と一緒だ	-11.4159
話してない	-11.4162
▁他に何か	-11.4163
以内に	-11.4163
レコード	-11.4164
を選び	-11.4164
架	-11.4164
ネックレス	-11.4165
渇	-11.4165
漢	-11.4165
フレーム	-11.4165
を含む	-11.4165
おしゃべり	-11.4165
遮断	-11.4165
持たせ	-11.4165
▁アリア	-11.4166
止められる	-11.4169
声が聞こえ	-11.417
細かい	-11.4171
刺した	-11.4172
想像して	-11.4175
始	-11.4176
てえ	-11.4176
お客様	-11.4177
▁ねえねえ	-11.4177
を取り出し	-11.4179
鋭い	-11.4182
本物だ	-11.4183
▁夫は	-11.4187
何とかする	-11.4192
▁複数の	-11.4197
意義	-11.4197
逃げろ	-11.4202
120	-11.4204
恥ずかし	-11.4204
破壊され	-11.4206
に任せる	-11.4207
法的	-11.4208
生まれ変わ	-11.4209
さまざまな	-11.4209
叱	-11.4209
役立たず	-11.4209
シフト	-11.421
負けて	-11.421
おった	-11.4211
正式に	-11.4213
▁私の名前は	-11.4214
やってくる	-11.4215
消費者	-11.4215
りゃいい	-11.4217
小型	-11.4218
小学生	-11.422
供	-11.422
ボディ	-11.422
そんな事を	-11.4221
ろうとした	-11.4221
と言ったら	-11.4221
イザ	-11.4221
▁そのあと	-11.4226
空腹	-11.4228
申し上げます	-11.4228
感情的	-11.4233
▁でかい	-11.4233
触れて	-11.4237
呼	-11.4237
そのような	-11.4238
▁あんたたち	-11.4238
ャ	-11.4241
に決まってる	-11.4242
▁この島	-11.4244
燃	-11.4245
に夢中	-11.4247
すんだよ	-11.4249
▁いい感じ	-11.425
ものではありません	-11.4251
森の中	-11.4251
取り戻し	-11.4253
オビ	-11.4253
出かけて	-11.4254
プロポーズ	-11.4254
デビッド	-11.4254
ドキドキ	-11.4255
穏やか	-11.4255
恩恵	-11.4255
ネイサン	-11.4255
クリニック	-11.4255
欲望	-11.4256
反撃	-11.4257
無人	-11.4257
厳しく	-11.4257
絵画	-11.4257
参加者	-11.4259
なくてはなりません	-11.4262
▁ヘヘヘ	-11.4265
観光	-11.4267
痛む	-11.4267
行われる	-11.4269
見込み	-11.4269
に入れた	-11.4271
分裂	-11.4271
▁そして私は	-11.4272
CO	-11.4272
知事	-11.4273
なければいけない	-11.4281
気温	-11.4282
▁おーい	-11.4282
豊	-11.4286
って思った	-11.4287
粒	-11.4289
親しい	-11.429
なんかない	-11.4291
無事で	-11.4292
ちゃだめ	-11.4292
合衆国	-11.4293
齢	-11.4294
シナ	-11.4299
乗った	-11.4299
洞	-11.4299
桂	-11.43
ネクタイ	-11.43
俳優	-11.43
嬉しかった	-11.43
温泉	-11.4301
やりましょう	-11.4301
資本	-11.4301
クレジットカード	-11.4301
到底	-11.4301
副大統領	-11.4302
盗む	-11.4303
形態	-11.4304
理子	-11.4305
ごめんね	-11.4307
紹介する	-11.4309
撮る	-11.4313
鳴り	-11.4313
▁この瞬間	-11.4314
聞くんだ	-11.4315
を握って	-11.4317
あんの	-11.4318
ミュー	-11.4318
一家	-11.432
▁ちょっと待ってください	-11.4322
ようとしています	-11.4325
必	-11.4326
上空	-11.4328
いただける	-11.433
部署	-11.4332
たくなる	-11.4334
が終わったら	-11.4335
胆	-11.4338
何なんだ	-11.4341
悲	-11.4342
握手	-11.4342
覚えた	-11.4343
になったのです	-11.4344
▁思い出して	-11.4344
レッスン	-11.4345
下ろせ	-11.4346
を狙う	-11.4346
急速に	-11.4346
もったいない	-11.4347
集まる	-11.4348
に行くんだ	-11.4351
ジュール	-11.4351
帰ってきて	-11.4352
モーター	-11.4352
見つけ出す	-11.4353
oo	-11.4355
ゲスト	-11.4356
フランス語	-11.4359
天然	-11.4359
この国	-11.436
首都	-11.4362
34	-11.4363
um	-11.4366
全世界	-11.4366
エイズ	-11.4368
進行中	-11.4368
買える	-11.4372
深刻	-11.4373
開かれ	-11.4373
水着	-11.4374
飲まない	-11.4377
揃って	-11.4377
コック	-11.4378
変わら	-11.438
定期	-11.4386
生まれました	-11.4389
デッド	-11.4389
ホーン	-11.439
しとけ	-11.439
久利生	-11.4391
迅速	-11.4391
の周りに	-11.4391
録画	-11.4391
驚異	-11.4391
レディー	-11.4392
看板	-11.4392
願います	-11.4396
理解した	-11.4398
んねん	-11.4398
と思っていました	-11.4398
困って	-11.4399
話していた	-11.44
流す	-11.4402
それ以上	-11.4403
警察署	-11.4403
知能	-11.4404
同じ事を	-11.4404
行ってきます	-11.4405
ウッ	-11.4406
残す	-11.4406
▁なんでもない	-11.4411
後悔する	-11.4413
とにかく	-11.4415
72	-11.4416
らなければ	-11.4417
されていません	-11.4418
示した	-11.4419
言うべき	-11.4423
気配	-11.4424
実力	-11.4425
来たのか	-11.4426
避	-11.4427
アラブ	-11.4429
▁中には	-11.4431
ザック	-11.4431
っちょ	-11.4431
の本質	-11.4436
冒	-11.4437
宜	-11.4437
綾	-11.4437
オランダ	-11.4437
報復	-11.4437
に直面し	-11.4438
株式	-11.4439
仮面	-11.444
運転して	-11.4441
ポップ	-11.4442
ホモ	-11.4443
を持ってた	-11.4444
棟	-11.4446
▁せや	-11.4446
を売って	-11.4447
というのが	-11.4447
役者	-11.4448
グリム	-11.445
やってくれる	-11.445
▁そうだろう	-11.4451
▁でも今は	-11.4454
を忘れた	-11.4456
リーク	-11.4457
んじゃなかった	-11.4459
生きていく	-11.4459
年ぶり	-11.446
女優	-11.4461
▁いとこ	-11.4462
権利がある	-11.4462
55	-11.4464
▁同じこと	-11.4465
申し訳ありません	-11.4465
っていうんだ	-11.4468
サブ	-11.4469
▁分かるか	-11.4469
主要な	-11.447
服を着	-11.4471
インチ	-11.4473
1%	-11.4473
ot	-11.4477
▁たしか	-11.448
らしくない	-11.448
謝って	-11.4481
見えなかった	-11.4482
怠	-11.4483
アインシュタイン	-11.4483
ヘリコプター	-11.4483
マイアミ	-11.4483
关	-11.4483
嫌がらせ	-11.4483
尻尾	-11.4484
反省	-11.4485
今年	-11.4485
イルホ	-11.4485
経った	-11.4485
テイラー	-11.4486
嬉しいわ	-11.4487
間に合う	-11.4487
どうしようもない	-11.4488
準備して	-11.4489
▁そうなのか	-11.4492
花嫁	-11.4493
出世	-11.4496
ここから出	-11.4496
してくれないか	-11.4497
協会	-11.4497
▁パティ	-11.4498
られるように	-11.4499
ter	-11.45
捧げ	-11.4503
倒す	-11.4504
飛んだ	-11.4505
れん	-11.4506
科医	-11.4507
勝って	-11.4508
あそこに	-11.451
って思って	-11.4513
飲ま	-11.452
どうしたんだ	-11.4521
▁これほど	-11.4521
一緒にいる	-11.4528
歴史上	-11.4529
凝	-11.4529
藻	-11.4529
紅茶	-11.453
▁両手を	-11.453
損害	-11.4531
保健	-11.4531
を経て	-11.4531
ウォーター	-11.4532
大きな問題	-11.4533
変異	-11.4536
目的地	-11.4536
休む	-11.4536
通す	-11.4539
リブ	-11.454
pd	-11.4543
公正	-11.4545
田君	-11.4546
茶色	-11.4549
困難な	-11.4549
おっしゃる	-11.4551
こんで	-11.4552
歌手	-11.4552
守れ	-11.4553
成長する	-11.4556
想い	-11.4561
弁護	-11.4566
2%	-11.4566
できず	-11.4566
懸	-11.4568
性能	-11.4568
借	-11.4569
という男	-11.4571
不死	-11.4573
刊	-11.4576
5,000	-11.4576
ライオネル	-11.4576
嘛	-11.4576
ベトナム	-11.4576
堀	-11.4576
窃盗	-11.4576
▁如果	-11.4576
抑制	-11.4576
▁はじめまして	-11.4576
抱きしめ	-11.4576
独房	-11.4576
バク	-11.4576
演劇	-11.4576
及ぶ	-11.4577
那么	-11.4577
ウォーレン	-11.4578
探知	-11.4579
諦めて	-11.458
直前に	-11.4581
こう言った	-11.4582
自覚	-11.4582
▁どうなって	-11.4585
バカだ	-11.4586
一郎	-11.4596
工業	-11.4597
グラン	-11.4598
似たような	-11.4598
に近づく	-11.4599
自然界	-11.4601
低く	-11.4603
リヤ	-11.4603
になろうと	-11.4608
▁もし私が	-11.461
考えています	-11.461
カサ	-11.4611
隙	-11.4612
に出た	-11.4614
眠れない	-11.4614
インク	-11.4615
カモ	-11.4619
出て来	-11.4619
▁我也	-11.462
遠慮	-11.462
そうとした	-11.462
廷	-11.4621
評	-11.4621
循環	-11.4622
$	-11.4622
教科書	-11.4622
罪悪感	-11.4622
オーディション	-11.4622
宛	-11.4622
爱	-11.4622
総督	-11.4622
嬉しく	-11.4622
豊富	-11.4623
それほど	-11.4623
災害	-11.4623
協定	-11.4623
幹細胞	-11.4624
放射	-11.4624
放置	-11.4625
取られ	-11.4626
少なく	-11.4626
を引き起こし	-11.4627
▁そこで私は	-11.4627
▁テア	-11.4628
舞い	-11.463
に渡って	-11.4634
指定	-11.4634
興味ない	-11.4637
▁ちょっと失礼	-11.464
させられ	-11.4643
わからなかった	-11.4643
解決した	-11.4646
回線	-11.4646
尋ね	-11.4647
▁どういうことですか	-11.4647
ノリ	-11.4649
忘れろ	-11.465
考えれば	-11.4651
ブリン	-11.4653
移住	-11.4653
じゅう	-11.4659
しましょ	-11.4659
格差	-11.466
褒め	-11.4663
んじゃん	-11.4665
取得	-11.4665
しかなかった	-11.4665
尊重	-11.4666
セバスチャン	-11.4669
邸	-11.4669
感じました	-11.4669
統治	-11.467
香港	-11.467
減らす	-11.4671
この世に	-11.4671
寂しく	-11.4672
坊主	-11.4672
濃度	-11.4672
れたら	-11.4674
ろうとしてる	-11.4674
成功する	-11.468
驚くほど	-11.468
を超えた	-11.4681
ガイド	-11.4682
トルコ	-11.4682
を集める	-11.4682
お許し	-11.4687
新鮮な	-11.4688
誓った	-11.4688
逮捕され	-11.4688
外に出て	-11.4691
蒸	-11.4694
いちゃ	-11.4695
行われて	-11.4696
帰ります	-11.4698
怯え	-11.47
パブ	-11.4702
悪者	-11.4702
250	-11.4703
最初から	-11.4705
したいのです	-11.4706
君のこと	-11.4708
許されない	-11.4709
召	-11.471
議長	-11.4713
を用意し	-11.4714
保護者	-11.4716
祐	-11.4716
戒	-11.4716
ナイジェリア	-11.4716
コンサート	-11.4716
リアム	-11.4717
助けられる	-11.4718
金曜日	-11.4723
da	-11.4724
賭けて	-11.473
教徒	-11.4732
無礼	-11.4733
セキュリティー	-11.4735
していたのです	-11.4737
▁そうしたら	-11.4737
守ってくれ	-11.4738
を理解して	-11.4742
マニア	-11.4744
すべきこと	-11.4744
いっしょ	-11.4746
飛べ	-11.4746
メガ	-11.4748
つかめ	-11.4748
▁いいんですか	-11.475
跳ね	-11.4753
前科	-11.4753
抜けた	-11.4755
鉄道	-11.4756
ぱ	-11.4757
指名	-11.4758
住んでた	-11.476
▁明日の朝	-11.476
ナビ	-11.4762
ロマンチック	-11.4764
擦	-11.4764
枕	-11.4764
蓋	-11.4764
クライアント	-11.4764
スターダスト	-11.4764
マフィア	-11.4764
ひっくり返	-11.4764
がんばって	-11.4764
友だち	-11.4764
渋滞	-11.4764
頑固	-11.4764
孤立	-11.4764
売買	-11.4765
殴られ	-11.4765
作ろう	-11.4765
シンボル	-11.4765
広場	-11.4766
▁アイリス	-11.4766
10%	-11.4767
衛生	-11.4768
考えがある	-11.477
景	-11.477
明確に	-11.4771
を傷つけた	-11.4771
んぼ	-11.4772
カナ	-11.4775
裏切る	-11.4776
トライ	-11.4777
分前に	-11.4777
選ば	-11.4779
約束する	-11.478
ハント	-11.4783
あなた方	-11.4783
人体	-11.4785
と思うんです	-11.4786
最強	-11.4786
ませぬ	-11.4788
死んだんだ	-11.4788
誘拐された	-11.479
下がる	-11.479
上着	-11.4792
とは思わない	-11.4794
会わない	-11.4796
奥様	-11.4796
家具	-11.4796
人を殺す	-11.4797
経つ	-11.4798
釣	-11.4799
母上	-11.4799
▁最新の	-11.4799
来てた	-11.4799
電磁	-11.4801
気絶	-11.4801
山田	-11.4801
集中して	-11.4802
▁会いに	-11.4803
ことなのです	-11.4804
連絡先	-11.4804
狙	-11.4804
ボーン	-11.4806
▁ぐっ	-11.4807
お客さん	-11.4807
地面	-11.4811
nasa	-11.4811
媒	-11.4811
自警団	-11.4811
进	-11.4811
點	-11.4811
歪	-11.4811
侵害	-11.4812
倫理	-11.4813
聖杯	-11.4813
幻想	-11.4813
組合	-11.4813
女神	-11.4813
外側	-11.4813
▁リース君	-11.4813
停電	-11.4814
暖かい	-11.4814
20%	-11.4815
逃がす	-11.4815
ポーター	-11.4818
ゾン	-11.4819
▁出来るだけ	-11.482
私を見て	-11.4821
哲学	-11.4825
ことではありません	-11.4826
変わりました	-11.4826
これだけ	-11.4826
上がれ	-11.4827
カール	-11.4827
▁そういや	-11.4827
って言うんだ	-11.4829
訪れた	-11.4829
ひげ	-11.4831
受け止め	-11.4832
ウォルター	-11.4832
じゃなきゃ	-11.4834
実現する	-11.4835
感心	-11.4837
息子さん	-11.484
だけでいい	-11.4843
▁ネットで	-11.4843
▁マシンは	-11.4843
進める	-11.4846
三角	-11.4847
見張り	-11.4849
したいのか	-11.4849
良心	-11.4853
果たす	-11.4855
稼	-11.4856
土曜日	-11.4856
献	-11.4856
猟	-11.4859
溝	-11.4859
萌	-11.4859
▁よいしょ	-11.4859
管轄	-11.4859
木曜	-11.486
▁お疲れさまでした	-11.486
夕飯	-11.486
最優先	-11.4861
暮らせ	-11.4861
暗黒	-11.4861
ms	-11.4862
合法	-11.4862
不愉快	-11.4864
ペア	-11.4866
御坂	-11.4867
感知	-11.4867
邪悪な	-11.4868
が言うには	-11.487
▁そうなんですか	-11.4873
を渡せ	-11.4873
勢力	-11.4875
見せたい	-11.4878
会合	-11.4879
食わ	-11.488
バグ	-11.4883
一个	-11.4885
生理	-11.4889
多くの人々	-11.489
別人	-11.489
聴く	-11.489
高価な	-11.4892
山ほど	-11.4893
愛人	-11.4893
もたらす	-11.4896
ハゲ	-11.4897
再建	-11.49
を受け入れる	-11.4902
たいのです	-11.4903
携	-11.4906
股	-11.4907
アイルランド	-11.4907
アルバム	-11.4907
取り除く	-11.4907
▁それは違う	-11.4908
悲鳴	-11.4908
財務	-11.4908
させよう	-11.4908
43	-11.491
連れて行った	-11.4911
破片	-11.4912
動かす	-11.4913
見失った	-11.4913
せえ	-11.4918
通路	-11.492
ウォン	-11.4921
名刺	-11.4922
理解している	-11.4922
こま	-11.4924
大事だ	-11.4929
一致する	-11.4931
盲目	-11.4931
誓って	-11.4932
創造性	-11.4935
▁アハハ	-11.4936
年も前	-11.494
のは難しい	-11.494
休ま	-11.4941
曲げ	-11.4941
▁私の息子	-11.4943
▁ハンナ	-11.4944
▁いい子だ	-11.4944
もないのに	-11.4946
した場合	-11.4946
どうしよう	-11.4948
ウェー	-11.4949
▁あの娘	-11.495
▁もう十分	-11.4953
受け取り	-11.4954
▁アニー	-11.4954
貸せ	-11.4955
縄	-11.4955
▁オメエ	-11.4956
奨	-11.4956
斗	-11.4956
ドナルド	-11.4956
▁ていうか	-11.4956
フランシス	-11.4956
マネージャー	-11.4956
拒絶	-11.4956
強烈	-11.4957
常務	-11.4957
無人機	-11.4958
消した	-11.4958
リトル	-11.4959
亡くなりました	-11.4961
幾つか	-11.4962
レンズ	-11.4963
▁キャシー	-11.4963
戦車	-11.4965
不公平	-11.4967
甘く	-11.4968
ba	-11.4969
まーす	-11.4969
蹴り	-11.4969
▁言ったでしょ	-11.4972
締	-11.4972
飲んでる	-11.4974
MS	-11.4974
恋に落ち	-11.4976
大丈夫なのか	-11.4977
▁他の誰か	-11.4978
▁近所の	-11.4978
▁何やってんだよ	-11.4978
▁安心して	-11.4978
▁いくらでも	-11.498
現実的	-11.498
理性	-11.4981
感じてる	-11.4983
共犯者	-11.4985
ラフ	-11.4985
人の男	-11.4988
実在	-11.4989
貰え	-11.499
▁最後は	-11.499
んとこ	-11.499
ついている	-11.4991
分前	-11.4993
学的	-11.4995
ブロー	-11.4996
当初	-11.4996
教えてくれない	-11.4996
ミック	-11.4998
トラン	-11.4999
弟子	-11.5
落ち着け	-11.5001
何回も	-11.5002
探した	-11.5002
を見せてくれ	-11.5003
刑務所で	-11.5003
俗	-11.5004
ワクワク	-11.5004
嶋	-11.5004
▁you	-11.5004
死んじゃう	-11.5004
浮かぶ	-11.5004
申し訳ございません	-11.5005
包囲	-11.5005
カミ	-11.5007
食堂	-11.5009
隼人	-11.5009
取り戻す	-11.5009
素直	-11.501
フィッツ	-11.5012
ゴースト	-11.5012
and	-11.5013
▁すぐ戻る	-11.5013
をもつ	-11.5013
クルーズ	-11.5016
を恐れて	-11.5019
逮捕した	-11.502
失われた	-11.502
とは思わなかった	-11.502
▁というのも	-11.5022
怯えて	-11.5023
自殺した	-11.5027
出会って	-11.5027
をお持ち	-11.503
この世界	-11.5031
▁わかるか	-11.5031
付き合ってる	-11.5033
ハマ	-11.5035
っぱなし	-11.5039
ジャズ	-11.5039
物理学者	-11.5039
臣	-11.5044
あっち	-11.5044
勝者	-11.5045
漏	-11.5048
簡単なこと	-11.5049
ss	-11.5051
dvd	-11.5053
お姉ちゃん	-11.5053
仁	-11.5053
積極的	-11.5053
しつこい	-11.5053
正当な	-11.5053
▁痛っ	-11.5053
キャラクター	-11.5054
反抗	-11.5054
貴族	-11.5055
打ち明け	-11.5055
▁そうかい	-11.5056
まだ生きてる	-11.5057
一直	-11.5058
▁どうやったら	-11.5059
書かれた	-11.5061
惹かれ	-11.5062
▁ご両親	-11.5062
ハワード	-11.5062
ビリ	-11.5062
立たない	-11.5064
ゴミ箱	-11.5064
大事なのは	-11.5065
ブック	-11.5065
と呼んでいます	-11.5066
きつい	-11.5072
飲ませ	-11.5074
ロフ	-11.5074
傷つく	-11.5075
南アフリカ	-11.5079
敬意を	-11.508
と言っても	-11.5081
すべ	-11.5087
道徳的	-11.5088
できませんでした	-11.5088
起こして	-11.5089
になっちゃう	-11.5093
暮	-11.5095
いいかしら	-11.5095
いずれ	-11.5096
取り調べ	-11.5098
続けます	-11.5099
鬱	-11.5102
シミュレーション	-11.5102
喝	-11.5102
披露	-11.5102
テキスト	-11.5102
桁	-11.5102
スレイド	-11.5102
▁ごちそうさま	-11.5102
暴露	-11.5102
キャンセル	-11.5103
イェー	-11.5103
50%	-11.5104
レジ	-11.5105
スノー	-11.5106
特権	-11.5106
決めました	-11.5107
ブラックホール	-11.5109
デュー	-11.5111
あげるわ	-11.5112
出発する	-11.5112
ns	-11.5112
ベッドで	-11.5116
唱	-11.5116
を提供する	-11.5117
持てる	-11.5118
何しに来た	-11.5119
車に乗って	-11.5123
シルバー	-11.5132
メタ	-11.5139
させられた	-11.5139
演説	-11.5141
ディスク	-11.5145
に備えて	-11.5146
狂気	-11.5147
承	-11.515
恨	-11.515
殴る	-11.5151
とは言えない	-11.5151
麗	-11.5151
繁栄	-11.5151
▁グレッグ	-11.5151
▁毎朝	-11.5152
カッコイイ	-11.5152
泳ぎ	-11.5152
石炭	-11.5153
転校生	-11.5153
電球	-11.5153
いる間	-11.5153
過激	-11.5154
司令部	-11.5155
这里	-11.5155
喰種	-11.5156
amp	-11.5156
を満た	-11.5156
ことなど	-11.5156
拾って	-11.5156
掛けた	-11.5157
クルマ	-11.5158
調べました	-11.516
▁あなたのこと	-11.5164
タイムズ	-11.5165
諦めない	-11.5166
太陽系	-11.5167
ジャンク	-11.5169
委員	-11.5171
ご機嫌	-11.5171
呼ばれる	-11.5172
掛	-11.5174
ジロ	-11.5177
va	-11.5178
のお陰で	-11.518
始まりました	-11.518
ガリ	-11.5183
を可能に	-11.5184
私の娘	-11.5185
エール	-11.519
大切な人	-11.5191
していなかった	-11.5196
減った	-11.52
ビタミン	-11.5201
太平洋	-11.5201
昧	-11.5201
蘭	-11.5201
蝶	-11.5201
落ち着か	-11.5202
牛乳	-11.5203
▁残念だが	-11.5204
感染症	-11.5204
还是	-11.5206
ゃあ	-11.5206
ゾー	-11.5206
太陽光	-11.5207
吸う	-11.521
憶えてる	-11.521
知る限り	-11.521
に連絡して	-11.5211
▁シャーク	-11.5213
▁ハロー	-11.5214
スポット	-11.5216
ぶつ	-11.5216
取り付け	-11.5218
年ほど前	-11.5219
刺す	-11.5219
可能性があります	-11.522
パッ	-11.5221
话	-11.5223
ずく	-11.5223
女の人	-11.5223
話を聞いた	-11.5223
ちゃいました	-11.5225
を見てくれ	-11.5225
ハハハ	-11.5226
年上	-11.523
バンク	-11.5232
と言っていた	-11.5238
おこ	-11.5238
人間関係	-11.5241
判る	-11.5241
アクション	-11.5243
を用いて	-11.5243
を取得	-11.5243
叶	-11.5245
見通し	-11.5247
フランクリン	-11.5248
いなくなって	-11.525
若い女性	-11.525
帆	-11.5251
檻	-11.5251
隆	-11.5251
遡	-11.5251
长	-11.5251
黙示録	-11.5251
どこにでも	-11.5251
依然	-11.5251
切符	-11.5251
恒星	-11.5252
守護	-11.5253
指揮官	-11.5253
あなた達	-11.5253
探せ	-11.5255
HR	-11.5255
聞いたわ	-11.5262
も含めて	-11.5263
▁冗談じゃない	-11.5264
を越えて	-11.5267
トウ	-11.5269
何であれ	-11.5269
もらおうか	-11.5274
バレた	-11.5276
用意した	-11.5276
鮮	-11.5277
輝き	-11.5278
カーター	-11.5279
▁その話は	-11.5282
話したくない	-11.5282
野心	-11.5287
▁聞こえてる	-11.5288
答えた	-11.5289
幹部	-11.5291
を用意して	-11.5294
代償	-11.53
牢	-11.53
DVD	-11.5301
近づいた	-11.5301
スケジュール	-11.5301
▁とうとう	-11.5301
▁わっ	-11.5301
▁どんな感じ	-11.5301
モント	-11.5301
盗難	-11.5303
フリーザ	-11.5304
テリ	-11.5309
動物園	-11.531
存在します	-11.5313
タッチ	-11.5315
岡崎	-11.5317
百万ドル	-11.5318
ついでに	-11.5319
アメ	-11.532
不会	-11.5321
部活	-11.5321
手口	-11.5324
不在	-11.5325
水道	-11.5326
楽しめ	-11.5327
やめてくれ	-11.5327
誘った	-11.5328
残れ	-11.5336
いただいた	-11.5343
ヒョン	-11.5345
婦	-11.5347
を利用した	-11.535
摂	-11.535
楓	-11.5351
泰	-11.5351
丹	-11.5351
剃	-11.5351
孔	-11.5351
开始	-11.5351
バナナ	-11.5351
▁余計なこと	-11.5351
を引き起こす	-11.5352
陪審員	-11.5352
ブルックリン	-11.5352
暴走	-11.5352
あけ	-11.5352
売春	-11.5354
直した	-11.5354
ニュ	-11.5357
▁この女	-11.5358
見つかりました	-11.536
一個	-11.5362
量子	-11.5362
はずなのに	-11.5365
与えられ	-11.5366
▁しれない	-11.5367
みたいだね	-11.5368
産む	-11.537
あるべき	-11.5372
となっています	-11.5372
似ています	-11.5373
怪	-11.5374
飼い	-11.5376
連れて来た	-11.5376
泳	-11.5376
絞り	-11.5379
驚きました	-11.5383
みたいだった	-11.5383
つ目	-11.5386
わけがない	-11.5386
頂きたい	-11.5386
成分	-11.5387
そう思った	-11.5388
▁謎の	-11.539
出そう	-11.5395
込んでる	-11.5396
伸	-11.5396
たがってる	-11.5398
命を救う	-11.54
躍	-11.5401
樣	-11.5401
アカデミー	-11.5401
染色体	-11.5401
診療所	-11.5401
顕微鏡	-11.5401
CEO	-11.5401
言っとく	-11.5401
アンジェラ	-11.5401
近づき	-11.5401
最良の	-11.5401
▁こばと	-11.5402
連携	-11.5402
ランディ	-11.5402
▁《≪	-11.5403
役に立て	-11.5403
つなげ	-11.5403
主人公	-11.5403
照合	-11.5404
▁お疲れさまです	-11.5405
御免	-11.5405
お姫様	-11.5406
ヴァイ	-11.5406
退治	-11.5406
お弁当	-11.5406
ベア	-11.5407
一点	-11.541
大きくなった	-11.5412
取り入れ	-11.5412
緑色	-11.5416
フィッシュ	-11.5416
役員	-11.5416
▁この店	-11.5417
今後	-11.5418
撃たれて	-11.5418
られん	-11.5419
お客	-11.5421
カオス	-11.5421
寸前	-11.5422
かかりました	-11.5425
レック	-11.543
ki	-11.5431
持っていない	-11.5434
見れる	-11.5436
エクス	-11.5437
下ろして	-11.5438
覆われ	-11.5441
大騒ぎ	-11.5443
いけません	-11.5445
戻りました	-11.5446
見てみよう	-11.5447
府	-11.5451
▁斉藤さん	-11.5452
〝	-11.5452
壇	-11.5452
斉	-11.5452
ジェレミー	-11.5452
實	-11.5452
臨床	-11.5453
決まる	-11.5454
消防	-11.5454
集まった	-11.5455
職務	-11.5455
95	-11.5456
グラマー	-11.5457
いろんな	-11.5457
出来れば	-11.5458
士官	-11.5458
▁びっくりした	-11.5459
見返り	-11.5461
したいんです	-11.5463
プリント	-11.5463
活動家	-11.5465
募	-11.5466
ような気が	-11.5469
▁いやあ	-11.5469
戻って来た	-11.547
誘われ	-11.5472
本番	-11.5473
夫妻	-11.5477
殴られた	-11.5478
フィルム	-11.5479
届き	-11.5481
減らし	-11.5482
▁思ったより	-11.5482
が好きです	-11.5482
わからないけど	-11.5485
一致した	-11.5485
無くなった	-11.5487
みたいだけど	-11.5488
ごはん	-11.549
を裏切った	-11.5492
パール	-11.5493
尽くす	-11.5493
ウラ	-11.5497
討	-11.55
しばしば	-11.5503
梶	-11.5503
産まれ	-11.5503
圧倒的	-11.5503
ちょっと待って	-11.5504
貰って	-11.5505
管制	-11.5505
読書	-11.5505
切除	-11.5505
井戸	-11.5505
のおかげだ	-11.5506
読者	-11.5507
ct	-11.5508
社交	-11.5509
倒して	-11.5509
外れた	-11.5509
怒った	-11.5513
サリ	-11.5515
ざま	-11.5515
危険です	-11.5518
闘う	-11.5519
よく知ってる	-11.5525
ロシア人	-11.5526
時間の問題	-11.5527
掛かり	-11.5528
出てけ	-11.5528
時頃	-11.5533
込める	-11.5533
時間前に	-11.5534
必要としている	-11.5537
認めない	-11.5538
貰	-11.5538
▁もう終わり	-11.5544
急げ	-11.5544
知られた	-11.5546
捨てられた	-11.555
影響を受け	-11.555
綺麗な	-11.5552
我慢して	-11.5552
すげぇ	-11.5554
琴	-11.5554
腎臓	-11.5554
遠ざけ	-11.5554
まさしく	-11.5554
顧問	-11.5554
教わった	-11.5555
落ち着き	-11.5555
幼児	-11.5555
馬鹿げて	-11.5557
ショーン	-11.5558
落とせ	-11.5558
偏見	-11.5559
解散	-11.556
ポンプ	-11.556
ほっといて	-11.556
コウモリ	-11.5563
できている	-11.5564
好意	-11.5565
シェイ	-11.5565
出かけた	-11.5566
ろうとしている	-11.5567
怖がらせ	-11.5569
交通事故	-11.5574
大衆	-11.5577
形状	-11.5577
寝てた	-11.5578
▁チャド	-11.5579
知りませんでした	-11.558
大将	-11.5581
を使います	-11.5581
どうすればいい	-11.5582
▁遅くなっ	-11.5582
見られて	-11.5582
幼い	-11.5583
耐えられない	-11.5585
お考え	-11.5586
▁よくある	-11.5586
▁だから私は	-11.5589
開催	-11.5589
言った事	-11.5593
問題を抱えて	-11.5593
連れてきて	-11.5596
やってんの	-11.56
リウム	-11.5601
二重	-11.5601
子供の頃	-11.5601
チア	-11.5601
いらん	-11.5604
当てて	-11.5604
促	-11.5604
頻繁に	-11.5606
伯爵	-11.5606
妊婦	-11.5606
ピッタリ	-11.5606
奪われた	-11.5606
欲求	-11.5606
補助	-11.5607
回ってる	-11.5608
復元	-11.5608
魔術	-11.5609
ブラボー	-11.5609
を利用し	-11.5609
▁ほらほら	-11.561
惨め	-11.561
六花	-11.561
選び	-11.561
向こう側	-11.5611
▁ジュリアン	-11.5612
気がついた	-11.5612
所長	-11.5612
を行いました	-11.5613
行っちゃった	-11.5617
▁うお	-11.5618
ポスト	-11.5618
聞きたくない	-11.562
タール	-11.562
どれ位	-11.5623
外見	-11.5626
化石	-11.5628
子孫	-11.5628
ではありませんでした	-11.5629
持った	-11.5632
何が起きている	-11.5634
生物学的	-11.5636
人間性	-11.5638
踊る	-11.5639
小さい頃	-11.5641
家に帰	-11.5642
出来ました	-11.5648
気づかない	-11.5652
この男	-11.5652
死んでしまう	-11.5652
戻って来	-11.5653
▁誰だって	-11.5653
忠	-11.5654
お祭り	-11.5656
滞	-11.5656
両手	-11.5657
アシスタント	-11.5658
オオカミ	-11.5658
ロサンゼルス	-11.5658
▁おめえ	-11.5658
肥満	-11.5658
ラップトップ	-11.5658
ねばなりません	-11.5659
遺族	-11.5659
名簿	-11.5659
補給	-11.5659
をとり	-11.5661
這個	-11.5661
絶え	-11.5661
なさそうだ	-11.5662
仕組	-11.5662
▁よっ	-11.5664
ブラザー	-11.5664
メダル	-11.5665
を捨てて	-11.5665
続けています	-11.5667
と考えました	-11.5668
簡単です	-11.5669
外傷	-11.567
待ってくれ	-11.5673
▁そうですよね	-11.5675
オーク	-11.5677
見たことない	-11.5682
へ向かう	-11.5686
アザ	-11.5687
出演	-11.5689
しまうのです	-11.5691
だけじゃなく	-11.5692
刺さ	-11.5693
DC	-11.5694
と言うのか	-11.5695
予	-11.5695
ハリス	-11.5696
を助けたい	-11.5699
寂	-11.5705
体温	-11.5706
気楽	-11.5708
糖	-11.5709
アイデンティティ	-11.571
イケメン	-11.571
ゴッサム	-11.571
スカウト	-11.571
▁さもないと	-11.571
彫刻	-11.571
最先端	-11.571
に似てる	-11.571
分かんねえ	-11.5711
平凡	-11.5711
油断	-11.5712
やるべきこと	-11.5714
壊して	-11.5714
骨格	-11.5715
スケッチ	-11.572
のところへ	-11.5722
飼って	-11.5723
仕事をする	-11.5724
▁どこ行った	-11.5724
コンテスト	-11.5726
を残す	-11.5727
共有する	-11.5727
パーツ	-11.5728
連れてくる	-11.5728
事が出来る	-11.5729
良き	-11.5729
ないで下さい	-11.5729
2009	-11.573
一種の	-11.5731
輸	-11.5731
この街	-11.5731
日中	-11.5732
時間前	-11.5734
下がり	-11.5744
頭脳	-11.5747
ex	-11.5748
殺せる	-11.5756
寄った	-11.5759
植	-11.5761
にも関わらず	-11.5762
プレッシャー	-11.5762
遊園地	-11.5762
とは限らない	-11.5762
栓	-11.5762
アボット	-11.5762
ソーシャル	-11.5762
止まらない	-11.5763
推定	-11.5763
乱暴	-11.5764
修業	-11.5764
副社長	-11.5765
生意気	-11.5765
バディ	-11.5767
団結	-11.5767
リリース	-11.5768
頑張れ	-11.5768
響き	-11.577
傑作	-11.577
空っぽ	-11.5771
ラング	-11.5772
ホスト	-11.5773
言ってください	-11.5778
▁そいつら	-11.578
経営者	-11.5781
ロフト	-11.5781
訴える	-11.5782
興奮して	-11.5783
出たら	-11.5788
▁アハハハ	-11.5791
叩く	-11.5792
ジア	-11.5794
知ってるでしょ	-11.5796
外国人	-11.5796
王子様	-11.5796
役に立たない	-11.5797
永久に	-11.5798
唱え	-11.5799
と言っています	-11.5799
取らない	-11.5804
規	-11.5806
巡り	-11.5807
也是	-11.5813
錯	-11.5814
方程式	-11.5815
珠	-11.5815
防犯カメラ	-11.5815
挿	-11.5815
ceo	-11.5815
警視庁	-11.5815
賞賛	-11.5815
▁いい加減にしろ	-11.5816
細工	-11.5816
ましく	-11.5817
健全	-11.5817
しゃべって	-11.582
活発	-11.5821
体育	-11.5822
花粉	-11.5825
到着する	-11.5825
リズボン捜査官	-11.5826
オペラ	-11.5828
死んでも	-11.5828
原子力	-11.5829
si	-11.583
十字	-11.5832
雨が降	-11.5832
んじゃないかって	-11.5838
サンドラ	-11.584
機体	-11.5841
カッコいい	-11.5842
エゴ	-11.5843
ハワイ	-11.5843
ジヌ	-11.5846
つもりですか	-11.5846
殴	-11.5848
▁家の中	-11.5849
デスク	-11.5852
いってる	-11.5854
▁行かないで	-11.5856
質量	-11.5859
そん	-11.5861
どうすれば	-11.5862
やりたいこと	-11.5866
澪	-11.5868
インディアン	-11.5868
フミくん	-11.5868
お見舞い	-11.5868
▁どんだけ	-11.5868
▁どうなの	-11.5868
稼いで	-11.5868
連鎖	-11.5869
モーテル	-11.5869
悔しい	-11.587
役に立ち	-11.587
栄光	-11.5871
思想	-11.5872
ステル	-11.5873
ゆう	-11.5874
ソファ	-11.5876
無ければ	-11.5876
飛ばして	-11.5876
を盗む	-11.5876
という事実	-11.5877
チューブ	-11.588
ように見えます	-11.588
になろう	-11.5883
マザー	-11.5883
ヴァル	-11.5885
戻って来る	-11.5885
打ち合わせ	-11.5886
レート	-11.5887
にもなる	-11.5887
マシーン	-11.589
に電話した	-11.5891
動いている	-11.5892
古代	-11.5892
と思ってるのか	-11.5894
オーガ	-11.5895
僕達	-11.5896
▁はーい	-11.5899
でしたっけ	-11.5901
能力者	-11.5906
確かめて	-11.5906
カラー	-11.5907
徹夜	-11.5909
離れろ	-11.5909
忙しいんだ	-11.5911
伝えろ	-11.5912
電話があった	-11.5912
破り	-11.5912
▁キミたち	-11.5915
儀	-11.5917
▁一緒に来て	-11.5917
左手	-11.5918
まみれ	-11.5919
▁どういたしまして	-11.5921
塾	-11.5921
駒	-11.5921
エンジェル	-11.5921
評議会	-11.5921
忍耐	-11.5921
▁ふざけるな	-11.5922
お会いできて	-11.5922
最期	-11.5923
脱走	-11.5923
思いません	-11.5924
鉱山	-11.5924
打たれ	-11.5925
陸軍	-11.5927
我們	-11.5928
体操	-11.5929
潜水	-11.593
対戦	-11.593
足元	-11.5931
することができ	-11.5935
届いて	-11.5936
驚かせ	-11.5939
▁何してんの	-11.5939
利口	-11.594
登り	-11.5941
▁この場合	-11.5947
46	-11.5947
誤った	-11.5949
op	-11.595
予想外	-11.595
の一つです	-11.5954
面白	-11.596
年もの間	-11.5962
秋山	-11.5963
メロ	-11.5964
空軍	-11.5968
個性	-11.597
卒	-11.5973
チリ	-11.5973
スウェーデン	-11.5974
パトロール	-11.5974
エリオット	-11.5974
マリファナ	-11.5974
甥	-11.5974
釘	-11.5974
カプセル	-11.5974
拉致	-11.5974
レシピ	-11.5975
シナリオ	-11.5975
ローレンス	-11.5975
妨げ	-11.5975
届かない	-11.5976
他者	-11.5976
不運	-11.5976
つつあります	-11.5977
に達し	-11.5977
工藤	-11.5978
ちん	-11.5981
それとも	-11.5981
言っていました	-11.5983
風船	-11.5985
実行する	-11.5985
武士	-11.5986
話を聞き	-11.5987
人の子供	-11.5992
ものではない	-11.5992
やっかい	-11.5994
クレア	-11.5995
間違っていた	-11.5995
気づか	-11.5996
黄色い	-11.5998
アップル	-11.5999
見つけられ	-11.6001
判断する	-11.6001
見出し	-11.6002
so	-11.6002
遅れた	-11.6003
高度な	-11.6005
子犬	-11.6006
言いなさい	-11.601
49	-11.6012
ハック	-11.6012
万年	-11.6014
違え	-11.6014
くなってる	-11.6016
ディラン	-11.6016
んじゃねぇ	-11.6017
信者	-11.6018
無知	-11.602
使者	-11.6022
起こります	-11.6023
悲惨な	-11.6025
魔王	-11.6026
間違いだった	-11.6026
居住	-11.6026
敏	-11.6027
掻	-11.6028
▁てめぇ	-11.6028
アレルギー	-11.6028
掉	-11.6028
斜	-11.6028
貌	-11.6028
ポテト	-11.6028
合計	-11.6029
降りろ	-11.6029
計測	-11.6029
スキラー	-11.6029
広報	-11.6029
你们	-11.603
離陸	-11.603
保安	-11.603
氷河	-11.6032
マーケット	-11.6033
戻れない	-11.6033
▁その調子	-11.6035
フェイス	-11.6036
こりゃ	-11.6037
クリーン	-11.6037
ブーツ	-11.6038
逃げない	-11.6038
ゴム	-11.6039
ダンサー	-11.6044
▁おいしそう	-11.6046
を重ね	-11.6047
数える	-11.6047
▁もう大丈夫だ	-11.6049
見てみる	-11.6049
起こったこと	-11.605
落ち込んで	-11.605
ブレイ	-11.6055
育てて	-11.6055
いくつも	-11.6056
言う通りに	-11.6056
をさら	-11.6057
来た時	-11.6057
我が家	-11.6059
掴んで	-11.606
ドニー	-11.6061
に従え	-11.6063
おけば	-11.6064
良くなった	-11.6067
貰える	-11.6068
▁伝説の	-11.6069
かもしれ	-11.607
チュニ	-11.6071
慌て	-11.6072
二人とも	-11.6074
▁彼女達	-11.6074
中断	-11.6074
何か知ってる	-11.6075
同級生	-11.6082
汝	-11.6082
普及	-11.6082
如此	-11.6083
個々の	-11.6083
退屈な	-11.6084
▁新八	-11.6085
乙女	-11.6086
進路	-11.6087
ランダム	-11.6087
ハグ	-11.6088
合える	-11.6088
やってきて	-11.6089
移り	-11.6089
有名人	-11.609
返した	-11.6091
前提	-11.6091
断った	-11.6092
青春	-11.6092
救われ	-11.6093
平方	-11.6097
イカレ	-11.61
手柄	-11.6107
尋	-11.6107
情報源	-11.6108
リィ	-11.6112
会ってない	-11.6112
前方	-11.6114
大切なもの	-11.6116
傷つけない	-11.612
待ち合わせ	-11.6123
薄い	-11.6126
▁地球上の	-11.6128
地球上で	-11.6131
死ねば	-11.6132
一度だけ	-11.6132
の面倒を	-11.6133
刺された	-11.6133
ウォード	-11.6135
を作ること	-11.6135
变	-11.6136
稀	-11.6137
些細な	-11.6137
誇りに思う	-11.6137
ステーキ	-11.6137
ふふ	-11.6137
冷凍	-11.6137
はどうなの	-11.6138
仮想	-11.6138
精一杯	-11.6138
バックアップ	-11.6139
まってる	-11.614
由来	-11.6142
教えてやる	-11.6143
超能力	-11.6143
べきじゃない	-11.6145
支度	-11.6145
気づかれ	-11.6146
39	-11.6146
ケニア	-11.6146
傷ついた	-11.6146
ドーン	-11.6148
頂く	-11.6149
撮影した	-11.615
化された	-11.615
夏目	-11.6151
調べてる	-11.6151
を紹介します	-11.6151
言ってなかった	-11.6152
準備ができて	-11.6154
欠点	-11.6155
とどま	-11.6158
を発見しました	-11.6158
資	-11.6159
出来る事	-11.6159
獲	-11.6164
ぐり	-11.6167
彼を殺した	-11.6168
を表す	-11.6172
縛られ	-11.6172
彼方	-11.6174
コマ	-11.6176
を愛している	-11.6182
生きてきた	-11.6182
大学生	-11.6184
宇宙人	-11.6184
▁必死に	-11.6188
各地	-11.6188
憲	-11.6189
荒れ	-11.619
キューバ	-11.6191
ヅ	-11.6191
エンタープライズ	-11.6191
杏	-11.6191
素晴らしかった	-11.6191
觉得	-11.6192
結晶	-11.6192
58	-11.6192
区画	-11.6193
理屈	-11.6193
預かって	-11.6194
器具	-11.6195
トランス	-11.6196
火災	-11.6196
男達	-11.6198
横断	-11.6199
▁手札から	-11.62
報い	-11.62
起こらない	-11.62
につれて	-11.6201
ジョフリー	-11.6204
家に帰れ	-11.6208
を行います	-11.6209
▁何の事	-11.6209
食った	-11.621
怒られ	-11.6213
いるはずだ	-11.6214
▁そばに	-11.6214
パット	-11.6219
撮れ	-11.622
を雇った	-11.6221
ろうとする	-11.6221
▁彼はあなた	-11.6224
やって来る	-11.6224
面白いこと	-11.6225
発行	-11.6226
忘れられない	-11.6226
失業	-11.6228
と一緒にいる	-11.6232
フォーク	-11.6233
充	-11.6236
ファラ	-11.6237
モニタ	-11.6237
緊張して	-11.6239
愛していた	-11.6239
のもとに	-11.6241
覧	-11.6242
《	-11.6243
しないでくれ	-11.6243
たった一人	-11.6244
姐	-11.6244
骸	-11.6245
ギャンブル	-11.6246
舗	-11.6246
掌	-11.6246
保釈	-11.6246
ユーモア	-11.6247
小切手	-11.6247
確立	-11.6247
▁ゲイリー	-11.6248
魚雷	-11.6248
文化祭	-11.6248
汚職	-11.6249
マジシャン	-11.6249
泣いてる	-11.625
ダーウィン	-11.625
守られ	-11.6251
キラー	-11.6254
することになる	-11.6254
地雷	-11.6255
▁ううっ	-11.6255
受け入れられ	-11.6256
なかなか	-11.6257
真犯人	-11.626
目当て	-11.626
マーチン	-11.626
わかってた	-11.6261
いてくれる	-11.6267
いったら	-11.6267
喋る	-11.6268
言わん	-11.627
求められ	-11.6272
キャッチ	-11.6273
別れる	-11.6275
指数	-11.6276
テク	-11.6278
登って	-11.6279
売人	-11.628
直前	-11.6281
してもらいたい	-11.6282
hi	-11.6283
土曜	-11.6284
イースト	-11.6287
やったのか	-11.6287
着せ	-11.6287
No	-11.6287
シェア	-11.6289
かかっている	-11.6292
歩行	-11.6292
翌	-11.6294
殺す気	-11.6295
知りました	-11.6297
拝	-11.6298
▁フェリシティ	-11.6301
セーラームーン	-11.6301
姓	-11.6301
繁殖	-11.6301
けっこう	-11.6301
ムーア	-11.6301
洗浄	-11.6301
構わん	-11.6302
別荘	-11.6302
じっくり	-11.6302
に包まれ	-11.6303
おくべき	-11.6303
奪った	-11.6303
ニーズ	-11.6304
カーン	-11.6304
無謀	-11.6305
満ち	-11.6307
描け	-11.6307
▁その言葉	-11.6311
フィンチ	-11.6311
してくれない	-11.6311
向かえ	-11.6312
IT	-11.6313
つもりなの	-11.6314
っちゃダメ	-11.6317
ソロ	-11.6318
行くべき	-11.6319
思っています	-11.632
っぽく	-11.6321
9%	-11.6321
満たされ	-11.6323
障害者	-11.6326
エース	-11.6326
離れない	-11.6327
魅	-11.6328
▁俺はお前	-11.6328
住んでいた	-11.6333
拾った	-11.6333
言われてる	-11.6333
当日	-11.6334
らどうする	-11.6334
考えてみましょう	-11.6336
なるほど	-11.6337
川先生	-11.6338
ミスター	-11.6338
バスケ	-11.6342
者がいる	-11.6342
オート	-11.6344
ver	-11.6344
▁もう遅い	-11.6349
▁その件	-11.6351
憎んで	-11.6354
不法	-11.6354
ヘルメット	-11.6357
旨	-11.6357
错	-11.6357
ダイレクトアタック	-11.6357
親愛なる	-11.6357
柔軟	-11.6357
捕獲	-11.6357
いたずら	-11.6357
▁ダリル	-11.6358
面白かった	-11.6359
排出量	-11.6359
レジー	-11.6359
今どこ	-11.6359
ピュ	-11.636
旅館	-11.636
水晶	-11.636
記号	-11.636
しないといけない	-11.6362
純粋な	-11.6363
魔物	-11.6364
なさそう	-11.6365
送られた	-11.6369
生き返	-11.6371
待ち伏せ	-11.6377
取られて	-11.6379
▁あなた自身	-11.638
笑った	-11.6382
話をしよう	-11.6384
投資家	-11.6384
ハズ	-11.6389
もせず	-11.6389
ap	-11.6393
消化	-11.6395
ルース	-11.6401
出よう	-11.6404
帰りたい	-11.6405
おらん	-11.6406
貴女	-11.6406
縦	-11.6412
枠	-11.6412
鎧	-11.6413
みゆき	-11.6413
フュー	-11.6413
寂しかった	-11.6413
似合ってる	-11.6413
ポルノ	-11.6416
▁ものすごい	-11.6416
カルテル	-11.6417
バービー	-11.6417
良好	-11.6418
バスケット	-11.6418
いなくなる	-11.6418
続けました	-11.6418
にわたって	-11.6418
お疲れさま	-11.6419
アイアン	-11.6419
を犯す	-11.642
懸け	-11.6421
ごっこ	-11.6423
冷え	-11.6423
ご紹介します	-11.6423
処方	-11.6423
出場	-11.6424
仕掛けた	-11.6425
ドリル	-11.6425
基金	-11.6426
食べられる	-11.6429
何時も	-11.643
▁ケイティ	-11.6431
悟空	-11.6431
ハッチ	-11.6433
精神病院	-11.6434
今回は	-11.6434
私はあなた	-11.6434
すぎます	-11.6436
扱	-11.6436
何度か	-11.6441
やり取り	-11.6445
追い出され	-11.6448
ネット上	-11.6449
中国人	-11.6449
ワイヤー	-11.645
収容	-11.6454
主役	-11.6454
いいんだけど	-11.6455
場所へ	-11.6457
85	-11.6458
短期	-11.6458
思いつき	-11.6459
空中	-11.6461
刺され	-11.6463
親父さん	-11.6464
▁そういうわけ	-11.6464
酔っ払	-11.6464
していきます	-11.6465
離さない	-11.6467
种	-11.6469
予感	-11.6469
亮	-11.6469
陶	-11.6469
隠蔽	-11.6469
繊細	-11.6469
搭載	-11.647
探求	-11.647
大切なのは	-11.6471
許され	-11.6472
を見てみろ	-11.6474
チューナー	-11.6474
バイオリン	-11.6474
ゲット	-11.6478
一起	-11.648
返してくれ	-11.6481
注入	-11.6482
あたって	-11.6484
移送	-11.6485
見分け	-11.6489
詩人	-11.6489
いらっしゃいます	-11.649
帰れる	-11.649
大規模	-11.6492
借りる	-11.6493
居なかった	-11.6495
しゃべる	-11.6495
やってみよう	-11.6498
見たことがない	-11.6499
香水	-11.6499
入れろ	-11.6501
薬品	-11.6501
見つめて	-11.6502
時速	-11.6503
ネジ	-11.651
変人	-11.6511
差し上げ	-11.6511
CD	-11.6513
食い止め	-11.6514
偽り	-11.6516
隠し事	-11.6516
路地	-11.6518
いつまで	-11.652
候補者	-11.6522
愚か者	-11.6523
生え	-11.6524
筒	-11.6525
它	-11.6525
▁ナジール	-11.6525
素晴らしく	-11.6525
おっぱい	-11.6526
整備	-11.6526
促進	-11.6526
識別	-11.6527
大阪	-11.6529
放題	-11.6529
ヶ月間	-11.6529
死亡率	-11.653
除去	-11.653
チャック	-11.653
マグロ	-11.6531
ミール	-11.6531
お任せ	-11.6534
何をするか	-11.6536
家にいる	-11.6538
項目	-11.6539
有った	-11.6542
帰国	-11.6542
ぐれ	-11.6544
スカート	-11.6544
部位	-11.6545
そりゃ	-11.6545
何て言う	-11.6546
できなくて	-11.6546
呼びかけ	-11.6546
老化	-11.6549
ユダヤ	-11.655
引っ張り	-11.6553
という名の	-11.6554
頂きます	-11.6554
のためなら	-11.6556
フレイ	-11.6557
▁だまされ	-11.6557
染	-11.656
を開けろ	-11.656
世間	-11.6562
という名前	-11.6564
▁必要なら	-11.6565
拾い	-11.6567
変えられ	-11.6568
力を貸して	-11.657
男たち	-11.6575
怪し	-11.6576
シンクロ	-11.6577
ナメ	-11.6577
録	-11.6578
オニ	-11.6579
ものなのです	-11.6581
ロバート	-11.6582
サプライズ	-11.6582
堪	-11.6582
弦	-11.6582
疎	-11.6582
艇	-11.6582
乾燥	-11.6582
斑	-11.6582
▁いちいち	-11.6582
に満ちた	-11.6583
泳いで	-11.6583
泣いた	-11.6584
おやじ	-11.6584
ことが出来ます	-11.6585
飛び出し	-11.6585
生徒達	-11.6586
食欲	-11.6587
結界	-11.6587
根本的な	-11.6587
経済成長	-11.6589
絞め	-11.6589
ビク	-11.6591
リボン	-11.6594
シュート	-11.6596
働か	-11.6596
皆殺し	-11.6598
服役	-11.6598
救急車	-11.6599
言ったとおり	-11.6601
救ってくれた	-11.6602
出動	-11.6602
白雪	-11.6603
半数	-11.6603
返り	-11.6604
叔母	-11.6605
cc	-11.6607
メシ	-11.6607
ダナム	-11.661
深夜	-11.661
破れ	-11.6611
入口	-11.6612
作物	-11.6613
全面	-11.6614
恐らく	-11.6615
密度	-11.6617
会いに行く	-11.6619
か分かるか	-11.6619
▁マーティ	-11.662
ばあちゃん	-11.6621
何でもする	-11.6621
世界で最も	-11.6621
従う	-11.6622
子宮	-11.6623
ヤギ	-11.6624
サンダー	-11.6627
を使用し	-11.663
人間じゃない	-11.663
心配してた	-11.6631
裏切った	-11.6632
意地悪	-11.6634
早め	-11.6637
盟	-11.6638
症候群	-11.6639
傲慢	-11.6639
同性愛	-11.6639
挫	-11.6639
抽象	-11.6639
知られる	-11.664
お越し	-11.664
セラピー	-11.664
字幕	-11.6641
为什么	-11.6641
ge	-11.6644
嫌いなの	-11.6645
なりたくない	-11.6648
大学院	-11.665
資本主義	-11.6651
魔法少女	-11.6653
西部	-11.6657
フレッド	-11.6657
ome	-11.6658
恐れている	-11.6658
▁おおっ	-11.666
を破った	-11.6661
期待してる	-11.6661
をチェックし	-11.6667
使わせ	-11.6669
そろそろ	-11.6678
歴史的	-11.668
▁本当ですか	-11.6681
随	-11.6684
▁エイブ	-11.6684
褒めて	-11.6686
おはよう	-11.6686
レニー	-11.6687
行かせる	-11.6687
利用できる	-11.6688
顔色	-11.6688
44	-11.6691
すてき	-11.6691
どうなっている	-11.6691
棄	-11.6695
战	-11.6697
据	-11.6697
难	-11.6697
[...]
