<unk>	0
<s>	0
</s>	0
.	-2.61351
'	-3.28225
,	-3.30441
▁the	-3.59524
▁you	-3.61261
▁i	-3.6202
s	-3.62459
?	-3.92512
▁to	-3.94755
▁a	-4.06329
▁it	-4.18852
▁that	-4.34238
▁and	-4.38661
▁of	-4.48305
t	-4.57912
!	-4.62567
▁is	-4.66533
▁in	-4.75465
▁we	-4.80707
▁this	-4.87943
▁what	-4.8952
...	-5.04323
▁me	-5.16495
▁for	-5.21369
▁was	-5.24676
▁he	-5.28912
m	-5.31627
▁have	-5.325
▁do	-5.33284
▁are	-5.33837
re	-5.33848
▁on	-5.38187
▁my	-5.38226
▁your	-5.40992
▁not	-5.41804
▁be	-5.42937
▁so	-5.43945
▁can	-5.4695
▁with	-5.51163
▁	-5.5164
▁but	-5.51885
▁no	-5.61895
▁know	-5.6304
▁there	-5.66471
▁they	-5.67284
▁don	-5.68331
▁all	-5.70323
▁just	-5.72044
▁like	-5.77457
▁about	-5.79124
▁if	-5.80097
▁here	-5.83768
▁one	-5.93072
▁get	-5.93797
▁right	-5.96044
▁at	-5.97664
ll	-5.98275
▁now	-6.00574
▁out	-6.01059
▁go	-6.01709
▁she	-6.019
▁up	-6.06669
▁from	-6.09541
▁how	-6.13591
▁will	-6.136
▁him	-6.19041
▁as	-6.22309
▁who	-6.2349
▁well	-6.23744
▁want	-6.24299
▁think	-6.25734
▁her	-6.26172
d	-6.29023
ve	-6.29511
▁an	-6.29616
▁did	-6.30262
▁see	-6.32238
▁why	-6.34509
▁time	-6.34748
▁when	-6.35497
▁got	-6.37481
▁going	-6.38481
▁let	-6.40696
▁come	-6.46591
▁his	-6.47389
▁our	-6.48631
▁good	-6.49302
▁were	-6.51081
▁or	-6.52103
▁us	-6.52177
▁oh	-6.53076
▁then	-6.53139
▁back	-6.54999
▁would	-6.5524
▁by	-6.56088
▁where	-6.57318
▁really	-6.59647
▁them	-6.60414
▁people	-6.60941
▁yeah	-6.61125
▁been	-6.62478
▁something	-6.6551
▁had	-6.66272
▁need	-6.67186
▁take	-6.68439
▁because	-6.69101
▁more	-6.69175
▁okay	-6.69408
▁way	-6.7116
▁look	-6.7145
▁some	-6.75098
▁has	-6.75771
▁say	-6.7854
▁could	-6.798
▁too	-6.85459
▁tell	-6.8562
▁hey	-6.86003
▁make	-6.86428
▁yes	-6.88767
▁please	-6.88961
▁gonna	-6.90315
▁these	-6.9103
▁didn	-6.91481
▁very	-6.92821
▁even	-6.94609
ing	-6.94659
▁only	-6.95856
▁man	-6.96656
▁over	-6.97207
▁down	-6.97452
▁said	-6.97747
▁doing	-7.02046
▁sorry	-7.02256
▁two	-7.07502
▁should	-7.07682
▁little	-7.10481
▁their	-7.11012
▁thing	-7.11109
▁first	-7.11515
▁into	-7.13347
ed	-7.14441
▁am	-7.15581
▁other	-7.16534
▁much	-7.17379
▁work	-7.18292
▁any	-7.19421
▁never	-7.19471
▁mean	-7.20451
▁still	-7.22792
▁after	-7.24949
▁find	-7.25085
▁world	-7.26185
▁give	-7.2632
▁help	-7.2778
▁years	-7.28303
▁than	-7.28567
▁off	-7.28702
▁things	-7.29917
▁thank	-7.30405
▁those	-7.3196
▁life	-7.32189
▁day	-7.34457
▁before	-7.35017
▁which	-7.35302
▁new	-7.37627
▁anything	-7.37872
▁thought	-7.38142
▁again	-7.40953
▁stop	-7.41445
▁wait	-7.41647
▁sure	-7.42259
▁talk	-7.44378
▁last	-7.44619
▁love	-7.45813
▁call	-7.46935
▁put	-7.47972
▁home	-7.50289
▁...	-7.50677
▁kind	-7.52783
▁away	-7.52786
▁place	-7.54205
▁around	-7.54266
▁nothing	-7.55882
▁name	-7.5677
▁maybe	-7.56933
▁told	-7.57155
▁today	-7.57397
▁long	-7.5745
▁being	-7.57809
▁actually	-7.57817
▁same	-7.598
▁also	-7.60134
▁lot	-7.61252
▁mr	-7.61361
▁made	-7.61537
▁someone	-7.62592
▁won	-7.62805
▁guy	-7.62972
▁does	-7.65068
▁keep	-7.65596
▁isn	-7.66196
:	-7.66543
▁always	-7.67095
▁better	-7.68683
▁everything	-7.68742
▁found	-7.68743
▁every	-7.69004
▁uh	-7.69464
▁came	-7.69677
▁night	-7.69722
▁through	-7.70228
▁understand	-7.72212
▁three	-7.72474
▁doesn	-7.7251
▁father	-7.73624
▁many	-7.7365
▁wanted	-7.73999
▁next	-7.7406
▁believe	-7.75183
▁great	-7.76548
▁might	-7.76655
▁kill	-7.76718
▁leave	-7.77546
▁must	-7.79896
▁guys	-7.80119
▁happened	-7.80195
▁use	-7.80554
▁ever	-7.81065
▁left	-7.81357
▁feel	-7.81483
▁done	-7.82037
▁wrong	-7.82895
▁ah	-7.83305
▁ago	-7.83465
?!	-7.83553
▁god	-7.8364
▁own	-7.83928
▁huh	-7.83942
▁big	-7.83958
▁looking	-7.84585
▁coming	-7.84954
y	-7.85374
▁bad	-7.85861
▁money	-7.85924
▁already	-7.8618
▁most	-7.86279
▁school	-7.86901
er	-7.87266
▁person	-7.87851
▁another	-7.88037
▁may	-7.89006
▁talking	-7.89116
▁course	-7.90145
▁everyone	-7.90258
▁old	-7.90505
▁together	-7.92715
ly	-7.92826
i	-7.93517
▁went	-7.93583
▁ask	-7.93852
▁called	-7.93985
▁remember	-7.93995
▁house	-7.95608
▁mother	-7.96334
▁girl	-7.96721
a	-7.97043
▁show	-7.97142
▁stay	-7.97293
▁trying	-7.98103
▁dead	-7.98416
▁enough	-7.98434
▁fine	-7.98987
▁family	-7.99355
▁real	-8.00913
▁end	-8.00929
▁try	-8.0101
▁getting	-8.01488
▁saw	-8.01495
▁best	-8.01807
▁care	-8.01986
▁hear	-8.03002
san	-8.03146
▁used	-8.03688
▁room	-8.03729
▁killed	-8.04213
▁year	-8.04299
▁different	-8.0475
▁such	-8.05074
▁car	-8.0517
▁heard	-8.0527
▁move	-8.06055
▁hell	-8.06188
▁start	-8.06599
e	-8.06712
▁wasn	-8.07087
▁else	-8.08249
o	-8.08585
▁nice	-8.08754
▁listen	-8.09205
▁sir	-8.09787
▁idea	-8.10477
▁live	-8.10489
▁since	-8.10707
▁case	-8.10943
▁bit	-8.11092
▁son	-8.11489
▁friend	-8.11925
▁saying	-8.11932
▁dad	-8.11949
▁took	-8.13103
▁while	-8.13189
▁without	-8.13484
▁problem	-8.14157
▁job	-8.14415
▁yet	-8.14519
▁die	-8.14939
▁once	-8.14988
▁power	-8.15176
▁head	-8.15302
▁mind	-8.15556
▁until	-8.15691
▁change	-8.15996
▁true	-8.16602
r	-8.1679
▁thanks	-8.16816
▁hard	-8.16858
▁morning	-8.17177
▁matter	-8.17908
▁yourself	-8.18942
▁pretty	-8.19465
▁able	-8.20325
▁run	-8.20479
n	-8.21424
▁working	-8.21979
▁hand	-8.21994
▁part	-8.24112
▁guess	-8.24187
▁woman	-8.2429
▁turn	-8.24665
▁open	-8.25179
▁knew	-8.25195
▁human	-8.25875
▁few	-8.27028
▁face	-8.2803
▁thinking	-8.28116
▁brother	-8.28319
▁bring	-8.29252
▁important	-8.29548
▁seen	-8.29685
▁second	-8.2989
▁each	-8.30133
▁body	-8.30477
▁both	-8.30627
▁become	-8.31454
▁fucking	-8.31579
▁meet	-8.31831
▁looks	-8.32368
▁hold	-8.32563
▁phone	-8.33042
▁men	-8.33579
▁wouldn	-8.33719
▁probably	-8.33946
▁started	-8.34803
▁friends	-8.35074
▁alone	-8.35472
▁anyone	-8.35529
▁far	-8.35606
▁boy	-8.36051
▁whole	-8.36384
▁eat	-8.36449
▁water	-8.37212
▁happen	-8.37485
▁lost	-8.37494
▁soon	-8.37937
▁police	-8.38128
▁point	-8.38458
▁high	-8.38524
▁happy	-8.38644
▁number	-8.38865
▁mom	-8.39653
▁ok	-8.39903
▁myself	-8.39971
▁inside	-8.40289
▁days	-8.40896
▁play	-8.40908
▁story	-8.41014
▁hope	-8.41948
▁fight	-8.42809
▁under	-8.43269
▁means	-8.44426
▁though	-8.44853
▁reason	-8.44961
▁couldn	-8.45084
▁death	-8.45316
▁fuck	-8.45989
▁child	-8.46729
▁shit	-8.46802
▁wife	-8.47252
▁city	-8.47408
▁five	-8.47549
▁seems	-8.47913
▁haven	-8.48268
▁heart	-8.48329
▁gone	-8.48835
▁question	-8.49295
in	-8.49547
▁having	-8.49572
▁e	-8.49662
▁ready	-8.4992
▁baby	-8.50473
▁four	-8.50802
▁um	-8.50993
▁side	-8.52183
▁company	-8.52387
▁fact	-8.52634
▁moment	-8.53506
▁between	-8.53623
▁making	-8.53731
▁asked	-8.54711
▁taking	-8.54852
▁blood	-8.54972
▁tomorrow	-8.55007
▁close	-8.55065
▁business	-8.55525
▁whatever	-8.55888
▁quite	-8.57407
▁later	-8.5751
▁kid	-8.57738
▁eyes	-8.58073
▁exactly	-8.5823
▁watch	-8.59058
▁system	-8.59194
▁late	-8.59202
▁children	-8.59744
▁wanna	-8.59905
▁set	-8.60047
▁hello	-8.60254
▁gave	-8.60313
th	-8.60431
▁excuse	-8.60485
▁president	-8.609
▁minutes	-8.6108
▁worry	-8.61286
▁1	-8.61504
▁young	-8.6171
es	-8.62317
▁dr	-8.63351
▁10	-8.63849
▁stuff	-8.63937
▁gotta	-8.6416
▁aren	-8.64209
▁light	-8.64991
▁anyway	-8.65237
▁hands	-8.65265
▁answer	-8.65789
al	-8.65806
▁door	-8.66142
▁deal	-8.66492
▁died	-8.66493
▁half	-8.66853
▁war	-8.67019
▁check	-8.6721
▁team	-8.67301
▁sister	-8.67573
▁says	-8.67711
▁against	-8.67728
▁future	-8.67966
▁behind	-8.6837
▁order	-8.68664
▁trust	-8.68805
▁hit	-8.68971
▁chance	-8.68995
▁hurt	-8.69054
▁safe	-8.69473
▁million	-8.69782
▁waiting	-8.69914
c	-8.70096
▁kids	-8.70312
▁fire	-8.70434
▁rest	-8.70613
▁save	-8.70749
▁possible	-8.70759
▁beautiful	-8.70792
▁least	-8.70897
▁times	-8.71087
▁information	-8.71638
▁truth	-8.71918
▁read	-8.72157
▁cut	-8.72171
▁alive	-8.72292
▁plan	-8.72335
▁black	-8.72545
▁special	-8.72674
▁doctor	-8.72705
▁red	-8.73355
▁anymore	-8.73375
▁damn	-8.73559
▁food	-8.73726
▁easy	-8.73964
▁word	-8.74026
k	-8.746
▁supposed	-8.7466
l	-8.75111
▁attack	-8.75112
▁front	-8.75685
▁somebody	-8.76203
▁women	-8.76224
▁office	-8.76732
▁living	-8.76915
▁almost	-8.77373
▁tried	-8.77481
▁finally	-8.77487
▁john	-8.77914
▁game	-8.77925
▁wonder	-8.78068
▁hours	-8.78277
▁using	-8.79046
▁protect	-8.79067
▁hi	-8.79179
▁daughter	-8.79244
▁line	-8.79448
▁makes	-8.79484
▁shot	-8.79728
▁pay	-8.79942
▁fun	-8.80618
▁country	-8.80954
▁small	-8.81013
▁tonight	-8.81184
▁control	-8.81238
▁hospital	-8.81317
▁outside	-8.81471
▁miss	-8.81839
▁earth	-8.82246
▁book	-8.82462
p	-8.82565
▁past	-8.82943
▁o	-8.83091
▁break	-8.83225
▁sort	-8.83613
▁everybody	-8.84036
▁week	-8.84282
▁gun	-8.8443
▁shut	-8.84572
▁forget	-8.84723
▁20	-8.8489
▁six	-8.84923
▁3	-8.85066
▁lives	-8.85714
▁goes	-8.8584
▁couple	-8.86081
▁either	-8.87431
▁free	-8.8744
▁brain	-8.87614
▁wish	-8.87811
▁telling	-8.87908
▁brought	-8.87976
▁trouble	-8.87981
▁welcome	-8.8836
▁building	-8.88569
▁2	-8.88618
▁months	-8.89045
▁dream	-8.8911
▁feeling	-8.89494
▁comes	-8.89714
▁sense	-8.89759
▁sit	-8.90164
▁town	-8.9018
▁happens	-8.90614
b	-8.90729
▁drink	-8.90782
▁minute	-8.90836
▁mine	-8.91085
▁captain	-8.91483
▁sleep	-8.91493
▁husband	-8.9154
▁clear	-8.92063
▁ha	-8.92087
▁murder	-8.92127
▁top	-8.92212
▁lose	-8.92317
▁card	-8.93025
▁full	-8.93185
▁walk	-8.93345
▁crazy	-8.93486
▁agent	-8.93733
▁stand	-8.93903
▁speak	-8.94008
▁wow	-8.94245
▁alright	-8.94503
▁cannot	-8.94648
▁send	-8.94705
▁data	-8.94795
▁king	-8.95077
▁running	-8.95092
▁white	-8.95129
g	-8.9521
▁percent	-8.95415
▁taken	-8.957
▁sound	-8.96112
▁stupid	-8.96919
▁buy	-8.97326
▁words	-8.9737
▁sometimes	-8.98169
▁security	-8.98774
▁wants	-8.98911
▁afraid	-8.99133
▁detective	-8.99145
▁decided	-8.99279
▁promise	-8.99869
▁!	-8.99919
man	-8.99972
▁parents	-8.99991
u	-9.00236
▁level	-9.00452
▁eh	-9.00963
▁hurry	-9.00984
chan	-9.01011
▁amazing	-9.01198
▁return	-9.02804
▁along	-9.03137
▁cool	-9.03351
▁changed	-9.03538
▁air	-9.03685
▁less	-9.03865
▁sent	-9.04026
▁picture	-9.04322
▁jack	-9.05054
▁nobody	-9.05132
kun	-9.05515
▁party	-9.05929
▁group	-9.06841
▁worked	-9.06908
▁looked	-9.07483
or	-9.07926
▁girls	-9.08091
▁perhaps	-9.0825
▁serious	-9.08281
▁lord	-9.0856
▁machine	-9.0862
▁interesting	-9.08656
▁monster	-9.08995
▁meeting	-9.09138
▁hate	-9.09152
▁asking	-9.09166
▁news	-9.09427
em	-9.0989
▁hot	-9.09931
▁during	-9.10281
▁cold	-9.10319
▁master	-9.10359
▁somewhere	-9.10731
▁pick	-9.1079
▁longer	-9.11108
▁learn	-9.11171
▁secret	-9.11414
▁d	-9.11477
▁strong	-9.11612
▁ain	-9.11724
▁c	-9.11777
▁ten	-9.11942
▁u	-9.12137
▁happening	-9.1266
▁boss	-9.1285
▁moving	-9.13053
▁space	-9.13254
▁lady	-9.13269
▁follow	-9.13638
▁imagine	-9.13714
▁choice	-9.13753
on	-9.13782
▁evidence	-9.14006
▁cell	-9.14387
▁un	-9.1445
▁yesterday	-9.1479
▁win	-9.14821
▁completely	-9.15096
▁questions	-9.1526
▁l	-9.15541
▁himself	-9.16049
▁figure	-9.16078
▁ma	-9.16107
▁strange	-9.16162
▁state	-9.16683
▁sounds	-9.16724
▁married	-9.16851
▁example	-9.17231
▁met	-9.17233
▁single	-9.17331
▁technology	-9.17729
▁ahead	-9.17758
▁dog	-9.17813
▁field	-9.18731
▁30	-9.1883
▁government	-9.19141
▁ship	-9.19203
▁class	-9.19232
▁seem	-9.19467
▁lie	-9.19621
▁shoot	-9.20092
▁energy	-9.2012
▁shouldn	-9.20318
▁middle	-9.20682
▁touch	-9.2072
▁rather	-9.20758
▁piece	-9.20967
cause	-9.20982
▁worried	-9.21062
0	-9.21184
▁eye	-9.21283
▁step	-9.21345
▁report	-9.21624
▁dark	-9.21708
▁simple	-9.21732
▁perfect	-9.21901
▁leaving	-9.22057
▁shall	-9.2213
▁dangerous	-9.22259
▁born	-9.22828
▁test	-9.22859
▁early	-9.23071
▁playing	-9.23124
h	-9.23387
▁turned	-9.23388
▁key	-9.23436
▁seeing	-9.23808
ers	-9.23828
▁chief	-9.24043
▁impossible	-9.24155
▁victim	-9.24168
▁public	-9.24539
▁calm	-9.24571
▁computer	-9.2462
▁age	-9.24653
▁felt	-9.24746
▁fast	-9.24768
▁within	-9.24928
▁crime	-9.25383
▁history	-9.2546
ri	-9.26405
▁became	-9.26419
▁scared	-9.26472
▁club	-9.26643
▁needed	-9.26744
▁given	-9.2679
▁street	-9.26878
▁drive	-9.26933
▁voice	-9.27001
▁explain	-9.27061
▁pain	-9.27342
▁known	-9.27379
▁hour	-9.27492
▁others	-9.27515
▁force	-9.27585
▁catch	-9.27781
▁pull	-9.28076
▁situation	-9.28119
▁missing	-9.2815
▁anybody	-9.28165
▁calling	-9.28217
▁clean	-9.28263
▁killer	-9.28383
▁seven	-9.28386
▁instead	-9.28591
to	-9.28728
▁across	-9.29245
▁general	-9.29276
▁whether	-9.29354
▁dinner	-9.2981
▁5	-9.29814
▁blue	-9.29871
▁area	-9.29878
▁weeks	-9.30059
▁needs	-9.3066
▁forward	-9.31147
▁contact	-9.31585
v	-9.31609
▁message	-9.3175
▁hair	-9.32009
▁video	-9.32078
ie	-9.32129
▁third	-9.32164
▁seriously	-9.32636
▁weren	-9.32831
▁sick	-9.32844
▁create	-9.32961
▁short	-9.34061
▁dna	-9.34109
▁fault	-9.34227
▁glad	-9.34233
▁definitely	-9.34315
▁battle	-9.34572
▁b	-9.34703
▁boys	-9.34884
▁giving	-9.34925
▁student	-9.35025
▁station	-9.35317
▁science	-9.35323
▁cute	-9.35655
▁fbi	-9.35717
▁experience	-9.35736
▁100	-9.35956
▁however	-9.35997
▁de	-9.36112
▁month	-9.36589
▁write	-9.36594
▁normal	-9.36924
▁fall	-9.37376
▁planet	-9.37443
▁research	-9.3753
▁build	-9.37743
▁sea	-9.38062
▁careful	-9.38147
▁dragon	-9.38272
▁teacher	-9.38293
▁entire	-9.38314
▁works	-9.38933
▁date	-9.39061
▁luck	-9.39185
▁star	-9.39561
▁weird	-9.39596
▁15	-9.39607
▁music	-9.39623
ic	-9.39679
▁absolutely	-9.39816
▁difficult	-9.3995
▁patient	-9.4025
ro	-9.4046
▁bed	-9.40604
▁whoa	-9.40832
le	-9.40848
▁land	-9.40892
▁mistake	-9.41114
▁worth	-9.41141
▁share	-9.41142
▁floor	-9.41247
▁wake	-9.41294
it	-9.41368
▁act	-9.41409
▁project	-9.41571
▁cause	-9.41637
▁watching	-9.41788
na	-9.41815
▁york	-9.41903
▁lead	-9.41957
▁per	-9.42093
no	-9.42115
▁sign	-9.42249
▁wall	-9.42385
▁ran	-9.42401
▁certain	-9.42421
▁drop	-9.42508
▁list	-9.42768
▁ground	-9.42812
en	-9.43299
▁hang	-9.43309
▁kept	-9.43505
▁saved	-9.4351
x	-9.43553
▁funny	-9.43651
▁caught	-9.43934
▁dollars	-9.43936
ra	-9.44068
▁often	-9.44246
▁effect	-9.44401
▁quickly	-9.44445
▁bitch	-9.44454
▁director	-9.44674
ta	-9.44837
▁suddenly	-9.44867
▁bar	-9.4498
▁killing	-9.4517
able	-9.45197
▁wonderful	-9.45286
▁green	-9.45676
▁social	-9.45929
▁support	-9.45989
▁4	-9.46731
▁ya	-9.46813
▁starting	-9.46996
▁law	-9.47042
▁park	-9.47132
▁code	-9.47493
▁road	-9.47494
▁fighting	-9.47664
▁position	-9.47765
▁loved	-9.47844
▁near	-9.48007
▁mission	-9.48116
▁accident	-9.48618
▁talked	-9.48741
▁stopped	-9.49102
▁island	-9.49273
▁poor	-9.49358
▁fear	-9.49477
▁sun	-9.49572
▁queen	-9.49698
▁lucky	-9.4979
▁charge	-9.49915
▁personal	-9.50202
▁design	-9.50438
▁eight	-9.50707
▁scene	-9.50766
▁beginning	-9.51128
▁learned	-9.51295
▁students	-9.51374
▁type	-9.51483
▁continue	-9.51532
▁12	-9.5157
▁worse	-9.5159
am	-9.51709
an	-9.5176
▁19	-9.51966
▁target	-9.5213
▁gets	-9.52178
▁art	-9.5225
▁interested	-9.52313
▁shop	-9.52764
▁involved	-9.52911
▁pass	-9.52915
▁problems	-9.52965
▁box	-9.53024
▁cover	-9.53025
▁magic	-9.53056
▁built	-9.53267
▁busy	-9.53493
▁hmm	-9.53698
▁medical	-9.53749
▁sell	-9.53843
▁study	-9.53902
▁store	-9.54431
▁hide	-9.54566
▁quiet	-9.54597
▁train	-9.54633
▁none	-9.54669
▁feet	-9.54831
▁lab	-9.5505
▁straight	-9.55231
▁bank	-9.55291
▁speed	-9.55351
▁enemy	-9.55381
▁cat	-9.55524
▁fish	-9.55543
▁50	-9.5563
▁health	-9.56153
▁officer	-9.56297
▁lying	-9.563
▁throw	-9.56773
▁somehow	-9.56803
▁deep	-9.56832
▁huge	-9.57025
▁spend	-9.57182
▁fly	-9.57234
▁anywhere	-9.57283
▁ms	-9.57301
▁wind	-9.57438
▁weapon	-9.57442
▁terrible	-9.57551
▁access	-9.57745
▁mark	-9.57933
el	-9.58015
▁american	-9.58426
▁camera	-9.58561
▁north	-9.58613
▁p	-9.58847
▁paper	-9.58881
ch	-9.58911
▁present	-9.59009
▁honey	-9.59714
▁soul	-9.59814
▁department	-9.59826
▁process	-9.59901
▁relationship	-9.59915
▁certainly	-9.59924
▁south	-9.60052
▁quick	-9.60089
▁r	-9.60531
▁investigation	-9.60611
▁prison	-9.6068
▁attention	-9.61124
ation	-9.61391
▁states	-9.61479
▁hotel	-9.61593
ne	-9.61802
▁unless	-9.61816
▁beat	-9.61868
▁totally	-9.62006
▁peace	-9.62014
▁hasn	-9.62093
▁spent	-9.62153
ness	-9.62176
▁america	-9.62226
2	-9.62299
▁bag	-9.6243
▁service	-9.62494
▁center	-9.62551
▁song	-9.6262
▁difference	-9.62664
▁idiot	-9.62783
▁miles	-9.62847
▁sweet	-9.63067
▁realize	-9.6308
▁feelings	-9.6314
▁final	-9.63684
▁ii	-9.63812
▁join	-9.64246
▁boat	-9.64269
▁finish	-9.64419
▁large	-9.64437
▁begin	-9.64499
▁forgive	-9.6452
▁g	-9.64534
us	-9.64584
ion	-9.64613
▁ourselves	-9.64888
▁professor	-9.64888
▁summer	-9.64889
ko	-9.65003
▁f	-9.65162
▁choose	-9.65243
▁match	-9.65291
▁risk	-9.65474
▁training	-9.65527
▁mouth	-9.65571
▁search	-9.65649
▁itself	-9.65658
▁coffee	-9.65718
▁cancer	-9.65718
▁village	-9.65733
▁private	-9.65924
▁moved	-9.6604
▁expect	-9.66073
▁ice	-9.66115
▁program	-9.66279
▁helped	-9.66689
ar	-9.66856
▁peter	-9.6688
▁humans	-9.67328
▁forever	-9.67336
▁draw	-9.67372
▁wearing	-9.67488
▁sitting	-9.67529
w	-9.67562
▁bought	-9.6764
▁trip	-9.68032
▁fell	-9.68068
▁sam	-9.68132
▁united	-9.68376
▁earlier	-9.68432
▁partner	-9.6847
▁local	-9.68519
▁suspect	-9.68898
▁handle	-9.68898
▁surprised	-9.69007
▁tea	-9.69054
▁themselves	-9.69353
▁recently	-9.69368
▁nature	-9.69424
▁stage	-9.69461
▁common	-9.69504
▁record	-9.69649
▁smell	-9.69738
▁criminal	-9.69922
▁dear	-9.70125
▁daddy	-9.70359
▁smart	-9.70365
▁grow	-9.70366
▁self	-9.70557
▁billion	-9.7082
ling	-9.70844
▁ride	-9.7124
▁yo	-9.71295
is	-9.71332
▁created	-9.71369
go	-9.71493
ka	-9.71508
▁jesus	-9.71537
▁table	-9.71646
ma	-9.71717
f	-9.71767
▁quit	-9.71817
▁broke	-9.719
▁meant	-9.71951
▁turns	-9.7205
▁ball	-9.72147
▁society	-9.72297
▁clothes	-9.72299
▁reach	-9.72357
▁sky	-9.7239
▁passed	-9.72456
▁lived	-9.72478
▁notice	-9.72514
5	-9.72556
▁movie	-9.7257
▁basically	-9.7268
▁drug	-9.72738
▁tough	-9.72903
▁favorite	-9.73
▁natural	-9.7309
▁m	-9.73143
▁mad	-9.73145
▁cop	-9.7316
▁named	-9.73315
▁visit	-9.73326
up	-9.73356
▁address	-9.73575
ity	-9.73621
▁arm	-9.73821
▁lunch	-9.73877
▁army	-9.73938
▁low	-9.73965
▁accept	-9.74037
▁ted	-9.74216
▁immediately	-9.74293
▁standing	-9.74306
▁countries	-9.74353
▁numbers	-9.74411
▁complete	-9.74454
▁18	-9.74498
▁holding	-9.74553
laughter	-9.74584
▁rules	-9.74593
▁seconds	-9.74596
▁stories	-9.74741
▁destroy	-9.74773
▁eating	-9.74829
▁n	-9.74941
▁walter	-9.74949
▁wear	-9.75039
▁uncle	-9.75047
▁damage	-9.75144
▁memory	-9.75264
▁national	-9.753
▁sword	-9.75357
▁except	-9.75388
▁moon	-9.75468
▁sensei	-9.75472
▁takes	-9.75559
▁till	-9.75761
▁powerful	-9.75826
▁k	-9.75853
▁mama	-9.76266
▁listening	-9.76298
▁walking	-9.76338
▁sex	-9.76418
▁allow	-9.7651
▁teach	-9.7656
▁angry	-9.76781
▁places	-9.7682
▁tv	-9.76967
▁apartment	-9.76984
ur	-9.76992
▁decide	-9.77203
il	-9.77276
▁dude	-9.7745
▁super	-9.77602
▁fix	-9.7761
▁cost	-9.77652
1	-9.77657
▁hundred	-9.77817
▁sake	-9.77853
▁realized	-9.78157
▁birthday	-9.78187
▁bomb	-9.78214
▁ho	-9.78238
▁blow	-9.78248
▁tired	-9.78347
▁doubt	-9.78375
▁escape	-9.78406
▁finished	-9.78412
▁frank	-9.78441
▁count	-9.78508
▁model	-9.78574
▁paid	-9.78603
▁board	-9.78859
▁obviously	-9.78952
▁nine	-9.79006
▁dance	-9.79058
▁forgot	-9.79206
▁agree	-9.79257
▁internet	-9.79272
▁books	-9.79465
▁universe	-9.79544
▁especially	-9.79612
▁putting	-9.79661
▁feels	-9.79664
ry	-9.79826
▁wrote	-9.79891
▁arrest	-9.79986
▁speaking	-9.79989
co	-9.80147
▁sad	-9.80361
▁major	-9.80499
▁device	-9.80676
▁waste	-9.80761
▁community	-9.8092
▁jane	-9.80947
▁suppose	-9.8122
▁enjoy	-9.81223
▁ring	-9.81231
▁honor	-9.81322
▁yen	-9.81373
the	-9.81568
▁west	-9.81669
▁manager	-9.81705
▁apologize	-9.81848
▁truly	-9.82389
▁view	-9.82423
▁lots	-9.82473
▁reality	-9.82633
▁simply	-9.82667
ia	-9.8272
▁tree	-9.8274
▁stick	-9.82798
▁global	-9.82911
▁helping	-9.83046
▁broken	-9.83052
▁summon	-9.83059
▁bill	-9.83114
▁slow	-9.83198
▁offer	-9.8323
▁points	-9.83342
▁showed	-9.83596
▁operation	-9.83672
00	-9.83797
▁suit	-9.84059
▁plane	-9.84061
ton	-9.84069
▁college	-9.84087
▁planning	-9.84093
▁letter	-9.84105
▁hiding	-9.84188
ba	-9.84222
do	-9.843
▁africa	-9.84488
▁favor	-9.84658
▁dying	-9.84661
▁window	-9.84808
▁evening	-9.8482
▁disease	-9.84955
ru	-9.84966
la	-9.84987
▁respect	-9.85047
▁prove	-9.85114
▁wedding	-9.85238
▁trap	-9.85267
▁language	-9.85698
▁honest	-9.85744
▁surgery	-9.85891
▁according	-9.86008
z	-9.86077
▁although	-9.8611
▁goodbye	-9.86402
▁kidding	-9.86409
▁river	-9.86488
▁decision	-9.86523
▁gas	-9.86593
▁main	-9.86653
▁cells	-9.86747
▁court	-9.86765
▁lawyer	-9.86825
▁size	-9.86896
▁incident	-9.86913
▁ability	-9.87143
▁treat	-9.87215
▁fair	-9.87275
▁meaning	-9.87292
▁push	-9.87314
▁boyfriend	-9.87359
▁destroyed	-9.87373
▁opportunity	-9.87431
▁rock	-9.87522
▁skin	-9.87594
▁track	-9.87833
▁amount	-9.87891
▁marriage	-9.87955
▁bottom	-9.88025
li	-9.88076
▁following	-9.88227
▁bigger	-9.88414
▁animals	-9.8845
you	-9.88477
▁condition	-9.88478
▁based	-9.88582
▁truck	-9.88655
▁suicide	-9.88696
ki	-9.88813
▁older	-9.88823
▁beyond	-9.88921
▁usually	-9.89024
▁cross	-9.89363
▁university	-9.89448
▁color	-9.89508
▁image	-9.89585
▁thousand	-9.8967
▁bear	-9.89911
▁thousands	-9.89917
ter	-9.90031
▁east	-9.90086
▁leader	-9.90107
▁gentlemen	-9.90282
▁strength	-9.90453
▁co	-9.90567
▁hungry	-9.90587
▁form	-9.90625
▁seat	-9.9065
▁bye	-9.90711
▁evil	-9.90739
▁swear	-9.90739
▁bastard	-9.90751
▁round	-9.90786
▁market	-9.90831
▁particular	-9.90932
▁pressure	-9.91123
▁besides	-9.91124
4	-9.9143
▁figured	-9.91516
▁cops	-9.91549
ha	-9.91597
▁justice	-9.91658
▁ladies	-9.91738
▁jump	-9.91751
▁finding	-9.9188
▁indeed	-9.92047
▁drugs	-9.92132
▁13	-9.92225
▁likely	-9.92456
▁rich	-9.92676
▁v	-9.92677
▁40	-9.92706
▁patients	-9.92723
▁emergency	-9.92902
▁memories	-9.92902
▁surprise	-9.92943
▁flight	-9.92993
▁radio	-9.93066
▁carry	-9.93234
▁pictures	-9.93263
▁due	-9.93326
▁delicious	-9.93371
▁gold	-9.93411
▁consider	-9.93413
▁practice	-9.93421
▁weapons	-9.93598
▁danger	-9.9367
da	-9.93906
▁animal	-9.94024
be	-9.94043
▁several	-9.9416
▁activate	-9.94238
▁mountain	-9.94723
▁11	-9.94778
▁smile	-9.94966
▁english	-9.95117
▁focus	-9.95188
▁worst	-9.95192
▁8	-9.95219
less	-9.95376
▁hole	-9.95424
▁military	-9.95594
▁reading	-9.95602
▁princess	-9.9566
▁trial	-9.95678
▁responsibility	-9.95995
▁missed	-9.9608
▁girlfriend	-9.96158
▁spirit	-9.96173
ment	-9.96194
▁san	-9.9622
▁action	-9.96358
▁began	-9.96407
▁rain	-9.96578
▁bridge	-9.96587
▁copy	-9.96593
▁la	-9.96644
▁species	-9.9665
▁al	-9.96684
lo	-9.96691
▁conversation	-9.96747
▁sleeping	-9.96916
▁base	-9.9696
▁buddy	-9.96967
▁upon	-9.97091
▁prepare	-9.97188
▁restaurant	-9.9721
▁price	-9.97318
▁grand	-9.97343
▁purpose	-9.97452
▁zero	-9.97453
▁environment	-9.97536
▁locked	-9.97644
▁ways	-9.97666
▁signal	-9.9769
▁mrs	-9.97791
▁y	-9.97841
▁murdered	-9.97845
▁christmas	-9.98029
▁ended	-9.98208
▁writing	-9.98287
▁appreciate	-9.98502
▁....	-9.98551
▁survive	-9.98669
▁ideas	-9.98764
▁corner	-9.98796
▁press	-9.98879
▁bus	-9.98887
▁bodies	-9.98938
▁van	-9.98983
▁guard	-9.9902
▁interest	-9.99189
▁fool	-9.99259
▁issue	-9.99271
▁michael	-9.99276
▁rate	-9.99467
ian	-9.99617
▁seemed	-9.99627
me	-9.99668
▁innocent	-9.99687
▁oil	-10
▁expected	-10.0013
rs	-10.0017
▁further	-10.0019
▁clearly	-10.0021
▁grab	-10.0024
▁keeping	-10.0027
▁japan	-10.0036
▁education	-10.0039
▁gift	-10.0057
▁china	-10.0058
▁proud	-10.0058
▁mess	-10.0058
▁raise	-10.0059
▁taught	-10.0095
ga	-10.0097
and	-10.0101
se	-10.0102
▁network	-10.0116
▁hero	-10.0124
▁taste	-10.013
▁kiss	-10.0148
▁command	-10.0156
mo	-10.017
▁online	-10.017
▁closer	-10.017
▁understood	-10.0171
▁everywhere	-10.0172
▁200	-10.0187
▁necessary	-10.0188
▁photo	-10.0208
▁dreams	-10.0218
▁promised	-10.0223
▁site	-10.0224
▁judge	-10.0229
▁games	-10.0236
▁prince	-10.0249
▁lock	-10.0249
▁foot	-10.0256
▁result	-10.0257
▁apparently	-10.0257
▁whose	-10.0274
▁medicine	-10.0274
▁snow	-10.0278
▁ocean	-10.0292
▁location	-10.0293
▁closed	-10.0295
▁media	-10.0297
▁results	-10.03
▁cry	-10.0321
▁defense	-10.0326
▁goddamn	-10.0335
ya	-10.0348
▁written	-10.0363
▁mike	-10.0377
▁henry	-10.0378
▁allowed	-10.0388
▁sold	-10.0404
▁map	-10.0408
▁value	-10.0409
▁weak	-10.0409
▁camp	-10.0412
3	-10.044
▁relax	-10.0466
▁hidden	-10.0466
▁stuck	-10.0466
▁driving	-10.0474
▁received	-10.0476
▁ca	-10.0497
▁tokyo	-10.05
▁release	-10.0509
▁travel	-10.0511
▁pro	-10.0515
▁gotten	-10.0521
▁unit	-10.0529
▁losing	-10.054
ist	-10.0545
▁bunch	-10.0546
▁member	-10.0562
▁above	-10.0563
▁noticed	-10.0571
▁correct	-10.0586
▁h	-10.0607
mon	-10.0609
▁double	-10.0614
▁wondering	-10.0633
▁joke	-10.0645
▁picked	-10.0645
▁sudden	-10.0648
▁neither	-10.0679
▁extra	-10.0692
▁aware	-10.0697
▁awesome	-10.0706
▁responsible	-10.0706
▁towards	-10.0707
▁cards	-10.0723
▁arrived	-10.0733
▁growing	-10.0757
▁account	-10.0763
▁spot	-10.0767
▁theory	-10.0778
▁angel	-10.078
▁burn	-10.0783
▁onto	-10.0792
▁file	-10.0793
▁trick	-10.0796
▁discovered	-10.0799
▁willing	-10.0813
▁david	-10.0823
▁joe	-10.083
ized	-10.0841
▁whoever	-10.0854
▁heavy	-10.0897
▁ka	-10.0901
▁among	-10.0915
▁cash	-10.0916
est	-10.0926
▁held	-10.093
▁development	-10.0957
▁learning	-10.0968
te	-10.0972
▁led	-10.0984
▁witness	-10.0988
▁kick	-10.0991
▁sing	-10.0995
ty	-10.0996
▁spring	-10.0998
▁knife	-10.0998
▁rule	-10.1004
de	-10.1008
▁original	-10.1013
▁companies	-10.1026
▁source	-10.103
▁shooting	-10.1031
we	-10.1031
▁path	-10.1052
▁current	-10.1068
▁glass	-10.1074
ce	-10.1077
▁incredible	-10.1091
▁faster	-10.11
▁orders	-10.11
▁caused	-10.1119
▁naruto	-10.1119
▁connected	-10.1124
ted	-10.1124
▁apart	-10.1127
ies	-10.1135
▁changing	-10.1138
▁systems	-10.1144
▁knowing	-10.1146
8	-10.1146
▁birth	-10.1147
▁warm	-10.1154
▁forest	-10.1154
▁blame	-10.1157
▁hall	-10.1157
▁add	-10.1157
▁bird	-10.1166
▁disappeared	-10.1173
▁minister	-10.1175
▁parts	-10.1176
▁terms	-10.1188
▁prepared	-10.1235
▁challenge	-10.1236
ca	-10.1241
▁cia	-10.1249
▁dirty	-10.1252
▁crying	-10.1255
▁fit	-10.1256
▁post	-10.1258
▁recognize	-10.127
▁physical	-10.1276
▁9	-10.128
▁exist	-10.1282
▁holy	-10.1285
▁con	-10.1302
▁robot	-10.1305
▁papa	-10.1309
▁24	-10.1313
▁solve	-10.1319
▁victims	-10.1324
▁steal	-10.1325
▁contract	-10.1326
po	-10.1338
ate	-10.1343
▁central	-10.1356
▁virus	-10.1358
▁hearing	-10.1368
▁race	-10.1378
▁surface	-10.1386
▁crew	-10.1394
▁fake	-10.1395
▁properly	-10.1397
▁failed	-10.14
▁usual	-10.1401
▁members	-10.1404
▁twice	-10.1424
▁mention	-10.1436
▁including	-10.1453
▁25	-10.1466
▁possibly	-10.1472
▁en	-10.148
▁names	-10.1483
▁jim	-10.1488
▁century	-10.1492
▁film	-10.15
▁duty	-10.1501
▁prime	-10.1502
▁unfortunately	-10.1502
▁owe	-10.1521
▁grace	-10.1523
ho	-10.1525
ke	-10.154
▁attacked	-10.1543
▁demon	-10.1549
▁stole	-10.1557
▁james	-10.156
▁period	-10.1579
▁marry	-10.159
▁z	-10.1595
▁laugh	-10.1596
▁pulled	-10.1618
▁cup	-10.1636
▁scale	-10.1646
▁staying	-10.1655
▁spread	-10.1659
sa	-10.1673
▁smoke	-10.1679
▁similar	-10.1684
▁charlie	-10.1688
▁remind	-10.1694
▁pleasure	-10.1698
▁w	-10.1698
ting	-10.1699
bo	-10.1704
▁famous	-10.1714
▁hadn	-10.1716
▁drunk	-10.1716
▁treatment	-10.1721
▁lower	-10.1729
▁horse	-10.1743
▁bother	-10.1748
▁church	-10.1756
▁female	-10.1758
▁enter	-10.1761
▁ray	-10.1767
yearold	-10.1777
▁lieutenant	-10.1778
▁calls	-10.1787
▁opponent	-10.1788
ul	-10.1808
▁behavior	-10.1811
▁st	-10.1826
▁gate	-10.1835
▁knowledge	-10.1838
▁scary	-10.184
▁empty	-10.1848
▁chinese	-10.1848
▁believed	-10.1858
ge	-10.1868
▁nervous	-10.1868
▁ko	-10.188
▁easily	-10.1888
▁happiness	-10.1899
▁acting	-10.1899
▁ghost	-10.1906
▁feed	-10.1908
▁liked	-10.1921
▁leg	-10.1949
▁staff	-10.196
▁connection	-10.1969
▁drinking	-10.1974
▁commander	-10.1977
▁chris	-10.1978
▁excited	-10.1981
et	-10.1986
▁directly	-10.1993
▁hurts	-10.1995
▁roll	-10.2007
▁walked	-10.2008
▁role	-10.2012
▁sending	-10.2034
▁fate	-10.2036
▁progress	-10.2041
▁threat	-10.2042
▁yu	-10.2042
▁ta	-10.2048
▁ben	-10.2055
▁grew	-10.2062
▁christ	-10.2063
▁hoping	-10.2064
▁population	-10.2072
▁japanese	-10.2073
▁bringing	-10.2076
out	-10.2083
▁safety	-10.2095
▁stone	-10.2102
▁meat	-10.2115
▁organization	-10.2118
▁showing	-10.2121
▁records	-10.2124
▁credit	-10.2135
▁festival	-10.2135
▁client	-10.2139
▁intelligence	-10.2146
▁success	-10.2163
▁mate	-10.2165
▁movement	-10.2174
tic	-10.2184
▁sight	-10.2187
▁goku	-10.2191
▁cars	-10.2197
▁heading	-10.22
▁kim	-10.22
▁dropped	-10.2208
▁extremely	-10.2209
▁freedom	-10.2218
▁mi	-10.2223
▁murderer	-10.2228
▁shape	-10.2229
▁eventually	-10.2239
▁wild	-10.225
▁character	-10.2257
▁band	-10.228
▁london	-10.2281
▁played	-10.2287
▁crap	-10.2302
▁material	-10.2315
▁mo	-10.2329
▁duel	-10.2331
▁herself	-10.2334
▁x	-10.2339
all	-10.234
▁familiar	-10.2344
▁political	-10.2362
▁identity	-10.2376
▁india	-10.2384
▁shows	-10.2406
▁becoming	-10.2408
▁flying	-10.2416
▁pregnant	-10.2419
▁driver	-10.2427
▁lovely	-10.2427
▁nick	-10.243
▁giant	-10.244
▁rid	-10.245
▁fired	-10.2454
he	-10.2459
▁easier	-10.2462
▁shoes	-10.2464
▁disappear	-10.2467
▁changes	-10.2467
▁weight	-10.2472
▁council	-10.2493
▁loss	-10.2507
▁fan	-10.2525
▁culture	-10.2532
▁impact	-10.2537
▁spell	-10.2548
▁proof	-10.2564
shi	-10.2572
▁hundreds	-10.2576
▁transfer	-10.258
▁square	-10.258
ive	-10.2589
▁dress	-10.2594
▁former	-10.2607
sama	-10.2613
▁14	-10.2616
▁beach	-10.2628
▁request	-10.2657
▁higher	-10.266
ful	-10.2671
▁fat	-10.268
ku	-10.2686
▁afternoon	-10.2689
▁jail	-10.269
▁arrested	-10.2691
▁beer	-10.2691
▁experiment	-10.2704
▁paul	-10.2708
▁popular	-10.2711
▁blind	-10.2714
di	-10.2716
▁understanding	-10.2724
▁congratulations	-10.2733
▁audience	-10.2736
▁cities	-10.2745
▁reasons	-10.2782
ary	-10.2786
mi	-10.2799
▁plans	-10.2808
▁interview	-10.2809
▁complicated	-10.2811
▁bullet	-10.2812
ni	-10.2819
▁rice	-10.2822
▁legs	-10.2824
▁admit	-10.2832
▁exchange	-10.2848
▁cook	-10.285
▁wine	-10.2856
▁families	-10.2866
▁task	-10.2867
▁tiny	-10.2879
▁total	-10.2885
▁neck	-10.2901
wa	-10.2906
age	-10.2908
▁mm	-10.2911
▁shadow	-10.2914
▁greatest	-10.2917
▁violence	-10.2922
▁pre	-10.2924
▁otherwise	-10.2924
▁rose	-10.2924
▁opened	-10.2927
▁roof	-10.2934
▁faith	-10.2934
ine	-10.2942
▁page	-10.2943
▁international	-10.2945
▁stronger	-10.2946
▁starts	-10.2952
▁response	-10.2956
▁saving	-10.2961
▁nose	-10.2965
▁finch	-10.2968
▁career	-10.297
▁soldiers	-10.2978
▁pieces	-10.299
▁guns	-10.2991
▁block	-10.2992
▁beauty	-10.3001
▁spoke	-10.3021
▁tape	-10.3027
▁breath	-10.3045
▁complex	-10.3046
▁remain	-10.3047
▁kinds	-10.3049
▁breathe	-10.3063
▁turning	-10.3065
▁email	-10.3069
▁switch	-10.3073
▁individual	-10.3073
▁designed	-10.3076
▁da	-10.3082
▁biggest	-10.3092
▁checked	-10.3098
▁ni	-10.3109
▁heat	-10.3114
▁lies	-10.3118
▁storm	-10.3128
▁pen	-10.3137
ize	-10.3139
chi	-10.3143
▁j	-10.3148
▁subject	-10.3159
cu	-10.3199
um	-10.3207
▁plus	-10.3211
▁goal	-10.3211
ji	-10.3213
▁returned	-10.3224
▁fresh	-10.3226
son	-10.3228
▁darkness	-10.3232
▁oliver	-10.3242
▁followed	-10.3244
▁developed	-10.3259
▁mass	-10.326
▁surely	-10.3261
▁tower	-10.3277
▁details	-10.3279
▁kitchen	-10.33
▁obvious	-10.3308
▁hat	-10.3311
▁stars	-10.332
▁available	-10.3323
▁direction	-10.3331
▁dare	-10.3341
▁cases	-10.3344
▁monsters	-10.3357
un	-10.3357
▁engine	-10.3362
▁journey	-10.337
▁na	-10.3372
▁plant	-10.339
line	-10.3393
▁bullshit	-10.3394
▁concerned	-10.3399
▁upset	-10.3406
bi	-10.3406
▁positive	-10.3415
▁nearly	-10.3438
land	-10.3439
▁pal	-10.3444
▁lay	-10.3467
▁brothers	-10.3469
▁opening	-10.3471
▁cake	-10.3476
▁george	-10.3476
▁castle	-10.3477
▁appear	-10.3478
▁lights	-10.3487
▁neighborhood	-10.3488
▁asshole	-10.3489
▁appears	-10.3493
▁gives	-10.3494
pa	-10.35
▁sand	-10.3506
▁headed	-10.352
▁becomes	-10.3524
▁bloody	-10.3536
▁honestly	-10.3542
▁stolen	-10.3551
▁arms	-10.3564
▁lied	-10.3564
▁useless	-10.361
▁millions	-10.361
▁skills	-10.3618
▁mask	-10.3619
▁possibility	-10.3632
▁300	-10.366
▁alex	-10.368
▁trade	-10.3688
▁flowers	-10.37
▁product	-10.3704
▁french	-10.3705
▁basic	-10.3717
▁issues	-10.3717
▁potential	-10.3725
▁guilty	-10.373
▁average	-10.3741
▁sarah	-10.3742
▁pattern	-10.3747
▁ex	-10.3763
▁letting	-10.3766
▁hunt	-10.377
▁devil	-10.3777
▁ooh	-10.3779
▁structure	-10.3782
▁winter	-10.3807
▁bro	-10.3816
▁defeat	-10.3834
▁lonely	-10.384
▁vision	-10.3856
▁bones	-10.3859
bu	-10.3868
ee	-10.3869
▁lines	-10.3888
▁section	-10.3889
▁literally	-10.3889
▁barry	-10.3891
▁conference	-10.3901
vi	-10.391
sh	-10.3918
▁excellent	-10.3926
▁solution	-10.3945
▁advice	-10.395
▁regret	-10.3957
▁direct	-10.3973
▁nor	-10.3975
▁secure	-10.3982
▁deserve	-10.399
▁paying	-10.3998
▁forced	-10.4008
▁economic	-10.4009
9	-10.4011
▁generation	-10.4013
ad	-10.4024
▁growth	-10.403
▁tight	-10.4031
▁sub	-10.4033
▁chose	-10.4048
▁plenty	-10.4051
▁bite	-10.4058
▁stock	-10.4101
▁gang	-10.4114
▁introduce	-10.412
ous	-10.4123
▁chest	-10.4124
▁failure	-10.4139
▁desk	-10.4139
one	-10.414
▁serve	-10.4143
▁sat	-10.415
▁silver	-10.4152
▁cameras	-10.4153
▁soldier	-10.4165
▁screen	-10.4171
▁breaking	-10.4187
▁fill	-10.4193
▁noise	-10.4196
▁approach	-10.4196
▁anna	-10.4202
▁digital	-10.4215
▁invited	-10.4216
ster	-10.4223
ated	-10.4254
▁male	-10.4254
▁dealing	-10.4271
▁breakfast	-10.4279
ley	-10.4285
▁season	-10.4293
▁rare	-10.4309
▁assume	-10.4312
ng	-10.4313
▁files	-10.4322
▁web	-10.4337
▁note	-10.437
▁teeth	-10.437
▁currently	-10.4375
▁useful	-10.4376
▁bone	-10.4391
▁shift	-10.4395
▁expensive	-10.4396
▁suggest	-10.4398
▁avoid	-10.4404
▁weather	-10.4409
▁trees	-10.441
▁scientists	-10.4412
men	-10.4421
▁object	-10.4429
▁poison	-10.443
nd	-10.4438
▁lee	-10.444
▁text	-10.4441
▁younger	-10.4446
▁fuel	-10.4449
▁healthy	-10.4457
▁property	-10.4461
ism	-10.4464
▁route	-10.4469
▁selling	-10.4472
▁carefully	-10.4472
▁managed	-10.4479
▁mommy	-10.4489
▁mary	-10.449
▁answers	-10.4492
▁adam	-10.4496
▁heaven	-10.45
▁wound	-10.4503
▁brown	-10.4503
▁division	-10.4514
▁specific	-10.452
▁owner	-10.453
▁doctors	-10.4531
▁powers	-10.4533
▁dig	-10.4534
▁professional	-10.4534
▁pet	-10.4535
▁vice	-10.4536
▁distance	-10.454
▁brave	-10.4541
pe	-10.4546
clock	-10.4553
▁player	-10.4553
▁opinion	-10.4564
▁afford	-10.4566
▁boring	-10.4568
▁lately	-10.4576
▁legal	-10.4592
▁remains	-10.4598
▁zone	-10.4607
▁traffic	-10.4607
▁slowly	-10.4613
▁adult	-10.4619
▁raised	-10.4622
▁suffering	-10.4641
at	-10.4641
▁chocolate	-10.4647
▁hm	-10.4658
▁falling	-10.4661
▁range	-10.4663
▁perfectly	-10.4672
by	-10.4686
va	-10.4686
▁nowhere	-10.4693
▁event	-10.4696
▁doc	-10.47
▁exciting	-10.47
ten	-10.47
▁max	-10.4706
▁chicken	-10.4713
▁resources	-10.4715
▁manage	-10.4715
▁dogs	-10.4723
▁dan	-10.4751
so	-10.4762
▁provide	-10.477
▁agreed	-10.4777
▁vote	-10.4788
▁ra	-10.4789
▁discuss	-10.4789
▁covered	-10.4802
▁normally	-10.4819
▁bottle	-10.4826
ah	-10.4829
▁dry	-10.4835
▁cooking	-10.4846
▁flower	-10.4849
▁deliver	-10.4854
▁therefore	-10.4862
ol	-10.4863
▁balls	-10.4863
▁booth	-10.4868
▁capable	-10.4876
▁stark	-10.4878
▁bath	-10.489
▁performance	-10.4891
▁pack	-10.4891
▁pocket	-10.4896
▁pop	-10.4899
ating	-10.4904
▁fuckin	-10.4917
▁shame	-10.492
▁images	-10.492
▁google	-10.493
▁insurance	-10.4944
der	-10.496
▁core	-10.4961
▁cha	-10.4963
▁jobs	-10.4966
▁mum	-10.4979
▁europe	-10.4982
ish	-10.4986
▁se	-10.4987
▁protecting	-10.4997
▁treasure	-10.4999
▁whenever	-10.5004
▁version	-10.5004
▁actual	-10.5009
▁economy	-10.5013
ent	-10.5026
▁edge	-10.5035
ant	-10.5041
▁attorney	-10.5041
▁rise	-10.5042
▁yellow	-10.5055
▁assistant	-10.5055
,000	-10.5059
za	-10.506
ring	-10.5069
▁21	-10.5094
▁effort	-10.5095
▁iron	-10.5114
▁increase	-10.5119
▁suspicious	-10.5124
che	-10.5141
▁asleep	-10.5145
▁rescue	-10.5148
▁strike	-10.515
▁folks	-10.5151
▁loud	-10.5154
▁0	-10.5171
▁mostly	-10.5175
▁photos	-10.5178
▁prefer	-10.518
▁tools	-10.5182
time	-10.5189
▁surveillance	-10.5195
▁beast	-10.5195
▁vehicle	-10.5196
sensei	-10.5197
▁chi	-10.5204
▁fought	-10.5223
▁richard	-10.5223
▁carrie	-10.523
▁exact	-10.5234
▁fellow	-10.5251
▁ki	-10.5259
▁district	-10.5265
▁license	-10.5265
▁tend	-10.5273
▁el	-10.5277
▁curious	-10.528
▁revenge	-10.5294
▁cho	-10.5294
▁grandpa	-10.53
▁80	-10.5306
▁sweetheart	-10.5308
▁permission	-10.5308
▁nurse	-10.5312
▁ridiculous	-10.5337
▁bathroom	-10.5337
▁woods	-10.534
▁500	-10.5346
▁industry	-10.5351
▁nuclear	-10.5351
▁warrior	-10.5356
ier	-10.5366
▁activity	-10.538
▁reese	-10.538
▁trace	-10.5382
▁protection	-10.5383
▁ears	-10.5392
▁modern	-10.5394
▁bi	-10.5396
▁ends	-10.5398
▁hired	-10.5406
▁advantage	-10.5408
▁senior	-10.5408
▁deck	-10.5408
▁speech	-10.5421
▁successful	-10.5434
▁genius	-10.5435
▁planned	-10.5438
▁belong	-10.5451
▁junior	-10.5452
▁knock	-10.5452
▁committed	-10.5452
▁rat	-10.5453
▁garden	-10.5461
▁series	-10.5467
▁barely	-10.5482
▁released	-10.5482
ey	-10.5496
▁enemies	-10.551
▁witch	-10.5523
▁brilliant	-10.5524
▁stomach	-10.5524
▁keys	-10.5526
▁odd	-10.5528
j	-10.553
▁harder	-10.5536
▁ancient	-10.5539
▁danny	-10.5539
▁measure	-10.5545
▁crash	-10.5549
▁robert	-10.555
▁mirror	-10.5553
gu	-10.5558
off	-10.5563
▁cure	-10.5565
▁darling	-10.5568
▁chairman	-10.5569
▁fantastic	-10.5583
▁milk	-10.5583
▁forgotten	-10.5583
▁jin	-10.5586
▁fail	-10.5592
▁awful	-10.5594
▁miracle	-10.5595
▁agency	-10.5597
▁lack	-10.5618
▁lu	-10.5618
▁pool	-10.5622
▁watched	-10.5624
▁climate	-10.5627
▁horrible	-10.5627
▁shaw	-10.5632
▁ordered	-10.5634
▁financial	-10.5638
▁guest	-10.5656
▁visual	-10.5656
▁clock	-10.5657
▁phil	-10.5657
▁particularly	-10.5663
▁wood	-10.5663
▁split	-10.567
▁plastic	-10.5671
▁software	-10.5671
hi	-10.5672
▁hunting	-10.5683
▁equipment	-10.5686
▁areas	-10.5691
▁goodness	-10.5695
▁solar	-10.5701
▁highly	-10.5703
▁loose	-10.5705
▁creating	-10.5715
▁brand	-10.5719
▁teaching	-10.5722
▁sa	-10.5733
▁capital	-10.5735
▁hanging	-10.5746
▁facility	-10.576
▁warning	-10.5767
▁forces	-10.577
▁wash	-10.5772
▁metal	-10.5778
ally	-10.5786
▁paris	-10.5789
▁crystal	-10.579
▁aunt	-10.5791
▁reached	-10.5793
▁illegal	-10.5801
▁pig	-10.5802
▁link	-10.5803
▁airport	-10.5805
▁cap	-10.5806
▁fifth	-10.5806
▁ku	-10.5813
▁regular	-10.5816
▁remove	-10.5817
▁ate	-10.5818
▁launch	-10.5819
▁temperature	-10.582
▁grade	-10.5822
▁carrying	-10.5823
▁hank	-10.583
▁mentioned	-10.5832
▁harold	-10.5835
▁fully	-10.5837
izing	-10.5843
▁streets	-10.5844
▁lisbon	-10.585
▁roger	-10.585
▁massive	-10.585
▁receive	-10.5856
dy	-10.5858
▁grave	-10.5863
▁personally	-10.5864
▁gather	-10.5878
▁sooner	-10.5885
▁farm	-10.5895
▁mystery	-10.5895
▁bread	-10.5895
▁comfortable	-10.5896
▁prize	-10.5899
▁wave	-10.5912
▁factory	-10.5913
▁laughing	-10.5914
▁ed	-10.5931
▁mail	-10.5935
▁ri	-10.5938
▁fourth	-10.5939
▁ticket	-10.5948
▁dis	-10.5953
▁kinda	-10.5955
▁daniel	-10.5955
▁secrets	-10.5955
ging	-10.5956
▁matters	-10.5958
▁heads	-10.5958
▁official	-10.5959
com	-10.5962
▁walls	-10.5963
▁collect	-10.5967
▁federal	-10.5971
▁ken	-10.5972
▁circumstances	-10.5979
▁liar	-10.5987
▁chair	-10.5995
▁policy	-10.6002
con	-10.6011
▁recent	-10.6013
▁incredibly	-10.6017
▁martin	-10.6019
▁term	-10.6027
▁sacrifice	-10.6029
▁pretend	-10.603
▁walker	-10.603
▁natsume	-10.6032
▁lake	-10.6039
▁mental	-10.6043
▁finger	-10.6046
▁ow	-10.6046
▁upstairs	-10.6047
▁related	-10.6048
▁monkey	-10.6055
▁bright	-10.6058
▁produce	-10.6062
▁various	-10.6063
▁talent	-10.607
▁bob	-10.6081
▁stayed	-10.6095
▁blade	-10.6098
▁row	-10.6102
▁confirm	-10.6106
▁competition	-10.6109
▁threw	-10.6109
▁episode	-10.6112
ff	-10.6128
▁studying	-10.6137
▁california	-10.614
▁revolution	-10.6141
ite	-10.6156
▁shopping	-10.6156
▁glasses	-10.6159
▁pin	-10.6161
▁carter	-10.6164
▁equal	-10.6167
▁filled	-10.6167
▁rough	-10.6168
▁bell	-10.618
▁tax	-10.6183
▁proper	-10.6185
▁bauer	-10.6187
▁meal	-10.6191
▁precious	-10.6202
▁burning	-10.6203
▁below	-10.6215
▁refuse	-10.6215
▁supply	-10.6224
▁entrance	-10.6233
▁ordinary	-10.6233
▁alarm	-10.6236
if	-10.6244
▁strategy	-10.6249
▁vacation	-10.6249
▁shh	-10.6257
▁quality	-10.6266
▁separate	-10.6274
▁grandmother	-10.628
▁circle	-10.6297
▁chain	-10.6301
▁flat	-10.6309
▁connect	-10.6313
▁debt	-10.6315
▁cheap	-10.6323
ci	-10.6328
▁explosion	-10.6328
▁dating	-10.633
▁services	-10.6331
gi	-10.6345
▁shock	-10.6354
▁secretary	-10.6377
den	-10.6379
▁humanity	-10.6382
ner	-10.6389
▁culprit	-10.6391
▁mood	-10.64
▁math	-10.6402
▁investigate	-10.6404
▁despite	-10.6407
▁insane	-10.6408
▁repeat	-10.6437
▁developing	-10.6448
▁colonel	-10.6455
▁crisis	-10.6471
▁develop	-10.6484
▁false	-10.6487
▁sherlock	-10.6503
▁yep	-10.6504
▁teachers	-10.6519
▁negative	-10.6521
▁letters	-10.6524
▁curse	-10.6533
▁treated	-10.6552
per	-10.6556
▁employees	-10.6563
▁suffer	-10.6566
▁dick	-10.6568
▁mayor	-10.6574
▁computers	-10.6575
▁standard	-10.6577
▁zombie	-10.6579
▁em	-10.6584
▁lesson	-10.6598
▁screw	-10.6598
▁tie	-10.6603
▁someday	-10.6606
▁alan	-10.6615
▁warrant	-10.6616
▁harm	-10.6616
▁lo	-10.6618
▁le	-10.6624
▁concern	-10.6625
▁settle	-10.663
▁tool	-10.6631
▁scientific	-10.6634
▁courage	-10.6643
▁satellite	-10.666
▁button	-10.6661
▁museum	-10.6665
▁russian	-10.6678
▁olivia	-10.6681
▁dumb	-10.6681
▁tail	-10.6682
lu	-10.6697
jo	-10.6701
▁alien	-10.671
▁cream	-10.6714
▁construction	-10.6714
▁non	-10.6714
▁bleeding	-10.6717
▁detail	-10.6719
▁critical	-10.6727
▁plate	-10.6731
▁leads	-10.6742
▁tissue	-10.6747
▁fortune	-10.6753
▁chip	-10.6753
▁er	-10.6756
▁meters	-10.6758
▁phase	-10.6764
▁sp	-10.6769
▁washington	-10.678
▁pride	-10.678
▁consciousness	-10.678
▁doors	-10.6783
▁shower	-10.6786
▁jo	-10.6802
ir	-10.6803
▁foreign	-10.6807
▁opposite	-10.6813
▁han	-10.6819
▁searching	-10.6823
▁ear	-10.6827
▁baseball	-10.683
▁counting	-10.6836
▁seal	-10.6844
led	-10.6845
▁magazine	-10.6845
▁babies	-10.6846
▁claire	-10.6846
▁innovation	-10.6846
▁intend	-10.6856
▁ser	-10.6858
▁paint	-10.6874
▁aim	-10.6888
▁cleaning	-10.6902
▁effects	-10.6902
▁parent	-10.6915
▁coat	-10.6918
▁attacks	-10.6921
▁trigger	-10.6922
▁grown	-10.6929
▁campaign	-10.6929
▁toilet	-10.6931
▁article	-10.6931
▁coast	-10.6933
▁customers	-10.6934
▁german	-10.6945
▁technologies	-10.6946
▁march	-10.695
▁birds	-10.6954
▁expecting	-10.6956
▁burned	-10.6961
▁respond	-10.6961
▁citizens	-10.6963
id	-10.6964
▁mister	-10.6965
▁tracking	-10.6968
▁shown	-10.6975
▁breathing	-10.6979
▁ceremony	-10.698
▁greater	-10.6984
▁aid	-10.6987
ler	-10.6993
▁carbon	-10.6993
▁nation	-10.7
▁confirmed	-10.7005
▁soft	-10.7006
▁artist	-10.7008
▁grandfather	-10.7014
▁style	-10.7022
▁events	-10.7027
▁advance	-10.7028
▁leading	-10.7031
▁saul	-10.7036
▁grateful	-10.7048
my	-10.7048
▁brains	-10.7058
▁unique	-10.7061
▁sergeant	-10.7064
▁laptop	-10.7065
▁painful	-10.7073
▁desert	-10.7074
▁robots	-10.7079
▁firm	-10.7095
▁website	-10.7099
▁flash	-10.71
▁tip	-10.7103
▁bike	-10.7107
▁woke	-10.7108
▁keeps	-10.7115
▁gps	-10.7118
▁hardly	-10.7127
▁sharp	-10.713
les	-10.7142
▁ba	-10.7144
▁bow	-10.7152
▁genetic	-10.7164
ence	-10.7166
▁background	-10.7168
ja	-10.717
▁di	-10.7171
▁abandoned	-10.7172
▁limit	-10.7178
▁reaction	-10.7193
▁terrorist	-10.7193
▁maria	-10.7202
▁americans	-10.7204
▁prevent	-10.7218
▁parking	-10.7218
▁charles	-10.7218
▁funeral	-10.7219
▁painting	-10.7223
▁fu	-10.7224
▁appeared	-10.723
▁effective	-10.7233
▁library	-10.7236
▁shoulder	-10.7236
▁entered	-10.7249
▁agents	-10.725
▁unusual	-10.7267
▁considered	-10.727
ron	-10.7281
▁90	-10.7288
ance	-10.729
▁multiple	-10.7293
▁tony	-10.7304
▁childhood	-10.7306
▁crack	-10.7315
▁conditions	-10.7316
▁weekend	-10.7318
▁pair	-10.732
▁desire	-10.7337
▁heck	-10.7342
▁tank	-10.7353
▁customer	-10.7355
▁investigating	-10.7358
▁fruit	-10.7358
▁buried	-10.7358
▁ryan	-10.7358
▁sunday	-10.7358
like	-10.737
pi	-10.7372
▁pilot	-10.7389
▁shirt	-10.7393
▁fingers	-10.7399
▁pa	-10.7404
▁anti	-10.7408
▁units	-10.7413
▁setting	-10.7414
▁clinic	-10.7416
▁flow	-10.7424
▁buying	-10.7431
▁option	-10.7444
▁sugar	-10.7446
▁mode	-10.7461
▁divorce	-10.7462
▁brody	-10.7464
▁kingdom	-10.748
▁motherfucker	-10.7481
▁unknown	-10.7481
▁statement	-10.7482
▁exit	-10.7482
▁pm	-10.7483
▁costs	-10.7496
▁imagination	-10.7499
▁mobile	-10.7503
▁violent	-10.7516
▁temple	-10.7517
▁sample	-10.7517
▁jesse	-10.7517
▁remembered	-10.7522
ran	-10.7531
▁describe	-10.7533
▁coincidence	-10.7534
▁murphy	-10.7534
▁grandma	-10.7534
▁borrow	-10.7534
▁communication	-10.7535
vo	-10.7538
▁tech	-10.7545
▁signed	-10.7546
▁squad	-10.7552
hara	-10.7554
▁materials	-10.7556
▁passing	-10.7567
▁senator	-10.757
▁uniform	-10.7571
▁rude	-10.7574
▁largest	-10.758
▁punch	-10.7587
▁watson	-10.7588
▁motion	-10.7588
▁lift	-10.7588
▁su	-10.7592
▁stress	-10.7597
▁aside	-10.7599
▁sec	-10.7602
▁custody	-10.7606
▁extraordinary	-10.7606
▁jacob	-10.7606
▁commit	-10.7606
but	-10.7608
▁gay	-10.762
▁score	-10.7638
▁invite	-10.7641
▁tommy	-10.7643
▁degrees	-10.7666
▁sakura	-10.767
▁23	-10.7677
▁conflict	-10.7678
what	-10.7678
▁22	-10.7681
▁carol	-10.7683
▁groups	-10.7687
ger	-10.7692
▁dean	-10.7702
▁trained	-10.7709
▁throat	-10.7714
▁sasuke	-10.7714
▁tall	-10.7714
▁protected	-10.7716
▁rent	-10.7723
▁depends	-10.7723
▁awake	-10.7729
▁cheese	-10.7732
▁border	-10.774
▁ward	-10.7742
▁ambulance	-10.775
▁eggs	-10.7751
▁checking	-10.7774
▁brings	-10.7779
▁compared	-10.7799
▁spending	-10.78
▁cast	-10.7802
▁everyday	-10.7808
▁backup	-10.7809
▁bay	-10.781
▁sara	-10.7819
▁electricity	-10.7824
▁package	-10.7824
▁landing	-10.7825
▁touched	-10.7825
tra	-10.7826
▁shark	-10.7832
lin	-10.7835
▁entirely	-10.7838
▁crimes	-10.784
▁sheriff	-10.7842
▁travis	-10.7842
▁footage	-10.7842
for	-10.7845
▁charges	-10.7849
▁movies	-10.7855
▁convinced	-10.7878
▁status	-10.7879
▁chosen	-10.7883
▁colleagues	-10.7883
▁pot	-10.7891
▁leaves	-10.7893
ex	-10.7895
▁dancing	-10.7897
ph	-10.7901
▁throughout	-10.7905
▁rick	-10.7909
▁arthur	-10.7915
▁machines	-10.7916
▁drawing	-10.7917
▁drag	-10.7924
▁balance	-10.7934
▁stood	-10.7934
▁silly	-10.7934
▁beg	-10.7935
▁ships	-10.7938
rd	-10.7938
▁ideal	-10.7945
▁forth	-10.795
▁steel	-10.7952
▁title	-10.7952
▁santa	-10.7955
▁shake	-10.7955
that	-10.7962
▁emotional	-10.7969
su	-10.7972
▁fucked	-10.7977
ow	-10.7978
ut	-10.7983
▁holmes	-10.799
▁ugly	-10.799
▁pardon	-10.799
▁apple	-10.7996
▁freak	-10.7998
ard	-10.8001
▁cousin	-10.8003
▁technique	-10.8003
▁dressed	-10.8005
▁00	-10.8006
▁jones	-10.8009
que	-10.8012
▁hook	-10.803
▁fixed	-10.803
▁region	-10.8032
head	-10.804
▁picking	-10.8042
▁po	-10.8054
▁identify	-10.8055
▁schedule	-10.8065
▁joy	-10.8073
▁tan	-10.8074
▁ne	-10.8079
way	-10.8081
▁operating	-10.8083
ization	-10.8093
ning	-10.8094
▁crowd	-10.8096
▁yup	-10.8106
ps	-10.8107
▁toward	-10.8107
▁pounds	-10.8108
▁joined	-10.8108
▁trash	-10.8121
▁evolution	-10.8122
▁dave	-10.8133
▁sailor	-10.814
▁confidence	-10.8141
▁wide	-10.8149
nt	-10.8154
▁fishing	-10.8155
▁explanation	-10.8159
▁winning	-10.816
▁citizen	-10.8177
▁gain	-10.8181
im	-10.8181
▁pulling	-10.8184
▁reward	-10.8189
ial	-10.819
min	-10.8191
▁perspective	-10.8197
▁du	-10.82
▁mountains	-10.8214
▁sexual	-10.8214
▁pray	-10.8214
▁oxygen	-10.8216
▁survived	-10.822
▁moral	-10.8225
cha	-10.8228
▁prosecutor	-10.8235
▁facebook	-10.8236
fi	-10.8238
ping	-10.8241
▁jason	-10.8254
▁jacket	-10.8256
▁pants	-10.8257
▁angle	-10.8261
▁previous	-10.827
▁judgment	-10.8273
▁silence	-10.8273
▁coach	-10.8274
▁wolf	-10.8275
ac	-10.8281
ou	-10.8284
▁assault	-10.8284
▁celebrate	-10.8293
▁closing	-10.8312
▁claim	-10.8316
▁legend	-10.8331
▁recall	-10.8331
▁chemical	-10.8334
▁labor	-10.8337
ship	-10.8348
▁elevator	-10.835
▁bug	-10.8357
▁jealous	-10.8366
▁expression	-10.837
▁random	-10.8385
▁hill	-10.8385
▁swim	-10.8388
▁golden	-10.8391
▁active	-10.8394
▁method	-10.8394
of	-10.8395
▁signs	-10.8399
▁mmhmm	-10.8401
▁scott	-10.8404
▁civil	-10.8407
▁clever	-10.8408
▁collection	-10.8409
ny	-10.8411
▁net	-10.8415
▁convince	-10.8429
▁downstairs	-10.8447
▁pan	-10.8447
▁dump	-10.8449
ding	-10.845
▁plants	-10.8463
▁fashion	-10.8466
▁confused	-10.8471
▁vampire	-10.8474
▁waited	-10.8475
▁anger	-10.8487
▁heh	-10.8494
▁cloud	-10.8496
▁escaped	-10.8501
▁pure	-10.8503
kin	-10.851
▁delivery	-10.8512
▁timing	-10.8512
▁spy	-10.8521
▁wire	-10.8525
▁rocket	-10.8528
▁smaller	-10.8536
▁suck	-10.8539
▁exercise	-10.8545
▁mysterious	-10.8545
▁capture	-10.8546
▁western	-10.8549
▁reports	-10.8554
▁deputy	-10.8565
▁profile	-10.8565
▁urban	-10.8565
▁influence	-10.8566
▁battery	-10.8566
ator	-10.8574
▁quinn	-10.8605
▁eddie	-10.8605
▁singing	-10.8606
▁infected	-10.8608
▁tri	-10.861
king	-10.8611
▁spare	-10.8615
zo	-10.8619
▁silent	-10.8621
▁riding	-10.8623
▁crown	-10.8623
▁gohan	-10.8628
▁host	-10.8631
▁rush	-10.8633
▁larger	-10.8634
▁tour	-10.8642
▁egg	-10.8643
▁shared	-10.8644
▁presence	-10.8644
▁existence	-10.8645
▁passion	-10.8646
▁armed	-10.8649
▁removed	-10.8649
▁ro	-10.8654
▁atmosphere	-10.8664
▁wheel	-10.8673
▁photograph	-10.8681
▁papers	-10.8682
▁production	-10.8685
▁victory	-10.8687
▁loan	-10.8692
▁ja	-10.8693
▁soup	-10.8699
▁unlike	-10.8702
▁shin	-10.8713
▁attitude	-10.8724
▁basement	-10.8725
▁chase	-10.8727
▁repair	-10.8736
ure	-10.8741
▁emperor	-10.8744
▁embarrassing	-10.8746
▁cbi	-10.8748
▁confess	-10.8752
▁badly	-10.8757
▁slide	-10.8759
▁scientist	-10.876
▁tear	-10.8761
▁twenty	-10.8764
▁democracy	-10.8764
▁principal	-10.8764
▁stopping	-10.8771
▁vi	-10.8771
▁bureau	-10.8774
zu	-10.8776
bar	-10.8781
▁robbery	-10.8786
▁marks	-10.8792
▁politics	-10.8797
▁pleased	-10.8798
▁hiv	-10.8801
over	-10.8801
▁grid	-10.8809
▁hated	-10.8812
▁belongs	-10.8813
▁loves	-10.8824
▁surgeon	-10.8825
▁reported	-10.8826
▁slightly	-10.8827
▁shine	-10.8831
▁decisions	-10.8832
▁billy	-10.8856
▁academy	-10.8866
▁valuable	-10.8866
▁choices	-10.8869
▁magical	-10.8869
▁mistakes	-10.8869
▁offered	-10.8871
ver	-10.8879
q	-10.8881
gra	-10.8882
▁thief	-10.8886
▁sweetie	-10.889
▁kit	-10.8897
▁fundamental	-10.8903
ai	-10.891
▁wings	-10.8911
▁carl	-10.8923
▁studies	-10.8927
▁ought	-10.8927
▁fallen	-10.893
▁carried	-10.8933
yama	-10.8939
▁levels	-10.8941
▁content	-10.8947
▁religion	-10.8947
▁ninja	-10.8947
▁leaders	-10.8953
▁port	-10.8961
▁foundation	-10.8964
▁begins	-10.8974
▁naturally	-10.9
▁mexico	-10.9009
▁pizza	-10.9009
▁investment	-10.9009
▁annoying	-10.901
▁expert	-10.9011
▁graduate	-10.9011
▁mmm	-10.9022
▁smells	-10.9023
▁homicide	-10.903
▁arrive	-10.9031
▁concept	-10.9031
ea	-10.9037
▁load	-10.9043
▁steve	-10.9048
▁samurai	-10.905
▁dozen	-10.9051
▁frame	-10.9056
▁stu	-10.906
▁commercial	-10.9071
▁stealing	-10.9071
▁authority	-10.9072
▁management	-10.9072
▁bang	-10.9079
▁fox	-10.9092
han	-10.9103
▁clue	-10.9107
▁column	-10.9113
▁stairs	-10.9113
▁guarantee	-10.9115
▁nah	-10.9116
▁hr	-10.9122
▁senpai	-10.913
▁extreme	-10.913
▁british	-10.9134
▁trapped	-10.9134
▁hu	-10.9135
▁ignore	-10.9136
▁affair	-10.9139
▁dealer	-10.914
▁dust	-10.9146
▁riko	-10.9159
▁sentence	-10.9164
▁scare	-10.9171
▁destiny	-10.9176
▁employee	-10.9181
▁counter	-10.9184
▁champion	-10.9197
▁45	-10.9197
▁pushed	-10.9198
aka	-10.9209
▁pink	-10.9213
▁friday	-10.9218
▁communicate	-10.9218
▁demand	-10.9229
op	-10.9236
▁ichigo	-10.9239
▁jimmy	-10.9239
▁cave	-10.9241
▁sharing	-10.9242
▁union	-10.9243
▁laws	-10.9257
▁alibi	-10.926
▁destruction	-10.926
▁murders	-10.9266
▁spider	-10.9267
▁bishop	-10.9281
▁internal	-10.9282
▁perform	-10.9284
▁trusted	-10.9291
▁mit	-10.93
▁sports	-10.9306
▁era	-10.9312
▁royal	-10.9315
▁deeply	-10.9316
▁gods	-10.9317
▁causing	-10.9324
▁julia	-10.9325
▁sales	-10.9327
▁cutting	-10.9328
▁monitor	-10.9329
▁function	-10.9333
▁recording	-10.9335
▁drove	-10.9345
▁patrick	-10.9347
▁flag	-10.936
▁skill	-10.9366
▁skull	-10.9366
▁motor	-10.9366
▁impressive	-10.9366
▁aw	-10.9371
▁objects	-10.9375
▁faces	-10.9379
▁candy	-10.9385
▁lend	-10.9385
▁tumor	-10.9388
▁mercy	-10.9388
▁romantic	-10.939
▁prisoner	-10.9392
▁walt	-10.9397
▁wherever	-10.9403
ber	-10.9403
▁disaster	-10.9409
▁solid	-10.9409
▁tears	-10.9416
▁mars	-10.9424
▁afghanistan	-10.9431
▁sequence	-10.9431
▁individuals	-10.9438
gen	-10.9444
▁thin	-10.9447
▁officers	-10.946
▁products	-10.9472
▁selfish	-10.9474
▁scan	-10.9474
ada	-10.9477
▁ending	-10.9482
▁sin	-10.9488
▁newspaper	-10.9488
tz	-10.9489
▁instance	-10.9495
▁tongue	-10.9495
▁television	-10.9497
▁served	-10.9506
▁creative	-10.9517
▁yamato	-10.9518
▁climb	-10.9518
▁ceo	-10.9519
▁guide	-10.952
▁limited	-10.9527
▁defend	-10.9538
▁thomas	-10.9539
ak	-10.9544
ju	-10.9555
▁outta	-10.9556
▁attempt	-10.956
▁occurred	-10.9561
▁invented	-10.9564
▁wise	-10.9567
▁engineering	-10.957
▁te	-10.9573
▁workers	-10.9575
▁survival	-10.9582
▁morgan	-10.9583
▁nsa	-10.9585
▁dies	-10.9589
▁tied	-10.9596
▁injured	-10.9604
▁puzzle	-10.9604
▁bio	-10.9605
▁tests	-10.9618
▁mile	-10.9625
lan	-10.9626
▁sale	-10.9626
▁motive	-10.9626
▁1,000	-10.9635
▁budget	-10.9636
▁manga	-10.964
▁apply	-10.9642
▁wing	-10.9648
▁gear	-10.9653
side	-10.9664
▁cab	-10.9666
▁gene	-10.9669
▁income	-10.9675
▁nuts	-10.9676
▁african	-10.9679
ig	-10.9681
▁patterns	-10.9682
tter	-10.9686
▁personality	-10.9695
▁emotions	-10.9704
▁root	-10.9706
▁decades	-10.9706
▁exists	-10.9713
kawa	-10.9713
▁nightmare	-10.9713
▁inspector	-10.9715
▁threatened	-10.9719
ries	-10.9729
▁li	-10.9737
▁hammer	-10.9737
▁handsome	-10.9739
▁synchro	-10.9752
▁april	-10.9759
▁appointment	-10.9759
▁guardian	-10.976
▁scream	-10.9764
as	-10.9771
▁buildings	-10.9774
▁headquarters	-10.9781
▁punishment	-10.9781
▁blast	-10.9786
▁log	-10.9793
▁mc	-10.9796
▁gu	-10.9801
▁helicopter	-10.9803
▁chasing	-10.9804
▁discover	-10.9804
▁emily	-10.9806
▁los	-10.9807
ui	-10.9823
▁yourselves	-10.9826
▁kevin	-10.9826
▁juice	-10.9826
▁chan	-10.9829
sha	-10.9831
▁notes	-10.9839
▁wanting	-10.984
▁analysis	-10.9848
▁invisible	-10.9848
▁creatures	-10.9856
▁models	-10.9856
▁app	-10.9859
▁th	-10.9862
▁solved	-10.9869
▁engage	-10.9874
▁northern	-10.9893
▁essentially	-10.9895
▁sum	-10.9897
▁betrayed	-10.9899
▁winner	-10.9917
▁exam	-10.9921
▁runs	-10.9922
▁sho	-10.9931
▁lover	-10.9931
▁jerk	-10.9939
▁chaos	-10.9939
▁tyler	-10.9939
▁elementary	-10.9939
▁bond	-10.9942
▁pie	-10.9942
▁express	-10.9943
▁highest	-10.9944
▁whom	-10.9944
don	-10.9961
▁allows	-10.9966
rr	-10.9977
▁bacteria	-10.9982
▁determine	-10.9988
▁testing	-10.9995
▁lt	-10.9999
▁simon	-10.9999
▁alert	-11.0002
▁bound	-11.0004
▁compassion	-11.0006
▁bedroom	-11.0007
▁mu	-11.0011
▁struggle	-11.0011
▁bo	-11.0012
▁placed	-11.0026
▁pit	-11.0027
▁naked	-11.003
▁rumor	-11.0038
▁engaged	-11.0048
▁valley	-11.0053
▁actions	-11.0054
▁germany	-11.0058
▁channel	-11.0061
▁decade	-11.0061
▁rob	-11.0068
▁kai	-11.007
▁madam	-11.0075
▁studied	-11.0075
▁daily	-11.0077
▁surrounded	-11.0078
▁stranger	-11.0079
▁intention	-11.0083
▁clients	-11.009
▁messages	-11.0094
50	-11.0098
▁flesh	-11.0098
▁soil	-11.0099
▁fence	-11.0099
▁importantly	-11.0107
▁nasa	-11.0107
▁flu	-11.0107
▁fa	-11.0109
▁yuki	-11.0117
▁tattoo	-11.0121
ass	-11.0129
▁benefit	-11.0133
▁amy	-11.0136
▁adventure	-11.0144
▁engineer	-11.0145
▁babe	-11.0146
applause	-11.015
▁aah	-11.0158
ori	-11.0162
▁tag	-11.0163
▁crow	-11.0166
▁joking	-11.0168
▁serial	-11.0168
▁classroom	-11.0168
▁illness	-11.0168
▁confident	-11.0169
▁argument	-11.0179
▁forms	-11.0181
▁traditional	-11.0189
▁feather	-11.0191
▁saturday	-11.0191
▁lisa	-11.0191
▁unable	-11.0196
▁hack	-11.0196
▁joint	-11.0203
fu	-11.0204
▁remote	-11.021
▁kicked	-11.0211
▁kyle	-11.0214
▁sector	-11.0214
▁burst	-11.0216
▁nope	-11.0232
fa	-11.0237
▁linda	-11.0238
▁facing	-11.024
tel	-11.0249
▁liver	-11.0251
▁upper	-11.0254
▁seek	-11.0254
ck	-11.0254
▁desperate	-11.0257
▁communities	-11.0261
mura	-11.0262
▁friendship	-11.0264
▁regarding	-11.0265
▁knight	-11.0275
fe	-11.0278
▁throwing	-11.0279
▁degree	-11.0283
▁association	-11.0284
▁basis	-11.0284
▁jedi	-11.0285
▁theater	-11.0285
▁agreement	-11.0286
▁shield	-11.0299
▁projects	-11.0301
wi	-11.0304
▁coward	-11.0304
▁steps	-11.0305
▁bucks	-11.0329
▁kidnapped	-11.0331
▁dawn	-11.0331
▁roy	-11.0332
▁hood	-11.0336
iv	-11.0348
▁novel	-11.0352
▁guards	-11.0356
▁ti	-11.0357
▁cultural	-11.0358
▁electric	-11.0363
▁rabbit	-11.0367
▁chat	-11.0372
▁hire	-11.0378
▁oi	-11.0381
▁cow	-11.0384
ities	-11.0386
qua	-11.0387
▁warn	-11.0388
▁fund	-11.0391
▁mar	-11.0394
▁heal	-11.0397
▁garage	-11.0402
▁harry	-11.0403
ap	-11.0409
rou	-11.041
▁gap	-11.0411
▁underground	-11.0426
▁10,000	-11.0437
▁safely	-11.044
yo	-11.0454
▁achieve	-11.0454
▁belt	-11.0455
▁considering	-11.0455
▁improve	-11.046
▁ahh	-11.0467
▁taka	-11.0469
▁significant	-11.047
▁ruined	-11.0481
▁pitch	-11.0483
▁marie	-11.0484
▁anytime	-11.0486
▁captured	-11.0496
▁focused	-11.0497
▁conclusion	-11.0497
▁physics	-11.0497
▁genes	-11.0501
▁exposed	-11.0507
▁fingerprints	-11.0513
▁rin	-11.0517
▁wealth	-11.0518
▁gi	-11.0518
▁nelson	-11.0521
▁appearance	-11.0522
▁fancy	-11.0522
▁drill	-11.0536
io	-11.0554
▁vast	-11.0561
▁spiritual	-11.057
▁pete	-11.0579
▁eaten	-11.0581
▁sorts	-11.0581
▁dollar	-11.0583
▁proceed	-11.0584
▁trail	-11.0587
year	-11.0595
▁traveling	-11.0596
▁micro	-11.0596
▁previously	-11.0598
▁argue	-11.0599
▁blocks	-11.0607
▁tradition	-11.0616
▁warehouse	-11.0618
▁database	-11.062
▁mix	-11.0627
▁dome	-11.0628
▁mid	-11.0636
▁beating	-11.064
▁cruel	-11.0642
▁chloe	-11.0642
▁panic	-11.0643
▁therapy	-11.0646
▁lifetime	-11.0654
▁unexpected	-11.0663
▁phones	-11.0665
▁cemetery	-11.0666
▁reputation	-11.0666
▁advanced	-11.0669
▁cycle	-11.0671
▁drone	-11.0671
▁reduce	-11.0672
house	-11.0684
▁tiger	-11.0691
▁mis	-11.0691
▁jumped	-11.0691
▁discussion	-11.0692
▁johnny	-11.0693
▁click	-11.0695
▁sh	-11.0704
▁35	-11.0707
▁visitors	-11.0707
ab	-11.0713
▁junk	-11.0713
▁poverty	-11.0715
▁session	-11.0715
▁bride	-11.0716
▁drama	-11.0716
▁luke	-11.0716
qui	-11.0719
▁hurting	-11.0721
▁affect	-11.0724
▁shi	-11.0727
▁abandon	-11.0732
▁remaining	-11.0736
▁absolute	-11.0736
▁sisters	-11.0736
▁chicago	-11.074
▁smoking	-11.074
▁harvest	-11.074
▁branch	-11.074
▁representative	-11.074
▁barrier	-11.074
▁larry	-11.074
▁quote	-11.0744
▁homework	-11.0745
▁operate	-11.0746
▁ruin	-11.0752
▁tickets	-11.0753
can	-11.0759
▁blew	-11.0764
▁stabbed	-11.0764
▁adults	-11.0765
▁stake	-11.0766
▁wounds	-11.0771
▁pile	-11.0778
▁transport	-11.0788
▁summoned	-11.0792
▁rope	-11.0793
▁indian	-11.0796
▁shelter	-11.0799
▁gates	-11.08
ari	-11.0812
▁differently	-11.0814
▁wallet	-11.0816
▁waves	-11.0829
▁wishes	-11.0831
▁required	-11.0832
▁gordon	-11.0839
▁returning	-11.0839
▁accepted	-11.0844
▁tunnel	-11.0844
▁recorded	-11.0845
▁jet	-11.0846
▁rec	-11.0848
▁grant	-11.0853
▁succeed	-11.0855
▁inter	-11.0857
▁bat	-11.0861
▁sweets	-11.0862
▁boo	-11.0862
▁windows	-11.0863
▁capacity	-11.0863
▁unbelievable	-11.0863
▁nearby	-11.0865
▁wayne	-11.0865
▁rely	-11.0868
▁fr	-11.0868
▁bon	-11.0872
let	-11.0878
ina	-11.088
▁clan	-11.0888
▁hopefully	-11.089
▁replace	-11.0894
▁si	-11.0895
▁partners	-11.0901
▁types	-11.0908
▁aki	-11.0908
▁combination	-11.0913
▁struck	-11.0913
▁genome	-11.0913
▁kate	-11.0919
▁marty	-11.0926
▁continued	-11.0928
ise	-11.0931
▁woo	-11.0933
▁artificial	-11.0934
sen	-11.0936
▁jordan	-11.0938
▁burden	-11.0938
▁priority	-11.0939
field	-11.0946
▁muscle	-11.0947
▁pi	-11.0947
▁pe	-11.0959
▁tournament	-11.0963
▁resistance	-11.0963
▁piano	-11.0963
▁duck	-11.0964
▁guests	-11.0964
▁taxi	-11.0967
cho	-11.0977
▁nonsense	-11.0988
▁boston	-11.0988
▁quarter	-11.0998
▁archer	-11.1
▁slept	-11.1013
▁todd	-11.1014
▁gray	-11.1014
ble	-11.1014
▁frankly	-11.102
▁scar	-11.1028
▁ke	-11.1028
▁enormous	-11.1035
▁context	-11.1039
▁suspects	-11.1042
▁hong	-11.1044
▁predict	-11.1045
▁reporter	-11.1051
▁ji	-11.1055
▁galaxy	-11.1064
▁privacy	-11.1064
▁password	-11.1064
▁studio	-11.1068
ped	-11.1069
▁pushing	-11.1072
▁reveal	-11.1072
cy	-11.1073
▁falls	-11.1074
ov	-11.1076
▁surprising	-11.1086
▁editor	-11.1089
▁friendly	-11.109
▁maid	-11.109
▁laid	-11.1091
▁moments	-11.1114
▁addition	-11.1122
▁suffered	-11.1127
▁fairy	-11.1128
tsu	-11.113
▁surrender	-11.1132
▁fed	-11.1133
▁require	-11.1136
▁ga	-11.1136
▁alcohol	-11.114
▁blog	-11.114
▁fever	-11.1141
ified	-11.1158
▁fleet	-11.1161
▁majesty	-11.1166
▁biology	-11.1166
▁specifically	-11.1166
▁experienced	-11.1171
▁documents	-11.1173
▁brief	-11.1178
▁devices	-11.1179
▁delivered	-11.1181
▁pat	-11.1188
▁remarkable	-11.1192
well	-11.1193
▁beth	-11.1208
▁approaching	-11.1211
▁completed	-11.1214
▁par	-11.1214
▁bullets	-11.1214
▁writer	-11.1217
▁england	-11.1217
▁amanda	-11.1217
▁bee	-11.1219
▁thirty	-11.1219
▁gen	-11.1222
▁heroes	-11.1223
▁neighbor	-11.1224
▁maintain	-11.1226
▁creature	-11.1235
▁swing	-11.1239
▁arrow	-11.1239
▁golgo	-11.1243
▁traitor	-11.1243
▁impression	-11.1243
▁staring	-11.1246
▁fraud	-11.1246
▁den	-11.1248
▁sometime	-11.1256
▁nest	-11.1258
▁eve	-11.1267
▁autopsy	-11.1269
▁dynamic	-11.1269
▁derek	-11.1269
▁twitter	-11.1269
▁cam	-11.1273
▁raw	-11.1275
ag	-11.1282
▁print	-11.1283
▁begun	-11.1283
▁ge	-11.1285
▁doug	-11.1285
ei	-11.1291
▁foster	-11.1295
▁uses	-11.1296
▁tu	-11.1298
▁stable	-11.1298
▁experiments	-11.1301
▁colleague	-11.1314
lic	-11.1319
▁strip	-11.132
▁slip	-11.132
▁alternative	-11.1321
▁palace	-11.1321
▁habit	-11.1329
▁crush	-11.133
kosan	-11.1337
▁min	-11.1338
▁smiling	-11.1347
▁alpha	-11.135
moto	-11.137
▁entering	-11.1372
▁pissed	-11.1382
▁bowl	-11.1393
▁salt	-11.1393
▁servant	-11.1394
▁symptoms	-11.1404
▁requires	-11.1411
▁sha	-11.1418
▁hostage	-11.1422
back	-11.1431
▁latest	-11.1434
▁val	-11.1436
ura	-11.1436
▁fairly	-11.1438
▁ugh	-11.1444
▁stream	-11.1447
▁dirt	-11.1448
▁ultimate	-11.1448
▁enterprise	-11.1452
▁radiation	-11.1452
▁orange	-11.1452
30	-11.1466
▁guessing	-11.1468
isan	-11.1469
▁signature	-11.1478
▁estate	-11.1479
▁attend	-11.1487
▁comfort	-11.1494
▁narrow	-11.1497
▁abuse	-11.1497
▁graham	-11.1505
▁storage	-11.1505
▁superior	-11.1505
▁environmental	-11.1505
▁mouse	-11.1506
▁grass	-11.1512
pro	-11.1516
▁worrying	-11.152
20	-11.1522
down	-11.1529
▁freeze	-11.153
▁ski	-11.1544
rn	-11.1548
▁iraq	-11.1549
▁deeper	-11.155
this	-11.1556
▁clip	-11.1558
▁xray	-11.1558
▁crossed	-11.1559
▁gentleman	-11.1559
▁disgusting	-11.156
▁published	-11.1561
▁fried	-11.1561
▁discovery	-11.1562
▁transform	-11.1566
▁bury	-11.1568
▁relationships	-11.1568
▁screwed	-11.1571
▁cleared	-11.1578
▁determined	-11.1579
▁slave	-11.1586
▁causes	-11.1589
▁connor	-11.1592
▁moves	-11.1594
▁consequences	-11.1608
▁anonymous	-11.1611
▁garbage	-11.1611
▁yusei	-11.1611
▁alice	-11.1612
▁earn	-11.1614
▁confession	-11.1617
▁hitting	-11.1617
▁gary	-11.1617
▁collapse	-11.1619
▁boxes	-11.1621
▁bitter	-11.1623
▁cage	-11.1626
▁rumors	-11.1628
▁schools	-11.1633
▁lecture	-11.1638
▁pathetic	-11.1638
▁bust	-11.1642
▁alec	-11.1643
▁knees	-11.1646
▁hunter	-11.1648
▁sch	-11.1653
▁sexy	-11.1654
▁screaming	-11.1655
▁golf	-11.1655
▁victor	-11.1659
▁roman	-11.1664
▁empire	-11.1665
▁vital	-11.1665
▁weakness	-11.1665
▁assassin	-11.1684
▁gentle	-11.169
▁rachel	-11.1693
▁snake	-11.1695
▁compare	-11.17
▁introduced	-11.1704
▁boom	-11.1707
ita	-11.1709
▁nypd	-11.1719
▁midnight	-11.1719
▁swimming	-11.172
▁spoken	-11.1729
ical	-11.1733
hu	-11.1737
▁911	-11.174
rk	-11.1744
▁recover	-11.1752
▁tsu	-11.1752
▁tama	-11.1754
▁sensitive	-11.1756
▁inner	-11.1762
au	-11.1763
▁activities	-11.1773
▁chamber	-11.1773
▁pulse	-11.1773
ach	-11.1773
▁toast	-11.1776
▁piss	-11.1778
▁matt	-11.1791
zz	-11.1796
ville	-11.1797
▁injury	-11.18
▁transferred	-11.18
▁industrial	-11.1803
▁suits	-11.1806
▁reverse	-11.1809
▁souls	-11.1814
gg	-11.1821
▁necessarily	-11.1828
▁kin	-11.1831
▁helpful	-11.1833
▁bags	-11.1833
▁combat	-11.1842
▁instructions	-11.1843
▁cheers	-11.1853
▁preparing	-11.1855
▁urgent	-11.1855
▁rising	-11.1856
▁attached	-11.1858
▁rep	-11.1861
▁neighbors	-11.1864
▁values	-11.1868
▁examples	-11.1871
▁sean	-11.1871
▁shots	-11.1872
▁somewhat	-11.1873
▁valve	-11.1874
ii	-11.1877
▁jar	-11.1881
▁terror	-11.1882
▁dvd	-11.1882
▁costume	-11.1883
▁sweat	-11.1885
▁bored	-11.1892
▁assure	-11.1892
▁cats	-11.1893
ze	-11.1895
▁thrown	-11.1896
rin	-11.1897
▁actor	-11.1898
▁wipe	-11.1899
stone	-11.1903
▁players	-11.1904
▁bud	-11.1906
▁plain	-11.1911
she	-11.1913
▁pole	-11.1915
▁participate	-11.1919
▁teams	-11.1931
▁yard	-11.1936
▁script	-11.1944
▁recommend	-11.1957
▁hearts	-11.1964
▁religious	-11.1965
▁cooperation	-11.1966
▁minds	-11.1966
▁para	-11.1966
▁wha	-11.1966
▁cabin	-11.1968
▁strongest	-11.1969
▁debate	-11.1969
car	-11.1971
work	-11.1971
ay	-11.1977
▁laurel	-11.1993
▁shell	-11.1999
▁prints	-11.2001
▁cooperate	-11.2001
▁angels	-11.2001
▁gathering	-11.2011
▁platform	-11.2021
▁wisdom	-11.2021
▁bruce	-11.2021
▁gym	-11.2021
▁france	-11.2021
▁songs	-11.2028
▁emotion	-11.2032
▁vaccine	-11.2033
▁400	-11.2046
▁smooth	-11.2046
▁nam	-11.2049
▁hollow	-11.2049
▁foolish	-11.2049
▁needle	-11.2054
▁diet	-11.2059
▁operations	-11.206
▁patent	-11.2062
▁worker	-11.2073
▁ethan	-11.2077
▁injuries	-11.2077
▁lincoln	-11.2077
▁samaritan	-11.2077
▁primary	-11.2077
▁frog	-11.2077
▁digging	-11.2077
▁troops	-11.2084
▁protocol	-11.2091
▁william	-11.2097
ology	-11.2102
▁lucy	-11.2105
▁scratch	-11.2114
▁topic	-11.2114
▁originally	-11.2116
▁election	-11.212
▁electrical	-11.2127
▁shortly	-11.2128
▁congress	-11.2132
▁governor	-11.2134
▁laser	-11.2134
▁symbol	-11.2147
0,000	-11.215
▁broadcast	-11.2152
▁authorities	-11.2162
▁minor	-11.2165
▁offering	-11.2172
▁pr	-11.2179
▁escort	-11.219
▁infection	-11.219
▁aaron	-11.219
▁length	-11.2192
▁county	-11.2206
▁anniversary	-11.2218
▁monday	-11.2218
▁angeles	-11.2224
▁colors	-11.2226
ft	-11.2227
▁lane	-11.223
▁deny	-11.2242
▁hikari	-11.2245
▁civilization	-11.2247
▁brush	-11.2247
day	-11.2249
▁lightning	-11.2249
▁constantly	-11.2249
▁serving	-11.2252
▁document	-11.2259
▁hung	-11.2271
▁32	-11.2273
▁nasty	-11.2275
▁facts	-11.2277
▁options	-11.2278
▁programs	-11.2289
▁yoshi	-11.2293
▁mor	-11.2297
▁chill	-11.23
her	-11.2303
▁committee	-11.2304
▁finance	-11.2304
▁cheating	-11.2312
▁nations	-11.2327
▁typical	-11.2329
▁fascinating	-11.2333
▁ver	-11.2333
▁marine	-11.2334
▁relieved	-11.2337
▁gar	-11.2343
▁shy	-11.2343
ichan	-11.2345
▁stands	-11.2349
▁aye	-11.235
▁voices	-11.2357
▁wrap	-11.2361
▁earthquake	-11.2361
▁intelligent	-11.2361
▁underneath	-11.2361
▁imagined	-11.2369
▁bull	-11.2379
▁cyber	-11.239
▁lester	-11.2391
▁thick	-11.2394
▁concentrate	-11.2401
nu	-11.2404
▁gathered	-11.2405
▁tar	-11.2406
▁afterwards	-11.2415
▁hana	-11.2419
▁shrine	-11.2419
▁tragedy	-11.2419
▁francisco	-11.242
▁impressed	-11.2422
▁tap	-11.2427
▁spin	-11.2429
▁review	-11.2431
▁smith	-11.2433
▁samples	-11.2448
▁creation	-11.2448
▁va	-11.2457
▁cable	-11.2461
▁cannon	-11.2462
ud	-11.247
▁badge	-11.247
▁covering	-11.2473
▁cancel	-11.2477
▁piccolo	-11.2478
▁architecture	-11.2478
▁represent	-11.2485
▁organized	-11.2487
▁solutions	-11.249
▁bloom	-11.2497
▁telephone	-11.2507
▁flew	-11.2507
▁abilities	-11.2509
▁susan	-11.2514
▁accounts	-11.2519
▁affairs	-11.2529
▁elizabeth	-11.2536
▁disappointed	-11.2539
zi	-11.2543
▁emi	-11.2547
▁sneak	-11.2551
▁invitation	-11.2565
▁produced	-11.2572
▁arts	-11.2574
▁charm	-11.2576
▁dish	-11.2583
▁inspired	-11.2586
▁relative	-11.2591
▁gut	-11.2594
▁prototype	-11.2595
▁compound	-11.2595
▁curry	-11.2595
▁explore	-11.2597
▁ultimately	-11.2599
shima	-11.2601
ium	-11.2606
▁pretending	-11.2614
▁hid	-11.2618
▁shu	-11.2623
▁cu	-11.2624
▁executive	-11.2625
▁ashamed	-11.2625
▁andrew	-11.2628
▁zombies	-11.2635
▁mistaken	-11.2642
▁twin	-11.2643
zaki	-11.265
▁football	-11.2655
▁messed	-11.2655
▁dropping	-11.2656
▁precisely	-11.2657
▁multi	-11.2663
▁definition	-11.2684
▁settled	-11.2688
▁officially	-11.2691
▁leak	-11.2697
▁sealed	-11.27
▁knocked	-11.27
tion	-11.2713
▁sakuragi	-11.2713
▁airplane	-11.2714
▁loving	-11.2714
▁landscape	-11.2714
▁engagement	-11.2715
▁objective	-11.2715
▁cheer	-11.2718
▁belly	-11.2719
▁witnesses	-11.272
▁parties	-11.2723
▁classic	-11.2725
▁continues	-11.273
uma	-11.2732
▁neurons	-11.2735
▁display	-11.2736
▁damaged	-11.2739
▁appropriate	-11.274
▁biological	-11.274
▁liquid	-11.2744
▁firing	-11.2744
▁marcus	-11.2744
▁begging	-11.2744
▁embarrassed	-11.2746
▁jam	-11.2748
▁independent	-11.2748
▁downtown	-11.2749
▁asia	-11.2752
▁tim	-11.2757
end	-11.2762
▁infrastructure	-11.2774
▁drew	-11.2775
▁ph	-11.278
▁mixed	-11.2784
▁shoe	-11.2794
▁guitar	-11.2804
▁safer	-11.2812
▁corpse	-11.2812
ren	-11.2816
▁poll	-11.2819
▁jay	-11.2819
▁pages	-11.2825
▁spirits	-11.283
▁entry	-11.2834
▁leadership	-11.2835
▁gin	-11.2837
ara	-11.284
▁mari	-11.2847
▁origin	-11.2862
▁description	-11.2864
▁identified	-11.2864
▁institute	-11.2864
▁saint	-11.2865
▁mai	-11.2868
▁plot	-11.287
▁trunk	-11.2871
▁nail	-11.2873
▁granted	-11.2874
▁terrorists	-11.2879
fl	-11.2885
▁rolling	-11.2893
▁nu	-11.2894
▁scylla	-11.2895
▁decent	-11.2896
▁ru	-11.2905
▁holes	-11.2906
▁torture	-11.2907
▁height	-11.2923
▁chakra	-11.2925
▁supreme	-11.2925
▁survey	-11.2925
▁sacred	-11.2925
▁priest	-11.2926
▁eric	-11.2928
die	-11.2932
▁merely	-11.2933
▁defeated	-11.2945
▁russia	-11.2953
▁diseases	-11.2953
▁harvard	-11.2956
ichi	-11.2959
▁pills	-11.2965
amp	-11.2973
misunderstanding	-11.2976
▁mount	-11.2979
ky	-11.2983
▁louis	-11.2984
▁rider	-11.2984
▁perimeter	-11.2987
▁rifle	-11.2987
oka	-11.2987
▁creepy	-11.2989
▁stem	-11.2991
ham	-11.2993
▁diamond	-11.2997
▁drinks	-11.3
▁string	-11.3001
▁classes	-11.3002
▁organ	-11.3011
▁awkward	-11.3017
▁supplies	-11.3017
▁ease	-11.3018
▁insight	-11.3018
▁sniper	-11.302
▁youth	-11.3023
▁refused	-11.3023
▁chips	-11.3025
▁treating	-11.3027
▁procedure	-11.3028
▁toy	-11.3036
▁charged	-11.3038
bb	-11.3039
▁inform	-11.3043
▁reference	-11.3048
▁frozen	-11.3049
▁acid	-11.3049
▁technically	-11.3052
▁auto	-11.3053
▁disorder	-11.306
▁principle	-11.306
▁lance	-11.3062
▁breast	-11.3062
▁locker	-11.3074
▁feeding	-11.3078
▁concert	-11.3079
▁intel	-11.3087
▁cl	-11.3088
▁matches	-11.3089
▁fields	-11.3096
▁behave	-11.3097
▁pervert	-11.3102
▁patch	-11.3103
▁closely	-11.3105
▁bees	-11.3107
▁added	-11.311
▁retreat	-11.311
▁nikita	-11.3111
▁hug	-11.3119
▁dumped	-11.3123
aku	-11.3123
▁noble	-11.3126
ists	-11.3133
tan	-11.3135
▁contest	-11.3141
▁scout	-11.3142
▁dive	-11.3143
▁overlay	-11.3146
▁enjoying	-11.3153
▁lessons	-11.3155
▁bra	-11.3158
▁horses	-11.3161
▁depend	-11.3169
▁chuck	-11.3172
▁worries	-11.3173
▁maggie	-11.3173
▁inspection	-11.3173
▁obsessed	-11.3175
▁evolved	-11.3183
▁emails	-11.3184
right	-11.3187
▁cleaned	-11.3202
▁patty	-11.3208
▁pity	-11.3213
▁chances	-11.3214
▁characters	-11.3215
▁cares	-11.322
▁belief	-11.322
▁psychic	-11.3223
▁continent	-11.3225
ong	-11.3227
▁trauma	-11.3235
ide	-11.3238
▁challenges	-11.3238
▁majority	-11.3238
▁pump	-11.3243
▁betray	-11.3248
▁june	-11.3252
▁profit	-11.3252
▁comment	-11.3252
▁coordinates	-11.3254
▁severe	-11.3259
▁technical	-11.3263
▁satisfied	-11.3267
▁graveyard	-11.3267
▁sauce	-11.3267
▁institutions	-11.3268
▁connections	-11.327
ther	-11.3285
▁collecting	-11.3287
▁raid	-11.3292
▁bastards	-11.3293
▁author	-11.3297
▁divorced	-11.33
▁wondered	-11.3304
▁generations	-11.3307
▁increased	-11.3309
▁armor	-11.3311
▁closest	-11.3311
▁corporation	-11.3318
▁nerve	-11.3318
▁wasting	-11.3318
▁hal	-11.3322
▁leaf	-11.3331
▁tracks	-11.3333
▁recovery	-11.3335
▁eva	-11.3338
▁european	-11.3338
ub	-11.3351
ata	-11.3354
▁corn	-11.3356
▁sue	-11.3359
▁explained	-11.336
▁flame	-11.3362
▁grief	-11.3362
▁fluid	-11.3363
▁possession	-11.3363
▁separated	-11.3368
▁peaceful	-11.3371
ld	-11.3374
▁makeup	-11.3382
▁error	-11.3388
▁iris	-11.3394
▁assuming	-11.3394
▁routine	-11.3394
▁sal	-11.3397
▁catching	-11.3406
▁highness	-11.3407
▁hits	-11.3409
▁organs	-11.3415
▁quietly	-11.3416
▁28	-11.3419
▁hobby	-11.3426
▁domestic	-11.3426
▁someplace	-11.343
ip	-11.3442
▁rip	-11.3445
▁encounter	-11.3451
▁ace	-11.3457
▁patrol	-11.3458
▁vegeta	-11.3458
▁despair	-11.3458
▁scenario	-11.3458
▁noisy	-11.3458
▁tries	-11.3462
▁launched	-11.3475
▁reiko	-11.3481
book	-11.3484
▁loser	-11.3486
▁pad	-11.3489
▁expedition	-11.3491
▁include	-11.3496
▁palm	-11.3503
▁op	-11.3507
▁initial	-11.3519
▁corporate	-11.3523
▁wrist	-11.3524
▁tested	-11.3524
▁efforts	-11.3526
▁governments	-11.3528
▁controlled	-11.3535
hei	-11.3543
▁mall	-11.3555
▁rome	-11.3555
▁ritual	-11.3555
▁terribly	-11.3556
▁kidnapping	-11.3556
▁radar	-11.3556
▁answering	-11.3568
▁aria	-11.3574
▁asset	-11.3586
▁miserable	-11.3588
▁observation	-11.3588
▁southern	-11.3588
▁award	-11.3591
rate	-11.3596
▁bomber	-11.3617
▁unnecessary	-11.3621
▁annie	-11.3621
▁karen	-11.3622
▁jury	-11.3622
▁visited	-11.3628
▁horn	-11.3628
▁blown	-11.3634
▁reporting	-11.3637
ade	-11.3642
▁tons	-11.3647
▁mole	-11.3648
▁behalf	-11.3654
▁believing	-11.3654
▁embassy	-11.3654
▁cameron	-11.3662
▁chart	-11.3665
▁visiting	-11.367
▁sucks	-11.3671
▁elements	-11.3674
▁notion	-11.368
iko	-11.3683
▁permanent	-11.3683
▁korea	-11.3684
▁sandwich	-11.3685
▁metaphor	-11.3686
▁proposal	-11.3686
▁assignment	-11.3687
▁wilson	-11.3687
▁raising	-11.3687
▁affected	-11.3697
▁answered	-11.3706
▁bump	-11.3706
▁stab	-11.3712
▁tremendous	-11.3716
▁criminals	-11.3716
▁illusion	-11.3719
▁temporary	-11.3719
▁rainbow	-11.372
▁slipped	-11.372
▁threatening	-11.3728
und	-11.3729
▁ur	-11.3734
▁dreaming	-11.3735
▁homeland	-11.3735
▁cooper	-11.3744
▁aboard	-11.375
▁testimony	-11.3753
▁server	-11.3759
zawa	-11.3761
▁interrupt	-11.3768
▁bu	-11.3771
▁tricks	-11.3776
▁fe	-11.3778
▁driven	-11.3782
▁kan	-11.3784
▁kaoru	-11.3785
ev	-11.3785
▁texas	-11.3786
▁steady	-11.3787
ec	-11.3789
▁spa	-11.3791
▁floating	-11.3793
▁listened	-11.3797
▁2,000	-11.3797
▁kilometers	-11.3802
▁movements	-11.3805
▁suggesting	-11.381
▁sis	-11.3811
▁conscious	-11.3815
▁recognized	-11.3818
▁hannibal	-11.3819
▁youtube	-11.3819
▁pepper	-11.3819
▁protein	-11.3819
▁beside	-11.382
▁sink	-11.383
▁healing	-11.3833
▁meantime	-11.3837
▁wa	-11.3839
ice	-11.3847
▁volume	-11.3853
▁charity	-11.3853
▁kenny	-11.3853
▁eastern	-11.3854
▁beef	-11.3856
▁brian	-11.3856
▁150	-11.3863
▁provided	-11.3865
ock	-11.3866
▁drawn	-11.3868
ino	-11.3874
▁occasion	-11.3884
omi	-11.3884
▁relevant	-11.3886
▁territory	-11.3886
▁classified	-11.3887
▁yuri	-11.3896
▁joon	-11.3897
▁warned	-11.3899
▁limits	-11.3901
▁located	-11.3902
▁yama	-11.3913
ably	-11.3913
▁bur	-11.3914
▁cor	-11.3916
▁unfortunate	-11.3916
▁virtual	-11.3916
▁brennan	-11.392
▁violation	-11.392
▁apology	-11.392
▁jutsu	-11.392
▁relief	-11.392
▁overcome	-11.3924
▁efficient	-11.3928
▁messing	-11.3928
▁aliens	-11.3928
▁julian	-11.393
ball	-11.393
▁hacked	-11.3931
▁bri	-11.3936
take	-11.3949
ile	-11.3951
▁republic	-11.3953
▁uncomfortable	-11.3954
▁mankind	-11.3954
▁highway	-11.3958
▁sites	-11.3978
▁contacted	-11.3983
▁opportunities	-11.3987
▁steam	-11.3987
▁thumb	-11.3987
▁oo	-11.3993
▁kong	-11.3994
▁owen	-11.3999
▁breach	-11.4014
▁artists	-11.4015
▁broad	-11.4018
▁insist	-11.4021
▁described	-11.4023
▁magician	-11.4024
▁29	-11.4028
▁lucas	-11.4034
▁cord	-11.4035
▁cock	-11.4036
ification	-11.4038
▁touching	-11.4039
maker	-11.405
▁sen	-11.4052
▁immediate	-11.4052
▁amateur	-11.4056
▁kurosaki	-11.4056
▁chef	-11.4056
▁teddy	-11.4057
▁shooter	-11.4065
▁detect	-11.407
▁explode	-11.4071
▁seats	-11.4072
▁interact	-11.4079
based	-11.4085
room	-11.4087
▁beam	-11.4087
▁designer	-11.4088
▁mud	-11.4088
▁phrase	-11.409
▁italian	-11.409
▁chapter	-11.409
▁mill	-11.4093
▁ab	-11.4099
▁curve	-11.4103
▁collected	-11.4108
▁leo	-11.4113
▁mob	-11.4116
▁bush	-11.4116
▁tooth	-11.4117
▁organic	-11.412
▁planted	-11.412
▁bothering	-11.4123
▁ambassador	-11.4124
▁phenomenon	-11.4124
▁flies	-11.4124
▁turtle	-11.4124
▁prior	-11.4126
▁warren	-11.4126
▁survivors	-11.4129
▁yuma	-11.4136
▁ch	-11.4136
▁signals	-11.4142
▁ouch	-11.4145
▁seed	-11.4151
osan	-11.4156
▁assistance	-11.4159
▁medication	-11.4159
▁subway	-11.4159
▁madoka	-11.4159
▁reactor	-11.416
▁plug	-11.416
▁questioning	-11.4164
▁accused	-11.4164
▁inn	-11.4166
▁recovered	-11.4169
▁clinical	-11.4181
▁donor	-11.4182
▁theme	-11.4182
▁odds	-11.4183
▁requested	-11.4184
▁warp	-11.4185
▁realm	-11.4192
▁protest	-11.4192
▁applied	-11.4193
▁creativity	-11.4193
▁dexter	-11.4193
▁idiots	-11.4195
▁stack	-11.4196
ok	-11.4207
▁clone	-11.421
▁joining	-11.4215
▁yoko	-11.4221
▁dana	-11.4223
▁rival	-11.4227
▁brazil	-11.4228
▁stroke	-11.4228
▁rational	-11.4228
▁legendary	-11.4229
▁targets	-11.4236
▁shining	-11.4245
▁linked	-11.4246
▁benefits	-11.4247
▁nathan	-11.4263
▁edward	-11.4263
▁etc	-11.4265
▁jewel	-11.4269
board	-11.4271
ker	-11.4272
▁suspected	-11.4273
▁element	-11.4276
▁orbit	-11.4276
10	-11.4277
uh	-11.4278
▁landed	-11.4287
▁flip	-11.4297
▁versus	-11.4298
▁gravity	-11.4298
▁cal	-11.4301
▁cried	-11.4302
▁clothing	-11.4304
ana	-11.4305
▁deserves	-11.4309
▁kou	-11.4311
▁neo	-11.4319
▁rocks	-11.432
▁bin	-11.4325
▁offense	-11.4333
▁stubborn	-11.4333
▁uhhuh	-11.4334
door	-11.4342
sky	-11.435
▁menu	-11.4362
▁exception	-11.4366
▁heshe	-11.4368
▁taylor	-11.4368
▁generous	-11.4368
▁bicycle	-11.4368
▁dragged	-11.4369
▁witches	-11.4373
▁cursed	-11.4374
lon	-11.4383
▁beans	-11.4387
ative	-11.4388
▁scrap	-11.4389
ain	-11.4389
▁rot	-11.4393
▁twins	-11.4403
▁abigail	-11.4403
▁abroad	-11.4403
▁personnel	-11.4403
▁possibilities	-11.4403
▁slice	-11.4404
▁differences	-11.4407
▁mal	-11.4409
▁lily	-11.4411
▁alley	-11.4416
▁chad	-11.4416
▁occur	-11.442
▁haru	-11.442
▁intended	-11.442
▁prisoners	-11.4425
▁brat	-11.4429
▁virgin	-11.443
▁myth	-11.4432
▁transplant	-11.4438
▁universal	-11.4439
▁vault	-11.4439
▁gorgeous	-11.4439
▁elite	-11.444
▁acts	-11.4441
kai	-11.4447
▁lap	-11.4448
▁suggests	-11.4456
▁embrace	-11.4456
▁billions	-11.4457
▁wounded	-11.446
▁ci	-11.4461
▁gosh	-11.4461
▁sounded	-11.4462
▁lit	-11.4464
▁assist	-11.4468
▁factor	-11.4474
▁attacking	-11.4474
▁invasion	-11.4475
▁florida	-11.4475
▁transmission	-11.4475
▁jun	-11.4478
▁gross	-11.4479
ick	-11.448
▁mag	-11.4485
▁48	-11.4486
▁loaded	-11.4488
▁borrowed	-11.449
▁privilege	-11.4492
▁shocked	-11.4492
▁feature	-11.4493
▁cigarette	-11.4494
▁sheep	-11.4496
▁lion	-11.4504
▁intense	-11.4507
▁happily	-11.451
▁vulnerable	-11.451
▁transformation	-11.4511
▁electronic	-11.4511
▁harsh	-11.4514
rie	-11.4517
uck	-11.4518
▁ty	-11.4521
▁stretch	-11.4524
▁organizations	-11.4531
▁formula	-11.4535
ible	-11.454
▁unconscious	-11.4542
▁fiction	-11.4544
▁nap	-11.4545
▁turkey	-11.4546
▁maiden	-11.4547
▁miller	-11.4551
▁silk	-11.4554
stro	-11.4556
▁geez	-11.4557
▁invest	-11.4567
▁item	-11.4569
▁sources	-11.457
wood	-11.457
▁september	-11.4582
▁gdp	-11.4582
▁dunham	-11.4582
▁frequency	-11.4587
▁peak	-11.459
▁formal	-11.4592
▁owned	-11.4593
▁define	-11.46
▁:	-11.4605
▁complain	-11.4606
▁delay	-11.4611
▁deposit	-11.4613
win	-11.4615
▁politicians	-11.4616
▁depression	-11.4618
▁manufacturing	-11.4618
▁quantum	-11.4618
▁residence	-11.4618
▁zoe	-11.4619
▁loop	-11.4621
▁satan	-11.4624
▁demons	-11.4626
▁successfully	-11.4627
▁depending	-11.4629
▁ham	-11.4637
▁misaki	-11.4639
▁threaten	-11.464
oo	-11.464
▁jung	-11.4645
▁update	-11.4646
▁sides	-11.4648
▁compliment	-11.4654
▁eternal	-11.4654
▁greek	-11.4654
▁patience	-11.4654
class	-11.4656
▁ash	-11.4659
▁surrounding	-11.4659
▁punish	-11.4673
▁jon	-11.4673
▁flood	-11.4673
▁freaking	-11.4673
ious	-11.4674
oh	-11.4678
▁vessel	-11.4679
▁fo	-11.468
▁relations	-11.4681
▁prop	-11.4681
▁gil	-11.4682
▁farmers	-11.4684
▁knee	-11.4687
▁cliff	-11.469
▁conspiracy	-11.4691
▁october	-11.4691
▁statue	-11.4691
▁kyoto	-11.4691
▁thus	-11.4692
▁lawyers	-11.4699
▁synchron	-11.4701
▁journalist	-11.4703
▁wasted	-11.4707
▁feds	-11.4709
▁pointed	-11.4717
▁spit	-11.4718
▁bean	-11.4721
▁spark	-11.4723
▁essential	-11.4724
▁brick	-11.4728
act	-11.4728
▁betty	-11.4729
▁marcel	-11.473
▁kaito	-11.473
▁cole	-11.4731
▁refer	-11.4731
nic	-11.4732
▁sc	-11.4733
▁jake	-11.4734
aki	-11.4735
▁coal	-11.4738
▁packed	-11.4748
ged	-11.4751
▁musical	-11.4753
▁missile	-11.4755
▁99	-11.4756
▁accurate	-11.476
▁socalled	-11.4764
▁whwhat	-11.4764
▁loyalty	-11.4764
▁antarctica	-11.4765
▁fortunately	-11.4766
ability	-11.4776
▁erase	-11.4776
▁fulfill	-11.4783
bit	-11.4784
bed	-11.4788
▁collapsed	-11.4789
▁spill	-11.4793
▁fur	-11.4799
▁psycho	-11.48
just	-11.4801
▁practically	-11.4804
▁activated	-11.4816
▁rem	-11.4819
▁mon	-11.482
▁har	-11.4822
▁particles	-11.4824
▁methods	-11.4828
▁candidate	-11.4829
▁constant	-11.4834
▁glory	-11.4838
▁throne	-11.4838
▁kelly	-11.4839
net	-11.4842
▁tube	-11.4853
▁bold	-11.4857
▁umm	-11.4858
▁comp	-11.4864
▁application	-11.4867
▁existed	-11.4868
▁concrete	-11.4875
▁depressed	-11.4875
▁equation	-11.4875
▁societies	-11.4875
▁suspicion	-11.4875
▁cheat	-11.4876
▁delta	-11.4877
▁halfway	-11.4878
▁beaten	-11.488
▁kur	-11.4885
▁100,000	-11.4887
▁dea	-11.489
▁regards	-11.4895
▁800	-11.4897
▁goat	-11.4899
▁attract	-11.4903
▁sport	-11.4907
▁guilt	-11.4908
▁centuries	-11.4912
▁examination	-11.4912
▁clown	-11.4912
▁bravo	-11.4912
▁bible	-11.4913
▁gum	-11.4916
▁enjoyed	-11.4917
▁col	-11.4924
▁poisoned	-11.4934
war	-11.4943
▁bubble	-11.4944
▁instrument	-11.4944
▁react	-11.4946
▁warming	-11.4951
lia	-11.4951
ang	-11.4953
▁networks	-11.4964
▁jungle	-11.4974
▁australia	-11.4981
▁ar	-11.4983
▁salary	-11.4987
▁penny	-11.4988
▁moriyama	-11.4989
▁league	-11.499
▁household	-11.499
▁wrapped	-11.4991
▁bail	-11.4993
▁q	-11.4997
▁pee	-11.4999
▁engineers	-11.501
▁fold	-11.5016
▁formed	-11.5019
▁hon	-11.502
▁increasing	-11.502
are	-11.5024
▁fusco	-11.5024
gh	-11.5029
▁trials	-11.5031
▁poem	-11.5043
yu	-11.5045
▁traces	-11.5045
▁smarter	-11.5047
▁additional	-11.5052
▁strangers	-11.5052
▁extract	-11.5057
▁experts	-11.5058
▁mac	-11.5059
▁blank	-11.5061
▁negotiate	-11.5062
▁jeez	-11.5062
▁spanish	-11.5062
▁ripper	-11.5062
▁ancestors	-11.5062
▁elias	-11.5063
▁dc	-11.5063
▁graph	-11.5065
▁mori	-11.5071
▁molecules	-11.5077
▁institution	-11.508
▁reserve	-11.5081
▁reaching	-11.5081
▁hopeless	-11.5086
▁posted	-11.5093
▁informed	-11.5094
▁sail	-11.5097
▁businesses	-11.5098
▁interrogation	-11.51
▁telescope	-11.51
▁handed	-11.5103
▁ju	-11.5111
hold	-11.5111
how	-11.5114
▁oldest	-11.5116
▁destroying	-11.5118
▁resist	-11.512
▁bolt	-11.5121
▁fee	-11.5124
▁outfit	-11.5129
▁immortal	-11.5137
▁basketball	-11.5138
▁corruption	-11.5138
▁miami	-11.5138
▁interests	-11.5139
ye	-11.514
▁campus	-11.5144
▁lad	-11.5145
lf	-11.5155
▁joan	-11.5158
▁evan	-11.516
▁maya	-11.5165
▁hyun	-11.5168
▁loyal	-11.5172
light	-11.5174
video	-11.5174
80	-11.5174
▁industries	-11.5176
▁reservation	-11.5176
▁scanner	-11.5176
▁bella	-11.5176
▁duke	-11.5177
▁transition	-11.5181
▁che	-11.5182
▁reasonable	-11.5193
▁pace	-11.5201
▁magnetic	-11.521
▁spreading	-11.5213
▁beneath	-11.5214
▁importance	-11.5214
▁franklin	-11.5215
▁worldwide	-11.5217
▁assigned	-11.5217
our	-11.5219
▁hip	-11.5219
▁registered	-11.5221
▁fighter	-11.5221
▁sync	-11.5225
▁earned	-11.5226
▁journal	-11.5226
▁ren	-11.5231
▁chop	-11.5235
▁volunteer	-11.5238
▁hoped	-11.524
▁gal	-11.5241
▁ban	-11.5245
▁za	-11.5246
▁scofield	-11.5253
▁laboratory	-11.5253
▁drank	-11.5253
▁passionate	-11.5253
▁presentation	-11.5257
▁erica	-11.5259
▁ensure	-11.5262
▁photographs	-11.5266
▁announce	-11.5272
▁generate	-11.5273
▁propose	-11.5273
aro	-11.5276
▁dock	-11.5284
▁closet	-11.5284
▁fist	-11.5284
▁convenience	-11.5291
▁destination	-11.5291
▁intellectual	-11.5291
▁interface	-11.5292
▁invention	-11.5292
▁haruka	-11.5292
▁scent	-11.5293
ami	-11.5293
▁ellen	-11.5293
▁theft	-11.5294
▁maker	-11.5294
▁reform	-11.5296
▁user	-11.5298
▁insects	-11.5302
▁experiences	-11.5304
▁clouds	-11.5306
▁coin	-11.531
▁whale	-11.5317
▁drum	-11.5317
▁tone	-11.5328
▁consultant	-11.533
▁chemistry	-11.533
fo	-11.5331
▁rats	-11.5337
▁fucker	-11.5347
▁carlos	-11.5352
▁items	-11.5355
▁limb	-11.5355
▁associate	-11.5356
hour	-11.5356
▁bal	-11.5357
ose	-11.5358
▁replaced	-11.5359
▁kindness	-11.5367
▁rigsby	-11.5369
▁ceiling	-11.5369
▁spike	-11.5369
▁terrorism	-11.5369
▁gender	-11.5369
▁twist	-11.537
▁bobby	-11.537
▁sustainable	-11.5371
▁physically	-11.5384
▁expand	-11.5391
▁appeal	-11.5398
▁qu	-11.54
▁hatch	-11.5401
▁fifty	-11.5408
ue	-11.5408
▁shore	-11.5412
aw	-11.5413
mori	-11.5417
▁indicate	-11.5419
▁fla	-11.542
pp	-11.5423
▁assumed	-11.5425
▁painted	-11.5431
▁je	-11.5432
▁forensics	-11.5441
▁vehicles	-11.5443
▁interfere	-11.5447
▁variety	-11.5447
▁kiera	-11.5448
▁clay	-11.5448
▁coral	-11.545
▁rapidly	-11.545
▁punk	-11.5451
ero	-11.5458
▁coke	-11.5464
▁bars	-11.5469
▁bend	-11.5478
▁collective	-11.5484
▁skip	-11.5484
▁discipline	-11.5487
▁legacy	-11.5487
▁practicing	-11.5487
▁defendant	-11.5487
▁shuttle	-11.5487
▁blah	-11.5487
▁paperwork	-11.5488
▁italy	-11.549
▁hint	-11.5492
▁overnight	-11.5492
▁investigator	-11.5496
▁attempted	-11.5501
▁singer	-11.5501
▁soo	-11.5504
▁reflect	-11.5505
▁standards	-11.5505
ery	-11.5509
▁planets	-11.5514
gy	-11.5518
▁nan	-11.5521
▁diversity	-11.5526
▁secretly	-11.5528
▁filter	-11.5528
▁rape	-11.5531
▁chess	-11.5533
▁sphere	-11.5537
▁sensors	-11.5542
▁vest	-11.5544
▁stamp	-11.5558
▁matthew	-11.556
▁practical	-11.5562
▁beloved	-11.5566
▁physician	-11.5566
▁thunder	-11.5566
▁suggestion	-11.5568
▁vow	-11.557
▁reed	-11.558
▁arranged	-11.5584
▁2000	-11.5584
awa	-11.5586
▁lung	-11.5593
▁homeless	-11.5594
▁disagree	-11.5604
▁stardust	-11.5606
▁notebook	-11.5606
▁dramatic	-11.5606
▁rev	-11.5607
▁fi	-11.5609
▁sang	-11.5612
▁chick	-11.5617
▁amongst	-11.5618
▁tastes	-11.562
▁visitor	-11.5626
▁liber	-11.563
▁31	-11.5632
▁ink	-11.5633
▁pipe	-11.5633
▁passenger	-11.5635
▁zoo	-11.5636
▁claims	-11.5639
▁download	-11.5644
▁fella	-11.5645
▁distant	-11.5646
▁katie	-11.5646
▁bait	-11.5648
▁assets	-11.5653
▁rear	-11.5657
▁wins	-11.5659
▁particle	-11.566
▁imp	-11.5661
▁funds	-11.5664
▁sayaka	-11.5666
istic	-11.567
ration	-11.567
▁rap	-11.567
▁wh	-11.5671
▁risks	-11.5679
gan	-11.5684
▁manner	-11.5684
▁accent	-11.5686
▁entertainment	-11.5686
▁approximately	-11.5686
▁wore	-11.5691
ini	-11.5691
▁cr	-11.5699
▁holiday	-11.5701
▁eliminate	-11.5707
▁testify	-11.5708
▁conduct	-11.5708
▁locate	-11.5708
▁flavor	-11.5708
▁triple	-11.5713
▁troubled	-11.5718
▁comic	-11.572
▁sheet	-11.5722
▁acquaintance	-11.5726
▁kuririn	-11.5726
▁starving	-11.5726
▁enforcement	-11.5726
▁caleb	-11.5726
▁pacific	-11.5729
▁aids	-11.5731
▁tens	-11.5731
▁obey	-11.5732
▁gig	-11.5735
▁via	-11.5735
▁rings	-11.5735
▁fuku	-11.5735
▁controlling	-11.5736
▁lips	-11.5736
▁rooms	-11.5741
▁hates	-11.5747
ties	-11.575
asan	-11.5757
▁boots	-11.5758
▁trans	-11.5762
har	-11.5766
▁shout	-11.5766
▁apologies	-11.5767
▁receiving	-11.5767
▁soccer	-11.5767
▁announcement	-11.5767
▁troublesome	-11.5768
▁admitted	-11.5768
▁fits	-11.5771
▁rejected	-11.5772
▁subjects	-11.5774
▁banks	-11.5776
▁rounds	-11.5796
▁psychological	-11.5804
▁drones	-11.5805
▁aggressive	-11.5807
▁avenue	-11.5807
▁onodera	-11.5807
▁puppet	-11.5807
▁hokage	-11.5807
▁regardless	-11.5808
▁commitment	-11.5808
▁relatives	-11.5808
▁nut	-11.5809
▁nazir	-11.5809
▁banker	-11.5812
▁isolated	-11.5814
▁techniques	-11.5819
▁kilo	-11.5819
▁russians	-11.582
▁searched	-11.582
▁charming	-11.5821
▁ties	-11.5829
▁aiming	-11.5831
▁tune	-11.5838
▁radical	-11.5845
gawa	-11.5845
▁communications	-11.5847
▁facial	-11.5848
▁squeeze	-11.5848
▁creates	-11.5848
▁spray	-11.5848
▁grabbed	-11.5849
py	-11.5849
▁stepped	-11.585
ered	-11.585
las	-11.5852
cent	-11.5857
▁roughly	-11.5858
▁circuit	-11.5867
▁sixth	-11.5876
▁parker	-11.5883
▁roads	-11.5887
▁companion	-11.5889
▁distribution	-11.5889
▁horror	-11.5889
▁psychiatrist	-11.5889
▁struggling	-11.5889
▁speaker	-11.5889
▁toxic	-11.5889
▁balloon	-11.591
▁arrange	-11.5911
▁vampires	-11.5915
▁butter	-11.5918
▁insect	-11.5919
▁adapt	-11.5921
▁helen	-11.5922
ned	-11.5927
ito	-11.593
▁graduation	-11.593
▁laundry	-11.593
▁manhattan	-11.593
▁fireworks	-11.593
▁hollywood	-11.593
▁polar	-11.593
▁casey	-11.5933
pin	-11.5938
▁crossing	-11.5941
▁damned	-11.5943
▁iphone	-11.5944
▁busted	-11.5945
oma	-11.5946
▁observe	-11.5949
▁haha	-11.5962
▁snap	-11.5964
▁ages	-11.5969
▁august	-11.5971
▁perpetrator	-11.5972
▁forbidden	-11.5972
▁anderson	-11.5972
foot	-11.5973
▁naive	-11.5973
▁expectations	-11.5985
▁freely	-11.5985
ney	-11.5986
▁sins	-11.5986
▁confessed	-11.5988
▁associated	-11.5991
ign	-11.5993
▁spear	-11.5994
▁photographer	-11.5994
▁seo	-11.5995
▁jean	-11.6
▁lungs	-11.6
▁deer	-11.6003
ep	-11.6007
▁hyper	-11.6009
▁cass	-11.601
▁arguing	-11.6013
▁molly	-11.6013
boy	-11.6027
tte	-11.6031
▁layer	-11.6036
og	-11.6042
mate	-11.6045
▁markets	-11.6047
▁drives	-11.6048
▁weigh	-11.6051
▁canada	-11.6052
▁fuji	-11.6055
▁einstein	-11.6055
▁fossil	-11.6055
▁happier	-11.6055
▁jeremy	-11.6055
▁umbrella	-11.6055
▁berlin	-11.6055
▁farewell	-11.6055
▁bucket	-11.6055
▁aircraft	-11.6055
▁humor	-11.6056
▁holly	-11.6057
▁madame	-11.6061
▁wi	-11.6062
▁fond	-11.6073
▁targeted	-11.6076
jima	-11.6086
▁possess	-11.6086
▁structures	-11.6087
▁threats	-11.6093
▁profound	-11.6093
▁opera	-11.6094
ction	-11.6095
▁imperial	-11.6097
▁attractive	-11.6097
▁exhibition	-11.6097
▁transportation	-11.6098
▁christian	-11.6098
▁prick	-11.6098
row	-11.6099
▁tracked	-11.6099
kan	-11.6111
▁funding	-11.6117
▁pursue	-11.612
▁switched	-11.6126
▁melt	-11.6135
▁champagne	-11.6139
▁necklace	-11.6139
▁recognition	-11.6139
▁whereabouts	-11.6139
▁nishi	-11.6141
▁medal	-11.6143
uk	-11.6144
mark	-11.6151
▁revealed	-11.6152
pping	-11.6153
▁vegas	-11.6161
▁allen	-11.6161
▁labs	-11.6164
▁pops	-11.6164
▁bills	-11.6166
▁convenient	-11.6177
▁medium	-11.6181
▁davis	-11.6181
▁agenda	-11.6181
▁frobisher	-11.6184
▁magnet	-11.6186
▁frankie	-11.6186
▁surprisingly	-11.6187
▁hostages	-11.6187
▁ghosts	-11.6191
▁backwards	-11.6196
▁admire	-11.6197
▁paintings	-11.62
phone	-11.621
▁pose	-11.6215
▁rei	-11.6217
▁payment	-11.6222
▁recipe	-11.6223
▁conscience	-11.6223
nan	-11.6223
▁pill	-11.6223
▁crab	-11.6224
▁settlement	-11.6224
▁toys	-11.6231
▁retired	-11.6238
▁wo	-11.6243
art	-11.6246
▁encourage	-11.6247
▁ants	-11.6249
▁fabric	-11.6251
▁dug	-11.6253
▁tent	-11.6253
▁hiro	-11.626
▁exhibit	-11.6265
▁designers	-11.6265
▁absurd	-11.6266
▁january	-11.6266
▁promotion	-11.6266
▁latin	-11.6269
▁iran	-11.6271
▁punished	-11.6275
▁blowing	-11.6284
▁yea	-11.6286
▁crashed	-11.6289
▁diamonds	-11.6294
▁generator	-11.6308
▁ecosystem	-11.6308
▁grudge	-11.6308
▁psychology	-11.6308
▁pearl	-11.6309
▁retirement	-11.6309
▁riley	-11.6309
▁contain	-11.6311
box	-11.6314
▁desperately	-11.6315
▁guts	-11.6331
▁videos	-11.6333
▁cared	-11.6334
suke	-11.6336
▁fellas	-11.6338
je	-11.6346
▁kissed	-11.6348
▁greg	-11.635
▁marshal	-11.635
▁syndrome	-11.6351
▁undercover	-11.6351
▁extent	-11.6351
▁pleasant	-11.6351
▁hatred	-11.6352
▁nancy	-11.6352
▁wwhat	-11.6352
▁hallway	-11.6352
▁worthy	-11.6353
▁heir	-11.6355
▁outcome	-11.6357
▁coma	-11.6359
▁howard	-11.6359
ica	-11.6359
▁blessing	-11.6361
▁ryu	-11.6366
ria	-11.6368
▁bombs	-11.6368
ette	-11.6372
▁savings	-11.6379
ake	-11.6384
▁swallow	-11.6387
lar	-11.6387
▁traveled	-11.639
▁instant	-11.6391
▁sketch	-11.6393
▁phantom	-11.6394
▁absence	-11.6394
▁nickname	-11.6395
▁complexity	-11.6397
▁malaria	-11.6404
▁sack	-11.6408
▁sai	-11.6411
▁concerns	-11.6411
▁moron	-11.6413
cal	-11.6415
air	-11.6415
gram	-11.6423
▁proven	-11.6425
▁bless	-11.6425
▁merry	-11.6427
▁intercept	-11.643
▁pur	-11.6437
▁entrust	-11.6438
▁shrimp	-11.6438
▁pierce	-11.6438
▁tension	-11.6439
▁blend	-11.6441
▁dedicated	-11.6441
▁masa	-11.6443
▁divide	-11.6463
▁restore	-11.6464
port	-11.6466
▁brad	-11.6468
▁corps	-11.6481
▁crucial	-11.6481
▁felicity	-11.6481
▁maintenance	-11.6481
▁november	-11.6481
▁powder	-11.6481
▁lionel	-11.6482
▁immune	-11.6482
▁marshall	-11.6483
▁passage	-11.6484
▁jackson	-11.6486
▁unlikely	-11.6489
▁rarely	-11.6493
▁compromised	-11.6495
cl	-11.6498
▁rub	-11.6504
▁laughed	-11.6516
▁lou	-11.6517
▁lannister	-11.652
▁deceased	-11.6525
▁epidemic	-11.6525
▁jersey	-11.6525
▁melissa	-11.6525
▁violin	-11.6525
▁whip	-11.6525
▁trading	-11.6525
▁logic	-11.6526
▁roommate	-11.6528
▁compete	-11.6531
▁kei	-11.6546
kura	-11.6549
▁purchase	-11.655
▁extend	-11.6551
▁principles	-11.6552
▁faced	-11.6552
▁42	-11.6553
▁ob	-11.6558
▁processing	-11.6559
▁butcher	-11.6559
▁thas	-11.6561
▁tro	-11.6565
▁academic	-11.6569
▁equivalent	-11.6569
▁pussy	-11.6569
▁twelve	-11.6569
▁filthy	-11.657
▁july	-11.6573
del	-11.6578
▁passes	-11.6585
▁bot	-11.659
▁gotham	-11.6594
▁rod	-11.6605
▁generally	-11.6607
▁cookies	-11.6611
▁identical	-11.6613
▁terminal	-11.6613
▁oniichan	-11.6613
▁liberty	-11.6613
▁underwear	-11.6613
▁subtle	-11.6613
12	-11.6614
▁tale	-11.6619
▁vegetables	-11.6621
▁rage	-11.6622
▁yui	-11.6629
▁suggested	-11.6639
▁endure	-11.6646
▁stones	-11.6648
▁chemicals	-11.6649
▁graduated	-11.6653
▁clark	-11.6654
▁choosing	-11.6657
▁kakashi	-11.6657
▁kindergarten	-11.6657
▁nowadays	-11.6657
▁precinct	-11.6657
▁trillion	-11.6657
▁mistress	-11.6657
▁abby	-11.6658
▁robbed	-11.6661
▁del	-11.6668
▁solo	-11.6669
ken	-11.6679
▁translate	-11.6683
▁gr	-11.6686
▁pigs	-11.6688
▁shadows	-11.669
▁bleed	-11.6692
ray	-11.6696
▁continuing	-11.6701
▁tuning	-11.6702
▁panel	-11.6703
▁battlefield	-11.6703
▁2010	-11.6704
▁sn	-11.6705
▁starling	-11.6707
▁blackout	-11.6709
▁passengers	-11.6714
▁dev	-11.6714
▁combined	-11.6718
pan	-11.6719
▁grasp	-11.6724
▁buck	-11.6726
▁pound	-11.6742
▁strict	-11.6743
hiko	-11.6743
▁envy	-11.6746
▁moriarty	-11.6746
▁paradise	-11.6746
▁perception	-11.6746
▁sebastian	-11.6746
▁hesitate	-11.6746
▁jessica	-11.6746
▁helmet	-11.6746
▁shaking	-11.6746
▁skyler	-11.6748
▁void	-11.6748
▁arrangement	-11.6748
▁lifestyle	-11.675
▁vent	-11.6755
▁fer	-11.6759
▁sora	-11.6761
▁fred	-11.6764
▁prep	-11.6768
▁rein	-11.6772
▁acknowledge	-11.6772
▁fans	-11.6777
▁meals	-11.6784
▁lobby	-11.6788
▁eagle	-11.6791
▁ministry	-11.6791
▁sophisticated	-11.6791
▁jerry	-11.6791
▁astral	-11.6791
▁jazz	-11.6791
▁mentor	-11.6791
▁mechanism	-11.6793
▁depth	-11.6794
▁fry	-11.6799
cc	-11.6803
▁tin	-11.6804
▁def	-11.6807
▁performed	-11.6808
▁bun	-11.6812
▁wiped	-11.6821
▁ram	-11.6828
▁register	-11.6828
▁bothered	-11.6829
▁literature	-11.6836
▁motivation	-11.6836
▁amusement	-11.6836
▁misaka	-11.6837
▁couch	-11.6837
▁mason	-11.684
▁thor	-11.6845
free	-11.6848
cra	-11.6848
▁climbing	-11.6856
▁pockets	-11.6859
▁fewer	-11.6861
▁buyer	-11.6863
▁dar	-11.6864
▁anne	-11.6865
▁enable	-11.6866
▁mega	-11.687
▁meetings	-11.687
▁ignored	-11.6876
▁manual	-11.6878
▁approval	-11.6881
▁celebration	-11.6881
▁dignity	-11.6881
▁barbara	-11.6882
▁native	-11.6882
▁relatively	-11.6887
til	-11.689
▁deadly	-11.6891
oid	-11.6893
▁prey	-11.6902
▁expose	-11.6909
umi	-11.6909
▁tortured	-11.6909
▁bald	-11.6917
▁fog	-11.6919
▁wreck	-11.6926
▁unfair	-11.6927
▁administration	-11.6927
▁autism	-11.6927
▁fantasy	-11.6927
▁judging	-11.6927
▁malcolm	-11.6927
▁raven	-11.6927
▁antique	-11.6927
▁motel	-11.6927
▁tide	-11.6928
▁suspended	-11.693
▁instinct	-11.6933
▁penguin	-11.6933
▁commissioner	-11.6933
▁forensic	-11.6934
▁sticking	-11.6943
▁fighters	-11.6953
▁demands	-11.6956
▁reminded	-11.6963
even	-11.6964
▁nicely	-11.6968
▁cd	-11.697
▁fabulous	-11.6972
▁audition	-11.6973
▁blanket	-11.6973
▁congressman	-11.6974
ung	-11.6976
▁researchers	-11.6977
▁cafe	-11.6978
▁inches	-11.6982
▁eren	-11.6985
ory	-11.7
▁mechanical	-11.7003
▁grows	-11.7004
▁daughters	-11.7007
▁slaves	-11.7018
▁brutal	-11.7018
▁accomplice	-11.7018
▁lawsuit	-11.7018
▁steak	-11.7018
▁pursuit	-11.7018
▁visible	-11.7018
▁reckless	-11.7018
▁simulation	-11.7018
▁pillow	-11.7018
▁overwhelming	-11.7019
▁diary	-11.7019
▁parttime	-11.702
▁vigilante	-11.7021
▁purse	-11.7021
use	-11.7024
uchi	-11.7025
▁submit	-11.7025
▁input	-11.7028
▁lean	-11.7032
▁inspiration	-11.7035
bin	-11.7036
fish	-11.7037
▁bombing	-11.7038
▁dislike	-11.7046
▁explains	-11.7052
▁yuu	-11.7055
pen	-11.7056
▁pakistan	-11.7057
▁chased	-11.7062
point	-11.7064
▁francis	-11.7064
▁certificate	-11.7064
▁curiosity	-11.7064
▁mathematics	-11.7064
▁tshirt	-11.7064
▁ginger	-11.7065
▁kidney	-11.7066
▁mini	-11.7068
▁hunger	-11.7072
▁blessed	-11.7073
▁dam	-11.7077
▁stan	-11.7078
▁sakurako	-11.708
ked	-11.7082
▁tablet	-11.7082
gue	-11.7084
uri	-11.7086
▁nana	-11.7087
nn	-11.7088
▁connecting	-11.7092
▁melon	-11.7093
not	-11.71
▁potato	-11.7109
1.	-11.711
▁housing	-11.7111
▁theories	-11.7111
▁senate	-11.7111
▁collar	-11.7115
▁taxes	-11.7116
▁represents	-11.7116
fin	-11.7117
▁equally	-11.7121
▁jumping	-11.7122
▁float	-11.7128
▁marked	-11.7131
▁allowing	-11.7132
▁talented	-11.7134
▁farmer	-11.7135
ora	-11.7137
▁dale	-11.7138
▁5,000	-11.7145
▁shoulders	-11.7149
▁baker	-11.715
▁democratic	-11.715
pu	-11.7155
▁tragic	-11.7157
▁challenging	-11.7157
▁solving	-11.7157
▁terrified	-11.7157
▁tuesday	-11.7157
▁cisco	-11.7157
▁hayato	-11.7157
▁molecular	-11.7157
▁leverage	-11.7157
▁selection	-11.7158
▁improvement	-11.7158
▁kitty	-11.7158
▁anxiety	-11.7159
▁formation	-11.7164
▁opposed	-11.7168
▁meaningful	-11.7169
▁container	-11.7171
▁fuss	-11.7177
▁pirate	-11.7177
▁included	-11.7184
▁decline	-11.7185
▁pour	-11.7189
ford	-11.7189
▁photon	-11.7201
▁ambition	-11.7204
▁december	-11.7204
▁consent	-11.7204
▁vincent	-11.7204
▁banana	-11.7204
▁nigger	-11.7204
▁properties	-11.7204
▁thirsty	-11.7205
▁cdc	-11.7206
▁hachi	-11.721
2.	-11.7211
▁boot	-11.7214
▁interaction	-11.7219
ik	-11.7221
▁sleepy	-11.7221
▁performing	-11.7231
▁deb	-11.7234
▁precise	-11.7247
▁label	-11.7251
▁goin	-11.7251
▁matrix	-11.7251
▁maximum	-11.7251
▁rebecca	-11.7251
▁sting	-11.7251
▁leap	-11.7251
▁wives	-11.7251
▁harrison	-11.7252
▁wireless	-11.7252
▁lamp	-11.7254
bout	-11.7254
shot	-11.7258
▁disturbing	-11.7258
▁1000	-11.7262
▁rum	-11.7266
▁hacker	-11.7275
▁conversations	-11.7284
▁shrink	-11.7288
▁prism	-11.729
▁witnessed	-11.7291
▁miki	-11.7297
▁arrival	-11.7298
▁brooklyn	-11.7298
▁leather	-11.7298
▁thursday	-11.7298
▁rotten	-11.7298
▁exhausted	-11.73
bel	-11.7301
▁deaf	-11.7306
▁barrel	-11.7316
▁organisms	-11.7317
▁craft	-11.7321
▁washed	-11.7324
▁grip	-11.7327
▁users	-11.7329
▁israel	-11.7331
▁engines	-11.7332
▁establish	-11.7337
▁commission	-11.7338
▁slight	-11.7343
oku	-11.7344
▁agriculture	-11.7345
▁reliable	-11.7345
▁vulcan	-11.7345
▁scandal	-11.7345
▁sunset	-11.7346
▁philip	-11.7346
▁ripped	-11.7346
▁pond	-11.7347
▁iii	-11.7347
nc	-11.7354
▁bribe	-11.7356
fer	-11.7357
▁seventh	-11.7365
▁handling	-11.7366
▁swords	-11.7372
az	-11.7378
iness	-11.7379
▁goals	-11.7382
▁targeting	-11.7386
ically	-11.7388
▁harris	-11.7392
▁orchestra	-11.7393
▁elliot	-11.7393
▁mexican	-11.7393
▁overseas	-11.7393
▁gently	-11.7393
▁thread	-11.7393
▁cabinet	-11.7394
vin	-11.7396
ched	-11.7396
ral	-11.74
▁gunshot	-11.7403
▁josh	-11.7409
▁loo	-11.7412
▁kenya	-11.7414
▁jaw	-11.7418
▁miso	-11.7422
mmer	-11.7431
▁faint	-11.7433
▁lame	-11.7437
▁fragile	-11.7441
▁ohh	-11.7442
▁ramen	-11.7443
▁spotted	-11.7443
▁navy	-11.7444
▁adopted	-11.7447
▁wandering	-11.745
▁crushed	-11.7455
▁riot	-11.7455
▁claimed	-11.746
▁civilian	-11.7464
▁proposed	-11.7464
▁examine	-11.7467
▁steven	-11.7468
▁stall	-11.7468
▁yards	-11.7469
▁custom	-11.747
▁recruit	-11.7471
▁directions	-11.7478
▁envelope	-11.7487
▁scheduled	-11.7488
▁fifteen	-11.7489
▁minimum	-11.7489
▁harvey	-11.7489
▁delicate	-11.7489
▁soviet	-11.7489
▁cherry	-11.7489
▁albert	-11.7489
▁meanwhile	-11.749
▁abducted	-11.7491
▁nerd	-11.7491
25	-11.7492
▁wicked	-11.7492
▁seeds	-11.7494
▁detected	-11.75
▁dose	-11.7506
▁abbott	-11.7508
▁towel	-11.7512
▁analyze	-11.7519
▁withdraw	-11.7523
▁burns	-11.7532
▁dozens	-11.7532
▁ego	-11.7534
old	-11.7535
▁lecter	-11.7537
▁narrative	-11.7537
▁yield	-11.7537
▁sunlight	-11.7538
▁christine	-11.7539
▁3,000	-11.7542
▁residents	-11.7543
▁honored	-11.7544
pol	-11.7546
▁deceived	-11.7548
15	-11.7553
▁quest	-11.7553
▁rail	-11.7554
▁ringing	-11.7556
▁cur	-11.7557
▁sweep	-11.7565
▁oz	-11.7567
▁absorb	-11.7568
▁juliet	-11.7575
▁rebuild	-11.7576
▁misa	-11.7577
▁sponsor	-11.7578
▁drain	-11.758
▁benjamin	-11.7586
▁gratitude	-11.7586
▁initiative	-11.7586
▁unpleasant	-11.7586
▁radius	-11.7586
▁rural	-11.7586
▁slade	-11.7586
▁strongly	-11.7588
▁frightened	-11.7589
▁increasingly	-11.759
▁rio	-11.7591
bound	-11.7595
▁marker	-11.7595
▁seeking	-11.7602
▁finest	-11.7607
▁dong	-11.7607
▁announced	-11.7609
▁printer	-11.7611
▁algorithm	-11.7612
▁proved	-11.7614
▁evacuate	-11.7616
▁relate	-11.7616
▁abu	-11.7619
▁bonds	-11.7624
▁yay	-11.7626
▁pu	-11.763
hole	-11.7632
▁gorilla	-11.7635
▁therapist	-11.7635
▁gabriel	-11.7635
▁saber	-11.7635
▁freezing	-11.7636
▁elsewhere	-11.7637
▁quitting	-11.7638
▁noon	-11.7639
▁upside	-11.7639
▁fatal	-11.7639
▁wealthy	-11.7642
▁que	-11.7643
▁julie	-11.7644
▁effectively	-11.7645
▁hop	-11.7652
born	-11.7653
▁beep	-11.7662
▁maps	-11.7663
▁corrupt	-11.7675
▁apocalypse	-11.7684
▁inevitable	-11.7684
▁joffrey	-11.7684
▁physicist	-11.7684
▁swore	-11.7684
▁hardware	-11.7684
▁parole	-11.7684
▁elderman	-11.7685
▁contractor	-11.7689
▁runner	-11.7692
▁mice	-11.7694
list	-11.7696
oi	-11.7703
▁belonged	-11.771
▁elephant	-11.7712
▁molecule	-11.7713
▁organism	-11.7713
▁intentions	-11.7713
▁shocking	-11.7713
cle	-11.7717
▁resolve	-11.7719
▁infinite	-11.7729
they	-11.7731
▁amazon	-11.7733
▁empathy	-11.7733
▁anime	-11.7733
▁unhappy	-11.7733
▁longterm	-11.7733
▁minus	-11.7734
▁objection	-11.7735
▁korean	-11.7737
wn	-11.7739
▁kon	-11.7739
senpai	-11.7742
▁sta	-11.7743
▁rust	-11.7746
▁meaningless	-11.7749
▁stations	-11.7749
iest	-11.7751
▁robotics	-11.7755
▁positions	-11.7757
▁ron	-11.7757
▁shane	-11.776
▁muscles	-11.7765
▁specialist	-11.7766
▁nurses	-11.7767
vis	-11.7767
▁accomplish	-11.7774
▁barn	-11.7779
▁terrifying	-11.7782
▁wolves	-11.7782
▁fusion	-11.7782
▁psychopath	-11.7782
▁grain	-11.7782
▁gem	-11.7784
▁clearance	-11.7786
top	-11.7787
▁cartel	-11.779
▁centers	-11.779
▁cheated	-11.7793
▁pod	-11.7795
fully	-11.7796
▁ye	-11.7806
500	-11.7807
▁sharks	-11.7809
▁wars	-11.7812
ama	-11.7814
▁washing	-11.7814
▁praise	-11.7815
▁strings	-11.7816
▁blocked	-11.7817
some	-11.7821
log	-11.7826
there	-11.7827
▁harbor	-11.7832
▁poetry	-11.7833
▁filed	-11.7835
▁copies	-11.7835
▁intent	-11.7838
ez	-11.7839
▁involves	-11.7844
know	-11.7845
phi	-11.785
ika	-11.785
iz	-11.7851
ised	-11.7852
▁ross	-11.7854
▁cracked	-11.7855
ify	-11.7858
run	-11.7862
▁insult	-11.7865
▁leon	-11.7867
▁sticks	-11.7868
ani	-11.7871
▁confront	-11.7874
▁comm	-11.7876
▁dial	-11.7876
▁metro	-11.7876
▁aging	-11.7878
▁concentration	-11.7882
▁dammit	-11.7882
▁heavily	-11.7882
▁monsieur	-11.7882
▁pillar	-11.7883
▁forgiveness	-11.7888
▁keen	-11.79
▁bears	-11.79
▁ze	-11.7904
▁tire	-11.7909
▁kyu	-11.7909
pri	-11.791
▁breaks	-11.7912
▁combine	-11.7914
▁mri	-11.7916
▁titan	-11.7916
▁presents	-11.7923
▁conquer	-11.7924
▁fooled	-11.793
▁exploit	-11.7932
▁bid	-11.7932
▁divine	-11.7932
▁twilight	-11.7932
▁gambling	-11.7932
▁convey	-11.7932
▁jude	-11.7933
▁andy	-11.7933
▁stalker	-11.7935
▁chow	-11.7938
▁reef	-11.7939
▁raining	-11.7942
▁locke	-11.7943
▁urge	-11.7944
▁gus	-11.7947
▁tai	-11.7949
▁angela	-11.7952
▁hooked	-11.7954
▁monkeys	-11.7958
▁officials	-11.7959
▁stare	-11.7961
dra	-11.7966
▁kouta	-11.7967
▁sung	-11.7976
▁supporting	-11.7981
▁favour	-11.7983
▁anxious	-11.7983
▁consumption	-11.7983
▁contrary	-11.7983
▁providing	-11.7983
▁album	-11.7983
▁dentist	-11.7984
▁countless	-11.7986
▁2008	-11.7987
▁fastest	-11.7988
▁rates	-11.7989
▁mustn	-11.7993
▁complaining	-11.7996
▁figures	-11.7999
▁plays	-11.7999
lie	-11.8004
▁sim	-11.8005
▁cigarettes	-11.8007
two	-11.8015
▁walks	-11.8015
▁addict	-11.8025
▁spec	-11.8029
▁whereas	-11.8032
▁admiral	-11.8034
▁britain	-11.8034
▁furniture	-11.8034
▁ronnie	-11.8034
▁seizure	-11.8034
▁teresa	-11.8034
▁widow	-11.8034
▁alliance	-11.8034
▁whistle	-11.8034
▁batteries	-11.8034
▁barbie	-11.8035
▁equipped	-11.8038
▁lana	-11.8043
▁gyu	-11.8043
▁films	-11.8051
▁br	-11.8052
▁involve	-11.8054
▁nano	-11.8057
▁deserved	-11.8059
▁praying	-11.8059
ech	-11.8062
▁approached	-11.8065
▁trend	-11.8067
▁pirates	-11.807
▁alter	-11.8071
▁facilities	-11.8085
▁nephew	-11.8085
▁peanut	-11.8085
▁surgical	-11.8085
▁thieves	-11.8085
▁emissions	-11.8085
▁auction	-11.8085
▁dubaku	-11.8085
▁stiff	-11.8085
▁romance	-11.8085
▁stray	-11.8087
▁increases	-11.8087
press	-11.8088
▁typically	-11.8091
▁managing	-11.8091
▁arab	-11.8095
grade	-11.8096
rated	-11.8098
▁outer	-11.81
away	-11.81
more	-11.8101
▁monitoring	-11.8108
▁detailed	-11.8109
▁nav	-11.8116
▁inspire	-11.8117
▁kings	-11.8122
▁creep	-11.8122
▁zoom	-11.8123
▁passport	-11.8126
▁convert	-11.8128
▁naka	-11.8132
▁rank	-11.8134
▁bulb	-11.8136
▁tasty	-11.8136
▁shade	-11.8137
▁awareness	-11.814
▁reply	-11.8143
▁drowned	-11.8143
bert	-11.8146
▁worship	-11.8146
▁contains	-11.8148
▁measures	-11.8149
nce	-11.8152
▁lovers	-11.8153
▁gloves	-11.8156
▁correctly	-11.8157
star	-11.8169
▁doin	-11.8172
mu	-11.8174
▁reception	-11.8187
▁bench	-11.8187
▁cease	-11.8187
▁technological	-11.8187
▁grail	-11.8187
▁daryl	-11.8188
▁skirt	-11.8188
▁saiyan	-11.8188
▁oops	-11.8188
▁flynn	-11.8188
▁benny	-11.8188
▁roots	-11.8189
▁asian	-11.8193
▁diagnosed	-11.8194
▁bare	-11.8197
▁edo	-11.8198
▁established	-11.8198
▁kang	-11.8199
▁nerves	-11.8208
▁flames	-11.821
▁producer	-11.8212
▁hills	-11.8214
▁meth	-11.8214
▁ivan	-11.8215
▁detectives	-11.8221
▁hail	-11.8229
▁cluster	-11.823
▁wired	-11.8237
bot	-11.8238
phy	-11.8238
▁globe	-11.8239
▁inflict	-11.8239
▁troubling	-11.8239
▁memorial	-11.8239
▁magnificent	-11.8239
▁trent	-11.824
▁moses	-11.824
▁distraction	-11.824
▁percy	-11.8241
▁occasionally	-11.8241
▁wander	-11.8241
ological	-11.8242
oshi	-11.8242
▁skies	-11.8243
▁audio	-11.8244
▁swamp	-11.8245
▁tab	-11.8246
oko	-11.8248
▁forgetting	-11.8249
▁thankful	-11.8256
▁donation	-11.8264
▁messy	-11.8265
hy	-11.8266
▁civilians	-11.8268
▁retrieve	-11.8273
▁cro	-11.8274
▁kara	-11.8277
▁resource	-11.8281
▁dai	-11.8281
▁architect	-11.8285
▁mutual	-11.8288
▁experiencing	-11.8291
▁valentine	-11.8291
▁summit	-11.8291
▁hobbs	-11.8291
▁gallery	-11.8291
▁gradually	-11.8292
▁pale	-11.8298
▁instruments	-11.8299
▁spots	-11.8314
▁awhile	-11.8318
▁ape	-11.832
▁nails	-11.8325
ochan	-11.8329
▁pointing	-11.8331
▁kane	-11.8338
ek	-11.8338
▁sw	-11.8339
▁muslim	-11.8339
▁permit	-11.8343
▁dylan	-11.8344
▁execution	-11.8344
▁carpet	-11.8344
▁clubs	-11.8344
▁jewelry	-11.8345
▁subordinate	-11.8346
▁dishes	-11.8347
▁vic	-11.8349
hin	-11.8349
▁ingredients	-11.8353
aries	-11.8353
ski	-11.8355
▁33	-11.8359
▁chu	-11.8364
▁rhythm	-11.8365
▁todai	-11.8375
▁controls	-11.8376
▁dots	-11.8379
ishi	-11.838
▁cooked	-11.8386
13	-11.8387
▁aspect	-11.8393
▁tomato	-11.8396
▁filming	-11.8396
▁abraham	-11.8396
▁assembly	-11.8396
▁fugitive	-11.8396
▁skeleton	-11.8396
▁houston	-11.8396
▁dennis	-11.8396
▁operator	-11.8396
▁ransom	-11.8396
▁denied	-11.8396
▁scoop	-11.8396
▁worn	-11.8397
▁waking	-11.8397
▁rapid	-11.8397
▁intern	-11.8397
▁actress	-11.8397
▁furthermore	-11.8397
▁textbook	-11.8397
▁stash	-11.8397
▁mansion	-11.8399
berg	-11.84
▁instantly	-11.8401
▁bonus	-11.8401
▁strain	-11.8403
▁handled	-11.8407
iff	-11.8411
▁potentially	-11.8412
▁mighty	-11.8413
▁printing	-11.8416
jack	-11.8417
▁holds	-11.8427
▁invent	-11.843
ack	-11.8431
cat	-11.8437
▁achieved	-11.8438
▁worthless	-11.8441
▁wished	-11.8443
▁abe	-11.8444
▁stain	-11.8444
town	-11.8449
▁parallel	-11.8449
▁goddess	-11.8449
▁lands	-11.8449
▁forehead	-11.8449
▁hydrogen	-11.8449
▁lazy	-11.845
▁feedback	-11.845
▁dried	-11.8451
▁sunny	-11.8451
▁stepping	-11.8452
▁synthetic	-11.8452
▁yyou	-11.8454
▁inch	-11.8459
▁mold	-11.8462
▁aoi	-11.8469
45	-11.848
▁hol	-11.8486
▁preparations	-11.8491
▁unlock	-11.8495
▁scenes	-11.8498
ella	-11.8498
▁involving	-11.8502
▁paranoid	-11.8502
▁ollie	-11.8503
▁partnership	-11.8504
▁ol	-11.8507
▁selected	-11.851
▁upload	-11.8514
▁transformed	-11.8518
ologist	-11.8522
▁statistics	-11.8524
▁parked	-11.8534
▁chin	-11.8534
▁stuffed	-11.8537
▁neuro	-11.8538
▁components	-11.8548
▁agencies	-11.8556
▁corridor	-11.8556
▁intuition	-11.8556
▁luxury	-11.8556
▁moscow	-11.8556
▁vitamin	-11.8556
▁healthcare	-11.8556
▁producing	-11.8556
▁existing	-11.8556
▁jill	-11.8556
rio	-11.8557
▁donald	-11.8558
▁norman	-11.8563
▁sickness	-11.8564
▁tactical	-11.8565
▁wires	-11.8565
▁mug	-11.8565
▁cleaner	-11.857
▁yell	-11.8572
▁sm	-11.8579
▁diego	-11.8581
▁erased	-11.8584
hand	-11.8585
▁flowing	-11.8585
hood	-11.8587
▁failing	-11.8591
▁250	-11.8594
▁counsel	-11.8599
▁clues	-11.86
▁distract	-11.8601
▁resort	-11.861
▁purple	-11.861
▁hostile	-11.861
▁chopper	-11.8613
▁politician	-11.8613
fr	-11.8613
▁canceled	-11.8624
▁rescued	-11.8627
dge	-11.8628
looking	-11.8629
▁cloth	-11.863
▁token	-11.8633
▁select	-11.8642
ied	-11.8643
▁languages	-11.8644
▁deaths	-11.8646
▁lighter	-11.8655
▁graphic	-11.8659
ition	-11.8663
bara	-11.8663
▁hinata	-11.8664
▁pregnancy	-11.8664
▁curtis	-11.8664
▁joseph	-11.8664
▁darwin	-11.8664
▁beetle	-11.8664
▁fridge	-11.8664
▁scheme	-11.8664
▁puff	-11.8665
▁colony	-11.8665
▁stores	-11.8667
ric	-11.8671
▁folk	-11.8677
▁kami	-11.8678
burn	-11.8679
▁yur	-11.8679
▁mami	-11.8686
▁drawer	-11.8687
cker	-11.8691
▁ankle	-11.8694
▁eun	-11.8697
▁finishing	-11.8698
five	-11.8699
▁retire	-11.8699
▁activates	-11.8699
▁manipulate	-11.8699
▁sar	-11.8701
sighs	-11.8702
▁estimate	-11.8704
▁heights	-11.8705
▁elder	-11.8705
▁dimensions	-11.8708
▁allies	-11.871
zen	-11.871
eye	-11.8715
▁february	-11.8718
▁butterfly	-11.8718
▁excitement	-11.8718
▁yankee	-11.8718
▁humble	-11.8718
▁wifi	-11.8718
▁hound	-11.8719
▁kicking	-11.872
▁confirmation	-11.872
▁tuner	-11.8723
ame	-11.8728
▁lin	-11.8733
▁optimistic	-11.8734
▁dull	-11.8735
▁!!	-11.8736
▁needles	-11.8739
▁butler	-11.8739
▁responding	-11.8749
cher	-11.875
▁risky	-11.8754
▁reduced	-11.876
▁dragons	-11.876
▁buzz	-11.8763
▁antibiotics	-11.8765
gon	-11.8766
▁genuine	-11.8769
▁horizon	-11.8771
▁gretchen	-11.8773
▁resolution	-11.8773
▁ribbon	-11.8773
▁spectrum	-11.8773
▁bamboo	-11.8773
▁dutch	-11.8773
▁marilyn	-11.8773
▁spinning	-11.8773
▁fumikun	-11.8773
▁counselor	-11.8774
▁frustrated	-11.8774
▁elected	-11.8777
ux	-11.8782
too	-11.8784
wait	-11.8784
▁virginia	-11.8785
▁presented	-11.8795
▁dash	-11.8796
▁cart	-11.8796
▁features	-11.8798
ching	-11.8799
▁factors	-11.88
▁tracker	-11.8801
▁cube	-11.8803
▁cos	-11.8807
▁crawl	-11.881
▁dreamed	-11.8819
▁cognitive	-11.8828
▁galaxies	-11.8828
▁halloween	-11.8828
▁innocence	-11.8828
▁jurisdiction	-11.8828
▁manuscript	-11.8828
▁thanksgiving	-11.8828
▁granny	-11.8828
▁employment	-11.8828
▁saitosan	-11.8829
▁avery	-11.883
▁disk	-11.8834
▁percentage	-11.8834
▁possessed	-11.8838
▁twisted	-11.8839
▁consumer	-11.8839
▁employer	-11.8841
▁ichika	-11.8842
▁hacking	-11.885
▁carrier	-11.8852
▁gifts	-11.886
▁tara	-11.886
▁moreover	-11.8862
▁bla	-11.8864
▁blackmail	-11.8873
▁amounts	-11.8875
▁oceans	-11.8875
▁demo	-11.8882
▁lure	-11.8882
▁alzheimer	-11.8883
▁atlantic	-11.8883
▁pyramid	-11.8883
▁wheelchair	-11.8883
▁collins	-11.8883
▁reggie	-11.8883
▁harassment	-11.8883
▁osaka	-11.8883
2,	-11.8883
▁tuna	-11.8885
▁potatoes	-11.8885
▁waitress	-11.8886
▁thoroughly	-11.8886
▁investigated	-11.8892
▁viruses	-11.8894
▁beck	-11.8902
▁cargo	-11.8911
kh	-11.8914
tom	-11.8917
▁porn	-11.8918
▁listed	-11.892
▁peck	-11.892
▁raped	-11.8921
pers	-11.8929
▁alike	-11.893
▁spoil	-11.8931
▁dimension	-11.8932
▁electro	-11.8934
▁circles	-11.8935
gar	-11.8936
▁collaboration	-11.8938
▁essence	-11.8938
▁frost	-11.8939
▁claus	-11.8939
▁savage	-11.8939
▁madison	-11.8939
▁sushi	-11.894
▁2009	-11.8941
▁romeo	-11.8944
bal	-11.8944
▁blonde	-11.8948
40	-11.8948
▁preparation	-11.8951
▁dorm	-11.8951
▁fled	-11.8955
zy	-11.8961
▁glenn	-11.8972
▁consume	-11.8972
▁persuade	-11.8976
▁approve	-11.8976
▁soap	-11.8981
low	-11.8981
▁blink	-11.8985
▁dispatch	-11.8986
▁consistent	-11.8991
headed	-11.8991
▁120	-11.8992
▁yasu	-11.8993
▁bizarre	-11.8994
▁demonstration	-11.8994
▁lawrence	-11.8994
▁messenger	-11.8994
▁wizard	-11.8994
▁dagger	-11.8995
▁foul	-11.8995
▁underwater	-11.8996
▁flush	-11.8997
▁caring	-11.8997
▁idol	-11.9
▁attracted	-11.9006
▁comrade	-11.9008
woman	-11.9008
▁mia	-11.901
▁crops	-11.9011
▁matched	-11.9013
ward	-11.9013
▁explaining	-11.9015
▁corporations	-11.9017
bl	-11.9019
▁beard	-11.9024
▁remained	-11.9033
ever	-11.9035
▁shelf	-11.9039
▁bargain	-11.9041
▁fang	-11.9047
▁guidance	-11.9051
▁spectacular	-11.9051
▁tachibana	-11.9051
▁georgia	-11.9051
▁terrific	-11.9051
▁neural	-11.9051
▁blunt	-11.9051
▁oneechan	-11.9051
▁logical	-11.9052
▁sadness	-11.9056
▁johnson	-11.9059
▁gale	-11.9059
▁amber	-11.906
▁pumpkin	-11.9063
▁questioned	-11.9063
▁issued	-11.9064
▁axe	-11.9064
▁relation	-11.9066
▁economics	-11.9067
▁fiber	-11.9067
view	-11.9068
▁estimated	-11.907
who	-11.9071
dan	-11.9072
▁gained	-11.9074
play	-11.9078
ute	-11.9082
▁evolve	-11.9088
▁visualize	-11.9092
▁filling	-11.9093
ula	-11.9098
ple	-11.9098
▁oda	-11.9106
▁regime	-11.9107
▁elegant	-11.9107
▁savior	-11.9107
▁winterfell	-11.9107
▁pencil	-11.9107
▁razor	-11.9107
▁inviting	-11.9107
▁anakin	-11.9107
▁whiskey	-11.9107
▁venture	-11.9107
▁wig	-11.9108
▁pharmaceutical	-11.9109
▁tick	-11.9111
▁neat	-11.9112
▁senses	-11.9117
▁ashes	-11.9123
please	-11.9124
▁healed	-11.9127
▁temp	-11.9128
▁prayer	-11.9135
▁returns	-11.9141
▁warriors	-11.9142
▁katsu	-11.9144
ened	-11.9145
▁tapes	-11.9151
▁designing	-11.9157
▁fracture	-11.9163
▁alexander	-11.9164
▁starfleet	-11.9164
▁unstable	-11.9164
▁pelt	-11.9164
▁viral	-11.9164
!!!	-11.9165
▁sla	-11.9165
▁barnes	-11.9166
▁drake	-11.9166
▁grandson	-11.9166
▁workplace	-11.9169
▁pub	-11.9174
▁yelling	-11.9174
▁draft	-11.9176
▁bum	-11.9181
ane	-11.9181
▁tourist	-11.9186
▁rig	-11.919
▁tada	-11.9192
▁sadly	-11.9194
▁jan	-11.9195
▁founder	-11.9198
▁compromise	-11.9202
▁avoiding	-11.9206
▁exams	-11.9209
▁dense	-11.921
▁wil	-11.9215
elle	-11.9215
▁bounce	-11.9218
▁christopher	-11.9221
▁diagnosis	-11.9221
▁impulse	-11.9221
▁portrait	-11.9221
▁prescription	-11.9221
▁sydney	-11.9221
▁incoming	-11.9221
▁jenny	-11.9222
▁intact	-11.9222
▁cellphone	-11.9222
▁spain	-11.9225
▁bullying	-11.9227
▁mus	-11.9229
▁backyard	-11.923
dog	-11.9232
▁disabled	-11.9232
▁moore	-11.9235
▁fingerprint	-11.9242
▁explosives	-11.9247
▁mainly	-11.9249
▁contribute	-11.926
▁suite	-11.926
itz	-11.9263
▁reject	-11.927
▁islands	-11.9275
▁adorable	-11.9278
▁cardiac	-11.9278
▁revenue	-11.9278
▁variation	-11.9278
▁fetch	-11.9279
▁expertise	-11.9279
▁index	-11.9279
▁lamb	-11.9279
▁luckily	-11.9279
▁evolutionary	-11.928
▁slavery	-11.928
▁kissing	-11.9286
19	-11.929
▁marketing	-11.9293
chuckles	-11.9296
▁wheels	-11.93
▁tribe	-11.9301
▁echo	-11.9312
▁poisoning	-11.9321
▁aya	-11.9324
▁corrected	-11.933
▁remembering	-11.9334
▁coffin	-11.9336
▁convincing	-11.9336
▁intervention	-11.9336
▁klaus	-11.9336
▁natalie	-11.9336
▁russell	-11.9336
▁transaction	-11.9336
▁honour	-11.9336
▁automatically	-11.9336
▁banner	-11.9337
▁accountant	-11.9338
▁greenhouse	-11.9338
▁portion	-11.9338
▁planes	-11.9338
▁copper	-11.9342
▁accomplished	-11.9345
▁anyhow	-11.9348
▁executed	-11.9352
▁processes	-11.9356
▁torn	-11.9356
▁kl	-11.9371
▁matching	-11.9372
fire	-11.938
▁vega	-11.9382
▁sei	-11.9383
ato	-11.9387
▁regain	-11.9387
▁framed	-11.9388
▁medic	-11.9392
▁mosquito	-11.9392
▁mika	-11.9394
▁gesture	-11.9394
▁hudson	-11.9394
▁philosopher	-11.9394
▁vacuum	-11.9394
▁quiz	-11.9395
▁assassination	-11.9396
▁productive	-11.9396
▁adding	-11.9397
cr	-11.9397
▁tucker	-11.9397
▁drivers	-11.9399
▁sur	-11.9401
▁motivated	-11.9403
▁youngest	-11.9406
▁jokes	-11.9412
ike	-11.9418
▁faction	-11.9419
▁shapes	-11.942
yan	-11.9422
▁habitat	-11.9423
band	-11.9434
▁broker	-11.9444
▁strand	-11.9445
▁gall	-11.9447
▁tsukuda	-11.945
▁stew	-11.9453
▁legitimate	-11.9453
▁eugene	-11.9453
▁annual	-11.9453
▁rudy	-11.9454
▁makoto	-11.9454
▁takagi	-11.9454
▁55	-11.9456
▁randy	-11.9456
▁hitler	-11.9459
▁cape	-11.946
▁distracted	-11.9461
▁cheaper	-11.9467
▁regard	-11.947
▁declared	-11.947
▁pun	-11.9471
▁sets	-11.9478
cap	-11.9479
part	-11.949
ese	-11.9492
▁preserve	-11.9493
▁noah	-11.9495
▁bugs	-11.9501
8.	-11.9502
▁nun	-11.9503
▁poster	-11.9504
▁hum	-11.9511
▁accompany	-11.9512
▁hybrid	-11.9512
▁joshua	-11.9512
▁qualified	-11.9512
▁sunshine	-11.9512
▁chronic	-11.9512
▁basket	-11.9512
▁jewish	-11.9512
▁rooftop	-11.9512
▁hannah	-11.9512
▁hunters	-11.9513
▁replacement	-11.9513
▁achievement	-11.9513
▁situations	-11.9513
▁magazines	-11.9514
▁sober	-11.9515
▁shipping	-11.9515
▁thrilled	-11.9517
▁barr	-11.952
▁rating	-11.9522
▁gan	-11.9534
▁divided	-11.9537
▁fixing	-11.9537
▁izumi	-11.9538
▁nazi	-11.9538
laughs	-11.9538
▁rebel	-11.9541
▁assured	-11.9552
▁disturb	-11.9553
▁trunks	-11.9558
▁improved	-11.9559
▁implant	-11.9563
▁consult	-11.9569
▁authentic	-11.957
▁orphan	-11.9571
▁arriving	-11.9571
▁liquor	-11.9571
▁penalty	-11.9571
▁supermarket	-11.9571
▁ladder	-11.9571
▁parade	-11.9572
▁slaughter	-11.9573
▁elderly	-11.9575
▁nova	-11.9577
▁shove	-11.9579
dasan	-11.9581
zing	-11.9583
▁plates	-11.9585
ala	-11.9586
▁acquired	-11.9588
▁hospitals	-11.9595
ima	-11.96
▁snack	-11.9601
▁soda	-11.9605
len	-11.9608
▁bottles	-11.9608
▁acted	-11.9612
▁arch	-11.9614
made	-11.9615
een	-11.9617
▁polite	-11.9627
▁olive	-11.9628
oon	-11.963
▁egypt	-11.963
▁appetite	-11.963
▁cocaine	-11.963
▁emerging	-11.963
▁honeymoon	-11.963
▁irrelevant	-11.963
▁philosophy	-11.963
▁whatsoever	-11.963
▁triangle	-11.963
▁cattle	-11.9631
▁breakthrough	-11.9631
▁mortality	-11.9631
▁suzuki	-11.9631
▁skynet	-11.9631
▁equality	-11.9633
wan	-11.9633
▁islam	-11.9634
▁lemon	-11.9635
▁cents	-11.9644
▁shouting	-11.9645
▁explorer	-11.9647
5,000	-11.965
▁approved	-11.9655
▁bass	-11.9662
▁explosive	-11.9663
▁whisper	-11.9664
▁greet	-11.9673
▁adopt	-11.9682
▁temper	-11.9682
▁obtain	-11.9682
▁mat	-11.9686
▁thorough	-11.9687
▁mortal	-11.969
▁accelerator	-11.969
▁dessert	-11.969
▁embedded	-11.969
▁policies	-11.969
▁precaution	-11.969
▁sagara	-11.969
▁supervisor	-11.969
▁parasite	-11.969
▁nagisa	-11.9691
▁rubber	-11.9691
▁hanzawa	-11.9691
▁taiki	-11.9691
▁kidnapper	-11.9691
▁laura	-11.9692
▁sto	-11.9692
▁peterson	-11.9694
▁strictly	-11.9695
▁2005	-11.9695
▁disc	-11.9698
▁applications	-11.9702
rick	-11.9703
▁cuff	-11.9704
▁missiles	-11.9707
ola	-11.971
▁emerge	-11.9732
▁conclude	-11.9732
▁demonstrate	-11.9732
▁poke	-11.9739
ugh	-11.9744
▁dinosaurs	-11.9747
▁fortunate	-11.9747
▁mathematical	-11.9747
▁historical	-11.9748
▁manifest	-11.975
▁celebrity	-11.9751
▁phoenix	-11.9751
▁rehearsal	-11.9751
▁tweet	-11.9751
▁stannis	-11.9751
▁creator	-11.9751
▁racing	-11.9751
▁casualties	-11.9751
▁persistent	-11.9751
▁morgue	-11.9751
▁langley	-11.9751
▁adrian	-11.9751
▁martinez	-11.9751
▁grey	-11.9751
▁rookie	-11.9751
▁petty	-11.9753
▁irish	-11.9753
▁vol	-11.9753
▁greedy	-11.9754
▁kindly	-11.9755
▁madness	-11.9757
▁bl	-11.9758
era	-11.9763
▁verify	-11.9765
▁pope	-11.977
▁tails	-11.9771
▁regrets	-11.9775
late	-11.9776
▁founded	-11.9778
▁forty	-11.978
▁stored	-11.9781
▁sensor	-11.9783
ome	-11.979
get	-11.98
▁penguins	-11.9802
▁glow	-11.9802
▁flaw	-11.9804
▁pointless	-11.9808
▁abstract	-11.981
▁puppy	-11.9811
▁hostess	-11.9811
▁vague	-11.9811
▁boundaries	-11.9811
▁dancer	-11.9811
▁immunity	-11.9811
▁sasha	-11.9812
▁matsu	-11.9813
ode	-11.9814
▁salad	-11.9817
▁momentum	-11.9822
▁servants	-11.9822
▁pc	-11.9829
minute	-11.9832
▁counts	-11.9833
▁peek	-11.9836
▁organize	-11.9842
,00	-11.9846
▁discussed	-11.9847
bil	-11.9847
dono	-11.9864
▁trains	-11.9868
▁advisor	-11.9872
▁coulson	-11.9872
▁eager	-11.9872
▁exploration	-11.9872
▁ignoring	-11.9872
▁mutation	-11.9872
▁nitta	-11.9872
▁plague	-11.9872
▁cowboy	-11.9872
▁junichi	-11.9875
tric	-11.9885
▁leaked	-11.9888
▁poet	-11.9889
oy	-11.9896
▁chatter	-11.9897
▁boarding	-11.9898
type	-11.9906
▁convention	-11.9906
▁cultures	-11.9914
▁discussing	-11.9916
▁peel	-11.9922
▁install	-11.9925
uji	-11.9927
▁tra	-11.993
▁evans	-11.9933
▁bankrupt	-11.9933
▁analyst	-11.9933
▁grenade	-11.9933
▁promising	-11.9934
▁kirishima	-11.9934
▁freddy	-11.9934
▁capability	-11.9934
▁mizuno	-11.9934
▁artery	-11.9935
▁killers	-11.9935
▁massage	-11.9935
▁efficiency	-11.9935
▁emma	-11.9936
▁override	-11.9937
▁recon	-11.9938
▁endless	-11.994
▁zoey	-11.994
▁rosa	-11.994
▁obtained	-11.9942
▁protective	-11.9942
gami	-11.9945
▁shotgun	-11.9946
▁info	-11.9947
ony	-11.9952
▁spine	-11.9953
▁drops	-11.9955
▁der	-11.9957
making	-11.9958
▁pri	-11.9958
▁50,000	-11.9961
▁lightly	-11.9974
▁headache	-11.9975
hr	-11.9975
▁revive	-11.9977
▁handy	-11.998
▁expenses	-11.9983
▁disappearing	-11.9989
▁kenji	-11.9993
▁reset	-11.9994
aid	-11.9994
▁celebrating	-11.9995
▁psychologist	-11.9995
▁dallas	-11.9995
▁fiona	-11.9995
▁shack	-11.9996
▁renee	-11.9997
ob	-11.9998
▁accidentally	-12
▁portal	-12
▁robin	-12.0001
guchi	-12.0005
▁poker	-12.0009
▁hardest	-12.0015
▁tricky	-12.0022
▁sy	-12.0023
▁supposedly	-12.0027
cin	-12.0033
▁droids	-12.0035
▁34	-12.0035
ano	-12.0036
▁smash	-12.004
▁chew	-12.004
▁modest	-12.0042
▁contacts	-12.0045
▁teen	-12.0048
lyn	-12.0056
▁circus	-12.0057
▁elijah	-12.0057
▁grape	-12.0057
▁jonathan	-12.0057
▁nicholas	-12.0057
▁squirrel	-12.0057
▁virtue	-12.0057
▁microbes	-12.0057
▁cotton	-12.0057
▁gellar	-12.0057
▁sookie	-12.0057
▁tennis	-12.0057
▁conviction	-12.0058
▁array	-12.0058
▁mono	-12.006
▁tub	-12.0064
▁fundamentally	-12.0068
hh	-12.007
▁handful	-12.0073
▁pd	-12.0078
load	-12.008
▁hoo	-12.0082
▁beliefs	-12.0088
▁functions	-12.0089
▁kazu	-12.0092
▁erik	-12.0093
▁cue	-12.011
▁drift	-12.0111
▁defensive	-12.012
▁dwarf	-12.012
▁unprecedented	-12.012
▁gimme	-12.012
▁absent	-12.012
▁lewis	-12.012
▁sophie	-12.012
▁blaming	-12.012
▁gulf	-12.012
▁contents	-12.012
▁trivial	-12.012
▁tetsu	-12.012
▁akira	-12.0122
▁gregory	-12.0125
▁haul	-12.0129
▁hut	-12.013
▁pickup	-12.0131
▁sacrificed	-12.0133
▁flare	-12.0134
▁includes	-12.0136
▁measured	-12.0137
▁deadline	-12.0138
▁traced	-12.0138
▁succeeded	-12.014
▁newspapers	-12.014
▁repay	-12.0145
▁liv	-12.0147
▁lifted	-12.0147
▁mimic	-12.0149
▁fears	-12.0154
▁quarters	-12.0157
▁sheets	-12.0163
▁disguise	-12.0164
▁declare	-12.0164
▁maze	-12.0164
▁liz	-12.017
lee	-12.0171
▁fury	-12.0172
ency	-12.0173
▁lick	-12.0179
bling	-12.0179
▁marrying	-12.0181
▁kobato	-12.0181
▁blossom	-12.0183
▁buddha	-12.0183
▁exposure	-12.0183
▁orleans	-12.0183
▁superintendent	-12.0183
▁taliban	-12.0183
▁violet	-12.0183
▁martha	-12.0183
▁silicon	-12.0183
▁sculpture	-12.0183
▁miyuki	-12.0183
▁instructor	-12.0183
kov	-12.0184
▁nursery	-12.0185
▁worm	-12.0186
▁lowest	-12.0187
▁gran	-12.0192
▁grim	-12.0193
▁extended	-12.0194
▁insisted	-12.0197
▁ce	-12.0197
▁trusting	-12.0198
▁awfully	-12.0198
▁blows	-12.0201
▁thy	-12.0205
▁hopes	-12.0208
▁joey	-12.0211
meter	-12.0213
▁lip	-12.0214
scale	-12.0221
▁kyo	-12.0222
▁suzu	-12.0225
▁packing	-12.0227
▁promote	-12.0227
▁adjust	-12.0228
▁indicates	-12.0228
▁bind	-12.023
▁atlas	-12.0231
hhh	-12.0237
▁snakes	-12.0239
▁dressing	-12.0239
▁germans	-12.0239
▁dj	-12.0244
▁disrupt	-12.0245
▁fiance	-12.0245
▁chromosome	-12.0246
▁obligation	-12.0246
▁dominic	-12.0246
▁interviews	-12.0246
▁mature	-12.0246
▁yuuki	-12.0247
▁tanner	-12.0247
▁vertical	-12.0247
▁serves	-12.0249
▁accounting	-12.025
▁bunker	-12.0251
▁vanished	-12.0251
▁hometown	-12.0253
▁suitable	-12.0253
face	-12.0259
rop	-12.0262
▁vessels	-12.0267
▁breed	-12.027
life	-12.0275
▁sigh	-12.0276
▁scars	-12.0277
▁experimental	-12.0277
▁strap	-12.0278
▁sends	-12.0279
▁borders	-12.0283
▁spaces	-12.0286
▁manners	-12.0287
▁vo	-12.029
▁drown	-12.0292
night	-12.0303
▁volunteers	-12.0306
▁43	-12.0307
brook	-12.0307
▁eighth	-12.0308
▁bounty	-12.031
▁cortex	-12.031
▁eternity	-12.031
▁fierce	-12.031
▁hodgins	-12.031
▁martial	-12.031
▁strawberry	-12.031
▁motorcycle	-12.031
▁anchor	-12.031
▁bullied	-12.031
▁crane	-12.031
▁marumo	-12.031
▁burger	-12.031
▁programming	-12.031
▁bodyguard	-12.0311
▁dragging	-12.0311
▁farther	-12.0314
▁programmed	-12.0315
▁reflection	-12.0315
▁pressing	-12.032
▁resting	-12.0321
▁sally	-12.0322
▁invested	-12.0324
▁whoo	-12.0329
▁ox	-12.0329
▁satellites	-12.033
▁zo	-12.0331
af	-12.0333
▁gro	-12.0339
▁wit	-12.034
▁joker	-12.0341
▁spite	-12.0341
▁publish	-12.0342
water	-12.0345
ado	-12.0348
▁interviewed	-12.0355
▁entertain	-12.0364
▁survivor	-12.0364
▁distress	-12.0366
▁strangely	-12.0373
▁arrogant	-12.0374
▁probability	-12.0374
▁reckon	-12.0374
▁casino	-12.0374
▁gossip	-12.0374
▁polish	-12.0374
▁beacon	-12.0374
▁lottery	-12.0374
▁rogue	-12.0374
▁eleven	-12.0374
▁clap	-12.0376
▁monk	-12.0377
▁rita	-12.0379
▁yamada	-12.0381
▁kirk	-12.0381
▁prom	-12.0381
▁probe	-12.0388
▁recommended	-12.0392
▁setup	-12.0392
▁ridge	-12.0397
▁profits	-12.0403
▁secured	-12.0405
eyed	-12.0408
▁boil	-12.0416
music	-12.0418
▁kana	-12.042
▁takeru	-12.0422
▁policeman	-12.0422
▁traveler	-12.0422
▁rea	-12.0428
▁vet	-12.0429
▁pinch	-12.043
▁resident	-12.043
related	-12.0437
▁charlotte	-12.0438
▁confusing	-12.0438
▁corporal	-12.0438
▁external	-12.0438
▁lorelei	-12.0438
▁metatron	-12.0438
▁subaru	-12.0438
▁sympathy	-12.0438
▁feast	-12.0438
▁ongoing	-12.0439
▁signing	-12.0441
▁38	-12.0443
▁heroin	-12.0443
▁dates	-12.0443
▁hy	-12.045
▁pilots	-12.0451
▁stunt	-12.0458
▁chester	-12.0458
▁predicted	-12.0458
▁owners	-12.046
▁nicky	-12.0462
▁victoria	-12.0469
▁ballet	-12.0469
▁accepting	-12.047
▁mist	-12.0472
▁lan	-12.0474
18	-12.0476
▁diner	-12.0477
▁supported	-12.0478
▁ruler	-12.0479
gl	-12.048
▁sole	-12.0482
▁somethin	-12.0488
▁eu	-12.0493
▁associates	-12.0494
▁outsider	-12.0497
▁sucker	-12.0499
gin	-12.05
▁complaints	-12.0503
▁infant	-12.0503
▁malfunction	-12.0503
▁proportion	-12.0503
▁activist	-12.0503
▁contrast	-12.0503
▁introduction	-12.0503
▁reconsider	-12.0503
▁resume	-12.0503
▁samuel	-12.0503
▁stabilize	-12.0503
▁rehab	-12.0503
▁fools	-12.0503
▁involvement	-12.0504
▁domain	-12.0506
▁whistler	-12.0507
▁respected	-12.0509
▁remotely	-12.0513
▁speaks	-12.0513
▁contained	-12.0515
▁ranger	-12.0515
▁lethal	-12.0519
▁jr	-12.0519
lock	-12.0519
did	-12.0523
▁sandy	-12.0527
▁attending	-12.0527
▁bitches	-12.0529
gate	-12.0531
▁tessa	-12.0531
good	-12.0532
▁advise	-12.0543
▁educational	-12.0544
▁knocking	-12.0547
▁villages	-12.055
▁cheek	-12.0561
▁articles	-12.0563
▁mikami	-12.0566
read	-12.0566
ug	-12.0567
▁proteins	-12.0568
▁alicia	-12.0569
▁charging	-12.0569
▁wellbeing	-12.0569
▁conservation	-12.0569
▁bacon	-12.057
▁lump	-12.057
▁skinny	-12.057
lot	-12.0572
▁homo	-12.0574
▁hawk	-12.0574
▁consideration	-12.0574
▁nina	-12.0575
▁childish	-12.0579
bol	-12.0581
▁doubled	-12.0581
▁conducted	-12.0581
▁poly	-12.0581
▁mitch	-12.0587
▁promoted	-12.0588
ulation	-12.0593
▁kato	-12.0597
▁operational	-12.0597
path	-12.0597
▁algorithms	-12.06
▁regional	-12.0601
▁exploded	-12.0604
ening	-12.0607
▁takashi	-12.0609
▁dh	-12.0612
▁actors	-12.0614
▁ratio	-12.0619
▁govern	-12.062
etic	-12.0625
▁tess	-12.0626
▁arrangements	-12.0632
▁felix	-12.0634
▁veteran	-12.0634
▁chappie	-12.0634
▁prank	-12.0635
▁kinji	-12.0635
▁1990	-12.0636
▁gangster	-12.0636
▁starve	-12.0638
▁interior	-12.0642
▁hugo	-12.0643
▁briefly	-12.0644
▁robber	-12.0647
▁helpless	-12.0649
▁realizing	-12.0649
▁gp	-12.0651
▁texts	-12.0661
▁electronics	-12.0665
▁geo	-12.0673
▁functional	-12.0674
▁pam	-12.0675
▁kiyo	-12.0678
▁condom	-12.0686
▁grades	-12.0689
▁nothin	-12.0691
▁ambush	-12.0693
▁chains	-12.0697
▁monami	-12.0698
▁anthony	-12.0701
▁engaging	-12.0701
▁exploring	-12.0701
▁refrigerator	-12.0701
▁releasing	-12.0701
▁removing	-12.0701
▁shinigami	-12.0701
▁souvenir	-12.0701
▁stadium	-12.0701
▁diving	-12.0701
▁microscope	-12.0701
▁vocal	-12.0701
▁inoue	-12.0701
▁reborn	-12.0701
▁duties	-12.0701
▁jeff	-12.0701
▁intersection	-12.0701
▁christina	-12.0702
▁minami	-12.0702
▁2011	-12.0702
▁euro	-12.0703
▁2012	-12.0703
▁tolerate	-12.0705
▁sansa	-12.0705
▁musician	-12.0706
▁signer	-12.0706
▁dodge	-12.0707
▁mushi	-12.0707
▁virtually	-12.0708
▁wears	-12.0709
▁tackle	-12.0713
▁20,000	-12.072
▁trailer	-12.0722
vie	-12.0724
rac	-12.0725
▁lena	-12.0731
▁swat	-12.0732
radi	-12.0736
chu	-12.074
▁plea	-12.0749
▁cru	-12.075
▁heavens	-12.0752
▁walkers	-12.0753
200	-12.0761
▁meter	-12.0765
▁sufficient	-12.0767
▁raymond	-12.0767
▁cocktail	-12.0767
▁maniac	-12.0768
▁liking	-12.0768
▁swan	-12.077
▁collector	-12.0772
▁rex	-12.0772
▁installed	-12.0776
▁grounds	-12.0778
▁fringe	-12.0782
▁mentally	-12.0783
▁bran	-12.0784
▁angie	-12.0784
14	-12.0785
tail	-12.0787
▁gaze	-12.0788
▁ironic	-12.079
far	-12.079
mine	-12.08
▁kar	-12.08
▁codes	-12.0807
bone	-12.081
▁parliament	-12.0834
▁resemble	-12.0834
▁vector	-12.0834
▁wednesday	-12.0834
▁animation	-12.0834
▁sperm	-12.0834
▁slug	-12.0834
▁persian	-12.0835
▁relay	-12.0835
▁referring	-12.0835
▁straw	-12.0835
▁footprint	-12.0837
▁rally	-12.0838
maru	-12.0841
▁mod	-12.0842
▁liberal	-12.0852
▁mic	-12.0855
▁stein	-12.0857
ale	-12.0859
▁scaring	-12.086
second	-12.0862
▁candle	-12.0869
jin	-12.0869
▁dolls	-12.0871
▁classmates	-12.0872
▁defined	-12.0875
▁geek	-12.0877
▁shiro	-12.0878
ctu	-12.0885
▁glue	-12.0888
yl	-12.0897
ook	-12.0897
▁nigeria	-12.0899
▁profession	-12.09
▁morris	-12.0901
▁ellis	-12.0901
▁hawaii	-12.0901
▁avenge	-12.0902
▁capsule	-12.0902
▁coroner	-12.0902
▁eldest	-12.0902
▁pigeon	-12.0902
▁retain	-12.0902
▁shinpachi	-12.0902
▁sensation	-12.0902
▁atlanta	-12.0902
▁translation	-12.0902
▁inheritance	-12.0902
▁karl	-12.0902
▁extinction	-12.0903
▁encrypted	-12.0903
▁hamburger	-12.0905
▁choi	-12.0906
▁dinosaur	-12.0906
▁branches	-12.0907
▁servers	-12.0908
▁teenager	-12.0909
▁shipment	-12.0911
▁cookie	-12.0914
▁firmly	-12.0916
ati	-12.0917
▁candidates	-12.0917
▁habits	-12.0919
ole	-12.092
▁smelled	-12.092
▁dealt	-12.092
▁scum	-12.0933
itis	-12.0944
with	-12.0946
bear	-12.0952
▁comrades	-12.0954
▁instincts	-12.096
▁complaint	-12.096
▁52	-12.0961
▁advertising	-12.097
▁diagnostic	-12.097
▁fischer	-12.097
▁hurricane	-12.097
▁jupiter	-12.097
▁unreasonable	-12.097
▁vodka	-12.097
▁carries	-12.097
▁grandchildren	-12.097
▁orphanage	-12.097
▁valid	-12.0971
▁takuto	-12.0971
▁competitive	-12.0973
▁prefecture	-12.0973
▁tense	-12.0975
▁rh	-12.0976
▁des	-12.0979
▁projection	-12.0979
▁maki	-12.098
▁lone	-12.0983
lay	-12.0985
▁siblings	-12.0991
▁logo	-12.0997
fight	-12.0999
▁protector	-12.1001
minded	-12.1003
▁tru	-12.1012
▁pine	-12.1013
▁noodles	-12.1017
aga	-12.1019
▁execute	-12.102
dimensional	-12.1025
▁counters	-12.1026
▁rode	-12.1035
▁teenage	-12.1036
▁carnival	-12.1038
▁housewife	-12.1038
▁imagining	-12.1038
▁nevertheless	-12.1038
▁octopus	-12.1038
▁xyz	-12.1038
▁akatsuki	-12.1038
▁confidential	-12.1038
▁merlyn	-12.1038
▁oath	-12.1038
▁lousy	-12.1039
▁crowley	-12.1039
▁masterpiece	-12.1039
▁ivy	-12.104
▁repeatedly	-12.1042
▁defect	-12.1044
▁rental	-12.1045
▁consequence	-12.1047
▁zs	-12.1048
hoo	-12.1049
▁distributed	-12.1051
card	-12.1051
▁focusing	-12.1052
▁represented	-12.1057
▁bearing	-12.1057
▁williams	-12.1059
▁mack	-12.106
▁bent	-12.1061
▁output	-12.1062
▁misunderstand	-12.1062
ily	-12.1063
▁burnt	-12.1064
▁resolved	-12.1065
▁restored	-12.1068
▁timeline	-12.1072
▁moss	-12.1076
▁verge	-12.1076
▁trucks	-12.1078
▁acquire	-12.109
▁cc	-12.1095
▁grimm	-12.1097
▁marco	-12.1098
▁ned	-12.11
▁coins	-12.11
▁socks	-12.1101
burg	-12.1105
▁midst	-12.1105
▁vietnam	-12.1107
▁confusion	-12.1107
▁extension	-12.1107
▁figuring	-12.1107
▁identification	-12.1107
▁klingon	-12.1107
▁outbreak	-12.1107
▁perfume	-12.1107
▁yakuza	-12.1107
▁buddies	-12.1107
▁diagram	-12.1108
▁microphone	-12.1108
▁informant	-12.1108
▁consultation	-12.1108
▁iranian	-12.1108
▁tandy	-12.1108
▁nee	-12.1109
▁stir	-12.1109
▁cassie	-12.1109
▁convicted	-12.111
▁nightmares	-12.1111
pm	-12.1112
▁dismissed	-12.1113
▁assumption	-12.1117
power	-12.1117
▁behavioral	-12.1117
▁component	-12.1118
▁drowning	-12.1118
▁losses	-12.112
▁dent	-12.1124
▁manami	-12.1127
▁legally	-12.1128
▁knights	-12.1135
▁investors	-12.1142
keeper	-12.1144
▁bark	-12.1146
ograph	-12.1148
▁cri	-12.1149
▁negate	-12.1158
lating	-12.1161
▁beau	-12.1172
▁ufo	-12.1174
▁debts	-12.1175
▁promises	-12.1176
▁caspere	-12.1177
▁catholic	-12.1177
▁comparison	-12.1177
▁innovative	-12.1177
▁pursuing	-12.1177
▁reunion	-12.1177
▁outstanding	-12.1177
▁sorrow	-12.1177
▁detach	-12.1177
▁stanford	-12.1177
▁scholarship	-12.1177
▁obama	-12.1177
▁ruled	-12.1178
▁realistic	-12.1184
▁backpack	-12.1185
▁auntie	-12.1186
▁hye	-12.1191
▁encountered	-12.1194
aa	-12.1195
ear	-12.1196
▁printed	-12.1198
▁pawn	-12.1198
▁penis	-12.1199
▁lighting	-12.1206
▁crowded	-12.1206
▁kay	-12.1213
▁eli	-12.122
▁cram	-12.122
▁masters	-12.1221
▁95	-12.1221
▁pathogen	-12.1229
▁kneel	-12.1232
▁laying	-12.1234
▁overall	-12.1235
iya	-12.1238
▁invade	-12.1238
▁arrives	-12.124
hal	-12.1242
▁falcone	-12.1246
▁neutral	-12.1246
▁crisp	-12.1247
▁desmond	-12.1247
▁knives	-12.1247
▁surviving	-12.1247
▁isaac	-12.1247
▁hahaha	-12.1247
▁framework	-12.1247
▁resignation	-12.1247
▁popped	-12.1248
▁serum	-12.1248
▁coverage	-12.1251
▁2004	-12.1252
▁dated	-12.1255
▁consulting	-12.1258
▁cartoon	-12.1258
▁swallowed	-12.126
▁expense	-12.1261
▁chika	-12.1265
person	-12.1266
▁lens	-12.127
▁climbed	-12.1272
▁addy	-12.1277
uta	-12.1277
▁tha	-12.128
▁funded	-12.1281
▁forests	-12.1282
mann	-12.1283
100	-12.1284
bag	-12.1285
▁flo	-12.1288
bro	-12.1289
▁andrea	-12.129
your	-12.1293
▁sae	-12.1294
ich	-12.1296
▁hackers	-12.1296
▁rolled	-12.1301
▁blond	-12.1305
▁finn	-12.1306
▁scores	-12.1306
▁interpret	-12.1307
▁construct	-12.1308
▁cao	-12.1309
▁ammo	-12.1311
▁cruise	-12.1312
▁wu	-12.1312
▁tac	-12.1316
▁resent	-12.1317
▁sco	-12.1317
▁contribution	-12.1317
▁cyrus	-12.1317
▁elaborate	-12.1317
▁glorious	-12.1317
▁intimate	-12.1317
▁monroe	-12.1317
▁niece	-12.1317
▁offensive	-12.1317
▁reduction	-12.1317
▁dispute	-12.1317
▁inequality	-12.1317
▁pistol	-12.1317
▁debris	-12.1317
▁seigi	-12.1318
▁strikes	-12.1318
▁obsession	-12.1318
▁harness	-12.1318
▁booked	-12.132
▁hunch	-12.1321
▁vary	-12.1325
▁publishing	-12.1328
▁behold	-12.1329
▁jess	-12.1329
▁911.	-12.1334
▁tanks	-12.1335
▁les	-12.1344
▁ops	-12.1345
▁uni	-12.1347
direct	-12.1348
▁cured	-12.1348
▁defending	-12.1348
▁joo	-12.1357
▁clones	-12.1366
▁scarf	-12.1369
▁rack	-12.1369
▁mur	-12.1374
nami	-12.1378
▁gamble	-12.1382
▁exclusive	-12.1385
▁footprints	-12.1386
▁ambitious	-12.1388
▁category	-12.1388
▁dorothy	-12.1388
▁irresponsible	-12.1388
▁skywalker	-12.1388
▁sworn	-12.1388
▁jellyfish	-12.1388
▁interference	-12.1388
▁cloak	-12.1388
▁dramatically	-12.1389
▁pause	-12.1389
▁axis	-12.1389
▁disappearance	-12.139
▁dental	-12.139
▁hatake	-12.1392
▁stink	-12.1392
▁kagami	-12.1395
▁inherited	-12.1395
▁hydro	-12.1397
▁crawling	-12.1401
uff	-12.1404
▁pork	-12.1405
▁yumi	-12.1407
▁careless	-12.1412
see	-12.1417
▁freaked	-12.1418
dollar	-12.1419
▁mild	-12.1427
▁lawn	-12.1428
▁beats	-12.1429
▁calculate	-12.1441
▁nobel	-12.1443
▁lister	-12.1447
wise	-12.1455
▁alfred	-12.1456
▁guild	-12.146
▁hanamichi	-12.146
▁hypothesis	-12.146
▁pollution	-12.146
▁treason	-12.146
▁unicorn	-12.146
▁briefcase	-12.146
▁landlord	-12.146
▁cunt	-12.146
▁bingo	-12.1461
▁affection	-12.1461
▁mont	-12.1461
▁frequently	-12.1463
▁betting	-12.1464
▁boost	-12.1466
▁successor	-12.1468
▁perry	-12.1468
long	-12.1469
▁devoted	-12.147
▁asano	-12.1475
nk	-12.1475
▁armored	-12.1477
▁marines	-12.1479
▁asses	-12.1491
▁heroic	-12.1494
▁regulations	-12.1494
rov	-12.1505
▁amen	-12.1508
come	-12.1514
▁pest	-12.1514
agi	-12.1516
▁loki	-12.1517
▁requesting	-12.1523
▁norm	-12.1523
▁whales	-12.1524
▁epi	-12.1528
▁tre	-12.1529
where	-12.153
▁kidnap	-12.153
▁extinct	-12.1531
▁deciding	-12.1532
▁mycroft	-12.1532
▁errand	-12.1532
▁hotaru	-12.1532
▁genetically	-12.1533
▁extraction	-12.1533
▁detector	-12.1534
▁comin	-12.1534
▁shiny	-12.1535
▁bore	-12.1537
▁haunted	-12.1539
▁astrid	-12.1541
▁hewes	-12.1542
▁spilled	-12.1547
▁advised	-12.1552
▁feeds	-12.1552
▁addresses	-12.1553
▁predator	-12.1554
▁mushroom	-12.1554
▁educated	-12.1556
aging	-12.1558
kill	-12.156
▁batch	-12.1564
▁abel	-12.1565
▁triggered	-12.1566
▁delivering	-12.1583
▁megan	-12.1583
▁decrease	-12.1585
▁delete	-12.1585
▁difficulty	-12.1593
▁deploy	-12.1596
▁descend	-12.1596
▁mock	-12.1599
▁hans	-12.1601
▁mineral	-12.1604
▁ultra	-12.1604
▁chesapeake	-12.1604
▁crimson	-12.1604
▁detroit	-12.1604
▁disposal	-12.1604
▁fountain	-12.1604
▁jaime	-12.1604
▁mafia	-12.1604
▁splendid	-12.1604
▁striking	-12.1604
▁welfare	-12.1604
▁antenna	-12.1604
▁pension	-12.1604
▁omar	-12.1604
▁suitcase	-12.1604
▁seattle	-12.1605
▁kitten	-12.1605
▁tamura	-12.1605
▁1980	-12.1606
▁hanson	-12.1607
▁turk	-12.1607
▁investigations	-12.1607
▁spaceship	-12.1608
▁highlight	-12.1608
▁deepest	-12.161
▁kuro	-12.161
▁naga	-12.1621
▁torch	-12.1627
mile	-12.1628
hon	-12.164
▁feared	-12.1644
wo	-12.1649
ashi	-12.1655
▁raku	-12.1659
▁seize	-12.166
mus	-12.1662
shiro	-12.1663
▁boxing	-12.1665
▁justin	-12.1669
▁byebye	-12.1677
▁quarantine	-12.1677
▁rukia	-12.1677
▁transparency	-12.1677
▁simmons	-12.1677
▁isolation	-12.1677
▁togashi	-12.1677
▁encryption	-12.1677
▁arctic	-12.1677
▁insert	-12.1677
▁injection	-12.1678
▁toxin	-12.1678
▁lauren	-12.1678
▁linus	-12.1678
put	-12.1681
▁hydra	-12.1682
▁bash	-12.1688
▁daylight	-12.1689
▁shaped	-12.1696
▁tae	-12.1701
▁secondly	-12.1703
state	-12.1704
▁skilled	-12.1704
▁droid	-12.1708
usan	-12.1711
▁fractures	-12.1727
▁votes	-12.1729
▁greed	-12.1747
▁broyles	-12.1751
▁dummy	-12.1751
▁oldfashioned	-12.1751
▁pudding	-12.1751
▁switzerland	-12.1751
▁tsukishima	-12.1751
▁creek	-12.1751
▁lizard	-12.1751
▁groom	-12.1752
▁spartan	-12.1752
▁republican	-12.1752
▁harmony	-12.1754
ising	-12.1756
▁amazed	-12.1759
▁briefing	-12.1778
▁pickle	-12.1782
▁responded	-12.1785
▁cakes	-12.1786
onic	-12.179
▁shima	-12.1791
bell	-12.1801
▁fuse	-12.1807
▁sk	-12.1807
pped	-12.1811
▁atom	-12.1812
▁hitch	-12.1814
▁implement	-12.1817
▁ditch	-12.1818
link	-12.182
▁arc	-12.182
▁erm	-12.1823
▁apologizing	-12.1825
▁luggage	-12.1825
▁samantha	-12.1825
▁tuxedo	-12.1825
▁transparent	-12.1825
▁gagaga	-12.1825
▁tomb	-12.1825
▁michelle	-12.1825
▁vicious	-12.1825
▁seoul	-12.1825
▁lockdown	-12.1826
▁requirement	-12.1826
▁spies	-12.1827
▁aspects	-12.1829
▁wooden	-12.1829
▁trainer	-12.1837
▁tactics	-12.1841
▁expanding	-12.1843
▁foreigner	-12.1852
▁sca	-12.1857
▁symbols	-12.1858
▁observed	-12.1858
▁skye	-12.1862
▁treaty	-12.1864
▁alma	-12.1865
▁centre	-12.1868
▁largely	-12.187
▁mcc	-12.1871
▁goose	-12.1871
▁44	-12.188
▁provides	-12.188
▁odin	-12.1886
▁affects	-12.1891
▁haunt	-12.1892
atsu	-12.1894
▁implications	-12.1895
▁pla	-12.1895
▁nara	-12.1896
thing	-12.1899
▁alternate	-12.1899
▁greece	-12.1899
▁hector	-12.1899
▁measuring	-12.1899
▁rendezvous	-12.1899
▁sakamoto	-12.1899
▁splash	-12.1899
▁straightforward	-12.1899
▁massacre	-12.1899
▁voyage	-12.1899
▁carroll	-12.1899
▁excessive	-12.1899
▁interpol	-12.1899
▁misery	-12.19
▁commence	-12.19
▁diversion	-12.19
▁capitalism	-12.1901
▁blake	-12.1901
▁jamie	-12.1901
▁ally	-12.1902
▁brotherhood	-12.1903
▁okami	-12.1904
▁peach	-12.1907
▁airline	-12.1908
▁authorized	-12.1908
why	-12.1908
▁arrows	-12.191
▁halt	-12.1911
ben	-12.1913
▁photography	-12.1914
▁pouring	-12.1915
▁kiri	-12.1917
▁zip	-12.1919
▁reaches	-12.1921
▁consumed	-12.1924
▁ribs	-12.1928
300	-12.1929
level	-12.1931
wing	-12.1933
▁classmate	-12.1935
▁meds	-12.1935
▁ethical	-12.1943
▁overtime	-12.1949
▁margot	-12.195
11	-12.1962
ight	-12.1965
▁decides	-12.1965
▁corpses	-12.1966
▁bias	-12.1966
▁yuriko	-12.1966
▁impress	-12.1968
▁newly	-12.1968
▁classics	-12.1969
▁accidents	-12.1974
▁attribute	-12.1974
▁semester	-12.1974
▁submarine	-12.1974
▁wikipedia	-12.1974
▁squid	-12.1974
▁decima	-12.1974
▁pledge	-12.1974
▁bypass	-12.1974
▁oxford	-12.1974
▁lunatic	-12.1975
▁riddle	-12.1975
▁panties	-12.1975
▁apollo	-12.1975
▁tomoki	-12.1975
▁trafficking	-12.1976
▁revolutionary	-12.1976
▁villain	-12.1976
▁committing	-12.1976
▁spinal	-12.1979
▁deed	-12.198
▁frightening	-12.1981
▁tits	-12.1983
▁smashed	-12.1984
▁wade	-12.1985
▁flows	-12.1986
▁exceptional	-12.1986
▁miracles	-12.1988
▁powered	-12.1992
handed	-12.1993
24	-12.1994
▁rented	-12.2008
▁semi	-12.2014
nne	-12.2018
▁85	-12.202
▁electron	-12.2031
esh	-12.2031
rry	-12.2039
▁destroys	-12.2039
▁locations	-12.204
zer	-12.2042
▁tanegashima	-12.2047
▁meteor	-12.205
▁cult	-12.205
▁calendar	-12.205
▁cynthia	-12.205
▁gideon	-12.205
▁misunderstood	-12.205
▁nursing	-12.205
▁peculiar	-12.205
▁capabilities	-12.205
▁freddie	-12.205
▁scarred	-12.205
▁canyon	-12.2051
▁edition	-12.2051
▁dunno	-12.2051
▁zeus	-12.2051
▁pollen	-12.2052
▁koma	-12.2052
▁predictable	-12.2053
▁digest	-12.2053
▁dining	-12.2056
▁mustang	-12.2059
▁fitting	-12.2065
▁colored	-12.2071
▁israeli	-12.2073
▁sac	-12.2073
ump	-12.2075
▁purge	-12.2075
human	-12.2076
▁gla	-12.2078
▁rushed	-12.208
▁receipt	-12.2088
▁touches	-12.2088
uro	-12.209
▁'9	-12.2093
▁prices	-12.2099
▁initiate	-12.2108
▁prayers	-12.2108
▁surround	-12.2109
▁199	-12.211
oto	-12.211
rah	-12.2116
▁relaxed	-12.2119
▁continuous	-12.2123
▁katsura	-12.2124
▁almeida	-12.2126
▁dioxide	-12.2126
▁sprout	-12.2127
▁wheat	-12.2127
▁limitations	-12.2127
▁sustainability	-12.2127
▁bracelet	-12.2127
▁bunny	-12.2127
▁naughty	-12.2127
▁cheerful	-12.2128
▁forcing	-12.2128
▁reg	-12.2128
▁recommendation	-12.2128
▁designs	-12.2129
▁np	-12.213
▁mechanics	-12.2131
▁doomed	-12.2132
▁standby	-12.2134
▁jealousy	-12.2142
▁regions	-12.2146
▁entrepreneurs	-12.2154
▁sucked	-12.2157
eo	-12.2161
▁missy	-12.2166
ius	-12.2167
▁behaviors	-12.2167
▁occurs	-12.2167
▁forge	-12.2169
▁underestimate	-12.2185
▁disappoint	-12.2185
ousan	-12.2187
▁levi	-12.2189
▁capita	-12.2194
▁cosmo	-12.2194
▁cooler	-12.2198
gie	-12.22
▁altitude	-12.2203
▁apprentice	-12.2203
▁caitlin	-12.2203
▁computing	-12.2203
▁currency	-12.2203
▁frustrating	-12.2203
▁haqqani	-12.2203
▁hijikata	-12.2203
▁scissors	-12.2203
▁austin	-12.2203
▁assessment	-12.2204
▁breeze	-12.2204
▁greatly	-12.2204
qu	-12.2204
▁fascinated	-12.2206
▁dye	-12.2209
▁robotic	-12.221
▁colin	-12.221
▁ginsan	-12.2212
▁absorbed	-12.2216
▁pac	-12.2223
▁gou	-12.2227
million	-12.223
▁dip	-12.2233
thank	-12.2241
▁juma	-12.2241
ida	-12.2248
▁ryo	-12.2252
bly	-12.2253
oki	-12.2254
▁atoms	-12.2257
▁cher	-12.2259
▁charter	-12.2264
hen	-12.2266
▁poop	-12.2269
▁sustain	-12.2272
▁lid	-12.2272
▁inherit	-12.2273
▁conceal	-12.2273
▁scam	-12.2274
▁proves	-12.2274
▁attach	-12.2275
▁distinct	-12.228
▁amemiya	-12.2281
▁loneliness	-12.2281
▁prostitute	-12.2281
▁gibbs	-12.2281
▁tornado	-12.2281
▁fujimoto	-12.2281
▁platoon	-12.2281
threedimensional	-12.2284
▁debut	-12.2285
▁tele	-12.2289
▁reader	-12.2293
▁vicki	-12.2296
▁hull	-12.2296
▁secondary	-12.2299
▁conducting	-12.2299
▁perp	-12.2304
have	-12.2307
▁conventional	-12.2315
ae	-12.2318
mouth	-12.2319
ali	-12.232
▁hay	-12.232
okay	-12.2322
▁2003	-12.2323
▁39	-12.2325
▁youkai	-12.2326
▁mint	-12.2339
chin	-12.234
▁roses	-12.234
▁handing	-12.2343
▁resign	-12.235
▁hooker	-12.2352
▁ger	-12.2355
▁lent	-12.2357
▁astronaut	-12.2359
▁cyril	-12.2359
▁paralyzed	-12.2359
▁swiss	-12.2359
▁caesar	-12.2359
▁hiroshi	-12.2359
▁sparrow	-12.2359
▁geographic	-12.2359
▁merle	-12.2359
▁natsumi	-12.2359
▁egyptian	-12.236
▁flock	-12.236
▁elise	-12.2361
▁tsuru	-12.2361
▁chickens	-12.2362
hel	-12.2364
▁fade	-12.2364
▁reaper	-12.2365
▁fees	-12.2365
▁canvas	-12.2366
▁manufacturer	-12.2366
nar	-12.2371
▁hospitalized	-12.2372
▁counted	-12.2372
▁illustrate	-12.2374
▁mizu	-12.238
▁sane	-12.2384
▁broadcasting	-12.2386
▁recovering	-12.2387
▁dil	-12.2387
▁encouraged	-12.2393
dale	-12.2395
▁paths	-12.2397
▁howl	-12.2398
van	-12.2399
▁suv	-12.2402
▁vaccines	-12.2403
▁curtain	-12.2407
▁glove	-12.2408
▁haruko	-12.2409
gger	-12.2414
nee	-12.2418
then	-12.2422
▁suppress	-12.2429
▁characteristics	-12.2433
▁automatic	-12.2438
▁capitol	-12.2438
▁paradigm	-12.2438
▁prosthetic	-12.2438
▁sanctuary	-12.2438
▁sleeve	-12.2438
▁technician	-12.2438
▁trajectory	-12.2438
▁asteroid	-12.2438
▁conservative	-12.2438
▁roast	-12.2438
▁daisy	-12.2438
▁cooperative	-12.2438
▁judy	-12.2438
▁begged	-12.2438
▁tomoya	-12.2438
▁harmless	-12.244
▁bandage	-12.244
▁dwell	-12.2441
▁rib	-12.2444
▁lex	-12.2446
▁psych	-12.2458
▁kondo	-12.2463
▁sneaking	-12.2464
inch	-12.2464
▁sonya	-12.2464
ido	-12.2465
▁condo	-12.2466
osi	-12.2468
▁stressed	-12.2473
▁phillips	-12.2474
▁breasts	-12.2481
▁mash	-12.2481
▁refugee	-12.249
▁slam	-12.249
org	-12.2499
▁critic	-12.2503
▁slap	-12.2506
▁tricked	-12.2507
▁ec	-12.2512
▁teenagers	-12.2513
▁kagura	-12.2516
▁compensation	-12.2517
▁determination	-12.2517
▁evacuation	-12.2517
▁hercules	-12.2517
▁mmmhmm	-12.2517
▁province	-12.2517
▁temporarily	-12.2517
▁testament	-12.2517
▁clerk	-12.2517
▁temporal	-12.2517
▁granddaughter	-12.2517
▁takaoka	-12.2518
▁championship	-12.2518
▁wage	-12.2518
▁slit	-12.2518
▁ownership	-12.2518
▁exile	-12.2518
▁harper	-12.252
▁programmer	-12.2522
▁sexually	-12.2532
▁brass	-12.2536
▁flea	-12.2538
▁emerged	-12.2542
cast	-12.2544
▁arise	-12.2545
▁airi	-12.2547
▁glades	-12.2552
▁repeated	-12.2553
▁ven	-12.2556
▁replicate	-12.2558
▁warmer	-12.2565
▁miya	-12.2569
▁employ	-12.257
▁negotiation	-12.257
▁apologized	-12.257
▁peer	-12.2573
▁texting	-12.2576
▁gail	-12.2578
▁tunnels	-12.2578
▁monthly	-12.2582
bri	-12.2583
▁males	-12.2587
▁asylum	-12.2597
▁disadvantage	-12.2597
▁exotic	-12.2597
▁marijuana	-12.2597
▁pennsylvania	-12.2597
▁qualities	-12.2597
▁strategies	-12.2597
▁swimsuit	-12.2597
▁density	-12.2597
▁tedtalk	-12.2598
▁voting	-12.2598
▁luther	-12.2598
▁vomit	-12.26
▁dough	-12.2601
▁outrageous	-12.2602
▁alongside	-12.2602
▁surprises	-12.2605
▁vain	-12.2607
▁shutting	-12.2612
▁fails	-12.2612
▁rie	-12.2617
▁rug	-12.2618
▁mun	-12.2619
dou	-12.2623
▁mitsu	-12.2624
▁voted	-12.2628
▁mining	-12.2629
▁elephants	-12.2631
▁fin	-12.2633
▁drawings	-12.2635
▁elections	-12.2636
▁layers	-12.2637
atory	-12.2644
▁reminder	-12.2647
▁sour	-12.2649
▁quicker	-12.2652
▁banking	-12.2661
▁greeting	-12.2666
▁lively	-12.2666
▁pressed	-12.2674
▁blamed	-12.2676
▁chun	-12.2677
▁abort	-12.2677
▁scholar	-12.2678
▁autumn	-12.2678
▁exwife	-12.2678
▁occupied	-12.2678
▁primitive	-12.2678
▁rebellion	-12.2678
▁courtesy	-12.2678
▁scotch	-12.2678
▁okinawa	-12.2678
▁colour	-12.2678
▁donnie	-12.2678
▁marrow	-12.2678
▁flap	-12.2678
▁scanning	-12.2679
cious	-12.2679
▁untie	-12.268
▁stalking	-12.2683
▁brandon	-12.2684
▁mio	-12.2685
▁frontier	-12.2687
▁stat	-12.2687
▁gh	-12.2695
bra	-12.2697
leg	-12.2698
▁shitty	-12.2698
▁manipulated	-12.2706
▁nar	-12.271
▁jackie	-12.2712
▁masks	-12.2715
▁eliminated	-12.2715
▁terri	-12.2716
bird	-12.272
▁rotate	-12.2723
three	-12.2726
▁channels	-12.273
▁bou	-12.2734
▁operative	-12.2736
▁fragment	-12.2736
▁crop	-12.2738
wind	-12.274
rian	-12.274
▁forged	-12.2741
▁esp	-12.2745
▁dime	-12.2751
▁villa	-12.2754
▁apparent	-12.2756
▁dia	-12.2757
▁bachelor	-12.2759
▁communicating	-12.2759
▁communist	-12.2759
▁griffin	-12.2759
▁metropolitan	-12.2759
▁patriot	-12.2759
▁brigade	-12.2759
▁vivid	-12.2759
▁shinobi	-12.2759
▁spock	-12.276
▁ryou	-12.276
▁wagon	-12.276
▁brazilian	-12.276
▁archie	-12.2761
▁kamen	-12.2763
▁choir	-12.2766
▁democrat	-12.2771
▁opinions	-12.2772
▁ding	-12.2773
▁accelerated	-12.2775
poli	-12.2779
boro	-12.2782
▁duct	-12.2783
▁mop	-12.2789
▁mmhm	-12.2792
▁mikey	-12.2796
▁195	-12.2798
▁static	-12.2799
cca	-12.2803
girl	-12.2803
▁offers	-12.2803
▁beautifully	-12.2805
▁ew	-12.2807
▁longest	-12.2807
▁generated	-12.2812
▁hunted	-12.2812
▁com	-12.2813
▁artistic	-12.2814
jou	-12.2817
▁sentences	-12.2819
▁lori	-12.2822
▁visa	-12.2823
front	-12.2826
▁correspond	-12.2831
▁connects	-12.2835
▁kimi	-12.2836
▁abnormal	-12.284
▁camille	-12.2841
▁crawford	-12.2841
▁maneuver	-12.2841
▁northeast	-12.2841
▁occupation	-12.2841
▁vanessa	-12.2841
▁tutor	-12.2841
▁intervene	-12.2841
▁shaft	-12.2842
▁firewall	-12.2842
▁appointed	-12.2845
▁hence	-12.2847
▁delighted	-12.2848
▁partial	-12.2849
▁kyoko	-12.2851
▁30,000	-12.2851
stick	-12.2858
▁cellular	-12.2859
▁laughter	-12.2863
▁undergo	-12.2864
▁harmon	-12.2867
▁span	-12.2867
▁scope	-12.2868
▁undo	-12.287
hearted	-12.2872
nosuke	-12.2873
▁owed	-12.2876
▁purposes	-12.289
worth	-12.2892
gal	-12.2898
gun	-12.2901
nia	-12.2901
▁pea	-12.2902
▁prediction	-12.2907
nagi	-12.2909
▁mp	-12.2911
▁cel	-12.2912
▁est	-12.2918
▁glacier	-12.2924
▁inappropriate	-12.2924
▁independence	-12.2924
▁jyouou	-12.2924
▁monument	-12.2924
▁burrows	-12.2924
▁penetrate	-12.2924
▁unleash	-12.2924
▁kansas	-12.2924
▁saekosan	-12.2924
▁modified	-12.2924
▁referred	-12.2924
▁aizen	-12.2925
▁representation	-12.2926
▁constitution	-12.2926
▁utterly	-12.2927
key	-12.2928
▁ipod	-12.2928
▁kingdoms	-12.2929
▁villagers	-12.2931
▁offender	-12.2933
▁bubbles	-12.2936
cation	-12.2936
▁altered	-12.2937
▁gam	-12.2943
▁freaks	-12.2949
nin	-12.2952
▁suited	-12.2959
▁lions	-12.2963
▁flags	-12.2964
▁protocols	-12.2966
▁concerning	-12.2973
▁margin	-12.298
▁deceive	-12.2988
▁cent	-12.2989
▁vegetable	-12.2991
ona	-12.2993
▁blocking	-12.2995
▁infect	-12.2998
▁sid	-12.3002
▁restrict	-12.3002
▁tease	-12.3007
▁beijing	-12.3007
▁catherine	-12.3007
▁decoy	-12.3007
▁dialogue	-12.3007
▁kinoshita	-12.3007
▁numerous	-12.3007
▁satisfaction	-12.3007
▁uebaya	-12.3007
▁universities	-12.3007
▁flexible	-12.3007
▁marvin	-12.3007
▁moira	-12.3007
▁sweden	-12.3008
▁ogre	-12.3008
▁sincerely	-12.3008
▁panama	-12.3008
▁supper	-12.3009
ew	-12.3009
▁lil	-12.3011
ography	-12.3012
▁tales	-12.3014
yuki	-12.3017
▁sire	-12.3017
▁smoothly	-12.3018
▁bats	-12.3018
▁hangar	-12.3019
▁olympics	-12.3021
▁specialty	-12.3023
▁yah	-12.3026
nai	-12.3028
▁ordering	-12.3029
▁weaker	-12.3044
▁upgrade	-12.3045
ash	-12.3049
▁pike	-12.3049
ene	-12.305
▁honesty	-12.3052
▁screwing	-12.3057
▁tougher	-12.3057
▁lf	-12.3059
▁businessman	-12.306
▁visions	-12.306
▁turner	-12.3061
▁hose	-12.3064
▁treatments	-12.3072
law	-12.3076
▁olympic	-12.3077
▁disappears	-12.3078
▁slash	-12.308
▁newton	-12.3082
okun	-12.3083
▁transmit	-12.309
99	-12.3091
▁wai	-12.3091
▁barbecue	-12.3091
▁clyde	-12.3091
▁complication	-12.3091
▁dictionary	-12.3091
▁diggle	-12.3091
▁escaping	-12.3091
▁ignorance	-12.3091
▁jennifer	-12.3091
▁shepherd	-12.3091
▁surpass	-12.3091
▁billionaire	-12.3091
▁sausage	-12.3091
▁electromagnetic	-12.3091
▁kimijima	-12.3091
▁elbow	-12.3091
▁iseshima	-12.3091
▁thermal	-12.3091
▁forbid	-12.3092
▁piggy	-12.3092
▁gregson	-12.3092
▁nicole	-12.3092
▁simultaneously	-12.3092
▁juli	-12.3093
▁akari	-12.3094
▁inventory	-12.3095
▁vip	-12.3095
▁restricted	-12.3099
▁heels	-12.3099
▁freeza	-12.31
▁scenery	-12.31
▁smallest	-12.3105
▁wr	-12.3107
▁bitten	-12.311
shaped	-12.3111
▁tame	-12.3111
▁journalists	-12.3119
case	-12.3119
▁hag	-12.3119
▁slack	-12.312
▁produces	-12.3121
▁asagi	-12.3123
▁requests	-12.3123
▁robb	-12.3128
▁bg	-12.3128
style	-12.3132
smith	-12.3137
▁bennett	-12.3141
four	-12.3151
▁gee	-12.3163
body	-12.3163
▁kudo	-12.3165
▁shorter	-12.3165
▁slo	-12.317
▁akagi	-12.3173
pon	-12.3174
▁debrief	-12.3176
▁evaluation	-12.3176
▁margaret	-12.3176
▁blueprint	-12.3176
▁civic	-12.3176
▁resurrection	-12.3176
▁flashlight	-12.3176
▁domino	-12.3176
▁impose	-12.3177
▁kouji	-12.3177
▁imaging	-12.3177
▁grownup	-12.3179
game	-12.318
▁architects	-12.3186
▁cope	-12.3191
verse	-12.3192
▁rag	-12.3195
▁interrupting	-12.3201
▁desires	-12.3201
▁clearing	-12.3207
▁whack	-12.3212
▁spying	-12.3218
▁eri	-12.3218
craft	-12.3219
▁pretended	-12.322
piece	-12.322
▁circuits	-12.322
▁nno	-12.3221
▁exc	-12.3223
▁troll	-12.3226
▁ctu	-12.3227
▁avoided	-12.3227
▁shan	-12.3229
▁disorders	-12.323
▁justify	-12.3231
▁crashing	-12.3232
▁germ	-12.3238
▁linc	-12.3238
ix	-12.3239
▁strengthen	-12.324
▁fitz	-12.3241
▁restrain	-12.3247
plan	-12.3249
▁guaranteed	-12.3252
▁tips	-12.3254
▁cows	-12.3257
▁crank	-12.3258
▁stitch	-12.326
▁disgrace	-12.3261
▁astonishing	-12.3261
▁grocery	-12.3261
▁identities	-12.3261
▁omega	-12.3261
▁participation	-12.3261
▁reynolds	-12.3261
▁stephanie	-12.3261
▁vengeance	-12.3261
▁guinea	-12.3261
▁proving	-12.3261
▁sloppy	-12.3261
▁slut	-12.3261
▁postpone	-12.3261
▁fraction	-12.3261
▁sugiyama	-12.3261
▁tracy	-12.3262
▁solomon	-12.3262
▁adoption	-12.3262
▁champ	-12.3262
▁submitted	-12.3262
▁odor	-12.3263
▁overwhelmed	-12.3263
▁pathway	-12.3263
▁keyboard	-12.3264
▁roar	-12.3264
▁miho	-12.3265
▁hick	-12.3269
▁sustained	-12.327
▁honorable	-12.3271
▁peacefully	-12.3272
▁uploaded	-12.3274
▁breeding	-12.3274
▁fame	-12.3275
:30	-12.3277
▁counseling	-12.3277
illa	-12.3283
▁momo	-12.3285
▁warden	-12.3285
fold	-12.3287
▁taro	-12.3289
▁attic	-12.3291
▁receiver	-12.3295
▁badass	-12.3296
▁rainy	-12.3303
space	-12.3307
emon	-12.3309
▁var	-12.3309
▁comb	-12.3312
▁procedures	-12.3318
▁diplomatic	-12.332
▁inject	-12.3328
saki	-12.3333
▁consumers	-12.3335
▁publicly	-12.334
igan	-12.3343
▁ruth	-12.3346
▁gardner	-12.3348
▁inconvenience	-12.3348
▁integrity	-12.3348
▁mortgage	-12.3348
▁swarm	-12.3348
▁russo	-12.3348
▁southeast	-12.3348
▁titus	-12.3348
▁picnic	-12.3348
▁discount	-12.3348
▁polio	-12.3348
▁terry	-12.3348
▁aurora	-12.3348
▁fortress	-12.3348
▁mathison	-12.3348
▁woah	-12.3348
▁swap	-12.3348
▁sutter	-12.3348
▁addiction	-12.3349
▁deliberately	-12.3349
▁musicians	-12.3349
▁hush	-12.3349
▁chiba	-12.335
21	-12.335
▁danda	-12.3351
▁participants	-12.3352
▁comedy	-12.3353
▁confined	-12.3353
▁acceptable	-12.3358
▁uhoh	-12.3359
ase	-12.3362
▁sixty	-12.3362
▁slim	-12.3364
▁professionals	-12.3367
▁gai	-12.3374
chen	-12.3378
hear	-12.3378
▁khan	-12.3384
lio	-12.3385
▁flee	-12.3387
▁mira	-12.3387
▁recorder	-12.3394
▁painter	-12.3408
▁thug	-12.342
rich	-12.342
▁steer	-12.3425
▁grad	-12.3427
▁ree	-12.3431
▁historic	-12.3432
▁eyewitness	-12.3433
▁thrust	-12.3433
▁crocodile	-12.3434
▁economies	-12.3434
▁exorcist	-12.3434
▁gasoline	-12.3434
▁paradox	-12.3434
▁prosecution	-12.3434
▁puncture	-12.3434
▁triumph	-12.3434
▁origami	-12.3434
▁oyster	-12.3434
▁yummy	-12.3434
▁detonate	-12.3435
▁denial	-12.3435
▁copycat	-12.3435
▁islamic	-12.3436
▁brace	-12.3436
yard	-12.3436
▁sanada	-12.3436
date	-12.3437
▁1950	-12.3438
▁4,000	-12.3439
▁passive	-12.344
▁facedown	-12.3443
▁owl	-12.3444
▁spoiled	-12.3447
▁unexpectedly	-12.3447
▁melted	-12.3451
▁melting	-12.3455
▁pry	-12.3455
▁zu	-12.3456
▁calculated	-12.3457
▁caf	-12.3458
▁bog	-12.3461
▁sasa	-12.3462
▁calculations	-12.3465
▁lass	-12.3467
▁analyzed	-12.3468
▁reasoning	-12.3469
▁guessed	-12.3473
▁applying	-12.3473
▁rocky	-12.3477
word	-12.3481
storm	-12.3482
▁kura	-12.3485
▁offline	-12.3485
▁uk	-12.3489
▁kip	-12.3491
nick	-12.3492
▁lem	-12.3494
▁unh	-12.3496
▁kido	-12.3502
▁assemble	-12.3504
any	-12.3506
▁moo	-12.3507
rose	-12.3508
▁51	-12.351
▁gotcha	-12.3515
▁dolphins	-12.3516
▁influenced	-12.3517
▁frequent	-12.3519
▁acc	-12.3519
▁crows	-12.3519
▁darn	-12.3521
▁equip	-12.3522
look	-12.3522
▁allergic	-12.3522
▁baltimore	-12.3522
▁cautious	-12.3522
▁collision	-12.3522
▁manipulation	-12.3522
▁prophecy	-12.3522
▁proposition	-12.3522
▁structural	-12.3522
▁sunrise	-12.3522
▁threshold	-12.3522
▁wrath	-12.3522
▁cinema	-12.3522
▁escher	-12.3522
▁womb	-12.3522
▁abduction	-12.3523
▁postcard	-12.3523
▁torment	-12.3523
▁enlist	-12.3523
▁itachi	-12.3523
▁interactive	-12.3523
▁unfold	-12.3523
▁nets	-12.3523
▁salmon	-12.3523
▁bully	-12.3524
▁eyeball	-12.3525
▁hitomi	-12.3527
▁smartest	-12.3528
▁rusty	-12.3529
▁fulltime	-12.353
▁arena	-12.3532
▁deployed	-12.3532
▁blur	-12.3535
▁heroine	-12.3541
▁investing	-12.3546
▁woody	-12.3546
▁followers	-12.3549
▁pairs	-12.355
▁gel	-12.3554
▁rash	-12.3557
rig	-12.3558
▁toby	-12.3561
▁richer	-12.3566
ako	-12.3567
school	-12.3568
▁customs	-12.3571
▁spiders	-12.3576
▁loans	-12.3581
▁inspiring	-12.3582
▁mushrooms	-12.3583
conti	-12.3584
▁slum	-12.3585
▁apples	-12.3585
yoshi	-12.3595
▁accord	-12.3601
▁scold	-12.3603
▁northwest	-12.3604
▁forming	-12.3605
▁hijack	-12.3605
▁burglar	-12.3607
▁chap	-12.3609
▁amendment	-12.3611
▁encouraging	-12.3611
▁juvenile	-12.3611
▁karaoke	-12.3611
▁occupy	-12.3611
▁strategic	-12.3611
▁trinity	-12.3611
▁variable	-12.3611
▁winchester	-12.3611
▁pitiful	-12.3611
▁automobile	-12.3611
▁smack	-12.3611
▁saudi	-12.3611
▁compelling	-12.3611
▁spoon	-12.3611
▁interpretation	-12.3612
▁kaname	-12.3612
▁caroline	-12.3612
▁dumbass	-12.3612
▁hassan	-12.3613
▁shipped	-12.3615
▁shattered	-12.3617
uda	-12.3618
kie	-12.3618
▁initially	-12.3621
place	-12.3622
▁expo	-12.3623
▁millimeter	-12.3625
▁discharged	-12.3627
now	-12.3627
▁booze	-12.3628
▁outcomes	-12.363
▁sugi	-12.3635
▁tofu	-12.3636
35	-12.3639
▁coop	-12.3642
▁sweating	-12.3642
ena	-12.3645
▁burnett	-12.3645
▁punched	-12.365
▁shave	-12.365
▁farms	-12.3652
▁chairs	-12.3653
▁stra	-12.3655
walk	-12.3658
▁cracker	-12.366
cies	-12.3662
▁risking	-12.3666
▁fumi	-12.3666
▁shovel	-12.3672
▁lang	-12.3673
▁stinks	-12.3678
▁reinforcements	-12.369
▁concepts	-12.3692
▁chemist	-12.3699
▁acceleration	-12.37
▁autonomous	-12.37
▁avatar	-12.37
▁bryce	-12.37
▁carriage	-12.37
▁columbia	-12.37
▁digimon	-12.37
▁dissolve	-12.37
▁reverend	-12.37
▁trevor	-12.37
▁bernard	-12.37
▁diabetes	-12.37
▁nutrition	-12.37
▁pioneer	-12.37
▁oscar	-12.37
▁ronald	-12.37
▁sawyer	-12.37
▁akane	-12.37
▁sharon	-12.3701
▁export	-12.3701
▁owada	-12.3701
▁accessible	-12.3702
▁wax	-12.3702
▁shallow	-12.3705
▁correction	-12.3705
▁interestingly	-12.3707
▁classical	-12.3708
▁lace	-12.3712
▁momoko	-12.3713
▁significantly	-12.3714
▁dino	-12.3714
cate	-12.3716
▁emotionally	-12.3718
▁volunteered	-12.3718
▁slides	-12.3724
▁veins	-12.3726
▁specialized	-12.3729
▁negotiations	-12.373
▁demanding	-12.3741
▁claiming	-12.3745
▁hump	-12.3745
▁borrowing	-12.3749
zan	-12.3755
▁camel	-12.3758
▁lacking	-12.3759
▁aaa	-12.3762
bber	-12.3769
▁presume	-12.3771
cell	-12.3786
▁southwest	-12.3787
▁dizzy	-12.379
▁frustration	-12.379
▁gloria	-12.379
▁judith	-12.379
▁nonprofit	-12.379
▁preliminary	-12.379
▁separation	-12.379
▁separatist	-12.379
▁specimen	-12.379
▁suspension	-12.379
▁forecast	-12.379
▁machete	-12.379
▁melody	-12.379
▁randall	-12.379
▁module	-12.379
▁altogether	-12.379
▁oven	-12.379
▁snuck	-12.379
▁rebound	-12.379
▁consist	-12.379
▁turbo	-12.3791
▁ellison	-12.3791
▁prohibited	-12.3792
▁conductor	-12.3793
▁kung	-12.3793
▁pony	-12.3795
▁betrayal	-12.3795
ggy	-12.3795
▁sensory	-12.3796
▁cheeks	-12.3797
▁integrated	-12.38
▁approaches	-12.3803
▁sonny	-12.3804
pic	-12.3805
▁cellar	-12.3806
▁ranking	-12.3811
▁49	-12.3813
▁economists	-12.3814
uous	-12.3818
non	-12.382
▁engineered	-12.3822
▁mae	-12.3822
▁summoning	-12.3823
cept	-12.3823
▁refugees	-12.3824
▁arresting	-12.3826
▁fran	-12.3827
▁purchased	-12.3829
loc	-12.383
▁eco	-12.3832
▁partly	-12.3835
▁bosses	-12.3839
mmed	-12.385
▁reporters	-12.386
child	-12.3863
nor	-12.3867
▁mala	-12.3868
akisan	-12.3868
▁ruins	-12.3869
▁ref	-12.3872
▁watches	-12.3874
▁uniforms	-12.3875
▁whoop	-12.3876
▁plead	-12.388
▁prospect	-12.3881
▁birkhoff	-12.3881
▁expansion	-12.3881
▁hiccup	-12.3881
▁mermaid	-12.3881
▁spiral	-12.3881
▁grandparents	-12.3881
▁nozomi	-12.3881
▁plasma	-12.3881
▁rumour	-12.3881
▁dougami	-12.3881
▁reign	-12.3881
▁disarm	-12.3881
▁skipped	-12.3882
▁disability	-12.3882
▁serina	-12.3882
ivity	-12.3882
▁scatter	-12.3883
▁majin	-12.3883
▁2013	-12.3884
was	-12.3884
▁salon	-12.3885
▁cody	-12.3887
▁dolphin	-12.3888
▁scattered	-12.3889
▁gala	-12.3897
bbing	-12.3899
▁taller	-12.39
▁ume	-12.3911
▁earning	-12.3915
▁assaulted	-12.3919
▁attempting	-12.3921
▁comments	-12.3924
▁arguments	-12.3928
▁tearing	-12.3929
proof	-12.3933
pper	-12.3939
oli	-12.394
▁breakin	-12.3952
▁shou	-12.3956
eh	-12.3957
ough	-12.3963
▁transit	-12.3963
ao	-12.3964
▁cough	-12.3965
tell	-12.3969
▁okazaki	-12.3969
▁dilemma	-12.3973
▁sentinel	-12.3973
▁syndicate	-12.3973
▁vibration	-12.3973
responsibilities	-12.3973
▁advocate	-12.3973
▁agricultural	-12.3973
▁baratheon	-12.3973
▁bartender	-12.3973
▁clarity	-12.3973
▁elaine	-12.3973
▁orochimaru	-12.3973
▁subconscious	-12.3973
▁unacceptable	-12.3973
▁mysteries	-12.3973
▁offshore	-12.3973
▁robust	-12.3973
▁cambridge	-12.3973
▁coven	-12.3973
▁thrive	-12.3973
▁renewable	-12.3973
▁lease	-12.3973
▁hoshino	-12.3973
▁handwriting	-12.3973
▁transmitter	-12.3973
▁robbie	-12.3974
▁heartbeat	-12.3974
▁mummy	-12.3974
▁naomi	-12.3975
▁intruder	-12.3975
achan	-12.3977
▁hog	-12.3979
▁statements	-12.3979
▁gag	-12.398
▁conan	-12.398
▁fda	-12.398
▁camping	-12.3983
▁2001	-12.3983
▁talkin	-12.3984
▁chewing	-12.3987
▁cip	-12.3993
▁rises	-12.3994
▁separately	-12.3994
▁deleted	-12.3996
eight	-12.3997
▁greetings	-12.4001
tani	-12.4003
▁practiced	-12.4007
▁earl	-12.4007
▁aimed	-12.4017
▁maru	-12.4019
▁reactions	-12.402
hiro	-12.4024
▁directed	-12.4031
▁aura	-12.4031
▁sniff	-12.4032
▁pipes	-12.4037
▁wider	-12.404
omo	-12.4041
▁disable	-12.4052
▁clam	-12.4053
▁researcher	-12.4061
▁shogun	-12.4065
▁immigrant	-12.4065
▁kuramochi	-12.4065
▁cafeteria	-12.4065
▁precision	-12.4065
▁departure	-12.4065
▁shim	-12.4066
▁playground	-12.4067
▁boundary	-12.4067
▁portland	-12.4067
▁taichi	-12.4067
▁mou	-12.4067
▁improving	-12.4068
▁neil	-12.4068
▁yoshino	-12.4068
▁hanna	-12.4069
▁viable	-12.4069
▁elsa	-12.407
▁replica	-12.4071
▁armies	-12.4072
▁workshop	-12.4072
▁crate	-12.4073
▁injected	-12.4074
▁adore	-12.4078
▁2002	-12.4082
89	-12.4087
▁buster	-12.4089
▁chunk	-12.4089
▁fragments	-12.4092
▁atomic	-12.4093
▁revived	-12.4093
▁titans	-12.4095
▁weekends	-12.4095
▁wages	-12.41
wash	-12.4106
sir	-12.4112
nation	-12.4121
▁holidays	-12.4124
▁linker	-12.4139
▁accelerate	-12.414
▁dispose	-12.414
▁confuse	-12.414
▁tuck	-12.4141
iwa	-12.4144
▁exceed	-12.4149
▁michiru	-12.4158
▁audrey	-12.4159
▁devastating	-12.4159
▁ethiopia	-12.4159
▁exquisite	-12.4159
▁glimpse	-12.4159
▁hazel	-12.4159
▁mcnamara	-12.4159
▁motherinlaw	-12.4159
▁obiwan	-12.4159
▁parachute	-12.4159
▁salvation	-12.4159
▁shanghai	-12.4159
▁tulip	-12.4159
▁ebola	-12.4159
▁mahone	-12.4159
▁expelled	-12.4159
▁speculation	-12.4159
▁acute	-12.4159
▁reopen	-12.4159
▁stuart	-12.4159
▁installation	-12.416
▁sentimental	-12.416
▁noticing	-12.416
▁ipad	-12.4163
▁akiyama	-12.4163
▁refreshing	-12.4166
▁headlines	-12.4166
▁sul	-12.4166
▁employed	-12.4168
▁dependent	-12.4171
▁01	-12.4172
▁fooling	-12.4173
ional	-12.4175
▁takeda	-12.4175
▁warmth	-12.4178
▁reek	-12.4178
grove	-12.418
abi	-12.4182
▁appreciated	-12.4183
▁heel	-12.4185
ushi	-12.4186
▁pic	-12.4187
oda	-12.4194
about	-12.4195
▁catches	-12.4202
▁lookin	-12.4205
▁candles	-12.4207
▁spar	-12.4211
▁tribes	-12.4218
▁jews	-12.4218
▁masked	-12.422
▁wool	-12.4221
▁obstacles	-12.4223
▁diplomat	-12.4232
▁moe	-12.4233
▁forum	-12.4234
▁boobs	-12.4235
▁chimpanzees	-12.4237
▁thrill	-12.4237
▁andand	-12.4237
▁bossun	-12.4239
six	-12.4239
▁belongings	-12.4239
▁cm	-12.4242
rating	-12.4242
03	-12.4244
▁ami	-12.4244
▁depart	-12.4246
▁import	-12.4248
▁lasted	-12.4253
▁demographic	-12.4253
▁lesbian	-12.4253
▁katniss	-12.4253
▁magnitude	-12.4253
▁mercury	-12.4253
▁nostalgic	-12.4253
▁sylvia	-12.4253
▁verdict	-12.4253
▁inquiry	-12.4253
▁reducing	-12.4253
▁revelation	-12.4253
▁kousuke	-12.4253
▁skipper	-12.4254
▁kirisaki	-12.4254
▁marvelous	-12.4254
▁kickass	-12.4255
▁dim	-12.4255
▁pimp	-12.4255
▁pier	-12.4256
▁waist	-12.4258
▁arabic	-12.4259
▁diver	-12.4259
▁congo	-12.4259
▁muslims	-12.4262
▁presidential	-12.4262
▁permanently	-12.4263
▁tires	-12.4264
▁constructed	-12.4264
▁oak	-12.4264
▁jab	-12.4265
▁recruited	-12.4269
▁uhuh	-12.427
▁ghoul	-12.427
▁carly	-12.4271
▁ranks	-12.4274
▁attempts	-12.4276
▁developer	-12.4277
▁cousins	-12.4282
▁examined	-12.429
▁epic	-12.4291
▁prayed	-12.4292
▁upward	-12.4293
▁zen	-12.4297
▁manaka	-12.4297
▁globally	-12.4302
22	-12.4315
▁farming	-12.4316
▁moro	-12.4322
▁memo	-12.4324
▁sage	-12.4327
▁perceive	-12.433
▁ropes	-12.4332
▁indians	-12.4332
▁hehe	-12.4335
▁disrespect	-12.4338
▁hub	-12.4341
▁challenged	-12.4345
boat	-12.4347
▁destined	-12.4348
▁ethnic	-12.4348
▁narrator	-12.4348
▁reproduce	-12.4348
▁dominant	-12.4348
▁infinity	-12.4348
▁alphabet	-12.4348
▁accusing	-12.4348
▁ghana	-12.4348
▁tendency	-12.4349
▁cooling	-12.435
▁fax	-12.4352
▁tomatoes	-12.4352
▁salesman	-12.4354
▁batter	-12.4354
▁sank	-12.4355
▁poorest	-12.4357
▁dun	-12.4359
▁shinichi	-12.4362
▁athlete	-12.4368
▁archive	-12.4369
▁claws	-12.4371
▁assassinate	-12.4372
▁teaches	-12.4376
▁sued	-12.4377
▁sew	-12.4378
▁scans	-12.4382
▁bake	-12.4384
▁clo	-12.4385
▁rina	-12.4386
▁tender	-12.4396
▁rebels	-12.4398
▁utter	-12.4399
when	-12.4402
suka	-12.4407
ira	-12.4409
▁launching	-12.441
▁applause	-12.442
▁marc	-12.4422
▁ella	-12.4426
▁straighten	-12.4426
bie	-12.4427
▁bruises	-12.4431
▁von	-12.4435
▁tran	-12.4438
▁castiel	-12.4444
▁comparing	-12.4444
▁competing	-12.4444
▁craig	-12.4444
▁cylinder	-12.4444
▁genocide	-12.4444
▁indication	-12.4444
▁misfortune	-12.4444
▁primarily	-12.4444
▁caution	-12.4444
▁discretion	-12.4444
▁provision	-12.4444
▁provoke	-12.4444
▁kaede	-12.4445
▁wield	-12.4445
▁seminar	-12.4445
▁volker	-12.4445
▁prosperity	-12.4445
▁compass	-12.4445
▁kanzaki	-12.4445
▁disney	-12.4445
▁distinction	-12.4445
▁ishida	-12.4446
▁haiti	-12.4446
▁discoveries	-12.4446
▁rover	-12.4449
▁ireland	-12.4455
▁hiring	-12.4455
▁dresses	-12.4461
▁duelist	-12.4464
▁safest	-12.4465
▁junkie	-12.4465
▁delayed	-12.4466
pla	-12.4466
step	-12.4467
▁mmmm	-12.4468
▁sailing	-12.4471
▁brakes	-12.4476
▁shun	-12.4476
▁murdering	-12.448
▁snacks	-12.4492
▁premises	-12.4495
▁specially	-12.4496
▁slower	-12.4497
whispering	-12.4501
▁ohio	-12.4504
▁tate	-12.4505
▁fibers	-12.4517
▁delight	-12.4519
▁breaker	-12.452
▁iscandar	-12.4526
▁vanish	-12.4527
▁readers	-12.4531
▁cherish	-12.4534
▁unite	-12.4538
▁ranch	-12.4538
▁jelly	-12.4542
▁kuchiki	-12.4542
▁antidote	-12.4542
▁cucumber	-12.4542
▁detention	-12.4542
▁happiest	-12.4542
▁hasegawa	-12.4542
▁ignorant	-12.4542
▁milady	-12.4542
▁navigate	-12.4542
▁rainforest	-12.4542
▁rubbish	-12.4542
▁meadow	-12.4542
▁megumi	-12.4542
▁bliss	-12.4542
▁observing	-12.4542
▁opposition	-12.4542
▁sultan	-12.4542
▁righteous	-12.4542
▁productivity	-12.4542
▁cosmic	-12.4542
▁jules	-12.4542
▁pipeline	-12.4542
▁stasi	-12.4543
▁alaska	-12.4543
▁koutakun	-12.4544
▁homura	-12.4544
▁golem	-12.4544
▁luna	-12.4545
▁thou	-12.4545
▁weaknesses	-12.4548
▁yoga	-12.4549
▁lads	-12.455
▁lannisters	-12.4552
▁disappointing	-12.4554
▁41	-12.4554
▁gettin	-12.4554
▁disturbed	-12.4555
▁matthews	-12.4555
▁tasted	-12.4561
▁reflected	-12.4561
▁flatter	-12.4564
▁carrot	-12.4568
eb	-12.4569
▁jae	-12.4574
▁mick	-12.4578
mingly	-12.4579
▁chiaki	-12.4582
▁gru	-12.4584
aya	-12.4591
42	-12.4591
▁motto	-12.4592
▁dal	-12.4599
▁neuron	-12.4601
▁abused	-12.4611
▁brun	-12.4612
▁siege	-12.4618
prin	-12.4626
yuu	-12.4628
▁superhero	-12.4638
▁analyzing	-12.464
▁fingernail	-12.464
▁lantern	-12.464
▁marathon	-12.464
▁prevail	-12.464
▁mutant	-12.464
▁narcotics	-12.464
▁omelet	-12.464
▁vagina	-12.464
▁waterfall	-12.464
▁panels	-12.464
▁hayami	-12.464
▁tsunami	-12.464
▁makabe	-12.464
▁sherman	-12.464
▁admission	-12.464
▁yoshihiko	-12.464
▁whim	-12.464
▁shook	-12.464
▁copied	-12.4641
▁tramp	-12.4641
▁'90	-12.4642
▁terra	-12.4645
▁gauge	-12.4647
▁rad	-12.4653
▁kite	-12.4657
pound	-12.4657
▁joel	-12.4663
▁interacting	-12.4667
05	-12.4668
▁hormone	-12.4669
▁attacker	-12.4671
▁transported	-12.4671
▁representing	-12.4672
▁stag	-12.4675
▁errors	-12.4675
▁curtains	-12.4678
▁glen	-12.4681
▁patents	-12.4693
▁ou	-12.4705
▁tenth	-12.4707
▁interactions	-12.4709
▁lined	-12.4712
▁oppos	-12.4717
illion	-12.4721
▁thermos	-12.4721
▁assumptions	-12.4725
▁speakers	-12.4728
ifying	-12.4732
▁flick	-12.4736
▁inventor	-12.4738
▁remark	-12.4738
▁deception	-12.4739
▁kennedy	-12.4739
▁microsoft	-12.4739
▁participating	-12.4739
▁replacing	-12.4739
▁shareholder	-12.4739
▁simplicity	-12.4739
▁summarize	-12.4739
▁unemployed	-12.4739
▁unsolved	-12.4739
▁scroll	-12.4739
▁sixteen	-12.4739
▁steep	-12.4739
▁glance	-12.4739
▁stabbing	-12.4739
▁shiraishi	-12.4739
▁yamamoto	-12.4739
▁stability	-12.474
▁minimal	-12.474
▁ruling	-12.4741
▁fertilizer	-12.4741
▁bruno	-12.4743
▁affordable	-12.4745
▁imagery	-12.4746
▁boiling	-12.4754
▁homeroom	-12.4755
▁machinery	-12.4755
▁poured	-12.4755
▁sewer	-12.4758
▁noone	-12.4758
after	-12.4764
▁ahem	-12.4766
▁attended	-12.4769
▁obstacle	-12.4771
▁denying	-12.4772
▁expressed	-12.4773
▁hmmm	-12.4776
▁shields	-12.4776
▁admired	-12.4783
▁pitcher	-12.4785
▁startup	-12.4788
▁mano	-12.4789
ifies	-12.479
▁marching	-12.4796
▁incentives	-12.4801
yes	-12.4801
▁barrels	-12.4803
▁scares	-12.4806
01	-12.4811
▁raft	-12.4814
▁screening	-12.4814
tron	-12.4824
▁estimates	-12.483
04	-12.4831
will	-12.4836
▁pancakes	-12.4836
▁str	-12.4838
▁alchemy	-12.4839
▁appreciation	-12.4839
▁athletic	-12.4839
▁aubrey	-12.4839
▁despise	-12.4839
▁essay	-12.4839
▁evolving	-12.4839
▁galileo	-12.4839
▁knuckle	-12.4839
▁muppet	-12.4839
▁negotiating	-12.4839
▁rwanda	-12.4839
▁unnatural	-12.4839
▁voodoo	-12.4839
▁werewolf	-12.4839
▁miriam	-12.4839
▁pelant	-12.4839
▁temptation	-12.4839
▁handcuffs	-12.4839
▁furious	-12.4839
▁favourite	-12.4839
▁disappointment	-12.4839
▁venus	-12.4839
▁jonas	-12.484
▁cement	-12.484
▁surge	-12.484
▁ledger	-12.4841
▁veil	-12.4842
▁batman	-12.4844
kar	-12.4846
ask	-12.4849
▁ryuji	-12.4849
zuki	-12.485
▁mcgee	-12.485
▁planetary	-12.4854
▁guarding	-12.4855
fuck	-12.4856
▁kasu	-12.486
▁irene	-12.4861
▁divert	-12.4863
▁nicer	-12.4868
▁thoughtful	-12.4873
▁nemo	-12.4878
▁processed	-12.4879
▁loading	-12.4886
▁balloons	-12.4889
▁nazis	-12.4891
engine	-12.49
virus	-12.4901
▁sayid	-12.4909
▁hormones	-12.491
glo	-12.491
▁manufacture	-12.4911
▁overlook	-12.4914
tsuki	-12.4923
▁himari	-12.4924
▁tera	-12.4935
▁barb	-12.4935
▁inspect	-12.4938
▁easiest	-12.494
▁energetic	-12.494
▁feminist	-12.494
▁pentagon	-12.494
▁quarrel	-12.494
▁sierra	-12.494
▁supplement	-12.494
▁symmetry	-12.494
▁berenson	-12.494
▁uganda	-12.494
▁venom	-12.494
▁pharmacy	-12.494
▁merchant	-12.494
▁gabby	-12.494
▁yacht	-12.494
bing	-12.494
▁maester	-12.494
▁satoru	-12.494
▁sought	-12.494
▁minato	-12.4941
▁stephen	-12.4941
▁earring	-12.4941
▁norway	-12.4941
▁poisonous	-12.4942
▁format	-12.4943
▁keith	-12.4944
▁countryside	-12.4947
▁freshman	-12.4951
▁locking	-12.4952
▁researching	-12.4954
▁teme	-12.4956
▁pakistani	-12.4957
▁randomly	-12.4959
▁jew	-12.496
▁arse	-12.4964
▁bam	-12.4968
▁wy	-12.4968
▁por	-12.4971
▁iraqi	-12.4973
▁withstand	-12.4974
▁incentive	-12.4978
▁una	-12.498
▁notify	-12.4987
▁rushing	-12.4989
▁poo	-12.4992
▁losers	-12.4992
oba	-12.4996
▁erika	-12.4997
▁taki	-12.4999
▁milo	-12.5
unclear	-12.5001
00,000	-12.5007
master	-12.5015
▁mills	-12.5023
▁discharge	-12.5023
▁mourn	-12.5032
▁numb	-12.5036
▁disco	-12.5037
▁analog	-12.5038
▁swift	-12.5038
▁torpedo	-12.504
▁trump	-12.5041
▁chrome	-12.5042
▁clumsy	-12.5042
▁intensive	-12.5042
▁matobo	-12.5042
▁microwave	-12.5042
▁nobunaga	-12.5042
▁targaryen	-12.5042
▁vicinity	-12.5042
▁waving	-12.5042
▁autograph	-12.5042
▁erotic	-12.5042
▁prophet	-12.5042
▁mickey	-12.5042
▁disturbance	-12.5042
▁clinton	-12.5042
▁mitasan	-12.5042
▁establishment	-12.5043
▁lodge	-12.5043
▁preference	-12.5043
▁attraction	-12.5043
▁bru	-12.5044
▁allowance	-12.5045
▁trainee	-12.5048
▁clu	-12.5049
▁helena	-12.5051
▁considerable	-12.5052
▁differ	-12.5057
▁overload	-12.5057
▁rv	-12.5058
▁intercepted	-12.506
▁asthma	-12.5062
▁dreadful	-12.5063
▁assembled	-12.5063
▁fulfilled	-12.5064
▁coordinate	-12.5065
eur	-12.5065
▁invaded	-12.5069
▁kiddo	-12.5069
▁goodlooking	-12.5071
▁vern	-12.5075
▁leaking	-12.5075
▁onboard	-12.5075
ished	-12.5077
▁carson	-12.5083
▁weep	-12.509
▁yeo	-12.5094
▁writers	-12.5095
gene	-12.5098
▁beta	-12.51
▁whispering	-12.5101
▁coup	-12.5101
▁texted	-12.5104
▁concentrated	-12.5108
▁grounded	-12.511
▁weirdo	-12.5111
▁nat	-12.5112
▁righthand	-12.512
▁investigators	-12.5121
▁mammals	-12.5124
▁asuma	-12.5128
▁distinguish	-12.5137
▁mechanisms	-12.5139
▁assess	-12.5141
▁outrage	-12.5143
▁balcony	-12.5145
▁bulma	-12.5145
▁cerebral	-12.5145
▁composition	-12.5145
▁cradle	-12.5145
▁entitled	-12.5145
▁janitor	-12.5145
▁manipulating	-12.5145
▁obesity	-12.5145
▁tobacco	-12.5145
▁footsteps	-12.5145
▁rokka	-12.5145
▁algae	-12.5145
▁shuffle	-12.5145
▁firearm	-12.5145
▁hyuk	-12.5145
▁miharu	-12.5145
▁arson	-12.5145
▁malik	-12.5145
▁garlic	-12.5145
▁wallace	-12.5145
▁yukata	-12.5145
▁preview	-12.5145
▁impatient	-12.5146
▁loft	-12.5146
▁containment	-12.5146
▁heather	-12.5146
▁2014	-12.5147
▁morality	-12.5148
▁personalities	-12.5148
▁riki	-12.5148
▁withdrawal	-12.5148
▁niki	-12.5149
▁prevention	-12.5149
▁housekeeper	-12.515
▁sandwiches	-12.5151
▁sway	-12.5151
▁peep	-12.5151
▁dice	-12.5152
38	-12.5153
▁examiner	-12.5154
▁sarge	-12.5156
▁shira	-12.5159
▁rangers	-12.5161
▁ticking	-12.5162
▁bled	-12.5164
▁yer	-12.5165
▁expanded	-12.5166
▁hereby	-12.5167
23	-12.5168
▁regularly	-12.517
roid	-12.5173
▁louder	-12.5174
▁tossed	-12.5174
▁tightly	-12.5175
▁saki	-12.5175
▁tubes	-12.518
▁ramon	-12.5181
▁ark	-12.5195
▁boyle	-12.5202
▁instruction	-12.5204
▁chicks	-12.5217
▁simpler	-12.5222
▁rang	-12.5227
▁struggled	-12.523
▁anticipate	-12.523
▁boar	-12.5232
▁switching	-12.5233
eal	-12.5235
other	-12.5235
▁yorker	-12.5239
▁dismiss	-12.524
▁freed	-12.5241
▁sawatari	-12.5246
▁tsubaki	-12.5249
▁administrator	-12.5249
▁aluminum	-12.5249
▁arizona	-12.5249
▁armstrong	-12.5249
▁assailant	-12.5249
▁depressing	-12.5249
▁injustice	-12.5249
▁legislation	-12.5249
▁monarch	-12.5249
▁nuisance	-12.5249
▁psychiatric	-12.5249
▁registration	-12.5249
▁rehabilitation	-12.5249
▁tsukasa	-12.5249
▁tyrion	-12.5249
▁wrinkle	-12.5249
▁supplier	-12.5249
▁melanie	-12.5249
▁venue	-12.5249
▁higgs	-12.5249
▁decoration	-12.5249
▁petition	-12.525
▁sanae	-12.525
▁urine	-12.525
▁kazuki	-12.525
▁falcon	-12.525
▁compassionate	-12.5251
▁minority	-12.5251
▁hq	-12.5251
▁cobb	-12.5252
▁diverse	-12.5253
▁cmr	-12.5253
▁endangered	-12.5253
▁kinchan	-12.5254
▁volcano	-12.5254
▁rinchan	-12.5254
▁risa	-12.5257
▁flor	-12.5258
▁difficulties	-12.5259
▁shinji	-12.5261
▁wwe	-12.5262
▁jen	-12.5264
▁criticize	-12.5265
▁rna	-12.5266
▁wat	-12.5269
▁interrupted	-12.5274
yaki	-12.5274
▁hou	-12.5277
▁pip	-12.528
▁payments	-12.5281
▁tack	-12.5283
▁risked	-12.5283
▁comms	-12.5286
▁simone	-12.5289
ttle	-12.529
▁praised	-12.5291
▁shino	-12.5296
▁circumstance	-12.5298
page	-12.5307
▁900	-12.5308
▁stevens	-12.531
world	-12.5312
▁repeating	-12.5312
▁sonic	-12.5316
▁outdoor	-12.5323
▁tak	-12.5323
▁dee	-12.5324
▁cod	-12.5328
▁argued	-12.533
▁operated	-12.533
▁ping	-12.5333
▁dread	-12.5334
▁distribute	-12.5336
▁cub	-12.5338
hey	-12.5338
▁blu	-12.5343
▁lol	-12.5345
▁uncover	-12.5346
▁pupil	-12.5347
48	-12.5349
▁depths	-12.5349
▁fianc	-12.535
▁gli	-12.5352
▁dueling	-12.5353
▁categories	-12.5354
▁collateral	-12.5354
▁dictate	-12.5354
▁disobey	-12.5354
▁imperative	-12.5354
▁incompetent	-12.5354
▁likelihood	-12.5354
▁philadelphia	-12.5354
▁symphony	-12.5354
▁toothbrush	-12.5354
▁aesthetic	-12.5354
▁klein	-12.5354
▁heritage	-12.5354
▁insulin	-12.5354
▁refusing	-12.5354
▁shikamaru	-12.5354
▁mosque	-12.5354
▁bmw	-12.5354
▁shortcut	-12.5354
▁bulk	-12.5354
▁jammed	-12.5355
▁snapped	-12.5355
▁broadway	-12.5355
▁stanley	-12.5355
▁fisherman	-12.5355
▁timmy	-12.5355
▁carolina	-12.5355
▁satoshi	-12.5355
▁contestant	-12.5355
▁tidy	-12.5355
▁immortality	-12.5356
▁karin	-12.5356
▁groves	-12.5356
▁herald	-12.5357
▁logan	-12.5358
▁roam	-12.5358
▁breakdown	-12.536
▁pinkman	-12.536
▁uhh	-12.5361
▁baton	-12.5362
▁adviser	-12.5366
▁fle	-12.5368
▁crude	-12.5369
▁strangled	-12.537
▁android	-12.5372
▁char	-12.5376
▁passports	-12.5376
▁addressed	-12.5378
▁boxer	-12.5379
▁worms	-12.538
▁caster	-12.5385
▁ahhh	-12.5386
▁shizu	-12.5393
▁translated	-12.5399
▁accessed	-12.54
cular	-12.5407
400	-12.5418
sensitive	-12.542
▁waka	-12.5424
ban	-12.5428
▁misses	-12.5432
wall	-12.5439
▁congratulate	-12.544
eki	-12.5453
▁assign	-12.5454
▁casual	-12.5456
▁antarctic	-12.5457
▁uncertain	-12.546
▁humanitarian	-12.5461
▁shakespeare	-12.5461
▁amsterdam	-12.5461
▁bertram	-12.5461
▁cabbage	-12.5461
▁eileen	-12.5461
▁graffiti	-12.5461
▁hazard	-12.5461
▁irregular	-12.5461
▁pedestrian	-12.5461
▁reboot	-12.5461
▁sugata	-12.5461
▁translator	-12.5461
▁zealand	-12.5461
▁overheard	-12.5461
▁theodore	-12.5461
▁canadian	-12.5461
▁illustration	-12.5461
▁entity	-12.5461
▁oodate	-12.5461
▁remarkably	-12.5461
▁murata	-12.5461
▁earliest	-12.5461
▁evelyn	-12.5461
▁elena	-12.5461
▁plaza	-12.5461
oni	-12.5461
▁burial	-12.5461
▁occurring	-12.5461
▁opensource	-12.5462
▁factories	-12.5462
▁ayaka	-12.5462
▁arden	-12.5462
▁fluffy	-12.5462
▁cruz	-12.5462
▁haruto	-12.5463
▁spared	-12.5463
▁lobe	-12.5464
▁mil	-12.5465
▁rico	-12.5465
▁elect	-12.5465
▁stripper	-12.5465
▁instructed	-12.5465
▁inmates	-12.5467
▁payback	-12.5467
▁fon	-12.5467
▁oversee	-12.5467
▁becky	-12.5468
▁marina	-12.5469
▁zach	-12.5469
▁200,000	-12.5471
▁planner	-12.5472
kichi	-12.5479
▁grind	-12.5484
▁baked	-12.5487
▁elders	-12.5489
▁slowing	-12.5499
▁weekly	-12.55
▁condolences	-12.55
▁ngos	-12.5501
▁affecting	-12.5503
▁caller	-12.5504
▁discovering	-12.5507
▁lust	-12.5513
▁merit	-12.5514
▁quo	-12.5515
asu	-12.5515
▁regulation	-12.5516
ota	-12.5517
▁traded	-12.5518
▁hallucinations	-12.552
▁buckle	-12.552
force	-12.5522
▁eighty	-12.5532
▁vend	-12.5541
▁burner	-12.5542
nine	-12.5543
▁coworkers	-12.5544
▁athletes	-12.5545
▁bret	-12.5547
▁sofa	-12.5552
▁180	-12.5559
miss	-12.5562
▁awaken	-12.5567
▁neighbour	-12.5568
▁describing	-12.5568
▁dynamite	-12.5568
▁glamorous	-12.5568
▁invincible	-12.5568
▁javadi	-12.5568
▁reclaim	-12.5568
▁sedative	-12.5568
▁shampoo	-12.5568
▁unarmed	-12.5568
▁collide	-12.5568
▁rethink	-12.5568
▁overdose	-12.5568
▁andorian	-12.5568
▁wendy	-12.5569
▁douglas	-12.5569
▁uncertainty	-12.5569
▁lissa	-12.5569
▁perish	-12.5569
▁copyright	-12.557
▁detection	-12.557
▁terrain	-12.557
▁stitches	-12.557
▁hugh	-12.5571
▁higashida	-12.5572
name	-12.5573
▁taxation	-12.5573
▁vase	-12.5574
▁hideous	-12.5576
▁ann	-12.5576
▁nori	-12.5577
▁palmer	-12.5581
▁cowardly	-12.5585
▁perfection	-12.5586
ular	-12.5588
▁lining	-12.5589
▁dex	-12.5594
igh	-12.5594
▁dope	-12.5596
▁trends	-12.5606
lian	-12.5606
▁photographed	-12.5611
shop	-12.5614
▁sweater	-12.5614
drop	-12.5616
▁damp	-12.5619
▁noriko	-12.5619
▁inhabit	-12.5623
▁liberate	-12.5627
▁phillip	-12.5627
▁relie	-12.5627
▁sticky	-12.5628
▁chuo	-12.5629
count	-12.5637
hira	-12.5644
▁patron	-12.565
using	-12.5659
lig	-12.5661
▁hopeful	-12.5662
gio	-12.5668
▁bourbon	-12.5677
▁centipede	-12.5677
▁dimitri	-12.5677
▁discreet	-12.5677
▁dungeon	-12.5677
▁enthusiasm	-12.5677
▁humiliation	-12.5677
▁incorrect	-12.5677
▁infrared	-12.5677
▁introducing	-12.5677
▁intuitive	-12.5677
▁lestrade	-12.5677
▁migraine	-12.5677
▁optimism	-12.5677
▁otonashi	-12.5677
▁regulator	-12.5677
▁shohoku	-12.5677
▁unlimited	-12.5677
▁viktor	-12.5677
▁arcadia	-12.5677
▁regulate	-12.5677
▁soutakun	-12.5677
▁neuroscience	-12.5677
▁crunch	-12.5677
▁gogogo	-12.5677
▁chalk	-12.5677
▁scumbag	-12.5677
▁haircut	-12.5677
▁cigar	-12.5677
▁underlying	-12.5677
▁monica	-12.5677
▁morphine	-12.5677
▁kimono	-12.5677
▁attachment	-12.5677
▁journalism	-12.5678
▁organizing	-12.5678
▁viking	-12.5678
▁smartphone	-12.5678
▁kagurachan	-12.5678
▁jody	-12.5679
▁cardboard	-12.5681
▁bok	-12.5682
▁rika	-12.5683
▁amusing	-12.5686
▁sil	-12.5686
▁turing	-12.5688
▁alias	-12.5689
▁haley	-12.5689
new	-12.5694
▁confronted	-12.5694
▁glowing	-12.5694
▁seated	-12.5695
▁copying	-12.5697
▁raccoons	-12.57
fly	-12.571
▁manosan	-12.5711
▁shutter	-12.5712
▁nao	-12.5717
▁deli	-12.5721
ela	-12.5721
▁forgiven	-12.5727
▁wishing	-12.5734
▁plum	-12.5735
▁bert	-12.5738
ichiro	-12.5741
▁donate	-12.5741
29	-12.5742
▁santo	-12.575
▁azuki	-12.5756
▁shifting	-12.5758
▁kama	-12.5765
imi	-12.5766
▁aged	-12.5768
▁interrogate	-12.5768
▁infiltrate	-12.5768
▁98	-12.5769
49	-12.577
▁curl	-12.577
iling	-12.5773
▁tur	-12.5775
▁theoretical	-12.5783
▁destroyer	-12.5786
▁accompanied	-12.5787
▁ammunition	-12.5787
▁anesthesia	-12.5787
▁embryo	-12.5787
▁hesitation	-12.5787
▁irrational	-12.5787
▁pittsburgh	-12.5787
▁roosevelt	-12.5787
▁salvage	-12.5787
▁shapeshifter	-12.5787
▁mustache	-12.5787
▁retina	-12.5787
▁flank	-12.5787
▁banned	-12.5787
▁colonies	-12.5787
▁nakamura	-12.5787
▁panicked	-12.5787
▁recession	-12.5787
▁slightest	-12.5788
▁tipped	-12.5788
▁align	-12.5789
▁transferring	-12.579
▁kris	-12.579
▁ninth	-12.579
▁packet	-12.579
▁carved	-12.579
▁intentionally	-12.579
▁2015	-12.579
50,000	-12.5791
▁seno	-12.5799
▁tile	-12.5801
▁mx	-12.5805
▁seth	-12.5808
▁predictions	-12.5812
▁costa	-12.582
▁headaches	-12.5823
▁bunk	-12.5829
yamasan	-12.583
▁jade	-12.5832
▁fuller	-12.5836
active	-12.5844
lessness	-12.5845
32	-12.5848
▁slate	-12.5852
course	-12.5857
33	-12.5865
▁dart	-12.5869
▁hap	-12.588
▁slime	-12.5881
▁nora	-12.5886
▁timer	-12.5887
▁metric	-12.5894
▁realise	-12.5894
▁chihiro	-12.5897
▁faithful	-12.5897
▁transcend	-12.5898
▁thirteen	-12.5898
disciplinary	-12.5898
▁apologise	-12.5898
▁brotherinlaw	-12.5898
▁compliance	-12.5898
▁curriculum	-12.5898
▁evaluate	-12.5898
▁gcpd	-12.5898
▁lobster	-12.5898
▁phosphorus	-12.5898
▁placing	-12.5898
▁significance	-12.5898
▁spencer	-12.5898
▁syringe	-12.5898
▁watermelon	-12.5898
▁destructive	-12.5898
▁hightech	-12.5898
▁livestock	-12.5898
▁kurokouchi	-12.5898
▁stimulate	-12.5898
▁zebra	-12.5898
▁sofia	-12.5898
▁hustle	-12.5898
▁stroll	-12.5898
▁defence	-12.5898
▁reside	-12.5899
▁preferred	-12.5899
▁sensing	-12.5899
▁rukawa	-12.5899
▁cozy	-12.5899
▁kaori	-12.5899
▁shibata	-12.5899
▁squadron	-12.5899
▁cuz	-12.59
▁membership	-12.59
▁futon	-12.5901
▁slope	-12.5902
▁merge	-12.5902
▁lever	-12.5903
▁annoyed	-12.5904
▁chile	-12.5905
▁nagato	-12.5906
▁flattered	-12.5907
▁controller	-12.5908
▁whichever	-12.5911
▁hardship	-12.5914
▁amazingly	-12.5915
▁drunken	-12.5918
▁processor	-12.5921
▁freezer	-12.5921
▁complained	-12.5922
kou	-12.5923
nda	-12.5928
▁scratched	-12.5929
02	-12.5933
▁smiled	-12.5936
▁3000	-12.5937
talk	-12.594
▁measurements	-12.5941
▁jeans	-12.5947
▁hyeon	-12.5949
▁sucking	-12.5953
▁reserved	-12.5953
▁goda	-12.5954
▁weaken	-12.5954
▁towels	-12.5958
▁shirai	-12.596
▁sig	-12.5965
▁believer	-12.5967
▁ngo	-12.5976
hard	-12.5979
▁carrots	-12.598
▁cou	-12.5981
▁cuba	-12.5981
▁vp	-12.5984
▁taco	-12.5984
▁appearing	-12.5989
▁accuse	-12.5992
track	-12.5994
800	-12.5996
▁reconstruct	-12.5996
▁sentenced	-12.5998
▁hardy	-12.5998
job	-12.6
▁discard	-12.6003
09	-12.6006
▁eradicate	-12.601
▁abaddon	-12.601
▁behaving	-12.601
▁cockpit	-12.601
▁collaborator	-12.601
▁declaration	-12.601
▁exboyfriend	-12.601
▁gunvarrel	-12.601
▁immigration	-12.601
▁navigation	-12.601
▁pandemic	-12.601
▁ritchie	-12.601
▁singapore	-12.601
▁timothy	-12.601
▁unidentified	-12.601
▁unpredictable	-12.601
▁scotland	-12.601
▁evasion	-12.601
▁inferni	-12.601
▁methane	-12.601
▁saturn	-12.601
▁tywin	-12.6011
▁tyrell	-12.6011
▁railway	-12.6011
▁recreate	-12.6011
▁grabbing	-12.6011
▁aisle	-12.6011
▁ellie	-12.6011
▁bradley	-12.6011
▁gamma	-12.6011
▁acres	-12.6011
▁ferry	-12.6012
▁moonlight	-12.6012
▁deposition	-12.6012
▁portable	-12.6015
▁trey	-12.6016
▁fairies	-12.6017
▁grilled	-12.6018
▁homemade	-12.6021
▁renly	-12.6021
▁certainty	-12.6021
▁baron	-12.6021
▁severely	-12.6023
▁gaming	-12.6024
▁arya	-12.6028
▁violated	-12.6028
▁labeled	-12.6029
▁yuta	-12.6029
▁anticipated	-12.603
▁sel	-12.6035
▁entrepreneur	-12.6036
▁demonstrated	-12.6045
wick	-12.6051
▁proceeding	-12.6055
▁fare	-12.6067
bashi	-12.6069
▁biologists	-12.607
▁easter	-12.6071
action	-12.6079
▁gill	-12.608
▁gram	-12.6082
▁calculation	-12.6084
▁yun	-12.6087
▁eyebrows	-12.609
▁poorly	-12.6091
lder	-12.6098
▁donated	-12.6104
zed	-12.6104
▁diarrhea	-12.6104
▁frighten	-12.6107
▁experimenting	-12.611
ographic	-12.6111
▁augment	-12.6116
▁swell	-12.6119
▁scrub	-12.6124
▁bronx	-12.6124
▁compensate	-12.6124
▁endeavor	-12.6124
▁galactic	-12.6124
▁gibbons	-12.6124
▁glamour	-12.6124
▁hemisphere	-12.6124
▁incision	-12.6124
▁indigenous	-12.6124
▁intrusion	-12.6124
▁michigan	-12.6124
▁millennium	-12.6124
▁selfdefense	-12.6124
▁solitary	-12.6124
▁teikoku	-12.6124
▁tribute	-12.6124
▁adrenaline	-12.6124
▁thailand	-12.6124
▁governance	-12.6124
▁embarrassment	-12.6124
▁feud	-12.6124
▁typing	-12.6124
▁wildlife	-12.6124
▁deployment	-12.6125
▁stella	-12.6125
▁iceberg	-12.6125
▁spacecraft	-12.6125
▁moose	-12.6126
▁texture	-12.6126
▁underworld	-12.6126
▁poe	-12.6127
▁potter	-12.6127
▁improvise	-12.6127
▁incidentally	-12.6128
▁analogy	-12.6128
▁yuji	-12.6128
▁monamisan	-12.6129
▁healthier	-12.613
▁reconstruction	-12.613
▁popularity	-12.613
▁thorn	-12.6131
agged	-12.6131
▁ei	-12.6133
▁relaxing	-12.6135
▁oceanic	-12.6135
▁regained	-12.6139
eck	-12.614
▁ev	-12.6141
▁unlocked	-12.6141
▁masses	-12.6142
▁sham	-12.6145
▁perceived	-12.6146
roo	-12.6147
▁illegally	-12.6151
▁bumped	-12.6151
▁heavenly	-12.6155
▁irony	-12.6157
▁sherry	-12.6161
▁garrett	-12.6161
▁courageous	-12.6164
▁foe	-12.6175
▁optical	-12.6176
▁doom	-12.6176
▁tailed	-12.618
keep	-12.6183
▁privately	-12.6193
wide	-12.6196
▁provider	-12.6199
▁brake	-12.6205
▁expectation	-12.6215
▁cartoons	-12.6217
▁ee	-12.6217
▁len	-12.6218
city	-12.6228
▁understandable	-12.6229
▁brew	-12.6231
▁sheik	-12.6232
▁guarded	-12.6233
▁exponential	-12.6235
▁cockroach	-12.6237
▁activation	-12.6239
▁catastrophe	-12.6239
▁enzyme	-12.6239
▁hobbies	-12.6239
▁incomplete	-12.6239
▁railroad	-12.6239
▁recycling	-12.6239
▁sprinkle	-12.6239
▁voluntary	-12.6239
▁gymnastics	-12.6239
▁ignite	-12.6239
▁mixture	-12.6239
▁kusaka	-12.6239
▁mochizuki	-12.6239
▁warfare	-12.6239
▁prompt	-12.6239
▁beverly	-12.6239
▁canopy	-12.6239
▁ecological	-12.6239
▁hayden	-12.6239
▁transmitted	-12.6239
▁cancelled	-12.624
▁spice	-12.624
▁saddle	-12.624
▁documentary	-12.624
▁plotting	-12.6241
plo	-12.6242
▁freighter	-12.6242
▁snowden	-12.6242
▁hayes	-12.6243
▁designated	-12.6245
▁elevated	-12.6246
▁disconnected	-12.6246
▁sandra	-12.6248
lain	-12.6249
▁radically	-12.6249
▁accurately	-12.625
▁yearold	-12.625
▁resigned	-12.625
▁lego	-12.6251
▁slaughtered	-12.6254
▁verb	-12.6262
▁overlap	-12.6265
▁linear	-12.6268
▁pasta	-12.6279
▁gg	-12.6283
▁ruining	-12.6284
▁functioning	-12.6291
▁dancers	-12.6294
▁baba	-12.6298
▁updated	-12.6299
▁bor	-12.63
▁challenger	-12.6302
▁metres	-12.6303
▁waiter	-12.631
machi	-12.631
▁lancer	-12.6313
▁posters	-12.6315
efficient	-12.6315
▁predators	-12.632
▁vein	-12.6325
▁embarrass	-12.6337
nen	-12.6337
stop	-12.634
under	-12.6345
▁satisfy	-12.6345
▁keeper	-12.6349
lc	-12.6351
▁oppose	-12.6352
▁pl	-12.6354
▁sociopath	-12.6355
▁staircase	-12.6355
▁antonio	-12.6355
▁decrypt	-12.6355
▁fuzzy	-12.6355
▁hayakawa	-12.6355
▁imaginary	-12.6355
▁multiply	-12.6355
▁natasha	-12.6355
▁nutrients	-12.6355
▁tropical	-12.6355
▁kiibou	-12.6355
▁nagamine	-12.6355
▁konatsu	-12.6355
▁chancellor	-12.6355
▁mainframe	-12.6355
▁retail	-12.6355
▁settling	-12.6355
▁inhale	-12.6355
▁shiina	-12.6356
▁kindaichi	-12.6356
▁tapped	-12.6356
▁hornet	-12.6356
▁jessie	-12.6357
▁torpedoes	-12.6357
▁shige	-12.6357
nde	-12.6358
ttering	-12.6358
▁raul	-12.6358
▁fatty	-12.636
08	-12.6361
▁runaway	-12.6361
▁ninety	-12.6363
▁laden	-12.6363
▁shortage	-12.6364
▁cruiser	-12.6365
▁nessa	-12.6366
▁theatre	-12.6368
▁erect	-12.6369
▁moth	-12.6373
▁pra	-12.6378
▁downloaded	-12.6378
▁tw	-12.6379
itch	-12.638
▁stated	-12.6385
eau	-12.639
▁tickle	-12.6391
▁reina	-12.6391
lier	-12.6393
▁choke	-12.6401
▁peers	-12.6402
▁bowling	-12.6402
▁morph	-12.6406
▁gallons	-12.6407
▁prevented	-12.6409
yeah	-12.641
▁130	-12.6415
▁troop	-12.6424
eri	-12.6427
▁101	-12.6429
▁heist	-12.6431
blood	-12.6432
▁kira	-12.6437
▁delusion	-12.6439
▁economist	-12.6441
▁mitsui	-12.6444
augh	-12.6446
▁yuko	-12.6449
▁enhance	-12.6453
▁violate	-12.6454
▁isolate	-12.6454
▁smoked	-12.6459
▁disconnect	-12.6465
▁extensive	-12.6469
▁kha	-12.6469
▁excess	-12.6472
▁achilles	-12.6473
▁cathedral	-12.6473
▁devastated	-12.6473
▁generosity	-12.6473
▁kenobi	-12.6473
▁mamoru	-12.6473
▁wyatt	-12.6473
▁cossack	-12.6473
▁streak	-12.6473
▁mitchell	-12.6473
▁sensai	-12.6473
▁stiles	-12.6473
▁shirayuki	-12.6473
▁snitch	-12.6473
▁grieve	-12.6473
▁compelled	-12.6473
▁trophy	-12.6473
▁orchid	-12.6473
▁vouch	-12.6473
▁contradiction	-12.6473
▁nanny	-12.6473
▁primate	-12.6473
▁yukimura	-12.6474
▁grill	-12.6474
▁binary	-12.6474
▁swab	-12.6474
▁ryota	-12.6474
▁courtroom	-12.6474
▁earnest	-12.6475
▁performer	-12.6475
▁cnn	-12.6475
▁mindset	-12.6476
▁artwork	-12.6476
▁marx	-12.6477
▁mapping	-12.6478
▁accountable	-12.6483
▁lynn	-12.6491
▁corrupted	-12.6492
▁nodes	-12.6492
▁restraint	-12.6497
▁shatter	-12.6497
▁shaved	-12.6498
▁1.5	-12.6501
▁parkman	-12.6502
▁perverted	-12.6503
▁nailed	-12.6503
▁taku	-12.6505
▁seized	-12.6507
▁panda	-12.6507
▁sinking	-12.6508
▁paula	-12.6512
▁mixing	-12.652
▁enabled	-12.6521
▁cheng	-12.6526
roc	-12.6527
▁fab	-12.6536
▁hike	-12.6539
▁cramp	-12.6543
▁sever	-12.6544
ule	-12.6544
stand	-12.6551
degree	-12.6551
version	-12.6552
▁drip	-12.6552
▁nico	-12.6562
▁claw	-12.6565
▁filmed	-12.6569
brian	-12.6571
▁educate	-12.6573
▁memorize	-12.6573
bul	-12.6577
▁sap	-12.6578
▁yeon	-12.6579
▁starters	-12.6579
ouch	-12.6585
▁advertise	-12.6591
▁konoha	-12.6592
▁childbirth	-12.6592
▁contemporary	-12.6592
▁convoy	-12.6592
▁exaggerate	-12.6592
▁flashforward	-12.6592
▁gandalf	-12.6592
▁gwen	-12.6592
▁irritating	-12.6592
▁khaleesi	-12.6592
▁massachusetts	-12.6592
▁napoleon	-12.6592
▁qualification	-12.6592
▁spicy	-12.6592
▁applies	-12.6592
▁cabaret	-12.6592
▁vacant	-12.6592
▁utilize	-12.6592
▁captive	-12.6592
▁mandela	-12.6592
▁bookstore	-12.6592
▁infectious	-12.6592
▁duncan	-12.6592
▁stunning	-12.6592
▁surgeries	-12.6592
▁disclose	-12.6592
▁babysit	-12.6592
▁encode	-12.6592
▁tribal	-12.6592
▁priorities	-12.6592
▁bf	-12.6592
▁segawa	-12.6593
▁reiji	-12.6593
▁attendant	-12.6593
▁superstar	-12.6593
▁posting	-12.6593
▁hazuki	-12.6593
itude	-12.6593
▁janis	-12.6593
▁cad	-12.6594
▁perez	-12.6594
▁horizontal	-12.6596
▁acceptance	-12.6596
▁kendo	-12.6596
▁198	-12.6596
▁rigged	-12.6597
▁lauda	-12.6597
▁restroom	-12.6598
▁flourish	-12.6598
▁seki	-12.6599
▁hideout	-12.66
▁tailor	-12.66
▁yang	-12.66
matic	-12.6601
▁1900	-12.6604
▁robbing	-12.6606
▁newborn	-12.6607
rock	-12.6607
▁mako	-12.6608
▁seller	-12.6612
▁purely	-12.6614
▁onions	-12.6617
▁ricky	-12.6617
▁hart	-12.662
▁harp	-12.6621
uf	-12.6622
bang	-12.6623
▁takemi	-12.6625
▁operatives	-12.6626
▁kel	-12.6634
▁similarly	-12.6635
cia	-12.6636
▁maintaining	-12.6637
▁demanded	-12.6637
▁tang	-12.6637
▁cling	-12.664
▁receipts	-12.6653
horn	-12.6653
▁casting	-12.6655
▁dung	-12.6656
▁tactic	-12.6667
▁unto	-12.6669
▁syria	-12.6678
▁seti	-12.6682
lung	-12.6684
▁raccoon	-12.6686
▁archives	-12.6687
▁symptom	-12.6687
▁divers	-12.6688
ono	-12.6695
▁observer	-12.6696
pose	-12.6702
▁austria	-12.6709
▁tanaka	-12.671
▁afghan	-12.6712
▁aquarium	-12.6712
▁facetoface	-12.6712
▁frequencies	-12.6712
▁graduating	-12.6712
▁hilarious	-12.6712
▁ikebukuro	-12.6712
▁leopard	-12.6712
▁miguel	-12.6712
▁parlor	-12.6712
▁reinvent	-12.6712
▁sullivan	-12.6712
▁edith	-12.6712
▁jihad	-12.6712
▁dispens	-12.6712
▁intestine	-12.6712
▁shelves	-12.6712
▁discrimination	-12.6712
▁shred	-12.6712
▁1,500	-12.6712
▁generating	-12.6712
▁popcorn	-12.6712
▁descendant	-12.6713
▁otto	-12.6713
▁truce	-12.6713
▁jfk	-12.6713
▁mitsuki	-12.6713
▁largescale	-12.6713
▁winston	-12.6714
▁accusations	-12.6715
▁planting	-12.6715
▁8,000	-12.6716
▁sept	-12.6717
▁carmine	-12.6718
▁inaba	-12.6718
▁shaman	-12.6719
▁chili	-12.6719
▁gland	-12.6719
▁bedtime	-12.672
▁nickel	-12.6721
▁asap	-12.6721
▁highend	-12.6722
▁tray	-12.6722
▁cries	-12.6723
▁jackass	-12.6724
▁chapel	-12.6725
▁councilman	-12.6726
▁polo	-12.6728
▁artifacts	-12.6729
▁58	-12.673
▁addicted	-12.6731
▁shingo	-12.6732
▁sling	-12.6733
▁artie	-12.6733
▁kamo	-12.6734
▁actively	-12.6735
▁widely	-12.6735
▁usagi	-12.6737
hoe	-12.6739
▁buses	-12.674
▁kano	-12.6751
aco	-12.6756
▁bac	-12.6757
▁revealing	-12.6758
▁acknowledged	-12.6763
▁wheeler	-12.6765
▁identifying	-12.6775
▁bureaucrat	-12.6775
▁preventing	-12.678
▁heating	-12.6783
▁wan	-12.6784
▁koi	-12.6785
▁millennia	-12.6788
maybe	-12.6794
▁pon	-12.6811
▁ingredient	-12.6812
▁knot	-12.6813
▁watts	-12.6814
stein	-12.6817
▁prostate	-12.6822
▁sonar	-12.6822
▁neglect	-12.6826
▁gifted	-12.6826
▁faked	-12.6827
▁roller	-12.6829
▁kaya	-12.6829
▁inferior	-12.6834
▁acquainted	-12.6834
▁blizzard	-12.6834
▁briarcliff	-12.6834
▁cinderella	-12.6834
▁fireflies	-12.6834
▁grievous	-12.6834
▁handkerchief	-12.6834
▁hobbes	-12.6834
▁prejudice	-12.6834
▁recognise	-12.6834
▁relentless	-12.6834
▁scarecrow	-12.6834
▁substance	-12.6834
▁surrogate	-12.6834
▁synthesize	-12.6834
▁velocity	-12.6834
▁whistling	-12.6834
▁whitaker	-12.6834
▁wilderness	-12.6834
▁closure	-12.6834
▁narvik	-12.6834
▁seventeen	-12.6834
▁console	-12.6834
▁tolerance	-12.6834
▁ferris	-12.6834
▁tobias	-12.6834
▁eject	-12.6834
▁payroll	-12.6834
▁kiyomori	-12.6834
vascular	-12.6835
▁thigh	-12.6835
▁bidding	-12.6835
▁radioactive	-12.6835
▁liability	-12.6835
▁orientation	-12.6835
▁tsukiko	-12.6835
▁marketplace	-12.6835
▁foreman	-12.6835
▁yates	-12.6835
▁trustworthy	-12.6835
▁tread	-12.6835
58	-12.6836
▁wright	-12.6836
▁unrelated	-12.6836
▁rotation	-12.6837
▁shunin	-12.6837
▁dooku	-12.6838
▁calvin	-12.6838
▁undertake	-12.6843
▁hijacked	-12.6845
▁1800	-12.6847
▁curb	-12.6848
▁'8	-12.685
▁kyou	-12.6852
▁trooper	-12.6853
pack	-12.6856
▁knots	-12.6857
▁kisses	-12.6861
▁traits	-12.6865
▁sloan	-12.6866
▁declined	-12.6883
▁scrape	-12.6885
▁blaze	-12.6886
▁banging	-12.6892
▁privileged	-12.6899
gard	-12.6903
▁wick	-12.6908
▁gaudi	-12.6909
▁mastermind	-12.691
▁robe	-12.6913
etal	-12.6916
▁exchanged	-12.6917
writer	-12.6917
rank	-12.6925
▁vin	-12.6929
pop	-12.693
▁wesen	-12.6933
▁koto	-12.6934
▁yak	-12.6938
cake	-12.6948
▁cone	-12.6952
▁kuma	-12.6953
▁celebrated	-12.6954
▁biodiversity	-12.6958
▁default	-12.6958
▁inclined	-12.6958
▁inevitably	-12.6958
▁mobility	-12.6958
▁obscure	-12.6958
▁trembling	-12.6958
▁tsunade	-12.6958
▁unforgivable	-12.6958
▁unofficial	-12.6958
▁utility	-12.6958
▁diminish	-12.6958
▁donnelly	-12.6958
▁editing	-12.6958
▁extremis	-12.6958
▁wellknown	-12.6958
▁slick	-12.6958
▁ultrasound	-12.6958
▁architectural	-12.6958
▁maejima	-12.6958
▁chorus	-12.6958
▁descent	-12.6958
▁circulation	-12.6958
▁darcy	-12.6958
▁yokoshima	-12.6958
▁preschool	-12.6958
▁takumi	-12.6958
▁ballistics	-12.6958
▁flipped	-12.6958
▁rimmer	-12.6958
▁tighten	-12.6958
▁stun	-12.6958
▁authorization	-12.6958
▁westeros	-12.6958
▁cooperating	-12.6959
▁civilized	-12.696
▁sidewalk	-12.696
▁weaver	-12.6961
▁viewers	-12.6961
▁takano	-12.6961
▁casing	-12.6961
▁splitting	-12.6962
▁spur	-12.6962
▁quad	-12.6962
note	-12.6964
▁skeptical	-12.6965
▁crooked	-12.6965
▁scratches	-12.6966
▁tee	-12.6967
▁fsa	-12.6968
▁scolded	-12.6969
eating	-12.6971
▁tina	-12.6974
▁isabel	-12.6974
▁jose	-12.6975
▁emp	-12.6976
turn	-12.6978
▁evac	-12.6981
▁thankfully	-12.6983
▁usb	-12.6984
▁hospitality	-12.6987
▁naoko	-12.6989
▁handler	-12.699
▁decker	-12.6993
dai	-12.6993
cross	-12.7003
▁marsh	-12.7005
▁likewise	-12.7012
ended	-12.7012
▁ibm	-12.7016
huh	-12.7017
ava	-12.7024
▁mathematicians	-12.7027
▁commonly	-12.7031
▁comeback	-12.7032
▁severed	-12.704
▁mir	-12.7041
90	-12.7042
▁53	-12.7046
▁chuckles	-12.7046
▁hutch	-12.7049
▁scu	-12.7051
▁trader	-12.7057
▁cer	-12.7058
risk	-12.7061
▁exp	-12.7062
▁motivate	-12.7064
▁loosen	-12.7065
▁crook	-12.7075
▁suspend	-12.7075
ement	-12.7076
▁sachi	-12.7077
000	-12.7078
▁paste	-12.7081
▁catalog	-12.7082
▁stereo	-12.7082
▁sticker	-12.7082
andahalf	-12.7083
▁biscuit	-12.7083
▁collaborative	-12.7083
▁completion	-12.7083
▁deficit	-12.7083
▁equity	-12.7083
▁extraordinarily	-12.7083
▁gadget	-12.7083
▁grease	-12.7083
▁nonetheless	-12.7083
▁probable	-12.7083
▁proposing	-12.7083
▁sunglasses	-12.7083
▁unfinished	-12.7083
▁gerald	-12.7083
▁secrecy	-12.7083
▁tokugawa	-12.7083
▁bosnia	-12.7083
▁helium	-12.7083
▁kruger	-12.7083
▁ebay	-12.7083
▁africanamerican	-12.7083
▁depict	-12.7083
▁athena	-12.7083
▁steward	-12.7083
▁notorious	-12.7083
▁1984	-12.7083
▁persist	-12.7083
corn	-12.7084
▁1999	-12.7084
▁doorstep	-12.7085
▁popping	-12.7085
▁profitable	-12.7086
▁kimura	-12.7086
▁felony	-12.7086
▁sammy	-12.7088
▁beginner	-12.7088
▁debra	-12.709
▁glu	-12.709
▁bp	-12.7093
▁aspiration	-12.7095
▁concealed	-12.7095
▁porch	-12.7099
▁stranded	-12.71
▁yelled	-12.7101
▁resistant	-12.7102
▁flown	-12.7102
▁ethics	-12.7109
▁publisher	-12.7111
▁seor	-12.7116
▁concluded	-12.7122
▁redeem	-12.7122
▁superpower	-12.7123
▁accidental	-12.7123
▁luv	-12.7129
▁peru	-12.7146
▁verbal	-12.715
▁barge	-12.7151
▁cracking	-12.7152
round	-12.7155
▁110	-12.7158
▁lag	-12.7167
▁defender	-12.7168
bridge	-12.717
mission	-12.7172
ude	-12.7175
▁mandi	-12.7175
close	-12.7176
spiring	-12.7178
▁speeding	-12.7183
▁thr	-12.7186
▁ghouls	-12.7186
▁devote	-12.7191
clean	-12.7192
fro	-12.7197
every	-12.7201
▁cornered	-12.7204
▁bol	-12.7204
▁audit	-12.7209
▁specialize	-12.7209
▁slot	-12.7209
▁baghdad	-12.7209
▁behaviour	-12.7209
▁dopamine	-12.7209
▁intensity	-12.7209
▁krypton	-12.7209
▁lloyd	-12.7209
▁nurture	-12.7209
▁paralysis	-12.7209
▁prostitution	-12.7209
▁residue	-12.7209
▁lizzie	-12.7209
▁refrain	-12.7209
▁glitch	-12.7209
▁nitrogen	-12.7209
▁taiwan	-12.7209
▁imitate	-12.7209
▁plunge	-12.7209
▁mainstream	-12.7209
▁johann	-12.721
▁expectancy	-12.721
▁edgar	-12.721
▁mardon	-12.721
▁powell	-12.721
▁tagged	-12.721
▁oppa	-12.721
▁kuroko	-12.721
▁drugged	-12.7211
▁shiki	-12.7212
▁peeta	-12.7212
▁globalization	-12.7213
▁theoretically	-12.7213
▁resurrected	-12.7214
▁regretted	-12.7214
▁silva	-12.7215
▁cobra	-12.7216
▁2020	-12.7216
▁bowman	-12.7218
▁misty	-12.7219
▁underway	-12.7224
fun	-12.7224
▁beforehand	-12.7225
▁azusa	-12.7225
▁australian	-12.7228
▁enhanced	-12.7229
▁naru	-12.7232
▁kii	-12.7232
▁lookout	-12.7233
▁jang	-12.7235
▁observers	-12.7238
▁flashy	-12.7238
▁goodnight	-12.724
▁delusions	-12.7244
▁somalia	-12.7246
ously	-12.7246
▁relieve	-12.7249
▁drn	-12.7249
gasps	-12.7259
▁lifting	-12.7278
story	-12.7281
▁dunk	-12.7283
▁locally	-12.7285
iron	-12.7285
▁heated	-12.7288
▁zap	-12.729
▁til	-12.729
fuse	-12.7312
▁surf	-12.7318
▁calmly	-12.7327
▁wink	-12.7333
▁phenomena	-12.7333
▁vera	-12.7337
▁pilgrim	-12.7337
saurus	-12.7337
▁cricket	-12.7337
▁pixel	-12.7337
▁reluctant	-12.7337
▁segment	-12.7337
▁abdomen	-12.7337
▁aggression	-12.7337
▁calligraphy	-12.7337
▁emerald	-12.7337
▁entropy	-12.7337
▁gigantic	-12.7337
▁jeopardy	-12.7337
▁leukemia	-12.7337
▁liaison	-12.7337
▁lydia	-12.7337
▁minnesota	-12.7337
▁rhyme	-12.7337
▁smuggling	-12.7337
▁uneasy	-12.7337
▁bronze	-12.7337
▁boast	-12.7337
▁wylie	-12.7337
▁onstage	-12.7338
▁maroni	-12.7338
▁wildlings	-12.7338
▁stewart	-12.7338
▁buffet	-12.7338
▁fungus	-12.7338
▁sideways	-12.7338
▁exposing	-12.7338
▁clutch	-12.7338
▁reload	-12.7338
▁pinpoint	-12.7338
▁natsuki	-12.7338
▁relic	-12.7338
▁colorado	-12.7338
▁ashley	-12.7339
▁crappy	-12.7339
▁spotlight	-12.7339
▁filmmaker	-12.7339
▁bugger	-12.7339
▁cathy	-12.7339
▁considerably	-12.7339
▁delusional	-12.7339
▁roland	-12.7339
▁kern	-12.734
▁filing	-12.734
▁hah	-12.7341
▁handgun	-12.7342
▁progressive	-12.7342
▁testified	-12.7342
▁gau	-12.7344
▁spiderman	-12.7345
▁yong	-12.7346
▁freeway	-12.7347
▁warhead	-12.7349
▁tron	-12.7351
▁della	-12.7351
▁dominated	-12.7353
▁converted	-12.7357
▁ounce	-12.736
▁morita	-12.7361
▁headline	-12.7363
▁folded	-12.7365
▁sato	-12.7366
▁realised	-12.7368
▁gases	-12.7371
grunts	-12.7377
▁mechanic	-12.7378
▁builder	-12.7381
fest	-12.7385
▁grams	-12.7386
▁transporting	-12.7388
▁donkey	-12.7391
▁hatsu	-12.7414
▁sip	-12.7416
▁shifted	-12.7416
illo	-12.742
oya	-12.7426
▁danced	-12.7434
▁wand	-12.7441
ancy	-12.7453
▁heartbreak	-12.7465
▁paw	-12.7466
▁dismantle	-12.7467
▁accelerating	-12.7467
▁battalion	-12.7467
▁bleach	-12.7467
▁caribbean	-12.7467
▁catastrophic	-12.7467
▁cavalry	-12.7467
▁chopsticks	-12.7467
▁consensus	-12.7467
▁faculty	-12.7467
▁gandhi	-12.7467
▁infirmary	-12.7467
▁jerome	-12.7467
▁mandarin	-12.7467
▁particulate	-12.7467
▁receptor	-12.7467
▁santiago	-12.7467
▁snail	-12.7467
▁vienna	-12.7467
▁bathtub	-12.7467
▁seatbelt	-12.7467
▁anomaly	-12.7467
▁melinda	-12.7467
▁adachi	-12.7467
▁leslie	-12.7467
▁libby	-12.7467
▁propane	-12.7468
▁distinctive	-12.7468
▁constantine	-12.7468
▁goldfish	-12.7469
▁accountability	-12.7469
▁nominate	-12.7469
▁sugimurasan	-12.7469
▁diana	-12.7469
▁unload	-12.747
▁crest	-12.747
▁motherfucking	-12.747
▁tuco	-12.747
▁marika	-12.747
ibility	-12.7472
▁sakuragikun	-12.7472
▁upsetting	-12.7473
▁continuously	-12.7473
▁slay	-12.7474
▁iceland	-12.7474
▁richest	-12.7475
▁nuke	-12.7477
▁sled	-12.7477
▁tenant	-12.7478
▁profoundly	-12.7479
▁stumbled	-12.7479
▁marvel	-12.7486
▁infiltrated	-12.7489
▁grav	-12.749
▁realization	-12.7491
▁kal	-12.7492
▁traumatic	-12.7494
▁crosses	-12.75
▁gras	-12.7504
odle	-12.7505
▁upstate	-12.7509
▁blooming	-12.751
▁morale	-12.7514
▁transforming	-12.7515
▁hun	-12.7516
boo	-12.7518
▁pup	-12.7532
▁limo	-12.7532
28	-12.7534
▁aroma	-12.7538
aaa	-12.7539
lac	-12.7545
▁000	-12.7555
▁lj	-12.7557
laughing	-12.7558
osa	-12.7561
▁simplest	-12.7562
glass	-12.7564
▁rhythmic	-12.7569
ppy	-12.7573
▁allah	-12.7576
▁guided	-12.758
▁disgust	-12.7581
▁itchy	-12.7585
idal	-12.7589
▁refresh	-12.7589
▁cardio	-12.7592
▁accusation	-12.7596
▁whil	-12.7597
▁ancestor	-12.7597
▁alchemist	-12.7599
▁anatomy	-12.7599
▁arrogance	-12.7599
▁controversial	-12.7599
▁dauntless	-12.7599
▁envious	-12.7599
▁farragut	-12.7599
▁frodo	-12.7599
▁imminent	-12.7599
▁junpei	-12.7599
▁microbial	-12.7599
▁probation	-12.7599
▁ralph	-12.7599
▁selfdefence	-12.7599
▁subpoena	-12.7599
▁swollen	-12.7599
▁vertigo	-12.7599
▁transcript	-12.7599
▁unaware	-12.7599
▁jeffrey	-12.7599
▁jennings	-12.7599
▁akashi	-12.7599
▁arkham	-12.7599
▁vinci	-12.7599
▁bankruptcy	-12.7599
▁tinker	-12.7599
▁awaiting	-12.7599
▁tanokurakun	-12.7599
▁salute	-12.7599
▁commute	-12.7599
▁dissect	-12.76
▁mailbox	-12.76
▁kagame	-12.76
▁rambo	-12.76
▁alvin	-12.76
▁juliette	-12.76
▁mishima	-12.76
▁hughes	-12.7601
▁posture	-12.7602
▁chatting	-12.7602
▁hinami	-12.7602
▁countdown	-12.7602
▁trek	-12.7602
▁vibe	-12.7602
▁maryland	-12.7602
▁headmaster	-12.7603
▁kaga	-12.7603
▁alcoholic	-12.7603
▁bolton	-12.7603
▁diapers	-12.7603
▁wrench	-12.7604
▁lime	-12.7604
▁rattle	-12.7604
▁checkpoint	-12.7604
▁thompson	-12.7604
▁colorful	-12.7605
▁supportive	-12.7609
▁uncovered	-12.7609
▁ruthless	-12.7609
▁awaits	-12.761
▁mario	-12.7611
▁bakery	-12.7611
range	-12.7611
▁kata	-12.7612
▁steering	-12.7613
▁nato	-12.7614
▁horny	-12.7615
▁anzai	-12.7616
ochi	-12.7616
▁mayday	-12.7616
▁delightful	-12.7622
▁conditioning	-12.7637
▁mach	-12.7642
▁usage	-12.7642
▁potte	-12.7648
▁overhead	-12.7666
▁milli	-12.7666
▁enthusiastic	-12.7672
▁calories	-12.7685
▁linking	-12.7685
angle	-12.7691
people	-12.7692
worm	-12.7697
▁socially	-12.7697
▁83	-12.77
▁orient	-12.77
order	-12.7704
▁tal	-12.7707
▁gladly	-12.771
▁stefan	-12.7711
▁karate	-12.7717
block	-12.7729
▁sakai	-12.773
▁jefferson	-12.7732
▁bloke	-12.7732
▁decepticon	-12.7732
▁doughnut	-12.7732
▁neanderthal	-12.7732
▁waffle	-12.7732
▁yanagawa	-12.7732
▁accuracy	-12.7732
▁adequate	-12.7732
▁administrative	-12.7732
▁astronomer	-12.7732
▁camouflage	-12.7732
▁cindy	-12.7732
▁concussion	-12.7732
▁consecutive	-12.7732
▁contagious	-12.7732
▁cunning	-12.7732
▁exhusband	-12.7732
▁geometry	-12.7732
▁georgie	-12.7732
▁hitandrun	-12.7732
▁lurking	-12.7732
▁uzumaki	-12.7732
▁automated	-12.7732
▁faggot	-12.7732
▁detour	-12.7732
▁kathy	-12.7732
▁lipstick	-12.7732
▁murray	-12.7732
▁edison	-12.7732
▁duration	-12.7733
▁napkin	-12.7733
▁jonah	-12.7733
▁attendance	-12.7733
▁shoutmon	-12.7734
▁1998	-12.7734
▁suzuna	-12.7734
▁madara	-12.7735
▁rewrite	-12.7735
duce	-12.7736
▁kiba	-12.7737
▁mainland	-12.7738
▁kenchan	-12.7743
▁darkest	-12.7747
▁richie	-12.7748
▁refined	-12.775
dec	-12.7751
▁judged	-12.7755
▁asuna	-12.7755
char	-12.7758
▁sweeping	-12.7759
rl	-12.7764
coat	-12.7764
▁liza	-12.7772
▁outlaw	-12.7772
▁ruby	-12.7783
bou	-12.7814
▁rese	-12.7815
▁arabia	-12.7817
▁pok	-12.782
▁presenting	-12.7831
beat	-12.7834
bank	-12.7839
▁hoop	-12.7842
▁interviewing	-12.7849
▁59	-12.785
▁nag	-12.785
▁bluff	-12.7858
▁sparta	-12.7866
▁ogi	-12.7866
phil	-12.7867
▁marshmallow	-12.7867
▁parkinson	-12.7867
▁acoustic	-12.7867
▁almighty	-12.7867
▁buffalo	-12.7867
▁claudia	-12.7867
▁cushion	-12.7867
▁federation	-12.7867
▁friction	-12.7867
▁fundraiser	-12.7867
▁heavier	-12.7867
▁hockey	-12.7867
▁inhibit	-12.7867
▁lorraine	-12.7867
▁membrane	-12.7867
▁monsignor	-12.7867
▁oxytocin	-12.7867
▁presumably	-12.7867
[...]
